#version: 0.2
a n
t h
i n
o n
m a
e n
c h
t i
o r
t o</w>
m a</w>
e r
w a
th e</w>
d o</w>
e d</w>
g i</w>
a r
a l
e r</w>
u o
o u
n e</w>
r e
i s
y o</w>
g i
k a
m o
in g</w>
h o
a t</w>
e s
n o
n i</w>
o f</w>
m an
g ’
an d</w>
i t
e n</w>
k a</w>
i n</w>
i s</w>
o n</w>
e s</w>
n y
b e
g o</w>
a s
c h</w>
a t
e l
J e
i l
or e</w>
Je ho
Jeho v
r o
d i
k o</w>
r i
d e</w>
ma r</w>
o r</w>
o s
o m
ch i
j o
h a
th at</w>
a n</w>
a y
w a</w>
al o</w>
l e</w>
v e</w>
m i
w e
k en
ti m
o d</w>
o k</w>
w h
i r
l o
a m
o d
r a
u on
l y</w>
h e</w>
l i
y o
th e
m on
h i
n i
uo m</w>
g e</w>
N y
u s</w>
u r
t e
w e</w>
k e
n g’
u s
ken do</w>
a l</w>
Jehov a</w>
r uo
man o</w>
Ny as
a ti
w o</w>
ay e</w>
Nyas aye</w>
ka ka</w>
d h
t h</w>
o l
’ s</w>
b e</w>
u n
s i
k uom</w>
an y
a b
Jehov a
d e
in y
u l
h is</w>
mon do</w>
o p
c e</w>
ou r</w>
or o</w>
o k
l e
s e
s t
f or</w>
r is
it h</w>
be do</w>
ar e</w>
ch o</w>
e l</w>
c on
k in
er s</w>
p e
l d</w>
a c
a k
d u
er e</w>
h e
a p
ma g</w>
w or
t s</w>
mo ko</w>
yo u</w>
wa r
i t</w>
in g
w ith</w>
Jehova h</w>
p ar
W h
mi yo</w>
ch e</w>
n e
tim o</w>
wa s</w>
d o
ir o</w>
ruo k</w>
a s</w>
no t</w>
on e</w>
gi ma</w>
en o</w>
il l</w>
p ro
a d
ka mano</w>
w uo
n o</w>
b iro</w>
c om
t r
i m
g h
ou ld</w>
re s
en t</w>
e x
e v
w ill</w>
wa cho</w>
o g
k on
a h
th er</w>
s a
t a</w>
m e
y u
ati on</w>
a r</w>
ha ve</w>
an g’
y i
m oro</w>
ny alo</w>
Y es
Yes u</w>
du to</w>
an o</w>
b er</w>
s u
an d
j o</w>
ka ta</w>
G od</w>
es us</w>
c i
r e</w>
J esus</w>
v i
ou t</w>
w in
p uon
i b
t ed</w>
p in
gi k</w>
ro m</w>
dh i</w>
T he</w>
C h
en de</w>
u ma</w>
u d
u t</w>
g o
is o</w>
s p
c an</w>
on s</w>
k e</w>
ch u
iny a</w>
i r</w>
ah inya</w>
e go</w>
t e</w>
j i</w>
u l</w>
ti on</w>
f rom</w>
M uma</w>
er o</w>
p er
t er</w>
b y</w>
ris to</w>
l a
en y</w>
k od</w>
g a
d war
d a
pin y</w>
on y
ou n
wh o</w>
a d</w>
b ed</w>
an g</w>
ke ch</w>
e yo</w>
at a</w>
s o</w>
chi el</w>
ny a
a ch
we che</w>
os e
f or
B ib
the ir</w>
wh at</w>
f e
es s</w>
K ata</w>
k i
ti yo</w>
v er
the y</w>
Ch ris
al l</w>
l u
di er</w>
Bib le</w>
f a
an e</w>
ng’ a
Wh at</w>
k od
hi m</w>
kin de</w>
t er
J o
os e</w>
ka ma</w>
m e</w>
w ere</w>
e m
H o
man a</w>
d is
gh t</w>
it y</w>
b ende</w>
P a
y a</w>
w i</w>
ma ber</w>
e ar
on o</w>
k o
jo ma</w>
hi g
en d
a chiel</w>
wa ch</w>
s om
T h
G od
ing s</w>
God ’s</w>
th o</w>
h el
t u
f i
gi n</w>
w i
g re
th is</w>
y our</w>
s e</w>
ha d</w>
s er
t a
q u
ni kech</w>
ma n</w>
d on
ng’a to</w>
v er</w>
f e</w>
N e</w>
uon g</w>
par o</w>
yu do</w>
in e</w>
re c
man g’
at e</w>
el o</w>
op le</w>
s h
s el
er a</w>
e t</w>
a ch</w>
ma l
the m</w>
es s
ch un
ab out</w>
ho w</w>
u m
s t</w>
I n</w>
i yo</w>
t ing</w>
pe ople</w>
v ing</w>
J o</w>
Ho w</w>
on g</w>
o w
c t</w>
w ould</w>
al ly</w>
ma k
h ’s</w>
w o
di d</w>
i e</w>
e f
d er</w>
J ok
w any
m y</w>
yi e</w>
e p
mo r</w>
I s
an s</w>
p re
p l
mang’ eny</w>
puon j
any is
d s</w>
Jehova h’s</w>
m in
Jok risto</w>
k any
am e</w>
b u
an g
i th
wh en</w>
v ed</w>
v es</w>
ti m</w>
win j
tim e</w>
nya ka</w>
th ers</w>
m is
chu ny
K uom</w>
ha s</w>
ur e</w>
on g’
ma r
us t</w>
Chris ti
ny iso</w>
d uong</w>
uo l
kod a</w>
ou s</w>
on ego</w>
an t</w>
t en
ang’ o</w>
anyis i</w>
us e</w>
ul o</w>
l en
ni ya</w>
mo miyo</w>
dwar o</w>
w on
c l
ma y</w>
wa ch
th ose</w>
wa n</w>
p a
ou r
li fe</w>
T o</w>
o f
en ce</w>
d er
1 5</w>
n a
r anyisi</w>
t in
yo wa</w>
f ul</w>
tr u
en ts</w>
y e</w>
W e</w>
ti e</w>
h er</w>
dh ano</w>
p or
ol o</w>
k no
g h</w>
or i
do m</w>
b ut</w>
R e
d es
1 2</w>
o b
wuo yo</w>
hel p</w>
Is ra
i d</w>
B e</w>
H e</w>
kin d
o ther</w>
o m</w>
wa y</w>
r u
A ng’
dh o</w>
K a</w>
di ko</w>
ou gh</w>
n gima</w>
m il
i a</w>
it u
n ess</w>
l a</w>
s hi
c a
g in
com e</w>
te m
p le</w>
ch a
t o
Ang’ o</w>
lo yo</w>
p en
j a
ny im
1 1</w>
on ge</w>
N o
am o</w>
1 0</w>
p res
og ore</w>
e g
1 9
en d</w>
i ri
b o
S at
ab le</w>
kany ak
at ed</w>
iny alo</w>
i ch</w>
wany alo</w>
1 4</w>
p o
m ore</w>
win jo</w>
sp ir
e m</w>
a v
d ed</w>
or a</w>
e p</w>
w s</w>
en g</w>
os i
p i
dwar ore</w>
som e</w>
lo ve</w>
k uo
ni gi</w>
chi wo</w>
j i
he ar
G i
mo k
kanyak la</w>
ch o
ke to</w>
ma chi
B e
man e</w>
D a
Pa ulo</w>
c ri
es t</w>
b ro
f ir
1 3</w>
il l
b o</w>
an ce</w>
w ore</w>
t ak
E n</w>
a h</w>
ex am
il y</w>
a dier</w>
a g
ma t
kon yo</w>
al so</w>
p r
a f
go od</w>
w an
len do</w>
chun y</w>
ti ch</w>
ri cho</w>
el y</w>
t ra
m ent</w>
man y</w>
uol o</w>
ti c
is e</w>
man ie</w>
Sat an</w>
ti ons</w>
it e</w>
d ing</w>
in i</w>
sh ould</w>
an i</w>
an s
le ar
ma moko</w>
Isra el</w>
o bedo</w>
ca use</w>
ay s</w>
ng’ eyo</w>
sa ma</w>
d ore</w>
jo moko</w>
per s
on eno</w>
w en
mal er</w>
es e</w>
M ar
f ul
be en</w>
ng’ at</w>
lu wo</w>
na de</w>
S a
ma ke</w>
o we
en t
su ch</w>
puon j</w>
k ing</w>
n d
iri t</w>
an a</w>
ma duong</w>
wor k</w>
n eno</w>
n gi
e i
en c
h o</w>
u p</w>
ac c
il e</w>
gre g
b l
o bed</w>
M ano</w>
i f</w>
N i
th ings</w>
h ero</w>
tim ore</w>
K a
mo loyo</w>
T i
sel f</w>
P e
g u
at h</w>
t ri
jo go</w>
f er
1 7</w>
Pa ul</w>
spir itu
no wacho</w>
con greg
1 6</w>
Wh en</w>
sp irit</w>
p ri
do es</w>
c ould</w>
ud i</w>
h u
s pe
g no</w>
shi p</w>
o t</w>
p la
Jo h
wa d
hig a</w>
ni tie</w>
ith in
ol d</w>
I t</w>
en e</w>
a ge</w>
re s</w>
e gi</w>
ati ons</w>
el l</w>
p h
da k</w>
f am
o gi</w>
an i
uon go</w>
won go</w>
ch op
m i</w>
nyim e</w>
th uolo</w>
e t
ang’ e</w>
ne ed</w>
ma ch
th an</w>
chi eng</w>
T he
al u
o thers</w>
1 8</w>
n ed</w>
A n
wuo n</w>
K ing
ken de</w>
f in
k ed</w>
ch il
iny ruo
s in
l amo</w>
te k</w>
da y</w>
ha p
m b
ny ithin
th ing</w>
King dom</w>
ma ge</w>
ur u</w>
man y
g r
ti es</w>
o wa</w>
K risto</w>
e ko</w>
st r
we yo</w>
lo w</w>
ev en</w>
kon yowa</w>
ki k</w>
m u
a y</w>
k u
fa ith</w>
kin d</w>
winj ore</w>
0 0</w>
ch and
sa id</w>
p od</w>
j e</w>
1 9</w>
k oro</w>
congreg ation</w>
oun d</w>
chop o</w>
W or
cha ko</w>
an y</w>
fir st</w>
Wh y</w>
r o</w>
ev er
th o
re as
h i</w>
e k</w>
2 0</w>
th ere</w>
e che</w>
a di
B ut</w>
it s</w>
exam ple</w>
ear s</w>
ti j</w>
w eny</w>
E re</w>
i d
o ver
lo w
Christi an</w>
e ma</w>
Christi ans</w>
m o</w>
F or</w>
d re
A s</w>
g a</w>
eg ni</w>
c er
s he</w>
tr y</w>
wor ld</w>
ear th</w>
I n
2 0
J er
n ony
t le</w>
o ver</w>
I f</w>
t en</w>
e w</w>
and a</w>
m or
as t</w>
n ess
p os
wuo k</w>
c c
n ing</w>
al i
mak are</w>
y ears</w>
pl es</w>
o te</w>
f el
in to</w>
don go</w>
h ar
n on
W uo
p olo</w>
y s</w>
ar i
P inyruo
spiritu al</w>
g eno</w>
fam ily</w>
te gno</w>
v en</w>
t y</w>
S om</w>
th en</w>
w n</w>
k ane</w>
The y</w>
o t
p ok</w>
a k</w>
ma ok</w>
Re ad</w>
o u</w>
it ness
as s
ti n</w>
ne w</w>
om o</w>
f ol
ga dier</w>
am ora</w>
ka achiel</w>
b r
chu th</w>
th ese</w>
l l</w>
ch ok
l ed</w>
ou ra
s te
M a
se e</w>
mo p
ma de</w>
cri p
t ers</w>
N g’
y ore</w>
ach ing</w>
ro ho</w>
b le</w>
he av
li ke</w>
O miyo</w>
ka wo</w>
ap os
pr ay
r it
com p
c ame</w>
uo l</w>
h era</w>
on y</w>
T his</w>
be ing</w>
ev er</w>
m ust</w>
t ur
re l
be cause</w>
mo tegno</w>
be yo</w>
ou s
i k
we ver</w>
C hi
wh ich</w>
f ac
st ud
w ho
a m</w>
L u
por t
kno w</w>
p on
Y ou</w>
on ly</w>
Chris t</w>
tak e</w>
op ogore</w>
d ho
yo gi</w>
th r
gi ve</w>
b ra
si g
od hi</w>
an do</w>
th er
p ra
con si
ow n</w>
itness es</w>
2 1</w>
J oneno</w>
is h
ar y</w>
il i
c tion</w>
ma tek</w>
per i
wa ys</w>
R uo
yo go</w>
yi ero</w>
me do</w>
adi era</w>
dre n</w>
p u
c ar
is i
2 4</w>
b ang</w>
machi elo</w>
un der
og anda</w>
ong’ eyo</w>
hear t</w>
2 2</w>
th ough</w>
ra ch</w>
en ti
k wa
s ays</w>
om bo</w>
c es</w>
bro thers</w>
be li
in v
som e
ruo ge</w>
is h</w>
gi moro</w>
o be
h er
sel ves</w>
mil uongo</w>
ar iyo</w>
w ell</w>
on es</w>
g’ o</w>
g en
at er</w>
uo r</w>
f ri
a ther</w>
ke tho</w>
ma re</w>
pro p
a ga
y ing</w>
tim es</w>
owe te</w>
al s</w>
k are</w>
hig ini</w>
n ono</w>
hig ni</w>
chil dren</w>
hel p
c re
W itnesses</w>
ma g
kuo m
c ts</w>
at es</w>
ow er</w>
i l</w>
wor ds</w>
wa r</w>
ko de</w>
mok wongo</w>
s ul
— ⁠</w>
ti ve</w>
po in
on wa</w>
c ul
s ani</w>
min is
tru e</w>
fa ith
os o</w>
mo se
kind a</w>
p e</w>
mi ght</w>
ki do</w>
o l</w>
W ach</w>
mo n</w>
ma tin</w>
wo ko</w>
Th at</w>
ma beyo</w>
Ni kech</w>
s ho
be come</w>
di f
re e</w>
te ko</w>
j ust</w>
c oun
ok ang</w>
t ure</w>
fe ct</w>
crip tu
J ak
us ed</w>
re f
mop ogore</w>
on al</w>
z ed</w>
k elo</w>
i c
k an
d i</w>
od ay</w>
s al
em o</w>
af ter</w>
dis ci
wa l
v en
si on</w>
we ch
th in
re g
no w</w>
ma go</w>
ur ing</w>
ji wo</w>
qu es
k s</w>
it ed</w>
tho th</w>
o go</w>
M at
B ang</w>
be f
w ang’
mo t
Da vi
e d
res pon
we do</w>
st and
2 3</w>
mar ri
m en</w>
wen yo</w>
di c
nd alo</w>
J ose
war d</w>
in ter
kin de
in ed</w>
v an
I sa
Joh n</w>
n g
y i</w>
vi ce</w>
a b</w>
de ath</w>
ta in</w>
s en
bef ore</w>
J a
Da udi</w>
re ad
on g
om e</w>
w u
en g
mu ch</w>
at ing</w>
K ane</w>
c ted</w>
puonj ore</w>
re ad</w>
o ch
yu d</w>
ka r</w>
no timo</w>
en ore</w>
jo y</w>
b en
n ame</w>
ri gh
o ko</w>
i g
tru th</w>
f o
p ur
om iyo</w>
An d</w>
ken d</w>
im port
e ach</w>
2 5</w>
lo k
s is
in de</w>
yu dore</w>
j e
chun g</w>
Wor d</w>
tem o</w>
a wa</w>
rec ei
G in</w>
a u
uon j
d h</w>
no miyo</w>
yi en</w>
ver y</w>
u p
b ur
S criptu
p ile</w>
de c
alu wore</w>
winj ruok</w>
prop he
on do</w>
Sa ma</w>
ma dier</w>
c al
ex peri
tim be</w>
3 0</w>
y oun
A l
any alo</w>
ri to</w>
gre at</w>
nony iso</w>
s how</w>
re li
on e
H e
D o</w>
an other</w>
u r</w>
faith ful</w>
tin u
ac k</w>
M os
fol low
ar o</w>
lear n</w>
fe el</w>
t wo</w>
Ruo th</w>
t ly</w>
p iny
mo st</w>
ou ght</w>
ne e
i m</w>
R o
pro vi
many alo</w>
pre ci
ok alo</w>
wa bed</w>
n or
ke ep</w>
c our
ny is
p o</w>
ngi ma
as e</w>
C on
C ha
mat ut</w>
al ity</w>
m er
Davi d</w>
minis try</w>
man s</w>
thr ough</w>
ch wo</w>
d ers</w>
us al
fin d</w>
Jer usal
machi egni</w>
f t</w>
wach no</w>
oura g
as i
ti v
j ony
pen jo</w>
om i</w>
p p
con tinu
Z ab</w>
di e
f u
z e
d al
e ther</w>
ch en
apos tle</w>
puon jo</w>
ser ve</w>
n a</w>
ab ur
s ir
om i
e e</w>
f ound</w>
M ondo</w>
g ombo</w>
w ono</w>
yo t</w>
s ing
ir e</w>
O N
Jerusal em</w>
we gi</w>
pro mis
r an
or y</w>
o lo
man yien</w>
ma richo</w>
v el
stud y</w>
o wuon</w>
s ti
p ach
a ka</w>
M A
jo puonj
z e</w>
o chi
wh y</w>
l weny</w>
pers on</w>
ma rach</w>
w ang</w>
chuny wa</w>
2 8</w>
P ro
s y
ma biro</w>
kno w
el i
Ho wever</w>
wh ere</w>
hi m
par t</w>
em ent</w>
c o
par ents</w>
wa ko</w>
, 0
l es</w>
N diko</w>
ke t</w>
t end
abur i</w>
ho ly</w>
O n
ka e</w>
da m</w>
ans w
um i</w>
mi ri
a yo</w>
ruo k
l uor</w>
som o</w>
d woko</w>
him self</w>
min d</w>
en do</w>
ci al</w>
ap ti
import ant</w>
youn g</w>
t oday</w>
il ity</w>
F ather</w>
righ te
h ou
d ha
A dam</w>
s ac
ta in
wad wa</w>
Ka ka</w>
o tim</w>
be t
se che</w>
sa y</w>
chuny e</w>
g ra
s o
ku we</w>
S o</w>
m ents</w>
e i</w>
k uon
e ge</w>
R umi</w>
pe k</w>
ti ende</w>
o biro</w>
wi th
r i</w>
mi ga
gi momiyo</w>
war o</w>
mo winjore</w>
le t</w>
ep e</w>
li t</w>
c u
non diko</w>
ni go</w>
ma thoth</w>
b ang’e</w>
st and</w>
p le
ben ef
O ne</w>
i biro</w>
L a
ri eko</w>
pla ce</w>
g et</w>
g es</w>
bl ess
rel ati
vi ew</w>
jo tich</w>
s ed</w>
Pe tr
ma la
e wa</w>
A f
am bo</w>
t ro
me ans</w>
in c
in st</w>
a de
Petr o</w>
in ted</w>
ti yogo</w>
f wenyo</w>
pre aching</w>
ri ght</w>
w ruok</w>
t i</w>
c al</w>
hu man</w>
al wor
Ti mo
h on
dis c
consi der</w>
wor ship</w>
kon y</w>
,0 00</w>
r y</w>
cour se</w>
chi ke</w>
s he
t old</w>
mo g
c le
M es
l s</w>
M us
an o
s ur
ne ver</w>
ful ly</w>
Pinyruo th</w>
kuom gi</w>
ro te</w>
r ing
be do
w rote</w>
ori wo</w>
m s</w>
aga inst</w>
acc ep
mach on</w>
c k</w>
ar a</w>
it es</w>
b wo</w>
lo ch</w>
ny ing</w>
str eng
Pe ter</w>
l ong</w>
s on</w>
ne ws</w>
se t</w>
2 7</w>
i ah</w>
ac t</w>
heav en
man gima</w>
do ing</w>
b apti
O k</w>
Af ter</w>
w uon
chen ro</w>
th y</w>
wa biro</w>
l ing</w>
ap pro
W eche</w>
wa tim</w>
t al
gi go</w>
M ana</w>
ser vice</w>
ni e</w>
T ho
ch an
b i</w>
on egi</w>
ma dongo</w>
disci ples</w>
s ame</w>
2 6</w>
res ul
gi ven</w>
chi k</w>
Mus a</w>
p h</w>
w ant</w>
ar d</w>
wor d</w>
in g’
p ut</w>
p t</w>
lo y
y wa
2 9</w>
tin g’o</w>
gi ko</w>
pe ct</w>
ent ly</w>
a ce</w>
K i
3 1</w>
chand ruok</w>
si ko</w>
Isa iah</w>
kod gi</w>
ap ar</w>
st ru
3 3</w>
wi fe</w>
chuny gi</w>
si ble</w>
l is
kuon de</w>
r ed</w>
L i
li ve</w>
o de</w>
h in
ch al</w>
be came</w>
M i
ny al</w>
ch al
van ts</w>
wu oro</w>
ri fi
or in
b or
: ⁠</w>
w r
l it
kuo me</w>
N a
di rec
fri end
S am
sul a</w>
p s</w>
ser vants</w>
k okalo</w>
in cl
ex pres
Joh ana</w>
ou t
kany achiel</w>
Y ah
ang u
pa in
ok ony
fel low</w>
o die
su p
and s</w>
e ar</w>
our selves</w>
me dore</w>
g an</w>
ho pe</w>
ga ve</w>
e mi
we th</w>
Isra el
ch ak
w ise</w>
b re
o yie</w>
Scriptu res</w>
th i
reli gi
ati s
od i</w>
T im
le d
hap p
s in</w>
di k</w>
fel t</w>
A t</w>
kan yo</w>
wa l</w>
v is
p iyo</w>
Yah udi</w>
ti j
ti end</w>
nyithin do</w>
bur a</w>
to o</w>
me m
B y</w>
K inde</w>
d ays</w>
ap preci
ho me</w>
re ma
ose bedo</w>
l ando</w>
d uring</w>
s k
p ose</w>
d ra
know led
d gi</w>
ef ore</w>
e ch</w>
ap p
S ome</w>
K ar</w>
chi en</w>
D ani
y a
di vi
ar ly</w>
sac rifi
no se
bu il
ti je</w>
l ess</w>
l ater</w>
m ed</w>
ke th
k aluwore</w>
Gi ma</w>
sup por
on i</w>
Z aburi</w>
lo ko</w>
s la
f ill
o cc
on ed</w>
o winjore</w>
c y</w>
t re
g ro
K ap
ur y</w>
dec isi
ano inted</w>
Jak risto</w>
tur n</w>
v il
ol u
ad uong</w>
who m</w>
y one</w>
wa timo</w>
miga wo</w>
ma mor</w>
L o
the l</w>
bo ok</w>
A yu
ik ore</w>
l angu
su b
3 2</w>
s ure</w>
us b
of ten</w>
Ayu b</w>
su f
is e
ever y</w>
mok alo</w>
ch alo</w>
p osi
a way</w>
dho k</w>
el ders</w>
man yo</w>
un d
many iso</w>
ade k</w>
Be thel</w>
ro mo</w>
S u
we te
v e
nya th
marri age</w>
pray er</w>
go yo</w>
don jo</w>
ti c</w>
ma ri
st ar
ka po</w>
es a</w>
S ul
mon ego</w>
it ate</w>
hu mans</w>
J i</w>
mi yowa</w>
for t</w>
ch on</w>
g inyalo</w>
tic le</w>
re qu
be gan</w>
a do</w>
h usb
b le
Mos es</w>
D e
ar u
S on</w>
ma kende</w>
p i</w>
O ur</w>
w and
k it</w>
enc ourag
b ack</w>
ar ticle</w>
e ka</w>
K ing</w>
w rit
l and</w>
is t
di e</w>
fe el
or d</w>
am ong</w>
l wedo</w>
c ir
J ud
pe ace</w>
p ower</w>
o timo</w>
chi ko</w>
pra c
b ol
kinde gi</w>
Dani el</w>
w ed</w>
an go</w>
os t</w>
inv ol
dif fer
li ving</w>
beli ev
ter i
as k</w>
un der</w>
pi one
j an
chi r</w>
ti ce</w>
W anyalo</w>
kwa yo</w>
b a</w>
un ity</w>
bu ge</w>
no chako</w>
mak ing</w>
U n
lo ving</w>
ur rec
pr in
of f
20 0
fu ture</w>
tin do</w>
l ero</w>
H is</w>
c ked</w>
ex pla
dha ko</w>
sti ll</w>
pers onal</w>
t el
per fect</w>
mo wal</w>
w is
oun t</w>
ti eko</w>
c an
do wn</w>
v o
o hero</w>
k one</w>
ap pe
d in</w>
E N
res urrec
ent ury</w>
pain ia</w>
ten e</w>
n diko</w>
l er</w>
R i
P ar
I bra
th s</w>
ka mago</w>
bro ther</w>
S t
Ibra him</w>
or i</w>
L et</w>
J an
se l</w>
ng’ wono</w>
mem ber</w>
S he</w>
no yudo</w>
s itu
te ach
le t
di v
stand ing</w>
ra l</w>
t og
A bra
wa dhi</w>
fa ce</w>
pos sible</w>
n enore</w>
c entury</w>
M any</w>
wand u</w>
wa t
ques tions</w>
ay ing</w>
knowled ge</w>
at ten
m es
m be</w>
al ways</w>
w ing</w>
kin g
hou se</w>
e y
N ge</w>
y ear</w>
mi ch</w>
lo ok</w>
g olo</w>
divi du
sa ge</w>
qu ali
or s</w>
gi ving</w>
N ew</w>
y or</w>
en i</w>
g ani
or der</w>
help ed</w>
B ende</w>
4 0</w>
W at
ish ed</w>
fac t</w>
et ings</w>
e th</w>
H i
incl ud
d en</w>
gin g’
tr ans
h and</w>
gi dhi</w>
te m</w>
O n</w>
mach alo</w>
ma ko</w>
Th ere</w>
th ree</w>
ser ving</w>
m selves</w>
Abra ha
wech ego</w>
in ing</w>
h um
tic al</w>
A s
heav en</w>
ni mar</w>
I s</w>
mo s</w>
b li
mo go</w>
h al
chi egni</w>
Ni tie</w>
x t</w>
pin je</w>
Ti m</w>
in dividu
ful l</w>
du c
bo th</w>
coun sel</w>
si b
con cer
Pinyruo dh</w>
puonj ruok</w>
p ar</w>
ou gh
wh ile</w>
thin k</w>
the mselves</w>
su cc
r in
me mb
j al</w>
ch ne</w>
J os
wo gi</w>
up on</w>
o ci
On ge</w>
Ma th
alwor a</w>
poin t</w>
uo k</w>
ta yo</w>
Th en</w>
ki awa</w>
T H
sal m</w>
res s</w>
j ud
es t
Math ayo</w>
K endo</w>
r ans
T ich</w>
o ti
chal len
mal o</w>
A n</w>
m it
l as
ver s
tog ether</w>
relati on
3 4</w>
no k
nee ded</w>
l ess
g g
Cha k
with out</w>
pro ble
as ed</w>
si em</w>
ngima wa</w>
j ati
some thing</w>
ng’ a</w>
ngi mane</w>
me etings</w>
pen j
ill us
am in
G re
w el
v alu
M y</w>
or gani
b or</w>
k i</w>
benef it</w>
Mat the
o tho</w>
chok ruoge</w>
as ked</w>
op en
miri ambo</w>
com ing</w>
W ith</w>
chi emo</w>
re ally</w>
ous ly</w>
to ok</w>
oura ge</w>
Ny alo</w>
Y es</w>
d eli
ud ore</w>
lok ruok</w>
Be do</w>
st an
pri vil
on i
lear ned</w>
c or
sh are</w>
ring ruok</w>
l ong
h ere</w>
experi ence</w>
pur pose</w>
od y</w>
m p
fa ther</w>
av o
Y et</w>
we ch</w>
Jose f</w>
reas on</w>
on a</w>
cl ose</w>
ong’ o</w>
p esa</w>
heaven ly</w>
ev id
es ts</w>
Kap o</w>
J u
Is a</w>
under stand</w>
to ward</w>
prin ci
ti tu
m wa
k al
cal led</w>
as e
E ven</w>
Israel ites</w>
l es
man kind</w>
Matthe w</w>
d one</w>
consi der
i ce</w>
P salm</w>
no bedo</w>
l ony</w>
mo ch
kon yi</w>
mes sage</w>
mar gi</w>
husb and</w>
chand ruoge</w>
nyim ine</w>
ma piyo</w>
nd al
n um
titu de</w>
in y</w>
f al
disc us
c are</w>
u el</w>
ne go</w>
mo ved</w>
mala i
mi g
g l
D o
ho wever</w>
a i</w>
o p</w>
j us
enc es</w>
E li
ma yot</w>
jo ge</w>
o wacho</w>
jony uol
ja ote</w>
er o
3 7</w>
pers on
k alo</w>
w ill
jo mamoko</w>
as sig
e ve</w>
3 5</w>
chun o</w>
ak e</w>
B ab
ny al
m wandu</w>
ha ving</w>
c la
Con si
gi bed</w>
c t
wo wa</w>
o ke
n ong’eyo</w>
g ruok</w>
e f</w>
og end
a go</w>
Lu ka</w>
. E</w>
b est</w>
C .E</w>
h or
wi cked</w>
ka pok</w>
is t</w>
fi d
continu e</w>
apos t
Ki k</w>
e do</w>
de ter
b er
pu bli
righte ous</w>
ei g
wis dom</w>
r ene</w>
langu age</w>
u ni
pro te
jo dongo</w>
relation ship</w>
mo medore</w>
g od
br ing</w>
mo ther</w>
ma in
l oso</w>
bu g</w>
P er
suppor t</w>
si de</w>
g iny
wa k</w>
w ang’e</w>
happ y</w>
b ad</w>
I N
N e
odie chieng</w>
o timore</w>
Consi der</w>
re ve
kon yogi</w>
jo ot</w>
bapti zed</w>
ar ing</w>
ab i</w>
fi ed</w>
in d
fi cul
Sam uel</w>
g ed</w>
N o</w>
od on
lo ved</w>
he al
g ar
some one</w>
ser i
n er</w>
el s</w>
ag ra
W a
M is
Gi k</w>
shi pp
in f
ch ang
c um
mak ore</w>
des ire</w>
com man
R u
gi timo</w>
dif ficul
ri wruok</w>
p ris
ay a</w>
lu oro</w>
fer ing</w>
os en
wad gi</w>
ra ti
resul t</w>
con fid
a ve</w>
Mar i
Jo ma</w>
no chiwo</w>
g ero</w>
ny in
l ast</w>
ho ld</w>
answ er</w>
n ment</w>
ass oci
ous ness</w>
las ting</w>
ful fill
ey es</w>
win j</w>
cho p</w>
us i
S ee</w>
mat ter</w>
ma teri
it ness</w>
ing ly</w>
li k
C H
A N
le ad</w>
y ed</w>
par agra
at u
a ko</w>
sis ters</w>
jo od
aga in</w>
piny ni</w>
ne i
st ri
recei ve</w>
pres ent</w>
er ed</w>
don g</w>
hap s</w>
de vel
Lu ke</w>
reg ul
t es</w>
ok e</w>
con du
K e
di ed</w>
ci ally</w>
l d
k or
gen er
B u
no keto</w>
le ad
Be cause</w>
Chris t
ony alo</w>
B ang’e</w>
5 0</w>
ka w</w>
c ro
a dhi</w>
ob o</w>
ak ing</w>
H ib
pra y</w>
osi ep
ony iso</w>
f y</w>
c en
a to</w>
Jose ph</w>
D onge</w>
avo id</w>
M o
A ll</w>
ma dwarore</w>
cho ol</w>
le mo</w>
k new</w>
he ad</w>
A b
we en</w>
read y</w>
Abraha m</w>
il i</w>
de ed</w>
A r
y our
gi e</w>
chuny a</w>
chi er</w>
P en
ou b
nyath i</w>
ke do</w>
in i
ero kamano</w>
ap poin
am es</w>
res pect</w>
osi ep</w>
fol low</w>
com es</w>
s ci
me an
ef ul</w>
ze ki
sa w</w>
Jak obo</w>
us ing</w>
u m</w>
r wako</w>
gin i</w>
en joy</w>
ang a</w>
ab er</w>
Ny aka</w>
y or
don gruok</w>
spe ak</w>
differ ent</w>
w era</w>
o yudo</w>
ma sir
friend s</w>
ste m</w>
z ation</w>
te aching</w>
s ing</w>
memb ers</w>
ev il</w>
des cri
P ar</w>
w on</w>
tu ally</w>
ro were</w>
ci ent</w>
Jo b</w>
o tim
li ves</w>
jony uol</w>
He bre
di tion</w>
bet ween</w>
ar s</w>
mi ye</w>
wa bedo</w>
situ ation</w>
ar i</w>
recei ved</w>
g weth</w>
j al
har d</w>
f ine</w>
W e
Y our</w>
Tho se</w>
Chi k</w>
tu wo</w>
thin king</w>
r ul
marri ed</w>
i ye</w>
T I
wo man</w>
kno wn</w>
ex c
ar ed</w>
an ’s</w>
read ing</w>
in spir
gi wegi</w>
un o</w>
rema in</w>
cha k</w>
sy stem</w>
lik ely</w>
ka l</w>
jo lu
de mon
pro ve</w>
can not</w>
M al
re at
re ali
ran ia</w>
nee ds</w>
og a</w>
kon o</w>
d ok</w>
A cts</w>
wang’ eyo</w>
is a</w>
dal a</w>
cir cum
Hib rania</w>
rati ro</w>
ng’a ma</w>
j ap
c ity</w>
Th ese</w>
ref le
lo cho</w>
chuny i</w>
R apar</w>
A mer
lear ly</w>
d hi
chil d</w>
f re
wach ni</w>
n s</w>
me an</w>
dis t
fo c
fi c
Tim o</w>
sin go</w>
jopuonj rene</w>
F rom</w>
1 0
pu bl
B ro
wuo tho</w>
winj ruok
ha b
ar r
ste ad</w>
le ft</w>
uon g’
im itate</w>
follow ing</w>
u gh
ruo th</w>
for m</w>
c ou
wi ye</w>
w ent</w>
follow ers</w>
di chwo</w>
wan ted</w>
the o</w>
feel ings</w>
Timo theo</w>
Ka e</w>
Do es</w>
your self</w>
or ding</w>
Chak ruok</w>
Al though</w>
sis ter</w>
posi tion</w>
gi ft</w>
au th
ati ve</w>
fe w</w>
d uo
chan ge</w>
amin wa</w>
Jer emi
wa k
ny im</w>
en a</w>
sen se</w>
mot elo</w>
in dic
fo od</w>
I nyalo</w>
puon jo
in s</w>
E e</w>
th ought</w>
tem p
i dhi</w>
at ure</w>
su e</w>
b aru
vi e
ok wongo</w>
ques tion</w>
M oko</w>
u ght</w>
No a</w>
wa si
nyithin dgi</w>
m wanyalo</w>
w ano</w>
si mil
op uonj
ma yudore</w>
enc ed</w>
mi t</w>
jopuonj re</w>
for ma
or ity</w>
masir a</w>
spiritu ally</w>
mis ango</w>
ib ed</w>
f ree</w>
Wuo n</w>
obe di
ngima gi</w>
deter min
um o</w>
bet ter</w>
mari ek</w>
cer tain</w>
ti chne</w>
quali ties</w>
ma te</w>
beli eve</w>
p ow
v isi
se e
inf lu
tr ust</w>
od ak</w>
f ar</w>
con d</w>
Wor ld</w>
N g
y et</w>
mo ve</w>
f es
c ed</w>
E l
u n</w>
tak ing</w>
sla ve</w>
s a</w>
ma tindo</w>
e a</w>
condu ct</w>
chok ruok</w>
P iny</w>
wa wegi</w>
no timore</w>
lo ok
kind ness</w>
g y
ex er
no r</w>
go ver
go ing</w>
c op
provi de</w>
kon y
ti l</w>
s ons</w>
s an
reg ar
at titude</w>
P h
uon j</w>
p as
ng’a do</w>
la w</w>
es pe
c ap
W ach
ear ly</w>
Th us</w>
w en</w>
respon sib
apost les</w>
th us</w>
n oneno</w>
Jo moko</w>
d oub
c tive</w>
ay anga</w>
acc ount</w>
Ja ote</w>
O nego</w>
k el
espe cially</w>
ear th
de dic
bor n</w>
Mes ia</w>
re al</w>
n en
j a</w>
at tend
Wh o</w>
stan ces</w>
mo ti
Timo thy</w>
E R</w>
it al</w>
comp le
ch no</w>
O wacho</w>
yo e</w>
proble ms</w>
Mat t</w>
no tiyo</w>
n ation</w>
ka be</w>
c ase</w>
ten d</w>
she ep</w>
ou th</w>
S in
Mes si
o wadwa</w>
wor ld
tri bu
organi zation</w>
el d</w>
O wadwa</w>
A chiel</w>
wor shipp
str ong</w>
righte ousness</w>
ri wo</w>
pray ers</w>
p ati
o chu
e as
b i
R ather</w>
re ly</w>
lu w</w>
nyin ge</w>
ne gi</w>
1 4
wa yudo</w>
t ower</w>
sacrifi ce</w>
num ber</w>
kind eno</w>
b ul
ON G
’ t</w>
gr ou
w om
w elo</w>
me d
lit tle</w>
b s</w>
M A</w>
spe cial</w>
of f</w>
k wan</w>
je ct</w>
difficul t</w>
ni c
ma onge</w>
in o</w>
d we</w>
chi wore</w>
mo gik</w>
gi ves</w>
el a</w>
y si
s aying</w>
or t</w>
ever lasting</w>
G o
trans l
princi ples</w>
go t</w>
er ing</w>
c ol
bu k</w>
Wat ch
P et</w>
wh ether</w>
r ing</w>
no ch
kon ye</w>
k ar
e ting</w>
ul ’s</w>
osi epe</w>
chi ege</w>
W u
L ord</w>
s m</w>
privil ege</w>
fer ed</w>
W uon
Je ws</w>
s es</w>
prophe t</w>
l we
j ak
Wuo k</w>
ro mbe</w>
is ed</w>
te go</w>
mig epe</w>
h ist
com m
b ir
an cient</w>
te ach</w>
mat ters</w>
wr ong</w>
ra wera</w>
et y</w>
tur ned</w>
ny as
n di
ji wowa</w>
i res</w>
ev en
chi en
K aluwore</w>
pach wa</w>
am ore</w>
O f</w>
ta on</w>
ser ved</w>
no l
ma j
resurrec tion</w>
ph ysi
par ruok</w>
gre at
Watch tower</w>
un dho</w>
E x
Cha k</w>
si on
or d
on d</w>
og ni
ne xt</w>
n am
ple as
o yi
individu als</w>
Sat an’s</w>
s ent</w>
it ing</w>
moch were</w>
g er</w>
circum stances</w>
believ ers</w>
bedo e</w>
b ody</w>
religi ous</w>
o wuoyo</w>
un til</w>
k wedo</w>
forma tion</w>
W an</w>
m enti
loy al</w>
d a</w>
ch a</w>
promis e</w>
n ations</w>
19 14</w>
x i
won der
wa se
tem be</w>
D i
w er</w>
s ou
n ong’
en jo
atten tion</w>
d ly</w>
cl os
ang’ ata</w>
Mis ri</w>
simil ar</w>
o her
li ght</w>
j ar
m oriwo</w>
be t</w>
ach ed</w>
a i
La w</w>
ph er
ot i</w>
nyis owa</w>
con tro
who le</w>
l ar
br ought</w>
ar ri
ma ra
ay u
arr ang
af fe
so on</w>
mi wuoro</w>
M okwongo</w>
F weny</w>
ruo g
ogend ini</w>
inspir ed</w>
hon or</w>
f ru
C orin
t ong</w>
el ess</w>
olo mon</w>
al low</w>
S olomon</w>
si ons</w>
re st
ta ught</w>
rec ogni
p odi</w>
ever y
decisi ons</w>
P s</w>
3 8</w>
ru le</w>
materi al</w>
jud g
in stru
f les
bless ings</w>
Ng’ ato</w>
B ur
o chako</w>
ko gi</w>
wete wa</w>
te k
hi gh
j aduong</w>
exam ples</w>
de ad</w>
d ness</w>
K orin
rans om</w>
hear d</w>
cle ar</w>
ar ds</w>
wa go</w>
menti oned</w>
illus tra
de ci
S ONG
SONG S</w>
Ng eche</w>
A re</w>
te gr
pione er</w>
fal se</w>
at t
R a
Korin tho</w>
Christ ’s</w>
re fer
pa in</w>
ma m
for et
ex pe
ri ch
occ asi
ing a</w>
hap pen
Pa ul’s</w>
Nyas ach
pl ac
jo tichne</w>
de cl
ac com
man i</w>
kuom wa</w>
ong’ e</w>
fa v
al ong</w>
mak es</w>
Y o</w>
wan on</w>
se em
s atis
ng ang</w>
ke t
cl es</w>
ah ’s</w>
tru ly</w>
ma pek</w>
g ise
d ine</w>
d es</w>
wor ks</w>
tegr ity</w>
d en
con sci
R ev
ver se</w>
prophe cy</w>
o e</w>
gi biro</w>
mi yogi</w>
P A
wom en</w>
st ates</w>
sho ws</w>
ang’ eyo</w>
Scriptu ral</w>
p ast</w>
of fi
gre ater</w>
ga in</w>
ch ap
ang’ wen</w>
re turn</w>
o yud</w>
m inyalo</w>
will ing</w>
si e</w>
par ad
main tain</w>
con ven
com fort</w>
appoin ted</w>
w ish</w>
port unity</w>
c tions</w>
wa dwaro</w>
op portunity</w>
Th er
J ames</w>
w ane</w>
under standing</w>
o yo</w>
mog undho</w>
mo a</w>
kon ya</w>
for ever</w>
f r
I T
lis ten
ho l
a il
tal k</w>
bedo go</w>
at ely</w>
E gy
19 9
ur ed</w>
over se
ma miyo</w>
hal f</w>
accep t</w>
M an
wa gi</w>
streng th</w>
mar wa</w>
le ’s</w>
kal u</w>
ac tion</w>
M ath</w>
sin ce</w>
on diko</w>
il uongo</w>
G en
bu g
ab ility</w>
Jo go</w>
se en</w>
mag ine</w>
er ful</w>
de ep
es i
B ar
tem ple</w>
s mal
s ha
pre ach</w>
lu de</w>
in st
d uong’
C an</w>
3 6</w>
si a</w>
en ted</w>
t able</w>
p ite</w>
in tegrity</w>
H awa</w>
u di
in formation</w>
ar ound</w>
ya wuo
it i</w>
direc tion</w>
Su ch</w>
sk ul</w>
cer tain
app ly</w>
an a
Jos hu
D es
D E</w>
C om
p uo
mean ing</w>
S h
ter ed</w>
no biro</w>
invol ved</w>
in do</w>
ang er</w>
M or
G ri
si mp
s chool</w>
no koro</w>
mag er</w>
tak es</w>
suf fering</w>
si ve</w>
se ar
pa che</w>
no wuoyo</w>
lit er
e man</w>
wan eno</w>
se cond</w>
o chopo</w>
ma k</w>
lo od</w>
Mar y</w>
k it
includ ing</w>
for ts</w>
No ah</w>
k gi</w>
jo lendo</w>
experi enced</w>
doub t</w>
d wa
wu o</w>
ko wacho</w>
be l</w>
an yo</w>
4 1</w>
3 9</w>
re member</w>
kon i</w>
g is
ev ents</w>
4 5</w>
w ang’o</w>
t ell</w>
s un
s ol
per se
no dak</w>
fri end</w>
exer c
e ye</w>
M aduong</w>
In stead</w>
st o
sho wed</w>
regar ding</w>
jolu p
evid ence</w>
no thing</w>
ma li
king dom</w>
k uno</w>
ja higni</w>
he kalu</w>
ef fort</w>
any one</w>
Joshu a</w>
wor king</w>
ti yone</w>
ser v
ma ch</w>
Wuo de</w>
J a</w>
pl an
ngi mana</w>
me eting</w>
ach ako</w>
provi ded</w>
on yo</w>
i timo</w>
e y</w>
dra w</w>
O R
C reat
p inyruo
f er</w>
em p
da ugh
Mar k</w>
E k
Amer ka</w>
wete gi</w>
ma lit</w>
g ore</w>
sir kal</w>
e wo</w>
wan ts</w>
she pher
accom pl
J on
ti ll</w>
jo ode</w>
Wuon wa</w>
Ro mans</w>
Ng’ at</w>
M opogore</w>
we tene</w>
th ough
t ation</w>
jolup ne</w>
es ted</w>
c ourage</w>
Sul eman</w>
D evil</w>
seri ous</w>
j uma</w>
K or</w>
u al</w>
n wa</w>
ke pt</w>
im mor
fi eld</w>
ati so</w>
N dal
w itness</w>
vi ties</w>
ti vities</w>
rec or
no konyo</w>
mon g’
mala ch</w>
fe ar</w>
decisi on</w>
Wh ile</w>
Li ke</w>
wi ch</w>
t ent</w>
d inde</w>
No w</w>
wi de</w>
ni ght</w>
l ost</w>
inter est</w>
gu id
determin ed</w>
S er
Bur a</w>
over eig
no dhi</w>
ili ties</w>
heal th</w>
a gre
pro g
we de</w>
tri bul
ny i
con tr
con c
4 2</w>
o tiyo</w>
ke ep
in go</w>
des er
Ch u
us es</w>
j at
bless ing</w>
am oro</w>
S im
G e
D uring</w>
B o
v ari
o ken
ka moro</w>
b ased</w>
an xi
T oday</w>
F ar
ol der</w>
mal ong’o</w>
ef fe
d he</w>
ang els</w>
R us
Gri k</w>
tak en</w>
t ting</w>
mon ey</w>
mil li
ef fect</w>
F a
smal l</w>
s and</w>
pin ess</w>
pa ge</w>
ny is</w>
nei gh
f our</w>
T ru
ob i</w>
o chung</w>
ma bor</w>
li es</w>
hear ts</w>
de wo</w>
ac tivities</w>
Par ad
wany al</w>
si ght</w>
m y
it ation</w>
hou se
cla im
vi ol
ng’ eny</w>
li ved</w>
em b</w>
a g</w>
N enore</w>
Creat or</w>
tim be
on di
me di
demon str
ri t</w>
l wen
inc reas
c ting</w>
c all</w>
bapti sm</w>
U O
Gre ek</w>
t ara</w>
p ass
ko wa</w>
ka yo</w>
har mon
el ation</w>
no hero</w>
h inga</w>
god ly</w>
confid ence</w>
4 4</w>
y l
reas on
o ting’o</w>
ne ar</w>
al low
ak ie</w>
Rev elation</w>
writ ten</w>
on ce</w>
ch wore</w>
certain ly</w>
ab ly</w>
W ill</w>
S E
uon jo</w>
ko tiyo</w>
foret old</w>
co ven
ag es</w>
Sin ce</w>
A d
sp oke</w>
promis ed</w>
on ari</w>
f lo
H era</w>
19 5
stand ards</w>
eg a</w>
con cl
ac tions</w>
ab o
ab iro</w>
Ph ili
spe aking</w>
respon d</w>
promis es</w>
owe yo</w>
mo tho</w>
gi bedo</w>
el der</w>
E ng
star ted</w>
help s</w>
gi tiyo</w>
congreg ations</w>
S till</w>
us tr
ne c
ndal ogi</w>
kinde go</w>
g ing</w>
f ur
contro l</w>
D id</w>
t uo
re por
jan abi</w>
g ri
earth ly</w>
de ep</w>
G al
u we</w>
pre par
pla y</w>
no jiwo</w>
g y</w>
fa il
al ed</w>
ab iri
Sa ulo</w>
S eche</w>
though ts</w>
or it</w>
S e
religi on</w>
ex is
c lo
appreci ation</w>
an ts</w>
C or</w>
t y
streng then</w>
sin s</w>
o keto</w>
mang’ won</w>
in de
id enti
no be
kind gi</w>
k oso</w>
ent al</w>
ef forts</w>
cle an</w>
ch ed</w>
P aro</w>
wa ter</w>
v al</w>
th an
nam ed</w>
m er</w>
g we
comp as
al ready</w>
TH E</w>
Jo h</w>
C ho
wa duto</w>
tra vel
s ch
no p
no kawo</w>
kod wa</w>
grou p</w>
fam ili
cul tiv
ad van
Corin thi
owe te
lo s</w>
C a
wor k
pro ved</w>
po go</w>
man ono</w>
il o</w>
coven ant</w>
Ja chien</w>
ver bs</w>
tr us
per haps</w>
ose miyo</w>
mo l
mar i</w>
i de
st ated</w>
malai ke</w>
in j
c ur
Hebre w</w>
t ud
ro le</w>
re ach</w>
ra war</w>
mot udore</w>
des tro
any thing</w>
M e
7 0</w>
recor ded</w>
ra ther</w>
publi c
li ed</w>
i wuon</w>
ch ni</w>
G er
hin yo</w>
com mu
ch i</w>
ri es</w>
o a</w>
gi tim</w>
an eno</w>
Ther efore</w>
No wacho</w>
tribul ation</w>
s amoro</w>
ngi mani</w>
worshipp ers</w>
pos ed</w>
od waro</w>
mo hero</w>
illustra tion</w>
p are</w>
il li
gin o</w>
comple te</w>
ay ed</w>
Chi eng</w>
valu e</w>
qu ic
prac tical</w>
ony uol</w>
lis ten</w>
h iny
Pro verbs</w>
ter ruok</w>
ri cho
ol os
off er</w>
hap piness</w>
devel op
br an
bol ruok</w>
af fect</w>
S p
Corinthi ans</w>
o ket</w>
ma pile</w>
k ly</w>
jus tice</w>
jo gi</w>
h and
gi l
do go</w>
appreci ate</w>
Jo ote</w>
z ing</w>
d wa</w>
Sa m</w>
J ap
visi on</w>
gi r
end ed</w>
de al
c learly</w>
buil d</w>
auth ority</w>
su do</w>
o ch</w>
help ing</w>
cou ple</w>
ch ar
E ve</w>
wa mor</w>
r en
nya k</w>
n ati
is sue</w>
im p
gu i
R anyisi</w>
D u
A cc
reg ard</w>
physi cal</w>
nyal ore</w>
heaven s</w>
h ands</w>
b as
Z e
W EN
simp ly</w>
od a</w>
mo dak</w>
es is</w>
c ra
av ail
Messi ah</w>
J ac
preci ous</w>
o ikore</w>
im perfect</w>
every thing</w>
em ents</w>
th a</w>
t ay
no wach
mose kalo</w>
let ter</w>
ha b</w>
duo go</w>
con v
ayu do</w>
wa yo</w>
wa ke</w>
spe ci
hig h</w>
don ge</w>
ad vice</w>
no chopo</w>
l in
ging’ eyo</w>
fre e
continu ed</w>
buil ding</w>
In deed</w>
D O</w>
se ver
ny aminwa</w>
di bed</w>
cro w
wuo th</w>
wonder ful</w>
ther ’s</w>
r a</w>
li er</w>
W ould</w>
wi l</w>
w .
miri ma</w>
lok ore</w>
le ave</w>
judg ment</w>
jo lweny</w>
he ar</w>
gl ory</w>
th uo
pa ges</w>
kind wa</w>
jo dong</w>
gu eth</w>
gi dwaro</w>
for med</w>
fles h</w>
avail able</w>
No t</w>
Gen esis</w>
s es
po li
mi ra
j os
de al</w>
6 0</w>
sho wing</w>
ri e
puonjo wa</w>
pach gi</w>
ir st</w>
e at</w>
w er
ri yo</w>
mis sion
he ad
m ulo</w>
Ka mano</w>
responsib ility</w>
per fe
obe y</w>
at ever</w>
accep ted</w>
wuo yoe</w>
w ero</w>
sing ruok</w>
inst ance</w>
disci pl
consider ed</w>
b us
P i
La wi</w>
L e
Je wish</w>
J ust</w>
th en
pow erful</w>
ne g
mb aka</w>
long er</w>
ari to</w>
al one</w>
non ro</w>
mon y
il e
f ill</w>
chak re</w>
A dier</w>
wa tiyo</w>
sto od</w>
no bed</w>
l os
a gi</w>
R omo</w>
Q u
war e</w>
t al</w>
p og
me et</w>
k no</w>
jo painia</w>
it a</w>
free dom</w>
al ty</w>
MA R</w>
Bab yl
tiv ity</w>
perse cu
influ ence</w>
con tribu
p sal
mo wuok</w>
lo cal</w>
The ir</w>
M ay</w>
v ital</w>
prop er</w>
foc us</w>
encourag ement</w>
abiri yo</w>
J ach
G E</w>
wo yo</w>
paragra f</w>
ony is
jo ote</w>
guid ance</w>
Ke ep</w>
E zeki
1 8
who se</w>
tim or
j am
do e</w>
d ’s</w>
Wuo d</w>
M as
v ation</w>
reas ons</w>
om e
n ers</w>
li g
k weth</w>
ja higini</w>
chap ter</w>
W A
sul ani</w>
st ay</w>
ple ase</w>
b a
answ ers</w>
E R
un g
os ore</w>
nec ess
n ano</w>
ma luwo</w>
harmon y</w>
a ving</w>
E ph
wa luw</w>
re jo
publi c</w>
odie chien
ma dho</w>
jati ch</w>
acc ording</w>
tho li
p ed</w>
op er
ku yo</w>
ir ed</w>
i yud</w>
ci es</w>
Ndal owa</w>
m en
assig nment</w>
tri als</w>
succ ess
ma duong’
in ten
g’ no</w>
el se</w>
div ine</w>
des ires</w>
b ri
un y</w>
tra ining</w>
pi c
happen ed</w>
com mon</w>
chak ore</w>
WEN DE</w>
L ater</w>
B ed</w>
v ely</w>
se ek</w>
res t</w>
ough out</w>
li m
commu nic
bran ch</w>
N gima</w>
wa yud</w>
wa par</w>
t an
no winjo</w>
gi yudo</w>
dh no</w>
cho ose</w>
at no</w>
P uonj
with in</w>
os p
lar ge</w>
j ad
cre ated</w>
coun try</w>
Pe ople</w>
o winjo</w>
mo gi</w>
mo ga</w>
gin eno</w>
Bib le’s</w>
our ce</w>
on dik</w>
ma wacho</w>
in eno</w>
ar ti
Ro ho</w>
H er
19 7
su gg
serv ant</w>
re min
ob atis
h ono</w>
gro w</w>
fi c</w>
T rans
K wan</w>
H O
G O
tri ed</w>
on ’s</w>
mo lony</w>
l ation</w>
a chi
H ave</w>
1 00</w>
ther efore</w>
regul ar</w>
refle ct</w>
ng’ iyo</w>
man i
jar it</w>
go l</w>
go gi</w>
de vo
c am
ny ad
kor ka</w>
do gi</w>
S o
L amo</w>
F irst</w>
ur ch</w>
sing le</w>
r end
lu wore</w>
hum ility</w>
bo ok
ab ich</w>
H ence</w>
star t</w>
se qu
om ed</w>
og and
nyim in
gi ge</w>
be gin
Wu oro</w>
Ezeki el</w>
we e
sur vi
ri a</w>
l ish</w>
k or</w>
k ni</w>
con f
ch ego</w>
Y or
St ud
Jan eno</w>
ng’ ne</w>
l ine</w>
g e
be l
baru a</w>
Mari ko</w>
te xt</w>
ja ode</w>
ig n</w>
er ous</w>
Bro ther</w>
z aburi</w>
th uol
in her
d om
consci ence</w>
b es</w>
Ro man</w>
Egy pt</w>
v ir
tij wa</w>
t ou
par ti
op en</w>
ony is</w>
of is</w>
ma gi</w>
keth ore</w>
hel d</w>
gh ty</w>
di rom</w>
d rin
be au
O r</w>
pray ed</w>
of fered</w>
m ine</w>
h ur
eas y</w>
car ry</w>
Jud a</w>
D war
4 3</w>
u t
ori gin
me t</w>
fulfill ment</w>
comp ani
com for
S ani</w>
O we
teach ings</w>
pro du
pro c
go al</w>
expla ined</w>
da ily</w>
S ar
Pro v</w>
Mor e
E n
si d
psal mis
ma wuok</w>
fur ther</w>
ex p
bol ore</w>
bir th</w>
acc oun
In j
prac tic
dh a</w>
descri bed</w>
A p
t wak</w>
si m
shi ps</w>
ra ised</w>
no t
m ing</w>
li c
ear lier</w>
concer n</w>
vis it</w>
sou l</w>
mam uol</w>
jo tend</w>
gi wacho</w>
gen g’o</w>
fac ed</w>
en de
cre ation</w>
chi w</w>
be d
b ac
Sa ul</w>
More over</w>
J al</w>
0 ,000</w>
occasi on</w>
m in</w>
ki e</w>
ke wise</w>
d olo</w>
challen ge</w>
O hinga</w>
I S
E S
ti end
t ment</w>
ste ps</w>
provi des</w>
kno ws</w>
ef ul
Trans lation</w>
M in
y ond</w>
mo ting’o</w>
ken e</w>
com par
as s</w>
as omo</w>
He zeki
t on
nyithin di</w>
kod i</w>
hist ory</w>
fes o</w>
expla ins</w>
exam ine</w>
enc ourage</w>
dis cer
challen ges</w>
T O</w>
E feso</w>
th ous
s overeig
res pe
re pres
os el
no yie</w>
di a</w>
de l</w>
chang es</w>
J arito</w>
B efore</w>
wa th</w>
wa hero</w>
o chuno</w>
end ing</w>
S ep
He b</w>
4 6</w>
z i</w>
y n</w>
wa dak</w>
se ed</w>
mog en</w>
Un ited</w>
P har
F ili
r ance</w>
p at
lo gi</w>
know ing</w>
jap uonj
for ce</w>
ab ed</w>
R om</w>
no weyo</w>
n ty</w>
hin d</w>
devel op</w>
d w
wany iso</w>
streng then
re p
or ed</w>
opuonj re</w>
inter ests</w>
ind ruok</w>
gi duto</w>
encourag ed</w>
chang ed</w>
atten d</w>
Owe te</w>
A R
ke y</w>
illus tr
go do</w>
gi kone</w>
est ab
end ure</w>
eful ly</w>
chand ore</w>
Inj ili</w>
ze al
ywa ruok</w>
sever al</w>
see king</w>
o ji
no chu
mo wa</w>
ma si
do wa</w>
deci ded</w>
S te
A no
20 10</w>
war ning</w>
tain s</w>
sovereig nty</w>
o hal
ma sani</w>
ken dgi</w>
d el
be ar</w>
Hi b</w>
qu i
ku m</w>
g ru
d war</w>
be half</w>
A L
z ar
w il
omi ye</w>
ok ony</w>
nyis eche</w>
mi ya</w>
le g
di tions</w>
deli ver
d wach</w>
P uonj</w>
6 5</w>
sh all</w>
re pen
person ality</w>
or ego</w>
o b</w>
kod hi</w>
fir m</w>
en ga
e duc
b lood</w>
ur ance</w>
tic ul
ti on
s or
regul arly</w>
psalmis t</w>
ori al</w>
me as
go als</w>
f wen
Sim il
19 8
us t
se em</w>
n onego</w>
mi a</w>
great est</w>
gr ound</w>
g as
for eig
ad waro</w>
t reas
se x
malai ka</w>
je cts</w>
daugh ter</w>
Ru th</w>
Per haps</w>
owete wa</w>
li gh
lear ning</w>
et ting</w>
ch es</w>
c r
a head</w>
F in
our s</w>
od hi
k op
des tru
cor rec
su pp
or ee</w>
li mo</w>
Jeremi ah</w>
IT E</w>
ven ess</w>
tij no</w>
ti r</w>
ter n
reali ze</w>
puonj re</w>
n indruok</w>
h und
en emi
enemi es</w>
be yond</w>
ad ul
Jac ob</w>
Du to</w>
spe ech</w>
okony wa</w>
ng’ atno</w>
mor em</w>
i ko</w>
g en</w>
fulfill ed</w>
be hind</w>
G osp
G I
E S</w>
prote ct</w>
obedi ent</w>
im o</w>
as tes</w>
ar ea</w>
vari ous</w>
mon ths</w>
hear t
fr on
con vers
as se
Ng’ eyo</w>
4 8</w>
world wide</w>
v al
publ ish
nyas i</w>
ni fic
ever yone</w>
di ch</w>
c as
ag er</w>
S k
M O
K oro</w>
G ile
wech egi</w>
nya wadgi</w>
no medo</w>
n indo</w>
mo tiv
loy alty</w>
j ela</w>
fir e</w>
end s</w>
d on</w>
be long
Tru e</w>
Ng’ a</w>
Gile ad</w>
th eless</w>
sur pris
od ong</w>
necess ary</w>
man ok</w>
ko th</w>
kinde wagi</w>
im pres
f un
discipl ine</w>
benef its</w>
Ch uny</w>
C ar
ta ined</w>
sy m
st at
par ticul
ose timo</w>
gen u
er t</w>
chi wruok</w>
cha m</w>
O d</w>
Mar ia</w>
H all</w>
Dwar ore</w>
ri ch</w>
peri od</w>
osen y
my self</w>
l ands</w>
ken i</w>
gu ard</w>
ex pect</w>
cultiv ate</w>
chu ech</w>
arti cles</w>
abo ve</w>
tuo che</w>
thr oughout</w>
st op</w>
quic kly</w>
och ak
ng ero</w>
in es</w>
ho ch</w>
expres sion</w>
di her</w>
de f
c k
atu res</w>
T iyo</w>
A fri
piny no</w>
ohal a</w>
hum ble</w>
do or</w>
da g</w>
conven tion</w>
allow ed</w>
al ia</w>
E den</w>
won der</w>
wa paro</w>
v ol
stud ying</w>
sel f
qu ality</w>
pra ise</w>
posi tive</w>
no chi
mog waro</w>
enjo yed</w>
b al
Simil arly</w>
M em
20 11</w>
wa ti</w>
tu ries</w>
sal vation</w>
prog ress</w>
l ose</w>
k t</w>
e as</w>
die chieng</w>
di g
cho ice</w>
an jo</w>
E G
o ta
ko a</w>
happ en</w>
don j</w>
Wat ch</w>
wor ked</w>
wasi k</w>
ruo dhi</w>
ri ed</w>
resurrec ted</w>
pro spe
pe ac
no fwenyo</w>
inc lude</w>
g res
dis tri
ad dition</w>
ad a</w>
In ter
20 12</w>
ter n</w>
t est</w>
stri ve</w>
pur su
n ’t</w>
less on</w>
f ar
be coming</w>
b atiso</w>
ali ve</w>
Phili p
M ap
Jeremi a</w>
t elo</w>
sacrifi ces</w>
ruo gno</w>
lo c
la ws</w>
ka chiel</w>
k om
f ying</w>
er y</w>
bas is</w>
ad ly</w>
Tho th</w>
S ara</w>
O thers</w>
K okalo</w>
winjruok wa</w>
um be</w>
public ations</w>
on go</w>
nyithin d</w>
gu e</w>
ga ther
expres sed</w>
S he
tel ls</w>
person ally</w>
og ra
mo der
mit ted</w>
expres s</w>
e pe
Yor k</w>
Be th
5 5</w>
ywa k</w>
stru gg
pione ers</w>
is m</w>
is ing</w>
fi ve</w>
enc y</w>
en ter
conv inc
chok ruog
book s</w>
ac tivity</w>
ac qu
Sam oro</w>
yo m</w>
pro mo
mi d
individu al</w>
ho sp
f ts</w>
de ta
au chiel</w>
atu ral</w>
wuo de</w>
tru ths</w>
publish ers</w>
op ong</w>
ny uol</w>
lo wo</w>
ing’ eyo</w>
ill ed</w>
e moti
deep ly</w>
crow d</w>
appro pri
M ak
wa su
ochi w</w>
ke th</w>
is onari</w>
im medi
chak ruok</w>
ch ing</w>
arrang ement</w>
ah ero</w>
Lo ve</w>
tu ech</w>
sub ject</w>
r anyis
obedi ence</w>
mi timo</w>
look ing</w>
i tim</w>
ess al
chi emb</w>
as a</w>
accoun ts</w>
Th essal
Re ally</w>
G u
wor thy</w>
u o</w>
reve aled</w>
pi dho</w>
mis sion</w>
mi ghty</w>
ko wuok</w>
jo o
Li fe</w>
wa it</w>
resul ts</w>
re le
no k</w>
h u</w>
friend ship</w>
for give</w>
famili es</w>
f l
dwa che</w>
cl ass</w>
ati n</w>
Mos t</w>
we d
tin g’
s iro</w>
ken d
c ing</w>
c el
bless ed</w>
ar k</w>
an n
W itness</w>
F we</w>
C O
wa luwo</w>
ter rit
se ven</w>
s c
proble m</w>
ke cho</w>
import ance</w>
cu it</w>
clos er</w>
as king</w>
ang el</w>
ad d
D ra
s ource</w>
privil eg
overse er</w>
or g</w>
ma l</w>
ma ber
jood gi</w>
it ating</w>
for th</w>
di era</w>
comp let
chi kene</w>
Th r
Mari am</w>
F rance</w>
wal k</w>
w ok</w>
usi on</w>
nei ther</w>
mach uok</w>
lwe t</w>
i magine</w>
h ore</w>
g om
W H
I ’
yi en
ul a</w>
qu e</w>
pre pare</w>
milli ons</w>
lo t</w>
langu ages</w>
keep ing</w>
gu e
flo ck</w>
fav or</w>
cop e</w>
assig ned</w>
Gi kone</w>
G over
s il
re war
ok or</w>
o chiwo</w>
nya go</w>
inv ited</w>
enti re</w>
discus s</w>
destru ction</w>
deser ved</w>
ch os
O N</w>
M a</w>
Hebre ws</w>
wach onwa</w>
p ach</w>
ori es</w>
offi ce</w>
n atural</w>
ish a</w>
ful ness</w>
er gy</w>
ch amo</w>
ap uonj
B E</w>
wa ket</w>
stud ents</w>
st ra
ro w</w>
res ol
pres ence</w>
jati chno</w>
in deed</w>
h un
dh wa</w>
d weche</w>
complet ely</w>
M ar</w>
Is aya</w>
Ho ly</w>
As a</w>
w re</w>
ti ego</w>
sp ring</w>
sig n</w>
rec ord</w>
re bel
ra ce</w>
jood wa</w>
jan dik</w>
gin i
g w
ac tually</w>
Y ie</w>
Th ough</w>
A ustr
um ba</w>
travel ing</w>
sac red</w>
pach i</w>
ot udore</w>
li f
jo dolo</w>
j ah
ini ti
gover nment</w>
en ough</w>
de p
da wa</w>
b read</w>
O T
Acc ording</w>
ten ce</w>
t or
po or</w>
o ya</w>
even ing</w>
be gin</w>
ap aro</w>
a ware</w>
Ti j</w>
T ower</w>
J al
H an
wo go</w>
se par
s ound</w>
no n</w>
mb a</w>
l am
king s</w>
in ess</w>
g wen
a c</w>
Sar ah</w>
M ag
C learly</w>
u res</w>
s s</w>
s le
ro mogo</w>
og olo</w>
o kawo</w>
es ti
comman d</w>
J O
El isha</w>
wh atever</w>
sho wn</w>
kan isa</w>
k il
j om
invol ves</w>
gr at
g ana</w>
e ding</w>
chos en</w>
ch wech</w>
W ER</w>
B .
ro ad</w>
reali zed</w>
pro duc
okony e</w>
l o</w>
k ite</w>
gra m</w>
for ward</w>
dis cre
der ly</w>
ca used</w>
beau ti
appropri ate</w>
al ls</w>
PA GE</w>
O k
E ach</w>
A t
wi do
sear ch</w>
penj ore</w>
no chiko</w>
mot i</w>
moder n</w>
mo e</w>
liter ature</w>
jo chi
demonstr ate</w>
dedic ated</w>
compas sion</w>
S i
F e
Babyl on</w>
Ano ther</w>
yu eyo</w>
ur ged</w>
tiv ely</w>
su rely</w>
pog ruok</w>
od ho</w>
n ments</w>
j ori
inter ested</w>
fill ed</w>
fi ght</w>
f weny</w>
en s</w>
cir cuit</w>
c ost</w>
ac ts</w>
O g
Ab out</w>
wa medo</w>
wa keto</w>
u g
some times</w>
relati ves</w>
pres sure</w>
prac tice</w>
odon jo</w>
mi yi</w>
ma tiyo</w>
des pite</w>
c ourag
acc ur
Wach ne</w>
ti e
res o</w>
pre v
ob a
mali ch</w>
ma s</w>
li el</w>
l uongo</w>
ch ano</w>
ad i</w>
Ny aminwa</w>
N Y
wi ves</w>
sex ual</w>
re turned</w>
ori to</w>
ony uol
o we</w>
mon o</w>
lo v
ken dore</w>
ga z
contr ast</w>
ap ar
St ates</w>
E u
under stood</w>
sp ok
re m</w>
ny ing
maj aber</w>
gi veness</w>
fru it
dedic ation</w>
ch e
begin ning</w>
ari es</w>
Sul a</w>
Map iyo</w>
B er</w>
ze al</w>
w. org</w>
sig nific
reve al</w>
pati ence</w>
ma dwaro</w>
lo wa</w>
ko go</w>
j w.org</w>
g’ eyo</w>
gl ori
J E
s us
re ward</w>
re pe
p rec
ou d</w>
ochu ng’ne</w>
nobe die</w>
de k</w>
de gi</w>
cen turies</w>
ay ans</w>
ari yogo</w>
ak wede</w>
affe ction</w>
R ob
Mem orial</w>
D an</w>
B a
wo l</w>
ur o</w>
tr ying</w>
nati onal</w>
ma konyo</w>
m ental</w>
ir i</w>
gi fts</w>
ad ded</w>
Eli ja</w>
B. C.E</w>
we uru</w>
wa puonjore</w>
repen t
pro gram</w>
jo wetegi</w>
ho yo</w>
g etting</w>
ci p
answ ered</w>
ac tive</w>
tu go</w>
tain ing</w>
situ ations</w>
res sed</w>
parad ise</w>
omi yowa</w>
o chak</w>
gi yud</w>
es tions</w>
arri ved</w>
Eng lish</w>
Chu ny
20 13</w>
th ir
recogni ze</w>
puonj ori</w>
o mor</w>
mo ikore</w>
lead ers</w>
exerc ise</w>
don j
d won
appro val</w>
O si
Austr alia</w>
ya wo</w>
we i
wa yie</w>
sim ple</w>
re uru</w>
masi che</w>
mak elo</w>
l ack</w>
jo b</w>
j any
is era</w>
gw eng</w>
Davi d’s</w>
4 ,000</w>
1 5
tic s</w>
sh aring</w>
respon se</w>
pl ying</w>
neg ative</w>
mor omo</w>
ma st
ma gaz
lu wogi</w>
jo y
expla in</w>
em be</w>
e tern
col le
U n</w>
Re v</w>
N d
I m
B en
yi ewa</w>
w oro</w>
w itness
tr ou
sp ent</w>
o kaw</w>
ni ties</w>
mer cy</w>
m b</w>
jonyuol gi</w>
follow ed</w>
even tually</w>
bug ewa</w>
appro ach</w>
al ing</w>
yo ga</w>
nya ko</w>
jo kanyo</w>
giny iso</w>
enti al</w>
con t
con sequ
cla im</w>
as su
ab and
Jon a
Hi gini</w>
Ge or
G en</w>
B ra
y ’s</w>
t ar</w>
suf fer</w>
shepher d</w>
seem s</w>
publ ished</w>
pa y</w>
ne w
mat es</w>
ib le</w>
ab und
Ek l</w>
un g</w>
speci fic</w>
pri mar
pri ests</w>
ony al</w>
ochak ore</w>
man tie</w>
includ ed</w>
in hab
il s</w>
ic o</w>
i dho</w>
genu ine</w>
for giveness</w>
dis play</w>
confid ent</w>
Sep tem
L ev
occ ur
o y
nya wo</w>
no te</w>
mara chni</w>
inv itation</w>
er ship</w>
div ai</w>
des c
convinc ed</w>
ch ando</w>
car efully</w>
be tie</w>
M u
H el
Bu k</w>
4 9</w>
wr ong
work ers</w>
wany is</w>
reason able</w>
per c
en ter</w>
Th in
Nd alo</w>
Fili pi</w>
sym bo
re act</w>
prote ction</w>
o wadgi</w>
m el
M ON
EG O</w>
wor a</w>
t own</w>
st u
plac es</w>
ja oda</w>
j alo</w>
is ogi</w>
i ces</w>
gi t
experi ences</w>
di ki</w>
cra tic</w>
c a</w>
beauti ful</w>
an ada</w>
a timo</w>
Y oun
O f
M il
G al</w>
wal king</w>
ti eg
sig u</w>
ref u
over come</w>
ogend ni</w>
gi chako</w>
expe cted</w>
cor ru
Ru o</w>
M aber</w>
Gover ning</w>
200 9</w>
ol emo</w>
o winj</w>
m oun
grat eful</w>
d ri
c ti
T each</w>
Ny ithin
Gre at</w>
1 19</w>
vo ice</w>
tu res</w>
tri es</w>
si x</w>
san du
rel ated</w>
pinyruo th</w>
nd i</w>
mor al</w>
le w
kon g’o</w>
k wa</w>
k go</w>
je cted</w>
ei ther</w>
disci ple</w>
d ang
con ditions</w>
B ody</w>
Al so</w>
w ong</w>
tem por
s ort</w>
oti eno</w>
op position</w>
off spring</w>
mo s
mission ary</w>
li e</w>
ji p</w>
jah era</w>
e cu
br ings</w>
a o</w>
a bedo</w>
Thessal oni
S an
we ek</w>
sh ort</w>
one ’s</w>
ch ulo</w>
ani c</w>
Re member</w>
wa s
un deserved</w>
teach es</w>
te dly</w>
t ree</w>
succ e
rejo ice</w>
ng’ ano</w>
mo bedo</w>
ma hund
ke l</w>
house hold</w>
fin al</w>
ch urch</w>
ati m</w>
ad jus
Na than</w>
Des pite</w>
y ou
s criptu
oun ded</w>
op pos
jo motho</w>
estab l
de v
courag e
b ab
W as</w>
Ne he
K any
F ur
thi eth</w>
r ying</w>
p ol
olu w</w>
o s</w>
lo ws</w>
kuo t</w>
ex ecu
ever theless</w>
Parad ise</w>
N evertheless</w>
K ar
Jona than</w>
Isa ka</w>
we ak
tre at</w>
spok en</w>
pres er
on en
o cratic</w>
na m</w>
mil i
me ant</w>
less ons</w>
lead ing</w>
ja h</w>
gi paro</w>
a in</w>
P uonjo</w>
wa we</w>
trus ted</w>
t or</w>
r umo</w>
prophe cies</w>
pri l</w>
og eno</w>
of fering</w>
ng’ e</w>
ma ka
k ore</w>
gui de</w>
foreig n</w>
devo tion</w>
b at
ad mon
Youn g</w>
S y
S chool</w>
Ju de
D is
A pril</w>
territ ory</w>
ter m</w>
tend ed</w>
responsib ilities</w>
pass ed</w>
neigh bor
man ’s</w>
l ate</w>
ka ble</w>
iny i</w>
for mer</w>
for e
er i
ef s</w>
b ar
attend ing</w>
associ ation</w>
a mor</w>
So on</w>
wa somo</w>
ul on</w>
u wo</w>
st re
se cre
puo dho</w>
plac ed</w>
piny ka</w>
par ent</w>
nose bedo</w>
mop ong</w>
l and
emp loy
b atis
R es
Nyasach wa</w>
N on</w>
C H</w>
por tu
ow uo</w>
od uo
ochi ko</w>
o chop</w>
mo des
mani f
jori cho</w>
joo tene</w>
h ano</w>
fru it</w>
feel ing</w>
disc ourag
dis as
c le</w>
bl ed</w>
ar eas</w>
ac ted</w>
T em</w>
Jap an</w>
Bra z
yi er</w>
v el</w>
tan et</w>
rin go</w>
perfe ction</w>
op portu
ong’ ere</w>
no lero</w>
k ol
ja odi</w>
in gi</w>
h ours</w>
em ba</w>
effe ctive</w>
ab er
a o
H ar
D hano</w>
Chak re</w>
zeal ous</w>
wa sen
valu able</w>
u ally</w>
ti ere</w>
succ ess</w>
ste p</w>
p ure</w>
oun ds</w>
ol s</w>
og ol</w>
ob serve</w>
mor ning</w>
mahund u</w>
look ed</w>
l yn</w>
j orit</w>
ful fill</w>
discre et</w>
di es</w>
consequ ences</w>
ch an</w>
Re gar
K or
I magine</w>
E sa
Bab ulon</w>
y ourselves</w>
war ruok</w>
wal o</w>
see ing</w>
paragra ph</w>
over ed</w>
origin al</w>
or u</w>
or omo</w>
op aro</w>
od s</w>
neigh bor</w>
kany e</w>
ho od</w>
go go</w>
di o</w>
concl usion</w>
chi ero</w>
cha yo</w>
Y i
L weny</w>
Jo ot</w>
J opuonjre</w>
sin c
sinc ere</w>
pray ing</w>
par ts</w>
p un
open ed</w>
o yu
m es</w>
lwen y
le y</w>
ir s</w>
il ed</w>
gra du
agre e</w>
Y O</w>
Puonj ruok</w>
MA G</w>
H er</w>
rit ruok</w>
pu tting</w>
pp ed</w>
on de</w>
om edo</w>
hosp it
educ ation</w>
cri tical</w>
c ar</w>
Y er</w>
V er
S ome
Ruo dhwa</w>
R ome</w>
P ra
A m
sch ol
q uo
pach a</w>
oba dho</w>
no miye</w>
kanyak la
des ig
con dition</w>
be loved</w>
accompl ish</w>
K A</w>
A hab</w>
won wa</w>
war ned</w>
thous ands</w>
seem ed</w>
ruo dh</w>
pa k</w>
lo ves</w>
it self</w>
immedi ately</w>
i gi</w>
gi mor</w>
f are</w>
ci ous</w>
ay i</w>
ak i
accep table</w>
Jud as</w>
H ig
19 6
wasu mb
satis fac
s iso</w>
re mar
r un
prepar ed</w>
op ar</w>
nyath ini</w>
ma malo</w>
en ab
de go</w>
comman d
char ac
bac k
a winjo</w>
Thin k</w>
S outh</w>
MON EGO</w>
K u
Ger many</w>
Far ao</w>
yi em</w>
wr ite</w>
wi gi</w>
ung u</w>
spe ak
puonjo gi</w>
o wuok</w>
o ten
kel onwa</w>
kar ang’o</w>
j our
ir a</w>
gi d
cho ko</w>
beli efs</w>
b ru
OT I</w>
K O</w>
K A
Isa ac</w>
Gal ati
F am
E N</w>
5 00</w>
uon ge</w>
ti onal</w>
sti tu
sel l</w>
prospe ct</w>
pre ached</w>
poli tical</w>
pe cts</w>
n dawa</w>
ke go</w>
h one</w>
gre w</w>
g ase
ed on</w>
adi mba</w>
W al
U ON
L er</w>
GO DO</w>
Braz il</w>
si asa</w>
ri w
requ ired</w>
opportu nities</w>
ok onyo</w>
nyithin de</w>
mose bedo</w>
mo chi
mil es</w>
ka dho</w>
japuonj re</w>
in d</w>
h our</w>
anxi ety</w>
Thr ough</w>
R O
H ar</w>
Gosp el</w>
Eph esi
D woko</w>
A bel</w>
wuo wi</w>
viol ence</w>
tud ruok</w>
st udi
pro per
pris on</w>
practic es</w>
pe op
owe tene</w>
ori ties</w>
og u
od ok</w>
ma loyo</w>
lim ited</w>
in a</w>
h uma</w>
em ph
el derly</w>
du e</w>
convers ation</w>
as pects</w>
ap oya</w>
M ani</w>
G ie</w>
Esa u</w>
yi ego</w>
visi ons</w>
tu ke</w>
temp tation</w>
pur sue</w>
pa cho</w>
ogra f
m ly</w>
le ast</w>
fail ed</w>
encourag ing</w>
destro yed</w>
ch wany
Rus sia</w>
L E</w>
Jud ah</w>
Be ing</w>
t ful</w>
self ish</w>
satisfac tion</w>
ograf i</w>
mach al</w>
heart felt</w>
es cap
ende av
any uol
al a</w>
ad es</w>
P ic
wa bi</w>
no puonjo</w>
h ed</w>
dis pl
cal ls</w>
buil t</w>
ar my</w>
S pain</w>
J onyuol</w>
5 1</w>
world ’s</w>
we ten
rel ates</w>
o wad
nony alo</w>
no chung</w>
ish ing</w>
i mage</w>
e ds</w>
e ase</w>
div or
d wol</w>
c y
T ra
R E
O se
N E</w>
Hig ni</w>
B aru
1 ,
y alo</w>
uni verse</w>
refer red</w>
obe die</w>
no si
no luwo</w>
includ es</w>
i re
har v
d anger</w>
cur ity</w>
con ne
bro ther
b ly</w>
Wh ere</w>
Nyas ach</w>
Mag edon</w>
200 8</w>
timbe gi</w>
ti eno</w>
t on</w>
rebel li
re ation</w>
persecu tion</w>
p op
ol and</w>
oke th</w>
no kelo</w>
ndi kono</w>
ji wogi</w>
jal och</w>
ing ing</w>
i paro</w>
em y</w>
ed he</w>
ear n</w>
do ko</w>
concer ned</w>
con stru
be don
attend ed</w>
asse mb
appe ar</w>
Jan u
wa winjo</w>
vie wed</w>
t ten</w>
st ate</w>
par onwa</w>
od ag</w>
mag gi</w>
m ’s</w>
la m</w>
ing’ e</w>
gi winjo</w>
f all</w>
emoti onal</w>
cul ar</w>
W ith
K oso</w>
u te</w>
tur ning</w>
pro claim
privileg es</w>
poin ts</w>
oun d
or wako</w>
okony a</w>
no g
meas ure</w>
m uolo</w>
l ela</w>
j aber</w>
i es</w>
h y
car ing</w>
bl ess</w>
F or
vol un
ur g
transl ation</w>
thuo logi</w>
te en
st um
ruok wa</w>
res ist</w>
requ est</w>
reli ef</w>
produ ce</w>
nya di
no golo</w>
no dwaro</w>
mo timo</w>
mis umba</w>
hi kgi</w>
exis tence</w>
co oper
appe ared</w>
accur ate</w>
Phar ao
M ore</w>
H app
5 3</w>
y ath</w>
wat ch</w>
wa med</w>
vis ited</w>
th gi</w>
ref res
p er</w>
no goyo</w>
n ature</w>
hor uok</w>
hiny ruok</w>
fruit age</w>
con qu
chan go</w>
believ ing</w>
We uru</w>
Fam ily</w>
y outh</w>
te kone</w>
se t
requ ire
oyi ego</w>
of wenyo</w>
mok uwe</w>
mb i</w>
ma timore</w>
hon est</w>
g lo
fin an
fe et</w>
decl ared</w>
ch ari
apuonj ora</w>
Jo tich</w>
C am
4 7</w>
we y
wach ako</w>
t ors</w>
st op
si ck</w>
se curity</w>
okony i</w>
ne y</w>
l ak
j udi
ith a</w>
gi luwo</w>
c ust
bat tle</w>
at or</w>
affe cted</w>
advan ta
ab oro</w>
Lo ok</w>
K ind
C ould</w>
A S
1 7
ywa yo</w>
y le</w>
wuon do</w>
tre at
suf fered</w>
studi es</w>
sp end</w>
ro om</w>
min ds</w>
mag wa</w>
jany uol</w>
in t</w>
gi hero</w>
fel low
ch ose</w>
ati yo</w>
R UO
Jude a</w>
HO V
D ho</w>
y al</w>
wa wuoyo</w>
to ka</w>
ou se</w>
os ingi</w>
oken dore</w>
odon go</w>
odiechien ge</w>
no tho</w>
no gra
med itate</w>
j as
is su
great ly</w>
gi yie</w>
en emy</w>
crip ture</w>
chokruog ewa</w>
baru pe</w>
ass ured</w>
ass ist</w>
Sk ul</w>
JE HOV
Eli jah</w>
As k</w>
14 4,000</w>
wuon wa</w>
wuo d</w>
tim re</w>
sur r
sh or
s olu
overse ers</w>
out side</w>
nyimin ewa</w>
no dwoko</w>
jud ge</w>
her ogo</w>
fron t</w>
ear n
discus sed</w>
dhi er</w>
ana an</w>
ad op
a ma
Ti end</w>
Rob ert</w>
Ch a</w>
pon ografi</w>
ph y</w>
ok wayo</w>
obe d
mo chung</w>
mi biro</w>
in sight</w>
im prove</w>
ex tent</w>
direc ted</w>
deli ght</w>
T e
Ephesi ans</w>
B ri
wa iting</w>
th reat
t ok
stud ent</w>
sp read</w>
rich es</w>
puonj ora</w>
ob ati
mon th</w>
mag ed
maged don</w>
ke yo</w>
j on
g one</w>
en ergy</w>
de b
concer ning</w>
bl ing</w>
P r
K are</w>
Jo el</w>
G ’
Ca tholi
Ar mageddon</w>
A nd
A diera</w>
rema ined</w>
pic ture</w>
penj ono</w>
ok inyi</w>
lwen je</w>
kind ly</w>
it ting</w>
iny iso</w>
illustr ate</w>
fa il</w>
ev ent</w>
distri kt</w>
dho gi</w>
L I
Kany ak
E D</w>
youn ger</w>
w th</w>
ti mogo</w>
ther e
tain ment</w>
t less</w>
ser ves</w>
promo te</w>
pri est</w>
pi m</w>
p es</w>
obe t</w>
mang’ ongo</w>
indic ate</w>
ide a</w>
gr and
c tr
bre ak</w>
br inging</w>
Y u
1 6
war m</w>
ton gue</w>
ref ers</w>
nok wongo</w>
no yiero</w>
no temo</w>
ma dirom</w>
jolu p</w>
jak wath</w>
j ong’
for get</w>
f ast</w>
enter tainment</w>
cle an
c ure</w>
ang eli
Sh ould</w>
S U
Lo ch</w>
H I
Ch r
Abraha m’s</w>
A g
wa geno</w>
tra in</w>
tieg ruok</w>
thir d</w>
symbo li
sub jects</w>
otim re</w>
no penjo</w>
listen ing</w>
kwa ye</w>
j or
ist ance</w>
fi gu
descri bes</w>
consider ation</w>
any al</w>
a wach
W in
Sul ani</w>
M ex
win jo
wa romo</w>
w one</w>
ter ’s</w>
success ful</w>
prev ent</w>
ony osore</w>
olu wo</w>
nor wako</w>
manif est</w>
ket onwa</w>
faith fully</w>
ei ght</w>
dra wn</w>
communic ation</w>
com ments</w>
car e
Y O
W ar</w>
Re be
H u
B rit
B I
A se
wech ene</w>
teach ers</w>
teach er</w>
sin ful</w>
se es</w>
respon ded</w>
princi ple</w>
pos ses
pleas ure</w>
ose yudo</w>
me al</w>
man ner</w>
ma romo</w>
los s</w>
in ation</w>
help ful</w>
gro wth</w>
go tten</w>
gi a</w>
evid ent</w>
es tly</w>
de wa</w>
Stud ents</w>
L am
In tanet</w>
tra ined</w>
ti go</w>
succe ed</w>
se cular</w>
requ ires</w>
pop ul
parti cip
n ori
mok or</w>
immor ality</w>
gres a</w>
end urance</w>
em bo</w>
el le</w>
direc t</w>
cre atures</w>
ci d
be aring</w>
R I
No te</w>
In gresa</w>
Eu ro
Ek les
uni que</w>
t ments</w>
sla ves</w>
sa ve</w>
pati ent</w>
olo s</w>
olo ko</w>
ok on
no kwayo</w>
maduong’ ie</w>
is on</w>
house hol
gi keto</w>
foc used</w>
em ber</w>
e te</w>
b it
W abiro</w>
M ake</w>
M U
E fe</w>
Be d
y ono</w>
wuon d</w>
wor th</w>
str ong
s tic
ro m
recei ving</w>
ny ise</w>
mo ving</w>
mira cul
lew ni</w>
jo mage</w>
g s</w>
don ’t</w>
dis tra
coun tries</w>
conf li
chok ore</w>
bo x</w>
believ ed</w>
be comes</w>
Mex ico</w>
Mar itha</w>
Ekles i
E ph</w>
wat ang</w>
tre ated</w>
se x</w>
richo gi</w>
op o</w>
om s</w>
occ ur</w>
n ene</w>
is tic</w>
in stead</w>
i wuoyo</w>
for d</w>
fav or
c ke
anyuol a</w>
Ra hab</w>
M iyo</w>
M ad
Kanyak la</w>
Eklesi astes</w>
A le
y amo</w>
stat ement</w>
pri de</w>
pas s</w>
pa ko</w>
on u</w>
ma wuoyo</w>
kor ach
el l
chu tho</w>
bo y</w>
ben e
b al</w>
att ack</w>
al most</w>
T u
O ver</w>
I N</w>
Ch il
Bar n
wa kaw</w>
vie ws</w>
vers es</w>
tholi k</w>
te gi</w>
t ony</w>
omi wa</w>
od wa</w>
no ted</w>
kuom u</w>
Wor ship</w>
V i
P odi</w>
O oyo</w>
M or</w>
Di chwo</w>
z a</w>
w itnesses</w>
transl ated</w>
tic ally</w>
t ’s</w>
scriptu res</w>
re mo</w>
por nogra
ple ased</w>
pla in</w>
osiep ene</w>
o j
ma tayo</w>
ma sie</w>
m ul
immor al</w>
h ulo</w>
gr as
ging’ e</w>
gi weyo</w>
evid ently</w>
comp any</w>
c ally</w>
app lied</w>
W inj
K O
Go od</w>
D ha
Bu g</w>
ud ed</w>
t ob
t led</w>
so ci
s cho
ri eyo</w>
reve als</w>
olos ai</w>
no tic
milli on</w>
m wan
increas e</w>
il on</w>
fin ally</w>
fac ts</w>
dha kono</w>
desc end
conc lude</w>
P il
P as
Ka tholik</w>
K olosai</w>
E ar
D ibed</w>
Bab ilon</w>
A ar
wa rito</w>
un ited</w>
t as
refu ge</w>
ref used</w>
re aching</w>
o ka
no konye</w>
mis takes</w>
jochi ende</w>
ill s</w>
hist ori
fi cial</w>
ess ential</w>
en gini</w>
ct or</w>
c ut</w>
ad ds</w>
R ef
Philip pi
A T</w>
5 4</w>
witness ing</w>
winj e</w>
ty pe</w>
ter y</w>
ten ti
temp ted</w>
t ari
p imo</w>
out standing</w>
ord in
mon dik</w>
mal s</w>
li kewise</w>
l er
k m</w>
i tiyogo</w>
g edo</w>
f le
en eno</w>
dist ress</w>
discer n</w>
deli ver</w>
de m
challen ging</w>
car eful</w>
bu gno</w>
be di</w>
ati ro</w>
ass istance</w>
MA N
respon sible</w>
o ketho</w>
nyis ogo</w>
mo los</w>
mili on</w>
k we
i winjo</w>
gas et</w>
expres sions</w>
en g’
ch egi</w>
bus y</w>
Wa duto</w>
S a</w>
Regar ding</w>
E ver
D hi</w>
wh el
stan tly</w>
se tting</w>
re jected</w>
ot amore</w>
om ita</w>
o wach
o tu
kil omita</w>
ic a</w>
i tiyo</w>
gu il
go wa</w>
establ ished</w>
ed ly</w>
e qui
e ded</w>
af wenyo</w>
adi er
Wach no</w>
Philippi ans</w>
Mal er</w>
M ount</w>
Je hu</w>
Hezeki a</w>
Bro ok
Afri ca</w>
us ually</w>
under stand
strengthen ed</w>
sel e
ro r</w>
ph s</w>
pen je</w>
nong’ ado</w>
no wuok</w>
ng er
maber ie</w>
etern al</w>
enga ge</w>
en wa</w>
eas ily</w>
demon s</w>
clos ely</w>
b asi
basi c</w>
On ly</w>
Mi ch
Jach wech
H aving</w>
E z
A sia</w>
8 0</w>
vi ously</w>
t wech</w>
sa fe
s om</w>
re memb
qu ite</w>
pres ented</w>
pin j
or ing</w>
on ment</w>
oher owa</w>
nony ise</w>
no paro</w>
no loko</w>
ne t</w>
me th
mat ure</w>
kwa th</w>
k illed</w>
j ach
i dwaro</w>
har d
gwe dho</w>
gir l</w>
giny al</w>
gase de</w>
continu es</w>
cas es</w>
b ond</w>
Ng’ e</w>
IN G</w>
G r
wi cke
vi c
v a</w>
person ’s</w>
p ti
osi k</w>
os in</w>
or es</w>
om y</w>
o mako</w>
ng’ wech</w>
ma timo</w>
jo puonj</w>
ho mes</w>
f as
chuny u</w>
am s</w>
U l
No yudo</w>
J ar
C olos
8 3</w>
wa ri
vie w
vi or</w>
rul ership</w>
pi che</w>
over whel
ot el
oseny iso</w>
n ang’o</w>
ma e</w>
le he
jo ined</w>
grou ps</w>
go tieno</w>
go de</w>
fre ely</w>
di chiel</w>
cont act</w>
consider ing</w>
con vi
ch wan
ani mals</w>
W he
S T
Barn ab
you ths</w>
um b
th or
tel ling</w>
sul we</w>
san cti
ra ise</w>
ol ok</w>
m toka</w>
jad olo</w>
il is
h ly</w>
en y
e asi
da gi</w>
contr ary</w>
compani ons</w>
car es</w>
ap plying</w>
and ore</w>
Li kewise</w>
K nor
I tal
Eng land</w>
Catholi c</w>
yawuo t</w>
will ingly</w>
uon gore</w>
tim onwa</w>
stop ped</w>
ruok no</w>
o ter</w>
no singo</w>
mast er</w>
m ur
let ters</w>
ko m</w>
ke to
k ness</w>
jonyuol na</w>
j no</w>
issu es</w>
is owa</w>
ili g
gar den</w>
em b
e momiyo</w>
deci de</w>
ci ties</w>
cho go</w>
c ement</w>
as pect</w>
Sp irit</w>
Sa mari
N di
Kap ok</w>
Beth lehe
19 19</w>
wo ya</w>
we al
tu al</w>
signific ant</w>
ring re</w>
res sing</w>
ra id</w>
pro v
ong’ ado</w>
o makore</w>
mar a</w>
ka mbi</w>
indic ated</w>
ill ness</w>
hur t</w>
gener al</w>
for giving</w>
figu ra
fi es</w>
de ar</w>
contribu te</w>
concer ns</w>
con dem
co ho
b sa
appe ar
any iso</w>
am ount</w>
W ang’eyo</w>
U R
U D
Rus sell</w>
Messi anic</w>
K owuoyo</w>
Fa ith</w>
tin de</w>
tend er</w>
pos sib
pione ering</w>
particul ar</w>
os ingo</w>
mwan du
mor owa</w>
min wa</w>
mal ero</w>
l en</w>
ki d
it us</w>
it gi</w>
in ti
in justice</w>
cho os
c ry</w>
c ru
bi g</w>
asi de</w>
ar ombo</w>
al y
Whe ther</w>
Lu o</w>
Knor r</w>
I’ m</w>
v ere</w>
th um</w>
te e</w>
sun ga</w>
re gre
pro f
primar y</w>
p ing</w>
op ini
ol er
okony gi</w>
no sen
mon g</w>
mi b
man yien
la w
kan de</w>
it ary</w>
is es</w>
in side</w>
hear ing</w>
g er
fu wo</w>
dw ok
destro y</w>
an ti
ai c</w>
Min is
Mi cha
G I</w>
Bethlehe m</w>
A ug
win e</w>
timbe wa</w>
the ocratic</w>
repor t</w>
repent ant</w>
re ached</w>
prophe ts</w>
pro min
ose keto</w>
ogand ane</w>
og we
obatis i</w>
o ter
no tice</w>
n u</w>
mot ang</w>
mi tiyogo</w>
mi e</w>
me mor
lok ruoge</w>
jom isonari</w>
instru ctions</w>
harv est</w>
h ing</w>
gi cal</w>
f u</w>
deal ings</w>
d end
car ried</w>
a wuon</w>
M I
Jach wech</w>
Cho k
Brook lyn</w>
tou ched</w>
se as
op hi
ok elo</w>
o temo</w>
o te
nya gore</w>
mo ket</w>
mo d
miga wono</w>
ma bende</w>
fellow shipp
f ra
easi er</w>
e mo
dec ades</w>
al though</w>
a p</w>
U .
T ake</w>
Ma gi</w>
J ati
H aru
F ol
Dra ma</w>
De c
CH I
7 2</w>
0 0,000</w>
z z
y es</w>
to p</w>
th u
spiritu ality</w>
sa ved</w>
richo wa</w>
pro of</w>
pornogra phy</w>
od e
no b
mis e</w>
magaz ine</w>
lweny no</w>
hy po
high ligh
gwen ge</w>
gu ar
en egi</w>
emph asi
develop ed</w>
d ilig
comman ded</w>
bedo ga</w>
ac tly</w>
Samari a</w>
Ro were</w>
No v
Mos aic</w>
Jer man</w>
I biro</w>
yu to</w>
w ok
treas ure</w>
than k
tal king</w>
r us
open ing</w>
op i
no oro</w>
no mako</w>
n y</w>
ma tir</w>
li mbe</w>
for ms</w>
f ell</w>
en tered</w>
de w</w>
chi kowa</w>
ch er
bus iness</w>
b an
Mi ka</w>
Ma go</w>
Haru n</w>
F i
E ven
A mong</w>
wicke dness</w>
wa temo</w>
tr a</w>
re sid
re gi
oten ore</w>
on ally</w>
oken ge</w>
mwa yudo</w>
m usi
jo od</w>
il a</w>
identi fy</w>
gr an
escap e</w>
end ini</w>
drin k</w>
courage ous</w>
b are</w>
af raid</w>
W i</w>
W ell</w>
Mal ai
Jeho sha
J at
Go li
Chi w</w>
Ch ar
C anada</w>
y edhe</w>
wuo g</w>
ther more</w>
th i</w>
tay owa</w>
su peri
rec ent</w>
pat tern</w>
osi ko</w>
od no</w>
o il</w>
mon jo</w>
ma in</w>
leg al</w>
keth ruok</w>
ing’ eny</w>
in tro
i ti
har m</w>
hab u</w>
gi g
ex tre
drin king</w>
dho wa</w>
con tains</w>
Un der</w>
MU MA</w>
M ed
wang’ i</w>
u bed</w>
tiend gi</w>
tempor ary</w>
survi ve</w>
sh ed</w>
op e</w>
occur red</w>
o yiero</w>
o wago</w>
ny iri</w>
ng’ won
ng’ i
hi l</w>
gi keni</w>
g od</w>
es ting</w>
es o</w>
deter mine</w>
dec ei
d ro
anxi ous</w>
Wuo wi</w>
W ho
Pen jo</w>
P UON
On ce</w>
O r
Na zar
M at</w>
Fur thermore</w>
Fe bru
Ch and
vil la
tim ono</w>
strugg le</w>
sh ared</w>
ris e</w>
resol ve</w>
proc ess</w>
ou di</w>
op pres
ob served</w>
no konya</w>
ng ano</w>
mo chuno</w>
jonyuol ne</w>
deli gh
an ity</w>
S ig
Re ad
Pen tek
O c
N or
N ever</w>
Micha el</w>
Fin ally</w>
Ab sal
5 2</w>
3 00</w>
z er</w>
yawuo te</w>
y an
wee ks</w>
we ye</w>
tri al</w>
st ory</w>
res cu
re al
pow ers</w>
pinyruo dh</w>
pi ero</w>
peac e
n us</w>
n one</w>
mer ely</w>
len ess</w>
l ac
kuo ma</w>
keth ogi</w>
ka wuon
k isera</w>
ji we</w>
it wa</w>
gri ef</w>
gather ed</w>
com mitted</w>
W illi
T wo</w>
Bo th</w>
wang’ a</w>
view point</w>
uon de</w>
th one</w>
provi ding</w>
pro vision</w>
nor mal</w>
me dic
i keto</w>
gru p</w>
discus sion</w>
dis fellowshipp
deliver ed</w>
de eds</w>
at tra
appear ance</w>
ad v
ad di
ac ting</w>
ab ilities</w>
U SE
RUO K</w>
Pinyruo dhno</w>
Pentek ost</w>
Pen te
Pas aka</w>
P od</w>
N eno</w>
Hi gh</w>
Christi anity</w>
re ality</w>
pos es</w>
po tenti
osi epe
olu oro</w>
ok el
od war</w>
no d
ma dhi</w>
lif est
kod ok</w>
e ating</w>
divor ce</w>
dha habu</w>
desig ned</w>
dal ano</w>
chok ruogno</w>
chien g’no</w>
b ath</w>
ay i
an ced</w>
ac knowled
a j
a de</w>
We chego</w>
P hil</w>
Ni mar</w>
Mar tha</w>
I S</w>
Egy pti
wan ono</w>
te ars</w>
recogni zed</w>
re present</w>
pro visions</w>
ose miyowa</w>
o oyo</w>
mon diki</w>
maduong’ no</w>
ke te</w>
im in
gra titude</w>
go cho</w>
gener ation</w>
g ine</w>
en ed</w>
e g</w>
do ctr
deta ils</w>
decl are</w>
daugh ters</w>
cal ling</w>
bene ficial</w>
at ors</w>
appe ars</w>
amin wano</w>
Ver sion</w>
T E
P ri
P or
Gi de
6 6</w>
19 50</w>
writ ing</w>
vi ct
stu died</w>
righ tly</w>
ref er</w>
re ject</w>
re comm
paragra phs</w>
p on</w>
our ces</w>
organi zed</w>
ol a</w>
o onge</w>
nya thin
listen ed</w>
jo in</w>
indic ates</w>
gi maduong</w>
gener ous</w>
fles hly</w>
ex hor
e ager</w>
differ ence</w>
d less</w>
correc t</w>
at s</w>
af f
ad ed</w>
USE D</w>
L and</w>
J ak</w>
H ere</w>
Fa ther’s</w>
E s
2 00</w>
winjruok gi</w>
wach ne</w>
w wa</w>
vers ity</w>
un de</w>
treat ment</w>
si mo</w>
shepher ds</w>
quali fied</w>
per formed</w>
par t
p w
ose konyo</w>
os ing
omi gi</w>
og wel
o ta</w>
mean ing
m ere</w>
li mit
li fe
k re</w>
invol ve</w>
ex actly</w>
discourag ed</w>
dh gi</w>
deal ing</w>
de man
chand ruog
ar ise</w>
advanta ge</w>
N gi
H im</w>
win y</w>
vi ous</w>
ther n</w>
su n</w>
so cial</w>
sir kande</w>
s end</w>
refer ence</w>
pleas ing</w>
o g</w>
nyis ogi</w>
noch weyo</w>
ne arly</w>
n oriwo</w>
mo siko</w>
mo biro</w>
m tok
lig ang
lifest yle</w>
le m</w>
la ch</w>
ki tiyo</w>
jo kwath</w>
jap uonj</w>
is ts</w>
ill ing</w>
i tion</w>
hand le</w>
el ’s</w>
dh oudi</w>
determin ation</w>
d r
conven tions</w>
constru ction</w>
con stantly</w>
al lows</w>
al coho
U N
Pro mis
M ach</w>
Happ y</w>
Bib li
yor ene</w>
y ad
wa kawo</w>
tim ne</w>
t ar
su d
ro hone</w>
rebelli on</w>
quo ted</w>
pen jogo</w>
particul arly</w>
mu dho</w>
mission aries</w>
ma pod</w>
le k</w>
ken ed</w>
jak ony</w>
j umbe</w>
it ance</w>
hol ding</w>
gro wing</w>
god s</w>
for ces</w>
ep tive</w>
ep ing</w>
dis tribu
cho ices</w>
ans a</w>
a wake</w>
Se cond</w>
S pe
Pente cost</w>
P u
Mich elle</w>
K om
K anaan</w>
G o</w>
F ri
Chi ke</w>
Chi egni</w>
wh er
us o</w>
t am
sin ners</w>
sh ou
pri v
per form</w>
mochi do</w>
mi wa</w>
low ly</w>
lic ation</w>
k u</w>
go es</w>
gi temo</w>
fac ing</w>
dwar one</w>
c ks</w>
be long</w>
att ac
ase bedo</w>
ap en
any is</w>
a be
T R
Pi cha</w>
P E
O F</w>
Nazar eth</w>
N W</w>
Israel ’s</w>
Gi ve</w>
An ti
A wake</w>
197 6</w>
wor se</w>
w in</w>
viol ent</w>
ti ek</w>
si ans</w>
remar kable</w>
par able</w>
ow ang</w>
ony a</w>
oke t
mong’ ere</w>
mo b
mil dness</w>
mar u</w>
k l
inv is
impres sed</w>
i ght</w>
husb ands</w>
h at
feel s</w>
descend ants</w>
car rying</w>
ay ’s</w>
accompl ished</w>
U te</w>
S adly</w>
P ass
I rel
Hezeki ah</w>
H ear
Goli ath</w>
A N</w>
2 ,
th re
speak s</w>
separ ate</w>
s ought</w>
respe ct
pe ti
notic ed</w>
k ose
jo loch</w>
ji wa</w>
inher itance</w>
in ia</w>
hel l</w>
expe ct
er ly</w>
dom in
di d
dang erous</w>
d wel
d ar
compar ed</w>
command ments</w>
be gotten</w>
am b
T ur
S ophi
Ri eko</w>
R it
R ep
Pr ay
M anyalo</w>
La z
L atin</w>
Jal och</w>
Israel ite</w>
Irel and</w>
E m
A ra
A Y
u ter
teri al</w>
t ang</w>
si ck
se cure</w>
repor ts</w>
ondi ki</w>
on jo</w>
omi yogi</w>
omi ya</w>
ok oro</w>
och a</w>
occasi ons</w>
o jiwo</w>
no tiyogo</w>
no miyogi</w>
kawuon o</w>
k en</w>
jo wetewa</w>
is ol
in ner</w>
ik ruok</w>
ig nor
gi ti</w>
gen g’
ga ch</w>
fwen y
famili ar</w>
faith fulness</w>
claim ed</w>
care er</w>
c cl
batis i</w>
ann oun
a u</w>
Wu ora</w>
Pic ture</w>
Pharao h</w>
Pass over</w>
P ile</w>
N is
Laz aro</w>
L O
J odongo</w>
Gide on</w>
Dha ko</w>
Absal om</w>
wang’ ad</w>
w w.
w ww.
volun te
tim no</w>
su m
satis fying</w>
s ite</w>
s h</w>
rich one</w>
rec alls</w>
pos s
per man
pen jogi</w>
ong s</w>
mo dhi</w>
ma yom</w>
ke ti</w>
jo telo</w>
it able</w>
is omo</w>
gui ded</w>
gras p</w>
ep t</w>
en vir
el no</w>
direc tly</w>
d u</w>
cr us
ccl esi
b ably</w>
ay ie</w>
associ ated</w>
appreci ated</w>
K uwe</w>
J ol
G eno</w>
E thi
wido w</w>
wen do</w>
wan i</w>
wa tem</w>
st ake</w>
r wa
qu ar
p he
ob je
o h
mo weyo</w>
men tion</w>
ma gin
l ame</w>
jon abi</w>
jat elo</w>
hospit ality</w>
high ly</w>
g al
d no</w>
d le</w>
cel e
arrang ements</w>
ad ak</w>
Some times</w>
L is
C ol
Aar on</w>
z es</w>
wang’ wa</w>
wa winj</w>
wa weyo</w>
wa mi</w>
superi or</w>
seri ously</w>
refer ring</w>
ra in</w>
pre judi
pi cha</w>
pati ently</w>
ota wa</w>
or umo</w>
opuonj ore</w>
na h</w>
ma pok</w>
ma luwogi</w>
le aving</w>
j uok</w>
ish ment</w>
is ogo</w>
in woya</w>
i we</w>
ging’ ado</w>
gi k
gas ed
eng ni</w>
de pres
de fin
corru p
conne ction</w>
be ha
back ground</w>
as t
an ge</w>
a ma</w>
With out</w>
Mo loyo</w>
MA T
J ord
H as</w>
G ot</w>
F ran
Chil dren</w>
C ity</w>
Brit ain</w>
At aro</w>
yu d
wal ked</w>
wach one</w>
wa puonjre</w>
tud es</w>
sk und
s ake</w>
rul ing</w>
r wak
produc ed</w>
poin ted</w>
pa ir</w>
o ts</w>
no chiwore</w>
ni kare</w>
neighbor s</w>
ne u
musi c</w>
mis engini</w>
mib adhi</w>
kuo mi</w>
kind u</w>
k ne</w>
invis ible</w>
inv ite</w>
il os
gro wn</w>
gom bo
glo bal</w>
b ene</w>
allow ing</w>
ad ver
a ja
W ar
Ul aya</w>
Sophi a</w>
S ol
S oci
Par ents</w>
Nyasach i</w>
N on
N O
Inter net</w>
Gi momiyo</w>
E ri
E cclesi
yad h</w>
wh eat</w>
wat ch
wa donj</w>
u nyalo</w>
tob a</w>
tim one</w>
ti tudes</w>
t we
t aber
success fully</w>
ru n</w>
rec reation</w>
prec eding</w>
od us</w>
nochu eyo</w>
mon e</w>
meaning ful</w>
maka te</w>
joy ful</w>
ing’ a</w>
hum bly</w>
heal thy</w>
gi ri
g welo</w>
en se</w>
ed y</w>
der ed</w>
comfor ting</w>
chu l</w>
chi wor
beli ever</w>
a dh
S ing
Ok toba</w>
No ah’s</w>
Nis an</w>
L A</w>
K is
K end</w>
Jose p
E very</w>
7 3</w>
wil d</w>
wa sigu</w>
w ende</w>
th ne</w>
th im</w>
tari k</w>
sandu k</w>
rec all</w>
proc e
od woko</w>
nyad inwoya</w>
ng’ anjo</w>
n ar
n ant</w>
mi de
illi ons</w>
i yie</w>
ha wi</w>
gi dak</w>
finan cial</w>
ex pen
er ’s</w>
en ogo</w>
compas sion
c at
attend ance</w>
ang’ ado</w>
adv ance</w>
add ress</w>
ad s</w>
W i
Thessaloni ka</w>
Ruo dh</w>
Og anda</w>
Mi ga
Lu wo</w>
Josep h’s</w>
E vi
E nok</w>
B E
2 ,000</w>
wal ando</w>
wa rit</w>
vers al</w>
uo yo</w>
ti moga</w>
s cripture</w>
re action</w>
puonj a</w>
par ently</w>
p es
os uru</w>
os er
on omy</w>
obe ying</w>
o wagi</w>
no donjo</w>
no bi</w>
mi wuoyoe</w>
mi geno</w>
mer ci
maj or</w>
m outh</w>
low ing</w>
k ill</w>
je al
influ enced</w>
hi uru</w>
gover nments</w>
gi wuok</w>
g ono</w>
fac tors</w>
enc oun
e ag
den ly</w>
cou ples</w>
con sis
c over</w>
benef ited</w>
assu res</w>
Stud y</w>
Ste ph
K et</w>
J as</w>
G inyalo</w>
wuon dore</w>
ste ad
po t</w>
p our
op uonjo</w>
ogand ano</w>
nyi ego</w>
mil itary</w>
mar ry</w>
lu we</w>
kid ono</w>
hon es
h en
emo tions</w>
el e
dre w</w>
ch omo</w>
cam pa
ati onal</w>
assig nments</w>
al e
S overeig
Promis ed</w>
K inde
J O</w>
G ra
G A
Ex odus</w>
E ze</w>
Chi wo</w>
A riyo</w>
yi e
wor th
we ak</w>
wasumb ini</w>
tra vel</w>
tem pt</w>
sid ang</w>
rul er</w>
require ments</w>
rep lied</w>
pro bably</w>
pa id</w>
ok ed</w>
o mogo</w>
o loyo</w>
n ames</w>
many aka</w>
kuo r</w>
korach wich</w>
kany ono</w>
jour ney</w>
instru ction</w>
incl ined</w>
hi ke</w>
fo ol
e ts</w>
deliver ance</w>
adul tery</w>
T itus</w>
Soci ety</w>
Parad is</w>
P re
No tice</w>
Minis try</w>
Mat ayo</w>
Mar i</w>
F lood</w>
Ecclesi astes</w>
Colos sians</w>
20 14</w>
zar us</w>
wonder ed</w>
wa jo
ul t</w>
t amore</w>
sugg estions</w>
sle ep</w>
sing onwa</w>
secre t</w>
pur poses</w>
puonj no</w>
pre ach
parad is</w>
out come</w>
ose tiyo</w>
ob ol
o lokore</w>
no geno</w>
n ine</w>
mil d</w>
med itating</w>
mar k</w>
mak re</w>
jos ayans</w>
jat end</w>
is ai</w>
in no
im possible</w>
i yudo</w>
gradu ally</w>
gi onge</w>
gi bi</w>
endeav or</w>
effe cts</w>
dwon d</w>
dwar oree</w>
chap ters</w>
ch weyo</w>
c ent</w>
ari yogi</w>
ak i</w>
a f</w>
Qu estions</w>
Na omi</w>
M omiyo</w>
La zarus</w>
Jord an</w>
Hi ga</w>
C ome</w>
An na</w>
wh ite</w>
wa her</w>
tra l</w>
st s</w>
seri es</w>
peac eful</w>
p yu
owad wano</w>
ose tho</w>
ony ise</w>
omi yi</w>
o ol</w>
nying no</w>
ny uolo</w>
nony isogi</w>
nobe di</w>
n ak
mong’ eyo</w>
mar vel
manyien no</w>
mak ruok</w>
ma mit</w>
m us
lov ingly</w>
ligang la</w>
ko diechieng</w>
j ari
in tel
im pris
i wacho</w>
heav y</w>
er i</w>
el imin
difficul ties</w>
avo i
appro ached</w>
an di
ac le</w>
Septem ber</w>
Ju ly</w>
Far isai</w>
And re
writ ings</w>
wang’ ado</w>
wa lendo</w>
ter ing</w>
su ria</w>
od ewo</w>
o ma
nyath ine</w>
no ting’o</w>
ko machielo</w>
jal endo</w>
ide as</w>
gi machielo</w>
duc ed</w>
demonstr ated</w>
chi wonwa</w>
associ ates</w>
associ ate</w>
Winj ruok</w>
Ti j
Sovereig n</w>
S ea</w>
L U
Ki do</w>
Han nah</w>
BI B
B apti
AN E</w>
9 0</w>
y r
x ed</w>
w it
w gi</w>
valu es</w>
v ast</w>
uter onomy</w>
than k</w>
su per
sol di
so li
se a</w>
s word</w>
rend ered</w>
otim or
ose konya</w>
ordin ary</w>
odon j
nyad ing’eny</w>
n ity</w>
mi gi</w>
liter al</w>
la mowa</w>
ken di</w>
isi on</w>
increas ed</w>
im perfection</w>
g’ ado</w>
g or
dre ds</w>
com mission</w>
chi er
ch wa
c us</w>
c li
auth orities</w>
ass urance</w>
Ruo dhi</w>
Nyithin do</w>
Ne h</w>
J A
Galati a</w>
Euro pe</w>
De uteronomy</w>
wi wa</w>
tim bene</w>
ti z
thr one</w>
surpris e</w>
sin ned</w>
resul ted</w>
r out
puonj go</w>
pat ri
owe tego</w>
os ity</w>
off ers</w>
nen ogi</w>
nd ara</w>
n de
motiv ated</w>
mo ment</w>
mo dh
mi der
mak oro</w>
la y</w>
iny al</w>
inter national</w>
hon ni</w>
gran ted</w>
gi maber</w>
gi luw</w>
gh ts</w>
en ever</w>
e ch
des ir
chu do</w>
W A</w>
Septem ba</w>
Ru ther
Pe ter’s</w>
O biro</w>
Jan dik</w>
D waro</w>
B er
An g
Al mighty</w>
A m</w>
6 1</w>
wuon d
wuo ye</w>
writ er</w>
wa p
wa ga</w>
us eful</w>
ul ai</w>
to ber</w>
th ro
tel ev
st one</w>
sa ges</w>
rema ins</w>
refle cted</w>
r anyis</w>
potenti al</w>
os re</w>
or ega</w>
om b
o kayo</w>
nowach one</w>
nen go</w>
ma le</w>
ma il</w>
lis t</w>
kind ’s</w>
j oneno</w>
inde fin
im e</w>
i magin
ga ined</w>
do ga</w>
do g</w>
d ru
cri min
cour t</w>
chu ne</w>
chi ef</w>
bu ch</w>
be go</w>
be ast</w>
au di
at edly</w>
ag ore</w>
ag ed</w>
af ter
ac knowledge</w>
Wh atever</w>
U s</w>
Th o</w>
Oc tober</w>
O nyalo</w>
Ke to</w>
J ulai</w>
6 2</w>
wasen eno</w>
tra tion</w>
sp or
s ando</w>
remin ded</w>
physi cally</w>
one g</w>
ol ony</w>
ochi wore</w>
nyithin dwa</w>
no chakore</w>
ne ar
ndal owagi</w>
mon d</w>
mis e
minis terial</w>
minis ter</w>
m our
le hear
kom pyu
ib u</w>
ib i</w>
g old</w>
g isi
fir st
did n’t</w>
concl uded</w>
compassion ate</w>
ci tiz
chen r
ca uses</w>
brother hood</w>
bab y</w>
ang ry</w>
am ent</w>
acqu a
U ni
Th an
Su rely</w>
Ny arombo</w>
L earn</w>
ywa go</w>
wany ore</w>
treas ures</w>
thuol one</w>
th ur
t un
t ations</w>
surpris ed</w>
stic k</w>
sp ouse</w>
se ven
sa fe</w>
prepar ing</w>
oti go</w>
oji w</w>
odon j</w>
ness es</w>
mon degi</w>
mo m
kony iso</w>
exis ts</w>
do w
disfellowshipp ed</w>
con ve
chi w
bed go</w>
any i
admon ition</w>
aband oned</w>
a wa
Ri wruok</w>
OR E</w>
Hel p</w>
5 6</w>
www. jw.org</w>
winjruok ne</w>
thuol ono</w>
th ur</w>
tay ogi</w>
s ang</w>
rel ate</w>
prophe tic</w>
prejudi ce</w>
pi em</w>
os es
oppos ers</w>
om on’s</w>
o oro</w>
no tes</w>
mider ma</w>
limit ations</w>
l ab
k wano</w>
jo wasi
id ol
gru be</w>
gi konyo</w>
gen owa</w>
figura tive</w>
ex plan
enab led</w>
dwel ling</w>
d ate</w>
cy clo
choos ing</w>
chi kno</w>
at emo</w>
ang’ ad</w>
Ze chari
Sol omon’s</w>
O U
Ny is</w>
Nehe mia</w>
Nehe mi
Eph esus</w>
En cyclo
E no
Ch urch</w>
Bar ak</w>
Ang’ eyo</w>
who lehear
wa dag</w>
us crip
travel ed</w>
sacrifi cing</w>
repe atedly</w>
rend er</w>
rema ining</w>
religi ons</w>
re go</w>
proper ly</w>
parad iso</w>
on on</w>
okon yowa</w>
od ay’s</w>
nok or</w>
n achako</w>
moti go</w>
mose ti</w>
mal uor</w>
l al</w>
ki di</w>
ka yiem</w>
ish es</w>
instru cted</w>
inhab ited</w>
ik re</w>
gi rito</w>
gi p
ex ist</w>
envir onment</w>
el led</w>
com b
chi elo</w>
c ris
a we</w>
V ER</w>
TI M
M ei</w>
L ok
L endo</w>
As sy
1 20</w>
1 ,000</w>
wrong doing</w>
wa kwayo</w>
tu o</w>
tr an
to go</w>
tij gi</w>
thous and</w>
there after</w>
soldi ers</w>
sci enti
scho ol
s ongs</w>
rejo ic
reason ing</w>
re search</w>
pro sp
oun ding</w>
osiep ni</w>
ochi er</w>
no mulo</w>
n er
marvel ous</w>
ma tuwo</w>
m watimo</w>
m ori
m its</w>
lwe te</w>
listen ers</w>
l ying</w>
ki ya</w>
kar ia</w>
jos omo</w>
je ction</w>
in tended</w>
illustra tions</w>
hab its</w>
gi miyo</w>
ga go</w>
dis ease</w>
cul ture</w>
car ed</w>
bal anced</w>
alwor ano</w>
ag u
a weyo</w>
Ze karia</w>
WH AT</w>
Sp ir
P ho
O diechieng</w>
Na de</w>
Man osingi</w>
Ka in</w>
J on</w>
Ital y</w>
C ol</w>
A nyalo</w>
wuo kie</w>
wil der
wa ters</w>
ur ity</w>
uon o</w>
un godly</w>
ti eng</w>
sick ness</w>
s we
rout ine</w>
r ent</w>
penj re</w>
p ath</w>
og er</w>
obati se</w>
o wach</w>
ny am
nol uongo</w>
n u
man kind’s</w>
ma siko</w>
m ora</w>
li ete</w>
jam isonari</w>
ib er
hun dreds</w>
for ti
end ured</w>
e ties</w>
duo ko</w>
disc overed</w>
convi ction</w>
communic ate</w>
bo yo</w>
ar ily</w>
appoin tment</w>
am edo</w>
af fa
adjus tments</w>
Tim e</w>
Lev ites</w>
Je f
I I</w>
H alls</w>
Ger man</w>
D I
Ar thur</w>
wr ath</w>
wa ye</w>
vis iting</w>
un able</w>
soci ety</w>
r ang’
pro ph
pr oud</w>
perc ei
ol al</w>
ob lig
o li
num erous</w>
nor omo</w>
no sing
no puonjore</w>
na g
mon owa</w>
main taining</w>
k wer
k ano</w>
inhab it
idol at
gom b
fin ding</w>
exerc ising</w>
exc ell
excell ent</w>
er on</w>
e ing</w>
dig nity</w>
dho od</w>
d ress</w>
chop i</w>
beha vior</w>
be tr
alcoho l</w>
S .
O b
Kar en</w>
J ad
Des emba</w>
D el
Cam eron</w>
tho od</w>
ta on
t es
spir its</w>
sig and</w>
si t</w>
seven th</w>
se vere</w>
s ay
ring re
requ ire</w>
re pro
pursu ing</w>
puonj ri</w>
pin es</w>
p end
nyin gi</w>
moti ves</w>
modes t</w>
mo del</w>
mit tee</w>
mi d</w>
ko t</w>
h ous
gi wuoyo</w>
gi chung</w>
fir mly</w>
f ound
encourag es</w>
dra wing</w>
descri be</w>
cle ans
bol dness</w>
at i</w>
an ia</w>
ab road</w>
Yi ero</w>
Tim be</w>
S ab
Por tu
L A
I l
H A
Do ing</w>
Ch en
Bed uru</w>
Aug ust</w>
wuo yogo</w>
wilder ness</w>
wase bedo</w>
wach onegi</w>
th uol</w>
ter ore</w>
t ac
strengthen ing</w>
st ress</w>
sel y</w>
relati ve</w>
ref use</w>
pour ed</w>
peop le’s</w>
osiep ne</w>
ord ’s</w>
od akie</w>
obe yed</w>
ob tain</w>
mo makore</w>
mide kre</w>
l ad
keth i</w>
kal at
jo k</w>
i par</w>
high er</w>
gue dho</w>
employ ment</w>
e yowa</w>
e qu
d wach
campa ign</w>
cam p</w>
assemb ly</w>
advan cement</w>
abund ance</w>
Y er
Ny ing</w>
Miga wo</w>
L ord’s</w>
Kind a</w>
Geor ge</w>
G im
Ex plain</w>
E x</w>
D or
B ul
A mor</w>
10 3</w>
weal th</w>
wad u</w>
villa ge</w>
su res</w>
ruok ne</w>
rele ased</w>
piny gi</w>
osi p
or em</w>
offi cial</w>
o wil</w>
not amore</w>
non di
no makore</w>
ni tiere</w>
mira cles</w>
mara chno</w>
lead s</w>
lak tar</w>
ko wuoyo</w>
keep s</w>
ise es</w>
inher ited</w>
inhabit ants</w>
inde pend
gri ev
f requ
en trusted</w>
e ce</w>
di ek</w>
confli ct</w>
cid ent</w>
chu no
belong s</w>
am ’s</w>
ad ness</w>
accep ting</w>
a ’s</w>
W as
Ruther ford</w>
Philip pines</w>
Phar isees</w>
Ny a
N abo
M al</w>
K ol</w>
H on
G as
Eno ch</w>
E ka</w>
AL O</w>
writ ers</w>
wen g
war s</w>
wa penjre</w>
usi ve</w>
th ful</w>
t ests</w>
st or
skund no</w>
sh ar
sch e
re mind</w>
re ch</w>
pri ze</w>
p ap
onen re</w>
nger ono</w>
n ara</w>
modh uro</w>
mo luoro</w>
mi c</w>
mag es</w>
ma tiende</w>
ma kamano</w>
lin zi</w>
li mit</w>
kod u</w>
ji wi</w>
ji w</w>
ing u
in g’o</w>
happen s</w>
gi kony</w>
gi chopo</w>
gi chiwo</w>
ev angeli
enjo y
end i</w>
do w</w>
dho ga</w>
bu che</w>
b ing</w>
at titudes</w>
ag a</w>
aff li
abund ant</w>
Z A
Qu e
Pen j
P IN
Ny iso</w>
N i</w>
M nara</w>
M linzi</w>
M el
K anyo</w>
Han na</w>
H ab
Go g</w>
Gi go</w>
F ili</w>
Dec ember</w>
wi to</w>
we ap
vo w</w>
vis its</w>
twe ge</w>
tem pl
suppor ting</w>
ro wa</w>
rest ore</w>
ren ch</w>
patri ar
pa g
op og
ok ing</w>
odiechien g’no</w>
odhi ambo</w>
ob st
o kethore</w>
nyas aye</w>
ny ocha</w>
no duogo</w>
mo dwaro</w>
mis s</w>
mi er</w>
lo chne</w>
im bo</w>
i can</w>
hat red</w>
har m
gi kawo</w>
friend ships</w>
fa thers</w>
f ed</w>
ex tra
em s</w>
divi ded</w>
displ ayed</w>
dho ot</w>
ch as
c tively</w>
bug ego</w>
bu y</w>
bri ef</w>
as aya</w>
am ing’a</w>
affa irs</w>
ad just</w>
R eli
PUON J
P on
O ri
N ono</w>
L E
Ka w</w>
Jef tha</w>
F rench</w>
Corin th</w>
CO VER</w>
trou ble</w>
ta onde</w>
t ero</w>
resol ved</w>
rel ations</w>
pass ing</w>
ose kelo</w>
open jo</w>
op uon
od gi</w>
ny oso</w>
ny ak
no ketho</w>
mo ves</w>
mo kendore</w>
mo dong</w>
medic al</w>
m uo
lo ye</w>
lo go</w>
l end
kl as</w>
jo winjo</w>
jo odi</w>
id es</w>
he ed</w>
h es
glori ous</w>
gi kogi</w>
for nic
fo ot
em bra
don ia</w>
d ar</w>
con tra
comfor table</w>
bl ind</w>
beli ef</w>
b ’s</w>
as ks</w>
apar t</w>
ag ombo</w>
a id</w>
Wa cho</w>
W E
Ti to</w>
Ser vice</w>
Ndi kono</w>
Mar ch</w>
M ad</w>
Lam b</w>
Jos h</w>
J es
Char les</w>
B less
200 3</w>
wis ely</w>
wa miyo</w>
wa ikore</w>
tho e</w>
ter ri
t ask</w>
sla very</w>
si em
schol ars</w>
sa d</w>
ro yal</w>
repres ent
reli able</w>
r u</w>
qu it</w>
pain ful</w>
oti ek</w>
o dich</w>
nyis i</w>
no dok</w>
n ings</w>
mis onari</w>
mig epe
mi es</w>
mi dwaro</w>
mi chno</w>
mi che</w>
merci ful</w>
mar fu
maj ority</w>
ik i</w>
h ate</w>
gi puonjore</w>
dif fer</w>
di po</w>
dar kness</w>
ct ors</w>
corru pt</w>
chun go</w>
arrang ed</w>
ani mal</w>
ang ers</w>
alwor awa</w>
aband on</w>
a ir</w>
a e</w>
Pray er</w>
M iri
L on
K i</w>
Je ph
HO W</w>
Gim oro</w>
Eri c</w>
BIB LE</w>
Am keni</w>
Ag ost</w>
A H</w>
’ S</w>
zeal ously</w>
yu doe</w>
weten a</w>
wel come</w>
uong’ no</w>
un clean</w>
u tegi</w>
u pri
tri p</w>
thank ful</w>
s cro
ro ot</w>
res ources</w>
res er
repres ented</w>
rele ase</w>
peop les</w>
ob o
nag ogu
man uscrip
la d</w>
ko ko</w>
k uma</w>
ja wo</w>
id h</w>
gather ing</w>
emi a</w>
crip tion</w>
consci ous</w>
ch wora</w>
be die</w>
anyi en</w>
ah er</w>
Un der
T rin
Si mon</w>
S. A</w>
S od
Pinyruo dhe</w>
Per sia</w>
N ondiko</w>
M anyien</w>
K no
K it
Jeph th
Janu ary</w>
Ca in</w>
B ol
wa onge</w>
v ant</w>
uon do</w>
thuo lowa</w>
tho thgi</w>
ther wise</w>
tend ency</w>
t ung</w>
suppor ted</w>
ro ss</w>
rit owa</w>
rec ently</w>
read ily</w>
re view</w>
quic k</w>
ol ero</w>
o hinga</w>
o here</w>
n ur
mat urity</w>
lov ers</w>
less ness</w>
l ok</w>
kompyu ta</w>
ko chung</w>
jo chan</w>
im ed</w>
gi c</w>
fe atures</w>
fe aring</w>
ep tion</w>
e ’s</w>
e dition</w>
dre am</w>
de gre
coun sel
con templ
b ora</w>
b ayo</w>
audi ence</w>
an cy</w>
al led</w>
ac y</w>
Win jo</w>
T eko</w>
S un
P EN
Ok ang</w>
O ther</w>
Kom iti</w>
E i</w>
CH E</w>
Ben jam
Ba al</w>
AN D</w>
6 00</w>
winjo ga</w>
we degi</w>
wang’ gi</w>
vi a</w>
ur ore</w>
uni versal</w>
tou ch</w>
teen ager</w>
shou l
repor ted</w>
relation ships</w>
prote cted</w>
priv ate</w>
os omo</w>
op ar
ochi k</w>
no loso</w>
n eli
n al</w>
mo sen
mo dich</w>
marfu k</w>
ha i</w>
go od
gise bedo</w>
f uon
en ono</w>
dow n
con ten
con duc
comm end
chal re</w>
c tly</w>
bal ance</w>
ab i
Yer emia</w>
Willi am</w>
Un like</w>
T a
San du
S isera</w>
S hor
Lon don</w>
K E</w>
K .
Janu ar</w>
Fa ith
Da y</w>
Bibli cal</w>
B el
Amer ican</w>
8 6</w>
4 00</w>
10 4</w>
yi er
won egi</w>
winj re</w>
wee ds</w>
wa kony</w>
wa chung</w>
v ers</w>
ten ge</w>
si vely</w>
ruok gi</w>
rewar ded</w>
re ques
posses sions</w>
ot eno</w>
ose chako</w>
om be</w>
ol den</w>
oke te</w>
ny ar</w>
ny ar
non dik</w>
mony alo</w>
ma bedoe</w>
ki wuoyo</w>
ki a</w>
ken da</w>
jo wa</w>
it ’s</w>
head s</w>
g eng</w>
for ming</w>
ess ed</w>
en ting</w>
e con
dwa her</w>
du ce</w>
dhi ye</w>
dang ers</w>
con fir
ch kuot</w>
am ed</w>
addi tional</w>
V E</w>
U pon</w>
Sod om</w>
S omo</w>
Pe ace</w>
P oti
O ut</w>
L et
Gosp els</w>
Even tually</w>
E .
E. N</w>
Benjam in</w>
B iro</w>
A c
6 9</w>
14 5</w>
x es</w>
wasi ki</w>
wa lemo</w>
up building</w>
u wegi</w>
u b
ti red</w>
ter ms</w>
symboli c</w>
sud denly</w>
stru ck</w>
s ong</w>
s low</w>
rul es</w>
rie kni</w>
ri eny</w>
ran ted</w>
ou ris
ol alo</w>
obol ore</w>
ni a</w>
moun tains</w>
l led</w>
kit epe</w>
ka n</w>
jonyuol wa</w>
inten se</w>
im edo</w>
identi fied</w>
i c</w>
househol der</w>
gi medo</w>
gi ikore</w>
first born</w>
exc iting</w>
er ror</w>
earn est</w>
dho ge</w>
de fe
d well</w>
comp are</w>
clo thing</w>
chi ega</w>
bu r</w>
b lo
b ers</w>
an aly
ac ross</w>
Y aye</w>
Wuo yo</w>
Wor k</w>
Shor tly</w>
S al
Par ie</w>
Ne bu
N in
M ay
Ja iro</w>
will ing
wi chkuot</w>
we bsa
wa wuo</w>
wa her
vict ory</w>
vi ces</w>
v es
us tri
star s</w>
she ba</w>
rest ored</w>
regi on</w>
re pu
re mb</w>
pleas ant</w>
pl ans</w>
peace able</w>
par ore</w>
ose kalo</w>
or go</w>
or es
oni gi</w>
ong’ ad</w>
ob serv
o th
ny aminwano</w>
mu ya</w>
mil e</w>
les ome</w>
kel one</w>
it emo</w>
h inya</w>
gra in</w>
gi we</w>
g okinyi</w>
es ides</w>
en able</w>
dev ast
d den</w>
cre ate</w>
con fron
bro ke</w>
bo dies</w>
b uo
b on
al d</w>
T i</w>
Spir itu
Ser mon</w>
S tr
P S</w>
Ng’ ano</w>
N onyiso</w>
M atin</w>
Jan abi</w>
J ab
In dia</w>
Evi d
An s
,0 00,000</w>
yo t
y ear
weten i</w>
we ya</w>
wa chi
usi as
understand s</w>
un believing</w>
trus ting</w>
th usias
t ary</w>
sy nagogu
signific ance</w>
si an</w>
schol ar</w>
s old</w>
resid ents</w>
repres ents</w>
repent ance</w>
re ign</w>
ran ge</w>
pa gan</w>
p il
osiep ena</w>
omi c</w>
ok ore</w>
og o
nosi eko</w>
no ketonwa</w>
mos mos</w>
meth ods</w>
k es</w>
jonyuol ni</w>
ig n
go yiem</w>
gi ti
gi rit</w>
fle e</w>
fe dha</w>
enjo ying</w>
el ds</w>
distri ct</w>
disas ter</w>
cru el</w>
con cen
bro ken</w>
am re</w>
al e</w>
ab ri
V al
Tho mas</w>
TI ON</w>
P oland</w>
Osi ep
Nehemi ah</w>
N am</w>
N I</w>
Mal a
M od
Kis ungu</w>
K E
Ju n</w>
Joh a</w>
JEHOV A</w>
H E
Chr on</w>
Bri an</w>
Bo ok</w>
6 4</w>
yu de</w>
yawuo wi</w>
willing ness</w>
wa wacho</w>
wa fwenyo</w>
vie wing</w>
uni on</w>
un u
ten ed</w>
st ore</w>
soli d</w>
sing ing</w>
s mok
s and
rom re</w>
rit ogi</w>
read s</w>
re move</w>
ra ine</w>
proper ty</w>
ph ilos
p hi
ord ingly</w>
nor ingo</w>
no konyogi</w>
no a</w>
nen re</w>
ne ge</w>
med itation</w>
lead er</w>
ken dwa</w>
k wero</w>
k un
jo piny</w>
is her</w>
her self</w>
gover ning</w>
g wel
g lad</w>
f itting</w>
estab lish</w>
enti tled</w>
em pa
e yogi</w>
develop ing</w>
cop y</w>
con tain</w>
ay ogi</w>
as h</w>
andi ka</w>
an ta</w>
ad or</w>
ab solu
W UO
Rebe ka</w>
Pro vi
P ur
Mi ca
L ef
K ris
K en
Joh n
Ja chuech</w>
Har an</w>
H en
E mp
C la
yo wago</w>
who lesome</w>
wa makore</w>
vari ety</w>
urg ency</w>
und am
tri be</w>
threat ened</w>
t oday’s</w>
surr ounded</w>
sin ema</w>
sin cer
si ties</w>
sh ine</w>
seas on</w>
s n
re moved</w>
pres sures</w>
p ha
osip tal</w>
ose fwenyo</w>
ose chopo</w>
orin go</w>
onyis ogi</w>
ong’ iyo</w>
og oyo</w>
oduo go</w>
och an</w>
obe di</w>
nyathin o</w>
nya thi
n ini</w>
mo fuwo</w>
mal woro</w>
magaz ines</w>
len d</w>
indefin ite</w>
il ing</w>
ig u</w>
gu es</w>
gased ni</w>
found ation</w>
for es
for ced</w>
fin ished</w>
f undam
f t
ex tended</w>
ex ten
en thusias
e uru</w>
du le</w>
bro su
belong ings</w>
am i</w>
al tar</w>
al ert</w>
agre ed</w>
ag eno</w>
ach es</w>
WA CH</w>
U. S.A</w>
Thessaloni ans</w>
Re call</w>
NY AS
L oko</w>
K onyo</w>
Ju li
J op
J asomo</w>
I ts</w>
Her ode</w>
G a
Con tinu
Com mittee</w>
3 ,000</w>
z ab
yor ego</w>
work er</w>
wed ding</w>
war fare</w>
wa siko</w>
wa bare</w>
ti sm</w>
ruo dhe</w>
rie kone</w>
ri embo</w>
re conc
quali fy</w>
pro mp
preser ve</w>
penj ori</w>
part ner</w>
ok wong</w>
of wen
nyal re</w>
nop ong</w>
ng’ ad
moun tain</w>
mop ondo</w>
mis take</w>
miracul ously</w>
mam ulo</w>
lwe t
l ong’o</w>
jus ti
jo wetene</w>
jo chiwo</w>
ing’ ling</w>
hab it</w>
good ness</w>
g ate</w>
fe ar
expe cts</w>
eg nini</w>
dis tin
deal t</w>
con su
cl ass
ab ino</w>
a w</w>
a inia</w>
TI C
T r
T H</w>
SU LA</w>
Pil ato</w>
P ris
Ng’ wono</w>
NYAS AY
NYASAY E</w>
M B
Kinde gi</w>
Jo b’s</w>
Gi duto</w>
G enti
Con greg
C er
writ es</w>
won i</w>
un righteous</w>
ti po</w>
te x
t om
str angers</w>
publ isher</w>
pri ority</w>
pres s</w>
popul ar</w>
pl an</w>
persecu ted</w>
perman ent</w>
pas sage</w>
osi ki</w>
oni c</w>
oher ore</w>
obje ctive</w>
no tim</w>
motiv ate</w>
mo dhier</w>
mb ore</w>
man tha</w>
man ade</w>
mam ero</w>
li kened</w>
kanyak l
jari cho</w>
j wang’o</w>
initi ative</w>
influ ences</w>
i bedo</w>
gi dag</w>
fa ther’s</w>
f at</w>
est ament</w>
er r
end uring</w>
end ni</w>
elimin ate</w>
dom s</w>
devo ted</w>
deta il</w>
decl ar
d aki
con sul
comp u
com mit
clo th
chwan yo</w>
bri de</w>
appro ved</w>
app lies</w>
ap parently</w>
al ore</w>
V ic
Sy ri
Sa mantha</w>
Re ho
R ul
P l
Mas ter</w>
Ka ma</w>
KA KA</w>
K IN
Ju ne</w>
Jachwech wa</w>
J en
Im itate</w>
G ranted</w>
G ES</w>
Dra w</w>
D ev
Babyl oni
Amer ica</w>
A u
8 4</w>
6 0
200 7</w>
wad war</w>
wa ka</w>
wa e</w>
tur ed</w>
tal ks</w>
t ow
stra ight</w>
st ayed</w>
sin ani</w>
sche dule</w>
satis fied</w>
ro hono</w>
ri wore</w>
ranyis ine</w>
quar ters</w>
promin ent</w>
pro ving</w>
por tion</w>
plan et</w>
per su
p p</w>
owete gi</w>
op h
ony uo
ony isa</w>
offi ci
o her</w>
ng’ anyo</w>
miracul ous</w>
mar ked</w>
mar ital</w>
ma tin
life ’s</w>
l alo</w>
king doms</w>
it er
im itating</w>
ic s</w>
gi winj</w>
gi r</w>
gi kwayo</w>
explan ation</w>
ex cl
el ding</w>
earn estly</w>
dist ance</w>
differ ences</w>
des tin
degre e</w>
de pi
con tent</w>
compani on</w>
chi kego</w>
anxi eties</w>
achi elno</w>
a ves</w>
Zechari ah</w>
U S</w>
T wak</w>
Ri cho</w>
Ri ch
Mica h</w>
J onyuol
J odong</w>
J I</w>
H ist
Galati ans</w>
Ez ra</w>
Ear th</w>
wei gh
w oke</w>
vis it
tra its</w>
tij ni</w>
ti moe</w>
stand ard</w>
sp ending</w>
sk ills</w>
simp li
s cen
ruo g</w>
regre t</w>
pr inted</w>
p an
open j
olu tion</w>
ol embe</w>
of fic
o th</w>
no go
ng’won one</w>
mwa se
mid st</w>
ma s
ma boyo</w>
len ni
ka pod</w>
k wan
jud ged</w>
is ting</w>
her ane</w>
head ship</w>
harm ful</w>
guar an
gi tho</w>
gi chi
gener osity</w>
ge ts</w>
fin ish</w>
fic ation</w>
f ish</w>
end onegi</w>
di t</w>
dep th</w>
da mage</w>
ca using</w>
b it</w>
awach a</w>
ar mies</w>
ap i
ak wayo</w>
acc ord</w>
YO U</w>
W hi
Trin ity</w>
ST UD
S O
Reho bo
Q U
Nabo th</w>
L y
Jok ris
F ilis
El ders</w>
Chu tho</w>
B r
Ab i
7 1</w>
6 3</w>
20 00</w>
19 18</w>
1 39</w>
y weyo</w>
wuo yi</w>
world ly</w>
w or</w>
vi dio</w>
tur ns</w>
tri bes</w>
tim onegi</w>
s par
ro go</w>
pi l</w>
pers ons</w>
pag anda</w>
p odho</w>
ose wacho</w>
of ise</w>
nyad i</w>
nony isa</w>
no siko</w>
new ly</w>
modes ty</w>
mo wacho</w>
mar it
ma sin
less ly</w>
l ls</w>
kuon g’
it ely</w>
inter pre
i mages</w>
hiny ore</w>
he al</w>
guil ty</w>
gr ounds</w>
gr ant</w>
gi ket</w>
er ce</w>
eag erly</w>
daki ka</w>
condu cted</w>
co w</w>
ch ur
ca u
c overed</w>
bug ni</w>
brother ly</w>
begin s</w>
ayu d</w>
ay owa</w>
appe al</w>
an jawo</w>
add ressed</w>
Whi ch</w>
W E</w>
T estament</w>
S up
S and
R O</w>
Pho to</w>
P la
M i</w>
J i
G ombo</w>
Bu ge</w>
Ad am’s</w>
A ma
ut most</w>
upri ght</w>
thur gi</w>
te che</w>
t wa
sear ching</w>
say ings</w>
ru p
remin ds</w>
pl ant</w>
o tegno</w>
ny are</w>
near by</w>
n ach
mo bolore</w>
loy ally</w>
len g
le ep</w>
j u
inno cent</w>
i hero</w>
hard ships</w>
gra ve</w>
gr am
gi donjo</w>
gg ed</w>
fundam ental</w>
exp and</w>
en ess</w>
cust oms</w>
comfor ted</w>
circum c
c lu
bur den</w>
bedon wa</w>
av en</w>
asi k</w>
and i</w>
Y ore</w>
Wa mor</w>
W an
Th ess</w>
TR Y</w>
Reli gi
PUONJ RUOK</w>
P at
No timo</w>
Ne uru</w>
N ations</w>
Mak are</w>
L ut</w>
K anada</w>
H ag
GI MA</w>
G h
Egypti an</w>
De ut</w>
D ho
Chand ruok</w>
Afri ka</w>
A hinya</w>
zab ibu</w>
win d</w>
wel fare</w>
weak nesses</w>
war nings</w>
wach opo</w>
wa here</w>
v ement</w>
uo go</w>
u k
ti ci
thuo n</w>
than ks</w>
ten dom</w>
sub jection</w>
ser p
sc ene</w>
s cri
res ses</w>
remin ders</w>
ra ising</w>
pris on
primar ily</w>
pri orities</w>
posses sion</w>
piny wani</w>
or wak</w>
ol uor</w>
obatis a</w>
nyadi riyo</w>
no y
n acle</w>
miga wone</w>
ma kayo</w>
let ting</w>
ko timo</w>
invol ving</w>
im it
i miyo</w>
hol ds</w>
g gi</w>
fornic ation</w>
fin ds</w>
emoti onally</w>
econ omic</w>
e an</w>
dom es
do l</w>
dist ant</w>
com pla
cho gi</w>
chil d’s</w>
ak go</w>
ach i</w>
ab sor
Su ria</w>
S en
Ref le
R u</w>
R ach
N ab
Malai ke</w>
M E
L ot</w>
Ju de</w>
Hab ak
HI G
D on
Continu e</w>
Chris tendom</w>
C o
9 7</w>
7 00</w>
1 33</w>
wi pe</w>
was i</w>
wach i</w>
wach ak</w>
wa lem</w>
wa gen</w>
ud h</w>
u d</w>
to t
tion ally</w>
terri ble</w>
tend ing</w>
tal ents</w>
t oler
sy l
sou ls</w>
sig ns</w>
rescu e</w>
refle cting</w>
pursu its</w>
pres ent
pre viously</w>
pl ayed</w>
par ogo</w>
p ong’o</w>
ori a</w>
ondi ek</w>
on ing</w>
olu me</w>
og ombo</w>
o ya
o eni</w>
nyal owa</w>
mol ok</w>
mo yie</w>
mil ambo</w>
mel i</w>
mal uongore</w>
main tained</w>
l y
kop aro</w>
ja chiwo</w>
j aro</w>
itu ni</w>
indic ation</w>
identi ty</w>
i kawo</w>
hous es</w>
ho yowa</w>
highligh ts</w>
ft n</w>
f il
end ene</w>
e ya</w>
doctr ine</w>
dis tur
des per
deligh ted</w>
cooper ate</w>
con tained</w>
comman ds</w>
cha e
b ili
as leep</w>
an ish</w>
an doe</w>
Tij wa</w>
Ti je</w>
STUD Y</w>
Rehobo am</w>
R el
Per son</w>
Parad iso</w>
P le
Mal aki</w>
M an</w>
K it</w>
Jose ph
Jokris togo</w>
Gh ana</w>
Fol lowing</w>
F o
Eli hu</w>
Chen ro</w>
Be come</w>
Barnab a</w>
wuond ruok</w>
we g</w>
we dewa</w>
wat ching</w>
wad aki
wach op</w>
wa konyo</w>
w oga</w>
vi de
van ia</w>
tion ary</w>
ti ch
tem per
tam ruok</w>
t ness</w>
syl vania</w>
s ano</w>
ran gi</w>
r ite</w>
pic tures</w>
parti al</w>
overwhel med</w>
ose timore</w>
or it
offici als</w>
od og</w>
och we</w>
o or
nyithin du</w>
non enore</w>
n sylvania</w>
mon i</w>
materi al
l wasi</w>
ko e</w>
kan ise</w>
j ondiko</w>
inher it</w>
in sis
ign ore</w>
idolat ry</w>
ga diera</w>
fac es</w>
er uo
encoun ter</w>
el onwa</w>
el e</w>
dw oke</w>
d ende</w>
convers ations</w>
c s</w>
attac ks</w>
appro aching</w>
ag re</w>
acknowled ged</w>
T o
Steph en</w>
Sp anish</w>
S el
Rebe ka
Pen nsylvania</w>
P ol
Mo ab</w>
M yan
M ich</w>
M E</w>
Le ad
L uor</w>
Je ze
I paro</w>
G abri
Es ther</w>
D E
Con cer
C or
Barnab as</w>
A na
7 9</w>
5 7</w>
yor egi</w>
y oni</w>
us ual</w>
u timo</w>
transl ations</w>
tor ture</w>
thr illing</w>
temp tations</w>
tal anta</w>
sus tain</w>
strong er</w>
st ories</w>
sa dha</w>
rul ers</w>
pro ject</w>
poss ess</w>
p ho
p aying</w>
ow s</w>
olo gi
och wany
ob serving</w>
noch ano</w>
ng’ ayi</w>
ne k</w>
mo yier</w>
mi wuoyo</w>
mat ely</w>
ma sa
ma konyowa</w>
los ing</w>
lok re</w>
li ber
l on
kanyakl ano</w>
k wede</w>
initi al</w>
imp act</w>
il uor</w>
i ya</w>
hu mankind</w>
fool ish</w>
fa ul
ex per
et i</w>
er n</w>
enga ging</w>
dh u</w>
cop ies</w>
conduc ting</w>
con text</w>
con st
chil d
cal m</w>
cal am
ca ught</w>
c ast</w>
ay al</w>
at ’s</w>
associ ating</w>
an ces</w>
ak es</w>
ah a</w>
ach aya</w>
abe th</w>
a gogi</w>
Th ings</w>
T ed</w>
Sandu k</w>
P im</w>
ON Y
Na zi</w>
N .
N. P</w>
Myan mar</w>
Mos cow</w>
Min wa</w>
M on
M aking</w>
Lu w</w>
K. N.P</w>
K uonde</w>
Gr and</w>
D uong</w>
Com pare</w>
C en
C ana
3 ,
1 12</w>
yu dowa</w>
wak wa</w>
vis ible</w>
vic tim</w>
ur ge</w>
to tal</w>
tij ene</w>
suf fi
stre et</w>
serp ent</w>
rul ed</w>
ris k</w>
res ruok</w>
preser ved</w>
possib ly</w>
poli ce</w>
pe dia</w>
p ong</w>
p al
oyi er</w>
ori w</w>
opini on</w>
ok wedo</w>
nya gruok</w>
neg le
mo tive</w>
mo chan
masa wa</w>
ma tic</w>
look s</w>
kod waro</w>
kel onegi</w>
ke che</w>
ing’ ado</w>
in ations</w>
im perfe
i ewo</w>
ho ho</w>
her owa</w>
ga ther</w>
ess or</w>
earth qu
discus sing</w>
des t</w>
deep en</w>
coun tless</w>
cl ergy</w>
ch wogi</w>
ch ula</w>
cen ter</w>
bli c</w>
b us</w>
b ound</w>
b ati
at ur
at aro</w>
any more</w>
an de</w>
ag ing</w>
ade kgo</w>
ad mit</w>
ad hi
ad d</w>
ac i
ZA B</w>
Th ous
She pher
SE T</w>
S I
Rich ard</w>
Re ign</w>
PA GES</w>
I T</w>
Habak ku
H a
Faith ful</w>
Ex am
Cana an
C lose</w>
Ale x</w>
AR TIC
wi yi</w>
wh enever</w>
we yone</w>
war ns</w>
tre es</w>
to ols</w>
sur ed</w>
sp here</w>
sor ts</w>
r an</w>
po ver
ph r
ph one</w>
perc ent</w>
p ul
p ok
p ad
oub tedly</w>
ol oso</w>
o ja
n wang’o</w>
n eng
mot es</w>
mose timore</w>
mon j</w>
minis ters</w>
mi wacho</w>
mani fes
ma jiwo</w>
ma chiwo</w>
in ely</w>
il uwo</w>
hund red</w>
head quarters</w>
guil t</w>
go ats</w>
gi tiyogo</w>
gi geno</w>
fic ally</w>
fer ings</w>
fe ature</w>
es thood</w>
enc ing</w>
en h
dist ingu
disas ters</w>
dis appointed</w>
dilig ent</w>
dho kno</w>
deb t</w>
commend ation</w>
ch ul
can c
ble ms</w>
bl es</w>
beau ty</w>
b is
at tempt</w>
assemb lies</w>
acqu ire</w>
ac les</w>
U se</w>
S il
Read ers</w>
R ab
Pro f
Nyasach a</w>
M on</w>
M ac
Jes se</w>
Jer obo
Jar it</w>
I’ ve</w>
Febru ary</w>
Ch wo</w>
CH ON</w>
Bro thers</w>
A gain</w>
A L</w>
9 1</w>
200 4</w>
199 5</w>
19 30</w>
yi ene</w>
y eno</w>
wi d
wi ce</w>
wed ene</w>
wa herogo</w>
val id</w>
ur ges</w>
un do</w>
tin a</w>
tim ben
ti oned</w>
thi e
temp er</w>
t op
sub mit</w>
stitu te</w>
sir k
siem no</w>
ro mb
rewar ding</w>
rep ly</w>
rejoic ing</w>
regar dless</w>
ranyis ino</w>
r ena</w>
privileg ed</w>
pri esthood</w>
penj ri</w>
ow uon
os om</w>
ol uong</w>
ol er</w>
no lokore</w>
no ka
ndal one</w>
mose tho</w>
mor go</w>
mo lo
ma sin</w>
ko the</w>
jor atiro</w>
j atu
isol ated</w>
ish ness</w>
inj ili</w>
imperfe ctions</w>
ib r
i mor</w>
go wi</w>
gi yiero</w>
fi elds</w>
fe ed</w>
fail ure</w>
er u</w>
dis pu
cri me</w>
courage ously</w>
corrup tion</w>
citiz ens</w>
chu eyo</w>
charac ter
bre ak
ar ted</w>
an tly</w>
ama zing</w>
WH EN</w>
O K</w>
Nov emba</w>
K ony</w>
Ju ma
Jeze bel</w>
Jehosha ph
Her od</w>
Habakku k</w>
Gal ili</w>
GA SET</w>
Fri end</w>
Ever yone</w>
E d
De ath</w>
Chi r</w>
Bol ruok</w>
Assy ri
9 9</w>
1 10</w>
z al
wid ely</w>
wi ya</w>
wey onwa</w>
wan on
wa chiwo</w>
w anda</w>
vis ed</w>
urg ent</w>
u tim</w>
tre m
th oro</w>
th ony</w>
te ch
ta x</w>
t ested</w>
sp ap
sincer ely</w>
sil ver</w>
s li
s cal
riw ruoge</w>
rewar ds</w>
refle cts</w>
re turning</w>
re mo
re m
pre g
pe er</w>
p a</w>
owe ten
ot ang</w>
osen eno</w>
ose ti</w>
opini ons</w>
om ulo</w>
of is
ndi kogo</w>
nde ge</w>
nati on
mo vi
mira cle</w>
manuscrip ts</w>
ma keto</w>
liter ally</w>
le c
jo ga</w>
jak anyo</w>
ja kinda</w>
intel lig
il ee</w>
high light</w>
hi dden</w>
h ment</w>
h ates</w>
gi rwako</w>
gi romo</w>
gi dok</w>
g est</w>
for given</w>
extra ordinary</w>
exc ept</w>
er fully</w>
ep h
en g’o</w>
emp ty</w>
dra ws</w>
dist ressing</w>
dig ni
dep ends</w>
decei ved</w>
crus hed</w>
const ant</w>
comm unity</w>
cher ish</w>
cele br
cc l</w>
cap able</w>
c old</w>
bur ning</w>
al uor</w>
ad war</w>
W ere</w>
U sing</w>
TH E
R IS
Pra y</w>
Phili p</w>
Na th
N ong’eyo</w>
M e</w>
L ou
L Y</w>
Juma pil</w>
Jud ge</w>
Jehosha fat</w>
E ccl</w>
C re
As suria</w>
Andre w</w>
An thony</w>
An t
200 6</w>
è v
yo s</w>
yi engni</w>
y om
witness ed</w>
wa gombo</w>
v ine</w>
uon gogi</w>
trus t
the arted</w>
te kowa</w>
taber nacle</w>
solu tion</w>
sen ses</w>
sa yo</w>
s mo
rest ed</w>
real m</w>
re stri
puonj gi</w>
pro jects</w>
pover ty</w>
otel oeni</w>
op posed</w>
om ed
ny inga</w>
no tieko</w>
no chuno</w>
new spap
nen gogi</w>
n orito</w>
mo chopo</w>
min ded</w>
memor y</w>
lo gy</w>
ki dogo</w>
keth re</w>
jo wuoth</w>
jo wadgi</w>
jo dak</w>
j asomo</w>
ik wa</w>
hi ambo</w>
gi donj</w>
g uondo</w>
fr ustr
f it</w>
expect ation</w>
enab les</w>
el ling</w>
dh ono</w>
cust om</w>
continu ing</w>
continu ally</w>
command ment</w>
chae olo
ch ure</w>
c king</w>
bro chure</w>
ati vely</w>
ale b</w>
al l
U k
T al
Spe aking</w>
Sa marit
S T</w>
Penj ri</w>
Non ro</w>
N en
Ma chiegni</w>
M ach
Lef èv
Joseph us</w>
Far ansa</w>
F ul
Ad di
A ustri
A bo
A T
8 9</w>
5 8</w>
1 50</w>
wor ry</w>
war wa</w>
war it
wak ore</w>
wa ll</w>
vo c
val ley</w>
v as
uo che</w>
un expected</w>
tes tim
stri ving</w>
se mb
se chego</w>
ri pot</w>
ri age</w>
repe ated</w>
rend ering</w>
relati vely</w>
ques tion
pun ishment</w>
princi p
pl aying</w>
pi eche</w>
pas sages</w>
ow ing</w>
osen g’
ose a</w>
oppos ite</w>
ok u
odhi er</w>
och wan
obst acles</w>
o tem</w>
nyam in</w>
nowach onegi</w>
ng’ ur</w>
ng’ ad</w>
mour ning</w>
mor i</w>
mo di
mem ories</w>
mb es
m uol</w>
m ula</w>
kon yore</w>
kon chiel</w>
jud ges</w>
jo wasigu</w>
jo maricho</w>
j wang</w>
impris oned</w>
i puonjori</w>
ho ga</w>
h es</w>
gu ed</w>
gra cious</w>
gi fwenyo</w>
g ent
fe ars</w>
exis ted</w>
em pl
effe ctively</w>
e yogo</w>
di an</w>
desir able</w>
com mit</w>
clean ness</w>
chi kogi</w>
bu dho</w>
bor ne</w>
b at</w>
as tro
ar ose</w>
ar ms</w>
appe aling</w>
an c
al le
ad mits</w>
Y e
Wuon u</w>
Wach ni</w>
S ir
R U
P I
Nov ember</w>
Ng’ eny</w>
MA R
Lok ruok</w>
Il l
H um
Gal ilee</w>
G ana</w>
Fur ther</w>
Cho n</w>
C E</w>
B i
Abo ve</w>
60 7</w>
yu dogi</w>
wach oe</w>
vo id</w>
vi gil
un less</w>
ul ti
ty pes</w>
trou bled</w>
tiend eni</w>
ti tle</w>
ti ous</w>
thro wn</w>
thre at</w>
taon dno</w>
t est
supp ly</w>
sib uor</w>
shepher ding</w>
satis fy</w>
s y</w>
ruok ni</w>
ro gi</w>
respect ful</w>
res ent
repu tation</w>
rememb ered</w>
refres hing</w>
read ers</w>
puo the</w>
prog res
pro motes</w>
pinj eruo
perfe ctly</w>
organi z
ochu eyo</w>
nya ka
ny osore</w>
non diki</w>
no yud</w>
no wero</w>
no miyowa</w>
neng one</w>
na winjo</w>
mong’ ith</w>
mis ang
men tions</w>
man adi</w>
ma yudo</w>
ma kend
law lessness</w>
l at
jas igu</w>
jal weny</w>
jal no</w>
ic al</w>
hones ty</w>
harmon i
gu n</w>
en cies</w>
e yi</w>
dru gs</w>
discus sions</w>
discer nment</w>
di ere</w>
del iber
dec e
d in
condem ned</w>
chwany ruok</w>
chu ng’ne</w>
cap tivity</w>
bir ds</w>
bed uru</w>
b u</w>
b ore</w>
as y</w>
as c
alwor au</w>
acqua inted</w>
a gin
U r</w>
Rit reuru</w>
PIN Y</w>
PEN JO</w>
O medo</w>
Mo a</w>
Mar riage</w>
Ma ok</w>
Ma in
K an
J osi
J as
J U
Inter national</w>
G om
Febru ar</w>
F el
De ad</w>
Concer ning</w>
C reation</w>
C our
Ap ol
AN G’
A sa
A li
1 30</w>
yor ewa</w>
win ji</w>
we ar</w>
watch ful</w>
wad akie</w>
tra kt</w>
stum ble</w>
stat ements</w>
st ro
speci fically</w>
smok ing</w>
si oned</w>
shor tly</w>
sen si
se i
safe ty</w>
s itting</w>
ru in</w>
ri ek</w>
ri d</w>
require ment</w>
rep ent</w>
ra ia</w>
pp ing</w>
particip ate</w>
p our</w>
osiepe wa</w>
os eri
op ia</w>
nyis wa</w>
ny uol
no lando</w>
ng’ won</w>
neu tr
ndal ogo</w>
n ga
m be
lin ess</w>
ku eth</w>
kon egi</w>
kit gi</w>
ka wwa</w>
ka te</w>
ic k</w>
i wachonwa</w>
i k</w>
histori cal</w>
heal ed</w>
ha n</w>
gr and</w>
g am
fal len</w>
fa ther
extre me</w>
exam ination</w>
ex tend</w>
en g’eyo</w>
def end</w>
deep er</w>
cultiv ating</w>
com mis
com ment</w>
chok ruog</w>
cho cho</w>
calam ity</w>
bl ame</w>
ba the</w>
b att
adop ted</w>
ad ap
a the
Ther e
Spiritu al</w>
Sam son</w>
S ource</w>
O bed</w>
Ne ws</w>
Ndal ogi</w>
N G’
Me an
Mar k
Mala wi</w>
Ethi opia</w>
E arly</w>
B ad</w>
A mos</w>
199 9</w>
yi elding</w>
yi egi</w>
wak wed</w>
v et
u w</w>
tie g</w>
tic us</w>
ti k</w>
thor ough</w>
telev ison</w>
t ely</w>
t ab
sur face</w>
sp iri
shoul der</w>
set tled</w>
sancti fied</w>
s ayans</w>
pro paganda</w>
pray erful</w>
pr on
por te
pen j</w>
pen d</w>
par tment</w>
ous y</w>
our th</w>
ose konyowa</w>
or dered</w>
ong’ ad
on enore</w>
oke l</w>
ob serves</w>
o kendo</w>
nyas ino</w>
nose tho</w>
nok alo</w>
no timor
no te
no miya</w>
no bet</w>
n ayudo</w>
mochan ore</w>
mo sphere</w>
mo keto</w>
mo kayo</w>
mis sed</w>
mang’ ich</w>
mak i</w>
lo ad</w>
li et</w>
kanyakla u</w>
jochi endene</w>
ir ing</w>
in stitu
in ce</w>
i fwenyo</w>
hu ge</w>
her ore</w>
her ogi</w>
ha ir</w>
h ango</w>
h a</w>
git amore</w>
gi chop</w>
ga ining</w>
fulfill ing</w>
fic ations</w>
fa ir</w>
execu ted</w>
ex al
ev olution</w>
earth ’s</w>
e yore</w>
develop ments</w>
de pend</w>
d akie</w>
cur rent</w>
cris y</w>
comm ended</w>
chi kne</w>
char ge</w>
bo at</w>
ati ves</w>
assu me</w>
arri ve</w>
am bi
ag no
ab use</w>
ab u</w>
a wuo
W OR
The ocratic</w>
S ays</w>
Re c
K now</w>
Jerobo am</w>
Jehoshaph at</w>
D O
Congreg ation</w>
Chuny a</w>
C oun
Austri a</w>
5 9</w>
5 ,000</w>
z er
wuo dhe</w>
worshipp ed</w>
wholehear tedly</w>
wel com
welcom ed</w>
wal i</w>
wa tiyogo</w>
wa romogo</w>
wa bedgo</w>
vic tim
u tes</w>
u le</w>
tim oni</w>
th ri
te kogi</w>
sugg ested</w>
stum bling</w>
st ones</w>
spe cially</w>
sig endini</w>
sci ence</w>
ro ck</w>
ri ous</w>
r ou
qui et</w>
pu ts</w>
pro found</w>
pro claim</w>
preach ers</w>
patriar ch</w>
pass es</w>
ok wa</w>
obatis gi</w>
o therwise</w>
o mak</w>
o di
ny ith
n as
mis sing</w>
maber no</w>
loc ation</w>
le p</w>
ini go</w>
immedi ate</w>
i ket</w>
hosp ital</w>
hist ori</w>
highligh ted</w>
har dly</w>
gre ed</w>
glori fy</w>
gid akie</w>
gen ogi</w>
fi gh
ex posed</w>
er al</w>
dwon de</w>
dis obedience</w>
develop ment</w>
de cre
consi ders</w>
confron ted</w>
commis sioned</w>
col or</w>
chi l</w>
chenr ono</w>
ch r
ch ari</w>
bit ter</w>
be ar
avoi ded</w>
av en
app lication</w>
ali zed</w>
ag ul
adver ti
ade qu
a wait</w>
a ver
a th
Y ear
W er</w>
TIM O</w>
T V</w>
S how</w>
Rebeka h</w>
Pri est</w>
Ph il
P olo</w>
Mar cus</w>
I t’s</w>
H ero</w>
Gi ko</w>
Ez ek</w>
D ong
7 5</w>
195 5</w>
yor no</w>
wrong do
wo ye</w>
wo e</w>
wa yiero</w>
wa wach</w>
wa st
un t</w>
thu chegi</w>
t wice</w>
su itable</w>
sin embe</w>
si des</w>
sele cted</w>
se ts</w>
s land
run ning</w>
puonj e</w>
public ly</w>
proce eded</w>
pre hen
pre dic
pp i</w>
pos t
over ing</w>
ose temo</w>
oppres sion</w>
o many</w>
nying egi</w>
no ikore</w>
ng’ eye</w>
mul ti
mtok ni</w>
mi r
maka ti</w>
ma wa</w>
kony ruok</w>
kanyakla wa</w>
ka mp
judg ing</w>
jo land</w>
jo kony</w>
ise bedo</w>
inter esting</w>
inspir ation</w>
im itation</w>
hor se</w>
ho li
heal ing</w>
h ated</w>
h as
giny is</w>
gi goyo</w>
gar ia</w>
fi ery</w>
favor able</w>
fac tor</w>
f led</w>
exam ining</w>
ex tra</w>
etern ity</w>
el se
do cum
de wowa</w>
da gie</w>
crow ds</w>
cloth es</w>
chur ches</w>
ch ene</w>
c os
brosu a</w>
bless es</w>
bi dh
ba o</w>
b uok</w>
b illions</w>
b as</w>
at tain</w>
at mosphere</w>
at e
adier ago</w>
Yu do</w>
We b</w>
Uk raine</w>
Tru th</w>
T y
Ser ving</w>
Ri to</w>
Rach el</w>
P in
Osi ep</w>
N ame</w>
Mu ch</w>
MO KO</w>
Lead er</w>
Jos ia</w>
Jad olo</w>
Evid ently</w>
Ever y
Encyclo pedia</w>
El i</w>
E ast</w>
Des cri
De bor
C ali
Bul garia</w>
19 40</w>
win o</w>
wido ws</w>
wh e
visit ors</w>
victim s</w>
us h</w>
up hold</w>
tu wono</w>
tru th
tot ally</w>
timor enwa</w>
tho wi</w>
th row</w>
tex ts</w>
te do</w>
sig ana</w>
sequ ently</w>
sen tim
sen chari</w>
s uring</w>
righ ts</w>
respe cted</w>
rem nant</w>
re sear
re placed</w>
proclaim ers</w>
posi tions</w>
po ta</w>
ow ed</w>
out look</w>
otim ne</w>
ose g
ong’ anjo</w>
on going</w>
om on
offic er</w>
o or</w>
ny uk
no timono</w>
no mi
no luoro</w>
no kwa
no chak</w>
ng’ ich</w>
mo yiego</w>
min utes</w>
mid dle</w>
lak teche</w>
kin y</w>
kamp en</w>
k is
joy fully</w>
jong’ ad</w>
increas ing</w>
in diko</w>
illustr ated</w>
i go</w>
ho ped</w>
hi o</w>
har sh</w>
god hiambo</w>
gi puonjo</w>
gi dwar</w>
gener ally</w>
g al</w>
fer red</w>
f la
equi pped</w>
d ust</w>
d ark</w>
coun ted</w>
confir med</w>
compu ter</w>
comple ted</w>
c up</w>
bit ter
alu fe</w>
ali ze</w>
agre ement</w>
after ward</w>
ac ity</w>
a wacho</w>
a w
V I
Ti ende</w>
O ng’eyo</w>
O hio</w>
N I
M umbe</w>
Lefèv re</w>
K ings</w>
Jer iko</w>
Jap uonj
Gi machielo</w>
Fili po</w>
F re
Eli z
E as
Chok ruok</w>
C T</w>
Baru k</w>
B esides</w>
B atiso</w>
6 8</w>
ya dhno</w>
wuo da</w>
winj one</w>
wech ewa</w>
war ming</w>
wa bende</w>
v y</w>
uo ko</w>
tra y</w>
ting’ ore</w>
tij egi</w>
thuol ona</w>
temper ed</w>
tek negi</w>
te ar</w>
sen ten
safe guard</w>
s ites</w>
s ending</w>
rang’ iny</w>
produc tive</w>
p ity</w>
p ando</w>
open je</w>
op pose</w>
nop ogore</w>
nok wedo</w>
mo miwa</w>
mis andoe</w>
mara ch
manifes ted</w>
kor gi</w>
kel ona</w>
kan is
k ib
k ansa</w>
jan eno</w>
jan abino</w>
in active</w>
hear s</w>
ha zi</w>
gi med</w>
gi marach</w>
gent le</w>
fun ds</w>
friend ly</w>
foc using</w>
fes tiv
experi encing</w>
execu tion</w>
en tr
en sla
el ements</w>
doub ts</w>
der e
de af</w>
d run
d end</w>
cre ature</w>
bur ned</w>
alu wo</w>
al re</w>
a onge</w>
Y ear</w>
WE CHE</w>
Tr ust</w>
Th ree</w>
Th es</w>
S cripture</w>
R A
Pil ate</w>
Phili ppi</w>
Of is</w>
Ny ime</w>
N omedo</w>
Mar il
Man ie</w>
K ony
Jo tend</w>
JEHOV AH</w>
Emp ire</w>
E ro
Chuny i</w>
Ch ina</w>
C y
B ill</w>
B al
An a</w>
20 15</w>
zal el</w>
wee kly</w>
weak ness</w>
wa goyo</w>
un d</w>
tu e</w>
ti a</w>
survi ved</w>
strugg ling</w>
set tle</w>
ses sions</w>
s i</w>
resul ting</w>
re wa</w>
re ver
proph esi
promin ence</w>
pi en</w>
p ly</w>
ow ned</w>
out set</w>
ota gi</w>
osiepe gi</w>
osiep na</w>
ose weyo</w>
on ia</w>
ome dore</w>
of weny</w>
ob tained</w>
o wuog</w>
o live</w>
nor th</w>
no tayo</w>
no medore</w>
no ket
no dwoke</w>
neutr ality</w>
min eno</w>
me tho</w>
me ek</w>
man enore</w>
mal oso</w>
mak war</w>
ma moro</w>
ma mono</w>
loc ated</w>
le an</w>
ld n’t</w>
la id</w>
kon a</w>
ki yo</w>
k og
judg ments</w>
intellig ent</w>
initi ally</w>
in qu
i kony</w>
hin yowa</w>
gisi k</w>
gi lando</w>
gar ments</w>
g oro</w>
fweny onwa</w>
fi f
extre m
exc es
en tic
e en</w>
do ctor</w>
distra cted</w>
displ aying</w>
dev ote</w>
der ing</w>
dec eptive</w>
da mag
conven i
com mer
cla y</w>
chun a</w>
chiwor i</w>
chang ing</w>
chandruog ego</w>
ch ance</w>
cap acity</w>
bac king</w>
associ ations</w>
ar us</w>
ar omo</w>
and hoga</w>
ad ok</w>
Ye ho
We bsa
W ay</w>
W O
Tru ly</w>
There after</w>
San he
S wit
Rul er</w>
Ra wera</w>
Pro phe
Mu mano</w>
Mar tin</w>
L ak
Kno wing</w>
Jati ch</w>
Ja chu
J er</w>
H osea</w>
Geor gia</w>
Gabri el</w>
E cu
De bora</w>
Bo x</w>
Be zalel</w>
An y</w>
Addi tionally</w>
199 0</w>
zer land</w>
ze ituni</w>
wasumb ni</w>
war n</w>
wa winjore</w>
wa puonjo</w>
wa penjore</w>
wa fu</w>
volunte ers</w>
u ra
tu agin
tuagin t</w>
tre ach
trans gres
ter ogi</w>
ten ance</w>
t ali
strong ly</w>
sor row</w>
sin ner</w>
repro ach</w>
recogni tion</w>
re la
pw odho</w>
princip al</w>
pri or</w>
p ill
over ly</w>
op w
onyis owa</w>
ong side</w>
ogu e
od ar</w>
oblig ation</w>
o tieko</w>
nyithin dogo</w>
nyak ono</w>
nor umo</w>
nor thern</w>
nor eso</w>
no mor</w>
no lemo</w>
ndi koni</w>
mob am</w>
ma winjo</w>
m uma</w>
lok i</w>
la wo</w>
kony gi</w>
ko wo</w>
king ship</w>
keto gi</w>
kend orego</w>
k ul
is land</w>
ic ally</w>
hypo crisy</w>
happ ily</w>
ha us
gombo gi</w>
go le</w>
gi puonjre</w>
gi mi</w>
for b
favor ably</w>
fam ous</w>
exerc ised</w>
exer t</w>
every where</w>
er ness</w>
ent y</w>
ent ally</w>
e th
du ties</w>
dr in</w>
di koro</w>
den ed</w>
d ying</w>
claim s</w>
chwa lowa</w>
chok e</w>
belong ing</w>
b ones</w>
ali ties</w>
acc us
a ora</w>
With in</w>
Who m</w>
W O</w>
Sin ai</w>
Sep tuagint</w>
Sanhe drin</w>
S A
Ra p</w>
N gero</w>
M er
Lev i
Kris mas</w>
Ka achiel</w>
Jer i
Jephth ah</w>
J ona</w>
Ethi opi
Eliz abeth</w>
Bed ell</w>
B i</w>
A ora</w>
9 5</w>
9 4</w>
7 8</w>
200 5</w>
yom yom</w>
worshipp er</w>
wari w</w>
war wako</w>
wa t</w>
wa kendore</w>
vigil ant</w>
und oubtedly</w>
un selfish</w>
un faithful</w>
um ed</w>
u a</w>
trust worthy</w>
tim ely</w>
testim ony</w>
te es</w>
te am</w>
t udore</w>
synagogu e</w>
sun agogi</w>
sugg ests</w>
spor ts</w>
sla ugh
s mile</w>
s hap
ren ’s</w>
remo te</w>
re dio</w>
ranyis ini</w>
r eru</w>
pre ven
possib ility</w>
pleas ures</w>
per or</w>
p ogore</w>
p ac
ori wore</w>
or ene</w>
one ge</w>
och weyo</w>
obed go</w>
obati s</w>
nyi en</w>
nyaka chieng</w>
nowach ogo</w>
no dagi</w>
ng eche</w>
na fwenyo</w>
n el</w>
n anyalo</w>
n aneno</w>
mok won
modi mbore</w>
mit a</w>
meth od</w>
lu et</w>
lu e
leng th</w>
l uong</w>
kar gi</w>
jood no</w>
jood a</w>
jo winjone</w>
jeal ousy</w>
in ts</w>
in di
ik ano</w>
i ik
i geno</w>
ho sti
hin o</w>
hig ano</w>
hand ed</w>
ex act</w>
emb arr
des ired</w>
des cription</w>
compar ison</w>
chand a</w>
chan de</w>
bro ther’s</w>
b an</w>
b adly</w>
atur ally</w>
at en</w>
ass ure</w>
ar t</w>
ap point</w>
announ ced</w>
al ongside</w>
al i</w>
ac compani
Year book</w>
W rit
Thr oughout</w>
Th ir
Swit zerland</w>
Sun day</w>
Me gid
M alo</w>
Li ving</w>
Levi ticus</w>
Jo bura</w>
Hu man</w>
Di dek</w>
D on</w>
D hiuru</w>
D ad</w>
D A
Ba bel</w>
B eli
Ap preci
ANG’ O</w>
19 49</w>
wor n</w>
wech ne</w>
weap ons</w>
wad ok</w>
wa ti
wa many</w>
wa chiwore</w>
vir gin
vas iti</w>
ud waro</w>
u pi
u dhi</w>
tra p</w>
th go</w>
tel ep
te ens</w>
tal ked</w>
supp lication</w>
stri ke</w>
stead fast</w>
ste ward</w>
sing leness</w>
ser vices</w>
sensi tive</w>
se cu
scienti sts</w>
s car
romb ene</w>
reas oned</w>
pursu it</w>
prophesi ed</w>
prin ting</w>
pri c
pric eless</w>
pinjeruo dhi</w>
pe ers</w>
ough ly</w>
opog re</w>
open ly</w>
om one</w>
ok wa
og ol
ochi egni</w>
ob vious</w>
ny a</w>
no ke
mose tim</w>
mo dok</w>
mo chiwore</w>
man e
m zabibu</w>
lu o</w>
lo g
li on</w>
l war</w>
l uongore</w>
kom be</w>
kel oni</w>
k ul</w>
jopuonj rena</w>
it ems</w>
isi ons</w>
iny ne</w>
ibr ary</w>
i or</w>
hi de</w>
hear ted</w>
go g</w>
gar ment</w>
frequ ently</w>
for nia</w>
fam il
f ourth</w>
f an
expla ining</w>
ex t</w>
ev alu
equ al</w>
empl ary</w>
emphasi zed</w>
empa thy</w>
em blems</w>
ei gh
di riyo</w>
depres sion</w>
depres sed</w>
dedic ate</w>
decl aring</w>
c tu
c ot
bo ys</w>
at tribu
angeli c</w>
ang u</w>
a jahigni</w>
Z i
Yeho va</w>
W ang</w>
Tur key</w>
T S</w>
T O
Sim e
Or gani
O dwaro</w>
Nab al</w>
N ext</w>
Mil lenni
Mi ka
Megid do</w>
Mar y’s</w>
Ma gog</w>
M ungu</w>
M ang’
L ibrary</w>
L ear
Kan isa</w>
K on
J aduong</w>
IS T
Ge hazi</w>
F l
Euro pe
Ero kamano</w>
Ecu ador</w>
E specially</w>
Dong ruok</w>
Debor ah</w>
D in</w>
Cali fornia</w>
B ath</w>
As semb
Ans w
A void</w>
6 ,000</w>
yi ende</w>
y an</w>
wher eas</w>
websa it</w>
war mly</w>
wan an</w>
wa riwo</w>
vir gin</w>
vide o</w>
u do</w>
top ics</w>
tiend ene</w>
there by</w>
stand s</w>
s cre
reve aling</w>
respon ding</w>
pron oun
present ation</w>
pre ad</w>
philos oph
origin ally</w>
ori zed</w>
op uonj</w>
onyuol a</w>
ong ego</w>
og ony
o cho
o chayo</w>
nok el
no winjore</w>
n iluongo</w>
n der
mor ally</w>
mal ly</w>
machi egnini</w>
ma cy</w>
lu ore</w>
lo gical</w>
ko tel
jad uong’no</w>
ja timo</w>
inten tions</w>
ind a</w>
impres sion</w>
i p
i chiwo</w>
hospit able</w>
gi lendo</w>
gi gi</w>
g ment</w>
f res
f ers</w>
expres sing</w>
expen sive</w>
err ors</w>
emp ire</w>
em pow
donj ore</w>
discourag ement</w>
dis position</w>
direc tions</w>
dilig ently</w>
di ct</w>
destin ation</w>
deser ve</w>
d aher</w>
correc tion</w>
cop per</w>
conc e
ci an</w>
child ren’s</w>
ch wo
ch ewa</w>
canc er</w>
be ars</w>
as is</w>
arri val</w>
ann ual</w>
an ni
admon ished</w>
acc used</w>
absor bed</w>
ab or
W is
Tra ct</w>
Sul agi</w>
S ta
Ple ase</w>
Pic tures</w>
P RO
Og endini</w>
Of ten</w>
Malai ka</w>
M oro</w>
M b
L emo</w>
L O</w>
KO R</w>
Jap uonj</w>
Jab atiso</w>
Hag ar</w>
HIG A</w>
H ans</w>
G weth</w>
G et</w>
F I
Egypti ans</w>
Christ mas</w>
Christ like</w>
Chi wruok</w>
Beth el
Assemb ly</w>
195 8</w>
19 0
zz ar</w>
z ers</w>
yr us</w>
wuo di</w>
winjo wa</w>
weng egi</w>
wen e</w>
wei ght</w>
we b
wa y
wa ked</w>
wa bolore</w>
v in
v ain</w>
ut ter</w>
up set</w>
un usual</w>
twa gno</w>
tun ge</w>
tim ul
thr illed</w>
tend encies</w>
stor m</w>
sol ve</w>
sk unde</w>
sc at
rus a</w>
ro ga</w>
rec alled</w>
re side</w>
ran k</w>
ran go</w>
prote cts</w>
promis ing</w>
proclaim ed</w>
owad u</w>
osiep eni</w>
ori eny</w>
or eno</w>
oni o</w>
on to</w>
ol endo</w>
ochu l</w>
no yawo</w>
no gol</w>
nd ha
mori ere</w>
mom ni</w>
mo ler</w>
mo keti</w>
mi chiwo</w>
mi aha</w>
mb ala</w>
ma kamago</w>
jeal ous</w>
j ing’o</w>
it no</w>
is tics</w>
is ted</w>
inti mate</w>
id den</w>
i wa</w>
i ew</w>
gi makore</w>
gi chak</w>
fwen yore</w>
fru its</w>
figh ting</w>
fi g
far ese</w>
famil y’s</w>
fal ling</w>
f on
ex change</w>
every day</w>
eri b</w>
enga ged</w>
embarr ass
du res</w>
don gogo</w>
des p
circumc ised</w>
ch go</w>
cen tered</w>
bo w</w>
ar rested</w>
apost ate</w>
anyis e</w>
accom mod
W anyiso</w>
UO M</w>
Tim es</w>
Th uolo</w>
Ste ve</w>
St ate</w>
Se eing</w>
Ri ver</w>
Ri ght</w>
Rep u
RO M</w>
QU ES
Pon ti
P ower</w>
P ok</w>
No thing</w>
N one
Mal achi</w>
M other</w>
K oda</w>
K UOM</w>
Jachu ech
In de
Hear t</w>
H or
Gi maduong</w>
Ant onio</w>
195 6</w>
10 ,000</w>
1 11</w>
yor eni</w>
wo od</w>
win jogi</w>
wase puonjore</w>
ver b</w>
un eno</w>
um pe
trem end
to ck</w>
tim gi</w>
th umbe</w>
suffi cient</w>
su m</w>
s tem
s cor
ringre gi</w>
respe cts</w>
ra par</w>
plan ning</w>
perse ver
per mit</w>
pas ent</w>
over y</w>
ot ony</w>
os a</w>
or ie</w>
oni cles</w>
of ferings</w>
od wok</w>
nyithin da</w>
nyith i</w>
nol alo</w>
no wuoro</w>
n woyo</w>
n adi</w>
mose batisi</w>
mony uol</w>
mo y
mis sive</w>
mig ap
mi wafu</w>
materi ally</w>
masir ano</w>
ma be
m wabiro</w>
m bled</w>
lu m</w>
li ps</w>
kuon dego</w>
kind ene</w>
kin ds</w>
ka we</w>
k ers</w>
jood u</w>
jom wandu</w>
jam ni</w>
jach an</w>
j ang’
ing ore</w>
ho ping</w>
heart warming</w>
gi lamo</w>
ga il</w>
g um
foreig ners</w>
fore most</w>
fin ed</w>
f old</w>
ev ed</w>
er e
di agno
dho ho</w>
des pread</w>
del ay</w>
d ry</w>
contribu ted</w>
com posed</w>
col porte
ch ris
ch ers</w>
bra in</w>
ber t</w>
b unde</w>
as car</w>
analy ze</w>
am ba</w>
ag ascar</w>
ad onjo</w>
ach aye</w>
ac cident</w>
a mi
a ji</w>
a che</w>
Te ach
TH IS</w>
T ry</w>
T er
St and
S ur
Ref er
Read ing</w>
Provi der</w>
On es
ON S</w>
None theless</w>
Main tain</w>
Mad agascar</w>
Mach on</w>
Mac e
Kor ea</w>
K at
Jo gi</w>
Jeri cho</w>
Jati chno</w>
IS A</w>
Gre ece</w>
Gi biro</w>
E v
Dani el’s</w>
D eli
Com m
Ale x
Acc ordingly</w>
Abi gail</w>
A R</w>
9 2</w>
200 2</w>
200 1</w>
195 3</w>
19 31</w>
1 16</w>
yr gy
your s</w>
worth less</w>
we yogi</w>
wal ls</w>
wa keth</w>
vers ary</w>
uon ga</w>
uo gi</w>
th or</w>
ten ing</w>
telep hone</w>
tas te</w>
t ine</w>
sugg est</w>
se ated</w>
s timul
ri dic
ridic ule</w>
rest ra
reques ts</w>
refres hment</w>
reas suring</w>
r wak</w>
puonj ni</w>
promo ted</w>
proclaim ing</w>
pro ves</w>
pri ce</w>
popul ation</w>
pi e
pi cal</w>
p en</w>
overwhel ming</w>
ose yiero</w>
oper ation</w>
om ing</w>
oher ogi</w>
och omo</w>
ob ject</w>
nyadi dek</w>
ny owuoyo</w>
ny osre</w>
num ber
no lamo</w>
ne zzar</w>
mwa hero</w>
mo wal
mo on</w>
mo dol</w>
mo dhi
masin de</w>
mali el</w>
mach ando</w>
m kate</w>
le aves</w>
ke e</w>
ka tiyo</w>
k ok
j ang’ad</w>
it em</w>
is eneno</w>
iri to</w>
inspir ing</w>
independ ence</w>
illustr ates</w>
ik ely</w>
identi fies</w>
i yogo</w>
i ah’s</w>
husb and
ho pes</w>
hes itate</w>
happen ing</w>
griev ing</w>
gr y</w>
gise yudo</w>
gin diko</w>
gi par</w>
gi her</w>
fac ilities</w>
f low</w>
execu te</w>
ex emplary</w>
es tern</w>
eg an</w>
e has</w>
dra ma</w>
distribu ted</w>
discus ses</w>
disc over</w>
dis posed</w>
del eg
d ings</w>
cre dit</w>
commer cial</w>
chu e</w>
character istics</w>
bo ma</w>
baru ano</w>
b ought</w>
b adness</w>
au to
ase yudo</w>
ar do</w>
am ing</w>
al emo</w>
adul t</w>
achi eve</w>
ach opo</w>
ab leness</w>
a z</w>
WA CH
W adak</w>
U. S</w>
Thous and</w>
Shepher d</w>
Ser vant</w>
S us
S ho
Repu blic</w>
Pra et
PE T</w>
O ver
O R</w>
N a</w>
Lo oking</w>
L ikely</w>
L ES</w>
Ka is
K yrgy
K ora</w>
Gi wacho</w>
G olden</w>
Europe an</w>
Em lyn</w>
E L</w>
Chr onicles</w>
Ch in
Ano inted</w>
19 70</w>
19 22</w>
yi eld</w>
x u
worshipp ing</w>
wher ever</w>
was om</w>
wal endonegi</w>
wa kwaye</w>
vi vi
ustr ate</w>
ur s</w>
un believers</w>
timor eni</w>
th wa</w>
sym pa
stre t
sk ill
simil arly</w>
scriptu ral</w>
scho ols</w>
ruog ego</w>
rom bo</w>
resurrec t</w>
resent ment</w>
real istic</w>
re place</w>
re ap</w>
otim nwa</w>
ote l</w>
ose puonjore</w>
ose dhi</w>
ose chiwo</w>
ori gin</w>
openj re</w>
on ono</w>
ol end</w>
off ended</w>
oduo g</w>
odiechien gno</w>
och ano</w>
o wal</w>
nony uolo</w>
no penje</w>
no jiwe</w>
no dong</w>
ng’i ewo</w>
ng’ eny
nam ely</w>
mwandu gi</w>
mor ogi</w>
mo ments</w>
mo geno</w>
mi yono</w>
mari chogo</w>
ma te
ma p</w>
ma oko</w>
lu eti</w>
lis ted</w>
lin es</w>
lim its</w>
le aven</w>
l oud</w>
l est</w>
ku e</w>
kib aji</w>
ka wacho</w>
instru ct</w>
immor tal</w>
im proper</w>
ik ora</w>
i pimo</w>
hum ili
hap pi
go e</w>
gi loso</w>
gener ously</w>
forti fy</w>
fo ot</w>
expect ations</w>
ess es</w>
es te
enh ance</w>
en ogi</w>
dri ve</w>
dis obedient</w>
deser ves</w>
d higa</w>
cri ed</w>
con ver
con sol
com promise</w>
ber e
b uono</w>
and re</w>
am u</w>
acc ess</w>
absolu tely</w>
a ved</w>
a go
Z ek</w>
Z ar
Wor ld
V olume</w>
Portu gal</w>
Pharao h’s</w>
Per s
P res
OR Y</w>
N achako</w>
Mika el</w>
M owinjore</w>
M illions</w>
L angu
K wa</w>
Jo y</w>
Jat elo</w>
J im</w>
Ill ustrate</w>
I ni
I neno</w>
H ap
Even ing</w>
E du
Chand ruoge</w>
CO R</w>
Baru ch</w>
An cient</w>
A H
9 8</w>
15 13</w>
ã o</w>
war wak</w>
war ds</w>
wa dewo</w>
wa chiw</w>
virgin s</w>
vi l</w>
vi et</w>
u ng’eyo</w>
tremend ous</w>
timbe go</w>
ti re</w>
tho thne</w>
ter min
taber na
taberna kel</w>
t ted</w>
surr ounding</w>
su ya</w>
st age</w>
spiri tism</w>
sp reading</w>
some what</w>
sk y</w>
sha me</w>
sha dow</w>
se con
scal e</w>
sacrifi cial</w>
s at</w>
represent atives</w>
rebelli ous</w>
re mbe</w>
pw od
puonj ne</w>
public ation</w>
prospe cts</w>
pro fes
por tions</w>
po de</w>
pi dh</w>
phi c</w>
par ty</w>
p salm</w>
or ted</w>
or ation</w>
ochi wre</w>
o ma</w>
nyi ewo</w>
nyal ogi</w>
nya g
ny i</w>
nose timo</w>
nor um</w>
no yi
no mi</w>
no konyowa</w>
mur der</w>
mon a</w>
mol woro</w>
mo il</w>
mo chako</w>
mer ly</w>
mara dier</w>
mal amo</w>
ma se
li me</w>
li fes
less er</w>
lab or</w>
kon g’eyo</w>
kind i</w>
ke tr
kal oe</w>
k wongo</w>
jo kinda</w>
je wa</w>
is eg
iny is</w>
i mi
i chako</w>
husband ’s</w>
hun gry</w>
hu m</w>
hones thearted</w>
histori an</w>
hen na</w>
help er</w>
ha ugh
gu ese</w>
gro ws</w>
go ye</w>
gis omo</w>
gir ls</w>
gini cham</w>
gi ver</w>
gi loko</w>
gi ketho</w>
gi kaw</w>
g us
fol lows</w>
fer v
fer ti
fe ared</w>
extrem ely</w>
enthusias m</w>
emphasi ze</w>
emph asis</w>
e mowa</w>
der i
coun t</w>
chil dhood</w>
ch woyo</w>
c in
c e
bl as
aver age</w>
ari us</w>
apost asy</w>
ap ara</w>
ama zed</w>
aj uo
affli cted</w>
ad ing</w>
accompani ed</w>
a il</w>
Y ears</w>
W adwaro</w>
Sup pose</w>
So viet</w>
S ud
S is
S ik
Portu guese</w>
OR I
O l
Ng’ ama</w>
Ma ke
MI YO</w>
MA D
M egan</w>
L it
Jol endo</w>
J ang’ad</w>
IN Y
Hear er</w>
H ope</w>
Ge henna</w>
G ary</w>
Ca es
Bo az</w>
Ben in</w>
Ben ef
B ran
AN S
A ny
9 00</w>
8 00</w>
5 ,
195 2</w>
19 43</w>
10 6</w>
. 0
wom b</w>
wi despread</w>
wi ck</w>
wa h
ven tion</w>
v ac
un wise</w>
u ge</w>
trans formed</w>
tra dition</w>
tin es</w>
territ ories</w>
tek na</w>
t ter</w>
t one</w>
str ange</w>
so il</w>
sing ono</w>
si bl
sibl ings</w>
ses sion</w>
sa f
s hel
rwak ruok</w>
respect fully</w>
recei ves</w>
rebel led</w>
re in
re bel</w>
r at
produc ing</w>
practic ed</w>
pra ising</w>
pol is</w>
po ya</w>
peti tions</w>
pers pe
percei ve</w>
osing onwa</w>
omb wa</w>
ol emb</w>
og en</w>
od agi</w>
occur s</w>
o mo
nyim i</w>
nyas ach</w>
ny angu</w>
nic a</w>
necess arily</w>
mit ting</w>
misang ono</w>
mis omo</w>
ma ma</w>
lac king</w>
k okwayo</w>
k ogeno</w>
judi cial</w>
jan diko</w>
ir ley</w>
inter f
interf ere</w>
il uw</w>
i puonjo</w>
hin go</w>
gwen g’
gwe l</w>
gl o</w>
gi ga</w>
fif th</w>
f ty</w>
exerc ises</w>
es h</w>
er ity</w>
enjoy ment</w>
enjoy able</w>
distra ctions</w>
difficul ty</w>
declar ation</w>
cr y
comple x</w>
com forts</w>
chi ere</w>
chi e
ch wechne</w>
ch gi</w>
bur g</w>
bir th
bili on</w>
at temp
at ory</w>
arri ves</w>
appreci ates</w>
an ie</w>
al er
adul ts</w>
adjus ted</w>
ad mitted</w>
ach able</w>
accur ately</w>
ac company</w>
a im</w>
Wuo da</w>
Wu o</w>
T ro
T ony</w>
Sy d
Sh irley</w>
Sa ul’s</w>
S ch
Religi on</w>
R ose</w>
Pur pose</w>
Pin je</w>
P O
Nyasach gi</w>
Na a
NY I
Me al</w>
Make donia</w>
M adier</w>
Lis ten</w>
K onyiso</w>
K elo</w>
K ANE</w>
Josi ah</w>
Jos omo</w>
John ’s</w>
Jachuech wa</w>
Jac ob
Isa bel</w>
Hist ory</w>
Gas et</w>
Dho k</w>
Da k</w>
D ine</w>
D en
Chi er</w>
Bib les</w>
Babyloni an</w>
A ha
A biro</w>
A B
7 ,000</w>
6 7</w>
10 5</w>
yu ni
yor eyore</w>
yie dhi</w>
x ili
wuo dh
wor i</w>
weak en</w>
wa lamo</w>
wa g
w ira</w>
us e
un scriptural</w>
um p
um b</w>
ul ar</w>
u par
u e</w>
tra gic</w>
to w</w>
tim ing</w>
thu ng’
tend s</w>
te l</w>
sub mission</w>
sirk and</w>
s of
ro man
ro g
ro ads</w>
reser ved</w>
re pay</w>
prosp erity</w>
produ ces</w>
pl ed</w>
piny wa</w>
perspe ctive</w>
penj a</w>
oyi ene</w>
out working</w>
ose medore</w>
ony uolo</w>
on es
omed re</w>
om onwa</w>
okon yogi</w>
ok wero</w>
of u
ode x</w>
nyis a</w>
nok wong</w>
nod akie</w>
no loyo</w>
no gero</w>
nger oni</w>
ne t
ndha dhu</w>
mo chiwo</w>
meas ures</w>
ma tion</w>
m wadaki
le ts</w>
ko chakore</w>
k er</w>
jo lok</w>
jo k
jo bs</w>
jap ainia</w>
it age</w>
ir on</w>
il uonge</w>
i wuoro</w>
her ano</w>
gr ants</w>
ge es</w>
fruit ful</w>
fres h</w>
for merly</w>
fe ’s</w>
excl usive</w>
eth ni
ess eng
enter ing</w>
en ego</w>
el ono</w>
ed h</w>
distingu ish</w>
dho e</w>
de wogi</w>
da ge</w>
da d</w>
d eno</w>
coun ter
contro lled</w>
confli cts</w>
cl er
ch am
bo ard</w>
be gun</w>
back grounds</w>
b uru</w>
ay any</w>
avoi ding</w>
au xili
asi ko</w>
apen j
adop t</w>
a waiting</w>
W ad
Tho thgi</w>
Thir d</w>
Than ks</w>
T aking</w>
T ab
Ser ve</w>
R it</w>
R ed</w>
No chako</w>
Ngi mana</w>
N ad
MAT T</w>
M Y</w>
KA MA</w>
Jos é</w>
Jos ombwa</w>
Isa iah’s</w>
IN E</w>
Filis tia</w>
C anaan</w>
Bu gno</w>
Alex and
A ga
8 1</w>
14 7</w>
worth while</w>
wei ghty</w>
we a
wase timo</w>
wany ag</w>
wa puonj
wa ji
vi gor
usi ons</w>
un ist</w>
truth fulness</w>
tran spor
tr ous</w>
ton gues</w>
tin y</w>
tim uru</w>
thor oughly</w>
ten tly</w>
te wa</w>
tain ly</w>
t ling</w>
t ingly</w>
st ating</w>
st ance</w>
speak er</w>
sil ent</w>
sig ned</w>
sig endni</w>
sid ent</w>
sen tence</w>
scro ll</w>
school mates</w>
sa ving</w>
s sed</w>
s ower</w>
rich ly</w>
ra dio</w>
pur ch
puo th</w>
phr ase</w>
peti tion</w>
parti ality</w>
ot ere</w>
or gi</w>
op ong’o</w>
onyuo le</w>
ol uongo</w>
ol es
ol ando</w>
ok uwe</w>
oher i</w>
occ upi
occ up
nyathi gi</w>
nosi emo</w>
nochi ero</w>
neli o</w>
ndal ono</w>
n dik</w>
mom ent
mi el</w>
mean time</w>
mal ing’ling</w>
ma rom</w>
ma kawo</w>
m esseng
lifes aving</w>
korach am</w>
ke en</w>
in ono</w>
in on</w>
i puonjri</w>
hypo critical</w>
hon ored</w>
gro om</w>
glori fied</w>
fre ed</w>
fe eding</w>
far m</w>
fail ing</w>
f ounded</w>
f om</w>
exp lo
end gi</w>
en yo</w>
embra ce</w>
em er
else where</w>
el ev
e tic</w>
donj re</w>
disas trous</w>
dep end
de ko</w>
d ak
crimin al</w>
cre ative</w>
conve y</w>
consider able</w>
conqu er</w>
concen tr
com memor
cleans ing</w>
chokruog ego</w>
ba de</w>
auxili ary</w>
ar gum
appreci ative</w>
appoin tments</w>
ag ers</w>
acc o</w>
W ayudo</w>
W asomo</w>
Sing ruok</w>
Sig and</w>
S ila</w>
Refle cting</w>
Puonj ri</w>
Ph ilis
Par is</w>
P ak
Osi epe</w>
ONY UO
O t</w>
Mar gar
Ma e</w>
MAN A</w>
M in</w>
M edo</w>
Kor nelio</w>
Kit abu</w>
K o
Jud ges</w>
Jacob ’s</w>
Ja el</w>
H ad</w>
H IST
Gre ater</w>
Gi ving</w>
G il
F E</w>
F A
EN O</w>
Descri be</w>
De partment</w>
D weche</w>
Con sequently</w>
Cer tainly</w>
Bu il
An n
A paro</w>
A hero</w>
19 60</w>
19 48</w>
19 41</w>
1 18</w>
yud re</w>
wer ano</w>
weigh ed</w>
wan yo</w>
wad hiuru</w>
wa le</w>
wa ited</w>
val ent</w>
un necessary</w>
ump tuo
trans ferred</w>
tra ditions</w>
ti yoe</w>
ti ji</w>
th ’s</w>
tek ni</w>
t esti
t amo</w>
t ality</w>
sub missive</w>
strugg led</w>
str ayed</w>
sle eping</w>
sin e
shor t
self ishness</w>
sele ct</w>
s ad
ru m</w>
rit ore</w>
rich ono</w>
ren e
rememb ering</w>
refer ences</w>
recomm ended</w>
ques tioned</w>
pur posed</w>
prec ed
pre me</w>
por tr
pla gue</w>
pl enty</w>
pinj egi</w>
pha l</w>
par take</w>
p ak
oses ingo</w>
ose dok</w>
or ’s</w>
open s</w>
on ica</w>
om ’s</w>
olo gy</w>
ol wor
off ense</w>
o chopi</w>
nyuk ta</w>
no timre</w>
no jiwa</w>
no chango</w>
ndi ga</w>
mose timo</w>
mon di</w>
mod wanyore</w>
mo thers</w>
mo miyowa</w>
mb ese</w>
marri ages</w>
mal er
l woro</w>
kotel ne</w>
kod hino</w>
ke en
ka d</w>
intro duced</w>
in ting</w>
in sul
in cident</w>
imp lies</w>
i jiwo</w>
i ed</w>
happi er</w>
ha wo</w>
giny is
gi wuo</w>
gi uru</w>
genu inely</w>
f ted</w>
expres ses</w>
ex haus
es ty</w>
er to</w>
en tie</w>
em ed</w>
doctr ines</w>
do her</w>
dic t
di re</w>
devast ated</w>
deta iled</w>
dend a</w>
cooper ation</w>
contribu tes</w>
conqu ered</w>
concl ud
comb ined</w>
com mon
cl oud</w>
chuno gi</w>
chier ne</w>
charac teri
c o</w>
bro ad
blas phe
bere aved</w>
be de</w>
b in
b all</w>
attra cted</w>
advan ced</w>
a winj</w>
Y ES
YES U</w>
We chegi</w>
UON G</w>
Thessal onica</w>
T ar
Sime on</w>
Samarit an</w>
Regar dless</w>
Philis tines</w>
P iny
O be
Ny aminwano</w>
N ero</w>
M wandu</w>
Lit tle</w>
K otiyo</w>
K odhi</w>
Jon enogo</w>
Ital ia</w>
Hen ry</w>
He ad</w>
HIST ORY</w>
Gu i
Genti les</w>
Fol low</w>
D WO
D H
Chuny wa</w>
Chi kno</w>
Chi emo</w>
Chi emb</w>
Cha l</w>
C u
Bran ch</w>
Al wora</w>
A sh
A k
A K
1 2
z abur
yo ke</w>
won jo</w>
wen y
weal thy</w>
war no</w>
wa shed</w>
wa ge</w>
w est</w>
val u</w>
uon g
un ga</w>
tra ct</w>
ti sh</w>
thuol oni</w>
the me</w>
tay owago</w>
t fully</w>
strengthen s</w>
str a</w>
sti r
sti c</w>
st a
si gh
shor ta
shi eld</w>
scro lls</w>
s owing</w>
s oko</w>
ri al</w>
quali fications</w>
prog ressed</w>
prison ers</w>
pre fer
pray erfully</w>
pol ise</w>
piny u</w>
per mission</w>
over look</w>
out cry</w>
ot ine</w>
or u
op ota
ol uonge</w>
o tiyogo</w>
o ting</w>
o kal</w>
nong’ ad
no jiwogi</w>
no chier</w>
ngima u</w>
neli us</w>
nder ni</w>
n ouris
mon di
mo luore</w>
mili onde</w>
ma rito</w>
ma iye</w>
lu ete</w>
long ing</w>
long ed</w>
lif ted</w>
li ft</w>
l ap
kun yo</w>
king ly</w>
kin g’
ki ko</w>
keen ly</w>
ka t
ka dhi</w>
k y</w>
jos kul</w>
jati chne</w>
jat er
it ated</w>
indic ating</w>
increas ingly</w>
incl inations</w>
incl ination</w>
in formed</w>
im i</w>
iik ori</w>
ignor ed</w>
i ketho</w>
i goyo</w>
i e
hur tful</w>
hun ger</w>
hon oring</w>
ho me
hin y</w>
hin der</w>
head ed</w>
gu ests</w>
gi chiwore</w>
exten sive</w>
esti mate</w>
en sure</w>
dro p</w>
don i</w>
domes tics</w>
decisi ve</w>
con firm</w>
chuno wa</w>
chop oe</w>
challen ged</w>
ch s</w>
ch ad
cele bra
cap ital</w>
c lif
c il
bol dly</w>
bl ack</w>
believ es</w>
be done</w>
b wok</w>
as ser
as keche</w>
apost ates</w>
anc est
al o
ad mi
ab les</w>
Wa bedo</w>
Tu valu</w>
TI ONS</w>
TE M</w>
Syri ac</w>
Si em</w>
R ah
Pro test
Pi che</w>
P o
P al
On es</w>
O ld</w>
Ng’ atno</w>
Nebu ka
Nebu chad
N either</w>
Mes opota
Ly stra</w>
Lo ving</w>
KIN DE</w>
Jon ah</w>
Jen ny</w>
JO H
J ES
JES US</w>
I wachonwa</w>
Happ ily</w>
HA VE</w>
Gi ver</w>
Gi kanyono</w>
GI N</w>
G E
Eli e
E f
Cor nelius</w>
Chu th</w>
Cho po</w>
Bethel ites</w>
B JE
198 0</w>
10 0,000</w>
1 36</w>
yu di</w>
yi k</w>
wuon e</w>
wuo yoga</w>
wad ar</w>
wach oni</w>
wa wuotho</w>
wa wuok</w>
wa par
wa ol</w>
wa kedo</w>
w ’s</w>
w og
v ul
un repentant</w>
tu ral</w>
ti y
ter owa</w>
telev ision</w>
tech no
t ung
some how</w>
sn are</w>
s us</w>
s qu
s is</w>
ring rene</w>
rifi ed</w>
ri ver</w>
ri de</w>
respe cting</w>
refu gees</w>
recogni zing</w>
rec over</w>
puon ji</w>
pu r</w>
pro gr
preven ted</w>
preach er</w>
practic ing</w>
po g</w>
pie ces</w>
pes ago</w>
pad ri</w>
over sight</w>
opi c</w>
occasi onally</w>
obed nwa</w>
ob wongo</w>
o x
nyin yo</w>
ny and
nyand wat</w>
nor omogo</w>
nony isowa</w>
nong’ ere</w>
no ma
nga mia</w>
newspap er</w>
ne edy</w>
nd uru</w>
my st
mwandu ne</w>
mwa somo</w>
mwa puonjore</w>
mon eno</w>
mo me
mo gol</w>
mach alre</w>
ma ss</w>
lo ka</w>
lo chogo</w>
li ked</w>
li c</w>
le vel</w>
land ore</w>
l ined</w>
kon yogo</w>
ka machielo</w>
k na</w>
joo tego</w>
jar atiro</w>
jap ur</w>
ja oteno</w>
iny ise</w>
inv ites</w>
intro du
inj ury</w>
in tri
im part</w>
illi on</w>
ig olo</w>
i yiero</w>
i yi</w>
i kaw</w>
i gh
haugh ty</w>
gre eting</w>
gi riwo</w>
gi golo</w>
forb idden</w>
fas hi
fam ine</w>
fal ls</w>
fail s</w>
f low
f f</w>
exhor tation</w>
ex ile</w>
et ly</w>
en vy</w>
en g’no</w>
en ge</w>
empow ered</w>
ed a</w>
don ations</w>
do ors</w>
dis course</w>
digni fied</w>
dhi go</w>
dha wo</w>
deliber ately</w>
decei ve</w>
d ou
cri tici
contribu tions</w>
contempl ate</w>
conqu est</w>
compar able</w>
cleans ed</w>
cl ari
cho de</w>
chas te</w>
charac ter</w>
cap tive</w>
c overing</w>
b ig
b es
awa its</w>
arri ving</w>
ari o</w>
apar tment</w>
am oun
ali en
a keto</w>
a chune</w>
YO E</w>
Who ever</w>
Vi ew</w>
U p</w>
TI M</w>
Sab ato</w>
S ci
Ru le</w>
Rab sha
Ra war</w>
Pa y</w>
PA R</w>
No keto</w>
Naa man</w>
Mesopota mia</w>
Mas wali</w>
Man gima</w>
M om</w>
Lear ning</w>
Langu age</w>
L inda</w>
Jonyuol na</w>
Jak wath</w>
G O</w>
Fran z</w>
Every thing</w>
Elie zer</w>
Cour t</w>
Christi an’s</w>
Ch ang
C ON
Ali ce</w>
AR E</w>
9 6</w>
5 0,000</w>
10 1</w>
yuni vasiti</w>
year text</w>
yan de</w>
y eng’o</w>
winjruok na</w>
wal uor</w>
wal and</w>
wa ikre</w>
volun tary</w>
valu eless</w>
v ary</w>
und u</w>
un ting</w>
un married</w>
un known</w>
un ge</w>
u oro</w>
ty pical</w>
transl ators</w>
to l</w>
tic es</w>
the tic</w>
th od
t opic</w>
sul ano</w>
stum bled</w>
st aying</w>
sou thern</w>
sou led</w>
sol dier</w>
sk illed</w>
sing one</w>
s on’s</w>
s giving</w>
re de
proph es
pro sy</w>
prepar ation</w>
pre vious</w>
pil gri
p or</w>
p ay
ow ner</w>
oun tains</w>
ot elo</w>
ot aye</w>
or wa
or eso</w>
onyis i</w>
on line</w>
om ono</w>
olo gical</w>
ol war</w>
oke do</w>
og ether</w>
o ywa
o make</w>
o chokore</w>
o cham</w>
o ath</w>
nyimin ego</w>
num bers</w>
nose chako</w>
nor amo</w>
nok wero</w>
no on</w>
na timo</w>
na bedo</w>
n aturally</w>
n anga</w>
movi es</w>
mis led</w>
medi a</w>
man dal
mandal ogi</w>
mak ori</w>
ma tically</w>
ma temo</w>
ma b
m ity</w>
m entally</w>
lo je</w>
ler onwa</w>
l ity</w>
kwa r</w>
kom iti</w>
kalat ese</w>
k es
is an
ing’ no</w>
ind ul
imagin ation</w>
im mi
ig ombo</w>
id ols</w>
hon estly</w>
hi t</w>
gr ud
gi dewo</w>
gi an</w>
fun eral</w>
for gives</w>
fi xed</w>
f ought</w>
exp and
exhor ted</w>
ethni c</w>
es man</w>
ent ’s</w>
e es</w>
dri ver</w>
domin ant</w>
dis loyal</w>
dhi yo</w>
descri bing</w>
demon stra
correc ted</w>
conv ince</w>
conten tment</w>
consul t</w>
conne cted</w>
conc ei
com pos
ch we</w>
car d</w>
c lear
bu ried</w>
be at</w>
b ic
ayi ea</w>
ang’ i</w>
an nica</w>
alwor agi</w>
ak ano</w>
ad ongo</w>
aci fic</w>
accompl ishing</w>
Ze de
War wick</w>
Wa wach</w>
WUO YOE</w>
W eyo</w>
Teach er</w>
T ogether</w>
T ob
Sil as</w>
She ol</w>
SU BJE
SUBJE CT</w>
S iko</w>
S cot
Ri gh
Rah el</w>
R anyis
P acific</w>
O winjore</w>
O wad
O dhi
N ap
Mo tegno</w>
Millenni al</w>
Mace donia</w>
L or
J W</w>
G race</w>
G l
G ayo</w>
F la
E lis
Christ ine</w>
Car ol
Brit annica</w>
B U
Assyri an</w>
An ne</w>
Al len</w>
Ac tually</w>
AN Y
A suria</w>
8 5</w>
7 7</w>
197 4</w>
19 47</w>
1 25</w>
z i
x ing</w>
wuo dhno</w>
wholehear ted</w>
wei gh</w>
wech eni</w>
wak wongo</w>
wa tho</w>
w uru</w>
w ol
vel yn</w>
valu ed</w>
un cleanness</w>
u li
thre w</w>
thin ks</w>
ther ap
te gowa</w>
t uon
t ably</w>
surpris ing</w>
supp ose</w>
st ation</w>
st able</w>
sor ry</w>
sk in</w>
separ ated</w>
senten ced</w>
sandu ku</w>
saf ely</w>
s th
ruok go</w>
ro of</w>
ro d</w>
ri pode</w>
resear chers</w>
repen ted</w>
rel ying</w>
recor ds</w>
re pair</w>
re lu
relu ct
re ci
ra b
pun ish</w>
progr ams</w>
pres umptuo
plan ned</w>
pinj ego</w>
pi ece</w>
pa ce</w>
osen g’ado</w>
oher owago</w>
og undho</w>
og ony</w>
ochwan yowa</w>
ochi ke</w>
nyim wa</w>
number ed</w>
note worthy</w>
nony osore</w>
no wuotho</w>
no ses
no par
no kedo</w>
nec es
neces sities</w>
n ang’eyo</w>
n ahero</w>
mo wuo</w>
mo ld</w>
mo dho</w>
mem orial</w>
material ism</w>
ma dhako</w>
m esa</w>
li elno</w>
le prosy</w>
lar ger</w>
lac ked</w>
l wanda</w>
l uonge</w>
kuo n</w>
jowasi ke</w>
in fer
imagin ed</w>
ile mon</w>
i weyo</w>
hol o</w>
ho mel
hiny e</w>
hi ye</w>
hi di</w>
hel pl
he at</w>
ha med</w>
gwen g’no</w>
go yone</w>
gin ibed</w>
gi romogo</w>
gi lemo</w>
gi land</w>
g ariyo</w>
fur n
foret ell</w>
fl ouris
fav ored</w>
exal ted</w>
end er</w>
duong’ ne</w>
dra g
direc ting</w>
di min
defin itely</w>
def en
de groom</w>
de ca
d y</w>
d ge</w>
ci vil</w>
choos es</w>
bre a
bran ches</w>
be have</w>
b on</w>
b ilo</w>
attemp ts</w>
at tempted</w>
asse mbled</w>
as hamed</w>
as eneno</w>
ari an</w>
appro achable</w>
anti cip
answ ering</w>
ad versity</w>
ac tively</w>
a kawo</w>
a chien</w>
Y ot</w>
Y E
W ageno</w>
W I
Under stand
Un til</w>
Te aching</w>
S tu
R en
Pra c
Poti far</w>
Pe k</w>
Pa olo</w>
P ut</w>
P sal
Ny is
M id
M en</w>
M ane</w>
Lu oro</w>
L ast</w>
Kais ar</w>
Jo s</w>
Jeremi ah’s</w>
J orit</w>
IT H</w>
I sh
Hum ility</w>
Hib r</w>
H ab</w>
Gas ed
G i</w>
F u
F er
EN DO</w>
E velyn</w>
E st
D ic
Chok ruoge</w>
Chin ese</w>
C I
Bri tish</w>
B ir
B ack</w>
As soci
199 4</w>
’ re</w>
z en</w>
yud oree</w>
yi ena</w>
y on
winj a</w>
win i</w>
wi fe’s</w>
we yowa</w>
wany isogo</w>
wan ting</w>
wach ona</w>
w eno</w>
us tration</w>
un believer</w>
tribul ations</w>
treach erous</w>
tim ni</w>
tim na</w>
ter son</w>
tend erly</w>
t ere</w>
symboli zed</w>
survi val</w>
sth and</w>
ste al</w>
stat us</w>
smo ke</w>
si ze</w>
scri bes</w>
scen es</w>
scat tered</w>
sancti fication</w>
s l
s ab
rit es</w>
ri e</w>
rele vant</w>
re gain</w>
prote ctive</w>
preg nant</w>
philosoph y</w>
pen di
pas sion</w>
p oro</w>
oti enono</w>
oter ore</w>
os imbo</w>
on ga</w>
oken di</w>
ok ia</w>
od woke</w>
occupi ed</w>
obe doe</w>
o wuotho</w>
o tayo</w>
nori wore</w>
nong’ anyo</w>
no tel
no jiwowa</w>
neu tral</w>
n aparo</w>
mu che</w>
mot el
migepe gi</w>
mi yo
mes sages</w>
mak alo</w>
mag nific
mag ero</w>
ma tek
ma mo
ma ketho</w>
lwet gi</w>
long time</w>
lic ations</w>
lam ono</w>
l fire</w>
kop im</w>
kony wa</w>
k s
jo e</w>
ja timore</w>
ja chir</w>
j ana</w>
id he</w>
i miye</w>
hig inigo</w>
he irs</w>
hand led</w>
h all</w>
guid es</w>
guaran tee</w>
gro ss</w>
gro oming</w>
glo be</w>
gisi ko</w>
gise timo</w>
g edy</w>
g ames</w>
fir sthand</w>
faul ts</w>
fas cin
fa ult</w>
exc use</w>
ex pl
ex claimed</w>
enti rely</w>
end a</w>
ele c
educ ated</w>
e ast</w>
dis pen
des pair</w>
d inde
consis tent</w>
clos ed</w>
chu ng’
ch uo
certain ty</w>
c ited</w>
bre aking</w>
as i</w>
ang’ iyo</w>
al ama</w>
ak u
Zi on’s</w>
Ze al
Y ou
W ise</w>
W aneno</w>
Understand ably</w>
U D</w>
T inde</w>
Syd ney</w>
Su f
S iki</w>
Ro ald</w>
Organi zation</w>
Nyithin di</w>
N um</w>
N GI
Ma beyo</w>
Kor ah</w>
Ka z
J us
J opuonj
J e</w>
Inde x</w>
GO D</w>
Fin d</w>
Fi ve</w>
F E
Eli j
Edu ardo</w>
Ear lier</w>
EN T</w>
Di vine</w>
C ir
Bar r</w>
B or
Answ ers</w>
A ri
A P
A C
199 7</w>
195 7</w>
19 46</w>
18 00</w>
1 35</w>
1 15</w>
y clif
winjruok ni</w>
wey onegi</w>
we aring</w>
wat ched</w>
wany is
wa che</w>
volunte er</w>
usi vely</w>
understand able</w>
un just</w>
ub ani</w>
u biro</w>
tu r</w>
tu do</w>
transpor tation</w>
tow ns</w>
tou ching</w>
tob acco</w>
tij ego</w>
ti ma</w>
ti jewa</w>
thir st
thank sgiving</w>
ten ts</w>
tempor arily</w>
te kono</w>
ta xes</w>
t les</w>
sy stem
stu ck</w>
star ting</w>
st ar</w>
sp ot</w>
sp lend
si x
si emowa</w>
she ep
sear ched</w>
s wi
s ources</w>
ru pt</w>
ro b</w>
rin g’o</w>
ri w</w>
rescu ed</w>
ren oun
remin der</w>
re vol
re be
rebe ls</w>
por t</w>
pon der</w>
pleas es</w>
perse vere</w>
percei ved</w>
par ono</w>
par ogi</w>
out ward</w>
oti eg</w>
ose kawo</w>
ose chiwore</w>
ori ous</w>
organiz ations</w>
op ondo</w>
onyuol wa</w>
ony osre</w>
one y</w>
on yos</w>
ol em</w>
oji wwa</w>
ode wowa</w>
och an
o tin</w>
ny ik
ny arombo</w>
no sel
no ora</w>
no dag</w>
n in
n al
mony osore</w>
mony is</w>
mon ya</w>
moch we</w>
mo winj
mo so</w>
migepe go</w>
mate ’s</w>
man ners</w>
man aged</w>
ma fu
m wo
ligh ts</w>
le is
l ’s</w>
kony ise</w>
kon you</w>
kind eni</w>
ke dogo</w>
ka m
jal up</w>
j wang’
j ou
ir rit
inten tion</w>
independ ent</w>
impris onment</w>
i romo</w>
i ang</w>
ho t</w>
high est</w>
he ma</w>
gover nor</w>
gomb one</w>
gi kanyono</w>
ger ia</w>
fun ction</w>
flo od
fe male</w>
fa ir
exces sive</w>
esti ma
es tion</w>
ep o</w>
end less</w>
ef ly</w>
dru g</w>
do ctors</w>
distur bed</w>
depi cted</w>
deman d</w>
dec eption</w>
de pri
dal agi</w>
cry phal</w>
cro wn</w>
confid ently</w>
concen tration</w>
clean se</w>
che ck</w>
chari ots</w>
can ’t</w>
c ease</w>
bur den
blo od
bis ho
bedon a</w>
be gged</w>
bati se</w>
b ag
as sa
ari ot</w>
ar mor</w>
ar chaeolo
an ano</w>
ali ke</w>
ai us</w>
ah ango</w>
adhi ya</w>
addi ction</w>
ac z</w>
aber ni</w>
W yclif
V is
V ER
Su cc
Sik uru</w>
Se ek</w>
Sand ra</w>
S ac
R yan</w>
Pol ish</w>
Pi one
Odhi ambo</w>
Ob viously</w>
Nyas ache</w>
Nin eve</w>
Nin ev
N ear</w>
Mo s</w>
Miri am</w>
Med itating</w>
Mari o</w>
Mang’ eny</w>
Man asse
Mak war</w>
M anyiso</w>
King sle
Jol weny</w>
Jo tim</w>
Jar acz</w>
In sight</w>
I k
Hon or</w>
G aius</w>
F OR</w>
Don ’t</w>
Dic tionary</w>
D ays</w>
Bapti zer</w>
B EN
Ar chi
Ap plying</w>
ARTIC LES</w>
7 6</w>
199 3</w>
199 1</w>
196 1</w>
yi eni</w>
wuo gi</w>
wor st</w>
web site</w>
wasi ke</w>
wang’ iyo</w>
vi cious</w>
v ows</w>
ut ter
under mine</w>
un seen</w>
un righteousness</w>
un fair</w>
tra gedy</w>
tra cts</w>
tr umpe
tom b</w>
ten ore</w>
tem bego</w>
teen age</w>
techno logy</w>
te moga</w>
te koni</w>
te en</w>
tas ks</w>
t aya</w>
survi ving</w>
survi v
supp lies</w>
succe eded</w>
stru c
stic king</w>
stand point</w>
splend or</w>
sel y
seem ingly</w>
ro ws</w>
reli ed</w>
re vel
re ka</w>
r ine</w>
r ang
pu zz
pro sely
prev ail
plan ted</w>
persu aded</w>
perman ently</w>
pen alty</w>
pe kgo</w>
par ou</w>
pan us</w>
p ment</w>
ou m</w>
ose medo</w>
ori go</w>
on er</w>
olo gi</w>
ol am</w>
oka n</w>
offi ces</w>
och were</w>
obedi ently</w>
o hera</w>
nyal one</w>
nol al</w>
no wuoyoe</w>
no wil</w>
no kethore</w>
no chokore</w>
ne th</w>
mop a</w>
mo yudo</w>
mo ther’s</w>
mis leading</w>
miri mb</w>
min or</w>
me tal</w>
mar rying</w>
ma yoreyore</w>
ma winjore</w>
ma ga</w>
log ers</w>
li ch</w>
leg s</w>
le p
le giti
l an
kol pota</w>
kod emo</w>
ko yo</w>
ko u</w>
ket onegi</w>
jus tices</w>
jo lweny
j ir
j asik</w>
is ite</w>
ir u</w>
inv iting</w>
inti mid
inter v
in t
in spe
in ge</w>
in fe
immor tality</w>
im men
il ’s</w>
i wuoyoe</w>
homel and</w>
holi ab</w>
hel lfire</w>
head ing</w>
he th</w>
guid el
gl adly</w>
gis ts</w>
gi jo
gg ing</w>
g ope</w>
g olden</w>
g ol
frustr ated</w>
for gotten</w>
foc uses</w>
fl our</w>
finan cially</w>
favor ite</w>
fal sely</w>
f a</w>
ey e
exp an
evangeli zers</w>
ev es</w>
er ogo</w>
em br
elec tri
el iness</w>
ef wenyo</w>
e ks</w>
dwach gi</w>
du ty</w>
dis appointment</w>
desper ate</w>
dend wa</w>
deligh tful</w>
de teri
de te
cy cle</w>
cro ss</w>
con taining</w>
clo ck</w>
ci a</w>
chwany ore</w>
chu n</w>
chi wonegi</w>
chi kni</w>
chi a</w>
chand i</w>
ch wor</w>
c us
c od
buo n</w>
bo che</w>
bl in</w>
bic y
belong ed</w>
bedon egi</w>
b illion</w>
ayi ero</w>
attra ctive</w>
ar ’s</w>
ar ia</w>
ano inting</w>
ang’ go</w>
alu wa</w>
ai wan</w>
agu e</w>
ag gres
adver sities</w>
ad oles
accommod ations</w>
ac cid
a wuoyo</w>
a wo</w>
a wera</w>
Wh enever</w>
W ill
W est</w>
Uni on</w>
Ti eg
Th at’s</w>
T aiwan</w>
Str eng
S top</w>
Re jo
R ing
Per sian</w>
P og
O holiab</w>
O SE
Nor th</w>
Ni kodemo</w>
Ne w
Mean while</w>
Maril yn</w>
Manasse h</w>
M waka</w>
M O</w>
L oso</w>
Kingsle y</w>
K y
K uo
K ev
Japuonj re</w>
J alo</w>
Im medi
Hu mans</w>
Hap piness</w>
G in
Eu reka</w>
En d</w>
Ek le</w>
Du blin</w>
Da wn</w>
Cen turies</w>
Car ol</w>
Cam panus</w>
C ul
C le
Anti och</w>
Al ong</w>
Ab is
A neno</w>
7 ,
19 44</w>
19 00</w>
æ dia</w>
wen ge</w>
wed eni</w>
we ep</w>
war ore</w>
wach ano</w>
wa lend</w>
w ir</w>
vivi d</w>
ve ’s</w>
uni versity</w>
un ning</w>
um s</w>
to ol</w>
ting’ e</w>
th uon
t our</w>
t ok</w>
suppor ts</w>
str um
star ts</w>
st an</w>
sp ite</w>
sine mano</w>
sh y</w>
s adness</w>
ro me</w>
ris ing</w>
rest oration</w>
ref rain</w>
reconc iled</w>
r ate</w>
produ ct</w>
pre fer</w>
plan ts</w>
pill ar</w>
pi chni</w>
penj oni</w>
pe kno</w>
particip ating</w>
pa ths</w>
p ædia</w>
p it
p el
oun dness</w>
otu r</w>
ot we</w>
osiep wa</w>
ose wuo</w>
or no</w>
opuon je</w>
onen ess</w>
on ward</w>
on eg
on ano</w>
oher ogo</w>
og ero</w>
og eng’
ochu e</w>
o ikre</w>
o hore</w>
not elo</w>
nosen y
nose kalo</w>
nog wel
no choko</w>
ng’ at
nen owa</w>
n ad
mor it
moch an</w>
mis ery</w>
mi keto</w>
mi hero</w>
makend eno</w>
ma paro</w>
lon eliness</w>
lo yogi</w>
life time</w>
li mogi</w>
li ken
leg ally</w>
lat ter</w>
l woko</w>
l ling</w>
kop i</w>
ko chomo</w>
ka wogi</w>
k orito</w>
k ara</w>
jo tim</w>
j osi
j ondik</w>
isi k</w>
iny uolo</w>
iny ag
inc or
impres s</w>
il er</w>
i dak</w>
hor ses</w>
gue dhi</w>
gu ing</w>
go diechieng</w>
gip ogore</w>
gin ono</w>
gi many</w>
gi mako</w>
gi ma
gi luoro</w>
g ego</w>
g eche</w>
fu n</w>
fore fathers</w>
for gave</w>
follow er</w>
evangeli zer</w>
em ’s</w>
earthqu akes</w>
domin ated</w>
divor ced</w>
dist orted</w>
discer ning</w>
devast ating</w>
d ’
d ressed</w>
d ary</w>
cul tures</w>
cul tural</w>
cre ating</w>
convinc ing</w>
conveni ent</w>
comm ented</w>
com pe
colle ct</w>
chwan yowa</w>
chi emb
chi e</w>
charac ters</w>
chand re</w>
chan nel</w>
c ate</w>
bu rial</w>
bon dage</w>
ber ie</w>
auth orized</w>
as ts</w>
ar range</w>
ar m</w>
api to</w>
ap ologi
anyis ogi</w>
an ne</w>
an ing</w>
adul ter
adjus tment</w>
adequ ate</w>
adap t</w>
ad vis
Y I
Writ ing</w>
T ri
Sh into</w>
Se ed</w>
Sab bath</w>
S t</w>
S in</w>
R ico</w>
Psal ms</w>
Protest ant</w>
Pro te
Par ruok</w>
N afwenyo</w>
N O</w>
N E
Mid dle</w>
Mas ira</w>
Mark us</w>
Ma malo</w>
MAT H</w>
M IN
Kev in</w>
Ke eping</w>
Je w</w>
Ja chiwo</w>
In c
I UD</w>
Geor gian</w>
GI K</w>
Encyclo pædia</w>
Elij ah’s</w>
Eas tern</w>
ER S</w>
Dev il’s</w>
Ch al
Canaan ite</w>
CO UN
C are</w>
C apito</w>
C ap
Bibli a</w>
Aug ust
Aga inst</w>
Abis hai</w>
A CH
20 th</w>
10 2</w>
1 .
y onwa</w>
wuon di</w>
wel ve</w>
weap on</w>
war m
wah ili</w>
wa sh
wa makre</w>
wa hore</w>
wa bedogo</w>
w it</w>
w go</w>
viol ate</w>
ur a</w>
uo us</w>
un du
trou bles</w>
tor ment</w>
tic ism</w>
tho go</w>
teen agers</w>
ta che</w>
t wis
suppor tive</w>
sum mer</w>
sud den</w>
st ly</w>
st er
spar ed</w>
sp r
sig ni
sever ely</w>
sentim ents</w>
sel ling</w>
see ds</w>
se kon
se i</w>
scienti fic</w>
sacrifi ced</w>
s worn</w>
s outh</w>
s ok
s at
ruok na</w>
roman tic</w>
ro oms</w>
ro b
res isting</w>
religi ously</w>
reli ance</w>
ra tion</w>
ra ge</w>
promp ted</w>
pos al</w>
pon do</w>
pi ck</w>
per ish</w>
per forming</w>
our self</w>
otel ne</w>
or derly</w>
or able</w>
opw od
onyis gi</w>
ony e</w>
oni ang</w>
on ogra
ol e
ogwe dho</w>
ogo ye</w>
od ew</w>
obatis wa</w>
ob jects</w>
o ted</w>
o mak
o ho
o chop
no wang</w>
no dongo</w>
negle ct</w>
mon ogi</w>
mol al</w>
mo stly</w>
mo her</w>
me als</w>
man ye</w>
mali et</w>
ma chop</w>
lo d
lead ership</w>
lam b</w>
la mogi</w>
l ith</w>
l ing
ki wuok</w>
ke gi</w>
k ne
jo ys</w>
jo int</w>
ise timo</w>
is ando</w>
interv ene</w>
inten si
in strum
im proved</w>
ib atiso</w>
ho go</w>
gui ding</w>
gue dhowa</w>
gru b
go u</w>
gi luor</w>
gi ked</w>
gi chiw</w>
gather ings</w>
gased no</w>
g onyo</w>
g ni</w>
g ene</w>
foot note</w>
f wa
f os
exc it
est ingly</w>
ess ly</w>
ensla ved</w>
en re</w>
eas es</w>
earthqu ake</w>
dra matic</w>
dist ressed</w>
discer ned</w>
di um</w>
dho go</w>
dh and</w>
dece ased</w>
d ola</w>
ctr onic</w>
common ly</w>
comm end</w>
colporte urs</w>
ci de</w>
chi ewo</w>
cen tral</w>
cat ch</w>
betr ayed</w>
bear er</w>
be th</w>
ban k</w>
b ound
b arri
att ached</w>
ar ises</w>
and no</w>
an ni</w>
an na</w>
al th</w>
advan cing</w>
ad minis
ac tual</w>
ab y
a ths</w>
Y an
Wyclif fe</w>
W ase
Vi jana</w>
V ery</w>
Ti ego</w>
TH ER</w>
T em
Suf fering</w>
Sir kal</w>
Rit uru</w>
Righ te
R ombe</w>
Que be
Prof essor</w>
Prof esa</w>
O L
Ni geria</w>
NY ALO</w>
Med iter
Mar u</w>
Mak er</w>
Ma mor</w>
MAD UONG</w>
M y
M c
Ken neth</w>
Ka wo</w>
K am
Jon abi</w>
Jerusal em’s</w>
Jan et</w>
Inter estingly</w>
I tali
I A</w>
Go yo</w>
Genti le</w>
Fi ji</w>
ER O</w>
Bless ing</w>
A S</w>
8 7</w>
8 2</w>
199 8</w>
199 2</w>
19 th</w>
19 45</w>
ze dek</w>
wrongdo er</w>
wor ried</w>
win dow</w>
we eping</w>
wasu d</w>
was n’t</w>
wal ok</w>
wach oga</w>
wa rem</w>
wa mak</w>
wa dog</w>
w ishes</w>
vin ey
v ity</w>
un a</w>
uli za</w>
u re
u ng’e</w>
u go</w>
tung ni</w>
tri ght</w>
tij a</w>
t res
sub tle</w>
stre ets</w>
st es
st adi
sp an</w>
sk ill</w>
six th</w>
sim u</w>
si tima</w>
shorta ges</w>
shar p</w>
shap e</w>
sex ually</w>
se ction</w>
san amu</w>
sa e</w>
s own</w>
s ounds</w>
rwa kogi</w>
ru de</w>
ringre wa</w>
rememb rance</w>
refres h</w>
reason ableness</w>
re vised</w>
re bu
ra ged</w>
r am
qu isite</w>
puon jogo</w>
prov oked</w>
pl ays</w>
pl at
pl ane</w>
pi ki</w>
ph onogra
peace mak
par oga</w>
par aly
oyi enegi</w>
out lined</w>
ou tright</w>
oti e
or ite</w>
open j</w>
om ul</w>
ok wer
oji we</w>
ogwe l</w>
ofwen yore</w>
odhi ye</w>
od wok
ochi kwa</w>
o jok</w>
o chun
nyi ero</w>
nyathin a</w>
ny ara</w>
not ero</w>
nong’ iyo</w>
no ti
no lendo</w>
no chike</w>
no bedogo</w>
no bedoe</w>
ni wira</w>
ng’ in
nation ality</w>
n ang’ado</w>
mor wako</w>
mon wa</w>
mo ting’ore</w>
mo loko</w>
mi yudo</w>
mi paro</w>
mari wo</w>
mar y</w>
many oso</w>
magnific ent</w>
lo cho
lin ked</w>
la k</w>
l ilo</w>
kon yo
ko thi</w>
king’ s</w>
keto e</w>
keth owa</w>
ke the</w>
kanyakla go</w>
kanyakla gi</w>
kalat as</w>
k um
jach uoyo</w>
j ore</w>
j are</w>
introdu ction</w>
intel lec
individu ally</w>
in tanet</w>
in s
il oso</w>
ik wano</w>
hi p</w>
helpl ess</w>
har der</w>
ha hidi</w>
gwe dhowa</w>
gu ards</w>
grand mother</w>
gombo wa</w>
gi winjore</w>
gi ting’o</w>
gi gombo</w>
gam bling</w>
figura tively</w>
fi erce</w>
far as</w>
f uonde</w>
f lu
exam ines</w>
ex quisite</w>
evalu ate</w>
er gi</w>
er able</w>
enjo ys</w>
eng’ ado</w>
en thr
dwok ogi</w>
dwar e</w>
dri ving</w>
dou ble</w>
dig ni</w>
di mi</w>
deman ding</w>
def ense</w>
de t</w>
de e</w>
d eny</w>
d ated</w>
consci enti
concl usions</w>
con tempor
cli ma
ci l</w>
chi ro</w>
chari ot</w>
chan dowa</w>
cau tion</w>
b ag</w>
awach onu</w>
ati on’s</w>
astro logers</w>
ase puonjora</w>
apuonj ra</w>
appro aches</w>
and onegi</w>
am ple</w>
al mighty</w>
af ford</w>
ach ak</w>
absolu te</w>
ab usive</w>
a ikora</w>
Y ourself</w>
World wide</w>
Tim uru</w>
Tho thne</w>
T om</w>
Su b
Stand ard</w>
Sta dium</w>
Sh ul
S AL
Rus sian</w>
RIS TO</w>
Quebe c</w>
Pla ce</w>
Pat terson</w>
Owad wano</w>
OU T</w>
No wuoyo</w>
No bedo</w>
Ngi mani</w>
N ep
N ational</w>
May udore</w>
Mas hahidi</w>
M ust</w>
M ano
Lu ther</w>
L ow
Ki timo</w>
K RISTO</w>
Jop ainia</w>
Jephth ah’s</w>
Je an</w>
Jat end</w>
JOH N</w>
Immedi ately</w>
I se
Hu uliza</w>
Ha iti</w>
H un
G U
F il</w>
Deli ver
DWO KO</w>
Canaan ites</w>
C op
C aleb</w>
C AN</w>
Bless ed</w>
BI RO</w>
BE DO</w>
B OR
Ap parently</w>
Anti okia</w>
198 8</w>
195 1</w>
18 79</w>
1 23</w>
z one</w>
yu dogo</w>
yu doga</w>
yu ak</w>
wuo thi</w>
who ever</w>
we l</w>
wan ano</w>
wak wong</w>
wach na</w>
wach andore</w>
wa miye</w>
wa manyo</w>
wa mako</w>
v ings</w>
ut tered</w>
un ite</w>
ul u</w>
tru thful</w>
tim ona</w>
ti an</w>
therap y</w>
th y’s</w>
th ene</w>
ter a</w>
tend erness</w>
tem no</w>
t oke</w>
symbo l</w>
success or</w>
sel s</w>
secon dary</w>
scar let</w>
s ke
ruo dhno</w>
ro se</w>
ris h</w>
rin a</w>
richo go</w>
ri di
ridi cul
rene wed</w>
recomm end</w>
reas sured</w>
re build</w>
ra werano</w>
ra cial</w>
r eni</w>
puo dhono</w>
progres sively</w>
pre h
posi tively</w>
pinyruo dhe</w>
pic tured</w>
perc eptive</w>
per mitted</w>
particip ation</w>
par alle
paralle l</w>
pa p</w>
oyu de</w>
ot ero</w>
osi eko</w>
os heth</w>
op og</w>
ony i</w>
ong’ won</w>
ong’ won
ondi kie</w>
on ship</w>
on gima</w>
on d
olo cho</w>
ol ame</w>
oke ta</w>
ok wan</w>
ofu ko</w>
od uok</w>
ochi ero</w>
o yawo</w>
o keth
nop imo</w>
no tego</w>
no limo</w>
no guedho</w>
no gombo</w>
neighbor hood</w>
mur der
mul titude</w>
motiv ation</w>
mose chiwore</w>
mol ded</w>
mo mako</w>
mis lead</w>
lu th</w>
lon ely</w>
lo ck</w>
listen s</w>
lad y</w>
la mogo</w>
l ing’ling</w>
kwa yowa</w>
kuong’ ruok</w>
kon eno</w>
ko temo</w>
ki timo</w>
ket ore</w>
kar wa</w>
ka timo</w>
k ilo</w>
k er
jo yed</w>
jo dongogo</w>
jati jno</w>
j onen
ise yudo</w>
is om</w>
in justices</w>
imp ul
immen se</w>
ili ation</w>
il le</w>
i chop</w>
i chiko</w>
i al</w>
hi b
her itage</w>
hard working</w>
hard ship</w>
hand ling</w>
great ers</w>
gre et</w>
gre edy</w>
grand parents</w>
god d
gis el
gi jiwo</w>
gi duogo</w>
gi chiegni</w>
g on
fwen yogo</w>
fri gh
frequ ent</w>
fig ure</w>
festiv als</w>
fe ast</w>
exam ined</w>
ende gi</w>
en ro
employ er</w>
ell arius</w>
dwar ono</w>
displ ays</w>
dis honest</w>
diagno sed</w>
di tional</w>
demonstr ates</w>
d y
crus h</w>
cou ldn’t</w>
correc tly</w>
conv ent</w>
cont amin
con form</w>
cla mation</w>
cl ing</w>
chwo wo</w>
chu e
chr onic</w>
chiwor ene</w>
chal gi</w>
ch ores</w>
cam ps</w>
c ell</w>
bro ad</w>
ben gi</w>
bac ks</w>
b ungu</w>
b right</w>
b low</w>
b ero</w>
ass isting</w>
ar ity</w>
appro ve</w>
ano e</w>
am eda</w>
ali zing</w>
ak ony</w>
affe cts</w>
ad re</w>
acqu ired</w>
a war
a ir
a e
Y or</w>
Wor king</w>
W ane</w>
Ta ze</w>
T ok
T en</w>
Sal v
S ão</w>
S oko</w>
S et</w>
S cro
S as
S an</w>
Ruo dhe</w>
Res ear
Rel ate</w>
Re as
P os
P es
Nyasach u</w>
Ny inge</w>
Nebuchad nezzar</w>
NGI MANA</w>
N ang’eyo</w>
N A</w>
Mod ern</w>
Me eting</w>
Ma mit</w>
M age</w>
Let ’s</w>
Le v</w>
L ar
K et
K aleb</w>
K I
Jok wath</w>
J ack</w>
J ON
In to</w>
INY ALO</w>
IN G
I rish</w>
I r
Hi gh
He alth</w>
Gom or
GO D
Ful l</w>
Fl ori
F al
Dor is</w>
D inde</w>
Cul tiv
Cho p</w>
C yrus</w>
C ellarius</w>
Babyloni ans</w>
Assy ria</w>
Asa ’s</w>
Any one</w>
And r
ARTIC LE</w>
A par</w>
A mb
8 8</w>
6 ,
2 30</w>
199 6</w>
19 39</w>
14 6</w>
1 27</w>
z stan</w>
y ce</w>
y ango</w>
won a</w>
wash ing</w>
warm th</w>
wari wore</w>
wan gima</w>
wad woko</w>
wa tiyone</w>
wa lam</w>
wa golo</w>
wa gol</w>
wa ges</w>
wa donjo</w>
vo ices</w>
ven ge
venge ance</w>
un like</w>
un circumcised</w>
ulti mately</w>
udi go</w>
ub en</w>
u me</w>
tu wo
tre ating</w>
tog ra
timben i</w>
timben a</w>
ti ed</w>
threat s</w>
thie dho</w>
tay i</w>
sup posed</w>
stu b
stri king</w>
simpli fy</w>
sil ili</w>
sheep like</w>
sh ut</w>
seri ousness</w>
secre tary</w>
se cts</w>
sat anic</w>
s oundness</w>
ro mono</w>
rit i</w>
ri kni</w>
respon ds</w>
represent ative</w>
rejoic ed</w>
regre ts</w>
re ap
re acted</w>
ran ks</w>
ra pi
rapi dly</w>
psal ms</w>
pres ents</w>
preh end</w>
preced ented</w>
pi ge</w>
peri ods</w>
pen ji</w>
p woyo</w>
oyu dowa</w>
owach onegi</w>
ow enwa</w>
over joyed</w>
ound ings</w>
oti mie</w>
oter a</w>
osen g’eyo</w>
ose dak</w>
organi ze</w>
or ogo</w>
opuonj wa</w>
opuonj a</w>
onyis wa</w>
oni ka</w>
ondi ke</w>
on j</w>
ol f</w>
oku yo</w>
ok waye</w>
och ango</w>
o yudore</w>
o makre</w>
o gik</w>
ny ing’no</w>
nor mally</w>
ni ghts</w>
ng as</w>
n da
n ative</w>
n adwaro</w>
mu tual</w>
mowal go</w>
mo yiero</w>
mo mi</w>
mo kadho</w>
mo here</w>
mer it</w>
me e
mat amre</w>
mar ket</w>
manyien ni</w>
mang’ ula</w>
man na</w>
man age</w>
malai kene</w>
ma el</w>
m ers</w>
m bo</w>
lu e</w>
lo jno</w>
lew wa</w>
len dogo</w>
le per</w>
kony isogo</w>
kony isogi</w>
kon g’
ko keto</w>
kno lo
kin dawa</w>
ki ye</w>
ken y</w>
keep ers</w>
keep er</w>
ka wowa</w>
k umo</w>
jou tegi</w>
josi asa</w>
jo mahundu</w>
je cting</w>
iti moe</w>
ish ly</w>
inv esti
inter rup
infer ior</w>
ind us
il ero</w>
id i</w>
i wuo</w>
househol ders</w>
ho mose
hin yogi</w>
h ul</w>
guidel ines</w>
grand father</w>
gra ci
gi tindo</w>
gi tem</w>
gi mi
gi manyo</w>
gi kalo</w>
gi cally</w>
fr ustration</w>
f ro
f ni</w>
f lood</w>
f light</w>
exis ting</w>
et te</w>
entr ance</w>
en ing</w>
en er
emi e</w>
em us</w>
ele ctronic</w>
e able</w>
div isions</w>
distin ct</w>
desir ing</w>
dend gi</w>
deliver ing</w>
de gra
de adly</w>
dal ane</w>
counsel ed</w>
cop ing</w>
contempor aries</w>
conqu ering</w>
conc ept</w>
compla int</w>
comp any
cod emus</w>
co vet
clean ing</w>
class mates</w>
chil o</w>
chan dogi</w>
ch walo</w>
cer e
car ds</w>
bitter ness</w>
bed ni</w>
bab a</w>
b wonjo</w>
b ase</w>
attac ked</w>
ar ita</w>
ap o
al ’s</w>
ak wa
after noon</w>
advanta ges</w>
acc ordingly</w>
a z
a wuoro</w>
Yu d</w>
Y awuo
Wu oru</w>
WACH O</w>
W ic
U r
To ward</w>
T es
T am
Sk und</w>
Sho wing</w>
S har
Re uben</w>
R ud
R atiro</w>
Pl an
Pinyruo dhi</w>
Pi erce</w>
P ot
P i</w>
Nya thi</w>
No tiyo</w>
Ni codemus</w>
Na bedo</w>
Mb aka</w>
L ong</w>
L it</w>
Kyrgy zstan</w>
Kind ness</w>
Ke tho</w>
K inyne</w>
K im</w>
K edo</w>
I ng’eyo</w>
H utter</w>
H usb
Go cho</w>
GOD ’S</w>
Ethiopi an</w>
Eph ra
ES S</w>
E va</w>
E P
D alia</w>
Com fort</w>
B ru
Ama lek</w>
A then
A hi
A gri
A D
7 4</w>
1, 600</w>
y onegi</w>
wuo wino</w>
wuo dh</w>
wuo dgi</w>
wuo deno</w>
wo ka</w>
win ds</w>
wil go</w>
whe el
wel ogo</w>
wase yudo</w>
wanon re</w>
wa ter
wa los</w>
w 16
un precedented</w>
un le
ug we</w>
timor ega</w>
ti tles</w>
ti ally</w>
th se
thse mane</w>
temp ting</w>
surr oundings</w>
st af
staf f</w>
sp ices</w>
sp ace</w>
sol em
sol ely</w>
so mogi</w>
ske p
si ding</w>
sancti fy</w>
s cope</w>
ro wer
ro les</w>
righ tful</w>
reali ties</w>
re members</w>
re jecting</w>
re gi</w>
re duced</w>
ra ces</w>
r itu
prosp erous</w>
prosely tes</w>
promp tly</w>
promo ting</w>
pro gram
pri me</w>
pre y</w>
pra ised</w>
po is
plat form</w>
pain s</w>
ot ayi</w>
osel oko</w>
ose miya</w>
or g
or ders</w>
or amo</w>
op s</w>
ong’ anyo</w>
od u
och alo</w>
obe don
ob won
o wo</w>
o kende</w>
nya p</w>
nowach ono</w>
nod ar</w>
no ya
no manyo</w>
no kendo</w>
no herogo</w>
no bolore</w>
ng’ en
ng’ ar</w>
ner able</w>
mtok ano</w>
mot amore</w>
mony uol
mo yiedhi</w>
mo vement</w>
mo miye</w>
mo bet</w>
min g’
mi xed</w>
mb akano</w>
matin no</w>
material istic</w>
mali cious</w>
mafu ta</w>
maber ni</w>
ma wendo</w>
ma siro</w>
ma piny</w>
li mowa</w>
li mb
li b
legiti mate</w>
lear ner</w>
l ur
ku o</w>
knolo ji</w>
ke thoe</w>
jour nal</w>
jo makare</w>
jo los</w>
jo chir</w>
j um
ist ine</w>
inter ven
insis ted</w>
ing ton</w>
inc ense</w>
in experienced</w>
in comparable</w>
in come</w>
imp aled</w>
imit ators</w>
il oko</w>
il and</w>
iber ia</w>
i winj</w>
hu man
hosti le</w>
home town</w>
hi d</w>
her awa</w>
he ight</w>
ha m</w>
h il
gid ar</w>
gi wuokie</w>
gi wa</w>
gi lend</w>
gi kwedo</w>
gi kelo</w>
gi bet</w>
gar den
g li
g ates</w>
fuon i</w>
flo or</w>
fle eing</w>
ex tending</w>
ex pose</w>
es omo</w>
er go</w>
ent ary</w>
en je</w>
embra ced</w>
el op
el ls</w>
ef ania</w>
duong’ ie</w>
duc ing</w>
do wed</w>
disc ourage</w>
dis eases</w>
differ ently</w>
destru ctive</w>
descend ant</w>
deleg ates</w>
defe at</w>
d ol
d go</w>
cooper ating</w>
convi ctions</w>
contribu tion</w>
consider ate</w>
conf usion</w>
condem n</w>
commit ment</w>
com prehend</w>
cli mate</w>
cl ou
cher ished</w>
che erful</w>
c ured</w>
c up
c odex</w>
bo t
ble mis
bi roga</w>
b ara</w>
at eg
at al
as tic</w>
as se</w>
ar med</w>
ani as</w>
alwor ane</w>
adh ere</w>
abiri yogo</w>
a wuok</w>
Z efania</w>
Z ef</w>
Yan kee</w>
YE AR</w>
Win j</w>
Val ley</w>
Val en
V an
U nyalo</w>
Timo thy’s</w>
Sus an</w>
Su preme</w>
Some thing</w>
S we
S ha
S ad
S E</w>
Prophe cy</w>
Phil istine</w>
P esa</w>
ORI GIN</w>
N one</w>
Mos mos</w>
Messi ah’s</w>
Mem bers</w>
Man asse</w>
MO MIYO</w>
MO A
MOA E</w>
Lu igi</w>
Lev i</w>
LU KE</w>
LU KA</w>
L im
L ess
K wayo</w>
Jos ayans</w>
Jo motho</w>
J ane</w>
I V
Gu ard</w>
Gra du
Gi chiwore</w>
Ge thsemane</w>
G wen</w>
G olo</w>
Flori da</w>
F red</w>
Ex er
E r
E nd
E X
D onjo</w>
D ar
Con vention</w>
Colos sae</w>
Cla u
COUN TRY</w>
CH UN
Benef it</w>
Baru a</w>
B wo</w>
Asa f</w>
As ap
Ans wer</w>
Ang els</w>
An anias</w>
An ania</w>
Al ways</w>
A qu
A ge</w>
9 3</w>
198 7</w>
196 6</w>
1 60</w>
í a</w>
yu gi</w>
win yo</w>
wi e</w>
wal gi</w>
wak en</w>
wa sun
w ra
w ounds</w>
ver sion</w>
ve y</w>
v in</w>
v ana</w>
v an</w>
us hai</w>
ura cy</w>
ud he</w>
u duto</w>
tu ne</w>
t welve</w>
t esting</w>
sus tained</w>
su d</w>
stri ct</w>
stead y</w>
ste p
so w</w>
sing ruogno</w>
simpli fied</w>
sil ence</w>
si emo</w>
sho w
shar es</w>
sh rin
separ ation</w>
secre tly</w>
s ob
s ful</w>
ro ots</w>
rie yogi</w>
ri we</w>
ri der</w>
resurrec tions</w>
resid ent</w>
reluct ant</w>
regar ded</w>
rec overy</w>
re ig
re duce</w>
r is</w>
prophes y</w>
pos t</w>
po p</w>
per mits</w>
par ties</w>
ox y
ote g</w>
ose timonwa</w>
ose ketho</w>
ori wre</w>
open ja</w>
ong’ eye</w>
ones el
onesel f</w>
ol dest</w>
od eko</w>
och amo</w>
o ik</w>
o hel
o elo</w>
noch omo</w>
nob ati
no somo</w>
no med
no luor</w>
no go</w>
ne ed
na weyo</w>
motiv ates</w>
mo th
mo b</w>
mir ror</w>
min imi
mi l</w>
materi als</w>
mar wako</w>
mang’ we</w>
malai kego</w>
ma luwore</w>
ma d</w>
ma d
m us</w>
lwet wa</w>
lo aded</w>
li ma</w>
li ar</w>
leis ure</w>
lar gest</w>
l or</w>
l in</w>
kwe dowa</w>
ki di
keth one</w>
k won
k uro</w>
k oluwo</w>
k illing</w>
justi fied</w>
jus tly</w>
jo higni</w>
jatu wo</w>
jan ek</w>
ja ot</w>
ja miriambo</w>
inti macy</w>
inten tly</w>
inten sely</w>
in stances</w>
i chak</w>
hur led</w>
ho gi</w>
hig nigo</w>
heav ily</w>
hab ’s</w>
gre etings</w>
gradu ated</w>
godd ess</w>
go ods</w>
gir wak</w>
gi wuotho</w>
gener ations</w>
gen ore</w>
gal a
g ang</w>
g alo</w>
forti fied</w>
fellow ship</w>
f ond</w>
f fed</w>
exper ts</w>
exp elled</w>
exc ep
ex pos
es ome</w>
endeav oring</w>
end no</w>
encoun tered</w>
en or
en dures</w>
en ched</w>
elev ated</w>
el ing</w>
dw ok</w>
dre ams</w>
dis obey</w>
deteri or
des ign</w>
declar es</w>
de wi</w>
de we</w>
damag ed</w>
cu tting</w>
cris is</w>
compar ing</w>
company ing</w>
com prehen
chris t</w>
chi wogo</w>
chandruog egi</w>
cas ting</w>
cal f</w>
c ations</w>
break s</w>
bre ath</w>
bor der</w>
bl in
birth day</w>
bidh ruok</w>
be low</w>
b la
auth or</w>
as ing</w>
ar rest</w>
an j
alien ated</w>
ak wongo</w>
acknowled ges</w>
accoun table</w>
ac os</w>
ac companying</w>
a waken</w>
Willi ams</w>
Websa it</w>
Wach ore</w>
W iye</w>
W il
Uni versity</w>
Than k
TI E</w>
T embe</w>
Sy ria</w>
Sa vior</w>
S tri
S ong</w>
R E</w>
Que en
Praet oria</w>
Pot ter</w>
Osiep wa</w>
Ori gin
Of fered</w>
Ny a</w>
Ng’ eny
Nen re</w>
Ne ed</w>
N oneno</w>
N al
N A
Mi ke</w>
MA K
M asi
M abiro</w>
M I</w>
Lo y
Kon yowa</w>
Ki wacho</w>
KO D</w>
K al
Ja chiw</w>
JEHOV AH
JEHOVAH ’S</w>
J or
Is land</w>
H ushai</w>
Gu eth</w>
Fre der
Fal se</w>
Exam ple</w>
El se
ER A</w>
E ver</w>
E fra
Dis tri
Dis ci
D own</w>
D ep
Ch i</w>
Ch eri</w>
Caes ar</w>
CH AN
C as
Bi uru</w>
B ith
B il
August ine</w>
Au thor</w>
Al an</w>
Afri can</w>
Af ter
A dek</w>
20 ,000</w>
198 9</w>
18 70</w>
14 3</w>
1 3
ʹ a</w>
yien egi</w>
wuon dowa</w>
wuo r</w>
wuo dhgi</w>
wat ine</w>
wast e</w>
was h</w>
warit re</w>
warit ore</w>
war a</w>
wany agre</w>
wach wanyore</w>
wach ando</w>
w p
vul nerable</w>
vi er</w>
ves sels</w>
ves sel</w>
ver sions</w>
vac ation</w>
upar ru</w>
up held</w>
uo n</w>
tu ore</w>
tu eyo</w>
ting’ ne</w>
ti ly</w>
the ologi
ter rified</w>
tek ne</w>
te knoloji</w>
t ty</w>
synagogu es</w>
sur ance</w>
sun ami</w>
sub stan
struc ture</w>
ste wards</w>
sp ort</w>
sp ies</w>
sho ck</w>
sei ze</w>
san dogi</w>
sa wo</w>
s an</w>
re w
ra h</w>
ra di
r wok</w>
r ented</w>
puonj ge</w>
pun ished</w>
pro verb</w>
prison er</w>
pres sured</w>
pres sed</w>
preg n
part ners</w>
pa w</w>
p us
owach one</w>
ose konyi</w>
ose kadho</w>
ose ga
ose donjo</w>
ose bedoe</w>
os and</w>
ony agre</w>
om ora</w>
olo ye</w>
oket onwa</w>
ok wed</w>
ogo le</w>
ogand agi</w>
odu to</w>
ob li
o manyo</w>
o idho</w>
nyis ore</w>
nony is
non ano</w>
no sayo</w>
no migi</w>
no kete</w>
no ket</w>
no chayo</w>
ng’en yie</w>
neighbor ing</w>
na um</w>
mok udh</w>
mok elo</w>
mo tiyogo</w>
mo kethore</w>
mo chiw</w>
mis use</w>
mas sive</w>
makend eni</w>
mak wedo</w>
main ly</w>
ma wuotho</w>
ma logo</w>
m ented</w>
lod ging</w>
loc ks</w>
lik es</w>
kwer egi</w>
kwa tiyo</w>
kony go</w>
ko chopo</w>
kit wa</w>
ketr i</w>
ke ’s</w>
k we</w>
justi fy</w>
jour ne
jonyuol u</w>
jong’ ayi</w>
jo madongo</w>
jo kolpota</w>
ji wo
jati chni</w>
ja bedo</w>
j ab
it ta</w>
ise winjo</w>
is i</w>
increas es</w>
im prov
im partial</w>
ignor ance</w>
identi fying</w>
i onge</w>
househol ds</w>
hon ors</w>
h ang
gise puonjore</w>
giri wore</w>
gi penjo</w>
gi kedo</w>
gi gol</w>
gi ch
ga m</w>
fun di</w>
forma l</w>
for sake</w>
fear ful</w>
fe at
f ran
f it
f f
f ate</w>
eye witnesses</w>
excit ement</w>
exc uses</w>
es n’t</w>
er naum</w>
equi p</w>
ent re
ent ang
end wa</w>
employ ed</w>
em peror</w>
ed ar</w>
e ted</w>
dwa rowa</w>
docum ent</w>
divi de</w>
distribu te</w>
dispu tes</w>
dis pleasing</w>
dic tionary</w>
di ris
dh in
desp ised</w>
deri ve</w>
depend ent</w>
deman ds</w>
dal awa</w>
cur se</w>
cre d
conve yed</w>
comm its</w>
colle ction</w>
colle cted</w>
chi wone</w>
chen i</w>
ch na</w>
celebr ate</w>
car ries</w>
cam els</w>
cal cul
bur n</w>
bur n
buil dings</w>
ber g</w>
benef iting</w>
b reas
b old</w>
b and</w>
ay er</w>
appreci atively</w>
appe aled</w>
apo cryphal</w>
apen je</w>
ap parent</w>
any where</w>
am ped</w>
alu f</w>
al oud</w>
adier ano</w>
ad vised</w>
aber no</w>
Wis dom</w>
Wi ya</w>
Wal ter</w>
Wa timo</w>
W estern</w>
Than k</w>
Tab or</w>
T oru</w>
T or
Su d</w>
Sin go</w>
Sim ply</w>
Scro lls</w>
SO ME</w>
Ruo dhgi</w>
Rev e
RU MI</w>
Pu bli
Og and
O wetewa</w>
O die
NY A
Mi dian</w>
Me th
Margar et</w>
MA N</w>
M umb
M ochwere</w>
Lu ke’s</w>
LI FE</w>
L D</w>
Kar ang’o</w>
Ka zi</w>
K um</w>
K amoro</w>
Joh ann
Jad uong’no</w>
Jachwech gi</w>
Ja winj</w>
IV F</w>
H ung
H ai
Fu ture</w>
Fran c
F ear</w>
Ed ith</w>
CHI WO</w>
C ourage</w>
Bapti sm</w>
BOR N</w>
B ud
Ase bedo</w>
Asap h</w>
Ar chaeolo
AT E</w>
AB OUT</w>
A z
A poya</w>
2, 500</w>
197 8</w>
196 2</w>
195 4</w>
19 42</w>
19 20</w>
10 7</w>
1, 500</w>
1 1
wor ding</w>
wo man’s</w>
we wa</w>
wat amre</w>
wang’ eye</w>
wal er</w>
w 17
vi g
us tin</w>
ur t</w>
uo th</w>
uo g</w>
under go</w>
un kind</w>
un certain</w>
ul ers</w>
ud u</w>
twis ted</w>
tri ps</w>
trans form</w>
tra ge
tho thwa</w>
th irst</w>
tar get</w>
tac tfully</w>
t us</w>
system s</w>
sus tenance</w>
sub jected</w>
su it</w>
stre am</w>
ste aling</w>
st yle</w>
st ressed</w>
st al
spir it’s</w>
sol ved</w>
slaugh ter</w>
san ctu
sanctu ary</w>
s wal
rus h</w>
rou te</w>
ro wing</w>
rich oni</w>
ri wogi</w>
res ogi</w>
regre tted</w>
refle ction</w>
reconc iliation</w>
rec ord
record ings</w>
reas sure</w>
ra warno</w>
r are</w>
qu es</w>
prof essor</w>
prin t</w>
poli tics</w>
pok gi</w>
poin ting</w>
ple aded</w>
pi er
pen no</w>
p sy
oten ge</w>
ot re
osen iang</w>
osel oso</w>
opuonj gi</w>
oppres sive</w>
oper ate</w>
op tions</w>
op her</w>
onyis go</w>
ondi kgi</w>
olu ore</w>
ol amo</w>
oke cho</w>
ok wako</w>
ok s</w>
oh ul</w>
og eng</w>
ochi kogi</w>
observ ance</w>
obed negi</w>
o ywago</w>
o winjre</w>
nyimin ene</w>
nyi ma</w>
ny ikwa</w>
nokel one</w>
nob ie</w>
no winj</w>
no moro</w>
no here</w>
no hango</w>
no chiw</w>
no chak
ng’eny gi</w>
new born</w>
n es
n ena</w>
n ap
mus ter</w>
mot or
mose yudo</w>
mol wor
mok orgo</w>
mob ile</w>
mo v
minis tering</w>
mi wachoe</w>
mi puonjo</w>
men ting</w>
me tri
marach ar</w>
man osingi</w>
maler no</w>
mala ikano</w>
maduong’ ni</w>
ma dh</w>
ma chopo</w>
ma bedo</w>
m ust
m ous</w>
m inyiso</w>
lwe tene</w>
lu wre</w>
loc ally</w>
lo fty</w>
l al
ku ny
ko makore</w>
kit ap</w>
kany iso</w>
k t
jowasi kgi</w>
jor otenge</w>
jo mabeyo</w>
jam wandu</w>
ja gach</w>
ja chia</w>
it or</w>
it er</w>
it e
it ayo</w>
ist an</w>
ish ments</w>
ise ga
intellec tual</w>
inf ancy</w>
inc ite</w>
in yo</w>
in tent</w>
in significant</w>
ili m</w>
ik wayo</w>
ib ari</w>
hor se
hor ns</w>
ho st</w>
h ul
h itta</w>
gor of
gik wongo</w>
gi wuoro</w>
gi los</w>
gen i</w>
g ems</w>
g ely</w>
g ang’o</w>
foreig ner</w>
for fe
flouris h</w>
flo cks</w>
fl ir
fill ing</w>
fil m</w>
fi can
fican tly</w>
father ly</w>
fascin ating</w>
fal me</w>
fair ly</w>
expen ses</w>
exer ts</w>
ess ing</w>
er onegi</w>
er ie</w>
equi pment</w>
en mity</w>
en i
e u</w>
dro ve</w>
domes tic</w>
do ws</w>
do esn’t</w>
distin ction</w>
dispu te</w>
discipl ined</w>
di eri</w>
demonstra tion</w>
de arly</w>
damag ing</w>
da unting</w>
d re</w>
cor ulers</w>
consu me</w>
concentr ate</w>
commit ting</w>
co de</w>
cler gy
cil la</w>
chuo dho</w>
cho chni</w>
chi egnini</w>
chi do</w>
chi ch</w>
char ged</w>
ch ore</w>
ch es
bri efly</w>
book let</w>
bol re</w>
bl am
bitter ly</w>
ber ne</w>
bas ically</w>
b ang’
awar eness</w>
at amora</w>
ase timo</w>
argum ents</w>
ar rog
ar d
ar ch
apen jo</w>
ani ah</w>
ancest ors</w>
ana kel</w>
amb ono</w>
al endo</w>
ah iny
affli ction</w>
ade kgi</w>
ad dic
achi ev
ab led</w>
a ol</w>
a ka
a gie</w>
Wh er
Wan on</w>
UR U</w>
U falme</w>
Tra ining</w>
Tim ore</w>
T uwo</w>
Syri an</w>
Sud denly</w>
Some one</w>
Sen nach
S yl
Rejo ice</w>
R am
QUES TIONS</w>
Publi cations</w>
Pris cilla</w>
Pra ise</w>
Po int</w>
Pes hitta</w>
Pak istan</w>
Ones mus</w>
O therwise</w>
O P
Ny adi
No wachonegi</w>
N early</w>
Mis ango</w>
Min or</w>
Mil ton</w>
Mi ght</w>
Ma j
Ma chiegnini</w>
M uolo</w>
M ountains</w>
M otelo</w>
M ig
Lou ise</w>
Lo yo</w>
Li ves</w>
Li ve</w>
LE E</w>
L at
Ka th
K wa
K ong</w>
K odok</w>
K od
Juli an</w>
Jud a
Jan diko</w>
J od
J an</w>
J ah</w>
H ouse</w>
H ong</w>
H ol
Gradu ally</w>
Gi ft</w>
G reg
Fin land</w>
F ew</w>
F ROM</w>
Efra im</w>
EN D</w>
Di otre
De metri
D aher</w>
D NA</w>
Col umb
Cen tral</w>
CH RIS
C al
Bar bara</w>
Aqu ila</w>
Appreci ate</w>
Apol lo</w>
Andre a</w>
An glo</w>
Aha z</w>
Ag bo
A U
A GE</w>
197 7</w>
1 22</w>
1 21</w>
zabur ino</w>
yi eng</w>
y er</w>
y ego</w>
y earn</w>
we pt</w>
we ather</w>
wat ang’go</w>
wasu mb</w>
war ri
wany agore</w>
wan ie</w>
wa ves</w>
wa ver
wa ro
wa limo</w>
wa kogi</w>
wa jiw</w>
w ings</w>
vir tue</w>
villa ges</w>
v indication</w>
v eg
veg et
ur i</w>
up bringing</w>
un due</w>
un ch</w>
umb ers</w>
um bi</w>
tur ing</w>
tro ops</w>
transgres sions</w>
tra it</w>
tin na</w>
tin ess</w>
tim nwa</w>
tim negi</w>
thung’ o</w>
thi eves</w>
ther lands</w>
the ory</w>
th no</w>
tes y</w>
tari o</w>
st er</w>
some time</w>
solem n</w>
so o
skill fully</w>
sho cked</w>
see ks</w>
sch ed
sched ul
rwa kowa</w>
riw ruogno</w>
rie koni</w>
res owa</w>
reques ted</w>
regar ds</w>
reg is
rec eptive</w>
re n</w>
re aches</w>
ran gach</w>
r ar
qui etly</w>
pursu ed</w>
prote cting</w>
progres sive</w>
pro secu
pri estly</w>
pres ti
poss essed</w>
port ant</w>
ph ar’s</w>
par owa</w>
pach u</w>
pac ked</w>
p lu
over coming</w>
otu e</w>
otimor eno</w>
otim ono</w>
osel okore</w>
os si
os ir</w>
os ing</w>
or ogi</w>
oppres sed</w>
op odho</w>
op idho</w>
ong’ ol</w>
ong’ i</w>
om b</w>
oke ti</w>
ohel ni</w>
ogwel wa</w>
ofis wa</w>
och ore</w>
och ando</w>
obe tie</w>
o tem
o ore</w>
o kethre</w>
nyis e
ny uo
ny ange</w>
nu tri
nowach ona</w>
nop woyo</w>
nochi wono</w>
no wuondo</w>
no puonja</w>
no dewo</w>
ni gh
nd rome</w>
nation al
nam edo</w>
mwadaki eni</w>
muo ch</w>
movi e</w>
mot wo</w>
mose miyo</w>
mok wako</w>
mo tion</w>
mo ol</w>
mil k</w>
mi ech
med ruok</w>
mbes eni</w>
mamo kogo</w>
machi ko</w>
ma hero</w>
m walando</w>
lwe ti</w>
low er</w>
lic it</w>
li o</w>
lab or
la ugh
l or
l i</w>
kwa yogi</w>
kwa lo</w>
kuong’ ore</w>
kuo do</w>
ku te</w>
kol ai</w>
ko bet</w>
kan ono</w>
ka ok</w>
k ni
jati yo</w>
jati j</w>
ja goro</w>
itu de</w>
inj ured</w>
indus try</w>
indi gen
indigen ous</w>
in still</w>
in dig
il ando</w>
i many</w>
i hinyo</w>
i donj</w>
hum bled</w>
her i</w>
her agi</w>
hear tache</w>
h an
gri eve</w>
gover n
giny isa</w>
gin enore</w>
gig egi</w>
gi ringo</w>
gi lem</w>
gi chomo</w>
gi chiemo</w>
gen ono</w>
g urore</w>
g un
g et
g es
fl ying</w>
fi ci
far mer</w>
f ut</w>
estima ted</w>
es al
entr enched</w>
endeav ored</w>
en rich
emphasi zes</w>
el u
e um</w>
e h</w>
duo g</w>
du ka</w>
doub tless</w>
don g
disfellowshipp ing</w>
dis own</w>
dis gus
di r
dev our</w>
desper ately</w>
desig n
deser t</w>
dere ba</w>
den ied</w>
deman ded</w>
defe ated</w>
deb ts</w>
cultiv ated</w>
cru cial</w>
crimin als</w>
cri ticism</w>
corrup ted</w>
cor p
conscienti ous</w>
con stitu
clos est</w>
ck y</w>
chandruog ewa</w>
ch ar</w>
cel i</w>
car pen
cal mly</w>
c tion
bon ds</w>
blam eless</w>
b ak
ass isted</w>
as tray</w>
an ese</w>
ad res</w>
ad ag</w>
ach a</w>
aby ss</w>
abund antly</w>
a wiye</w>
a tha</w>
Wal l
WH O</w>
WA R
W I</w>
V alu
Ty ndal
Thank fully</w>
TI MO
TE ACH
T uoche</w>
T ang</w>
Swe den</w>
Steph anie</w>
Spe ak</w>
Sh are</w>
Sel f</w>
Salv ador</w>
S wahili</w>
S onia</w>
Refle ct</w>
RUO TH</w>
R osa</w>
R apar
Pu erto</w>
Poti phar’s</w>
Piny ni</w>
Pat ri
P ap
On tario</w>
ONYUO LEE</w>
O ut
O li
Ni kolai</w>
New ton</w>
Ne therlands</w>
Na winjo</w>
N umbers</w>
Mo gik</w>
Mar ía</w>
Mad warore</w>
Ma onge</w>
Ma kende</w>
M ir
Lev ite</w>
Let t</w>
Ket uru</w>
Kap od</w>
Jus tice</w>
Jud gment</w>
Jok anyo</w>
John ny</w>
Jo odwa</w>
Jap anese</w>
Jan ny</w>
In dividu
Husb ands</w>
Ga il</w>
G ru
Freder ick</w>
F ar</w>
Em peror</w>
E mil
E le
D un
D A</w>
Con tr
Chi eng’no</w>
C ze
B ero
Ara celi</w>
Apol los</w>
Andr é</w>
Agbo ola</w>
After ward</w>
Aar on’s</w>
AN G</w>
A I
A D</w>
8 ,
3 0,000</w>
2 50</w>
198 4</w>
198 2</w>
197 1</w>
14 1</w>
’ ve</w>
’ ll</w>
ü r
yo ked</w>
ya w</w>
y ware</w>
wuo che</w>
wu oru</w>
wu ora</w>
wrongdo ers</w>
win d
wey onu</w>
wea kened</w>
we go</w>
wat ony</w>
wan tie</w>
wal ks</w>
wach wany
wach ogo</w>
wa dew</w>
w ilo</w>
ve hi
ustr a</w>
us eless</w>
und a</w>
un worthy</w>
un fol
tur ally</w>
tri gg
tres passes</w>
transl ate</w>
trans formation</w>
tra pped</w>
ton de</w>
ti enge</w>
ti elo</w>
thro wing</w>
the dh</w>
ter r
tend om’s</w>
ten se</w>
tem ruok</w>
te g</w>
tal ent</w>
ta un
t gi</w>
t ap
sus pi
sun ag
sunag oke</w>
str ateg
st ab
so oner</w>
so le</w>
sig nal</w>
shi ft</w>
sh rew
sel dom</w>
se at</w>
se aling</w>
se aled</w>
s ence</w>
ruo dhgi</w>
ro oted</w>
richo u</w>
rest ing</w>
res i</w>
remar ks</w>
reli eved</w>
ref using</w>
recomm end
reci pi
re fin
ra bora</w>
purch ase</w>
pur ity</w>
pro clamation</w>
pres enting</w>
pre human</w>
pra ises</w>
plac ing</w>
persu asi
pe ar
patriar chs</w>
pass eng
par ental</w>
p ays</w>
oweten a</w>
otim onwa</w>
ot anda</w>
ose yie</w>
ose konyogi</w>
ose chier</w>
ose biro</w>
ose batisi</w>
open ji</w>
ony gi</w>
ony ag</w>
on wago</w>
on indo</w>
om oni</w>
olo wa</w>
olo ch</w>
ol ing</w>
ok il</w>
oji wa</w>
og urore</w>
og un
ofis no</w>
ochi ere</w>
occur r
occ ult</w>
oba dhono</w>
o walgi</w>
o moko</w>
o hulo</w>
o chok
o cho</w>
nyi ge</w>
nol uonge</w>
nok ok</w>
no gwedho</w>
no elo</w>
nen oga</w>
mwandu wa</w>
must ard</w>
mu nyalo</w>
moun tain
mose tiyo</w>
mose konyo</w>
mose keto</w>
mondi kie</w>
mon s</w>
moment ous</w>
mol ding</w>
mokwon gogo</w>
moch ando</w>
mo k</w>
miri mbe</w>
me at</w>
mb om</w>
materi alized</w>
mat ch</w>
mal ame</w>
mak elonwa</w>
ma y
ma the
m pt</w>
lur b</w>
lu woni</w>
lu wogo</w>
lo e</w>
lis ts</w>
li fel
lar gely</w>
lad der</w>
la in</w>
kwa luwo</w>
ko biro</w>
kinde wa</w>
kin g’eyo</w>
keto wa</w>
kes no</w>
ke ys</w>
ke tie</w>
kar ad
kal e</w>
jopuonj rego</w>
jonyuol go</w>
jo tich
jo idh</w>
jar itno</w>
jal i</w>
ja winjo</w>
j asi
j ar</w>
ir wako</w>
inyag ri</w>
iny is
intro duce</w>
impres sive</w>
imp lied</w>
im mu
illi e</w>
il do
i y
i winj
i miyogi</w>
i konyo</w>
i her</w>
i her
hor n</w>
hon orable</w>
homose xu
ho ye</w>
he mbe</w>
he eding</w>
gom b</w>
go logi</w>
gli mp
gir keni</w>
giny uolo</w>
gini dagie</w>
gin ie</w>
gi timogo</w>
gi lam</w>
gi hinyo</w>
gi dong</w>
gi dew</w>
gi bolore</w>
gen e
gen a</w>
g ency</w>
foot steps</w>
festiv al</w>
f ame</w>
expe cting</w>
exc ited</w>
ex tends</w>
ev ildo
esal onika</w>
eny iso</w>
en raged</w>
emp lo
el go</w>
el ded</w>
eigh th</w>
educ ational</w>
e ous</w>
e j</w>
e aten</w>
dwach wa</w>
donj one</w>
do or
distra ct</w>
dis posal</w>
dis crimin
dinde go</w>
di dek</w>
destro ying</w>
desc ended</w>
decre ed</w>
decre e</w>
d ing’eny</w>
d ating</w>
d abed</w>
cup bearer</w>
cru el
cr ying</w>
conclud es</w>
con tin
con front</w>
comp ly</w>
commu nities</w>
commemor ate</w>
clu b</w>
chi we</w>
chenr oni</w>
chen rogo</w>
c ket</w>
bound aries</w>
bo as
bicy cle</w>
ban ned</w>
b ia</w>
b esides</w>
b ad
auto matically</w>
ati ma</w>
as ton
appro ves</w>
appe ti
ami ties</w>
ah er
agre ements</w>
affe ctions</w>
advan ces</w>
ad ding</w>
accep ts</w>
acc uracy</w>
ab sence</w>
a kendo</w>
Z eph
WH Y</w>
V ul
V E
U zz
U se
Th esalonika</w>
T ud
T ing</w>
T ER</w>
Str ong</w>
St ory</w>
Sk und
She ba</w>
She b
Sal vation</w>
Sac rifi
S etting</w>
Re g
Re al</w>
Pre cious</w>
Ponti o</w>
Pog ruok</w>
Pers onal</w>
P un
Obe di
ON E</w>
O miyowa</w>
Ny ak</w>
Ni gi</w>
NYI M</w>
NI TIE</w>
N odhi</w>
N ob
N im
Mer ib
Mat ut</w>
Mark ’s</w>
Mar ach
Mag dal
MB ER</w>
MA MOKO</w>
Low ell</w>
L ustra</w>
K eyo</w>
Jo ge</w>
Itali an</w>
HE B</w>
Gi timo</w>
Gi miwuoro</w>
Fin ehas</w>
Fel isa</w>
F our</w>
F ine</w>
F ern</w>
Exer c
Ephra im</w>
ER E</w>
E pa
E l</w>
Dha kono</w>
Da ily</w>
Co ast</w>
Chris tendom’s</w>
Chi ef</w>
Chang es</w>
Cer tain</w>
Car los</w>
C an
Ba th
B lurb</w>
Assyri ans</w>
Ar tem
Abra m</w>
5 0
4 ,
198 1</w>
19 65</w>
19 33</w>
19 25</w>
1 28</w>
’ clock</w>
é ph
z on</w>
z ens</w>
ywa yowa</w>
you thful</w>
yier ono</w>
yien gini</w>
wer ogi</w>
wen wa</w>
wapuonj orego</w>
wak re</w>
wa were</w>
wa sin</w>
w olo</w>
ves tock</w>
v olume</w>
up holding</w>
uo la
undu ly</w>
un thin
unthin kable</w>
un noticed</w>
un for
u tewa</w>
u ri
u pro
u ne</w>
u her
u alize</w>
tru ck</w>
tro l</w>
tra kt
tor n</w>
ting’ wa</w>
tin ne</w>
ti rel
ti mogi</w>
ti eng’
threat ening</w>
tek nwa</w>
te kie</w>
tam re</w>
ta go</w>
sy ndrome</w>
swe pt</w>
surviv ors</w>
suf fers</w>
stri fe</w>
st up
st ain</w>
sp oil</w>
sob ering</w>
sland er
sin gi</w>
sho p</w>
sho cking</w>
s wa
s alu
ruog ni</w>
riw ruokwa</w>
rever ence</w>
res umed</w>
res sful</w>
res ort</w>
repres enting</w>
repe at</w>
renoun ce</w>
reli eve</w>
reason ably</w>
reali zing</w>
reali zation</w>
re vision</w>
rat ego</w>
ranyis igo</w>
rang’ i</w>
ran ean</w>
ra ises</w>
ra ins</w>
r s</w>
r ently</w>
question ing</w>
produ cts</w>
pres sing</w>
potenti ally</w>
plan ets</w>
phonogra ph</w>
par ted</w>
pap h
p ush</w>
p re</w>
oyi ere</w>
oya w</w>
ow it</w>
ow ene</w>
over see</w>
oter gi</w>
osing ore</w>
osen enore</w>
os ara</w>
ori an</w>
ores wa</w>
ores gi</w>
or um</w>
or row</w>
or iti</w>
or enwa</w>
op o
oni que</w>
olo chi</w>
ol ose</w>
ol end
okel one</w>
ok uong’
og ene</w>
od agie</w>
ochu n</w>
och wal
obst acle</w>
ob viously</w>
o ’clock</w>
o hinyore</w>
o gigo</w>
nyimin ena</w>
nyar wa</w>
not ony</w>
nosing ore</w>
nosen g’ado</w>
nosen eno</w>
nose wacho</w>
nochu eyowa</w>
no ywak</w>
no we</w>
no tu
no tie
no locho</w>
no doko</w>
no body</w>
no ble</w>
ngi mano</w>
newspap ers</w>
ndi ri</w>
mos okore</w>
mor tal</w>
modes tly</w>
moch omo</w>
mo sel
mo puonjore</w>
mo chung’ne</w>
mis ta
min ing</w>
min g’eyo</w>
mig ep
miech gi</w>
mi miyo</w>
mem ori
meas ured</w>
mat on</w>
mast ers</w>
mar ch</w>
mal ando</w>
main tenance</w>
machi en</w>
ma ua</w>
ma puonjo</w>
ma konyogi</w>
ma gin</w>
lu eny</w>
low ed</w>
look ers</w>
lok ruogego</w>
lo chi</w>
lin k</w>
ligh tly</w>
li vestock</w>
li est</w>
len doe</w>
l ombo</w>
l an</w>
kwon de</w>
kwa chung</w>
ko bedo</w>
ki ch</w>
karad ali</w>
kany alore</w>
ka mb
k welo</w>
k us
k uru</w>
jopuonj rewa</w>
jo wer</w>
jo kuo
jo adier</w>
ji wogo</w>
jak uo</w>
it edly</w>
issu ed</w>
isol ation</w>
is lands</w>
ir gi</w>
iny isowa</w>
instru ctors</w>
in ly</w>
in ev
in ego</w>
in cid
in ces</w>
imp ly</w>
immu ne</w>
im partiality</w>
im el
i wach</w>
i manyo</w>
i ch
hon ini</w>
hiny re</w>
hin ehas</w>
gwe thgo</w>
gwe dhi</w>
guar ded</w>
gu edhe</w>
grand son</w>
gr ass</w>
govern mental</w>
git ine</w>
gin tie</w>
gin a</w>
gi yu
gi vers</w>
gi timore</w>
gi tayo</w>
gi miwuoro</w>
gi es</w>
gi b
gi ant</w>
gase dewa</w>
ga i</w>
g ossi
fu gi
fu el</w>
fores ha
fores een</w>
for s
fill s</w>
f ing
expan sion</w>
exc e
ev a</w>
este em</w>
establ ishment</w>
es ia</w>
ent ers</w>
en u</w>
em bo
e de</w>
e cho</w>
don joe</w>
don ji</w>
domin ate</w>
do u</w>
do g
dist resses</w>
dif fers</w>
dh ore</w>
dere za</w>
der ’s</w>
d akgo</w>
cu rious</w>
cro ssed</w>
cor ner</w>
contempl ating</w>
constru cted</w>
consol ation</w>
consis tently</w>
compos ite</w>
compas s</w>
col ored</w>
clo the</w>
clima x</w>
claim ing</w>
ci gar
chiemb wa</w>
chi egi</w>
cham pi
cha ir</w>
ch uma</w>
cau tious</w>
cal amities</w>
ca ve</w>
c tedly</w>
c rites</w>
c lim
burn t</w>
burden some</w>
bur st</w>
bisho p</w>
bin ding</w>
bili onde</w>
be hold</w>
be g</w>
bati s</w>
b esi
atten tive</w>
ap a
apa thy</w>
ano int</w>
ang ore</w>
ak sident</w>
ah um</w>
agul ini</w>
adier i</w>
ad or
ach am</w>
a weya</w>
Zeph aniah</w>
Wall kill</w>
W ich</w>
Vul gate</w>
Vic t
Un less</w>
U ri
U g
Tyndal e</w>
Th or
TH O</w>
T reas
St éph
Sennach erib</w>
Se e
Sar ah’s</w>
San ta</w>
S ay
Ri pot</w>
Res pon
Res pect</w>
Refer ring</w>
Re memb
R wako</w>
R os
R an
Ponti us</w>
P hinehas</w>
P ER
OU R</w>
Ny ag
No jiwo</w>
Ninev eh</w>
Nebuka dereza</w>
Ndi kogo</w>
Na z
N onyisogi</w>
N eigh
Mor ris</w>
Mod esty</w>
Mil an</w>
Matthe w’s</w>
Ma x
MAN Y</w>
M onique</w>
M onego</w>
Lo yal</w>
Lo cho</w>
Kom unist</w>
K weth</w>
K uno</w>
K in
K ech</w>
Juda ism</w>
Jo mage</w>
Jal i</w>
JO MA</w>
J ag
I’ ll</w>
Is lam</w>
Ini tially</w>
I ng’ado</w>
H ei
H ag</w>
Gomor rah</w>
Gi ven</w>
G ineno</w>
G etting</w>
Fin ding</w>
Fel low</w>
F ac
F U
E uni
E paph
E bed</w>
Di f
D om
D U
CHI EN
CHI EL</w>
C edar</w>
Be ar</w>
B est</w>
B UR
Ap pro
Ama le
Ak ula</w>
Ab imel
A ris
9 ,
2 40</w>
196 3</w>
19 37</w>
19 35</w>
19 34</w>
19 29</w>
1 24</w>
ó n</w>
z o</w>
ya wore</w>
y ona</w>
y les</w>
y aye</w>
y andi</w>
wor ries</w>
wi den</w>
we yor
we yogo</w>
wapar re</w>
wa ketho</w>
wa kalo</w>
wa kal</w>
valu an</w>
un yo</w>
un reasonable</w>
un baptized</w>
ulti mate</w>
ugh es</w>
u nyal</w>
u k</w>
tur o</w>
tur i</w>
tu gono</w>
tri um
treat s</w>
transl ating</w>
tra ps</w>
toler ate</w>
tin ende</w>
ti s</w>
threat en</w>
ther ine</w>
th west</w>
th uru</w>
tern al</w>
ter ror</w>
ten s</w>
tek regi</w>
tac tics</w>
ta do</w>
symboli ze</w>
sur g
sun set</w>
sugg estion</w>
substan ti
sub sequ
subsequ ent</w>
stimul ate</w>
st ability</w>
sing ogo</w>
sig anano</w>
shrew d</w>
shel ter</w>
sha me
separ ating</w>
sel ess</w>
seas ons</w>
se al</w>
sch em
s now</w>
s ly</w>
s cour
ro aring</w>
ring ra</w>
rie kono</w>
ri ambo</w>
revel ation</w>
respon ses</w>
remin ding</w>
regi ons</w>
re proof</w>
re pa
re moving</w>
ra s</w>
ra geng</w>
r ono</w>
r eno</w>
r as
pro mpt</w>
prefer ences</w>
pla gued</w>
pinyruo dhno</w>
pilgri m</w>
pi ti
person alities</w>
persecu te</w>
peacemak ers</w>
pe t</w>
paraly zed</w>
oweten i</w>
otim one</w>
ose tieko</w>
ose kethore</w>
ose bed</w>
ori eyo</w>
ori embo</w>
organiz ational</w>
op pon
op idh</w>
onyis re</w>
om onjo</w>
ol f
okel ona</w>
oka wa</w>
oji wogi</w>
oj wang’o</w>
oj wang</w>
ogwel e</w>
odon gi</w>
ob sc
ob are</w>
o ywak</w>
o tego</w>
o mogi</w>
o limo</w>
o jahigni</w>
o he
o dic
o c
nyar gi</w>
nyam era</w>
nony uol
nomi u</w>
no yu
no wuo
no ting</w>
no make</w>
no lony</w>
no fwenyore</w>
ng’in jo</w>
ng’ i</w>
nen ogo</w>
na dhi</w>
n ou
mwa dwaro</w>
mo wir</w>
mo somo</w>
mo migi</w>
mo donjo</w>
mit tedly</w>
mil lenni
mi you</w>
messeng er</w>
menti oning</w>
medic ine</w>
may be</w>
man d
man ager</w>
mal es</w>
mabe yogo</w>
ma yo</w>
ma mawa</w>
ma luwe</w>
ma don
ma dewo</w>
m waneno</w>
m udwaro</w>
lue ta</w>
lu xu
lib amba</w>
las ted</w>
lar u</w>
lam one</w>
l l
kony isa</w>
kon yorego</w>
ko tegno</w>
ko bo
kil uwo</w>
kidi enje</w>
ki wacho</w>
ki paro</w>
ki keto</w>
ken o</w>
ken ing</w>
ka paro</w>
jo tugo</w>
jo moti</w>
jad hoho</w>
j ony</w>
j ome
j ay
it ine</w>
ist ent</w>
iri yo</w>
interven ed</w>
interpre ted</w>
institu ted</w>
imp elled</w>
im pe
im mer
il endo</w>
ik wongo</w>
i chung</w>
hun g</w>
hol iness</w>
ho tel</w>
harmoni ze</w>
har sh
har bor</w>
h ori</w>
gri p</w>
gre eted</w>
gra y</w>
go p</w>
go at</w>
git ang</w>
ging’ ad</w>
gin ano</w>
gil ok</w>
gil o</w>
gi wach</w>
gi rem</w>
gi konye</w>
gi kendorego</w>
gar i</w>
ga vana</w>
g osp
g ony</w>
forma t</w>
foret ells</w>
for tune</w>
flow ers</w>
fear lessly</w>
f rank</w>
exer ted</w>
ever al</w>
escap ed</w>
es ego</w>
enti ty</w>
en gin
embarrass ed</w>
dre ad</w>
div inely</w>
distribu tion</w>
dis rupt</w>
dis regard</w>
dis obeyed</w>
dis appointments</w>
di ction</w>
dho u</w>
dho ggi</w>
dhi e</w>
deser ving</w>
des ol
dend i</w>
def iled</w>
de fine</w>
d ni</w>
cti veness</w>
critici ze</w>
crip turally</w>
cour ty
counsel s</w>
coun tr
cop y
congreg ation’s</w>
con tend</w>
con fined</w>
compla ined</w>
comb at</w>
col lap
clou ds</w>
clear er</w>
class es</w>
chun gi</w>
chier gi</w>
chang el</w>
chan ts</w>
chal ne</w>
cere mon
celebra tions</w>
blo ck</w>
betr ayal</w>
bedon i</w>
be wa</w>
be gi</w>
attribu tes</w>
as no</w>
announ cement</w>
angu ish</w>
ana el</w>
an jogo</w>
an ed</w>
alu w</w>
al tern
ah inyo</w>
add ressing</w>
acqu iring</w>
ach ment</w>
accus ations</w>
ab ound</w>
a manyo</w>
a ket</w>
Zechari ah’s</w>
Yah udigo</w>
YI E</w>
Wor ds</w>
Will ingly</w>
WA S</w>
V ol
V ir
Under standing</w>
Tu valuan</w>
Thin king</w>
TH AT</w>
T ell</w>
T ari
T ac
Sul ano</w>
Su do</w>
Stu dies</w>
Sheb na</w>
She m</w>
Sat anni</w>
Sa fe
S everal</w>
S cripturally</w>
S ak
Ri ana</w>
Re turn</w>
RI L</w>
Que en</w>
QUES TION</w>
Pu bl
Pray ers</w>
Pa inia</w>
P reaching</w>
ONG O</w>
Nyadi dek</w>
Ny im
Ny i
Nor way</w>
Nor thern</w>
No hero</w>
Ni tiere</w>
Nath anael</w>
N odwaro</w>
N ini</w>
N eg
Mediter ranean</w>
Masi che</w>
Mar ie</w>
Man kind</w>
Ma ma</w>
MA G
MA CHON</w>
M ic
M ed</w>
Lo s</w>
Le ads</w>
LO KO</w>
L L</w>
Ko machielo</w>
Kind eno</w>
Ke th
K ochakore</w>
Jeho i
Jas on</w>
Ho ch</w>
He kalu</w>
HI B</w>
H ughes</w>
G ise
G ing’eyo</w>
Filis ti</w>
F weny
F es
Euni ce</w>
Elis ha
Dwar uru</w>
Del ph
D ustin</w>
D al
Chu ech</w>
Chil d</w>
Chal len
CH AK
C D</w>
Bath sheba</w>
B as
Associ ation</w>
Ara bu</w>
Ar ne</w>
Al low</w>
Al bert</w>
AP RIL</w>
A my</w>
3, 500</w>
3 0
1 65</w>
ô te</w>
yot negi</w>
yot na</w>
wuodh ene</w>
wuo dwa</w>
wrong s</w>
websa itwa</w>
wasi kgi</w>
wany isogi</w>
wang’ u</w>
wan tiere</w>
wad wok</w>
wa yier</w>
wa miyogi</w>
wa le
wa ki</w>
wa geng</w>
wa fweny</w>
vo ire</w>
vir tually</w>
vict orious</w>
val id
un thankful</w>
un likely</w>
un happy</w>
u yud</w>
tuwo che</w>
treas ured</w>
transgres sion</w>
tra gram
tragram maton</w>
tra ditional</w>
tra de</w>
tou ches</w>
tom orrow</w>
timor ego</w>
tim ee</w>
ti ke</w>
ti endegi</w>
ti chni</w>
thur wa</w>
thuon d</w>
thri ve</w>
thi ef</w>
ten ess</w>
tac tful</w>
t ol
supp lied</w>
sul agi</w>
sub mitted</w>
su i
stro ke</w>
strateg y</w>
stan tine</w>
sp ot
skill ful</w>
sing ore</w>
sib uoche</w>
si de
short com
shortcom ings</w>
set tling</w>
se y</w>
school ing</w>
scen ario</w>
s w
s sing</w>
s our
s lowly</w>
ru ining</w>
ru ined</w>
ro s</w>
rin o</w>
ri osity</w>
ri ding</w>
rest oring</w>
recomm ends</w>
rec oun
read er</w>
re vil
re len
re inst
qu een</w>
presumptuo us</w>
preser vation</w>
pregn ancy</w>
pre valent</w>
pog ogi</w>
pi chego</w>
pendi x</w>
pen jowa</w>
passeng ers</w>
pas ta</w>
parti ally</w>
par ona</w>
par all
pal ace</w>
p im
p ake</w>
over looked</w>
ot weye</w>
ot ese</w>
osel oyo</w>
ose konye</w>
os ego</w>
ori o</w>
or wake</w>
ong’ one</w>
ong’ go</w>
ong’ eyowa</w>
on woyo</w>
on on
on j
on en</w>
om oro</w>
ol pota</w>
oke tie</w>
oka we</w>
of un
ochi wonwa</w>
och wegi</w>
och ok</w>
o winj
o hand</w>
o ber</w>
nya wadu</w>
nur sing</w>
noy we</w>
nosing onegi</w>
nop ong’o</w>
nong’ anjo</w>
nol or</w>
nochi wonwa</w>
noch ulo</w>
no timone</w>
no sud</w>
no ser
no pi
no mora</w>
no los</w>
no dich</w>
no chopi</w>
ni ce</w>
ng’ owo</w>
ng’ eyogo</w>
negle cted</w>
n ja
mosen g’
morit ore</w>
mog er</w>
mo wachone</w>
mo wach</w>
mo tenore</w>
mo singo</w>
mo pi
mo maki</w>
mo ki
mo kawo</w>
mo guedhi</w>
mise puonjori</w>
mis treated</w>
mis taken</w>
mi timoe</w>
mer chants</w>
memor able</w>
med itated</w>
me wo</w>
mbe ko</w>
marach wich</w>
manuscrip t</w>
mad iny</w>
lu wa</w>
locho e</w>
loc ations</w>
lo vely</w>
lo aves</w>
listen er</w>
le wini</w>
le pe</w>
law less</w>
lam p</w>
l ord</w>
kwe dogi</w>
kwa timo</w>
kop o</w>
kon yowago</w>
kod ong</w>
ki doni</w>
ki ah</w>
ke mbe</w>
k were</w>
k ok</w>
k le</w>
k ites</w>
k inyne</w>
jo wasik</w>
jo u</w>
jo lwen
jo cham</w>
ji wore</w>
japuonj ne</w>
iri wo</w>
insis t</w>
inf li
inf ant</w>
in ’s</w>
in sti
in appropriate</w>
immi grants</w>
imit ated</w>
im proving</w>
il es</w>
ide al</w>
i an</w>
hypo crites</w>
ho hono</w>
hi ding</w>
har lot</w>
h ori
gwel ogi</w>
gras ping</w>
gr i</w>
gover n</w>
gorof a</w>
gin tiere</w>
gin on</w>
gin in
gi y
gi timono</w>
gi tiek</w>
gi loyo</w>
gi herore</w>
gi chalo</w>
gi bare</w>
g op
g ame</w>
fu yo</w>
fu ti
fr ame</w>
fle x
fla g</w>
fi a</w>
ferv ently</w>
fer ence</w>
feat ured</w>
fe wer</w>
fe t
f ano</w>
explan ations</w>
exper t</w>
exhaus ted</w>
excep tional</w>
ex termin
es hip</w>
er ore</w>
end era</w>
en rich</w>
en ligh
emer gency</w>
embr yos</w>
em power</w>
d’ I
d’I voire</w>
dwon da</w>
don g’
d ok
covet ousness</w>
cour ts</w>
contribu ting</w>
conten ts</w>
conf essed</w>
conf ess</w>
comple ment</w>
comp elled</w>
com peti
co ordin
cl as
ck en</w>
circumc ision</w>
chue chne</w>
chu er</w>
chr on
cho wa</w>
characteri zed</w>
celebr ated</w>
car s</w>
cap tured</w>
bul u</w>
bug egi</w>
bed ene</w>
b unge</w>
b ud
b od
b endera</w>
att achment</w>
ase ball</w>
as oya</w>
ar gue</w>
apenj ora</w>
ap aka</w>
any ag
anni versary</w>
anni hil
and gi</w>
an cing</w>
am bi</w>
al together</w>
al ok</w>
agul u</w>
agu es</w>
agre es</w>
af any
adoles c
ad el
ad ar</w>
accompl ishments</w>
accompl ishment</w>
ac ular</w>
a ena</w>
Winj uru</w>
Wic ked</w>
W end
V ati
Tra in</w>
Ti jno</w>
TI CH</w>
T as
Ste fano</w>
See king</w>
Samarit ans</w>
Sam u
S la
S hi
Ro le</w>
Ri ghts</w>
Rapar no</w>
R IT
R ES
Qu i
Pre par
Par agra
P ad
O nyiso</w>
O dhi</w>
Nyithin d</w>
Nyim ine</w>
Ng eso</w>
Nep al</w>
Neigh bor</w>
N ahero</w>
N ONYUOLEE</w>
Mil ambo</w>
Me di
Mari cho</w>
Mar gi</w>
Mak onyo</w>
Maj ibu</w>
Ma p</w>
M am
Loy alty</w>
Lou is</w>
Lor raine</w>
L AND</w>
Ken ya</w>
K ON
Johann es</w>
Jo mamoko</w>
Jan abino</w>
Jal no</w>
Jab in</w>
Ja war</w>
JON ENO</w>
JO MOKO</w>
J r</w>
J im
In tegrity</w>
In stitute</w>
Ho ho</w>
Hezeki ah’s</w>
H ind
Geor gina</w>
G lo
Fri ends</w>
Fla vi
Fe der
FA ITH</w>
F ro
F abi
EN T
Di v
De dic
Con stantine</w>
Cla ire</w>
Chr is</w>
Cho ose</w>
Chi ko</w>
Ch wech</w>
CHIEN G</w>
C ôte</w>
C ro
Buil ding</w>
Br uno</w>
Baru pe</w>
Bapti st</w>
An xi
Amale kites</w>
Am mon</w>
AN O</w>
A thene</w>
A sen
5 37</w>
2 3
198 5</w>
198 3</w>
197 9</w>
19 38</w>
14 8</w>
1 34</w>
ür gen</w>
zar ia</w>
yo cha</w>
yi end</w>
wuon egi</w>
wuon dwa</w>
work mates</w>
wor rying</w>
wis s</w>
wher e
wheel chair</w>
wete go</w>
wech enego</w>
wati mie</w>
watch fulness</w>
wat ches</w>
wat amore</w>
wasen ono</w>
wase tiyo</w>
war gi</w>
wan indo</w>
wad hi
wach onu</w>
wach ok
wa kwa
wa dong</w>
w rest
w ound</w>
w no</w>
w ite</w>
w ished</w>
vi al</w>
ura ble</w>
under tone</w>
under going</w>
un willing</w>
un itedly</w>
un expe
unexpe ctedly</w>
udi a</w>
tu wore</w>
trumpe t</w>
trage dies</w>
to gi</w>
ting’ gi</w>
timor enegi</w>
ti er
ti ege</w>
thi c</w>
than ked</w>
terr or
ten th</w>
ten i</w>
tek rewa</w>
tech ni
te eth</w>
t wo
surg ery</w>
sur passes</w>
sub mitting</w>
stup id</w>
strugg les</w>
stra igh
stir red</w>
ste pped</w>
spe ed</w>
sp er
sp are</w>
sle ep
sig n
si ded</w>
shame ful</w>
sha ken</w>
sha kable</w>
sh out</w>
sen sed</w>
self ishly</w>
se ats</w>
scor es</w>
san de</w>
s lu
s land</w>
run s</w>
rower ego</w>
ro mb</w>
ro ll</w>
ro e</w>
ri fa</w>
ri acos</w>
restra ined</w>
re el</w>
re built</w>
re building</w>
ra p
ra char</w>
quo ting</w>
question able</w>
puonj wa</w>
puonj oru</w>
puo yo</w>
pul ated</w>
publ ish</w>
pu ffed</w>
pronoun ced</w>
prog ressing</w>
prof esa</w>
preser ving</w>
prepar es</w>
pr ays</w>
po ol</w>
pla inly</w>
pla gues</w>
physi cian</w>
pho togra
pers istent</w>
pers ist</w>
pay ment</w>
p wo
p it</w>
oya wore</w>
oxy gen</w>
owe ye</w>
owe ya</w>
ow uoro</w>
ow enegi</w>
oth onwa</w>
oser umo</w>
ose miyi</w>
ose jiwo</w>
os iro</w>
org ans</w>
or ono</w>
or eni</w>
or ches
op ogo</w>
ony ago</w>
ond amo</w>
om er</w>
ok wano</w>
ok rifa</w>
ofun j</w>
off en
od oko</w>
ochi we</w>
ochan ore</w>
observ ers</w>
obli ged</w>
o wuoyoe</w>
o wuoth</w>
o hand
nyi e
nyag ori</w>
nor es
nop adre</w>
non woyo</w>
nol war</w>
nol uon
nol andore</w>
nog welo</w>
nochi kogi</w>
noch amo</w>
no miyi</w>
ni kod</w>
ng’at ni</w>
ner most</w>
ndal owa</w>
nak onyi</w>
na mic</w>
myst ery</w>
mwase puonjore</w>
mwa romogo</w>
mwa keto</w>
mur dered</w>
mu d</w>
moy ang</w>
moti eg</w>
moth ono</w>
mor ga</w>
mo hingo</w>
mis umb
mis engni</w>
min ent</w>
min a</w>
mi winjo</w>
messeng ers</w>
mer cies</w>
masin dno</w>
mar ks</w>
manif est
man eno</w>
ma ye</w>
ma u
ma romre</w>
ma locho</w>
lu min
lig ek</w>
li ons</w>
li be
li a</w>
leg acy</w>
lat est</w>
kwan no</w>
kus ayo</w>
kun d</w>
kon wa</w>
ko weyo</w>
kno cked</w>
kit epe
keth ono</w>
ke chne</w>
kal uno</w>
ka timore</w>
k wer</w>
k ir
k arito</w>
k alu
jos unga</w>
jonen ona</w>
jo tend
jo higini</w>
jat endgi</w>
jal and</w>
j re</w>
isi ve</w>
is ely</w>
is el
ir am</w>
inv alu
invalu able</w>
institu tions</w>
ing’ iyo</w>
ing’ ad</w>
indefin itely</w>
in nermost</w>
in ity</w>
in fir
in e’s</w>
improv ement</w>
im ple
im pl
i puonjo
i miyowa</w>
i jiwowa</w>
i dol</w>
i chiw</w>
human ity</w>
hosti lity</w>
ho yogi</w>
ho r</w>
her owago</w>
gweng’ wa</w>
gwe dhogi</w>
guar ding</w>
grud ge</w>
gomb ono</w>
git ony</w>
giri w</w>
ging’ iyo</w>
gi ol</w>
gi makre</w>
gi keth</w>
gi chiko</w>
gi chano</w>
g uogi</w>
g re</w>
g as</w>
fun ctions</w>
fugi tive</w>
fo ods</w>
fashi oned</w>
fail ings</w>
f ting</w>
f ly</w>
f its</w>
f ishing</w>
expand ed</w>
even ings</w>
establ ishing</w>
es sion</w>
equi valent</w>
ensla vement</w>
enor mous</w>
enab ling</w>
emb gi</w>
effe ctiveness</w>
ear ing</w>
e mogi</w>
e c
dy namic</w>
do gs</w>
do bedo</w>
div ision</w>
dis respect</w>
dis hear
diris a</w>
din no</w>
dimin ish</w>
dhi uru</w>
dete ct</w>
dep ended</w>
deep ens</w>
deci ding</w>
de i
d ino</w>
d ay’s</w>
cos tly</w>
communic ating</w>
colle agues</w>
co oking</w>
cl uded</w>
cir cul
chwany i</w>
chul ni</w>
chu le</w>
che ck
chal wa</w>
cas ual</w>
can cel
c apti
capti ves</w>
bu ora</w>
bl os
batt les</w>
batis gi</w>
b woye</w>
b oun
b ou
b lue</w>
b aro</w>
ay ers</w>
attra ct</w>
assig n</w>
assa ult</w>
as ha</w>
appeti te</w>
any ono</w>
anti christ</w>
ani el</w>
amoun ts</w>
ambi tion</w>
am bu
al ties</w>
ajuo ke</w>
ah ere</w>
agu ay</w>
aggres sive</w>
afany ayo</w>
adop tion</w>
adi a</w>
ad voc
ad ne</w>
acknowled ging</w>
accus ation</w>
ab ara</w>
a winjoga</w>
a winj
a mid</w>
Zede kiah</w>
Y afanyayo</w>
WEN Y</w>
W elo</w>
W ays</w>
Ver se</w>
To ñ
Th row</w>
Tal k</w>
TH O
T ogo</w>
T ag
Stud ying</w>
Skund no</w>
Sci enti
S wiss</w>
S vet
S ure</w>
S and</w>
Rob er
Resear ch</w>
Rec ei
Rabsha ke</w>
R wak
Queen sland</w>
Pro ve</w>
Paragra ph</w>
Par aguay</w>
PUON J</w>
P reach</w>
P U
Ol ga</w>
O p
O K
Ny ako</w>
Ni go</w>
Ng’ won
Nath aniel</w>
N omiyo</w>
N ofwenyo</w>
Mor uru</w>
Mor mon</w>
Mo wal</w>
Mis sion
Miri ma</w>
Med itate</w>
M ak</w>
Lis tra</w>
Lak tar</w>
Ky riacos</w>
Kinde go</w>
Ke cho</w>
K uro</w>
K ONY
Ju an</w>
Jop uonj</w>
Jol up</w>
Jod olo</w>
Jim my</w>
J ürgen</w>
J AN
Ish mael</w>
Im portant</w>
I winjo</w>
I we</w>
I d
I ch</w>
I bed</w>
Hung ary</w>
H osp
H it
H U
Gre eks</w>
Gra ve</w>
Gased no</w>
Ga maliel</w>
G inyiso</w>
For et
Fo od</w>
Fer n
Fabi an</w>
Evid ence</w>
Else beth</w>
E F
De cl
Da than</w>
D ala</w>
D V
D S</w>
Creat or’s</w>
Coun cil</w>
Col or
C ris
Buil d</w>
B re
B ER</w>
B ED</w>
Athen s</w>
Amb ayo</w>
Am ora</w>
Ab iram</w>
AR Y</w>
ANS WER</w>
A zaria</w>
A men</w>
A DI
16 th</w>
1 38</w>
1 29</w>
. 5</w>
z reel</w>
ywa gore</w>
yi eno</w>
y e
y aro</w>
y ana</w>
x ation</w>
wuon de</w>
wuo thoe</w>
wor ego</w>
won ders</w>
wo od
with drew</w>
weng ene</w>
wel i</w>
we yore</w>
wasun ge</w>
wang’ ogi</w>
wach amo</w>
wa rowa</w>
wa bolre</w>
w16 .0
w ou
w iro</w>
w iny
w estern</w>
ver si
v ous</w>
understand ings</w>
un pleasant</w>
un named</w>
un justly</w>
un controlled</w>
un born</w>
um es</w>
ul uor</w>
ud ing</w>
u wuo</w>
u ti</w>
u ine</w>
u bs</w>
u bedo</w>
travel ers</w>
trans mitted</w>
tra f
tra ck</w>
tom bs</w>
tog a</w>
ti ble</w>
testi fy</w>
test able</w>
tab anakel</w>
t weyo</w>
t sunami</w>
t ame</w>
sui cide</w>
succ umb</w>
strong hold</w>
stri p</w>
stra w</w>
stadi um</w>
speak ers</w>
spe cul
sour i</w>
sok ini</w>
smal ler</w>
si onal</w>
show y</w>
she et</w>
sh rine</w>
se ’s</w>
sc ru
sad dened</w>
sa ints</w>
s kin
ro ving</w>
ri vers</w>
ri val</w>
ri eye</w>
restri cted</w>
restra int</w>
res olu
rel ating</w>
rein force</w>
regul ations</w>
re gained</w>
re fined</w>
r y
r us</w>
prov ince</w>
pres ently</w>
prepar ations</w>
portr ayed</w>
pol lu
ple a</w>
pill ars</w>
pi gno</w>
pi cked</w>
persever ance</w>
pas tor</w>
par onegi</w>
oy ombo</w>
owuon d</w>
ow uondo</w>
out line</w>
ou ter</w>
ou l</w>
otimor eni</w>
otim nu</w>
ot es</w>
ot as</w>
osen ess</w>
ose koro</w>
ose kayo</w>
origin ate</w>
ori eye</w>
openj ore</w>
op idhe</w>
ong’ ur</w>
on ene</w>
om en</w>
ol or</w>
oket gi</w>
ok ombe</w>
ogwel a</w>
ogun dhoe</w>
og eng’o</w>
off end</w>
ochwal wa</w>
ochu er</w>
ocho ch</w>
ob taining</w>
o x</w>
o winje</w>
o time</w>
o ora</w>
o loki</w>
nyim gi</w>
nyal oni</w>
nya dhi</w>
notimor eno</w>
nosing one</w>
nony al</w>
nochu e</w>
no table</w>
no j
no hoyo</w>
no chandore</w>
nigh t
ni fer</w>
ng’a wa</w>
ng’ anj
ne g</w>
n un
n ino</w>
myst eri
mwa herogo</w>
mowinj orene</w>
mose dak</w>
mose bedoe</w>
mor ality</w>
mo chiel</w>
min es</w>
mib ia</w>
mi yogo</w>
mi i</w>
meas uring</w>
masi chego</w>
man sl
man ia</w>
mak el
mag ni
mach wok</w>
mach on
mach ine</w>
ma yowa</w>
ma weyo</w>
ma tiyone</w>
lo ose</w>
lo ga</w>
lo ch
lin ks</w>
lif ting</w>
lic ated</w>
libe mb
li m</w>
li ance</w>
lear ns</w>
le go</w>
lar ia</w>
lam uru</w>
l wand
l uo
l aying</w>
l aro</w>
[...]
