. 120669
, 111579
ne 69114
e 68426
ma 67633
gi 48539
ni 48316
mar 34611
: 30122
’ 29458
? 23464
kendo 22087
Jehova 21096
Nyasaye 20043
kaka 19969
“ 19326
kuom 19085
” 19045
ka 18671
mondo 18618
en 18570
ok 18233
- 15574
mag 14554
kamano 11785
to 11454
) 11122
( 11016
Yesu 10983
kata 10508
nyalo 10099
duto 10044
bedo 9788
— 9304
gik 9256
ahinya 9087
moro 8742
Muma 8713
ji 8608
kod 8413
piny 8243
mano 7902
​ 7874
‘ 7854
weche 7586
Kata 7548
moko 7442
gima 7370
timo 7324
kinde 7191
kama 7133
bende 6806
joma 6763
maber 6693
mana 6570
nikech 6160
1 6116
ng’ato 6093
wach 6057
Ne 6056
biro 6044
gin 6020
yo 5802
; 5802
wi 5579
wacho 5501
Jo 5466
dhi 5332
E 5297
mang’eny 5172
Jokristo 5057
nyaka 4956
paro 4930
Kuom 4866
koda 4781
nyiso 4767
miyo 4665
tiyo 4626
niya 4530
onego 4412
ranyisi 4322
dhano 4242
Ka 3964
ngima 3944
ang’o 3863
Ang’o 3839
2 3809
Be 3602
! 3534
achiel 3519
wan 3494
nigi 3470
kanyakla 3401
Paulo 3332
En 3303
go 3246
yie 3245
chuny 3240
adier 3192
manie 3156
momiyo 3095
wanyalo 3091
obedo 3084
sama 3077
jomoko 3072
To 3064
3 3062
maler 3053
ng’at 3019
nade 3016
ng’eyo 2926
Mano 2913
obed 2913
moloyo 2891
dwarore 2881
dwaro 2866
mor 2852
nowacho 2849
neno 2835
yudo 2783
puonj 2782
maduong 2773
nitie 2757
jogo 2673
higa 2670
nyime 2658
thuolo 2653
lendo 2632
ane 2623
4 2622
a 2571
mane 2560
5 2539
Kristo 2519
kik 2479
6 2423
lamo 2418
mamoko 2367
tij 2347
Ere 2332
15 2321
konyo 2296
konyowa 2262
mi 2247
pod 2231
ema 2229
ber 2213
inyalo 2194
wuoyo 2188
polo 2173
onge 2170
makare 2165
12 2148
Som 2146
maok 2134
kane 2128
Israel 2111
gadier 2104
mage 2098
gi@@ 2097
kaachiel 2092
chuth 2084
luwo 2072
amora 2071
11 2043
roho 2033
an 2027
Omiyo 2019
in 2017
8 2009
7 2008
motegno 1977
10 1976
richo 1945
9 1928
hera 1927
Satan 1924
koro 1915
tich 1908
Joneno 1899
chiwo 1897
matek 1891
jo 1880
adiera 1874
bang 1854
duong 1842
oganda 1838
odhi 1824
gimoro 1811
miluongo 1804
winjo 1789
yore 1785
mare 1772
ariyo 1765
owete 1764
14 1759
nono 1758
13 1743
mokwongo 1725
—⁠ 1721
kode 1715
tim 1687
kido 1683
Wach 1678
matin 1676
Nikech 1668
teko 1654
17 1652
chieng 1648
kare 1647
okang 1647
kende 1643
mabeyo 1641
mopogore 1630
no@@ 1627
bed 1612
tho 1609
kinda 1583
Bang 1571
16 1564
geno 1563
ndalo 1550
Daudi 1523
opogore 1514
machielo 1511
Kane 1507
notimo 1490
kar 1489
18 1482
Gin 1450
b 1449
nomiyo 1444
dho 1442
kend 1437
winjruok 1436
Sama 1429
madier 1426
sani 1423
timbe 1419
higini 1417
nonyiso 1408
i@@ 1400
dak 1384
Ruoth 1384
manyalo 1368
wabed 1364
matut 1345
wa@@ 1344
pok 1331
omiyo 1327
machiegni 1325
wachno 1324
keto 1317
higni 1317
Zab 1316
ketho 1306
chopo 1303
Mondo 1298
kelo 1294
yiero 1293
manyien 1287
owuon 1285
20 1277
timore 1273
chunywa 1268
mabiro 1265
be 1249
Ndiko 1244
ot 1238
kae 1234
maricho 1223
19 1216
omi 1209
Kaka 1200
marach 1198
otim 1197
seche 1196
chunye 1193
kuwe 1189
Rumi 1186
obiro 1184
medo 1181
gimomiyo 1178
mowinjore 1172
nondiko 1165
luor 1165
mathoth 1163
bang’e 1163
ibiro 1161
rieko 1160
jotich 1154
Petro 1138
gombo 1137
kind 1128
nigo 1125
Pinyruoth 1112
kuomgi 1111
penjo 1109
machon 1102
bwo 1101
nying 1099
tiende 1092
ose@@ 1092
chike 1088
ei 1088
mangima 1087
• 1087
Ok 1085
chenro 1084
wang 1081
Weche 1078
pile 1077
watim 1077
Mana 1076
ong’eyo 1075
weyo 1074
rito 1071
21 1070
nie 1061
Musa 1060
22 1056
giko 1047
O@@ 1044
chandruok 1044
kodgi 1042
chunygi 1039
24 1037
kuonde 1037
madongo 1036
dwoko 1034
wabiro 1032
man 1031
/ 1031
:⁠ 1024
kuome 1020
gigo 1017
chik 1012
Johana 1012
kokalo 1012
kanyachiel 1011
chal 1011
sula 1008
nyal 1007
mo@@ 1002
oyie 994
] 988
[ 987
Yahudi 974
nyithindo 973
tiend 973
loch 969
Kinde 968
osebedo 962
ite 957
ma@@ 955
wa 955
Kar 952
kawo 948
tije 945
kaluwore 942
Gima 942
Zaburi 941
lweny 935
Jakristo 931
mamor 927
migawo 927
somo 925
Ayub 921
bura 919
mokalo 918
dhok 916
manyiso 913
adek 913
kapo 899
monego 897
Ji 896
chalo 896
23 895
ginyalo 893
owinjore 888
makende 888
puonjo 886
N@@ 885
kit 884
chon 881
lwedo 880
eka 880
otimo 879
kindegi 877
Wanyalo 866
buge 863
nochako 862
puonjore 854
mowal 850
yudore 849
jiwo 847
lando 844
ndiko 838
ohero 837
Ibrahim 835
ng’wono 833
kony 831
watimo 829
noyudo 829
wadhi 823
nenore 822
Nge 816
mich 815
dhako 813
Bende 810
25 805
din 804
gidhi 804
machalo 802
yor 802
wechego 798
chir 798
nimar 795
Nitie 792
wuon 791
pinje 790
Pinyruodh 786
puonjruok 785
kamago 784
jal 780
Onge 778
alwora 777
kiawa 773
Kendo 772
Mathayo 772
Tich 771
wuok 766
ngimawa 763
siem 763
ng’a 762
ngimane 762
kanyo 756
chokruoge 756
otho 756
Nyalo 750
Bedo 744
lokruok 744
temo 743
ringruok 741
lit 739
Josef 737
pesa 735
mago 735
pek 734
Kapo 734
28 730
chiemo 728
miriambo 726
mi@@ 726
nobedo 723
chandruoge 721
margi 721
mapiyo 720
nyimine 720
manyo 719
* 711
mayot 708
joge 708
owacho 707
jaote 707
jomamoko 703
mwandu 700
gibed 698
nong’eyo 696
30 695
Luka 694
kapok 691
Kik 690
jodongo 682
momedore 681
Jerusalem 681
Adam 679
konyi 678
ler 676
pi 674
bug 674
otimore 672
odiechieng 672
loko 671
K@@ 671
joot 671
siko 669
Gik 666
gitimo 663
ere 663
riwruok 662
tek 659
chiegni 657
Joma 655
tieko 654
nochiwo 653
i 652
wang’e 652
me 647
u@@ 643
pinyni 639
jo@@ 638
u 636
27 634
noketo 631
Bang’e 629
lero 628
Donge 624
ting 621
madwarore 621
mos 618
chunya 617
nyathi 616
erokamano 616
onyalo 615
osiep 615
chwo 614
Jakobo 613
Nyaka 612
I@@ 612
dongruok 611
oyudo 609
one 605
rowere 603
Par 603
oko 602
jonyuol 602
wabedo 599
A@@ 599
gweth 598
Chik 596
31 596
tem 592
giwegi 592
29 590
26 588
yot 586
dala 585
Hibrania 585
ng’ama 584
donjo 584
chunyi 583
Rapar 583
wachni 580
Timo 578
jopuonjrene 577
a@@ 577
wang’eyo 575
hero 574
o@@ 574
M@@ 574
miyowa 572
ruoth 571
ratiro 570
dichwo 570
Timotheo 569
ka@@ 569
Kae 569
Chakruok 568
nyim 565
motelo 563
Inyalo 563
Ee 562
idhi 561
chako 560
bi 560
k@@ 559
rach 559
Moko 558
Isa 555
Noa 555
nyithindgi 554
mwanyalo 554
mayudore 553
jopuonjre 552
masira 551
misango 550
chier 550
Wuon 550
ngimagi 549
malo 548
mariek 547
rwako 546
loso 543
chiko 541
odak 541
32 540
33 539
Piny 539
chokruok 539
notimore 538
wawegi 538
chien 537
gero 535
wiye 534
Jomoko 531
noneno 531
ayanga 530
Jaote 530
Onego 529
Mesia 527
matindo 527
mon 527
konyogi 527
ko@@ 526
golo 525
Owacho 524
An 523
kabe 522
notiyo 522
owadwa 520
Bethel 519
Achiel 519
Owadwa 519
nyinge 515
kindeno 514
iye 514
fwenyo 513
painia 511
kwan 510
Tim 510
ng’ado 510
dwe 509
maonge 509
mogik 508
locho 508
We 507
buk 505
gie 505
osiepe 503
chiege 503
kwayo 502
wayudo 502
Wuok 501
migepe 499
rawera 496
goyo 495
Kaluwore 495
tiyogo 495
pachwa 494
adhi 494
taon 493
parruok 492
oneno 492
Chak 491
romo 490
rombe 490
Daniel 489
oriwo 488
tayo 487
mochwere 487
onyiso 486
Wan 484
sa 484
tembe 479
Isaiah 479
ang’ata 477
ir 477
Misri 477
moriwo 475
kedo 475
oti 474
Mokwongo 471
Fweny 471
ogendini 470
tong 469
Ng’ato 465
nyisowa 464
ochako 464
un 463
jaduong 462
Ngeche 460
Korintho 459
luoro 458
loyo 456
jotichne 456
kuomwa 455
ong’e 454
no 454
Yo 452
ngang 452
wanon 452
mapek 451
apar 450
podi 450
dine 449
gibiro 448
ang’wen 445
minyalo 444
oyud 444
kwedo 442
wadwaro 441
mogundho 439
n@@ 437
34 437
ore 437
wane 436
moa 436
mamiyo 436
we 435
marwa 435
Math 435
Jogo 433
Hawa 428
lemo 426
skul 425
nobiro 423
mager 422
nokoro 422
miwuoro 422
pache 421
nowuoyo 421
tuwo 421
jolendo 417
kowacho 416
Maduong 414
nodak 414
singo 414
hekalu 412
kuno 412
Wuode 411
Ja 411
riwo 411
ngimana 410
itimo 409
thoth 408
Amerka 408
ki@@ 408
malit 407
ochopo 407
sirkal 406
uru 406
Ng’at 404
joode 404
Mopogore 404
ogo 404
Wuonwa 404
jolupne 403
Suleman 403
juma 402
Kor 402
mach 400
malach 400
nokonyo 400
dinde 399
Bura 398
jiwowa 397
No@@ 397
nodhi 397
waneno 396
40 395
37 394
wuoro 392
kamoro 392
lony 392
malong’o 391
Grik 391
nyis 389
di@@ 389
mabor 388
obi 388
ochung 388
wanyal 387
dongo 387
Nenore 386
ng’eny 386
A 384
New 384
tara 383
nohero 382
iluongo 382
oting’o 381
ano 380
chwore 380
kotiyo 379
an@@ 379
▪ 378
ga 378
Hera 377
gibedo 376
anyalo 376
oweyo 376
mose@@ 375
ich 375
gitiyo 375
mako 375
kindego 374
ndalogi 374
ja@@ 373
janabi 373
Seche 372
re 372
nojiwo 372
sand 371
wuotho 369
oketo 369
mang’won 369
kindgi 368
koso 368
Paro 368
Samuel 367
nose@@ 367
waduto 366
nokawo 366
kodwa 366
Joh 366
od 365
manono 364
Jachien 364
osemiyo 363
Saulo 363
mari 363
malaike 362
rawar 361
motudore 361
iwuon 360
gitim 358
Nowacho 358
oa 358
samoro 357
ngimani 357
mohero 356
35 356
Chieng 355
bolruok 353
terruok 353
mapile 352
Joote 352
otiyo 351
chung 351
nyak 348
Ranyisi 348
wamor 348
ono 347
nyalore 347
modak 346
oikore 345
mosekalo 344
donge 343
nochopo 342
ging’eyo 342
dibed 341
nyaminwa 341
tiyone 340
mirima 339
jolweny 339
le 338
oket 338
kindwa 338
jodong 338
gueth 338
gidwaro 338
ok@@ 337
pachgi 336
jahigni 336
ibed 336
Kamano 334
sudo 333
odwaro 333
Lawi 332
singruok 332
G@@ 331
pogo 331
mbaka 331
nonro 330
Adier 330
Romo 329
watiyo 329
nobed 329
jopainia 328
MAR 328
bedogo 327
mowuok 326
abiriyo 325
chop 325
welo 325
wetene 324
paragraf 324
joote 324
Wuod 323
kweth 322
sulani 321
bedoe 321
nano 320
maluwo 320
jatich 319
waluw 319
Ndalowa 318
chakre 317
puonjowa 317
wetewa 317
WENDE 315
W@@ 315
Bed 315
Ngima 314
ego 313
nowinjo 313
wayud 313
dok 313
wapar 313
giyudo 313
gineno 311
owinjo 311
d@@ 310
Roho 310
mawacho 310
Kwan 309
iyud 309
molony 308
jarit 307
ng’iyo 307
chi 307
D@@ 306
korka 306
Lamo 306
abich 305
– 304
kuyo 304
gige 304
Wuoro 304
Janeno 303
Mariko 302
barua 302
jaode 301
zaburi 300
tijwa 299
ofis 299
onyis 299
Juda 298
gino 298
The 298
Sani 297
owuoyo 296
al@@ 296
mawuok 295
mak 293
twak 293
onegi 292
jotend 292
Jal 292
giwacho 292
mamuol 292
Ohinga 291
In 290
jahigini 290
min 290
moting’o 289
Efeso 288
nyithindi 288
oro 288
kodi 288
na@@ 288
Jarito 287
noyie 287
ineno 286
ochuno 286
wahero 286
wadak 285
mogen 285
og@@ 284
noweyo 283
giduto 282
magi 282
Owete 282
gikone 281
udi 281
Injili 281
koni 281
ywaruok 280
miye 280
geng’o 279
masani 279
en@@ 279
kendgi 279
Hib 279
kum 278
Puonj 277
okony 277
madho 277
dwach 277
nyiseche 277
omiye 277
kodhi 276
T@@ 276
na 275
ondik 275
kor 275
nonego 274
konye 274
tin 273
tindo 273
malaika 273
m@@ 273
owetewa 272
bet 271
nindruok 269
Duto 269
tijno 269
morem 268
okonywa 268
hinyo 268
ng’atno 268
L@@ 267
Ng’eyo 266
ogi 266
ITE 265
nyasi 265
Koro 265
sie 265
luwore 264
Ng’a 264
ti 264
nindo 264
jela 264
nomedo 264
nyawadgi 264
wechegi 264
godo 264
kindewagi 263
Chuny 263
U@@ 263
koth 263
b@@ 263
manok 263
kech 263
achako 263
Od 262
chiwruok 262
osetimo 262
ni@@ 262
Dwarore 262
on@@ 261
Pet 261
ie 261
Tiyo 260
tuoche 260
ngero 260
hoch 260
diher 260
ohala 259
waparo 258
mogwaro 258
wati 257
of 256
koa 256
nofwenyo 255
ruodhi 255
beyo 255
piyo 254
Jeremia 254
batiso 254
kachiel 253
Kokalo 253
Thoth 253
wanyiso 253
winjruokwa 252
nyithind 252
tego 252
miyogi 251
Samoro 250
negi 250
wich 250
e@@ 249
ondiko 249
auchiel 249
Gi@@ 249
wuode 248
38 248
nyuol 248
lowo 248
chakruok 247
Sara 247
ochiw 247
omed 246
mitimo 246
itim 246
tuech 246
aneno 246
chiemb 246
oga 245
kowuok 245
par 245
dwache 244
Fwe 243
pinyno 243
waluwo 242
Sam 242
Mariam 241
joodgi 241
chikene 241
ol@@ 241
wer 241
1914 240
lwet 240
eno 240
machuok 240
B@@ 239
Gikone 239
o 238
opong 238
oni 238
ochiwo 238
nyago 238
Ma 237
pach 237
te 236
dweche 236
waket 236
Isaya 236
jatichno 236
jandik 235
Yie 235
or@@ 235
ang’eyo 235
joodwa 235
ak@@ 235
jodolo 234
g@@ 234
otudore 234
pachi 234
ch@@ 233
Tij 233
wasik 233
dewo 232
chandore 232
okawo 231
ku@@ 230
kanisa 230
chwech 230
gana 230
okonye 229
mogo 228
kite 228
41 228
nochiko 228
S@@ 227
pogruok 227
mulo 227
yueyo 227
wamedo 226
odonjo 226
matiyo 226
Wachne 226
45 226
waketo 226
Mar 226
luongo 225
Nyaminwa 225
liel 225
ya 225
malich 225
ing’eyo 225
as@@ 223
majaber 223
Maria 223
Joshua 223
chak 223
Sula 223
Mapiyo 223
Ber 223
ja 223
madwaro 222
akwede 221
ona 221
ochung’ne 221
okor 221
nobedie 221
wuoth 221
dwar 220
Elija 220
makonyo 220
42 219
jowetegi 219
wapuonjore 219
ochak 218
chamo 218
ogolo 218
medore 218
giyud 218
MA 218
omor 217
owa 217
moikore 217
y@@ 216
gweng 216
wayie 216
masiche 216
makelo 216
Un 215
moromo 215
bugewa 214
yiewa 214
jonyuolgi 214
os@@ 214
ruok 214
okaw 214
jokanyo 213
ginyiso 213
Higini 213
nyako 213
ire 213
ariyogo 212
Ekl 212
onyal 211
mantie 211
ayudo 210
marachni 210
Buk 210
nyawo 210
divai 210
Ndalo 209
Filipi 209
wanyis 209
reso 209
ar@@ 208
36 208
ote 208
owadgi 208
weuru 208
pidho 208
omiyowa 207
jalo 207
jaoda 207
atimo 207
gise@@ 206
il@@ 206
Ruo 206
od@@ 206
WER 206
Maber 206
ogendni 206
gichako 206
owinj 205
ilo 205
pinyruoth 204
ndi 204
kong’o 204
wo 204
ee 203
abedo 203
otieno 203
jip 203
jahera 203
siro 202
44 202
duogo 202
ng’ano 201
mobedo 201
jomotho 200
50 200
betie 199
Isaka 199
thieth 199
oluw 199
chuno 198
giparo 198
Puonjo 198
wawe 197
World 197
rumo 197
wil 197
amor 196
olemo 196
tugo 195
puodho 195
mopong 195
ng’@@ 195
Nyasachwa 195
is@@ 195
nosebedo 195
gini 195
pinyka 195
wasomo 195
moti 195
Non 195
jootene 194
fweny 194
ochop 194
ori 194
in@@ 194
owuo 194
joricho 194
Tem 194
ochiko 194
ong’ere 193
Chakre 193
jaodi 193
nolero 193
Dhano 193
Bible 193
Babulon 192
op@@ 192
jorit 192
ogol 192
ket 191
Jopuonjre 191
Lweny 191
warruok 191
oromo 191
Joot 191
chando 191
kanye 191
MAG 190
Y@@ 190
Puonjruok 190
konya 190
hono 190
tiego 189
Ruodhwa 189
ritruok 189
kecho 189
Yer 189
kalo 189
ochakore 188
kore 188
nomiye 188
pacha 188
kwa@@ 188
obadho 188
gimor 187
owe 187
ruodh 187
R@@ 187
MONEGO 186
adwaro 186
awinjo 186
nyathini 186
opar 186
siso 186
Farao 186
mamalo 186
OTI 185
owuok 185
karang’o 185
wigi 185
kelonwa 185
ndawa 184
del 184
GODO 184
wan@@ 184
Ler 184
adimba 184
t@@ 183
ora 183
nyithinde 183
japuonjre 183
mosebedo 183
siasa 183
Dwoko 183
nam 183
owetene 182
Gie 182
di 182
Mani 182
cha 182
39 182
maloyo 182
tudruok 182
J@@ 182
apoya 182
pacho 181
nwa 181
tuke 181
chuech 180
ad@@ 180
j@@ 180
limo 180
machal 180
iti 180
nego 180
chiero 179
Jonyuol 179
rit 179
ago 179
wabi 179
nopuonjo 179
Har 178
abiro 178
dwol 178
ywak 178
aparo 178
nochung 178
nonyalo 178
Higni 178
on 177
Nyasach 177
noluwo 177
obedie 177
the 177
ndikono 176
timbegi 176
olo 176
oketh 176
odong 176
jaloch 176
nokelo 176
iparo 176
giwinjo 175
wawinjo 175
ing’e 175
onyuol 175
ine 175
maggi 175
atim 175
Koso 175
ani 175
odag 175
jaber 174
wetegi 174
orwako 174
muolo 174
ob@@ 174
mo 174
lela 174
okonya 174
motimo 173
chulo 173
thuologi 173
hikgi 173
nodwaro 173
nogolo 173
misumba 173
Magedon 172
nogoyo 172
Ezekiel 172
Weuru 172
hinyruok 172
yath 172
ge 172
ero 172
horuok 172
wamed 172
och@@ 171
matimore 171
mokuwe 171
Jo@@ 171
egi 171
Jotich 171
oyiego 171
tekone 171
hoyo 171
ahero 170
chano 170
H@@ 170
okonyi 170
wachako 170
giluwo 170
aboro 170
makore 169
magwa 169
miyi 169
janyuol 169
gihero 169
onwa 169
Dho 169
barupe 168
giyie 168
Skul 168
l@@ 168
odiechienge 168
Dan 168
chokruogewa 168
okendore 168
notho 168
ting’o 168
wawuoyo 168
ase@@ 167
nodwoko 167
100 167
wuod 167
ringo 167
nyiminewa 167
gin@@ 167
wuonwa 167
Tiend 167
th@@ 167
Cha 167
pak 167
mibiro 166
abed 166
wuowi 166
Wa@@ 166
mwa@@ 166
oparo 166
mochung 166
ponografi 166
ik@@ 165
Translation 165
NE 165
ang’e 165
Adiera 165
Kare 165
ri 164
lwenje 164
huma 164
penjono 164
distrikt 164
rem 164
ke 164
obet 163
penjore 163
pim 163
mang’ongo 163
jolup 162
noyiero 162
Loch 162
nokwongo 162
madirom 162
paronwa 162
notemo 162
jakwath 162
Sulani 161
otimre 161
wageno 161
tiegruok 161
nopenjo 161
onyosore 160
norwako 160
waromo 160
wechene 159
and 159
Intanet 159
ode 159
non@@ 159
maromo 159
oseyudo 159
Ingresa 158
mokor 158
orego 158
er 158
it@@ 158
E@@ 158
okonyo 158
Wabiro 157
Efe 157
olos 157
oloko 157
oe 157
giketo 157
maduong’ie 157
43 157
nokwayo 157
lewni 156
wase@@ 156
nyise 156
yien 156
Maritha 156
Ruth 156
jomage 156
watang 155
anyuola 155
Kanyakla 155
w@@ 155
ot@@ 155
iwuoyo 155
richogi 155
odok 155
Miyo 155
nene 155
Eklesiastes 155
po 154
chutho 154
Ose@@ 154
yogi 154
ap@@ 154
ye 154
mawuoyo 154
yamo 154
Ooyo 153
keyo 153
ny@@ 153
wakaw 153
chi@@ 153
Podi 153
omiwa 153
Mor 153
55 153
kuomu 153
Dichwo 153
masie 152
remo 152
osiepene 152
giweyo 152
om@@ 152
matayo 152
anyal 152
ging’e 152
Bug 152
rieyo 151
much 151
Katholik 151
Kolosai 151
eni 151
Babilon 151
uo@@ 151
dhakono 151
kaw 151
Dibed 151
ogeno 151
ofwenyo 150
p@@ 150
nokonye 150
ute 150
tony 150
warito 150
jochiende 150
lo 150
chakore 150
bugno 149
at@@ 149
ena 149
itiyogo 149
mondik 149
gaset 148
Sa 148
iwinjo 148
Waduto 148
46 148
nyisogo 148
oketho 148
molos 148
Dhi 148
milion 148
otamore 147
Hezekia 147
Wachno 147
itiyo 147
Maler 147
kilomita 147
P@@ 147
nong’ado 146
maberie 146
de 146
nowuok 146
motho 146
atiyo 146
ginyal 145
gasede 145
noloko 145
twech 145
idwaro 145
oherowa 145
noparo 145
wuond 145
ochi@@ 145
Ng’e 145
nonyise 145
osik 144
matimo 144
Noyudo 144
omako 144
chunyu 144
osin 144
ng’wech 144
jopuonj 144
piche 143
elo 143
ng’e 143
ana 143
dichiel 143
mae 143
gotieno 143
nang’o 143
amo 143
mahundu 143
osenyiso 143
gode 143
dh@@ 142
jadolo 142
doko 142
ini 142
ene 142
mtoka 142
ko 142
olok 142
go@@ 142
apuonjora 142
sulwe 142
jonyuolna 141
yawuot 141
emomiyo 141
kom 141
alo 141
wach@@ 141
Kapok 141
nosingo 141
48 140
omakore 140
kambi 140
lokore 140
orit 140
Kowuoyo 140
Wang’eyo 140
ringre 140
Asa 140
gis@@ 140
2010 140
ay@@ 139
malero 139
minwa 139
do 139
mara 139
Luo 139
mu@@ 139
mon@@ 139
Ma@@ 139
tinde 139
er@@ 139
wago 139
l 139
gedo 139
ang’@@ 138
ti@@ 138
65 138
chiwore 138
sunga 138
okonygi 138
lokruoge 137
timbewa 137
ra@@ 137
Jachwech 137
Eden 137
ogandane 137
awuon 137
dirom 137
jomisonari 137
mitiyogo 137
motang 137
oseketo 137
k 137
Na@@ 137
obatisi 137
mabende 136
migawono 136
miya 136
nyagore 136
oter 136
otemo 136
moket 136
ach@@ 135
richowa 135
Ibiro 135
gwenge 135
do@@ 135
ong’@@ 135
tir 135
MA@@ 135
Rowere 135
lwenyno 135
jogi 135
Jerman 135
Mika 134
yuto 134
Mago 134
nooro 134
wuondo 134
Harun 134
Magi 134
matir 134
nomako 134
ri@@ 134
limbe 134
jood 133
Gilead 133
watemo 133
Wi 133
gil@@ 133
Chiw 133
okenge 133
otenore 133
mwayudo 133
am@@ 133
2@@ 132
osiko 132
nok 132
kethruok 132
MUMA 132
yedhe 132
Elisha 132
choko 132
tayowa 132
omedo 132
bor 132
wadwa 131
tiendgi 131
Wuowi 131
oyiero 131
nyiri 131
gikeni 131
oluwo 131
Mat 131
Penjo 131
osingo 130
wuo 130
ngano 130
nokonya 130
mochuno 130
keth 130
or 130
noch@@ 130
Ki@@ 130
le@@ 130
jonyuolne 130
kisera 129
piero 129
kon@@ 129
kethogi 129
pinyruodh 129
yawuote 129
ta 129
yu@@ 129
kuoma 129
ch 129
chango 129
Pasaka 128
John 128
grup 128
yoga 128
Pod 128
Neno 128
Pentekost 128
iketo 128
Pinyruodhno 128
thone 128
nus 128
Wechego 127
dalano 127
60 127
oluoro 127
ino 127
madhi 127
Nimar 127
odwar 127
dhahabu 127
kodok 127
chokruogno 127
mondiki 126
York 126
gine 126
okelo 126
gocho 126
s@@ 126
som 126
wanono 126
ooyo 126
119 126
maduong’no 126
ong’ado 126
osemiyowa 126
li@@ 126
tigo 125
gimaduong 125
Jak 125
mise 125
yalo 125
ywayo 125
oonge 125
70 125
winjruokgi 124
wachne 124
omigi 124
timre 124
osekonyo 124
nochweyo 123
mosiko 123
japuonj 123
nyisogi 123
de@@ 123
mobiro 123
bedoga 123
lach 123
noriwo 123
sirkande 123
jokwath 123
kitiyo 123
Mach 123
winjore 123
simo 123
2012 123
dhoudi 123
wachonwa 123
chikowa 123
jiwogi 123
nok@@ 122
Kanaan 122
man@@ 122
2011 122
wakawo 122
itgi 122
penjogo 122
yorene 122
rohone 122
jakony 122
jumbe 122
non 122
mudho 122
Chiegni 122
Chike 122
mapod 122
odno 121
el@@ 121
gitemo 121
I 121
NW 121
mochido 121
kethore 121
wang’i 121
hore 121
dwarone 121
Picha 121
telo 121
morowa 121
yawo 120
owang 120
mong’ere 120
maru 120
wang’o 120
pi@@ 120
puonjogi 120
el 120
thum 120
mak@@ 119
Rieko 119
wang’a 119
emo 119
Australia 119
puonjora 119
Jaloch 119
iko 119
joloch 119
Manyalo 119
kawuono 118
Wuora 118
Jodongo 118
ke@@ 118
notiyogo 118
lo@@ 118
omiya 118
ikruok 118
ojiwo 118
GI 118
Lazaro 118
nomiyogi 118
Dhako 118
pako 118
ag@@ 118
giti 118
Pile 118
jowetewa 118
wogi 118
modhi 117
ayie 117
2009 117
Kuwe 117
richone 117
timno 117
kayo 117
wang’ad 117
jotelo 117
mayom 117
Geno 117
tang 117
walo 116
ro@@ 116
gini@@ 116
ota 116
watem 116
ega 116
Ute 116
ir@@ 116
jatelo 116
moweyo 116
jonabi 116
un@@ 115
dong 115
iwe 115
Moloyo 115
mapok 115
odwa 115
picha 115
igi 115
otawa 115
maluwogi 115
winj 115
wawinj 115
F@@ 115
wang’wa 115
Ataro 115
chieng’no 115
ise@@ 115
waweyo 115
orumo 115
juok 115
ging’ado 115
wami 115
Nyasachi 114
mor@@ 114
ho@@ 114
kindu 114
Gimomiyo 114
nikare 114
nochiwore 114
Got 114
wuo@@ 114
misengini 114
Ulaya 114
kuot 114
wapuonjre 114
mibadhi 114
kuomi 114
ubed 113
monjo 113
wadonj 113
nochueyo 113
unyalo 113
yadh 113
makate 113
ou 113
Oktoba 113
nochi@@ 113
Kend 113
ab@@ 112
wadgi 112
Oganda 112
afwenyo 112
ang 112
sanduk 112
nyadinwoya 112
2013 112
Thessalonika 112
tarik 112
thim 112
gidak 112
Ruodh 112
ng’anjo 112
Luwo 112
wende 112
iyie 112
Enok 112
51 111
giwuok 111
Japan 111
romogo 111
osuru 111
Ket 111
nobi 111
miwuoyoe 111
warit 111
nodonjo 111
Ginyalo 111
migeno 111
adi 111
onya 111
kidono 110
Nathan 110
wuoyoe 110
ul@@ 110
nong’@@ 110
Ariyo 110
France 110
Watch 110
Tower 110
ogandano 110
more 110
nor@@ 110
Eze 110
wang’@@ 110
nyiego 110
Chiwo 110
tu@@ 110
kose@@ 110
Paradis 109
korachwich 109
kuor 109
wasumbini 109
hike 109
oloyo 109
sidang 109
got 109
manyaka 109
Matayo 109
jatend 108
gionge 108
nogeno 108
bu@@ 108
tamore 108
gen 108
orito 108
dwond 108
singonwa 108
Momiyo 108
iyudo 108
paradis 108
ariyogi 108
dwaroree 108
osetiyo 108
puonjno 108
josayans 108
Jonathan 108
ol 108
gibi 108
olokore 108
yud 108
Russia 108
Higa 108
Ahab 108
nonyisogi 107
ondiki 107
nobedi 107
ligangla 107
okoro 107
kodiechieng 107
mamit 107
manyienno 107
onyise 107
nyuolo 107
osetho 107
1976 107
Spain 107
iwacho 107
mong’eyo 107
owadwano 107
makruok 107
omiyi 107
Farisai 107
wano 107
nyingno 107
2008 106
yoe 106
komachielo 106
odewo 106
noting’o 106
jalendo 106
winje 106
ini@@ 106
gimachielo 106
nyathine 106
Kido 106
g 106
Winjruok 106
walendo 106
gwedho 106
wang’ado 106
isomo 106
nyading’eny 105
Mari 105
kendi 105
Nyithindo 105
osekonya 105
lamowa 105
Ruodhi 105
timbene 104
chudo 104
gimaber 104
timne 104
owetego 104
Mi@@ 104
ndara 104
okwayo 104
Dwaro 104
opuonjore 104
Jandik 104
puonjgo 104
nenogi 104
honni 104
giluw 104
Obiro 104
Septemba 104
makoro 104
wiwa 104
joneno 103
Tho 103
nowachone 103
nengo 103
ranyis 103
Keto 103
me@@ 103
okayo 103
Julai 103
Onyalo 103
gwelo 103
penjogi 103
nyithindwa 102
ibi 102
nochakore 102
da 102
ochiwore 102
Nyarombo 102
buch 102
oneg 102
waseneno 102
era 102
ndalowagi 102
hulo 102
otigo 101
mondegi 101
mok@@ 101
puonjori 101
ojiw 101
Riwruok 101
konyiso 101
gogo 101
pimo 101
thuolone 101
du@@ 101
timonwa 101
odonj 101
Gal 101
ati@@ 101
us 100
d 100
piem 100
puonjre 100
chikno 100
thuolono 100
tayogi 100
ooro 100
miderma 100
Nehemia 100
ia 100
luwogi 100
grube 100
Nyis 100
kwano 100
winjruokne 100
Ang’eyo 100
gikonyo 100
genowa 100
okalo 100
omiyogi 100
Mei 99
winy 99
sin 99
kidi 99
ando 99
Lendo 99
opuonjo 99
paradiso 99
lal 99
maluor 99
53 99
moseti 99
nokor 99
te@@ 99
mono 99
onon 99
girito 99
kayiem 99
wadag 99
nachako 99
motigo 99
riyo 99
Ti@@ 98
Odiechieng 98
gimiyo 98
Zekaria 98
Kain 98
uno 98
waher 98
chweyo 98
wakwayo 98
tijgi 98
Manosingi 98
josomo 98
Anyalo 98
April 98
alworano 98
Ny@@ 98
ochier 98
Nade 98
kete 98
osiepni 98
inyiso 98
Ja@@ 98
mwatimo 98
Samaria 98
lwete 98
Brazil 98
aweyo 98
nomulo 98
reuru 98
matuwo 98
umo 97
kel 97
obatise 97
timoga 97
Esau 97
masiko 97
jamisonari 97
noluongo 97
tieng 97
Ku@@ 97
ger 97
owach 97
ool 97
duoko 97
liete 97
amedo 97
chiw 96
la 96
olal 96
Ch@@ 96
wore 96
mogi 96
ing’@@ 96
nu 96
noromo 96
cho 96
chiwonwa 96
monowa 96
odwoko 96
ikore 96
wogo 96
kano 96
nopuonjore 96
Desemba 96
gichung 95
aye 95
49 95
war@@ 95
oger 95
kot 95
ud@@ 95
r@@ 95
Yiero 95
wal@@ 95
Chi@@ 95
Timbe 95
sigand 95
Beduru 95
giwuoyo 95
dwa 95
nyingi 95
odakie 94
nol@@ 94
thuol 94
osiepne 94
wuoyogo 94
midekre 94
sigu 94
wasebedo 94
Kinda 94
program 94
Judas 94
Migawo 94
momakore 94
gia 94
kal@@ 94
Nying 94
Amor 94
ipar 94
54 93
m 93
bolore 93
Kol 93
yogo 93
notamore 93
lame 93
Galatia 93
luw 93
laktar 93
nomakore 93
orem 93
wono 93
Eka 93
timogo 93
kowuoyo 93
marachno 93
owil 93
asebedo 93
kit@@ 93
pinygi 93
nitiere 93
id@@ 93
Judea 93
Abel 93
gikony 92
us@@ 92
moluoro 92
rech 92
makamano 92
Hanna 92
buche 92
gichiwo 92
Mnara 92
Mlinzi 92
Kanyo 92
Gigo 92
skundno 92
wapenjre 92
Nyiso 92
osel@@ 92
ngerono 92
modhuro 92
kodu 92
Fili 92
onenre 92
ana@@ 92
Joel 92
gichopo 92
matiende 92
Ni 92
3@@ 92
nyocha 91
opuonjre 91
Nono 91
nyasaye 91
mier 91
ga@@ 91
Jeftha 91
asaya 91
dhoot 91
modwaro 91
gikawo 91
bugego 91
noduogo 91
cham 91
omo 91
lek 91
odiechieng’no 91
uok 91
okethore 91
mach@@ 91
Kaw 91
lochne 91
twege 91
kwa 91
mokendore 90
we@@ 90
osekelo 90
O 90
Wacho 90
tero 90
noketho 90
BE 90
Ndikono 90
okonyowa 90
mil@@ 90
nyoso 90
Tito 90
taonde 90
gikogi 90
modong 90
ori@@ 90
joodi 90
jowinjo 90
olony 90
ling 89
sando 89
wede 89
Amkeni 89
michno 89
miche 89
mia 89
Gimoro 89
otiek 89
Rahab 89
nodok 89
gipuonjore 89
oy@@ 89
Mad 89
ari@@ 89
misonari 89
alworawa 89
dipo 89
Agost 89
lu@@ 89
mond 89
waikore 89
dhogi 89
nyisi 89
odich 89
wamiyo 89
midwaro 89
mis@@ 89
wetena 88
Pinyruodhe 88
C@@ 88
kuma 88
An@@ 88
Manyien 88
koko 88
si@@ 88
ores 88
chwora 88
Nondiko 88
inyal 88
utegi 88
cho@@ 88
okwongo 88
t 88
nog@@ 88
thuolowa 87
yi 87
Teko 87
atemo 87
Ei 87
ohinga 87
bayo 87
jochan 87
ohere 87
ati 87
Winjo 87
Okang 87
kochung 87
kompyuta 87
ne@@ 87
Komiti 87
ritowa 87
waonge 87
ah@@ 87
tung 87
ae 87
thothgi 87
Al@@ 86
gisebedo 86
Robert 86
Januar 86
modich 86
wendo 86
orega 86
noloso 86
18@@ 86
chalre 86
Yeremia 86
ow@@ 86
ochik 86
marfuk 86
weye 86
osomo 86
wedegi 86
ony@@ 86
tuo 86
wang’gi 86
ji@@ 85
chayo 85
Ase@@ 85
Somo 85
h@@ 85
Biro 85
osechako 85
nondik 85
mabedoe 85
ging’@@ 85
walando 85
monyalo 85
E.N 85
wakony 85
dwaher 85
nyar 85
kiwuoyo 85
be@@ 85
gol 85
oyi@@ 85
wachung 85
ek 85
kenda 85
kitepe 84
dhoge 84
uwegi 84
Wuoyo 84
walemo 84
gimedo 84
olalo 84
im@@ 84
chiega 84
Yaye 84
giikore 84
jonyuolwa 84
riekni 84
bur 84
hawi 84
imedo 84
wasiki 84
rieny 84
ki 84
Parie 84
obolore 84
giwe 83
chielo 83
wawuo 83
ong’ad 83
kelone 83
Ti 83
Matin 83
nyaminwano 83
Nonyiso 83
muya 83
osekalo 83
Mexico 83
Ng’ano 83
wichkuot 83
dhoga 83
Janabi 83
gokinyi 83
remb 83
end@@ 83
parore 83
yowa 83
144,000 82
Jun 82
South 82
noketonwa 82
lam 82
ra 82
chu@@ 82
girit 82
wero 82
ango 82
JEHOVA 82
Ri@@ 82
Joha 82
nosieko 82
al 82
moga 82
Kisungu 82
Nam 82
Jehu 82
goyiem 82
jonyuolni 82
fedha 82
mosmos 82
Asia 82
osiepena 82
bad 81
andika 81
kendwa 81
kwero 81
wajo@@ 81
am 81
yawuowi 81
par@@ 81
wawacho 81
Rebeka 81
noringo 81
noa 81
Jachuech 81
nenre 81
nokonyogi 81
72 81
la@@ 81
wafwenyo 81
ritogi 81
es@@ 81
jopiny 81
ib@@ 81
nege 81
Jasomo 80
osiptal 80
ochan 80
gasedni 80
mofuwo 80
idho 80
oringo 80
sinema 80
obedi 80
WACH 80
imed 80
nyathino 80
ong’iyo 80
Herode 80
malworo 80
tichne 80
osechopo 80
osefwenyo 80
Konyo 80
oduogo 80
Loko 80
EN 80
wamakore 80
puonj@@ 80
ogoyo 80
Solomon 80
diek 80
wer@@ 80
asomo 80
ter 80
SULA 79
ruodhe 79
Ng’wono 79
wabare 79
timone 79
okwong 79
nyalre 79
ang’ado 79
long’o 79
NYASAYE 79
bedi 79
ur@@ 79
wasiko 79
mamulo 79
penje 79
nopong 79
riekone 79
300 79
jochiwo 79
riembo 79
dogo 79
Pilato 79
52 79
jowetene 79
Giduto 79
mopondo 79
kwaye 79
kethi 79
Kindegi 79
ita 79
tipo 78
jwang’o 78
wuondore 78
che 78
Kama 78
ig@@ 78
gidag 78
yom 78
KAKA 78
mamero 78
manade 78
chwanyo 78
notim 78
nop@@ 78
Jachwechwa 78
aming’a 78
osiki 78
em 78
oherore 78
jaricho 78
ibedo 78
modhier 78
Mo@@ 78
olero 78
gikwayo 77
woyo 77
Jodong 77
w 77
wo@@ 77
and@@ 77
oher 77
wadwar 77
ranyisine 77
oru 77
owetegi 77
Richo 77
lalo 77
uso 77
yudoe 77
Twak 77
rohono 77
sinani 77
achielno 77
giwinj 77
Russell 77
kni 77
kogo 77
chikego 77
ng’anyo 77
achi@@ 77
itwa 77
V@@ 77
riwore 77
83 76
maboyo 76
herane 76
ng’wonone 76
gir 76
githo 76
JI 76
tijni 76
kapod 76
Chutho 76
ang@@ 76
olembe 76
awacha 76
akwayo 76
chan 76
ofise 75
Buge 75
Gombo 75
giket 75
oj@@ 75
tenge 75
wuoyi 75
nori@@ 75
kono 75
yweyo 75
osewacho 75
bugni 75
as 75
nosiko 75
vidio 75
anjawo 75
dogi 75
dakika 75
dha 75
nonyisa 75
klas 75
Mi 75
mowacho 75
terore 75
ayud 75
oree 75
it 75
Knorr 75
mora 75
nyadi 75
PUONJRUOK 74
thurgi 74
Neh 74
Yore 74
Kanada 74
Afrika 74
Chandruok 74
Neuru 74
nyare 74
Ahinya 74
gidonjo 74
ihero 74
otegno 74
Makare 74
Wamor 74
here 74
da@@ 74
Lut 74
Notimo 74
jiwi 74
ruokno 74
bedonwa 74
mobolore 74
imiyo 73
migawone 73
aya 73
f@@ 73
pinywani 73
oland 73
dier 73
makayo 73
orwak 73
yude 73
jak@@ 73
wachopo 73
Suria 73
oluor 73
kotimo 73
Ru 73
kop@@ 73
mong’@@ 73
Malaike 73
z@@ 73
obatisa 73
kadho 73
wahere 73
nyadiriyo 73
ewa 72
Ka@@ 72
maluongore 72
walem 72
ondiek 72
ong’o 72
jiwe 72
ingo 72
pong’o 72
Paradiso 72
ikawo 72
moyie 72
mol@@ 72
nyalowa 72
Chenro 72
kol@@ 72
hoyowa 72
Tije 72
Barnaba 72
WA 72
molok 72
K 72
parogo 72
Jokristogo 72
wagen 72
Ireland 72
Malaki 72
milambo 72
Kit 72
jachiwo 72
wachi 72
wachak 72
jaro 72
koparo 72
meli 72
Tijwa 72
odgi 72
itemo 72
Goliath 72
moe 71
wakonyo 71
agombo 71
dende 71
odog 71
tim@@ 71
nyithindu 71
kanise 71
1919 71
weg 71
nonenore 71
Iparo 71
wadu 71
Z@@ 71
sano 71
odhiambo 71
kal 71
wuondruok 71
wedewa 71
wachop 71
oke@@ 71
tamruok 71
Luor 71
Mich 71
rangi 71
lwasi 71
47 71
osetimore 71
200 71
kie 71
jondiko 71
ochwe 71
gadiera 71
iluor 70
nen@@ 70
kanyaklano 70
Mal 70
ng’ayi 70
war 70
K.N.P 70
miwuoyo 70
Minwa 70
Pim 70
makonyowa 70
yoregi 70
eye 70
moyier 70
jad@@ 70
uon@@ 70
Duong 70
achaya 70
nek 70
utimo 70
talanta 70
donj@@ 70
eg@@ 70
nochano 70
okinyi 70
sadha 70
Lu@@ 70
Luw 70
Bethlehem 70
Kuonde 70
Sanduk 70
80 70
kony@@ 69
okwedo 69
adekgo 69
chula 69
bedie 69
resruok 69
time 69
dar 69
oyier 69
ing’ado 69
CH@@ 69
ataro 69
kodwaro 69
mer 69
ng’i@@ 69
any@@ 69
KA 69
nyagruok 69
weteni 69
wachone 69
kelonegi 69
pong 69
YO 69
wakwa 69
ZAB 69
ira 69
chwogi 69
masawa 69
tijene 69
oso 68
mosetimore 68
Jarit 68
gitiyogo 68
Chwo 68
dhiye 68
weyone 68
Ana@@ 68
wiyi 68
oloso 68
England 68
machiwo 68
JO@@ 68
dew 68
monj 68
bath 68
Mon 68
dhokno 68
miwacho 68
gigeno 68
Absalom 68
nwang’o 68
wae 68
Nyasacha 68
iny@@ 68
Brooklyn 68
law 68
majiwo 68
mal@@ 67
her@@ 67
kothe 67
gowi 67
siemno 67
GASET 67
wuokie 67
won@@ 67
oler 67
adak 67
nolokore 67
res@@ 67
gig@@ 67
oluong 67
Novemba 67
injili 67
ndalone 67
giyiero 67
joratiro 67
moch@@ 67
chueyo 67
Kony 67
masin 67
gago 67
not@@ 67
okete 67
waherogo 67
wedene 67
mosetho 67
die 67
Bolruok 67
Chir 67
Galili 67
imor 67
ranyisino 67
Persia 67
wak@@ 66
riwruoge 66
Jumapil 66
maketo 66
gidok 66
Assuria 66
otang 66
oseneno 66
jakinda 66
MO@@ 66
jakanyo 66
yo@@ 66
ndege 66
omulo 66
utim 66
oseti 66
ndikogo 66
weyonwa 66
onu 66
ayo 66
Nong’eyo 66
jiwa 66
mail 66
rit@@ 66
thoro 66
girwako 66
aro 66
giromo 66
wiya 66
wachiwo 66
Jehoshafat 66
tekowa 65
gach 65
mochopo 65
jasomo 65
chokore 65
winjoga 65
Germany 65
nengogi 65
nochuno 65
Nonro 65
kidogo 65
loye 65
gidonj 65
yone 65
oteloeni 65
jowuoth 65
puonjgi 65
norito 65
15@@ 65
Machiegni 65
66 65
jodak 65
Faransa 65
Penjri 65
jowadgi 65
chul 65
notieko 65
wagombo 65
ochu@@ 65
nyinga 65
aga 65
osi@@ 64
jomaricho 64
ng’ur 64
Wuo@@ 64
yi@@ 64
Gana 64
jw.org 64
openjo 64
jowasigu 64
pieche 64
ripot 64
1950 64
ipuonjori 64
Ng’eny 64
gifwenyo 64
muol 64
Nazareth 64
luwe 64
Lokruok 64
onyisa 64
Wuonu 64
otu@@ 64
om 64
Chon 64
Wachni 64
nyamin 64
otem 64
ony 64
nowachonegi 64
jat@@ 64
konchiel 64
sechego 64
odhier 64
Februar 63
jalweny 63
2003 63
PINY 63
nawinjo 63
jalno 63
mayudo 63
jasigu 63
nondiki 63
onigi 63
tiek 63
chwanyruok 63
nowero 63
manadi 63
ochueyo 63
alworau 63
sibuor 63
timonegi 63
nengone 63
yudogi 63
puothe 63
Gideon 63
noyud 63
Omedo 63
Ritreuru 63
diere 63
nyosore 63
mong’ith 63
unu@@ 63
Moa 63
Drama 63
nomiyowa 63
wad@@ 63
Maok 63
beduru 63
s 63
imo 63
taondno 63
mine 63
chocho 62
kueth 62
ng’won 62
kod@@ 62
Josh 62
osiepewa 62
moni 62
chokruog 62
awa 62
NI 62
riek 62
MI@@ 62
odonj@@ 62
ende 62
nyiswa 62
1@@ 62
kel@@ 62
iwachonwa 62
chungo 62
kitgi 62
kawwa 62
guedho 62
nolando 62
raia 62
trakt 62
wadakie 62
yorewa 62
Ndalogi 62
ndalogo 62
sayans 61
nosetho 61
nokalo 61
osekonyowa 61
onenore 61
wakwed 61
ifwenyo 61
kanyaklau 61
penj 61
gitamore 61
mokayo 61
tik 61
okel 61
televison 61
puonja 61
gore 61
dho@@ 61
Chunya 61
chikne 61
nyasino 61
yiegi 61
mochanore 61
Michelle 61
nayudo 61
mang’ich 61
es 61
gichop 61
eko 61
nobet 61
kwe@@ 61
nomiya 61
jochiendene 61
liet 61
moketo 61
okendo 61
dakie 61
dgi 61
chil 60
sigendini 60
tekogi 60
ta@@ 60
ANE 60
waromogo 60
Latin 60
watiyogo 60
4@@ 60
gidakie 60
omak 60
Wer 60
maberno 60
anda 60
iket 60
wabedgo 60
Watchtower 60
WA@@ 60
obatisgi 60
j 60
90 60
Hero 60
histori 60
bathe 60
thuon 60
73 60
ogombo 60
okwa 60
romre 60
dwonde 60
lep 60
podho 60
chenrono 60
Giko 60
p 60
genogi 60
ak 60
Ar@@ 60
Mar@@ 60
kgi 60
TIMO 60
ara 60
jok 60
wuodhe 60
gu@@ 59
noikore 59
gigoyo 59
nob@@ 59
dewowa 59
yorno 59
omany 59
rite 59
buok 59
IN@@ 59
dh 59
penjori 59
jokony 59
kanyaklawa 59
kogi 59
Poland 59
isebedo 59
thuchegi 59
makati 59
ginyis 59
Josia 59
Nisan 59
sinembe 59
wawach 59
nyingegi 59
adierago 59
61 59
dego 59
jal@@ 59
oka@@ 59
konyruok 59
jar@@ 59
brosua 59
Rito 59
ng’eye 59
Yudo 59
osetemo 59
eyo 59
Osiep 59
bat 59
ina 59
joland 59
Jadolo 59
oriw 59
n 59
mtokni 59
wayiero 59
oyo 58
kiny 58
Jeriko 58
timorenwa 58
2,000 58
noluoro 58
Batiso 58
gogi 58
notimono 58
aja@@ 58
fuwo 58
moyiego 58
Mumbe 58
6@@ 58
Ong’eyo 58
ketonwa 58
tedo 58
ele 58
ruokgi 58
giny@@ 58
Chokruok 58
nochu@@ 58
gidwar 58
mula 58
ong’anjo 58
awacho 58
otimne 58
waga 58
yiene 58
Mary 58
euru 58
sigana 58
nochak 58
Gimachielo 58
logi 58
jong’ad 58
Tiende 58
lakteche 58
ket@@ 58
oseg@@ 58
indiko 58
kampen 58
thowi 58
tuwono 58
alufe 58
bo@@ 58
ng’ich 58
wito 58
iri@@ 58
Baruk 58
senchari 58
godhiambo 58
Filipo 58
7@@ 58
gipuonjo 58
misandoe 57
ote@@ 57
Thes 57
odhi@@ 57
teknegi 57
mowa 57
wuoda 57
gimarach 57
janeno 57
nokwedo 57
aonge 57
thuolona 57
pe@@ 57
yadhno 57
janabino 57
Manie 57
Nomedo 57
nopogore 57
momiwa 57
Jairo 57
gimed 57
ywa@@ 57
wuoye 57
ruokne 57
dolo 57
wechewa 57
145 57
ruokwa 57
tijegi 57
kansa 57
pando 57
mb@@ 57
103 57
iluwo 57
Ofis 57
Nyime 57
WECHE 57
openje 57
Chunyi 57
Gen 57
Jotend 57
Sophia 57
dend 57
morgo 57
wabende 57
re@@ 57
oked 57
korgi 57
rang’iny 57
Obed 57
adwar 56
onyisogi 56
mamono 56
JA@@ 56
nodwoke 56
nomedore 56
Di@@ 56
omedore 56
anyis@@ 56
owuog 56
oja@@ 56
osiepna 56
ikony 56
Mumano 56
yorego 56
Jatich 56
mamoro 56
ofweny 56
her 56
oseweyo 56
gisik 56
chandruogego 56
Debora 56
keth@@ 56
maloso 56
ba 56
wagoyo 56
gilando 56
andhoga 56
Polo 56
guondo 56
fwenyonwa 56
Wal@@ 56
kiyo 56
aromo 56
makwar 56
kor@@ 56
Rawera 56
manenore 56
pien 56
hinyowa 56
osiepegi 56
Naomi 56
mineno 56
otagi 56
notayo 56
62 56
wany@@ 55
wgi 55
nolemo 55
lawo 55
onyisowa 55
Kaachiel 55
wawinjore 55
kowo 55
bi@@ 55
GIMA 55
gimi 55
aluor 55
mawinjo 55
yier 55
edo 55
Rap 55
terogi 55
dikoro 55
gombogi 55
ndikoni 55
yiengni 55
mobam 55
wapuonjo 55
iyo 55
kgo 55
Aora 55
gipuonjre 55
2014 55
chwalowa 55
wapenjore 55
nyakono 55
odar 55
lowa 55
pwodho 55
yudowa 55
wasumbni 55
noreso 55
Ngero 55
abi 55
ha@@ 55
norumo 55
he@@ 55
aora 55
gole 55
Bi 55
il 55
nyithindogo 55
Krismas 55
zeituni 55
Jordan 55
nomor 55
muma 55
min@@ 55
otieko 55
ketogi 55
nyien 54
tie 54
Jona 54
Didek 54
wap@@ 54
ku 54
reru 54
Mas@@ 54
higano 54
nowachogo 54
ndi@@ 54
jowinjone 54
arus 54
nodagi 54
nanyalo 54
uongo 54
nafwenyo 54
redio 54
igeno 54
dhier 54
Malo 54
odi 54
104 54
is 54
Sa@@ 54
nyakachieng 54
500 54
dagi 54
tudore 54
luong 54
sunagogi 54
nony@@ 54
Jobura 54
jooda 54
ranyisini 54
warwako 54
ANG’O 54
ba@@ 54
modimbore 54
obedgo 54
Dhiuru 54
luet 54
naneno 54
ochweyo 54
chanda 54
tiendeni 54
gono 54
wariw 54
yono 54
chande 54
kargi 54
wakendore 54
joodno 54
Ng’@@ 54
onege 54
oriwore 54
ngeche 54
RUOK 54
lok@@ 54
obatis 54
luongore 53
osom 53
Dongruok 53
mosetim 53
ochiegni 53
Din 53
omone 53
gen@@ 53
oser@@ 53
kendore 53
Yehova 53
keloni 53
Jaduong 53
mit 53
diriyo 53
pinjeruodhi 53
Kanisa 53
wadok 53
opogre 53
rombene 53
Rutherford 53
Wang 53
mag@@ 53
modok 53
Odwaro 53
lwar 53
mzabibu 53
mone 53
Sisera 53
ajahigni 53
56 53
uogo 53
mochiwore 53
Erokamano 53
c 53
wachiwore 53
luo 53
winj@@ 53
um@@ 53
Mal@@ 53
jopuonjrena 53
wamany 53
Scriptures 53
ome 53
Mungu 53
Society 53
uro 53
gowa 53
many@@ 53
donjore 52
kar@@ 52
Lemo 52
KOR 52
Jabatiso 52
donj 52
Moro 52
gilendo 52
TI@@ 52
Ogendini 52
NO@@ 52
awe 52
websait 52
Arthur 52
Anna 52
L 52
opuonj 52
niluongo 52
gigi 52
tiendene 52
otim@@ 52
wachonegi 52
yiende 52
jaduong’no 52
doe 52
mosen@@ 52
wanan 52
hi@@ 52
Sulagi 52
nowinjore 52
Barak 52
ichiwo 52
chogo 52
ochayo 52
HIGA 52
chikogi 52
Chiwruok 52
dwar@@ 52
wariwo 52
ola 52
mori 52
Malaika 52
machiegnini 52
kwede 52
Gweth 52
daher 52
ewo 52
both 52
onyuola 52
Japuonj 52
5@@ 51
miaha 51
moler 51
osiepeni 51
ar 51
agi 51
ulo 51
iwa 51
moriere 51
wuodi 51
gichak 51
Thuolo 51
iya 51
ochul 51
moketi 51
momni 51
puonjri 51
Tu@@ 51
opar@@ 51
ORE 51
Wanyiso 51
mot@@ 51
Ezra 51
eny 51
ber@@ 51
chiel 51
nya 51
owadu 51
wabolore 51
wenyo 51
mbala 51
endo 51
olendo 51
Gimaduong 51
penjri 51
tie@@ 51
mita 51
omi@@ 51
noyawo 51
wath 51
James 51
Britain 51
gimakore 51
skunde 51
wengegi 51
orieny 51
michiwo 51
nogol 51
Koda 51
ayu@@ 51
mochi@@ 51
ur 51
oor 51
farese 51
Pok 51
makamago 51
anyise 51
rango 51
twagno 51
waked 51
ru@@ 51
rusa 51
KUOM 51
139 51
tunge 51
ng’ad 51
mosebatisi 50
yiego 50
nowuoro 50
odongo 50
kuondego 50
some 50
ringregi 50
winjogi 50
orie 50
jachan 50
joodu 50
bunde 50
jamni 50
nadi 50
Gibiro 50
olo@@ 50
otony 50
uneno 50
kend@@ 50
nwoyo 50
gip@@ 50
monyuol 50
puonje 50
Jogi 50
dwok@@ 50
miwafu 50
www.jw.org 50
thumbe 50
budho 50
Machon 50
wachi@@ 50
PENJO 50
masirano 50
Jatichno 50
Yi@@ 50
nyithi 50
odwok 50
timgi 50
Ethiopia 50
nolalo 50
adonjo 50
yoreni 50
oduo@@ 50
achaye 50
nyithinda 50
chego 50
gilamo 50
jomwandu 50
wasepuonjore 50
rapar 50
mwabiro 50
pasent 50
David 50
rogo 50
We@@ 50
86 50
kindene 50
modol 49
masinde 49
KA@@ 49
waketh 49
KO@@ 49
1,000 49
Na 49
chomo 49
em@@ 49
eri 49
ou@@ 49
weya 49
gipar 49
oseyiero 49
aseyudo 49
mog@@ 49
mwahero 49
iri 49
eyogi 49
City 49
Kora 49
machando 49
y 49
puonjni 49
katiyo 49
winjre 49
baruano 49
gindiko 49
giseyudo 49
jang’ad 49
nyadidek 49
wok@@ 49
mari@@ 49
oherogi 49
duo@@ 49
alemo 49
iseneno 49
Wadak 49
rwak 49
Jon 49
Naboth 49
timoni 49
nolamo 49
chue 49
Giwacho 49
ter@@ 49
achopo 49
nyosre 49
bao 49
400 49
boma 49
miwa 49
mkate 49
nyowuoyo 49
osedhi 48
nodong 48
Africa 48
bas 48
wal 48
owal 48
buono 48
oduog 48
George 48
giloso 48
Mikael 48
ng’iewo 48
lueti 48
osechiwo 48
nopenje 48
kom@@ 48
onono 48
La@@ 48
ochano 48
Chandruoge 48
aluwo 48
oli@@ 48
dhiga 48
wakwaye 48
maoko 48
Nachako 48
Kwa 48
marichogo 48
walendonegi 48
Zek 48
wasom 48
th 48
kawacho 48
mogeno 48
olend 48
gichi@@ 48
Cameron 48
ipimo 48
kue 48
chan@@ 48
po@@ 48
120 48
Mowinjore 48
osepuonjore 48
rombo 48
otimnwa 48
nojiwe 48
nonyuolo 48
odiechiengno 48
waro 48
Ineno 48
wasigu 48
openjre 48
Jatelo 48
Karen 48
mwandugi 48
kibaji 48
jam@@ 48
winji 48
otel 48
miyono 48
ayi@@ 48
malamo 47
iro 47
giketho 47
maradier 47
suya 47
ler@@ 47
gisomo 47
oti@@ 47
kwongo 47
ginicham 47
wadewo 47
nyiewo 47
oler@@ 47
nyi 47
timbego 47
ichako 47
Un@@ 47
adok 47
Philippines 47
uong 47
joga 47
nyalogi 47
apara 47
ung’eyo 47
nomi 47
jokinda 47
ochiwre 47
mochako 47
Wadwaro 47
the@@ 47
nokonyowa 47
gikaw 47
goye 47
are 47
okel@@ 47
Jolendo 47
giloko 47
molworo 47
·@@ 47
eng’@@ 47
Man@@ 47
chal@@ 47
thothne 47
rembe 47
kindi 47
gik@@ 47
logo 47
kong’eyo 47
tabernakel 47
norum 47
puonjne 47
wachiw 47
warwak 47
Jang’ad 47
chwoyo 47
nosetimo 47
mase@@ 47
Gog 47
Ng’ama 47
mos@@ 47
inyis 47
In@@ 47
penj@@ 46
olemb 46
Josomo 46
misangono 46
jno 46
singono 46
osingonwa 46
China 46
India 46
ipuonjo 46
misomo 46
jach@@ 46
Dak 46
konyore 46
rego 46
kia 46
nyimi 46
oket@@ 46
Baal 46
Chier 46
Benjamin 46
odagi 46
iluw 46
med 46
Pi@@ 46
Kelo 46
jandiko 46
Ni@@ 46
ing@@ 46
v@@ 46
Dine 46
16@@ 46
chwechne 46
lime 46
Pinje 46
ru 46
bilion 46
Be@@ 46
gwel 46
mama 46
Dhok 46
Konyiso 46
uoyo 46
Charles 46
64 46
wor@@ 46
Wuoda 46
Mat@@ 46
kogeno 46
rwakruok 46
hoho 46
nyangu 46
nyasach 46
giga 46
oda 46
Gaset 46
tekna 46
Makedonia 46
koe 46
Abiro 46
kokwayo 46
metho 46
ya@@ 46
Nyasachgi 46
Jachuechwa 46
aj@@ 46
Madier 46
Wuo 46
doga 46
KANE 46
Nochako 45
omedre 45
asiko 45
chand@@ 45
osemedore 45
1,@@ 45
Ngimana 45
walamo 45
pinywa 45
kochakore 45
sirkand 45
oseny@@ 45
nogero 45
CHON 45
ndhadhu 45
dhowa 45
Paul 45
ngeroni 45
jwang 45
ayany 45
ung 45
onyuolo 45
iwuoro 45
timoe 45
okonyogi 45
mwase@@ 45
nokwong 45
nu@@ 45
oyiene 45
Filistia 45
KAMA 45
wako 45
buru 45
lum 45
Rit 45
nyisa 45
RI@@ 45
mar@@ 45
herano 45
Josombwa 45
japainia 45
mochiwo 45
rwak@@ 45
omonwa 45
kowa 45
wuon@@ 45
Bugno 45
noloyo 45
Thothgi 45
nodakie 45
Georgia 45
gir@@ 45
jolok 45
umi 45
KE@@ 45
but 45
okwero 45
migi 45
dhood 45
mona 45
69 45
iluonge 45
nak@@ 44
koracham 44
makawo 44
M 44
oluongo 44
ndik 44
maling’ling 44
wen@@ 44
Eric 44
fom 44
Kornelio 44
nochiero 44
Aparo 44
opong’o 44
ipuonjri 44
chune 44
chak@@ 44
ndalono 44
wayo 44
ondi@@ 44
mony@@ 44
Ot 44
ON@@ 44
R 44
Dweche 44
Simon 44
mat@@ 44
los@@ 44
olando 44
puoth 44
okuwe 44
inon 44
onyuole 44
oyu@@ 44
Wasomo 44
Ahero 44
wanyag 44
enyo 44
Re@@ 44
Wayudo 44
Sodom 44
Osiepe 44
chokruogego 44
otere 44
oheri 44
deko 44
sigendni 44
Sigand 44
Sila 44
Min 44
Singruok 44
Par@@ 44
ege 44
wasetimo 44
nosiemo 44
don@@ 44
moti@@ 44
inono 44
Kitabu 44
lokre 44
marom 44
miel 44
Puonjri 44
ed@@ 44
polis 44
nyathigi 44
kodhino 43
ong 43
Jonenogo 43
nojiwa 43
ginyis@@ 43
ndiga 43
yudre 43
pinjegi 43
chierne 43
anyo 43
nyi@@ 43
kombe 43
tekni 43
Chiemb 43
Nyaminwano 43
wone 43
Kodhi 43
London 43
kad 43
Alwora 43
mondi 43
eng 43
Moab 43
Bu@@ 43
doher 43
entie 43
Chal 43
kotelne 43
Chikno 43
modwanyore 43
Chunywa 43
wadhiuru 43
2000 43
Chiemo 43
osesingo 43
giwuo 43
chunogi 43
nochango 43
ruokni 43
osedok 43
ochopi 43
Mae 43
kan 43
Italia 43
Wechegi 43
Mwandu 43
mosetimo 43
dhgi 43
awinj 43
nya@@ 43
91 43
Kotiyo 43
hawo 43
mbese 43
z 43
onyo 43
rum 43
tiji 43
mit@@ 43
lworo 43
ken@@ 43
YESU 43
notimre 43
momiyowa 43
William 43
je 43
kan@@ 43
richono 43
71 43
ijiwo 43
nyukta 43
wani 43
tamo 43
denda 43
ach 43
Haran 42
chopoe 42
Siem 42
igoyo 42
bedone 42
Iwachonwa 42
ngimau 42
maiye 42
tud@@ 42
pinyu 42
Michael 42
woga 42
bwok 42
ng’won@@ 42
marito 42
oluonge 42
ton 42
iny 42
h 42
osen@@ 42
machi@@ 42
nojiwogi 42
Ng’atno 42
luete 42
Chopo 42
iewo 42
kwan@@ 42
oreno 42
Wabedo 42
ech 42
ande 42
atin 42
Piche 42
kunyo 42
use@@ 42
Gikanyono 42
kin@@ 42
Chuth 42
mani 42
nochier 42
gichiwore 42
jatichne 42
joskul 42
lok 42
jan@@ 42
nderni 42
iikori 42
polise 42
kadhi 42
askeche 42
700 42
chunowa 42
thuoloni 42
TEM 42
soko 42
moluore 42
otiyogo 42
Mis@@ 42
iketho 42
tayowago 42
okal 42
milionde 42
puo@@ 42
Italy 42
T 42
wagi 42
kanis@@ 42
KINDE 42
ruogno 42
ey@@ 42
of@@ 42
110 41
aketo 41
PAR 41
wawuotho 41
pog 41
au 41
alu@@ 41
ageno 41
anyiso 41
mop@@ 41
wuoyoga 41
kamachielo 41
you 41
wre 41
machalre 41
jos@@ 41
kawe 41
pesago 41
nyandwat 41
puonji 41
padri 41
obwongo 41
ringrene 41
dhawo 41
wachoni 41
giriwo 41
waol 41
noromogo 41
hinyore 41
Jakwath 41
AR@@ 41
chiw@@ 41
igolo 41
iyi 41
wuone 41
Rawar 41
mwapuonjore 41
af@@ 41
Maswali 41
jaoteno 41
mwasomo 41
Brian 41
landore 41
iyiero 41
Wach@@ 41
jiw 41
jaratiro 41
On@@ 41
dik 41
japur 41
⁠ 41
Elihu 41
mwandune 41
bego 41
Tim@@ 41
pe 41
Jonyuolna 41
lochogo 41
yik 41
bedgo 41
jing’o 41
obednwa 41
ikaw 41
nong’ere 41
nduru 41
thi@@ 41
gigolo 41
achune 41
moneno 41
wakedo 41
Noketo 41
jootego 41
wadar 41
konyogo 41
Mangima 41
nyinyo 41
Peter 41
loka 41
wawuok 41
fwen@@ 41
Nazi 41
ngamia 41
nonyisowa 41
Sabato 41
mogol 41
uwe 40
sulano 40
oseng’@@ 40
nabedo 40
okedo 40
ochomo 40
waland 40
WUOYOE 40
yande 40
chwe 40
komiti 40
yeng’o 40
noy@@ 40
kil@@ 40
waikre 40
Motegno 40
ayiea 40
3,000 40
oreso 40
ew 40
Wawach 40
Gayo 40
bol@@ 40
ocham 40
nanga 40
Siko 40
ali@@ 40
Weyo 40
chok@@ 40
Rahel 40
idh 40
nod@@ 40
nas@@ 40
omake 40
nosechako 40
gidewo 40
matemo 40
pog@@ 40
kalatese 40
8@@ 40
Owinjore 40
kok@@ 40
ochokore 40
loje 40
omogo 40
dhe 40
chwa@@ 40
singone 40
waluor 40
alworagi 40
onyisi 40
noramo 40
chun@@ 40
nyiminego 40
wene 40
geng 40
dhoho 40
mandalogi 40
Jok@@ 40
timono 40
kwar 40
Asuria 40
winjruokna 40
dhiyo 40
otaye 40
leronwa 40
adongo 40
igombo 40
odi@@ 40
olwar 40
nokwero 40
natimo 40
sing@@ 40
oher@@ 40
yunivasiti 40
wakwongo 39
giri@@ 39
ambo 39
wecheni 39
wuru 39
ripode 39
owuon@@ 39
ayi 39
17@@ 39
giland 39
kego 39
Mane 39
| 39
mesa 39
Yu@@ 39
os 39
ut 39
modho 39
woe 39
tegno 39
Chokruoge 39
lwanda 39
za 39
se@@ 39
2007 39
Gi 39
nang’eyo 39
Jos 39
OK 39
Th@@ 39
gariyo 39
Potifar 39
Puonj@@ 39
ochike 39
ogony 39
ing 39
borne 39
giromogo 39
nyimwa 39
som@@ 39
tegowa 39
Luoro 39
nokedo 39
ginibed 39
iweyo 39
nowuotho 39
oth@@ 39
kona 39
Pek 39
akawo 39
duong’ne 39
bilo 39
Samantha 39
Kaisar 39
kethre 39
madhako 39
112 39
Rehoboam 39
watho 39
Wageno 39
ochwanyowa 39
Hibr 39
Yot 39
mowuo 39
Gu@@ 39
oseng’ado 39
sanduku 39
jowasike 39
ake 39
imi 39
dore 39
lielno 39
achien 39
konegi 39
hinye 39
kuon 39
chop@@ 39
pinjego 39
gweng’no 39
aseneno 39
H 39
yeno 39
nonyosore 39
gwe@@ 39
LO 39
aka 39
Jorit 39
wuodhno 39
gilemo 39
oherowago 39
luonge 39
133 39
84 39
nahero 39
Thomas 38
magero 38
ang’iyo 38
tere 38
winjowa 38
kelona 38
ger@@ 38
woye 38
dha@@ 38
yudoree 38
imiye 38
57 38
okwa@@ 38
Esther 38
G 38
osimbo 38
Nyithindi 38
ip@@ 38
obedoe 38
otayo 38
otienono 38
makalo 38
wachona 38
Siki 38
sig@@ 38
Waneno 38
muche 38
owuotho 38
okendi 38
gisetimo 38
goe 38
r 38
1918 38
poro 38
higinigo 38
naparo 38
kwer@@ 38
kopim 38
Mabeyo 38
son 38
maketho 38
jatimore 38
nogo@@ 38
nojiwowa 38
timni 38
wowa 38
Je 38
lamono 38
timna 38
lwetgi 38
odwoke 38
moil 38
motel@@ 38
eyowa 38
wak 38
alama 38
noriwore 38
jachir 38
Tinde 38
gisiko 38
nong’anyo 38
wanyisogo 38
migepegi 38
one@@ 38
yiena 38
63 38
oterore 38
pogore 37
tudo 37
Ted 37
parono 37
Jotim 37
monya 37
osechiwore 37
ring’o 37
AN@@ 37
irito 37
onyosre 37
As@@ 37
konyise 37
nosel@@ 37
Nyasache 37
tol 37
odewowa 37
Mang’eny 37
GO 37
NY@@ 37
gombone 37
N 37
tekono 37
riw 37
Mos 37
konyou 37
olem 37
Odhiambo 37
kindeni 37
elonwa 37
ubani 37
Amos 37
choke 37
ogu@@ 37
monyis 37
130 37
moso 37
noora 37
indo 37
Sig@@ 37
ise 37
onyuolwa 37
ubiro 37
enogo 37
parogi 37
osekawo 37
Makwar 37
mochwe 37
jalup 37
tijego 37
tijewa 37
Manyiso 37
adhiya 37
Ghana 37
siemowa 37
58 37
gikanyono 37
nodag 37
winjruokni 37
onyos 37
Photo 37
nyarombo 37
omo@@ 37
otieg 37
ojiwwa 37
done 37
Sikuru 37
weyonegi 37
ome@@ 37
yomyom 37
Nineve 37
Jolweny 37
monyosore 37
weyogi 37
opondo 37
dalagi 37
won 37
Samson 37
kiya 37
chiere 37
9@@ 37
c@@ 37
hema 37
sayo 37
otin 37
migepego 37
iromo 37
hum 37
Jezebel 37
chwany@@ 37
kno 37
iru 36
taya 36
tekoni 36
boche 36
awo 36
japuonj@@ 36
nowil 36
jir@@ 36
erogo 36
moyudo 36
chikni 36
pekgo 36
97 36
nochokore 36
Bulgaria 36
ari 36
yoni 36
mopa 36
tembego 36
lich 36
Bedell 36
KO 36
Aneno 36
Jalo 36
Japuonjre 36
Moscow 36
ayogi 36
jasik 36
los 36
Nikodemo 36
chandi 36
temoga 36
bedonegi 36
nyal@@ 36
nach@@ 36
iwuoyoe 36
udhi 36
Ekle 36
rogi 36
sand@@ 36
olam 36
dwachgi 36
awuoyo 36
Jesse 36
Her 36
78 36
Loso 36
dendwa 36
mayoreyore 36
nolal 36
gope 36
DO 36
koyo 36
chgi 36
eg 36
osemedo 36
aluwa 36
were 36
iseg@@ 36
mori@@ 36
su@@ 36
ywago 36
buon 36
parou 36
gijo@@ 36
wasike 36
oum 36
mirimb 36
dewa 36
okan 36
maga 36
ohera 36
nyalone 36
nowuoyoe 36
tow 36
ie@@ 36
chwor 36
mawinjore 36
nokethore 36
yieni 36
Mwaka 36
chiwonegi 36
wang’iyo 36
ketonegi 36
chwanyore 36
nyis@@ 35
89 35
mochan 35
osiepwa 35
Nafwenyo 35
walend 35
nenowa 35
osing@@ 35
opi@@ 35
yal 35
kochomo 35
Josephus 35
makendeno 35
ogen 35
abi@@ 35
notelo 35
mihero 35
Gil@@ 35
et 35
mise@@ 35
ochue 35
kara 35
loyogi 35
limogi 35
gipogore 35
onano 35
dhwa 35
Biblia 35
akgo 35
bede 35
Masira 35
chwanyowa 35
gal@@ 35
nosekalo 35
osewuo 35
wat@@ 35
pichni 35
noket@@ 35
Myanmar 35
kopi 35
wedeni 35
oherogo 35
GIK 35
miri@@ 35
jondik 35
nochoko 35
maparo 35
ale 35
De@@ 35
otwe 35
jok@@ 35
opuonje 35
ge@@ 35
ul 35
Ur 35
timoreni 35
Bad 35
sinemano 35
gimako 35
Le@@ 35
penjoni 35
MATH 35
gwel@@ 35
Version 35
geche 35
kawogi 35
nad@@ 35
wenge 35
morogi 35
jor@@ 35
berie 35
ginono 35
Parruok 35
ogero 35
jap@@ 35
giher 35
isik 35
jotim 35
korito 35
gimany 35
Jachiwo 35
lwoko 35
Ta@@ 35
Mamalo 35
tok 35
isi@@ 35
thi 35
giluoro 35
idak 35
ohore 35
tieg@@ 35
wachano 35
godiechieng 35
oikre 35
Richard 35
otur 35
miketo 35
inyuolo 35
pekno 35
99 35
dich 35
Many 35
yier@@ 34
Kar@@ 34
● 34
wit 34
none 34
Tiego 34
lamogi 34
Profesa 34
America 34
Mamor 34
guedhowa 34
gasedno 34
odew 34
Kawo 34
onyis@@ 34
chiewo 34
sun@@ 34
nodongo 34
wegi 34
MADUONG 34
obatiswa 34
tek@@ 34
kiwuok 34
1995 34
Non@@ 34
Was@@ 34
ogwedho 34
wahore 34
giluor 34
Goyo 34
ong@@ 34
Lok@@ 34
timuru 34
moher 34
Rituru 34
pondo 34
monogi 34
geng’@@ 34
so@@ 34
ibatiso 34
Lefèvre 34
oter@@ 34
machop 34
molal 34
1900 34
uwo 34
ogoye 34
dhi@@ 34
dola 34
wamakre 34
giked 34
Vijana 34
Jat@@ 34
Te@@ 34
Jonabi 34
sei 34
ruokna 34
Tuvalu 34
onyisgi 34
Eli 34
Rombe 34
gonyo 34
oho@@ 34
eya 34
wabedogo 34
hogo 34
oniang 34
maliet 34
isando 34
Jeroboam 34
lith 34
wuog 34
gichiw 34
sa@@ 34
isetimo 34
Pennsylvania 34
enda 34
mang’@@ 34
igo 34
Alex 34
orene 34
chegi 34
manye 34
Sirkal 34
ong’ad@@ 34
Ana 34
nowang 34
noyi@@ 34
ofwen@@ 34
moloko 33
nyara 33
wasud 33
sum 33
faras 33
PA@@ 33
chie@@ 33
nyathina 33
aikora 33
ofwenyore 33
kothi 33
Pa@@ 33
uonge 33
openj 33
eng@@ 33
jatimo 33
DWOKO 33
oh@@ 33
Habakkuk 33
oku@@ 33
ketoe 33
LI@@ 33
giting’o 33
nyuol@@ 33
SI@@ 33
omul 33
BIRO 33
rwakogi 33
nang’ado 33
ung’e 33
ago@@ 33
chandowa 33
kanyaklagi 33
Nowuoyo 33
monwa 33
kethe 33
digni 33
kalatas 33
2004 33
sanamu 33
giwinjore 33
ochikwa 33
gwedhowa 33
nobedoe 33
ogwel 33
CH 33
Owadwano 33
gombowa 33
uono 33
Antiokia 33
odwok@@ 33
wamak 33
Jatend 33
BEDO 33
paroga 33
miparo 33
Nobedo 33
kes 33
moting’ore 33
Austria 33
asepuonjora 33
apuonjra 33
jare 33
tija 33
EN@@ 33
dware 33
Anthony 33
Huuliza 33
achak 33
otie@@ 33
dimi 33
nong’iyo 33
nobedogo 33
orit@@ 33
herogi 33
Ise@@ 33
nyiero 33
tungni 33
wadog 33
Canada 33
ombo 33
ikwano 33
ojok 33
Jopainia 33
awachonu 33
wachoga 33
onyuol@@ 33
Testament 33
Thothne 33
Ngimani 33
jachuoyo 33
kanyaklago 33
manyoso 33
Kitimo 33
lilo 33
oyienegi 33
ringrewa 33
notero 33
Holy 33
ojiwe 33
59 33
2006 33
Portugal 33
walok 33
Mayudore 33
mariwo 33
ik 33
pwod@@ 33
iloso 33
Nabal 33
nochike 33
fuonde 33
Mashahidi 33
warem 33
puonjogo 33
Fil 33
sitima 33
niwira 33
gigombo 33
kethowa 33
morwako 33
Timuru 33
miyudo 33
wale 33
simu 33
nolendo 33
intanet 33
ores@@ 33
way@@ 33
odhiye 33
gid@@ 32
bade 32
wamako 32
gene 32
olocho 32
oma@@ 32
orite 32
nogombo 32
wachandore 32
nolimo 32
Pen@@ 32
wakwong 32
chno 32
iseyudo 32
JO 32
ameda 32
Kaleb 32
gone 32
150 32
oyude 32
ami 32
Dinde 32
D 32
Wane 32
wachna 32
olame 32
otero 32
koneno 32
karwa 32
Mamit 32
wamiye 32
puodhono 32
kitimo 32
Malawi 32
Hosea 32
giduogo 32
yudi 32
kotemo 32
ondikie 32
1999 32
INYALO 32
ling’ling 32
kilo 32
rawerano 32
bengi 32
pap 32
Nyinge 32
mosechiwore 32
item 32
pinyruodhe 32
uonjo 32
momako 32
ong’won@@ 32
Soko 32
yudogo 32
wuothi 32
zi 32
fun@@ 32
opog 32
chwowo 32
bero 32
Nang’eyo 32
Yor 32
Apar 32
ut@@ 32
oketa 32
hiny 32
ala 32
ng’ad@@ 32
gijiwo 32
akony 32
NGIMANA 32
chalgi 32
ongima 32
Ukraine 32
ner 32
isom 32
wamanyo 32
kwayowa 32
kuong’ruok 32
woro 32
oywa@@ 32
gichiegni 32
jodongogo 32
eyogo 32
luth 32
oduok 32
ichop 32
ofuko 32
147 32
Is@@ 32
noguedho 32
omon@@ 32
katimo 32
osieko 32
yudoga 32
richogo 32
ochiero 32
Nyasachu 32
nd@@ 32
osiep@@ 32
94 32
wanano 32
dwarono 32
bungu 32
okwan 32
Jokwath 32
oyawo 32
ichiko 32
ruodhno 32
Ruodhe 32
nopimo 32
ong’won 32
jatijno 32
temno 32
aki 32
inyise 32
1930 32
gisel@@ 32
Mage 32
ketore 32
notego 32
endi 32
Chop 32
lojno 31
itimoe 31
nong’ad@@ 31
chwalo 31
ochango 31
Gocho 31
nal@@ 31
silili 31
yor@@ 31
Nabedo 31
ondike 31
diko 31
land 31
wadonjo 31
momi 31
walam 31
chandogi 31
moyiero 31
arita 31
Pi 31
chiro 31
Ra@@ 31
P 31
wariwore 31
pige 31
DE 31
Mbaka 31
keny 31
nadwaro 31
Res@@ 31
mohere 31
oyudore 31
baba 31
riti 31
onyiswa 31
malaikene 31
gitem 31
gitindo 31
dendgi 31
omakre 31
make 31
pwoyo 31
Yud 31
opuonja 31
penja 31
WACHO 31
gimanyo 31
ili@@ 31
ng’a@@ 31
Wuoru 31
to@@ 31
kindawa 31
Pinyruodhi 31
res 31
rikni 31
mang’ula 31
penji 31
otera 31
607 31
konyisogo 31
thiedho 31
okuyo 31
Nyathi 31
Ratiro 31
romono 31
at 31
herogo 31
ngas 31
Medo 31
hinyogi 31
Skund 31
105 31
joutegi 31
alore 31
chilo 31
Ing’eyo 31
yango 31
et@@ 31
embo 31
wangima 31
awuoro 31
ritore 31
atu@@ 31
josiasa 31
ilero 31
68 31
wake 31
wagolo 31
gimi@@ 31
dalane 31
lewwa 31
otimie 31
.@@ 31
hul 31
nying’no 31
watiyone 31
timbeni 31
mowalgo 31
nobe@@ 31
gikalo 31
oseng’eyo 31
okwaye 31
timbena 31
wagol 31
ea 31
F 31
Wat@@ 31
kawowa 31
manyienni 31
iwuo 31
chopi 31
sin@@ 31
600 31
itu@@ 31
ogik 31
opuonjwa 31
owachonegi 31
WUO@@ 31
Ketho 31
owenwa 31
jomahundu 31
chuna 31
um 31
koketo 31
osedak 31
Kedo 31
wadwoko 31
hon@@ 31
matamre 31
mokadho 31
Kinyne 31
bwonjo 31
konyisogi 31
Notiyo 31
kumo 31
oyudowa 31
bedni 31
1955 30
kanyono 30
jopuonj@@ 30
wok 30
Kwayo 30
holo 30
mafuta 30
Marcus 30
duong’ie 30
mapiny 30
MOAE 30
gilend 30
med@@ 30
Ohio 30
jon@@ 30
modhi@@ 30
abiriyogo 30
chul@@ 30
ng@@ 30
osingi 30
pa@@ 30
Gichiwore 30
awuok 30
welogo 30
wuodgi 30
nowachono 30
LUKA 30
opog@@ 30
gikwedo 30
Josayans 30
mbakano 30
gibet 30
mobet 30
moyiedhi 30
masiro 30
yonegi 30
kre 30
1940 30
Winj 30
wech@@ 30
biroga 30
Anania 30
Jomotho 30
wuowino 30
bar@@ 30
masi@@ 30
wanonre 30
rati@@ 30
kis@@ 30
noya@@ 30
f 30
Unyalo 30
riw@@ 30
giwuokie 30
mes@@ 30
nomanyo 30
Zef 30
noherogo 30
herowa 30
ith@@ 30
gidar 30
jolos 30
omono 30
many 30
momiye 30
der@@ 30
jochir 30
osemiya 30
timorega 30
limowa 30
Si@@ 30
Manasse 30
udwaro 30
Zefania 30
BE@@ 30
ula 30
Mosmos 30
mbe 30
Maru 30
eny@@ 30
maberni 30
nyap 30
ugwe 30
enono 30
Golo 30
wuodeno 30
otayi 30
alworane 30
Pesa 30
mali@@ 30
konygi 30
okende 30
AL@@ 30
woko 30
ergo 30
iloko 30
wilgo 30
nokwa@@ 30
iwinj 30
herawa 30
ue 30
ng’ar 30
giti@@ 30
LO@@ 30
Barua 30
matinno 30
Her@@ 30
uma 30
Korea 30
Switzerland 30
waseyudo 30
uor 30
oseloko 30
somogi 30
mawendo 30
mtokano 30
nodar 30
dgo 30
kne 30
omb@@ 30
motamore 30
Bwo 30
nokendo 30
Asaf 30
wuodh 30
giuru 30
goro 30
im 30
nosing@@ 30
Lit 30
gikelo 30
Donjo 30
walos 30
giwa 30
ong’anyo 30
iti@@ 30
oramo 30
jomakare 30
fuoni 30
ochalo 30
por 30
nobolore 30
jom@@ 30
oik 29
naweyo 29
oseketho 29
nogo 29
kwedowa 29
Chi 29
riwe 29
marwako 29
Martin 29
kone 29
gno 29
jamiriambo 29
janek 29
giwuotho 29
jas@@ 29
KOD 29
singruogno 29
dwa@@ 29
kuro 29
noti@@ 29
odeko 29
Websait 29
noluor 29
OR@@ 29
uol 29
Gueth 29
bir@@ 29
kethone 29
galo 29
oelo 29
nopar@@ 29
Konyowa 29
ogol@@ 29
oriwre 29
mb 29
nosomo 29
aw 29
ichak 29
rieyogi 29
hogi 29
é@@ 29
nochomo 29
U 29
tel@@ 29
oteno 29
andore 29
uduto 29
chiwogo 29
bet@@ 29
bidhruok 29
111 29
jaot 29
enore 29
Mor@@ 29
akwongo 29
ap 29
oor@@ 29
rom 29
Nenre 29
2,@@ 29
koluwo 29
ong’eye 29
Tembe 29
Encyclopedia 29
Wan@@ 29
Noneno 29
yowago 29
openja 29
Biuru 29
dewi 29
Don 29
jatuwo 29
maluwore 29
Osiepwa 29
ochamo 29
Wiye 29
wanyis@@ 29
chode 29
Bill 29
ind 29
mang’we 29
hignigo 29
enegi 29
wie 29
Kiwacho 29
oteg 29
Mabiro 29
winyo 29
TV 29
ro 29
andi 29
Wachore 29
dwok 29
owago 29
malaikego 29
Jak@@ 29
mie 29
osetimonwa 29
dewe 29
Nor@@ 29
Nya 29
Ber@@ 29
yugi 29
siemo 29
dewogi 29
anjo 29
Adek 29
ania 29
chandruogegi 29
lwetwa 29
Jachiw 29
kiye 29
Jal@@ 29
wi@@ 29
johigni 29
girwak 29
tay@@ 29
Karang’o 28
tuore 28
tin@@ 28
kochopo 28
Jaduong’no 28
mawuotho 28
uparru 28
oidho 28
jong’ayi 28
ting’ne 28
dalawa 28
osekonyi 28
Owetewa 28
oke 28
waritre 28
Gabriel 28
nonyis@@ 28
puonjge 28
mokelo 28
jonyuolu 28
El@@ 28
CHIWO 28
Ecuador 28
jokolpota 28
giriwore 28
olu@@ 28
git@@ 28
isewinjo 28
Amalek 28
RA@@ 28
wuondowa 28
2005 28
ER 28
wanyagre 28
UO@@ 28
nowach@@ 28
teknoloji 28
ongego 28
yienegi 28
owachone 28
Jachwechgi 28
Asebedo 28
nokete 28
hu@@ 28
Bezalel 28
wachwanyore 28
gich@@ 28
nochayo 28
mokethore 28
wech 28
okony@@ 28
jany@@ 28
epo 28
ng’enyie 28
Kamoro 28
ogole 28
ionge 28
onyagre 28
kweregi 28
gigol 28
makwedo 28
Ad@@ 28
mokudh 28
motiyogo 28
Yor@@ 28
wuodhgi 28
ogandagi 28
nyisore 28
amb@@ 28
Mochwere 28
Watimo 28
okwed 28
osand 28
Wiya 28
malogo 28
Kazi 28
Megiddo 28
owach@@ 28
Dho@@ 28
chen@@ 28
watine 28
DI@@ 28
apenje 28
up@@ 28
wari@@ 28
mochiw 28
jabedo 28
thoe 28
RUMI 28
jatichni 28
Sud 28
goyone 28
chun 28
Apoya 28
fwenyore 28
kuo@@ 28
Sinai 28
gipenjo 28
kitwa 28
Hab 28
otine 28
osekadho 28
adierano 28
oloye 28
oduto 28
fundi 28
Ro@@ 28
2015 28
maliel 28
kwatiyo 28
osedonjo 28
dwarowa 28
oketonwa 28
sandogi 28
Kum 28
Singo 28
wara 28
osebedoe 28
konygo 28
aluf 28
noket 28
ting’@@ 28
osega@@ 28
tueyo 28
nosayo 28
kwe 28
IUD 28
gikedo 28
sawo 28
gisepuonjore 28
ju@@ 28
wache 28
Jawinj 28
nonano 28
wino 28
omanyo 28
makendeni 28
jomadongo 28
nomigi 28
chiwone 28
st@@ 28
Nal@@ 28
Ruodhgi 28
lima 28
tekne 28
omora 28
nomoro 27
Efraim 27
Stephen 27
gilos 27
Hans 27
ime 27
Tuwo 27
gikwongo 27
ahango 27
geni 27
1990 27
oting 27
oya@@ 27
gang’o 27
Muolo 27
MAN@@ 27
ile 27
giwuoro 27
NG’@@ 27
kaloe 27
nosen@@ 27
jab@@ 27
kitap 27
malerno 27
pa 27
watamre 27
mipuonjo 27
aol 27
Nations 27
nobie 27
malaikano 27
Machiegnini 27
fu 27
oywago 27
berne 27
terowa 27
minyiso 27
ho 27
Motelo 27
oseloso 27
tuo@@ 27
nokelone 27
ame 27
chochni 27
apenjo 27
ibari 27
oseniang 27
amed 27
tieg 27
jagach 27
Kodok 27
Apollo 27
jamwandu 27
W 27
Turkey 27
jachia 27
machopo 27
atamora 27
uo 27
pare 27
map 27
madh 27
Daher 27
nohere 27
Madagascar 27
nyima 27
Loyo 27
Gin@@ 27
WE@@ 27
ikwayo 27
Cho@@ 27
Wanon 27
pokgi 27
adekgi 27
manosingi 27
Sanhedrin 27
Steve 27
kedogo 27
miwachoe 27
eu 27
rawarno 27
ela 27
asetimo 27
owinjre 27
alendo 27
nena 27
California 27
Gehazi 27
chuodho 27
luwre 27
marachar 27
onyisgo 27
TH@@ 27
komakore 27
sir@@ 27
AN 27
maduong’ni 27
Jandiko 27
thothwa 27
olamo 27
nohango 27
thie@@ 27
jomabeyo 27
thgi 27
nowinj 27
Misango 27
chich 27
tuon@@ 27
ohul 27
tur 27
Timore 27
richoni 27
jorotenge 27
Babel 27
Ng@@ 27
ochikogi 27
nyiminene 27
ocha 27
chido 27
mabedo 27
wang’eye 27
ogeng 27
nochiw 27
moseyudo 27
ha 27
Sin@@ 27
kanyiso 27
oluore 27
waler 27
okecho 27
ondikgi 27
rom@@ 27
Ufalme 27
92 27
wog@@ 27
riwogi 27
lwetene 27
Septuagint 27
ose 27
nyikwa 27
mokorgo 27
ruokgo 27
gol@@ 27
miyo@@ 27
iyogo 27
noka@@ 27
1949 27
Magog 27
Nowachonegi 27
67 27
URU 27
jowasikgi 27
Andrea 27
resogi 27
isega@@ 27
ali 27
obednegi 27
opuonjgi 27
okwako 27
itayo 27
ng’enygi 27
pop 27
chni 27
cha@@ 26
nopwoyo 26
lweti 26
dereba 26
1956 26
motwo 26
namedo 26
osir 26
ong’ol 26
gurore 26
mwalando 26
rangach 26
kaok 26
Emlyn 26
Hagar 26
parowa 26
nyange 26
gilem 26
mokwako 26
nopuonja 26
tan@@ 26
opodho 26
oketi 26
oore 26
pachu 26
oselokore 26
resowa 26
ad 26
fut 26
nar@@ 26
wor 26
medruok 26
ese 26
jagoro 26
wonwa 26
ohelni 26
ag 26
togo 26
anga 26
NI@@ 26
kuodo 26
War@@ 26
riekoni 26
heragi 26
Nawinjo 26
watang’go 26
nowuondo 26
ilando 26
mool 26
Benin 26
adag 26
Sarah 26
Jokanyo 26
kwalo 26
okethre 26
nochiwono 26
mosemiyo 26
CHI@@ 26
2001 26
6,000 26
kobet 26
dong@@ 26
1800 26
yego 26
otimoreno 26
Mak@@ 26
chandruogewa 26
top 26
duka 26
Keturu 26
mwadakieni 26
ogeng’@@ 26
dag 26
Maonge 26
bedona 26
ginenore 26
ayiero 26
Young 26
Madwarore 26
75 26
wanyagore 26
gichomo 26
Abigail 26
muoch 26
kute 26
Kapod 26
ith 26
kanono 26
Makende 26
ginyisa 26
timnwa 26
hango 26
Joodwa 26
idonj 26
yieng 26
gigegi 26
Jim 26
giringo 26
awiye 26
imany 26
heri 26
aka@@ 26
ihinyo 26
thung’o 26
fu@@ 26
lim@@ 26
Pinyni 26
opidho 26
Mogik 26
machiko 26
otue 26
walimo 26
Library 26
Ob@@ 26
riwruogno 26
orogi 26
mbeseni 26
nodewo 26
waka 26
wasumb 26
kwayogi 26
wuondi 26
mahero 26
1958 26
ogwelwa 26
gichiemo 26
J 26
jatij 26
rwakowa 26
obetie 26
Chieng’no 26
mamokogo 26
nyuo@@ 26
adres 26
ong’i 26
genono 26
Tang 26
winja 26
wasen@@ 26
god@@ 26
Tuoche 26
nowachona 26
ochando 26
wajiw 26
wel 26
tinna 26
Antonio 26
wakogi 26
ruo@@ 26
wanie 26
Per@@ 26
ongo 26
136 26
otimono 26
zaburino 26
19@@ 26
ofiswa 26
mokwongogo 25
ISA 25
awera 25
dabed 25
otanda 25
ring@@ 25
nogwedho 25
tiyoe 25
ginyuolo 25
mad 25
Gimiwuoro 25
dw@@ 25
dwachwa 25
ketowa 25
wadew 25
Ji@@ 25
Ke@@ 25
king’eyo 25
malame 25
ginidagie 25
udo 25
imiyogi 25
onyag 25
omak@@ 25
Tony 25
ung@@ 25
owetena 25
mosekonyo 25
oseyie 25
inyagri 25
NYIM 25
omoko 25
RO@@ 25
chiwe 25
Gitimo 25
MAK@@ 25
1931 25
800 25
Ting 25
mochando 25
chenrogo 25
atima 25
richou 25
watony 25
ofisno 25
osebatisi 25
United 25
akendo 25
makori 25
oloch 25
nenoga 25
Gehenna 25
ang’i 25
kobiro 25
obadhono 25
jopuonjrego 25
Omiyowa 25
ohulo 25
didek 25
yaw 25
ding’eny 25
ade@@ 25
Lustra 25
ginie 25
ikonyo 25
noelo 25
rabora 25
ochiere 25
dhu 25
lit@@ 25
wuoru 25
irwako 25
Ash@@ 25
gidong 25
,000,000 25
Og@@ 25
1953 25
gilam 25
girkeni 25
Soviet 25
WI 25
bare 25
Keyo 25
wantie 25
Nigi 25
Joge 25
jonyuolgo 25
paw 25
pak@@ 25
nyige 25
ruodhgi 25
waro@@ 25
jawinjo 25
tem@@ 25
mondikie 25
Car@@ 25
ogurore 25
si 25
MAMOKO 25
enyiso 25
omoni 25
mirimbe 25
gihinyo 25
mbom 25
Gary 25
donjone 25
2002 25
kindewa 25
dhoe 25
embe 25
end 25
Thesalonika 25
chenroni 25
Dhakono 25
openji 25
NITIE 25
ojiwa 25
jali 25
wachogo 25
temruok 25
munyalo 25
osechier 25
mob@@ 25
wuora 25
mwanduwa 25
iher 25
otimonwa 25
onygi 25
Nyak 25
nokok 25
pen@@ 25
mosetiyo 25
NYALO 25
kale 25
tielo 25
gologi 25
osekonyogi 25
Tract 25
onindo 25
resi 25
IA 25
kesno 25
kwaluwo 25
noluonge 25
wuoche 25
okil 25
Mon@@ 25
hoye 25
hembe 25
116 25
900 25
Creation 25
gitimogo 25
jaritno 25
dindego 25
iy@@ 25
chiwori 25
luwogo 25
118 25
nomi@@ 25
osebiro 25
tienge 25
olowa 25
yware 25
degi 25
Mu@@ 25
gibolore 25
St@@ 25
Matut 25
sunagoke 25
Nodhi 25
onwago 25
makelonwa 25
Jael 25
Pogruok 25
gou 25
anyisogi 25
wilo 25
moseketo 25
10@@ 25
enre 25
maka@@ 25
Finehas 25
gidew 25
wori 25
owalgi 25
tonde 25
Pontio 25
C 25
joidh 25
1970 25
Locho 24
noke@@ 24
wgo 24
kwonde 24
tine 24
kendorego 24
eng’ado 24
rene 24
tinne 24
inego 24
mochung’ne 24
Ing’ado 24
gwedhi 24
wawere 24
len@@ 24
nyiminena 24
donjoe 24
g’o 24
nodoko 24
mapuonjo 24
adieri 24
aweya 24
woni 24
ndiri 24
tekie 24
owene 24
chiembwa 24
nyarwa 24
yon@@ 24
iwach 24
kwelo 24
udh 24
gwethgo 24
nosingore 24
noseneno 24
joadier 24
timona 24
olochi 24
osingore 24
jiwogo 24
kobedo 24
nap@@ 24
rang’i 24
oresgi 24
ohinyore 24
owit 24
erie 24
Wich 24
dhore 24
Winj@@ 24
ruogego 24
bed@@ 24
ochun 24
onen@@ 24
ming’eyo 24
noseng’ado 24
irgi 24
oriti 24
gimiwuoro 24
wapuonjorego 24
wachoe 24
Nojiwo 24
tago 24
inyisowa 24
ting’wa 24
wenwa 24
ogene 24
nowe 24
lueny 24
okelone 24
nolocho 24
Gineno 24
Komunist 24
chuma 24
notu@@ 24
Ho@@ 24
mimiyo 24
ogundho 24
kich 24
imanyo 24
wasin 24
yierono 24
1943 24
10,000 24
1922 24
irit 24
Ripot 24
jower 24
notony 24
nosewacho 24
Nonyisogi 24
ywayowa 24
lokruogego 24
ratego 24
At@@ 24
obe@@ 24
gitine 24
jopuonjrewa 24
noywak 24
ugo 24
gitayo 24
kwachung 24
Jomage 24
oreswa 24
karadali 24
Monego 24
Kweth 24
wuond@@ 24
miechgi 24
GI@@ 24
riwruokwa 24
Jali 24
olose 24
lendoe 24
utewa 24
osara 24
tamre 24
magin 24
Praetoria 24
gintie 24
ep@@ 24
ranyisigo 24
keti 24
1952 24
Kech 24
ogore 24
bilionde 24
Kuno 24
aksident 24
osenenore 24
odho 24
mochomo 24
Nebukadereza 24
Akula 24
French 24
95 24
ngimano 24
gib@@ 24
Megan 24
mosel@@ 24
Ndikogo 24
pur 24
mosokore 24
agulini 24
machien 24
Jag@@ 24
batis 24
nochueyowa 24
pes@@ 24
jakuo 24
oyiere 24
hinyre 24
JOMA 24
endni 24
maua 24
kanyalore 24
wakore 24
malando 24
Rwako 24
nondi@@ 24
gitimore 24
14@@ 24
makonyogi 24
1513 24
lombo 24
se 24
timogi 24
oyaw 24
dakgo 24
oru@@ 24
any 24
Rose 24
106 24
kuon@@ 24
okwer@@ 24
chiegi 24
odagie 24
kiko 24
gasedewa 24
teknwa 24
otergi 24
mopuonjore 24
honini 24
drama 23
mosomo 23
nolony 23
he 23
otimone 23
Satanni 23
gilo 23
ath 23
osetieko 23
Filisti 23
PET 23
konyorego 23
itine 23
giwach 23
Republic 23
lamone 23
bedoni 23
Arabu 23
okawa 23
mowir 23
arito 23
jomoti 23
hiny@@ 23
kiketo 23
keno 23
dire 23
ichung 23
Simeon 23
kotegno 23
ojwang 23
Kochakore 23
ER@@ 23
kidienje 23
Dwaruru 23
ate 23
yawore 23
ochak@@ 23
kiparo 23
miyou 23
Nini 23
rie 23
tado 23
amanyo 23
riambo 23
Wase@@ 23
edh 23
ONGO 23
laru 23
ahinyo 23
nyas@@ 23
Yahudigo 23
ilendo 23
nenogo 23
gitang 23
okelona 23
Nodwaro 23
Painia 23
osekethore 23
HI@@ 23
tekregi 23
obare 23
gikendorego 23
kiluwo 23
siganano 23
mamawa 23
HIB 23
kaparo 23
Isabel 23
ng’i 23
singogo 23
Ini@@ 23
5,@@ 23
Shirley 23
hell 23
lueta 23
notel@@ 23
jore 23
ggi 23
Nohero 23
gavana 23
batise 23
mayo 23
madewo 23
lem 23
kul@@ 23
aket 23
ohe@@ 23
jowa 23
yandi 23
International 23
mwadwaro 23
wakal 23
opidh 23
ikwa 23
Gise@@ 23
ocho@@ 23
Chuech 23
Keth@@ 23
waparre 23
mus@@ 23
ging’ad 23
wati@@ 23
onyisre 23
mudwaro 23
115 23
omonjo 23
nyargi 23
ojahigni 23
mtok@@ 23
ochop@@ 23
orieyo 23
unyal 23
ng’injo 23
oken@@ 23
Sulano 23
TIM 23
nofwenyore 23
olimo 23
Nero 23
Nyadidek 23
pinyruodhno 23
nonyuol@@ 23
dhie 23
Jos@@ 23
weyogo 23
Hoch 23
Naaman 23
ojwang’o 23
wuodh@@ 23
gikonye 23
noyu@@ 23
asi 23
wona 23
Boaz 23
dendi 23
YIE 23
momigi 23
oywak 23
yaye 23
oweteni 23
wag@@ 23
tugono 23
dhou 23
chungi 23
kiwacho 23
jony 23
mabeyogo 23
Kam@@ 23
lak 23
Bathsheba 23
onde 23
gari 23
Masiche 23
jadhoho 23
mig@@ 23
endgi 23
unyo 23
© 23
King 23
nomiu 23
nyamera 23
ogwele 23
nadhi 23
chiergi 23
turi 23
asno 23
ikwongo 23
Hu@@ 23
modonjo 23
lie 23
gilok 23
odongi 23
Sudo 23
tinende 23
maluwe 23
dno 23
MACHON 23
begi 23
Ranyis@@ 23
ojiwogi 23
change 23
rageng 23
Med 23
osebed 23
Komachielo 23
waketho 23
Ging’eyo 23
gony 23
jotugo 23
gop 23
nomake 23
chalne 23
dhoggi 23
chewa 23
girem 23
oriembo 23
eth 23
5,000 23
wakalo 23
loe 23
gima@@ 23
ginano 23
mwaneno 23
li 23
so 23
libamba 23
konyisa 23
Kindeno 23
ringra 23
7,000 23
Hekalu 23
ure 23
José 23
Nitiere 23
riekono 23
Fweny@@ 23
owe@@ 23
aluw 23
ng’owo 22
wageng 22
enogi 22
hum@@ 22
gitimono 22
wale@@ 22
awach@@ 22
ochok 22
oseloyo 22
kwath 22
opo@@ 22
pichego 22
Maricho 22
madiny 22
rang@@ 22
noser@@ 22
hohono 22
dhand 22
ohand 22
ERO 22
Janabino 22
Nahero 22
sulagi 22
Alice 22
wantiere 22
luwa 22
ginon 22
onj@@ 22
oketh@@ 22
Jach@@ 22
ochiwonwa 22
Raparno 22
wamiyogi 22
waki 22
moger 22
mokawo 22
otel@@ 22
TICH 22
wuodwa 22
tho@@ 22
gintiere 22
jocham 22
marachwich 22
nolor 22
agulu 22
iew 22
Chwech 22
Elizabeth 22
nyawadu 22
chuer 22
kinyne 22
moguedhi 22
nyadi@@ 22
ata 22
inigo 22
0@@ 22
penjowa 22
twe@@ 22
bedene 22
wasikgi 22
okawe 22
ENO 22
ombe 22
Paolo 22
yotna 22
lamogo 22
Majibu 22
misepuonjori 22
kna 22
konywa 22
kembe 22
bunge 22
Li@@ 22
mosingo 22
kou 22
ochwegi 22
Stefano 22
Nyimine 22
nochiwonwa 22
ng’eyogo 22
kegi 22
ober 22
Mag@@ 22
ʹ@@ 22
omoro 22
giy@@ 22
1941 22
CHIENG 22
S 22
mowach 22
Barupe 22
motenore 22
kwere 22
osekonye 22
pake 22
MO 22
DA 22
makre 22
asoya 22
otweye 22
kog@@ 22
nopong’o 22
mab@@ 22
dok@@ 22
JONENO 22
wafweny 22
Christine 22
gitiek 22
mopi@@ 22
agore 22
nong’anjo 22
osego 22
thu@@ 22
uyud 22
Tijno 22
Odhi 22
thurwa 22
oling 22
orum 22
momaki 22
japuonjne 22
Jalno 22
lochoe 22
ong’eyowa 22
god 22
ing’o 22
mewo 22
wuodhene 22
gichalo 22
gorofa 22
1948 22
dog 22
mbeko 22
jowasik 22
Ngeso 22
Eliezer 22
Athene 22
JOMOKO 22
NO 22
oketie 22
98 22
Milambo 22
ilos@@ 22
Margi 22
bugegi 22
dhogo 22
giherore 22
iriwo 22
wayier 22
OT@@ 22
yotnegi 22
asi@@ 22
okore 22
Joseph 22
chung’ne 22
chowa 22
apar@@ 22
dwonda 22
giloyo 22
Hoho 22
kidoni 22
kwatimo 22
jiwore 22
otese 22
chgo 22
orwake 22
websaitwa 22
wuogi 22
nomora 22
loki 22
Winjuru 22
kok 22
uonga 22
fuyo 22
kodong 22
Makonyo 22
nochopi 22
wanyisogi 22
owinj@@ 22
wonegi 22
buo@@ 22
aena 22
tichni 22
Tra@@ 22
thuond 22
notimone 22
Chiko 22
nolos 22
kopo 22
bendera 22
jati@@ 22
reni 22
apaka 22
wadwok 22
chuechne 22
Henry 22
Nyithind 22
molo@@ 22
tayi 22
sibuoche 22
146 22
pogogi 22
nochulo 22
nosud 22
pu@@ 22
Onyiso 22
Jomamoko 22
tiendegi 22
SE@@ 22
lepe 22
Jawar 22
apenjora 22
mitimoe 22
gibare 22
Japuonj@@ 22
HA@@ 22
mowachone 22
parona 22
konyowago 22
adar 22
g’@@ 22
opo 22
wang’u 22
lewini 22
yie@@ 22
timorego 22
noywe 22
ran@@ 22
onwoyo 22
ayowa 22
NONYUOLEE 22
muo@@ 22
nodich 22
alok 22
pim@@ 22
nin@@ 22
api@@ 22
1960 22
timee 22
gwelogi 22
nosingonegi 22
moritore 22
Miriam 22
dhigo 22
tuwoche 22
kwedogi 22
guogi 21
Kingdom 21
ndalowa 21
Wi@@ 21
ami@@ 21
100,000 21
50,000 21
abara 21
Skundno 21
nyagori 21
yonwa 21
Amora 21
ofunj 21
Islam 21
East 21
ochanore 21
imbo 21
profesa 21
ing’ad 21
mothono 21
moyang 21
JW 21
wechenego 21
Ginyiso 21
ijiwowa 21
Pe@@ 21
maye 21
puoyo 21
dobedo 21
Dala 21
Gen@@ 21
Mirima 21
Jodolo 21
koweyo 21
rowerego 21
imiyowa 21
gwedhogi 21
Gasedno 21
land@@ 21
morga 21
mwaromogo 21
katimore 21
onyago 21
tekrewa 21
Jolup 21
wuonegi 21
sp@@ 21
GE@@ 21
Evelyn 21
ajuoke 21
wanyo 21
ayal 21
Kindego 21
dhiuru 21
watimie 21
miwinjo 21
chule 21
Osiep@@ 21
mbo 21
kany@@ 21
ich@@ 21
oweya 21
Welo 21
misengni 21
esa 21
wanindo 21
ondamo 21
Kecho 21
Nigo 21
Paris 21
Europe 21
adne 21
uongogi 21
okwano 21
lor 21
nikod 21
tiege 21
oses@@ 21
owuoro 21
turo 21
nores@@ 21
awinjoga 21
kwer 21
ting’gi 21
oten@@ 21
Ambayo 21
Yafanyayo 21
wasenono 21
via 21
Jopuonj 21
gichano 21
nogwelo 21
Nomiyo 21
wachok@@ 21
osore 21
nolwar 21
kwanno 21
nochamo 21
WO 21
jang’@@ 21
ochiwe 21
nga@@ 21
romb 21
ard 21
sande 21
bwoye 21
Jenny 21
nonwoyo 21
96 21
Rabshake 21
osemiyi 21
Azaria 21
josunga 21
PUONJ 21
opogo 21
owuoth 21
jaland 21
puonjwa 21
kechne 21
odoko 21
osejiwo 21
nyie@@ 21
Kuro 21
baro 21
Mowal 21
wasetiyo 21
yiend 21
hoyogi 21
yud@@ 21
owenegi 21
ili 21
maneno 21
iki 21
nochikogi 21
Iwinjo 21
gombono 21
malocho 21
teni 21
wakwa@@ 21
jatendgi 21
nolandore 21
ai@@ 21
orono 21
Marilyn 21
osiro 21
Mil@@ 21
kethoe 21
DA@@ 21
ichiw 21
Bar@@ 21
ipuonjo@@ 21
gre 21
Ich 21
buora 21
han 21
batisgi 21
chwanyi 21
Nen@@ 21
pes 21
Listra 21
Ibed 21
gitony 21
wadong 21
nakonyi 21
timorenegi 21
oserumo 21
endno 21
oweye 21
Pinyruo@@ 21
wite 21
maromre 21
ligek 21
wora 21
ero@@ 21
Ap@@ 21
wachonu 21
gichiko 21
Linda 21
mohingo 21
oyawore 21
wuondwa 21
nopadre 21
giketh 21
tegi 21
Eduardo 21
Sand 21
Mad@@ 21
chalwa 21
mwaketo 21
gweng’wa 21
gimakre 21
NYI@@ 21
Franz 21
kund 21
Moruru 21
oreni 21
dino 21
chne 21
owuoyoe 21
pwo@@ 21
ahere 21
Nofwenyo 21
ochun@@ 21
boyo 21
tuwore 21
Nyako 21
nomiyi 21
udore 21
rachar 21
giriw 21
johigini 21
watamore 21
giol 21
’@@ 21
dirisa 21
Mak 21
dinno 21
tera 21
karito 21
ging’iyo 21
wadhi@@ 21
Grace 21
Laktar 21
chulni 21
ng’atni 21
ing’iyo 21
motieg 21
kusayo 21
Iwe 21
jonenona 21
Andrew 21
masindno 21
Mesopotamia 21
othonwa 21
Mark 21
pasta 21
nati@@ 21
mwasepuonjore 21
jowasi@@ 20
mayowa 20
Naneno 20
mosebedoe 20
maweyo 20
Bo@@ 20
jarowa 20
Zarefath 20
waher@@ 20
mod@@ 20
mosedak 20
gikonyowa 20
yien@@ 20
adhi@@ 20
konyre 20
ochwalwa 20
wasunge 20
sokini 20
wuonde 20
masichego 20
nochandore 20
fwenyno 20
Wang’@@ 20
koroni 20
ogeng’o 20
G’@@ 20
OSE@@ 20
wabolre 20
isefwenyo 20
nyaloni 20
ZABURI 20
79 20
horruok 20
wachamo 20
nonyal 20
wengene 20
Filemon 20
gombogo 20
Anne 20
herore 20
yieno 20
Marachno 20
MANO 20
kawoga 20
bal@@ 20
nochue 20
asayi 20
grubno 20
x@@ 20
Israelgo 20
BED 20
oloki 20
otime 20
Konyi 20
tabanakel 20
Chu@@ 20
nyim@@ 20
altar 20
PARO 20
weyore 20
ipenjori 20
oma 20
ajawinjo 20
Barr 20
1974 20
nosingone 20
> 20
wang’ogi 20
osekayo 20
chandruogno 20
aoche 20
Yier 20
jolwenygo 20
dwokogo 20
maki 20
ywagore 20
nyadhi 20
ketgi 20
Uhai 20
ochuer 20
Owetego 20
bor@@ 20
bo 20
loch@@ 20
wiro 20
jagol 20
worego 20
makel@@ 20
jodin 20
Chung 20
otimnu 20
wey@@ 20
dowa 20
oketgi 20
Jiwo 20
-⁠ 20
kendu 20
gitiyone 20
Mel@@ 20
emba 20
mowinjorene 20
yaro 20
Midian 20
Wasik 20
uolo 20
uoko 20
Chalo 20
lwand@@ 20
pigno 20
1994 20
kampenno 20
uwuo 20
Rohono 20
Roald 20
mwaherogo 20
rude 20
atieko 20
nde@@ 20
ilos 20
fwenye 20
Allen 20
Giwegi 20
akie 20
ochoch 20
isandogi 20
kopuonjo 20
giuso 20
ong’ur 20
chuoyo 20
neg@@ 20
konyno 20
Miriambo 20
thor 20
chwer 20
kora 20
idewo 20
san 20
owuond 20
Waseneno 20
gisiki 20
dal@@ 20
chokruogegi 20
1980 20
kechogi 20
onen 20
waji@@ 20
matiyone 20
NGE 20
tewa 20
ogo@@ 20
openjore 20
tweyo 20
miyogo 20
Ngimawa 20
bonyo 20
kwarwa 20
baraf 20
otas 20
ihere 20
giseneno 20
Minyalo 20
Shinto 20
luo@@ 20
kitundu 20
laro 20
aling’a 20
kwayono 20
ruoge 20
Fiji 20
ming’@@ 20
une 20
opidhe 20
gikwa 20
ware 20
bedowa 20
mochiel 20
hul@@ 20
77 20
chunyno 20
Oneno 20
chwori 20
ogundhoe 20
rieye 20
ilemo 20
for 20
machwok 20
Katabed 20
nino 20
note@@ 20
ce 20
osekoro 20
nyimgi 20
paronegi 20
ginyisowa 20
neg 20
ubedo 20
owinje 20
jokuoge 20
Britannica 20
Nya@@ 20
owuondo 20
Modhiambo 20
Kon@@ 20
Jaoda 20
orieye 20
uluor 20
Chunygi 20
Warwick 20
oyombo 20
85 20
iketri 20
chope 20
inyuo@@ 20
ng’awa 20
omed@@ 20
isel@@ 20
ting’e 20
onene 20
tam@@ 20
olor 20
otimoreni 20
1947 20
Chiege 20
ACHIEL 20
Aseyudo 20
okombe 20
noj@@ 20
oora 20
nohoyo 20
Pacific 20
jomecho 20
notimoreno 20
yuak 20
fweny@@ 20
TOKE 20
ogwela 20
Jachwechni 20
Sing@@ 20
lamuru 20
amiyo 19
chenrowa 19
Zedekia 19
eri@@ 19
gidagi 19
Chok@@ 19
tiuru 19
luongogi 19
okiya 19
okuo@@ 19
mwawacho 19
Wabed 19
kwayi 19
itime 19
awuo 19
watne 19
nomonjo 19
lego 19
modhierore 19
Lo@@ 19
jaberno 19
eyi 19
tiegowa 19
emie 19
ochwanyore 19
Chwore 19
japen@@ 19
penjoga 19
nyawadwa 19
Kitiyo 19
Carol 19
kikwayo 19
Zion’s 19
osayo 19
teme 19
Jon@@ 19
thung’@@ 19
jayal 19
mbekni 19
DUTO 19
anami 19
waherogi 19
iter@@ 19
143 19
Yes@@ 19
andogi 19
20@@ 19
Gadier 19
waloso 19
dhiang 19
namor 19
taye 19
4,000 19
muko 19
wod@@ 19
Tek 19
au@@ 19
wasikwa 19
bisop 19
Pidho 19
brosuano 19
BU@@ 19
noseny@@ 19
dhinwa 19
kuo 19
gigene 19
Gini@@ 19
moherore 19
Protestant 19
owere 19
DE@@ 19
gilalo 19
ruodhigo 19
opuonjowa 19
jokaruoth 19
pewe 19
Joana 19
1997 19
ketogo 19
Dewo 19
morno 19
giherogo 19
chikna 19
machielono 19
obor 19
bowa 19
Mama 19
Baba 19
gor@@ 19
alode 19
mara@@ 19
nokorgo 19
chiew 19
isowa 19
Con@@ 19
nyithin@@ 19
Swahili 19
Union 19
yago 19
wruok 19
nowach 19
wachomo 19
1946 19
dhno 19
antie 19
ochwanyi 19
nong’ad 19
nonyuo@@ 19
adundo 19
Ab@@ 19
kodh 19
Joland 19
ring 19
Y 19
konyo@@ 19
1993 19
Kingsley 19
Diher 19
Penjono 19
Ogandano 19
Yawuo@@ 19
giwuog 19
otayowa 19
sende 19
Sea 19
Owuoyo 19
IS@@ 19
batisi 19
Hi@@ 19
osekelona 19
engni 19
osebet 19
komor 19
Sennakerib 19
wana@@ 19
rese 19
Ok@@ 19
migolo 19
nas 19
Wap@@ 19
leko 19
nopuonjogi 19
Dublin 19
osewinjo 19
wajiwo 19
nyadidi 19
uong’@@ 19
ingora 19
MBA 19
michgo 19
olim 19
Lando 19
wachik 19
Obedo 19
marachie 19
maket 19
TE@@ 19
Janyuol 19
Sandra 19
mwasen@@ 19
rie@@ 19
nowachi 19
mogurore 19
ibedi 19
sandore 19
omaka 19
by 19
ergi 19
uti 19
gipenje 19
thogo 19
dawa 19
mwofu 19
gichamo 19
ndaloni 19
apuonjo 19
winjoe 19
mwadakiegi 19
Tiegruok 19
chalona 19
Sydney 19
Su@@ 19
1957 19
Ryan 19
wanenogo 19
maduogo 19
jori@@ 19
Priskilla 19
mokwongono 19
idag 19
ngech 19
Wycliffe 19
enoga 19
hekaluno 19
Herano 19
oromogo 19
GIMOMIYO 19
jolwenj 19
odewi 19
mwanyiso 19
ikonye 19
gidog 19
NGIMA 19
ogwedh 19
aloe 19
Nochiwo 19
ginibedi 19
okorgo 19
Jagach 19
Warruok 19
salut 19
tuomore 19
nopuonjowa 19
akor 19
gitero 19
mopong’o 19
Uria 19
Chunye 19
Eureka 19
Lamek 19
Nad@@ 19
76 19
birone 19
mitiyo 19
dia 19
kocha 19
wachgi 19
1991 19
Riw@@ 19
Mumago 19
ging’eyi 19
bada 19
anoe 19
koting’o 19
akwaye 19
101 19
Nyithin@@ 19
nyuolne 19
Win@@ 19
noma@@ 19
Dwe 19
gichando 19
TH 19
WIN@@ 19
kwako 19
okwan@@ 19
Cha@@ 19
kir@@ 19
wachando 19
batisa 19
mosedonjo 19
kee 19
orenegi 19
aywak 19
lawe 19
oheroga 19
notimogo 19
chalna 19
wanon@@ 19
iherori 19
omore 19
omaki 19
nochuer 19
kawa 19
omb 19
knegi 19
doni 19
remba 19
chier@@ 19
esomo 19
tiere 19
Ha@@ 19
waloko 19
timoree 19
gikiya 19
Tudruok 19
osemi 19
chore 18
kitepego 18
irikni 18
Noweyo 18
genone 18
winjruokno 18
gilendi 18
wariwre 18
nodwokogi 18
Kanye 18
Hag 18
Ser@@ 18
wuoyo@@ 18
twi 18
rahuma 18
Sh@@ 18
Ohero 18
makecho 18
teri 18
ogonygi 18
waherore 18
wakecho 18
chokruog@@ 18
riat 18
ochandre 18
EYO 18
giger 18
jaterruok 18
Jar@@ 18
bur@@ 18
mitiyoe 18
ketnwa 18
enwang’o 18
KI@@ 18
7,@@ 18
kunyoe 18
kitego 18
ichiwori 18
galowa 18
wadonjre 18
komiyogi 18
isogi 18
ginyagore 18
jong’@@ 18
Amina 18
natiyo 18
itogi 18
otimni 18
oserwako 18
chiki 18
kinyiso 18
buchene 18
chene 18
Lwe@@ 18
OK@@ 18
Kit@@ 18
chiwora 18
goya 18
ALO 18
tha 18
waluoro 18
ree 18
jalos 18
moy@@ 18
sul@@ 18
Habil 18
Akwede 18
nocham 18
orese 18
Mako 18
Juli@@ 18
pakore 18
ioro 18
okok 18
obedni 18
oronegi 18
Iskariot 18
Kokete 18
entiere 18
orgi 18
Kaok 18
1961 18
Giwa 18
upar 18
Med@@ 18
nolandre 18
wadich 18
Jiw 18
Kevin 18
Campanus 18
fuon@@ 18
nopogo 18
Nyakabed 18
Nyuol 18
orgo 18
akuche 18
ug@@ 18
agoyo 18
por@@ 18
kwed 18
Mario 18
skund 18
Jaracz 18
nochando 18
paroni 18
anyis 18
chiwoni 18
Otiyo 18
mokan 18
naromo 18
kari 18
cia 18
osebedogo 18
adierani 18
Aluf 18
mamore 18
ben@@ 18
imi@@ 18
Ara@@ 18
kum@@ 18
Se@@ 18
koriwo 18
Oholiab 18
monyuolwago 18
watieko 18
NOLOKO 18
achop 18
nogwela 18
umba 18
ende@@ 18
jawuoyo 18
yuago 18
mwo@@ 18
machandore 18
Achune 18
gikonyore 18
Jatendwa 18
Tijni 18
jatuo 18
monjogi 18
timnegi 18
noseg@@ 18
wateg 18
osiemo 18
notimor@@ 18
uyie 18
idhe 18
geng’owa 18
libembini 18
mwatiyogo 18
nonore 18
kochiwo 18
1500 18
icham 18
chiwono 18
norieyo 18
oneg@@ 18
opogi 18
gisin 18
akonyo 18
noidho 18
wapar@@ 18
ikowa 18
ind@@ 18
ohergi 18
dwaruru 18
He@@ 18
yan@@ 18
otimonegi 18
bang’gi 18
opon 18
mau 18
stesen 18
idwar 18
1000 18
meru 18
miyore 18
kier 18
eyono 18
shairi 18
ketnegi 18
joggi 18
ochiew 18
luon@@ 18
God 18
nolok 18
PO@@ 18
tawa 18
morochore 18
mabuse 18
nopon 18
gigero 18
gidhi@@ 18
Kotelne 18
,@@ 18
osewuok 18
IT@@ 18
nitiyogo 18
pidh 18
nopidho 18
Church 18
itayowa 18
TIJ 18
opuonj@@ 18
uol@@ 18
pol@@ 18
ua 18
gikwaye 18
uogi 18
Bath 18
ndikogi 18
mamorowa 18
dwarogi 18
wayiego 18
Rico 18
Taiwan 18
Markus 18
iwinjori 18
gihere 18
motiyo 18
127 18
san@@ 18
walandonegi 18
Suduru 18
LU@@ 18
Encyclopædia 18
ojiwgi 18
jadier 18
gipuonj 18
wapuonj 18
102 18
nosechopo 18
oni@@ 18
wawer 18
Sul@@ 18
ope 18
inde 18
Akan 18
osenyis 18
genore 18
oselal 18
Hutter 18
watwa 18
oserito 18
diki 18
jamahundu 18
wel@@ 18
okumba 18
ondo 18
Ang’wen 18
Nayudo 18
Dawn 18
atiek 18
eng’eyo 18
ungu 18
yorni 18
wanyise 18
waluong 18
thni 18
inj@@ 18
ayou 18
endonegi 18
morwenyo 18
Janenono 18
Los 18
av@@ 18
Abishai 18
Kutoka 18
oseri@@ 18
Kenneth 18
iso 18
uog 18
Capito 18
use 18
Ng’enygi 18
nyalona 18
MANG’ENY 18
Jawarwa 18
nonwang 18
Luther 18
madongogi 18
ogend@@ 18
Malaikano 18
osechakore 18
majno 18
abeda 18
mareno 18
waidho 18
uk 18
Heruru 18
jotuwo 18
rega 18
1944 18
anie 18
andiko 17
piende 17
uong@@ 17
oth 17
momewo 17
gilero 17
opuonji 17
Budha 17
Napuonjora 17
chur 17
gidongo 17
riekowa 17
puonjra 17
itayogi 17
orujre 17
ochikowa 17
wadhiye 17
Nigeria 17
norese 17
kolendo 17
gar@@ 17
nyaroya 17
ani@@ 17
orikni 17
nosesingo 17
onind 17
ojahigini 17
koywak 17
KU@@ 17
St 17
141 17
Jean 17
Tego 17
ochandore 17
parone 17
olandre 17
nyalono 17
emb@@ 17
odewogi 17
woke 17
omoe 17
Mochung 17
reswa 17
nokawe 17
andno 17
otamo 17
moherowa 17
hi 17
WI@@ 17
sieko 17
nochung’ne 17
Mokor 17
amako 17
Tom 17
Haiti 17
joy@@ 17
jorwak 17
mabeyogi 17
oritgi 17
Ndikoni 17
Nebukadnezzar 17
oumo 17
ogandawa 17
MACH 17
otimor@@ 17
idonjo 17
moseketi 17
kwarito 17
walogi 17
osre 17
migepene 17
waso@@ 17
gitudore 17
nokechogi 17
Marach 17
PUONJ@@ 17
walero 17
chuny@@ 17
gopewa 17
gisingore 17
Bedi 17
Chikego 17
nyiminegi 17
nonyuol 17
wachore 17
osechiko 17
magombo 17
waritore 17
onere 17
hoya 17
tiendena 17
kambino 17
Madho 17
gena 17
Jan@@ 17
walony 17
tekona 17
Makelo 17
LA@@ 17
1998 17
watigo 17
awuo@@ 17
sel@@ 17
ochakre 17
ama@@ 17
ginan 17
Matek 17
chwa 17
Otimo 17
oluonga 17
omin 17
donwa 17
mul@@ 17
Lochne 17
osetim 17
yorege 17
Book 17
ist@@ 17
rwake 17
Gomora 17
waseng’ado 17
luoko 17
ota@@ 17
English 17
Kot 17
KENDO 17
Dalia 17
noyiego 17
makowa 17
chogi 17
romone 17
obwongowa 17
oji@@ 17
Doris 17
dona 17
Awinjo 17
geng’e 17
kene 17
chong@@ 17
osenyisowa 17
singruokno 17
Koth 17
Naparo 17
mokudhi 17
Nobed 17
gidhiye 17
lal@@ 17
rwok@@ 17
puonjruokwa 17
rieyowago 17
ah 17
Gasedni 17
igero 17
vi@@ 17
maka 17
lis@@ 17
obedne 17
Zeituni 17
Kidwaro 17
ase 17
singoge 17
Mochung’ne 17
Quebec 17
endogo 17
Nokawo 17
itimoga 17
tieng’ni 17
nosi@@ 17
pala 17
Puonjno 17
ocho 17
midek@@ 17
ochwanywa 17
mifwenyogo 17
Mc@@ 17
Ranyisino 17
CHUNY 17
Ung’eyo 17
Jopuonjrego 17
chokorega 17
gweng’gi 17
tame 17
kanoe 17
Dictionary 17
ketone 17
watni 17
Migepe 17
Nyimin@@ 17
far@@ 17
giluongo 17
walu@@ 17
giywago 17
PEK 17
gike@@ 17
gingima 17
den@@ 17
donegi 17
abiri@@ 17
ode@@ 17
elle 17
modiechieng 17
SW 17
nyisruok 17
iwuotho 17
namba 17
achiegni 17
1992 17
bwogi 17
Janet 17
sirkandno 17
molworowa 17
achuna 17
sekondari 17
Sheba 17
jatiyo 17
Ger@@ 17
michulo 17
gomb 17
mowinjo 17
Catholic 17
osande 17
gweno 17
sulago 17
komanyo 17
Adwoko 17
adhana 17
nokecho 17
mochwogi 17
Nap@@ 17
ochul@@ 17
howa 17
nying@@ 17
FI@@ 17
gikendore 17
Nathaniel 17
gimiyowa 17
lw@@ 17
gue@@ 17
kuong’@@ 17
ouru 17
ochiem 17
Eva 17
wodho 17
yiewo 17
uparago 17
opira 17
wab@@ 17
taon@@ 17
onyuolie 17
Jatichne 17
gichiwre 17
Dead 17
kam@@ 17
gibedi 17
kidwaro 17
ohango 17
jopur 17
oneggi 17
orwakore 17
JOKRISTO 17
giseng’eyo 17
í@@ 17
itno 17
noseng’@@ 17
ketoga 17
bedogago 17
Luigi 17
otimnegi 17
ole@@ 17
gunda 17
yieyo 17
ndeke 17
odonjne 17
duodowa 17
125 17
gu 17
mondi@@ 17
Tieg@@ 17
nopodho 17
chandre 17
kwong 17
olos@@ 17
miri 17
openjogi 17
two 17
gioko 17
ogwelo 17
olokre 17
walal 17
LENDO 17
piki 17
oseriwo 17
1945 17
nigodo 17
mayomyom 17
MIYO 17
kowinjo 17
walendi 17
Ndik 17
Opogore 17
kindane 17
du 17
Jochiende 17
Lwenje 17
mbi 17
aa 17
Piny@@ 17
nosekoro 17
fuonni 17
kudho 17
korego 17
uni 17
gimiye 17
pas@@ 17
barup 17
unubed 17
mol 17
uchul 17
weyi 17
jimbo 17
jang’wech 17
jwang’@@ 17
isno 17
enge 16
Wachu 16
aling 16
otelne 16
mtoke 16
giriwre 16
aluoro 16
IN 16
adhiga 16
waa 16
notudore 16
ludhe 16
igo@@ 16
MBO 16
Rie@@ 16
wasudo 16
ging’eny 16
Obadho 16
Rachel 16
matayowa 16
1939 16
Kuros 16
moidho 16
gruok 16
Lem 16
Git@@ 16
uongore 16
momedi 16
inyis@@ 16
Makruok 16
ochan@@ 16
anya 16
wechena 16
wne 16
Ge@@ 16
onwang’o 16
oring 16
mawuowi 16
TIYO 16
asewacho 16
manna 16
sandugno 16
Nokonyo 16
gijiw 16
giler 16
oritowa 16
ahiny@@ 16
Nyak@@ 16
bwogo 16
milando 16
SAMA 16
Tij@@ 16
Gwen 16
wol 16
malombo 16
K.@@ 16
jolemo 16
owir 16
gilocho 16
efwenyo 16
gego 16
sungore 16
ochok@@ 16
ochwany@@ 16
toke 16
Gikeni 16
sandug 16
1879 16
Pro@@ 16
noked 16
National 16
leronegi 16
pidhogi 16
osenya 16
nosenyiso 16
Fred 16
ogend 16
Kris@@ 16
sirowa 16
yawuoyi 16
okuny 16
São 16
Taze 16
Man 16
pinye 16
awinjora 16
osegol 16
giyalo 16
Nano 16
dinyal 16
JA 16
Othodoks 16
Nokwayo 16
idhi@@ 16
ndikgo 16
Pierce 16
aywago 16
nang’@@ 16
lak@@ 16
oduogi 16
majaberni 16
mwaparo 16
noduo@@ 16
giwere 16
wuor 16
1951 16
chandruo@@ 16
230 16
giyiego 16
kolej 16
Miyowa 16
bajet 16
okend 16
chenrone 16
Horuok 16
ritreuru 16
ked 16
odu 16
osegolo 16
Agombo 16
ochuna 16
walame 16
arore 16
ker@@ 16
sandowa 16
Nie 16
chandruokgi 16
mosewuo 16
notigo 16
Patterson 16
Di 16
pesane 16
apuon@@ 16
koga 16
Hannah 16
wakonye 16
Kind@@ 16
onyagore 16
Chako 16
Paruru 16
idi 16
winjogo 16
adakie 16
160 16
RUOTH 16
petrol 16
lam@@ 16
motwe 16
mokinyi 16
mabed 16
ononre 16
Olero 16
erogi 16
aparoga 16
motim 16
acha 16
okelne 16
oseketh 16
kobothne 16
noth@@ 16
agogi 16
Tarik 16
itgo 16
wadewogi 16
lulu 16
oritwa 16
okethe 16
pon@@ 16
nochweyowa 16
ADIERA 16
noyalo 16
osiepgi 16
sista 16
Min@@ 16
dak@@ 16
Nas@@ 16
wamak@@ 16
geng’ruok 16
inyisogi 16
marieny 16
wachiko 16
mwageno 16
alre 16
wiu 16
Nodwoko 16
ila 16
kweyo 16
Map@@ 16
lemoga 16
Wuotho 16
miganga 16
ondiegi 16
ingonwa 16
giseweyo 16
joketho 16
asom 16
chiwor@@ 16
Thothwa 16
Nyis@@ 16
CHU@@ 16
aloko 16
gilal 16
okelonegi 16
achach 16
Mos@@ 16
inyi 16
det 16
kaneno 16
uon 16
isiko 16
timorene 16
misangone 16
tuono 16
ajadhi 16
frij 16
burg 16
1996 16
pikipiki 16
odonjre 16
rita 16
piny@@ 16
Finland 16
ogur 16
Hos 16
temuru 16
resa 16
unt 16
okadho 16
oseket 16
wacha 16
keta 16
abal 16
gikwed 16
nokwaye 16
ochune 16
ofisa 16
woge 16
Dal@@ 16
onyuo@@ 16
pich@@ 16
Beria 16
tel 16
Jasigu 16
Dhi@@ 16
mosin 16
Kuhusu 16
6,@@ 16
tiyoga 16
adog 16
chulano 16
kong’iyo 16
Wahero 16
ikelo 16
wakonygi 16
kitanda 16
Reuben 16
wadhiga 16
mareso 16
wachalo 16
ong’eyi 16
kidogi 16
Wapiga 16
Mbiu 16
chama 16
Sandu@@ 16
dij@@ 16
Koracham 16
achiwo 16
San 16
thne 16
mapodi 16
Manyo 16
muofni 16
pad@@ 16
ojiwi 16
guedhogi 16
morito 16
nyingeno 16
dwong’o 16
muofu 16
age 16
gicham 16
ng’we@@ 16
jadak 16
agolo 16
miyoga 16
sandou 16
mikelo 16
monj@@ 16
nochiwonegi 16
ng’anyono 16
jatichna 16
ichano 16
kendne 16
Siria 16
Jondiko 16
oyang 16
UN@@ 16
odni 16
mapoth 16
Diksonari 16
urore 16
Kanyachiel 16
orom@@ 16
dwaroni 16
oolo 16
OSEKONYA 16
iol 16
Ammon 16
josol 16
litno 16
babawa 16
kamagi 16
machiwore 16
rwok 16
Wadwoko 16
uwuoyo 16
Augustine 16
gigewa 16
moloyogi 16
kuodi 16
Dor@@ 16
akore 16
ywayogi 16
baru@@ 16
pego 16
puro 16
miseketo 16
biroe 16
lan@@ 16
EFE 16
tue@@ 16
Oting’o 16
wni 16
iherogi 16
Kuyo 16
Nyarwa 16
osekor 16
mwandugo 16
wajiwre 16
Osen@@ 16
Jack 16
ketie 16
KRISTO 16
atiyogo 16
nochiere 16
osudo 16
enego 16
guedha 16
135 16
Cellarius 16
pogre 16
yiko 16
Yorego 16
misando 16
wini 16
1988 16
B 16
ten@@ 16
pokne 16
donji 16
burano 16
gala 16
wenegi 16
g’ado 16
mondgi 16
wawuoth 16
Melkizedek 16
moloye 16
giyier 16
jopinyno 16
ike 16
dir 16
wasewuoyo 16
Ayie 16
Ng’ad 16
gr@@ 16
chung’ie 16
kuoth 16
jiwruok 16
ipenjri 16
nobwok 16
eyore 16
amore 16
awachoni 16
unyiso 16
jatim 16
Efes 16
wasi@@ 16
BER 16
gikonyi 16
nondike 16
erone 16
jatelono 16
gikonywa 16
MAR@@ 16
Le 16
Gige 16
dhre 16
Machielo 16
eronwa 15
gichokore 15
otieg@@ 15
Ezek 15
Far@@ 15
orome 15
IVF 15
Liel 15
injin 15
ogolgi 15
kwerewa 15
kune 15
wasechako 15
mopwodhi 15
yawuo@@ 15
otimorene 15
Florida 15
kawore 15
waya 15
Wad@@ 15
Iwuon 15
ngera 15
noriembo 15
gidich 15
odwoka 15
japaro 15
CD 15
Ngi@@ 15
intie 15
Wang’i 15
dhokgo 15
ywaruokno 15
MON@@ 15
kotieno 15
alo@@ 15
watiek 15
DH@@ 15
oyiengini 15
yogono 15
njaga 15
ajahigini 15
190@@ 15
1870 15
migapgi 15
noporo 15
kompyu@@ 15
gij@@ 15
HO 15
alworani 15
CHE 15
otamre 15
Itimo 15
omona 15
Moting’o 15
DHANO 15
aria 15
wendego 15
wendewa 15
mipuonjori 15
ochal 15
hala 15
ombulu 15
idwoko 15
kogologi 15
konyaga 15
jasol 15
Jaodi 15
RUO@@ 15
GE 15
tut 15
okwede 15
hekalune 15
jasikwa 15
inon@@ 15
itimie 15
dee 15
wapon 15
ogigo 15
ng’adonegi 15
Bithunia 15
mbesegi 15
ipar@@ 15
donjre 15
omon 15
Gethsemane 15
Lam@@ 15
ser@@ 15
notelone 15
origo 15
ubedi 15
eronegi 15
vin 15
lewe 15
wachwany@@ 15
chok 15
Mike 15
1987 15
Ng’iyo 15
sirono 15
emno 15
nores 15
mahoyo 15
nower 15
1,600 15
kindagi 15
olono 15
nowang’o 15
duok 15
baruane 15
aru@@ 15
irit@@ 15
warwakre 15
moketho 15
Otim 15
ed 15
madongogo 15
eche 15
dre 15
andi@@ 15
pesagi 15
mogor 15
hor@@ 15
kabiro 15
Yankee 15
jachode 15
omakowa 15
sechewa 15
ohinyo 15
leny 15
opuonjogi 15
ikora 15
thedh 15
ligen@@ 15
nen 15
Kor@@ 15
Mariek 15
okuong’@@ 15
kwargi 15
Sheol 15
omadh 15
Nenuru 15
giyu@@ 15
akuru 15
taondego 15
THO 15
alemoga 15
machwe 15
ichi@@ 15
Ali@@ 15
odhin@@ 15
Julian 15
remie 15
Blessing 15
chiwon@@ 15
ywakne 15
asechako 15
kwerene 15
guethgo 15
abiso 15
osemiye 15
Pach@@ 15
ipogo 15
ogwaro 15
ginego 15
Jane 15
osepodho 15
monyiso 15
ng’ere 15
wol@@ 15
ANG 15
wany 15
kanisano 15
tichu 15
owachona 15
ichik 15
Wechene 15
itaya 15
Itim 15
wechege 15
ilok 15
ong’adne 15
watimogo 15
johera 15
herani 15
ochungo 15
motuwo 15
Misengini 15
ranyisigi 15
jaterruokno 15
ong’eya 15
keloga 15
kon 15
ochikgi 15
loke 15
timwa 15
Sunga 15
iyier 15
peyo 15
Nyiego 15
ambuor 15
Ema 15
nochal 15
165 15
provins 15
Bedoe 15
yiengini 15
osenano 15
Ruodhno 15
dwoke 15
mamiyowa 15
wilore 15
chiek 15
rwa@@ 15
ham 15
kamarach 15
ruodhigi 15
Marang’o 15
singruoge 15
ng’awruok 15
gilala 15
omgi 15
nyimin@@ 15
manemane 15
warno 15
trakt@@ 15
KE 15
mokorgi 15
miwang’o 15
kagima 15
yigo 15
jah@@ 15
82 15
Yien 15
ambuoche 15
oting’e 15
omonj 15
Ringruok 15
otene 15
momiyi 15
orwaka 15
Jotelo 15
jatende 15
gichayo 15
nomiwa 15
aki@@ 15
fwenyogo 15
Jaoteno 15
PUONJO 15
Jap@@ 15
warom 15
ohing@@ 15
jolupo 15
okwaya 15
onjo 15
rieyowa 15
1989 15
Portuguese 15
wire 15
ginimor 15
gonyowa 15
88 15
ng’weno 15
Ywaruok 15
Ista 15
dwondgi 15
itiso 15
andonegi 15
gomb@@ 15
ojiwowa 15
gon@@ 15
,0@@ 15
yiso 15
Mayot 15
owetenego 15
Watemo 15
wajotimo 15
Rangi 15
sanduge 15
dwokogi 15
ogue@@ 15
gony@@ 15
ama 15
dongam 15
rodin 15
jamoko 15
1966 15
miga@@ 15
wed 15
lochi 15
Hushai 15
EI 15
adwa 15
Sayun 15
kethogo 15
madonjo 15
fni 15
uri 15
nogole 15
Cheri 15
Alan 15
eroe 15
Mamawa 15
JOH 15
wwa 15
nochak@@ 15
1,500 15
Jop@@ 15
woka 15
okum@@ 15
okwer 15
ajal@@ 15
onogo 15
x 15
ofis@@ 15
maupe 15
nyari 15
janekno 15
malendo 15
golowa 15
Manoa 15
odhiambono 15
Louise 15
Matindo 15
Kid@@ 15
isa 15
che@@ 15
ark 15
Il@@ 15
anag@@ 15
2,500 15
KONYO 15
digi@@ 15
kong’@@ 15
74 15
sheba 15
87 15
kowachonegi 15
Michno 15
co@@ 15
jong’wech 15
Stadium 15
mil 15
gibedogo 15
YA 15
miseyudo 15
nokwano 15
joklas 15
oyudi 15
owachne 15
moyi@@ 15
Toru 15
uherru 15
aher@@ 15
adwoko 15
okul@@ 15
Dani@@ 15
onan 15
osesi@@ 15
gikendo 15
akwedego 15
stes@@ 15
unge 15
Co@@ 15
Mogundho 15
noyier 15
Kuom@@ 15
ile@@ 15
Koparo 15
imakori 15
Wuouru 15
oselalo 15
jotelogo 15
isepuonjori 15
Lony 15
kawi 15
bagni 15
Bi@@ 15
motue 15
otimorenwa 15
eyoe 15
tokgi 15
osando 15
inibed 15
miti 15
apanda 15
mobed 15
adh@@ 15
yiedhi 15
nyag@@ 15
Kyrgyzstan 15
ing’i 15
otamogi 15
wayu@@ 15
nobatis 15
mba 15
ruok@@ 15
mondiko 15
planet 15
iseng’eyo 15
ochange 15
Owe@@ 15
ao 15
onenogi 15
indikoe 15
ochulo 15
ginege 15
oneko 15
okethi 15
nonindo 15
gamo 15
jaher@@ 15
Col@@ 15
otiego 15
kumno 15
chwany 15
elni 15
Wajo@@ 15
Johnny 15
gwedhe 15
kek 15
orenwa 14
Jood 14
Williams 14
moli@@ 14
Shilo 14
jaod 14
gire 14
onwang 14
Yath 14
endewa 14
nyathigino 14
arus@@ 14
nokwaya 14
ginindo 14
nyawowa 14
GO@@ 14
gl@@ 14
German 14
owinji 14
long’one 14
odon@@ 14
Don@@ 14
Oli@@ 14
chokoree 14
anyuolane 14
lemowa 14
Edith 14
oriewa 14
ochido 14
wadakgo 14
chikou 14
Otieno 14
chat 14
TIM@@ 14
Ubed 14
Margaret 14
kowachone 14
hik 14
fa 14
The@@ 14
gires 14
chumbi 14
ng’eyogi 14
West 14
nodonj@@ 14
kochako 14
HO@@ 14
br@@ 14
Sigendini 14
utiyo 14
chakoree 14
TO 14
Ingeresa 14
Nonyalo 14
adhong 14
anyagora 14
mbore 14
ikgi 14
konyowaga 14
opa 14
anwoya 14
dwokone 14
gihore 14
adore 14
1962 14
Thi@@ 14
mopog@@ 14
kes@@ 14
gibeyo 14
Kolo 14
mwalo 14
ochwewa 14
itiego 14
osewuoyo 14
dwach@@ 14
oseng’anjo 14
ng’iyowa 14
AHINYA 14
1984 14
una 14
kupuonjogi 14
Ponografi 14
Agboola 14
dotim 14
michakogo 14
Kidi 14
lang 14
mokuny 14
duol 14
nopenja 14
nungone 14
ris@@ 14
andgi 14
waba 14
osebatise 14
Ikonio 14
Kidogo 14
aler@@ 14
oketnegi 14
Agoyo 14
okorno 14
obudho 14
matayogi 14
tungini 14
goga 14
gikal 14
Mumbni 14
ahul 14
motimore 14
mosene 14
Ed@@ 14
jolwenyne 14
Ng’wonreuru 14
timie 14
oloyi 14
oriemb 14
himruok 14
batis@@ 14
Greece 14
Wasebedo 14
mayore 14
maratiro 14
morwa 14
osogo 14
wego 14
dni 14
Namor 14
nodagie 14
Ba@@ 14
va 14
idewe 14
Websaitwa 14
misetimo 14
Nyago 14
jowadwa 14
Epafrodito 14
oyal 14
Adwaro 14
Tayo 14
kuong 14
owuogi 14
amor@@ 14
giidho 14
sain 14
nokone 14
lendonegi 14
onye 14
jowasikwa 14
ariyoni 14
kwethno 14
oyiena 14
jiwo@@ 14
Wil@@ 14
ochand 14
manyalore 14
otayogi 14
jego 14
nokuyo 14
pilni 14
yondho 14
North 14
SECHE 14
oli 14
mirimba 14
Oriwo 14
ower 14
cham@@ 14
wawinj@@ 14
maneja 14
Ru@@ 14
thgo 14
ogenogi 14
BENDE 14
okum 14
ogwe@@ 14
Milan 14
wengewa 14
notimorene 14
digiher 14
Tem@@ 14
Watiyo 14
olemono 14
him 14
Au@@ 14
giikre 14
bwok@@ 14
Kapernaum 14
Mumani 14
romb@@ 14
Pol@@ 14
diergi 14
Elifaz 14
owilgo 14
wuonda 14
adich 14
mopuonjo 14
jorieko 14
kendno 14
gikok 14
ong’iyogo 14
yuso 14
dinari 14
madak 14
ARE 14
oho 14
Pak 14
obati@@ 14
osegwedho 14
mayudowa 14
ikiya 14
tano 14
Barbara 14
apo 14
Lowell 14
ohingo 14
ang’eya 14
udu 14
Nok@@ 14
1954 14
nasebedo 14
nyakwar 14
achwany@@ 14
ewago 14
nokel@@ 14
Wabende 14
Jodongogo 14
omu@@ 14
ci@@ 14
watimoga 14
tenore 14
Okonyowa 14
mobidhore 14
osgo 14
Nikolai 14
kud@@ 14
Sonia 14
pwodh@@ 14
onyuolgi 14
NG’ATO 14
Ot@@ 14
Atemo 14
Ikruok 14
nonyisogo 14
oriek 14
elogi 14
kolocho 14
EK@@ 14
opwoyo 14
wang’ere 14
noonge 14
wawinje 14
128 14
hikwa 14
Tieko 14
oting’@@ 14
marie@@ 14
olandore 14
oyon@@ 14
Ote 14
ginyise 14
121 14
123 14
Tabor 14
wadh 14
nyimineni 14
jong’anjogo 14
nyad@@ 14
oluong@@ 14
chiwoga 14
joe 14
Koket 14
kotho 14
matero 14
Joram 14
nosingi 14
kawogo 14
imiya 14
nokwako 14
Ko@@ 14
wakonyogi 14
Netherlands 14
lwetegi 14
ihori 14
owang’o 14
Wuon@@ 14
adono 14
Watim 14
Nying@@ 14
Yueyo 14
mong’ol 14
Kin@@ 14
obwok 14
jalok 14
ng’adonwa 14
nembe 14
Kode 14
Sweden 14
Miuru 14
Nong’ado 14
Asefwenyo 14
achiwora 14
San@@ 14
Otho 14
yega 14
siemgo 14
yiedho 14
Insight 14
nonyis 14
Ofise 14
Ugwe 14
Kim 14
awachone 14
inde@@ 14
LUW 14
anyisi 14
anano 14
wapogore 14
Sen@@ 14
gweli 14
1977 14
Elisabeth 14
jiwgi 14
wuonu 14
Dwol 14
grub@@ 14
siki 14
Hong 14
Kong 14
otego 14
ochwer 14
gichik 14
weno 14
Aonge 14
migoyo 14
emb 14
Walter 14
ans 14
chwanyre 14
digri 14
isi 14
nokorogo 14
olgi 14
Wadhiuru 14
matinie 14
mogikno 14
mosekadho 14
MATHAYO 14
Oti 14
otwo 14
ogie 14
Pakuru 14
oritogi 14
Bethania 14
LI 14
owarwa 14
ep 14
1978 14
Hul 14
masichewa 14
gipong 14
ndach 14
Mamoko 14
gologo 14
mokwan 14
rena 14
Oweyo 14
maluwoni 14
ren@@ 14
nyathiwa 14
1942 14
weza 14
nolu@@ 14
Okenge 14
mero 14
Lat@@ 14
Har@@ 14
12@@ 14
okumo 14
mosetieg 14
oluwe 14
malaikane 14
ginwang’o 14
gihulo 14
Oikore 14
jiwowago 14
masomo 14
Wakwayi 14
isandowa 14
1920 14
wogowa 14
kase@@ 14
norit 14
Jas@@ 14
eso 14
chame 14
Gibedo 14
zaburini 14
ria 14
Hungary 14
Gre@@ 14
Nyasi 14
Noyiero 14
nokwerogi 14
waboth 14
Ste@@ 14
aparora 14
nagombo 14
nohore 14
YUDORE 14
LAMO 14
Jagol 14
riwowa 14
Juma 14
ochwanyo 14
kodak 14
ND@@ 14
bironwa 14
Jakristono 14
winjuru 14
oywayo 14
Ahaz 14
komiyo 14
materowa 14
ng’enyne 14
waherre 14
weu 14
kethgi 14
nota@@ 14
Nowinjo 14
nopenjogi 14
renwa 14
mosogi 14
gikonya 14
Me@@ 14
kwiny 14
awuotho 14
Delila 14
guru 14
ent@@ 14
Matthew 14
osesingore 14
jou 14
148 14
endoga 14
Iwacho 14
20,000 14
Wiwa 14
kuong’ore 14
olendi 14
uda 14
Mamiyo 14
nogeng’o 13
pin@@ 13
Giparo 13
oil 13
Dwach 13
matego 13
ogwedhe 13
gidewa 13
ruog@@ 13
gike 13
mogene 13
osetimoreni 13
tgi 13
adonj 13
Go@@ 13
olwor 13
otimoni 13
wed@@ 13
fwenygo 13
wabet 13
godego 13
Norway 13
bugwa 13
kothgi 13
nitimo 13
DHI 13
indi@@ 13
our@@ 13
klase 13
Ageno 13
wedena 13
wri 13
1981 13
WE 13
ajiwo 13
EL 13
fwenyor@@ 13
eru 13
TIMOTHEO 13
mahinyo 13
Singono 13
pogowa 13
Jopuonjrene 13
giringi 13
Nyiri 13
oweyonwa 13
Bal@@ 13
kohero 13
ajia 13
AR 13
Kong’o 13
yil 13
ingi 13
aduo@@ 13
Vi@@ 13
MAD@@ 13
gitieko 13
Cedar 13
Point 13
Lakteche 13
limbeno 13
kendre 13
Nopenjo 13
osa 13
ts 13
Ojahawi 13
obo 13
jakony@@ 13
muzabibu 13
chwali 13
olwore 13
miloso 13
apokrifa 13
ting’ore 13
mamedo 13
Asepuonjora 13
1965 13
upong 13
onga 13
Okt 13
Rosa 13
miyiero 13
Chen@@ 13
diemo 13
midakie 13
Billie 13
Jacob 13
amadho 13
miwito 13
owinjowa 13
Ong’e 13
Georgina 13
olend@@ 13
intiere 13
asa 13
inyisa 13
ʹ 13
Hai@@ 13
awuoya 13
nondikonegi 13
Jabin 13
Ishmael 13
Mumb@@ 13
poyo 13
ent 13
dra@@ 13
1925 13
nochwany@@ 13
lim 13
Ondiek 13
Muumba 13
pon 13
0,000 13
las@@ 13
ERA 13
ole 13
Spanish 13
SO@@ 13
twa@@ 13
nokawa 13
udhe 13
ginyagre 13
Gala 13
opwodho 13
ogudu 13
JOPENJO 13
ruogni 13
kochakre 13
Nyathini 13
timnigiuru 13
uyudo 13
isechiwori 13
onega 13
indno 13
Momon 13
oparore 13
riwgi 13
barore 13
kogolo 13
duog 13
oriembe 13
Osiepna 13
han@@ 13
Jonyuolwa 13
akni 13
matamore 13
wasingore 13
sik 13
lerone 13
diksonari 13
jakwa@@ 13
Tarso 13
abe@@ 13
japuonjreno 13
jotimo 13
moloki 13
noseweyo 13
diwil 13
nabiro 13
monyise 13
1968 13
Atimo 13
umb@@ 13
Tal@@ 13
3,500 13
riekogi 13
nomedre 13
nowuo@@ 13
nonyagore 13
manigi 13
ibatis@@ 13
maj@@ 13
Dema 13
moloyowa 13
DIKO 13
atugo 13
ng’ol 13
CHAK@@ 13
nodhi@@ 13
1982 13
Je@@ 13
oorwa 13
ung’ad 13
gipuonja 13
El 13
Salvador 13
osenego 13
tichgi 13
kumogi 13
embgi 13
galagala 13
lepgi 13
Nar@@ 13
noore 13
ish@@ 13
ohoyo 13
Diotrefe 13
Newton 13
CHO 13
kitabu 13
tike 13
kirito 13
momiya 13
Susan 13
UDI 13
diyo 13
woyogi 13
ng’anjono 13
ununwang 13
Kwauru 13
waye 13
Bugni 13
kawuoyo 13
Shebna 13
dwaroga 13
Jan 13
oongego 13
wachiwre 13
lekno 13
dong’@@ 13
wayawo 13
gombona 13
yimbo 13
moseweyo 13
dono 13
chandruog@@ 13
pokno 13
noka 13
eli@@ 13
Ontario 13
nonyoso 13
Kop@@ 13
kuthe 13
Safira 13
DNA 13
FWE 13
nam@@ 13
isonari 13
jochia 13
Marito 13
Abich 13
kopenjo 13
noketi 13
fa@@ 13
Jachwechne 13
obol@@ 13
oseparo 13
Dwar 13
wat 13
mandiwa 13
mitayo 13
Atuwo 13
giluwe 13
osechan 13
gaming’a 13
neko 13
pawno 13
wakwedo 13
achielgo 13
okon@@ 13
utego 13
jadhi 13
mel@@ 13
timgo 13
1971 13
Sirkande 13
mitiego 13
Pogo 13
rieyi 13
morit@@ 13
convent 13
waseng’eyo 13
Puerto 13
nyachon 13
andwa 13
kecha 13
asumbi 13
nyikwaye 13
nakwongo 13
ill@@ 13
GOCHONI 13
Milton 13
eva 13
Kal@@ 13
Tyndale 13
ond 13
guedhi 13
koyie 13
HIGINI 13
Ero 13
jomer 13
nopako 13
romoe 13
Shulem 13
Remb 13
bute 13
Ago 13
Cy@@ 13
kwaparo 13
apon 13
Tamri 13
birono 13
Grup 13
Mah@@ 13
jawo 13
Jati@@ 13
oloya 13
omoga 13
neni 13
30,000 13
osenyuol 13
yotnwa 13
noherowa 13
Ari@@ 13
waj@@ 13
mawuondore 13
kl@@ 13
oriegi 13
ley 13
rip@@ 13
1933 13
Artemi 13
ulok 13
obwon@@ 13
CHUN@@ 13
ajuokego 13
93 13
omer 13
gur 13
stima 13
nodhier 13
nosiki 13
gilokore 13
ginyisogi 13
gipako 13
siganani 13
4,@@ 13
chiemono 13
ohalano 13
chai 13
hiye 13
oluongogi 13
richona 13
Pakistan 13
MAT@@ 13
Nosingi 13
Fern 13
ochule 13
noluong 13
nosando 13
Nindruok 13
Inj@@ 13
ilino 13
Nyasay@@ 13
chung’wa 13
Sin 13
miriambogo 13
weyonu 13
matin@@ 13
owruok 13
noyiere 13
Dun@@ 13
Riana 13
oriambo 13
Rama 13
jarichono 13
unde 13
ng’wononi 13
ginin@@ 13
ywaye 13
achal 13
giduog 13
joweteni 13
tudora 13
mang’ado 13
Miyono 13
Stephanie 13
iyiego 13
Aka@@ 13
duoke 13
rono 13
rwaki 13
138 13
Dwar@@ 13
gikwa@@ 13
nyinggi 13
luetegi 13
1935 13
angore 13
makedo 13
ofu@@ 13
natemo 13
giniwuog 13
ritogo 13
chirni 13
waseweyo 13
yembe 13
chikwa 13
imgi 13
migapi 13
watego 13
mamorogi 13
otelo 13
riwruokne 13
EGO 13
rino 13
Ter@@ 13
noseti 13
chokruokwa 13
mbe@@ 13
jelano 13
inene 13
moloya 13
Lett 13
Wende 13
wanyago 13
Wagoyo 13
ojwang’e 13
wasenenogo 13
kwoyo 13
RE@@ 13
notiekgi 13
konwa 13
Temo 13
ay 13
osip@@ 13
Gail 13
Sik 13
Nonyisa 13
omogi 13
ako 13
tieke 13
Nonego 13
ondikgo 13
lou 13
opwodh@@ 13
Titus 13
magu 13
Jumbe 13
nochwanyo 13
githuon 13
anyi@@ 13
Frederick 13
Abimelek 13
With 13
wewa 13
8,@@ 13
Chulo 13
Owuon 13
fi@@ 13
nomaka 13
Fahirisi 13
Mowuok 13
akwa@@ 13
watgi 13
Ruo@@ 13
nyisuru 13
gikel 13
kwayona 13
Peshitta 13
kena 13
miparonwa 13
arit 13
wanenore 13
mwaluwo 13
wasiku 13
noher@@ 13
gerogi 13
American 13
END 13
asere 13
michiko 13
Araceli 13
Meriba 13
Janny 13
kinda@@ 13
kwanogi 13
Troa 12
litna 12
250 12
asel@@ 12
Agri@@ 12
akiya 12
lendono 12
mamo@@ 12
ogand@@ 12
goni 12
Qu@@ 12
wajodhi 12
umb 12
Osebedo 12
nogoye 12
gano 12
oregi 12
oseketi 12
heruru 12
ON 12
warikni 12
jokeyo 12
wahinyo 12
Joloch 12
ikwedo 12
makiya 12
napuonjora 12
naketo 12
tep 12
jni 12
maliw 12
undi 12
HERO 12
240 12
asta 12
kwedi 12
otelnegi 12
Language 12
Jason 12
KIN@@ 12
timga 12
Girito 12
osekwedo 12
Ywak 12
1983 12
korwa 12
mamori 12
loyi 12
jay@@ 12
wedhi 12
gigen 12
joloko 12
50@@ 12
KAN@@ 12
atonga 12
dhor@@ 12
lernwa 12
KOL 12
sikuru 12
Yere 12
Gedo 12
thie 12
Im@@ 12
oba@@ 12
tu 12
noweyonu 12
mochak 12
tarno 12
apenj@@ 12
ouse 12
noluon@@ 12
Jehovah’s 12
oseluwo 12
nogore 12
aborogo 12
ochweyowa 12
nyisgi 12
chna 12
André 12
eneno 12
ERE 12
wand@@ 12
machiewo 12
Char@@ 12
guedhe 12
mimiyowa 12
otimorenegi 12
tijeno 12
oweyone 12
nokadho 12
Map 12
bag 12
gichandore 12
Dina 12
olworwa 12
Hor@@ 12
nan@@ 12
nokel 12
kwakwayo 12
Twagno 12
duong’gi 12
buombe 12
chika 12
iwalo 12
Yawuot 12
Dustin 12
Osip@@ 12
awinja 12
gwa 12
ondiegno 12
ochiki 12
duong’ni 12
Tuke 12
jodhier 12
mopie 12
nimo 12
jopainiago 12
itudri 12
wadakiegi 12
Lorraine 12
warwakore 12
Lam 12
JAOTE 12
nawacho 12
1929 12
onwaga 12
YO@@ 12
Gom@@ 12
mabolore 12
RO 12
sk@@ 12
undo 12
modh@@ 12
ngita 12
9,@@ 12
puonjorego 12
Nochuno 12
adong 12
iser@@ 12
ven@@ 12
motu@@ 12
spot 12
miywayo 12
say@@ 12
Ndal@@ 12
Gimor 12
mamako 12
iluongogi 12
Winy 12
omine 12
nosik 12
nyuklia 12
ndike 12
maras 12
odonji 12
Ngerono 12
romogi 12
1937 12
State 12
noleronegi 12
ng’euru 12
tiye 12
aduok 12
akaw 12
parad@@ 12
Jokolpota 12
Kitepe 12
wedo 12
rochere 12
Chokruog 12
Puonjgo 12
ofweny@@ 12
ochunglo 12
Nyiseche 12
ogwedhogi 12
misumb@@ 12
nochakoree 12
Hindu 12
wuondogi 12
chandruokwa 12
pidhe 12
wir 12
yieu 12
chiworene 12
nyosruok 12
lokruokgo 12
gwen@@ 12
History 12
onyoso 12
asoma 12
midhi@@ 12
guro 12
apen@@ 12
ojahawi 12
kos@@ 12
Kaiafa 12
Wadhi 12
gita 12
iwachoe 12
chuk 12
1700 12
jarogi 12
opak 12
gikanyo 12
ogwelowa 12
miluwo 12
dhoth 12
yudono 12
osendiko 12
ISO 12
usomo 12
aduogo 12
tina 12
depression 12
Onesimo 12
oyienwa 12
mede 12
dar@@ 12
ichikogi 12
LE 12
nikode 12
koikore 12
Maberni 12
wases@@ 12
wuoi 12
MANA 12
mating’o 12
ONG’@@ 12
Iya 12
Plato 12
eti 12
emogi 12
ann@@ 12
ogal 12
fuond@@ 12
itimonegi 12
iu 12
Ilaria 12
Odiechieng’no 12
tetni 12
hinyi 12
majiwowa 12
maloko 12
ambi 12
Ang@@ 12
Ver@@ 12
MU@@ 12
moluwore 12
oketwa 12
geng’ore 12
nonogi 12
107 12
TO@@ 12
giritore 12
nyathin@@ 12
bab@@ 12
irigo 12
Nyingi 12
waloyo 12
wawuor 12
opwodh 12
Vulgate 12
eyoga 12
madwar@@ 12
higo 12
abeta 12
nobatisi 12
ernegi 12
nool 12
noleny 12
orone 12
Arne 12
warwa 12
aw@@ 12
echo 12
olosgo 12
obedogo 12
dhoode 12
oyuda 12
kethono 12
mayuak 12
mbgi 12
noherogi 12
MARI@@ 12
tiy@@ 12
gwen 12
urito 12
guedh 12
samuoyo 12
irwak 12
Tattanai 12
nome@@ 12
itimone 12
450 12
pinyruodhi 12
wanyuolo 12
nopi@@ 12
Abiriyo 12
Madongo 12
adoe 12
Yearbook 12
Ebed 12
melek 12
iriw 12
Sigana 12
nia 12
nokorno 12
umbi 12
isome 12
rateng 12
ram@@ 12
Onesmus 12
andre 12
epe 12
adi@@ 12
Terruok 12
mowalgi 12
gimaket 12
Nyithindu 12
mou 12
noketonegi 12
ywakgi 12
kogombo 12
ginenogi 12
thumb 12
onaga 12
anyuolagi 12
Mare 12
Gidhi 12
endono 12
olwor@@ 12
giramo 12
JAK 12
ck 12
Jonen@@ 12
chuni 12
payo 12
idwa 12
Monique 12
Island 12
noketa 12
betr@@ 12
nochweyogi 12
wadgino 12
matuo 12
oweyogi 12
Mwayudo 12
ogwedhi 12
pith 12
kendorigo 12
chieng’ono 12
jokor 12
kohore 12
katabed 12
Kat@@ 12
arwako 12
jochode 12
Nepal 12
aman@@ 12
godono 12
NYAMINWA 12
Kwa@@ 12
ilem 12
odino 12
Adieri 12
Limbe 12
loro 12
dwon@@ 12
higani 12
migape 12
omor@@ 12
ong’adnegi 12
Pachi 12
jasike 12
122 12
skundego 12
yano 12
Temie 12
ichiero 12
wera 12
igol 12
ichulo 12
Gigi 12
ginine 12
wabedoga 12
jasamwoyo 12
litne 12
Nimrod 12
MED@@ 12
Kochopo 12
olworo 12
manindo 12
ondieg 12
aseng’eyo 12
enowa 12
Anabed 12
puonjo@@ 12
ING@@ 12
gilame 12
chien@@ 12
aidho 12
Uzzia 12
Aseneno 12
bugo 12
nyak@@ 12
chuo 12
neuru 12
tij@@ 12
noguedhe 12
moki@@ 12
rwakore 12
gioro 12
wira 12
genruok 12
1963 12
kolando 12
nobatise 12
onywolo 12
sil@@ 12
dheno 12
Oyie 12
gimiya 12
nolworogi 12
Gino 12
alend 12
kind@@ 12
ogweli 12
ng’adoe 12
monjowa 12
jaodwa 12
miwuoye 12
genoni 12
oguedhwa 12
usoe 12
waherego 12
thogi 12
car@@ 12
Ng’ado 12
wawuoye 12
Olga 12
chikegi 12
Chunyno 12
jang’wono 12
nohera 12
Ikri 12
mbes@@ 12
thno 12
María 12
chandrwok 12
Nochopo 12
dhni 12
wail 12
otueye 12
gitimie 12
Jalochwa 12
Carlos 12
Ros@@ 12
Miaha 12
molalo 12
Tobia 12
kadok 12
kulemo 12
fini 12
ong’ewa 12
osigo 12
giyudore 12
orwa@@ 12
Idwaro 12
Indeks 12
noiko 12
dane 12
Ngang 12
noses@@ 12
Wang’e 12
WADAK 12
YI@@ 12
makwero 12
uluw 12
Ag@@ 12
ingori 12
Ang’@@ 12
Hughes 12
momo 12
moseneno 12
Mb@@ 12
tal 12
enjogi 12
Abram 12
mobatisi 12
Pach 12
DWE 12
marat@@ 12
chikowago 12
kuru 12
gised@@ 12
Nyi 12
Ori@@ 12
mwan@@ 12
warruokwa 12
edhe 12
3,@@ 12
Neg@@ 12
Felisa 12
Molony 12
nywol 12
achung 12
achwich 12
Wuothuru 12
81 12
liganglane 12
mong’iyo 12
uwinjo 12
donjoni 12
Ting’@@ 12
wasewinjo 12
Notemo 12
Jimmy 12
JULAI 12
wanene 12
konu 12
tuk 12
monyuol@@ 12
tong’go 12
Bedowa 12
lain 12
notiek 12
nochungo 12
Ay@@ 12
uong’o 12
adieragi 12
wolo 12
yawuotgi 12
noweye 12
lupo 12
nokuong’ore 12
MOKO 12
adhiye 12
iwuoye 12
ondhogo 12
Jonyuol@@ 12
Sha@@ 12
Masirano 12
Timbewa 12
ng’atgi 12
ca@@ 12
tuoni 12
otiko 12
Wallkill 12
oel@@ 12
News 12
ahum 12
Toñi 12
fuon 12
NADE 12
Ijiwo 12
jumano 12
KIDO 12
singruokne 12
PE@@ 12
Lim@@ 12
nangane 12
APRIL 12
gijiwowa 12
zo 12
gimakare 12
EGI 12
adie 12
ud 12
nyisechegi 12
chuok 12
tat 12
1934 12
ariwora 12
milome 12
eyowago 12
wokogi 12
ndikone 12
Amy 12
jomatindo 12
atho 12
Mang’won 12
aber@@ 12
odiechien@@ 12
programbe 12
Jor@@ 12
Morris 12
moherowago 12
Askeche 12
opakre 11
oya 11
rewa 11
anyuol@@ 11
Albert 11
dhine 11
olendne 11
1979 11
Christian 11
Gase@@ 11
Gamaliel 11
konwoyo 11
Dorka 11
University 11
notie@@ 11
bedena 11
lwetena 11
yawonwa 11
Nefili 11
hin@@ 11
pidhowa 11
gam 11
wandiko 11
midhiro 11
Scott 11
komi@@ 11
ade 11
endene 11
ONYUOLA 11
537 11
bewa 11
chulogi 11
Johannes 11
noyier@@ 11
kungo 11
Mairambubu 11
Jonyuolne 11
kech@@ 11
yoka 11
Organization 11
1985 11
nyiwa 11
wanda 11
aywag 11
jwang’owa 11
oyudre 11
Lo 11
osetimoni 11
owachi 11
mochiworene 11
Mide@@ 11
togi 11
nondikie 11
imak 11
osebedona 11
mowuothoe 11
kiyie 11
YUDO 11
Marwa 11
MOR 11
migawoni 11
Kul@@ 11
sandgi 11
Sch@@ 11
Mulo 11
noseng’eyo 11
Witnesses 11
wasumb@@ 11
atine 11
Del@@ 11
Nopuonjo 11
asewinjo 11
nyagora 11
ng’awore 11
gile@@ 11
aongego 11
Gitemo 11
omuoch 11
Nyisgi 11
ochwan@@ 11
obayo 11
Gol@@ 11
THES 11
TU@@ 11
Institute 11
Health 11
tok@@ 11
Chris 11
tiegogi 11
osebetie 11
dis@@ 11
Rwakuru 11
mbesene 11
iiko 11
jayalo 11
medreuru 11
wapuonjogi 11
nou@@ 11
wachiegni 11
waduoko 11
weyona 11
jaketho 11
gidonjre 11
Nyuk@@ 11
nyag 11
nogoyono 11
osewach 11
yiere 11
ochiwonegi 11
asia 11
olal@@ 11
wanogi 11
wayudoe 11
Dag 11
osenwang’o 11
osingonegi 11
orom 11
RI 11
Côte 11
d’Ivoire 11
FWENY 11
manyisowa 11
Elsebeth 11
mosir 11
miero 11
moseng’@@ 11
Nondiki 11
DIE@@ 11
Ole@@ 11
May@@ 11
nochun@@ 11
Teguru 11
Kodhino 11
Sar@@ 11
nochop@@ 11
JI@@ 11
ogogi 11
eloni 11
akonye 11
Ngimane 11
sirini 11
CHIR 11
nosiro 11
Medruok 11
Rach 11
kokinyi 11
kiwinjo 11
iporo 11
nom@@ 11
ruedhi 11
singoni 11
jawuond 11
Puonjore 11
mofwenyo 11
gifweny 11
Mari@@ 11
Pas@@ 11
Kwed 11
loyowa 11
Timne 11
moringo 11
jony@@ 11
moriwore 11
osemako 11
Gimaber 11
tra 11
tiereno 11
hingo 11
wapuonjrego 11
uri@@ 11
manitie 11
Sand@@ 11
aching 11
chonge 11
sang’tuari 11
Wak@@ 11
Nonuru 11
Jinsi 11
sen@@ 11
jatugo 11
leche 11
Bor@@ 11
wra 11
Distrikt 11
gigo@@ 11
witogi 11
tijeni 11
mosepuonjore 11
tuom@@ 11
Louis 11
oyik 11
Manono 11
Sun@@ 11
otiege 11
1938 11
Awake 11
Go 11
twe 11
mate@@ 11
cheni 11
ajabedo 11
giketonwa 11
majiwogi 11
mtokwa 11
timorena 11
odhial@@ 11
Jalendo 11
nyar@@ 11
hika 11
mosechung 11
ANA 11
jiworu 11
eto 11
Misonari 11
koyalo 11
AL 11
molwore 11
Dathan 11
Abiram 11
Riw 11
wod 11
Jares 11
ogale 11
Polise 11
JAN@@ 11
chiwruokgi 11
loche 11
gimak 11
manyogo 11
ada 11
NON 11
endnigo 11
wenyno 11
asesomo 11
watindo 11
onie 11
nochuewa 11
api 11
woya 11
timbeu 11
gipuonjogi 11
jasunga 11
jokuo 11
girwakore 11
anindo 11
asetiyo 11
Burrus 11
odinore 11
paroe 11
onyi 11
duk 11
je@@ 11
ging’ere 11
ochang 11
dichwono 11
onyuolwago 11
oluwre 11
wasumbnine 11
wapenjo 11
oloke 11
WEN@@ 11
JE 11
gewa 11
apargo 11
riwruogni 11
ruoku 11
isogo 11
oluwore 11
chandruokni 11
gichiem 11
Tieg 11
opuonjruok 11
wnegi 11
Val@@ 11
japuonjrene 11
sh@@ 11
les 11
lin@@ 11
UND@@ 11
nanyiso 11
nimiya 11
orwakgi 11
osing 11
wnu 11
noketh 11
aserini 11
ikwaye 11
rwakruokwa 11
ichopo 11
ahinyani 11
Joodno 11
odh@@ 11
chandruokne 11
Kaendi 11
nowene 11
ARI@@ 11
atem 11
oting’ore 11
nyingwa 11
igwelo 11
Coast 11
Gitiyo 11
mitimogo 11
dhruok 11
ilend 11
gidi@@ 11
ac@@ 11
Hono 11
wagone 11
gni 11
Yua 11
Bruno 11
chworeno 11
nosedok 11
jong’anjo 11
mochayo 11
dhgo 11
oseromo 11
owar 11
gipidh 11
nokelonegi 11
norieny 11
mwand@@ 11
MAN 11
Palestina 11
Max@@ 11
ing’wen 11
ruodha 11
iriyo 11
notera 11
udho 11
Es@@ 11
pok@@ 11
jopuonjgi 11
BI@@ 11
orwakowa 11
Kyriacos 11
mutimo 11
Togo 11
gidwa 11
gitimonwa 11
madhe 11
isegapenjori 11
winy@@ 11
Kenya 11
oriwe 11
luet@@ 11
filosofi 11
kume 11
Fabian 11
galaksi 11
Jehovah 11
MOMIYO 11
Jalweny 11
momiyogi 11
imore 11
olwa 11
mekgi 11
lendee 11
giji@@ 11
Muya 11
thuru 11
moseng’anjo 11
Nopuonjore 11
Jürgen 11
Aj@@ 11
achalo 11
misach 11
moyangore 11
lweta 11
undu 11
duong’na 11
eme 11
gikaloe 11
Sab@@ 11
matekgi 11
wil@@ 11
wir@@ 11
atemoga 11
janyuolne 11
Fo@@ 11
kutiyo 11
sulwego 11
Noyie 11
ging’eye 11
Tieng 11
gituwo 11
Chwora 11
ere@@ 11
Scrolls 11
omewo 11
yonego 11
yowano 11
nokwere 11
osekedo 11
lamoe 11
wog 11
Sp@@ 11
ubigo 11
migumba 11
CHIEGNI 11
Wati@@ 11
kalausi 11
ichikowa 11
mogoyo 11
oseoro 11
liend 11
noywago 11
mwang’eyo 11
ochopgo 11
omonj@@ 11
ze 11
oi 11
itero 11
Paraguay 11
Haggai 11
Imor 11
mosa 11
moseket 11
Nyag 11
otame 11
Ng’eny@@ 11
ofuwo 11
owad@@ 11
yorgi 11
Wasepuonjore 11
nong’adone 11
yorena 11
okwe@@ 11
Gr@@ 11
Mediter@@ 11
chuo@@ 11
Wuodeno 11
iluongowa 11
kutho 11
tiyoni 11
okwo 11
rwaka 11
osepuonja 11
nachopo 11
1986 11
nowito 11
kos 11
Mefibosheth 11
takatifu 11
orita 11
andowa 11
tro@@ 11
magolo 11
agoko 11
yawono 11
Ng’i 11
Ben@@ 11
Queensland 11
osedar 11
wagen@@ 11
Auru 11
gache 11
buya 11
obolre 11
dalana 11
macha 11
osesudo 11
goch@@ 11
gili@@ 11
geng’ogi 11
Kom@@ 11
janabine 11
Ik@@ 11
nogono 11
mul 11
ph 11
kul 11
jonen@@ 11
tiyonego 11
molokore 11
bidh@@ 11
kisomo 11
Makate 11
upuonjoru 11
Claire 11
Jol@@ 11
orawera 11
kwaritore 11
yienwa 11
RAN@@ 11
moseyiero 11
erne 11
gegi 11
Kuo@@ 11
mirni 11
chiembgi 11
ulos 11
waweuru 11
chopogo 11
analuor 11
Fa@@ 11
osetieg 11
ogwel@@ 11
hel@@ 11
komiyowa 11
kugoyone 11
ski 11
dongi 11
Nyar 11
ajayudo 11
Katherine 11
lokruokno 11
AY@@ 11
alimo 11
ywag 11
LAND 11
Lowo 11
chiwogi 11
osemono 11
weyoni 11
giser@@ 11
inyisogo 11
mogenore 11
kita 11
ONGE 11
Zaburino 11
roni 11
Kalat@@ 11
Land 11
chiem 11
ij@@ 11
Zelofehad 11
Migeno 11
olime 11
wachul 11
lendogo 11
jokwa@@ 11
ringreu 11
Wachre 11
ura 11
diel 11
jolendogo 11
ndache 11
Oketo 11
choch 11
ogwelogi 11
olim@@ 11
othoe 11
olem@@ 11
kori 11
nonwang’o 11
wachiem 11
Siberia 11
dwokono 11
aroma 11
uny 11
ruogegi 11
KETO 11
oboth 11
opando 11
koidho 11
fre@@ 11
ei@@ 11
din@@ 11
arono 11
isud 11
nenruok 11
ikri 11
mong’ado 11
gedono 11
akieno 11
Heli 11
Giluwo 11
Thuol 11
jog 11
wanyore 11
sisi 11
mino 11
idew 11
olosi 11
Za@@ 11
Shem 11
Constantine 11
wanatim 11
Marie 11
puothegi 11
Bis@@ 11
ulu 11
lokogo 11
noseketo 11
Timno 11
Jr 11
KIT 11
oche 11
abuok 11
ME 11
kalat@@ 11
nyiro@@ 11
Delphine 11
mwawinjo 11
ndo@@ 11
oywa 11
Iye 11
seri@@ 11
kahera 11
lachne 11
chikone 11
lendoga 11
osesomo 11
siri 11
anamii 11
oka 11
jago 11
Unudok 11
kechni 11
kolero 11
nondikgi 11
oorgi 11
Gero 11
ange 11
noyiecho 11
luwoni 11
Brosu@@ 11
RANYISI 11
ketho@@ 11
awa@@ 11
nohulo 11
ogologi 11
japiny 11
lochoeni 11
30@@ 11
skundni 11
miyowaga 11
mok 11
wonjo 11
nowachogi 11
luong@@ 11
fain 11
ohand@@ 11
GIN 11
wapango 10
lamona 10
nyuola 10
est 10
machon@@ 10
udi@@ 10
joo@@ 10
miriambono 10
mokwon@@ 10
ano@@ 10
Notieko 10
chwo@@ 10
PO 10
wigo 10
obedonwa 10
Opak 10
mochwany@@ 10
ing’iewo 10
Kondiko 10
mondu 10
LE@@ 10
elore 10
oporo 10
rotenge 10
migepewa 10
nochul@@ 10
ite@@ 10
ogino 10
Iher 10
uchung 10
nil@@ 10
nwang’e 10
Middle 10
Ya@@ 10
ong’go 10
Nyocha 10
DIN 10
kwanyiso 10
jakor 10
inege 10
giseti 10
olworogi 10
wasewuoyoe 10
karachiel 10
kineno 10
mwaseyudo 10
gindi@@ 10
bedo@@ 10
nosesingore 10
noja@@ 10
weyowa 10
Bardet 10
kaegi 10
mas@@ 10
ST@@ 10
ONO 10
Namibia 10
morgi 10
madieri 10
CHAKRE 10
uketo 10
Konygi 10
osne 10
andogo 10
DO@@ 10
GIKO 10
EKO 10
abichgo 10
KANYAKLA 10
nopidhi 10
Anti@@ 10
waringo 10
Tang’uru 10
jamb@@ 10
somone 10
und@@ 10
án 10
Wuond 10
nyamin@@ 10
Ul@@ 10
mosechiworene 10
koriw 10
Annas 10
mang’ongono 10
Nyawadgi 10
kulore 10
Marilou 10
Pad@@ 10
RE 10
chue@@ 10
moser@@ 10
pas 10
komondi 10
itang 10
wong 10
mwakedogo 10
Ogolo 10
ginyisogo 10
endegi 10
Mir@@ 10
Nyuoluru 10
leno 10
timoregi 10
Mopong 10
emowa 10
lalowa 10
AGOST 10
nder@@ 10
boda 10
ash 10
Juan 10
owachogo 10
Do@@ 10
LA 10
gikgi 10
jating’o 10
gologa 10
Rudolf 10
denyo 10
Uraya 10
minenoe 10
tiekoe 10
mimadho 10
nomednu 10
mothedh 10
mid@@ 10
negogi 10
muodo 10
onygo 10
tayogo 10
moket@@ 10
tende 10
warowa 10
WUOK 10
sirkan@@ 10
She@@ 10
nolose 10
tienda 10
osedoko 10
weyoreuru 10
1600 10
landonegi 10
gipidho 10
Konyuru 10
imako 10
Mogen 10
sw 10
elruok 10
WAN 10
nogony 10
nowuoye 10
kosel@@ 10
mamana 10
weli 10
◇ 10
werogi 10
mikawo 10
Ken@@ 10
ab 10
motur 10
kachopo 10
jariemb 10
ation 10
Antoine 10
ramo 10
pra@@ 10
Mwanyalo 10
ichiwri 10
Wuoth 10
olendonegi 10
Yamo 10
ager 10
chiwuru 10
Yudia 10
jobedo 10
mati 10
mata 10
JUN 10
monjno 10
ndiki 10
chiwruokwa 10
nyith@@ 10
nouso 10
Jog@@ 10
wachgo 10
kini 10
inie 10
iketh 10
watimuru 10
yom@@ 10
marati@@ 10
achama 10
udora 10
kochuno 10
anal@@ 10
tari@@ 10
gimadho 10
Colorado 10
kawgi 10
Maka@@ 10
Nose@@ 10
Shane 10
BUGE 10
Apr 10
Jul 10
Lok 10
ipog@@ 10
gerowa 10
iang 10
inga 10
mael 10
Missouri 10
michiwonwa 10
riwa 10
Steven 10
watud@@ 10
lemonegi 10
Wade@@ 10
ipenjo 10
loga 10
semo 10
ringoe 10
Laodikia 10
wang’won 10
Nyisa 10
gimiyogi 10
nosemiyo 10
jewa 10
asebedogo 10
thuonde 10
luetene 10
15,000 10
Gerri 10
jwang’i 10
osemiyogi 10
nadwar 10
Ruodha 10
gango 10
ipuonjogi 10
mose 10
ohiny 10
yogino 10
ywayi 10
dubu 10
kuomeno 10
Rwak@@ 10
PI@@ 10
Lwedo 10
umedo 10
aba 10
Jachop 10
asetho 10
Northern 10
Jomoti 10
orago 10
udonj 10
142 10
Bugego 10
orieyowa 10
mwapuonjo 10
SOM 10
aorano 10
wagwelo 10
wachiworene 10
Baruano 10
oyiengni 10
rat@@ 10
odonjonigi 10
luore 10
orure 10
otamba 10
Turo 10
Standard 10
AD@@ 10
Dwarowa 10
lene 10
Roberto 10
jodhoho 10
waketre 10
Mam@@ 10
iuso 10
lew@@ 10
dan 10
initho 10
noywayo 10
ditimo 10
Ligangla 10
girit@@ 10
elono 10
olor@@ 10
rigo 10
sim 10
machonno 10
esi 10
Chin@@ 10
obi@@ 10
ahera 10
Loka 10
chena 10
obwogo 10
ONY 10
jolup@@ 10
okeche 10
timgino 10
dwacheno 10
Apendiks 10
isepen@@ 10
singnwa 10
ALWOR@@ 10
dagie 10
Nadwaro 10
up 10
oparnwa 10
itiyoe 10
kethoni 10
gisechako 10
omba 10
wawuondore 10
motimne 10
programno 10
fwambo 10
nende 10
1927 10
ell@@ 10
nanoe 10
oyudwa 10
gwedha 10
Bethzatha 10
nyalorenwa 10
girwa@@ 10
ó@@ 10
sabato 10
monde 10
DOE 10
1924 10
sekondar 10
lerogo 10
Jachak 10
Jam@@ 10
Oly 10
Ndi@@ 10
kopogore 10
Korka 10
Jezreel 10
Mountains 10
jogedo 10
monyis@@ 10
barupene 10
ging’i 10
manyako 10
waring 10
ilie 10
Penj 10
hone 10
okethgo 10
ang’ol 10
MAPI@@ 10
Tong 10
okorogo 10
okendorego 10
wagene 10
ologi 10
twag 10
jotendgi 10
wajatimo 10
Frost 10
deu 10
nosechano 10
NG’E 10
asemi@@ 10
hang@@ 10
joklasgi 10
124 10
ism 10
nyadib@@ 10
wasekendore 10
chwogo 10
otugore 10
ginyag 10
olandi 10
Thum 10
disore 10
Jerome 10
que 10
Odiechienge 10
akano 10
kuny 10
nyam@@ 10
Du@@ 10
omanyore 10
Ludia 10
tichwa 10
wasome 10
gimetho 10
bechgi 10
paka 10
kwedruok 10
chwale 10
noterore 10
Wapuonjore 10
asome 10
Giketo 10
mabe@@ 10
kedoe 10
mokuyo 10
oroe 10
yl 10
jorie 10
Melita 10
nomiyeno 10
ichierogi 10
mamanyo 10
Central 10
oterwa 10
Nanyisogi 10
matekgo 10
Ritri 10
duong’@@ 10
Methusela 10
tiegore 10
chierogi 10
oi@@ 10
Way 10
nyirombe 10
aheroga 10
RITO 10
nahango 10
huyo 10
DWARORE 10
jachien 10
tenego 10
Baasha 10
Sirk@@ 10
motimogo 10
yori 10
okudh 10
TR@@ 10
nyororo 10
akogo 10
donjogo 10
tergi 10
nolos@@ 10
Iyie 10
Wasumb@@ 10
dembore 10
ichul 10
nonoga 10
Jennifer 10
orni 10
iriembo 10
puonjoru 10
Rawerano 10
Joode 10
wachokore 10
kuomgigo 10
Hil@@ 10
opand 10
kalatesego 10
Itime 10
Da@@ 10
Stéphane 10
ochwa@@ 10
chwanye 10
wasir@@ 10
jata 10
owuonde 10
dwoki 10
Kambodia 10
Angelo 10
1926 10
ngechego 10
Noparo 10
MARGI 10
oyudogi 10
norwakowa 10
okechogi 10
rayaw 10
jasiki 10
ilok@@ 10
lop 10
Saskatchewan 10
Pacha 10
yutogi 10
ayore 10
ang’go 10
Nyagori 10
gwelowa 10
waywago 10
betgo 10
nwo 10
enoe 10
Hitler 10
rin@@ 10
Tara 10
Will 10
ca 10
otelone 10
okenda 10
matar 10
apong 10
injinia 10
chumbe 10
ted 10
pesano 10
mijing’o 10
gomboga 10
Victoria 10
olok@@ 10
gijiwa 10
á@@ 10
Uduto 10
Ol@@ 10
die@@ 10
kitund@@ 10
Nowa 10
jachiw 10
Kindewagi 10
Carmen 10
usiko 10
wachwanyre 10
awore 10
nokawono 10
obedon@@ 10
Kupro 10
gwedh 10
Saddukai 10
Jonos@@ 10
nyareno 10
oiko 10
ming’eyogo 10
kueyo 10
ucham 10
mule 10
ule 10
Scotland 10
kwet 10
padore 10
ochwo 10
Javier 10
mosesingo 10
Puo@@ 10
mika@@ 10
ndhowe 10
erubi 10
Age 10
chiwoe 10
ous@@ 10
Thowi 10
ohang@@ 10
weteu 10
owale 10
telonigi 10
ck@@ 10
ludh 10
motieko 10
ng’in@@ 10
Okil 10
Em@@ 10
okawwa 10
matindogi 10
rucho 10
moromogi 10
Romono 10
lweny@@ 10
ating 10
tegogi 10
otimna 10
tier@@ 10
toch 10
thene 10
malono 10
Wuone 10
Onyisowa 10
Una@@ 10
mosingi 10
mawiye 10
Origen 10
mokiewo 10
orena 10
olpota 10
isiro 10
ume 10
tudori 10
geng’i 10
Thoma 10
wapako 10
noyiengni 10
wajwang 10
neche 10
Chanzo 10
osechung 10
Osiepena 10
gineg 10
nioro 10
Gal@@ 10
op 10
School 10
molwor@@ 10
Wagombo 10
walamogo 10
ans@@ 10
dongore 10
yike 10
stend 10
ache 10
kopime 10
nyisechego 10
Kus@@ 10
ingone 10
mulowa 10
Kis@@ 10
DVD 10
osechweyo 10
sirni 10
ikwong 10
japar@@ 10
ohande 10
ogonye 10
watimono 10
Mamuol 10
dhooda 10
kikombe 10
ker 10
Sil@@ 10
SA@@ 10
wamorgo 10
timoreno 10
Amon 10
ulore 10
ombeni 10
law@@ 10
ogure 10
kawuononi 10
lwor@@ 10
Nochiwore 10
romoga 10
Of@@ 10
wadakieni 10
adwoke 10
olone 10
mamakore 10
dage 10
Pop 10
wake@@ 10
ikre 10
noluwe 10
ibadhi 10
bene 10
w16.0@@ 10
Henschel 10
ibolori 10
parora 10
ogoy@@ 10
Belgium 10
endego 10
UON@@ 10
bugene 10
wergo 10
reno 10
Obedie 10
noparone 10
Wanadhi 10
aloso 10
tiegoe 10
gidhier 10
Omor 10
ojiwgo 10
atiro 10
nosetiyo 10
erona 10
alam 10
ondikonegi 10
enong’iny 10
mochwiny 10
Aleksanda 10
kethonwa 10
riambi 10
Ikawo 10
Wagweli 10
gipenjore 10
yanyo 10
ohandgi 10
awuog 10
lori 10
oorogi 10
wakia 10
gikwong 10
nayiero 10
stadi@@ 10
yienyo 10
And@@ 10
nosega@@ 10
yako 10
luonga 10
owachonwa 10
pinjeruo@@ 10
japuonjreni 10
JU@@ 10
kuluoro 10
tam 10
Chenrono 10
nabed 10
mochuogi 10
bedna 10
otimogo 10
ting’go 10
ALO@@ 10
yino 10
jasiasa 10
jofwamb 10
lamoni 10
Histori 10
wapak 10
gitiego 10
Demetrio 10
chwou 10
range 10
endwa 10
kat@@ 10
gru@@ 10
Syriac 10
nowuogie 10
gasedego 10
Dere@@ 10
van@@ 10
oriemba 10
koyudo 10
gisen@@ 10
syndrome 10
gidagie 10
alokora 10
MEI 10
Epafra 10
Tur@@ 10
jonjore 10
momed@@ 10
oguedhogi 10
kogwen 10
tekra 10
nochiegni 10
Skunde 10
onyogi 10
matinni 10
michne 10
otam 10
Kodong 10
Hanani 10
MAT 10
Ketri 10
qu@@ 10
Jesus 10
rang’ol 10
Yunani 10
Wendy 10
gichul 10
lokono 10
inyag@@ 10
mapoya 10
Ogendni 10
mohinyore 10
ajasomo 10
ES@@ 10
obedonegi 10
Volume 10
kobolore 10
haw 10
Leo 10
Adier@@ 10
Arito 10
Ahazia 10
kuyono 10
ang’ad@@ 10
kuedh 10
X@@ 10
Osel@@ 10
oseng’ad@@ 10
PINYRUOTH 10
nogi 10
Dwon@@ 10
nasomo 10
Ringuru 10
modakie 10
kwayou 10
icha 10
mageno 10
Nokelo 10
iked 10
Hon@@ 10
tieki 10
People 10
agorego 9
rome 9
117 9
ekogo 9
lasgi 9
Sheila 9
Barry 9
olosnegi 9
opwod@@ 9
oleny 9
inyisoe 9
iyalo 9
Gichung 9
ketre 9
ng’weya 9
tege 9
yotga 9
ng’adone 9
Sobhuza 9
wamoro 9
Misa 9
ondikogi 9
Kuome 9
angu@@ 9
opako 9
makogi 9
dwacha 9
ISEGA@@ 9
itowa 9
mowinjorenigi 9
olerne 9
nobetie 9
jaodeno 9
Duoko 9
orango 9
jora 9
DUONG 9
alos 9
kana 9
Dwache 9
sum@@ 9
thiro 9
Yaw 9
nosetimore 9
urugo 9
nowalo 9
okwerre 9
machiegini 9
Nyalore 9
8,000 9
Mohero 9
deye 9
uparo 9
kuweyoru 9
Oyiego 9
Jodi 9
Federico 9
ner@@ 9
Laban 9
chup@@ 9
odundu 9
mogolo 9
atori 9
ogeng’wa 9
Kais@@ 9
anyogo 9
bwon 9
okuong’re 9
ibatise 9
Haleluya 9
MOR@@ 9
PENJ@@ 9
marateke 9
Dwaher 9
okengego 9
wawuoro 9
owito 9
limb@@ 9
nyalhodia 9
Twege 9
Miri@@ 9
idok 9
misumbane 9
wuothoe 9
mosegol 9
iteg 9
Gregorio 9
wahul@@ 9
efa 9
umbe 9
kotel@@ 9
Burano 9
jater@@ 9
sandgo 9
dobed 9
renegi 9
matekno 9
OD@@ 9
egono 9
gikonygi 9
Ben 9
watiye 9
sokono 9
Feb 9
gonye 9
rwakogo 9
notiego 9
ogono 9
olworowa 9
g’eyo 9
embo@@ 9
malerni 9
inguru 9
ojwang’a 9
rwakie 9
Akiko 9
moor 9
uwinj 9
Wapar 9
nanyal 9
sadaka 9
des 9
ongachiel 9
tiend@@ 9
wakre 9
nowenu 9
chung’@@ 9
egeno 9
ikwed 9
Nolero 9
Amish 9
olernwa 9
itin 9
oweteu 9
sirogi 9
Pich@@ 9
rachie 9
joketh 9
Or@@ 9
Yunivasiti 9
ine@@ 9
sim@@ 9
YORE 9
Kaponi 9
jakethono 9
woneno 9
○ 9
Jadier 9
ing’no 9
wonone 9
Ubiro 9
WARO 9
Osiepni 9
ogonywa 9
marit@@ 9
Hinnom 9
Jip 9
mwachiwo 9
Cleveland 9
duwore 9
wapidh 9
Wiyi 9
VI@@ 9
nondikogi 9
Sintike 9
Ogand@@ 9
idhiye 9
Adri@@ 9
oyango 9
visa 9
oloyogi 9
losonwa 9
noru@@ 9
Iwuoyo 9
oseketonwa 9
ONEGO 9
WACH@@ 9
watieg 9
nomoko 9
nopuonj@@ 9
makri 9
makwera 9
omiu 9
otemu 9
aromogo 9
dakgi 9
ph@@ 9
Wari@@ 9
144 9
aduru 9
gidhiga 9
Tamruok 9
anyisa 9
wnwa 9
moyudore 9
machwo 9
girikni 9
yotni 9
Joodgi 9
ajad@@ 9
ester 9
ty 9
giniloch 9
itiyogago 9
Itiyo 9
gisetiyo 9
Otayi 9
tiyonu 9
abet 9
milruok 9
Gavin 9
Wer@@ 9
golonwa 9
odhe 9
ting’na 9
puonjreuru 9
mbora 9
rundo 9
rachno 9
mosechopo 9
gikawe 9
mosego 9
Krete 9
giniyud 9
makora 9
134 9
anta 9
giwang 9
JOH@@ 9
ville 9
dhiro 9
ng’iye 9
Maduong’ie 9
kwayogo 9
mijiwo 9
giyudi 9
Anita 9
ting’ogi 9
KETHO 9
□ 9
Ju@@ 9
makruokwa 9
Valentina 9
owae 9
jaberni 9
yepo 9
bang’@@ 9
osechiere 9
Chung’uru 9
oguedhowa 9
iwer 9
tieng’no 9
ridore 9
rower@@ 9
ipidho 9
joka 9
Bildad 9
tar@@ 9
ng’adnegi 9
jarwak 9
opuo@@ 9
giwuoth 9
JER@@ 9
nokwo 9
Bombay 9
uni@@ 9
Lois 9
chamogo 9
Joyce 9
achiw 9
nyakabed 9
notere 9
elonegi 9
opong’@@ 9
wachre 9
mamoni 9
Jasik 9
mbruok 9
Gibed 9
Kod 9
Jasayans 9
Usewinjo 9
jawacho 9
nochunogi 9
nogwele 9
anj@@ 9
nosiemogi 9
THUOLO 9
akedo 9
otimoe 9
Nochiko 9
amak 9
Irina 9
lwenyni 9
Carolina 9
Faras 9
jakom 9
Giuseppe 9
oseikore 9
timorenu 9
Katika 9
orwakogi 9
hinyoreno 9
ilim 9
00,000 9
Gra@@ 9
noseyiero 9
AS@@ 9
migawowa 9
erno 9
Rang’@@ 9
Jootego 9
Zeu 9
Jad@@ 9
omakgi 9
ingore 9
chupa 9
wajiwi 9
yoreyore 9
ajatimo 9
out 9
Bir@@ 9
goyoe 9
Joachim 9
Chien 9
kosetho 9
singore 9
jatu@@ 9
kinyise 9
ikano 9
129 9
mogono 9
Mbese 9
Ak@@ 9
ojony 9
nawuok 9
gikadho 9
iluong 9
nogikie 9
amre 9
chud@@ 9
aku@@ 9
132 9
jotendu 9
giyue 9
ong’iew 9
mii 9
13@@ 9
anamiu 9
ochakoree 9
Herbert 9
kaluwo 9
Dongo 9
aduog 9
mariambo 9
amakora 9
nadok 9
omiyeno 9
jiwoga 9
nowa 9
mwachando 9
dus@@ 9
Odno 9
fwenyni 9
nenogigo 9
ginene 9
jasayans 9
kwang’o 9
joguondo 9
Ev@@ 9
lwe@@ 9
Miga@@ 9
rab@@ 9
morne 9
nyono 9
lendone 9
jothum 9
gijiwe 9
Mumbego 9
notim@@ 9
Cal@@ 9
opich 9
nyid@@ 9
Wecheni 9
Wede 9
koketho 9
jaodgi 9
MAGE 9
bayogo 9
monyuolo 9
kethruokno 9
LWENY 9
well 9
iikri 9
Olimpik 9
oyalo 9
nowachonwa 9
watimoe 9
bod 9
ide@@ 9
Nokoro 9
126 9
ikendo 9
kodwoko 9
Western 9
niga 9
aler 9
OWADWA 9
Kum@@ 9
migapwa 9
matiendeni 9
Greek 9
irwa 9
oherwa 9
kwayoni 9
nong’no 9
woyi 9
jakonya 9
giritre 9
agulni 9
nochwalo 9
nokeche 9
urit 9
ruto 9
gre@@ 9
Efr@@ 9
Center 9
enti@@ 9
gichokre 9
YOWA 9
okw@@ 9
maumo 9
ajatiyo 9
omakogi 9
iland 9
wit@@ 9
mosekelo 9
dakwa 9
ds 9
loyogo 9
jopuonjrenego 9
batisone 9
orido 9
oseriwore 9
parie 9
otek 9
RU@@ 9
agruok 9
mopidh 9
jong’a 9
Puonjowa 9
kweno 9
Dwok@@ 9
gipon 9
kib@@ 9
Denmark 9
MB@@ 9
nodok@@ 9
gang 9
ming’ado 9
Adhi 9
atayo 9
ikwe@@ 9
chia 9
lonyo 9
matho 9
moterore 9
uoro 9
oseloki 9
Gol 9
beni 9
nogundho 9
adola 9
ong’eyogi 9
Wigi 9
giher@@ 9
gidwoko 9
websa@@ 9
Jom@@ 9
Gikonyowa 9
toe 9
yadhe 9
moku@@ 9
uonj 9
Braille 9
kuod 9
engo 9
Wallen 9
maling 9
ub@@ 9
moketie 9
nondikone 9
nong’anyogo 9
somb@@ 9
lep@@ 9
laibrari 9
wami@@ 9
gilimo 9
Nowachone 9
Asen@@ 9
walendogo 9
Nosingo 9
wuoroga 9
owachono 9
kuny@@ 9
jathum 9
Lei@@ 9
wasigugo 9
tekrene 9
Okayo 9
noyiengini 9
jonon 9
wabedie 9
Nagombo 9
wasun@@ 9
Machalo 9
meth@@ 9
korwako 9
kojwang 9
noneko 9
nong’iewo 9
ogolwa 9
alamo 9
Ng’anyo 9
nopuonje 9
hori 9
mowe 9
thiedhi 9
Awacho 9
ating’o 9
kidhi 9
arr@@ 9
nochuna 9
was@@ 9
tiyonegi 9
manyore 9
Mig@@ 9
giherowa 9
oselandore 9
kotin 9
alogi 9
ajuoga 9
gisetho 9
ks@@ 9
ochokre 9
LOYO 9
Hig@@ 9
Osetimo 9
iseketo 9
hinya 9
olosgi 9
Wechenego 9
ochwanya 9
Josué 9
WACHNI 9
miluon@@ 9
Rumo 9
2017 9
wawero 9
Cor@@ 9
oholo 9
Genono 9
AB@@ 9
Golden 9
orno 9
duond 9
Konye 9
apuonjorago 9
Shekem 9
Flavia 9
Giniger 9
noyepi 9
manenre 9
riwi 9
Natiyo 9
Zambia 9
Kanyak@@ 9
dhin@@ 9
jotichna 9
owore 9
achala 9
iwachono 9
pekgi 9
isandoe 9
Sanderson 9
nokere 9
WANYALO 9
Idhi 9
towa 9
olendie 9
Chokruogno 9
lose 9
1964 9
yiew 9
jalupne 9
Nyagruok 9
gilochi 9
puonjruokni 9
chwanyogi 9
g’no 9
mabup 9
iyeno 9
BANG 9
Santa 9
yawa 9
jotichgo 9
ANG’@@ 9
MIS@@ 9
noketono 9
Rem 9
indi 9
jari 9
notue 9
miseneno 9
Padrino 9
Dabed 9
Ramon 9
ochwanyre 9
Divai 9
yam@@ 9
Ella 9
Use@@ 9
oel 9
Matano 9
Muhimu 9
dier@@ 9
wawuo@@ 9
aberno 9
wachwanyo 9
donyiso 9
anjogo 9
oseiko 9
kubatisogi 9
anena 9
ochoko 9
egigo 9
Joherana 9
nyaloga 9
Honni 9
giparre 9
eng’eya 9
mowuoyo 9
nyisoga 9
1928 9
gariyogo 9
Hades 9
faresego 9
migap 9
girom 9
giwer 9
ngoro 9
ME@@ 9
kokawo 9
Nyal 9
wamigi 9
elu@@ 9
asik 9
romowa 9
kotayo 9
giwinjre 9
Kodu 9
maringo 9
itu 9
ogonyore 9
nere 9
warore 9
dindegi 9
noolo 9
ette 9
issa 9
otno 9
giseng’ado 9
gilokre 9
DWOKOGI 9
Kochomo 9
ocha@@ 9
amany 9
lemuru 9
nosepuonjore 9
japuonjno 9
wakaloe 9
manyocha 9
ochomowa 9
Eliab 9
nger@@ 9
ogere 9
Asel@@ 9
Kite 9
tukego 9
wedhe 9
omiel 9
Jakony@@ 9
kokonyowa 9
Pal@@ 9
idewogi 9
riak 9
ting’no 9
chalonwa 9
nochan@@ 9
mopand 9
iger 9
king’@@ 9
alworago 9
Grube 9
rou 9
Osiepewa 9
KIND@@ 9
honono 9
waloye 9
omadho 9
makar@@ 9
ipuonj 9
chikore 9
owewa 9
warwa@@ 9
bisobe 9
chiendego 9
noyiene 9
moteg@@ 9
dong’go 9
fakt@@ 9
bno 9
iluon@@ 9
embogi 9
mang’eny@@ 9
osepuonjo 9
Kan@@ 9
guedhoga 9
puonjorigo 9
buoch 9
eyou 9
aseweyo 9
Wajiwi 9
anyone 9
giwuondore 9
gichoko 9
obo@@ 9
nyasani 9
Mondegi 9
watuwo 9
ng’eyi 9
momulo 9
herowago 9
1923 9
kid@@ 9
chw@@ 9
polono 9
chunje 9
traktno 9
adamu 9
osewuondo 9
mwandu@@ 9
makosa 9
ic@@ 9
ranyis@@ 9
Joe 9
uheroru 9
wasaye 9
Migawono 9
betino 9
é 9
nojatimo 9
mahunduno 9
Chand@@ 9
yn 9
ochuewa 9
wacham 9
winygo 9
watayo 9
puonjruoge 9
v 9
monja@@ 9
MANYALO 9
Nyithindwa 9
KATA 9
Ann 9
okwere 9
NYAKA 9
keto@@ 9
noseyudo 9
osiepe@@ 9
Wasomaji 9
watudore 9
Web 9
Chiega 9
Ocean 9
Kishon 9
1967 9
yany@@ 9
kogombe 9
odiechieng@@ 9
chang 9
1959 9
wapuonj@@ 9
gugo 9
Timbego 9
kethona 9
bepe 9
oyue 9
nyakware 9
apendiks 9
giwinje 9
Barabba 9
omoso 9
wapadre 9
Ndalowagi 9
bethel 9
otemwa 9
Testimonium 9
nomone 9
jolam 9
wanonuru 9
chiworego 9
Chul@@ 9
Cathy 9
noluongou 9
menyo 9
otuwo 9
ijiw 9
noring@@ 9
mopandi 9
Ritruok 9
oguedho 9
fuondni 9
Mku@@ 9
thir@@ 9
malaria 9
Websaitno 9
wager 9
kumachielo 9
ubi 9
Adolfo 9
kokonyo 9
kolemo 9
Joh@@ 9
nochueyogi 9
Ray 9
undu@@ 9
tuwo@@ 9
IE 9
Mus@@ 9
moruru 9
jong’anyo 9
abwok 9
inan 9
ochweye 9
Ethiopi@@ 9
chielgo 9
ng’eng 9
skundwa 9
nohum 9
osenyis@@ 9
Kyrgyz 9
ej 9
oseyud 9
walwar 9
w17.0@@ 9
onyore 9
obed@@ 9
nokie 9
Ng’i@@ 9
josom 9
ogwelgi 9
nyasigo 9
notimorego 9
owerego 9
pedho 9
ndigni 9
Sap 9
kokwaye 9
noting 9
jwang’ogi 9
ry 9
moowore 9
gisom 9
Oparo 9
marichogi 9
oseelonwa 9
Gidwaro 9
Ng’atni 9
wachop@@ 9
lwetu 9
tamowa 9
ginyuol@@ 9
NG’AT 9
oluonggi 9
Michigan 9
owadgino 9
tenberg 9
gininwang 9
konyisowa 9
Jotichne 9
Imani 9
Jay@@ 9
tagi 9
Sarai 9
giting 9
nyikwa@@ 9
igwel@@ 9
Des 9
gipi@@ 9
ison@@ 9
embi 9
Orpa 9
Eunice 9
idwok 9
nyikwagi 9
Tam@@ 9
luanda 9
British 9
ikethoe 9
Ringre 9
landuru 9
Life 9
podhi 8
onago 8
anyuola@@ 8
Luis 8
puoch 8
Niger 8
wapong’o 8
baseball 8
wahango 8
Burkina 8
Faso 8
bag@@ 8
watimnegi 8
poya 8
Marelius 8
poni 8
tiko 8
otong 8
wasewacho 8
omire 8
thoneno 8
Claude 8
az@@ 8
tey@@ 8
Ne@@ 8
pan@@ 8
wowo 8
amoro 8
Lak@@ 8
tache 8
unga 8
amin 8
yierowa 8
Jopuonj@@ 8
oluon@@ 8
osea 8
Os@@ 8
rangowa 8
owite 8
Rober@@ 8
uluwo 8
oselocho 8
Bel@@ 8
osenyisa 8
Han@@ 8
UD@@ 8
wanabed 8
tiekogi 8
Simone 8
osenono 8
pekne 8
wanegi 8
oyuma 8
osetimne 8
Naples 8
gri 8
Jersey 8
ado 8
tr@@ 8
wongo 8
Ven@@ 8
ye@@ 8
yona 8
wang’egi 8
Jassa 8
pino 8
Lin@@ 8
tand@@ 8
otimogi 8
owuondore 8
Rie 8
upo 8
thiedhe 8
dhono 8
osewuondi 8
wadonji 8
osiepenego 8
tiekonwa 8
2,7@@ 8
Hin@@ 8
osegoyo 8
rapor 8
ballet 8
uoga 8
oseres@@ 8
mome@@ 8
Cas@@ 8
430 8
oriwgi 8
1932 8
Filis@@ 8
ochore 8
oselok 8
otiyoe 8
waywak 8
IS 8
GA@@ 8
ther@@ 8
Iz@@ 8
dr@@ 8
acham 8
ZE@@ 8
yowaga 8
oseora 8
Philip 8
ff 8
waduogo 8
wang’iyogo 8
uomo 8
orenu 8
wayude 8
Tabitha 8
otwi 8
Tacitus 8
Gloria 8
lwen@@ 8
Aristar@@ 8
waywag 8
wakendorego 8
uchiel 8
ATI@@ 8
Lou@@ 8
rapar@@ 8
40@@ 8
sal@@ 8
Hel@@ 8
ers 8
thung’e 8
OL@@ 8
osetimona 8
otiega 8
Rabbi 8
anyag@@ 8
yawuotego 8
wengena 8
hur@@ 8
yuo@@ 8
pichano 8
Choong 8
Keon 8
yawuoti 8
Tay@@ 8
tuwone 8
Gibe@@ 8
kolpota 8
tung@@ 8
Silistra 8
cy 8
Francisco 8
Victor 8
ton@@ 8
mala@@ 8
Mozambique 8
otimorego 8
Isaac 8
Alexandra 8
OB@@ 8
oweyowa 8
❑ 8
SU@@ 8
talan@@ 8
wena 8
puonjoe 8
osire 8
Wakaw 8
Rwanda 8
yal@@ 8
bu 8
oweni 8
ong’uru 8
rich 8
ong’one 8
Paula 8
sky 8
wanwang’o 8
wonyo 8
Margarita 8
oneni 8
rowa 8
Ronald 8
fer 8
Rat@@ 8
dou 8
U.S 8
womore 8
God@@ 8
Estonia 8
Pris@@ 8
omede 8
ondanyo 8
esh 8
sayogi 8
ve 8
Est@@ 8
zz@@ 8
sabun 8
Old 8
1975 8
okrifa 8
oriembgi 8
Claudete 8
tashashta 8
yl@@ 8
Penj@@ 8
Gad 8
osekendo 8
wanonore 8
opie 8
robede 8
wakelo 8
oyanyo 8
rong’onde 8
otem@@ 8
monegi 8
owero 8
NE@@ 8
TE 8
gachiel 8
ech@@ 8
Bronx 8
orwa 8
hoga 8
roga 8
Cam@@ 8
rabet 8
kanyakl@@ 8
puoyogi 8
hal@@ 8
umbego 8
aten 8
gweng’@@ 8
Sharon 8
janyuol@@ 8
wend 8
Eli@@ 8
Gomor@@ 8
der 8
Biblical 8
Ahi@@ 8
ape 8
sunami 8
Rio 8
Janeiro 8
Eliashib 8
moth@@ 8
Kap@@ 8
Julio 8
Joy 8
wop 8
Eritrea 8
osingone 8
weten@@ 8
Miguel 8
pode 8
ates 8
Lebanon 8
MOT@@ 8
hu 8
Parad@@ 8
Christopher 8
Pedro 8
Ly@@ 8
Haykanush 8
Marcel@@ 8
ting’re 8
moses@@ 8
tuwona 8
Dennis 8
Ram@@ 8
owo 8
rise 8
Yer@@ 8
usalem 8
wapake 8
Dothan 8
turmbeta 8
ong’ore 8
◆ 8
1916 8
anach@@ 8
yora 8
wachiwone 8
watime 8
wakano 8
oyudie 8
ngi@@ 8
mowinj@@ 8
uong’no 8
men@@ 8
Media 8
opake 8
wr@@ 8
Tiberi@@ 8
tich@@ 8
yieng’o 8
oridore 8
ongano 8
Sel@@ 8
Pog@@ 8
1972 8
ous 8
omiti 8
ong’anj 8
ney 8
Kony@@ 8
weny@@ 8
PIN@@ 8
ES 8
yierogi 8
Nov 8
Miz@@ 8
Vietnam 8
tweng’o 8
Abner 8
Raúl 8
ong’iewo 8
toka 8
saye 8
osetiek 8
wiye@@ 8
Dama@@ 8
jood@@ 8
osenindo 8
rituru 8
wrene 8
Giorgi 8
tat@@ 8
udag 8
wei 8
Riley 8
thin@@ 8
oorne 8
opwo 8
shayiri 8
gisi@@ 8
orwaki 8
wno 8
timora 8
oyany 8
walendoni 8
osandgi 8
www.watchtower.org 8
1915 8
werego 8
wendno 8
osud 8
bol 8
Royal 8
eruo@@ 8
fwamb 8
sechene 8
uweyo 8
wuondre 8
oweyi 8
Osi@@ 8
Shi@@ 8
ochwere 8
wakiya 8
ty@@ 8
oum@@ 8
aber 8
opogwa 8
wreuru 8
2018 8
gipar@@ 8
Kind 8
uwacho 8
ver 8
wuor@@ 8
wakowa 8
Kend@@ 8
tno 8
ginil@@ 8
lue@@ 8
Columbus 8
yawuotwa 8
oxygen 8
unda 8
yogigo 8
woree 8
thuondi 8
penjou 8
wating’o 8
secheni 8
sawogo 8
Czech 8
Grand 8
osike 8
Nadia 8
oringi 8
rido 8
Cestius 8
Gallus 8
hormone 8
apuonj@@ 8
water@@ 8
References 8
uwuoth 8
opim 8
113 8
siem@@ 8
KOR@@ 8
ist 8
UT 8
ale@@ 8
ywaya 8
timbegigo 8
tiendi 8
orona 8
oseywayo 8
Gis@@ 8
opw@@ 8
marach@@ 8
wagomb 8
udigo 8
nag@@ 8
yawuota 8
ong’a@@ 8
wachun 8
chuno@@ 8
Aaron 8
ripod 8
Darwin 8
wawuoyoe 8
Fil@@ 8
tega 8
ibati@@ 8
onj 8
Malai@@ 8
erib 8
tur@@ 8
pinyruo@@ 8
nogwel@@ 8
Sik@@ 8
ute@@ 8
nyathi@@ 8
Naz@@ 8
Leanne 8
anna 8
Irenaeus 8
twang’o 8
Lar@@ 8
Rob@@ 8
Lor@@ 8
rendore 8
timor@@ 8
matek@@ 8
236 8
wajiwreuru 8
osenyagore 8
warit@@ 8
openj@@ 8
En@@ 8
Renato 8
Nyi@@ 8
orach 8
GA 8
pamo 8
ketri 8
Est 8
wang’ni 8
aser@@ 8
wuod@@ 8
dek 8
ens 8
waku 8
oywagi 8
mochan@@ 8
Studies 8
wanyisgo 8
ff@@ 8
weni 8
wamore 8
Emil 8
Emilia 8
Paradise 8
wachuru 8
Toronto 8
ukiya 8
parruokwa 8
CHAN@@ 8
aher 8
Waldo 8
Barzillai 8
lar@@ 8
ès 8
Dha@@ 8
Nicol@@ 8
Ama@@ 8
ong’ogi 8
sab@@ 8
suarans 8
enigi 8
All 8
cre@@ 8
Kla@@ 7
Natalie 7
enje 7
Er@@ 7
bia 7
pel@@ 7
Nin@@ 7
atha 7
press 7
Miss 7
Thompson 7
Dominican 7
Flavius 7
Declaration 7
fom@@ 7
NYA@@ 7
diamond 7
Broadcasting 7
.2 7
aska 7
KI 7
hiambo 7
fas@@ 7
anti@@ 7
Shul@@ 7
udok 7
Beth 7
esi@@ 7
egno 7
tic 7
Tagalog 7
atira 7
ten 7
sha@@ 7
gram 7
taro 7
AT@@ 7
Tro@@ 7
kamb@@ 7
owete@@ 7
Ron 7
anakel 7
bug@@ 7
Jumpei 7
ington 7
worene 7
­ 7
rich@@ 7
Kathleen 7
Svetlana 7
maler@@ 7
Tho@@ 7
uoth 7
hero@@ 7
GAL 7
list 7
Suiter 7
Ham@@ 7
KON@@ 7
Nain 7
pie@@ 7
regi 7
lend@@ 7
sms 7
Ferguson 7
Pu@@ 7
bes@@ 7
oudi 7
1881 7
Kazuhiro 7
bolre 7
esia 7
ly 7
Alek@@ 7
Marco 7
Fel@@ 7
Elias 7
Sofia 7
rog@@ 7
Bulletin 7
dre@@ 7
glo 7
Hebron 7
Jerry 7
Willie 7
HU@@ 7
inda 7
ete 7
Hur 7
iwinj@@ 7
Shinar 7
Ng’won@@ 7
600,000 7
Bruce 7
Bri@@ 7
thage 7
Swiss 7
risto 7
miu 7
urt 7
Amsterdam 7
V 7
Julie 7
id 7
arthritis 7
anak@@ 7
sud 7
Turin 7
pen 7
Reneé 7
Tonga 7
ANO 7
Nadab 7
Abihu 7
pand@@ 7
THO@@ 7
ONYUO@@ 7
och 7
Ray@@ 7
ming@@ 7
Klein 7
odeno 7
11@@ 7
Pascal 7
aci@@ 7
pilgrim 7
egini 7
Publications 7
Index 7
ng’anj@@ 7
Belfast 7
adia 7
Florence 7
usi 7
mei 7
les@@ 7
Lana 7
diris@@ 7
anne 7
Tokmok 7
Tasmania 7
Early 7
kt 7
ology 7
tae 7
kwon 7
bulu 7
ndho@@ 7
esley 7
Museum 7
Art 7
AMER@@ 7
penno 7
right 7
Vanessa 7
egni 7
1973 7
phonograph 7
ING 7
migep@@ 7
masir@@ 7
Qui@@ 7
Guinea 7
Aili 7
lio 7
Milky 7
Elaine 7
weny 7
Hall 7
ä@@ 7
WO@@ 7
lier 7
Cristina 7
Supot 7
Armenia 7
Ga@@ 7
tieng’@@ 7
Jonas 7
Meroz 7
Por@@ 7
nik@@ 7
Lakselv 7
ng’eny@@ 7
Wag@@ 7
oeni 7
Ky@@ 7
papa 7
Sri 7
Lanka 7
1910 7
9,000 7
hom@@ 7
sentim@@ 7
teg 7
Patrick 7
ppo 7
ón 7
emi 7
sia 7
win@@ 7
jotich@@ 7
Jehoiada 7
mafu@@ 7
2016 7
483 7
Law 7
ick 7
BIB@@ 7
Service 7
ille 7
wete@@ 7
Dew 7
Tokyo 7
ö@@ 7
Bolivia 7
Marek 7
ohal@@ 7
Nob@@ 7
carbon 7
Micronesia 7
Pon@@ 7
agin@@ 7
chie 7
TIME 7
vey 7
Owad@@ 7
edhi 7
Luca 7
ella 7
Jachwech@@ 7
Herd 7
Nab@@ 7
Ca@@ 7
pw@@ 7
umed 7
Sullivan 7
amin@@ 7
reg@@ 7
Gabri@@ 7
Edna 7
THE 7
Ish@@ 7
somba 7
kun@@ 7
Pho@@ 7
ISAIAH 7
Washington 7
Somalia 7
wahili 7
Olaf 7
Langton 7
Sukhi 7
co 7
Pryce 7
endini 7
out@@ 7
ant 7
tini 7
2.@@ 7
Sis@@ 7
kinson 7
dad 7
upi@@ 7
Ahith@@ 7
oba 7
Panama 7
enu 7
Turku 7
Alona 7
EM 7
ez@@ 7
ede 7
Bin@@ 7
Eng@@ 7
170 7
Bol@@ 7
Storrs 7
Ribeiro 7
Sho@@ 7
lovakia 7
Ken 7
João 7
Lisbeth 7
Vatican 7
Gri@@ 7
ses@@ 7
Dong@@ 7
Bangladesh 7
Kent 7
site 7
dere@@ 7
bel 7
all 7
Graz 7
Kimberly 7
ord@@ 7
chor 7
HIG@@ 7
goti@@ 7
sip@@ 7
Lily 7
yot@@ 7
Lidasi 7
Virgílio 7
iler 7
wechne 7
ering 7
Down 7
sel 7
NA@@ 7
Harold 7
Elsie 7
fia 7
Sept 7
zabibu 7
sekon@@ 7
fr@@ 7
nun@@ 7
Millennial 7
kobo@@ 7
kla@@ 7
angu 7
bak@@ 7
tena 7
Lilongwe 7
1,200 7
185,000 7
nja@@ 7
Michel 7
ET 7
pat 7
ibu 7
Good 7
emi@@ 7
stroke 7
ison 7
st 7
amba 7
orogo 7
hol@@ 7
ny 7
Cesar 7
Bur@@ 7
fe@@ 7
see 7
Codex 7
zon 7
Ago@@ 7
weng@@ 7
Alfred 7
Victorine 7
Pat 7
mast@@ 7
Amb@@ 7
ons 7
Jackson 7
cheese 7
1969 7
Fernando 6
onso 6
Thor@@ 6
Nahum 6
Oxford 6
Barnes 6
Costa 6
Rica 6
1908 6
aked 6
Rein@@ 6
▸ 6
Kesia 6
Esa 6
dukai 6
GEN@@ 6
ndha@@ 6
Maureen 6
Tud@@ 6
eng’o 6
nang@@ 6
Gandhi 6
Happy 6
Tessie 6
Sas@@ 6
ISE@@ 6
Texas 6
Cop@@ 6
Ci@@ 6
chakogo 6
tia 6
jand@@ 6
honda 6
tali 6
ish 6
Math@@ 6
yan 6
Pavel 6
wali 6
Guy 6
nda@@ 6
Grant 6
Lisa 6
jari@@ 6
timbe@@ 6
Sim@@ 6
Students 6
erego 6
League 6
Croesus 6
tian 6
mal 6
bora 6
Sir@@ 6
Cuenca 6
bon@@ 6
shi@@ 6
Herman 6
Magdalena 6
uat@@ 6
zab@@ 6
stro@@ 6
line 6
Yury 6
ais 6
JE@@ 6
Blaise 6
ys 6
Cynthia 6
kidi@@ 6
Hiroo 6
muse@@ 6
isha 6
So@@ 6
Diehl 6
ringi 6
260 6
.5 6
Kitty 6
walend@@ 6
abo@@ 6
Adria 6
omy 6
kung 6
Lot 6
nyik@@ 6
Gar@@ 6
Marc 6
Jod@@ 6
Am@@ 6
SEPTE@@ 6
eng’no 6
wana 6
Caroline 6
His@@ 6
andoe 6
ois 6
pos@@ 6
adier@@ 6
oman@@ 6
60@@ 6
agony 6
Max 6
nomed@@ 6
Cap@@ 6
Sk@@ 6
und 6
Roxana 6
Alberto 6
etz@@ 6
Mey@@ 6
13,@@ 6
van 6
Pax 6
enwa 6
uom 6
Jes@@ 6
Chile 6
Knut 6
BB@@ 6
Angela 6
Lap@@ 6
matu@@ 6
Giant 6
Whit@@ 6
Chuny@@ 6
8,000,000 6
gn@@ 6
Mer@@ 6
Program@@ 6
bad@@ 6
coal 6
Elke 6
Mapuche 6
aca 6
gas 6
Zealand 6
Wiktor 6
ow 6
mau@@ 6
Ts@@ 6
hidi 6
114 6
140 6
Lije 6
40,000 6
Vic@@ 6
Aug@@ 6
PEN@@ 6
221 6
ment 6
Madrid 6
iberia 6
Islands 6
mer@@ 6
Tulun 6
RIT@@ 6
Laurie 6
NGI@@ 6
SAN@@ 6
ogony@@ 6
dit 6
Swaziland 6
Theological 6
Great 6
ell 6
mowal@@ 6
can@@ 6
Len@@ 6
tab@@ 6
Orbeliani 6
Rich@@ 6
Nicaragua 6
Claudia 6
ared 6
ased 6
Mod@@ 6
Kod@@ 6
ver@@ 6
Tetragrammaton 6
og 6
Beli@@ 6
bro@@ 6
tue 6
Jacques 6
Rod@@ 6
Philo 6
ire@@ 6
Jehoash 6
Nadine 6
Didier 6
ras 6
300,000 6
richo@@ 6
del@@ 6
ze@@ 6
3,9@@ 6
Nuremberg 6
Timna 6
Alejandro 6
Pin@@ 6
Leonardo 6
1936 6
Baltasar 6
Agnes 6
Archaeology 6
Maya 6
Raquel 6
d’@@ 6
201 6
Francis 6
bas@@ 6
Eno@@ 6
sis 6
Atsuko 6
oria 6
200,000 6
Smith 6
mad@@ 6
INE 6
ija 6
pa·rou·siʹa 6
Pliny 6
Perrine 6
Lisbon 6
codex 6
karate 6
137 6
Ir@@ 6
Poti@@ 6
Yos@@ 6
onon@@ 6
1.@@ 6
Maurizio 6
Gianni 6
Samari@@ 6
Ida 6
Department 6
Kansas 6
Dak@@ 6
Erica 6
Nancy 6
Irène 6
Kayla 6
THIN@@ 6
400,000 6
455 6
ev 6
Albania 6
Huntingford 6
keche 6
chwan@@ 6
Bertil 6
ral@@ 6
ret@@ 6
teʹ@@ 6
Bob 6
jou@@ 6
Ballet 6
ne’phesh 6
wargi 6
Jonadab 6
Manila 6
ban 6
chokre 6
Alfonsine 6
sandu@@ 6
Mikhail 6
circus 6
Emily 6
Splane 6
ord 6
Nora 6
Gardner 6
SAL@@ 6
ayogo 6
water 6
GU@@ 6
Ricky 6
propaganda 6
Dar@@ 6
Ancient 6
bati@@ 6
Henri 6
Eleazar 6
II 6
isan@@ 6
Ravensbrück 6
iher@@ 6
akia 6
rus@@ 6
Bab@@ 6
Heber 6
Vir@@ 6
ins@@ 6
ér@@ 6
ör@@ 6
Carin 6
emo@@ 6
jan 6
Ket@@ 6
Petra 6
Cu@@ 6
Bud 6
chono 6
alia 6
Bed@@ 6
pun@@ 6
Fre@@ 6
215 6
rani@@ 6
Gothic 6
iring 6
Abi@@ 6
109 6
sid@@ 6
ence 6
Tatyana 6
Informant 6
JOS@@ 6
TB 6
adel@@ 6
hang 6
Odiechien@@ 6
Elva 6
Winnipeg 6
Kathar@@ 6
Eastern 6
Macmillan 6
Nger@@ 6
Bero@@ 6
Prison 6
Time 6
Estienne 6
bedon@@ 6
Af@@ 6
a·gaʹpe 6
pond 6
Ten@@ 6
,8@@ 6
Ith@@ 6
Ze@@ 6
olf 6
een 6
band 6
row 6
gombo@@ 6
net@@ 6
undone 6
roch@@ 6
PA 6
Guatemala 6
Gerar 6
engini 6
Indian 6
anis@@ 6
etta 6
DON 6
Stel@@ 6
nicotine 6
Heidi 6
maduong’@@ 6
Mich@@ 6
Salome 6
Kyle 6
akim 6
sh 6
flu 6
tach 6
Mandy 6
Sal@@ 6
PE 6
1473 6
INT@@ 6
DAK 6
Assembly 6
Eshba@@ 6
duon@@ 6
wachono 6
FEBRU@@ 6
fwa@@ 6
chir@@ 6
inore 6
Corinna 6
Arimathea 6
Propaganda 6
ary 6
Tennessee 6
Chal@@ 6
fer@@ 6
Charitable 6
Planning 6
Jewish 6
997 6
Ann@@ 6
uch 6
Od@@ 6
OP@@ 6
Rud@@ 6
language 6
tak@@ 6
Wapuonj@@ 6
175 6
Bauru 5
Jus@@ 5
loy@@ 5
Schroeder 5
hood 5
Donald 5
Bre@@ 5
Dutch 5
Pledging 5
Faithfulness 5
Dale 5
YE@@ 5
bert 5
ins 5
Sign 5
penjre 5
hekalu@@ 5
X 5
JANU@@ 5
Antiquities 5
lad@@ 5
Bud@@ 5
Tar@@ 5
Allan 5
Takuya 5
masin@@ 5
Talmud 5
Guayaquil 5
Den@@ 5
Katrina 5
awinj@@ 5
Sto@@ 5
Fascist 5
tene 5
tsunami 5
Syl@@ 5
edon 5
Evi@@ 5
lena 5
Tit@@ 5
Cre@@ 5
enza 5
Geʹen·na 5
chang@@ 5
195 5
197 5
Feinan 5
Stephany 5
Nichols 5
Iowa 5
Lucy 5
Phillip 5
Racquel 5
lor@@ 5
Oksana 5
neng@@ 5
nis@@ 5
Scha@@ 5
Science 5
Council 5
Karma 5
bidhore 5
Sime 5
Bergen 5
Will@@ 5
à 5
pneu@@ 5
ʹma 5
eller 5
uonde 5
Dr 5
CAR@@ 5
White 5
Masi@@ 5
Tor@@ 5
7,000,000 5
Damaris 5
O’Connor 5
Roy 5
Ywa@@ 5
Che@@ 5
Bethuel 5
Sidon 5
Yug@@ 5
Apun 5
abine 5
otus 5
Timor 5
thwa 5
Rome 5
mir 5
Nyag@@ 5
Frankfurt 5
Pat@@ 5
Inter@@ 5
usi@@ 5
Nathanael 5
Keith 5
oul 5
gorof@@ 5
224 5
Court 5
den 5
Romana 5
wes 5
Christa 5
Shunem 5
Etta 5
Selma 5
IC@@ 5
BR@@ 5
ato 5
WAR@@ 5
thuon@@ 5
Atlantic 5
ort 5
wafu 5
Jensen 5
ç@@ 5
Bas@@ 5
kwon@@ 5
Philadelphia 5
ray@@ 5
CO@@ 5
PINY@@ 5
KONY@@ 5
108 5
Balykchy 5
Wh@@ 5
than@@ 5
hand 5
Puon@@ 5
PAR@@ 5
Research 5
diera 5
thuo@@ 5
xote 5
band@@ 5
Archi@@ 5
batisogi 5
740 5
w16.@@ 5
Vinc@@ 5
Judith 5
Mormon 5
gop@@ 5
Jachuech@@ 5
Annikki 5
Levi 5
Lösch 5
bar 5
BER@@ 5
Elvira 5
AU@@ 5
ün@@ 5
Liter@@ 5
Thailand 5
Jachu@@ 5
rang’@@ 5
Petersburg 5
Gam@@ 5
tiago 5
Marach@@ 5
Valen@@ 5
Burnett 5
Harris 5
stan@@ 5
Tob@@ 5
Pel@@ 5
Kelsey 5
■ 5
Ellen 5
EG@@ 5
Fran@@ 5
College 5
Jaloch@@ 5
Sakura 5
tog@@ 5
Filip 5
Om@@ 5
Mes@@ 5
Mediterranean 5
ilia 5
Cloris 5
Ayu@@ 5
Brook@@ 5
jar 5
,000 5
copper 5
run@@ 5
amu 5
Ex@@ 5
Expository 5
DeCon@@ 5
bat@@ 5
Apol@@ 5
Lansing 5
eda 5
Mobile 5
Berlin 5
1,400 5
Columbia 5
Essly 5
ai 5
Review 5
Chattanooga 5
Osaka 5
Victoire 5
akre 5
woreno 5
Office 5
yuni@@ 5
Domitian 5
mp@@ 5
Ur@@ 5
wag 5
monoxide 5
dem@@ 5
Bruys 5
Nyas@@ 5
2,0@@ 5
aha 5
sirk@@ 5
okia 5
Orlin 5
Madge 5
kinde@@ 5
Joppa 5
Laura 5
Helen 5
mm 5
ichiw@@ 5
INI 5
Nd@@ 5
Yun@@ 5
ateg@@ 5
aux 5
LIP@@ 5
ONY@@ 5
Makr@@ 5
Harry 5
NOVE@@ 5
Malagasy 5
KGB 5
Ie@@ 5
dio 5
wood 5
0,000,000 5
osheth 5
Hem@@ 5
ography 5
Erika 5
Bon@@ 5
Agag 5
Ran@@ 5
Antiochus 5
enna 5
Ilse 5
Elfriede 5
Andreas 5
maber@@ 5
Fri@@ 5
Finished 5
Mystery 5
anski 5
ful@@ 5
ENDO 5
dig@@ 5
Dra@@ 5
ʽ@@ 5
Tari@@ 5
mud@@ 5
lava 5
fail 5
queline 5
mel 5
Ouija 5
orin@@ 5
dim 5
Ernst 5
Pan@@ 5
Can@@ 5
lik@@ 5
Religion 5
Antandroy 5
ú@@ 5
Bro@@ 5
Masako 5
Uganda 5
Pittsburgh 5
tino 5
dom 5
Manuel 5
Zim@@ 5
14,000 5
Gregory 5
LESIASTES 5
220 5
cca 5
1912 5
Ark 5
pyu@@ 5
Hollywood 5
Scenario 5
1913 5
Karítsa 5
sir 5
heim@@ 5
RES@@ 5
Mildred 5
Horeb 5
bini 5
gase@@ 5
lia 5
Mach@@ 5
wu@@ 5
chiko@@ 5
24,000 5
tre 5
Human 5
Rights 5
173 5
mane@@ 5
Angie 5
Gertru@@ 5
Peru 5
Jarosław 5
Kel@@ 5
Fern@@ 5
Cze@@ 5
chos@@ 5
aus 5
ilo@@ 5
dich@@ 5
Theodore 5
Ng’at@@ 5
Sylviana 5
BRO@@ 5
est@@ 5
Arch 5
cal 5
roe 5
Rudi 5
Jeho@@ 5
190 5
Sébastien 5
Pear@@ 5
suo 5
dhigi 5
profes@@ 5
2,520 5
Marina 5
Indon@@ 5
bel@@ 5
dye 5
hiko 5
Quito 5
Yahweh 5
Gillis 5
Mattias 5
CE 5
mam@@ 5
ANS 5
Paul@@ 5
ONE 5
Betty 5
Zabur@@ 5
sclerosis 5
Folake 5
60,000 5
Vancouver 5
Hardak@@ 5
Aksamai 5
pl@@ 5
AH@@ 5
Sinclair 5
zal@@ 5
anyono 5
184 5
Blos@@ 5
Cecil@@ 5
phi@@ 5
lend 5
Kinshasa 5
Akinori 5
bl@@ 5
Gim@@ 5
Sus@@ 5
obatis@@ 5
ill 5
jalu@@ 5
Christ 5
Larson 5
bon 5
Moldova 5
Irish 5
JON@@ 5
Ili@@ 5
skun@@ 5
sine@@ 5
dieri 5
Irene 5
B.@@ 5
Tris@@ 5
Mol@@ 5
ory 5
Afri@@ 5
Sakiko 5
Sy@@ 5
Mika@@ 5
La 5
Inger 5
Living 5
tablet 5
ass@@ 5
2370 5
zone 5
dos 5
LOKO 5
Angeles 5
Strasbourg 5
DAN 5
my 5
Howard 5
fes@@ 5
yiecho 5
Ramoni 5
agul@@ 5
Lauri 5
Association 5
ogun@@ 5
ADI@@ 5
550 5
Herald 5
Lionel 5
Much 5
III 5
gal 5
Atl@@ 5
Var@@ 5
2,3@@ 5
wakgi 5
Karachi 5
yogago 5
Gir@@ 5
Jay 5
sok@@ 5
Malta 5
Amnon 5
Erich 5
timben@@ 5
Hutu 5
Malcolm 5
Me 5
Brook 5
Fili@@ 5
Nsomba 5
Patri@@ 5
Geoffrey 5
nine 5
ody 5
purg@@ 5
Sib@@ 5
90@@ 5
wom@@ 5
Sinaitic 5
Wit@@ 5
Rusk 5
Arma@@ 5
gh 5
PON@@ 5
she@@ 5
Leticia 5
Op@@ 5
ush 5
madon@@ 5
Divine 5
SAR@@ 5
sign 5
Panos 5
1906 5
Adams 5
What 5
Bilbao 5
chemotherapy 5
Times 5
cas@@ 5
Kazanlak 5
EP@@ 5
eum 5
Emmanuel 5
Dorothy 5
ice 5
Diatessaron 5
habu 5
․ 5
abol@@ 4
mib@@ 4
Sam@@ 4
MON 4
cl@@ 4
hap@@ 4
Viol@@ 4
labor@@ 4
rang 4
ray 4
hou@@ 4
toon 4
KANY@@ 4
opuon@@ 4
Beach 4
Rebekah 4
Hurricane 4
oslav 4
Vitaly 4
deno 4
Alber@@ 4
Indi@@ 4
set 4
ald 4
Cir@@ 4
Ages 4
lian 4
very 4
ters 4
ang’ad 4
mes 4
rem@@ 4
Joseph@@ 4
wadaki@@ 4
hil 4
Sap@@ 4
Beat@@ 4
bod@@ 4
Today’s 4
1.7 4
ef@@ 4
wp16.@@ 4
yana 4
lot@@ 4
tucky 4
walgi 4
León 4
migepe@@ 4
gue 4
Priscilla 4
lem@@ 4
undho 4
Agrippa 4
big@@ 4
Castra 4
tra@@ 4
ush@@ 4
Herod@@ 4
Reference 4
lot 4
Sur@@ 4
Lit@@ 4
tock 4
Strong 4
dongogo 4
hinga 4
senhausen 4
vin@@ 4
MATH@@ 4
ndal@@ 4
say 4
dol@@ 4
sis@@ 4
apple 4
Gold 4
tone 4
lead 4
TER@@ 4
oxy@@ 4
cle@@ 4
stein 4
manuel 4
schberg 4
tee 4
div@@ 4
ris 4
zel 4
sushi 4
USSR 4
pot 4
hig@@ 4
pet 4
asian 4
Cat@@ 4
Py@@ 4
African 4
Rus@@ 4
Papua 4
folk 4
bond 4
ath@@ 4
Kumiko 4
nard 4
AND 4
1,100 4
CHIEL 4
European 4
cand@@ 4
tical 4
ature 4
THE@@ 4
Cuba 4
arius 4
univasiti 4
aff@@ 4
Fi@@ 4
wen 4
ilis@@ 4
Andes 4
Nyadi@@ 4
Cle@@ 4
Queen@@ 4
own 4
Pap@@ 4
gio 4
let@@ 4
Demetrius 4
ajuo@@ 4
0 4
ochwal@@ 4
Vine’s 4
Words 4
Vol@@ 4
onija 4
ONYUOLEE 4
Étaples 4
ONG@@ 4
Heights 4
lib@@ 4
pach@@ 4
Beer 4
Wel@@ 4
Hope 4
wis 4
usanne 4
Ero@@ 4
Svet@@ 4
omir 4
ires 4
ENG@@ 4
field 4
telogo 4
Catalan 4
Alfon@@ 4
Dan@@ 4
ónisos 4
rele 4
ame@@ 4
Livija 4
Thur@@ 4
esego 4
inyo 4
ster 4
DAN@@ 4
pzig 4
ה@@ 4
sworth 4
SIN@@ 4
witha 4
mider@@ 4
jre 4
ansas 4
emer 4
Angel@@ 4
Micha@@ 4
Leavenworth 4
tis 4
Here 4
treal 4
More 4
Josi@@ 4
Alexandria 4
syn@@ 4
Chak@@ 4
Carlo 4
Ez@@ 4
350 4
CA 4
per@@ 4
board 4
enor@@ 4
נפשׁ 4
Sid@@ 4
ica 4
Luz 4
Mang’@@ 4
jochi@@ 4
gh@@ 4
tieno 4
ational 4
uoch 4
Com@@ 4
Br@@ 4
Aar@@ 4
Ther@@ 4
Abraham 4
BUR@@ 4
mir@@ 4
Jer@@ 4
Manuscripts 4
uli@@ 4
Jud@@ 4
ston 4
ESC@@ 4
its 4
Super@@ 4
Stock 4
oxide 4
Beth@@ 4
.com 4
by@@ 4
EM@@ 4
mom@@ 4
lee 4
Wed@@ 4
jokuo@@ 4
Brand@@ 4
Tamba 4
Jaime 4
Is 4
From 4
ce@@ 4
ings 4
isep@@ 4
Precious 4
marathon 4
Christianity 4
Aris@@ 4
totle 4
Nile 4
gom@@ 4
Chan@@ 4
Alab@@ 4
ld@@ 4
Mut@@ 4
dir@@ 4
NASA 4
photo 4
prov@@ 4
Syd@@ 4
WAR 4
Simeul@@ 4
ANS@@ 4
inia 4
24@@ 4
bore 4
viv 4
WAD@@ 4
iro@@ 4
leg@@ 4
zi@@ 4
Econ@@ 4
q@@ 4
als 4
agre@@ 4
SAY@@ 4
Zar@@ 4
uela 4
ps 4
Red 4
Lake 4
ust 4
Ale@@ 4
23@@ 4
Harp 4
net 4
Phil 4
Cer@@ 4
kuom@@ 4
ław 4
raq 4
Hop@@ 4
Gas@@ 4
pé 4
bb@@ 4
CHO@@ 4
Spices 4
uola@@ 4
yiem 4
Israel@@ 4
mogi@@ 4
bri@@ 4
ogra@@ 4
ele@@ 4
w15 4
vory 4
Frank 4
Flavi@@ 4
anum 4
agu@@ 4
nyos@@ 4
josi@@ 4
Rebe@@ 4
w18.0@@ 4
sica 4
sol@@ 4
abur@@ 4
inge 4
bral 4
palsy 4
Mesha@@ 4
tima 4
Rapar@@ 4
inti@@ 4
gene@@ 4
none@@ 4
leis@@ 4
Jokris@@ 4
Des@@ 4
Baru@@ 4
Skund@@ 4
nyise@@ 4
nes@@ 4
Chung’@@ 4
Pic@@ 4
Kay@@ 4
22@@ 4
idi@@ 4
NA 4
ayans 4
kwed@@ 4
ob 4
ec@@ 4
S.A 4
tor@@ 4
Hen@@ 4
ryk 4
Jodon@@ 4
title 4
Dom@@ 4
miriambo@@ 4
Now 4
Die 4
mania 4
hun@@ 4
John@@ 4
Mr 4
ligangl@@ 4
Wu@@ 4
Mano@@ 4
MANY 4
Kaz@@ 4
tip 4
eman 4
House 4
AD 4
Jehoi@@ 4
Queen 4
owil@@ 4
mabu@@ 4
204 4
IT 4
Space 4
regon 4
taf@@ 4
ilem@@ 4
17,@@ 4
00 4
Lydia 4
tend@@ 4
proje@@ 4
ily 4
malai@@ 4
yos 4
AK@@ 4
WHO 4
acos 4
winjo@@ 4
Carol@@ 4
TIE 4
shire 4
Pri@@ 4
’al 4
Tut@@ 4
PUON@@ 4
odie@@ 4
Ves@@ 4
winjruok@@ 4
Yesica 4
senten@@ 4
ple@@ 4
tus 4
fra 4
pool 4
Mand@@ 4
New@@ 4
Websa@@ 4
ms 4
ROM 4
unziato 4
akwayi 4
adab 4
anani 4
sur@@ 4
wp17.@@ 4
For@@ 4
day 4
Zer@@ 4
iller 4
lin 4
Tru@@ 4
Report 4
VA@@ 4
wou@@ 4
Rocio 4
Pr@@ 4
Ye@@ 4
MAG@@ 4
Ern@@ 4
Fin@@ 4
S.@@ 4
Revised 4
Gru@@ 4
ail 4
galaxy 4
Dis@@ 4
w17.@@ 4
Pres@@ 4
Tag@@ 4
rog 4
inya 4
Zealots 4
·neiʹa 4
dinde@@ 4
Punjabi 4
ô@@ 4
Christ@@ 4
Action 4
abu 4
Habak@@ 4
inger 4
bund@@ 4
TT@@ 4
TA@@ 4
ian 3
inc@@ 3
Pla@@ 3
Pier@@ 3
train 3
enc@@ 3
mand@@ 3
elgo 3
Authority 3
ming 3
THI@@ 3
cock 3
vo@@ 3
Zebulun 3
add@@ 3
math 3
orano 3
LL 3
Treas@@ 3
Clo@@ 3
dom@@ 3
Cyprus 3
video 3
ekno 3
Rach@@ 3
aga@@ 3
ondi 3
Salv@@ 3
pus 3
oper@@ 3
ld 3
tain@@ 3
sey 3
alwor@@ 3
Nich@@ 3
prof@@ 3
ound@@ 3
Theod@@ 3
Q@@ 3
SH@@ 3
phesh 3
soul 3
One 3
Athens 3
Medicine 3
Petr@@ 3
anic 3
him@@ 3
esty 3
Wis@@ 3
agie 3
dol 3
ʼ 3
Geor@@ 3
sexting 3
osla@@ 3
phonographs 3
uma@@ 3
vet@@ 3
Az@@ 3
Sir 3
Youth 3
semin@@ 3
Korin@@ 3
court 3
nica 3
tas@@ 3
Johann@@ 3
gam@@ 3
bot@@ 3
Jab@@ 3
ORI@@ 3
To@@ 3
ic 3
bour@@ 3
Hay@@ 3
oweten@@ 3
ä 3
atno 3
bis@@ 3
☞ 3
ert 3
ever@@ 3
ky 3
ST 3
Plan@@ 3
phic 3
hand@@ 3
rina 3
arch 3
Examin@@ 3
Shu@@ 3
ü@@ 3
clopedia 3
fare 3
Just 3
Z 3
men 3
cio 3
io 3
Big 3
Talk 3
Gill@@ 3
dge 3
Consolation 3
í 3
UDORE 3
Tatt@@ 3
ping 3
ands 3
ches@@ 3
lac@@ 3
Trop@@ 3
phoon 3
Trinity 3
atri@@ 3
Cris@@ 3
way 3
my@@ 3
sook 3
sar@@ 3
7.@@ 3
Nyar@@ 3
tier 3
Cher@@ 3
ounds 3
ble 3
stock 3
?@@ 3
itary 3
dend@@ 3
ing’ling 3
Study 3
cal@@ 3
Coun@@ 3
er’s 3
nett 3
WANY@@ 3
unwang 3
Cali@@ 3
oki 3
olori 3
okora 3
androy 3
char@@ 3
teri@@ 3
ged@@ 3
PHI@@ 3
terson 3
gy@@ 3
rop@@ 3
AS 3
ine’s 3
astery 3
isha@@ 3
Phil@@ 3
Games 3
HER 3
ה 3
ohel@@ 3
each 3
buy 3
ines 3
Apendi@@ 3
span 3
medi@@ 3
ws 3
cratic 3
over 3
gar 3
olution 3
rania 3
Ear@@ 3
thia 3
sae 3
Ministry 3
Justice 3
orio 3
Melki@@ 3
suko 3
Jac@@ 3
jonyuol@@ 3
Reformation 3
jasi@@ 3
nge@@ 3
Hal@@ 3
Works 3
Bene@@ 3
dict 3
Hmm 3
ics 3
Rab@@ 3
card 3
Ant@@ 3
ells 3
ond@@ 3
Educ@@ 3
gan 3
con@@ 3
bara 3
due 3
ulon 3
ondie@@ 3
Little 3
World@@ 3
watch 3
ever 3
but@@ 3
Eph@@ 3
Chr@@ 3
olen@@ 3
old 3
fotostock 3
hy@@ 3
Plac@@ 3
togra@@ 3
Images 3
Stu@@ 3
art 3
ographic 3
Wo@@ 3
Are 3
Sylvi@@ 3
Jah 3
ack@@ 3
vana 3
bog@@ 3
WOR@@ 3
Work 3
Street 3
Jour@@ 3
nal 3
Glo@@ 3
lap@@ 3
shall 3
Encyclo@@ 3
cel@@ 3
ang’uru 3
ong’an@@ 3
Caribbean 3
ren 3
els 3
ANY@@ 3
pressure 3
studio 3
teche 3
gas@@ 3
Arabia 3
Oc@@ 3
multiple 3
uring 3
Hib@@ 3
U.S.A 3
zation 3
Deborah 3
CI@@ 3
Fu@@ 3
inyruo@@ 3
illie 3
tes 3
Cour@@ 3
tesy 3
Alexander 3
paragra@@ 3
pal@@ 3
bub@@ 3
dog@@ 3
mili@@ 3
itude 3
mati@@ 3
app 3
Pl@@ 3
Histori@@ 3
Fr@@ 3
Ş@@ 3
ée 3
Nis@@ 3
zen 3
cere@@ 3
erore 3
low 3
ated 3
ateke 3
Philip@@ 3
Near 3
lwet@@ 3
rid 3
ALS 3
pat@@ 3
ear 3
jome@@ 3
agala 3
stem 3
balsam 3
qui@@ 3
BEN@@ 3
afa 3
Chil@@ 3
Gno@@ 3
ram 3
aya@@ 3
mou@@ 3
Fam@@ 3
Bul@@ 3
sper@@ 3
Pentateuch 3
christ 3
Alex@@ 3
kt@@ 3
type@@ 3
writer 3
Hebrew 3
deed 3
onika 3
Claus 3
mina 3
ance 3
nyuk@@ 3
Millions 3
Never 3
app@@ 3
ater 3
kin 3
you@@ 3
tni 3
pil@@ 3
iter 3
Rit@@ 3
Elij@@ 3
uel 3
Tri@@ 3
UR@@ 3
Mul@@ 3
ain 3
nacle 3
PER@@ 3
worogi 3
gun 3
Against 3
win 3
Kazu@@ 3
US 3
social 3
lyn 3
jolwen@@ 3
Valley 3
Masor@@ 3
uw 3
Nath@@ 3
Odhi@@ 3
thy 3
ning 3
marfu@@ 3
hat@@ 3
& 3
520 3
U.@@ 3
malia 3
Name 3
rar@@ 3
aso 3
ür@@ 3
nung@@ 3
Edu@@ 3
gained 3
atiso 3
jalup@@ 3
winjone 3
thegi 3
sam@@ 3
Christmas 3
Que@@ 3
toga 3
disease 3
moth 3
uk@@ 3
serv@@ 3
atory 3
Lost 3
Sou@@ 3
Baptist 3
Wab@@ 3
bul@@ 3
Pak@@ 3
bal 3
Eu@@ 3
sap 3
katifu 3
Jef@@ 3
ess 3
ł 3
Andr@@ 3
és 3
Benefit 3
Worldwide 3
Fes@@ 3
bin@@ 3
States 3
tter 3
hind 3
obe 3
radi@@ 3
chap@@ 3
ior 3
tos 3
salu@@ 3
It 3
kitepe@@ 3
⁠@@ 3
ey 3
jahawi 3
ation@@ 3
ks 3
iik@@ 3
sing 3
Jord@@ 3
­@@ 3
alls 3
alone 3
Kim@@ 3
Sophi@@ 3
kai 3
Osiepe@@ 3
daki@@ 3
That 3
Pre@@ 3
Global 3
Fe@@ 3
wart 3
baj@@ 3
ists 3
Ene@@ 3
inwoya 3
LAN@@ 3
ʹa 3
cells 3
á 3
tise 3
Pes@@ 3
enne 3
Matti@@ 3
Van@@ 3
Caribbe@@ 3
Ple@@ 3
Ask 3
Do 3
My 3
ister 3
kins 3
Wend@@ 3
Era 3
✔ 3
Jen@@ 3
log@@ 3
Scou@@ 3
offset 3
tion 3
weyor@@ 3
dy 3
get@@ 3
Sinai@@ 3
ticus 3
ACH@@ 3
thur 3
Pioneers 3
ars 3
essa 3
clusters 3
TIC@@ 3
Dig@@ 2
lif@@ 2
brosu@@ 2
Mid@@ 2
Jehova@@ 2
cy@@ 2
Mac@@ 2
Acts 2
People’s 2
wp@@ 2
Sunday 2
school 2
OD 2
Comm@@ 2
unity 2
ruog 2
ape@@ 2
Mental 2
Tab@@ 2
Letters 2
Janu@@ 2
ʼ@@ 2
ing’eny 2
vain 2
aseball 2
ysi@@ 2
ns 2
fe 2
dri@@ 2
Feder@@ 2
Hiro@@ 2
syste@@ 2
mic 2
fri@@ 2
ron 2
jum@@ 2
curity 2
TS 2
EP 2
hon 2
Babylonia 2
cell 2
Government 2
aksi 2
Egypt 2
bes 2
sad@@ 2
rhe@@ 2
CHIEN@@ 2
bibli@@ 2
Uk@@ 2
lehe@@ 2
Efra@@ 2
Pra@@ 2
long 2
sud@@ 2
Tha@@ 2
Nef@@ 2
AI@@ 2
kande 2
’s 2
vel 2
Bethel@@ 2
Focus 2
af 2
Din@@ 2
Yah@@ 2
tran@@ 2
substantiation 2
Let 2
True 2
WARORE 2
LINE 2
ARY 2
ALI@@ 2
angel@@ 2
Pun@@ 2
wasu@@ 2
gra@@ 2
tw@@ 2
open@@ 2
hard 2
HE@@ 2
diwa 2
Georgian 2
Orthodox 2
Say@@ 2
sea 2
don 2
polit@@ 2
berg 2
Magdal@@ 2
OTE 2
imp@@ 2
stake 2
chen 2
Ecclesi@@ 2
sburg 2
AC@@ 2
cian 2
err@@ 2
Beyond 2
ario 2
efold 2
Psal@@ 2
akt@@ 2
Minor 2
cr@@ 2
rs 2
egal 2
thic 2
cc@@ 2
Sup@@ 2
Ty@@ 2
Word 2
Ren@@ 2
Law@@ 2
yer 2
unci@@ 2
adre 2
ASA 2
plan@@ 2
MINWA 2
laibr@@ 2
ustin 2
cu@@ 2
int@@ 2
Nep@@ 2
VERB@@ 2
cent 2
Oken@@ 2
chkuot 2
onia 2
My@@ 2
modi@@ 2
TER 2
twa 2
dito 2
Ibra@@ 2
eni@@ 2
Deliverance 2
Manners 2
Customs 2
THUO@@ 2
י@@ 2
ו@@ 2
redi@@ 2
Kany@@ 2
jotend@@ 2
Bath@@ 2
poly@@ 2
Matthe@@ 2
lay 2
Did 2
Get 2
ED 2
Fru@@ 2
FIN@@ 2
Lis@@ 2
Twen@@ 2
Century 2
dou@@ 2
nobati@@ 2
fil@@ 2
Teaching 2
Oly@@ 2
oks 2
lack 2
RIT 2
Pent@@ 2
stand 2
Him@@ 2
testimony 2
side 2
aji 2
ough 2
Writing 2
Kati@@ 2
fir@@ 2
then@@ 2
WIT@@ 2
yr@@ 2
eb 2
has@@ 2
dare 2
Ring@@ 2
Ful@@ 2
leen 2
twen@@ 2
g’ono 2
cul@@ 2
chari 2
Our 2
gian 2
Heritage 2
Cen@@ 2
ev@@ 2
Committee 2
cred@@ 2
foot@@ 2
vings 2
odd 2
Zeus 2
taken 2
Archaeolo@@ 2
gical 2
AG@@ 2
ambono 2
pene 2
worth 2
vic 2
Where 2
num@@ 2
teg@@ 2
ouch 2
felt 2
grounds 2
ency 2
unction 2
hazi 2
red 2
Convention 2
mai 2
unia 2
è@@ 2
י 2
cra@@ 2
Lö@@ 2
cas 2
US@@ 2
mber 2
vel@@ 2
tern@@ 2
yocha 2
page 2
ı@@ 2
tri@@ 2
bank 2
Ekles@@ 2
mas 2
å@@ 2
ATE 2
MANG’@@ 2
chy 2
amy 2
Trin@@ 2
our 2
org@@ 2
pho@@ 2
esis 2
tholik 2
skund@@ 2
nes 2
atur@@ 2
Timothy 2
So 2
embryo 2
onari 2
notes 2
Trou@@ 2
bles 2
Pope 2
wah@@ 2
heart 2
histori@@ 2
ations 2
tun@@ 2
piki@@ 2
gic 2
pond@@ 2
per 2
smal@@ 2
ls 2
onic 2
Mankind 2
vas@@ 2
cot@@ 2
ng’en@@ 2
ount 2
Mani@@ 2
stem@@ 2
Pil@@ 2
a’s 2
swa@@ 2
igh@@ 2
tol@@ 2
emy 2
rend@@ 2
Plan 2
bac@@ 2
kate 2
progr@@ 2
lat@@ 2
eral 2
ging 2
abor@@ 2
Brothers 2
burn 2
pain@@ 2
ction 2
lan 2
kaluno 2
Whom 2
trusted 2
gg@@ 2
stics 2
Army 2
AYO 2
oun@@ 2
Samaritan 2
hole 2
pti@@ 2
radio 2
tern 2
OU@@ 2
For 2
Parents 2
Only 2
zabur@@ 2
É@@ 2
mile 2
agre 2
Hol@@ 2
Family 2
uondo 2
q 2
BIBLE 2
inf@@ 2
rine 2
hard@@ 2
vol@@ 2
Oba@@ 2
org 2
Yeho@@ 2
suar@@ 2
Meth@@ 2
spin@@ 2
fid@@ 2
iber@@ 2
ological 2
sy@@ 2
com@@ 2
sib@@ 2
° 2
Samu@@ 2
stan 2
attain@@ 2
Sol@@ 2
ving 2
Problems 2
Antioch 2
paini@@ 2
ruption 2
Bethany 2
physi@@ 2
kanyakla@@ 2
gun@@ 2
ë@@ 2
Fac@@ 2
Scienti@@ 2
”@@ 2
Sac@@ 2
etic 2
text 2
far 2
vit@@ 2
fertili@@ 2
Stéph@@ 2
ITH 2
olf@@ 2
mong 2
ties 2
ambo@@ 2
working 2
sites 2
LEM 2
Daily 2
Lord 2
fell 2
dam 2
poth 2
pic@@ 2
day@@ 2
tire 2
OF 2
oted 2
Flor@@ 2
COVER 2
Sé@@ 2
park 2
Your 2
fied 2
Cro@@ 2
tou@@ 2
vices 2
anti 2
Joy@@ 2
urg@@ 2
Eas@@ 2
poem 2
sch@@ 2
With@@ 2
mary 2
ing’a 2
tiv@@ 2
BO@@ 2
Pur@@ 2
Change 2
Uni@@ 2
Harv@@ 2
wenu 2
August 2
UD 2
200@@ 2
ator 2
kus@@ 2
É 2
car 2
thern 2
Hand@@ 2
book 2
Child 2
logy 2
Spr@@ 2
chil@@ 2
chronic 2
ast 2
PUBLI@@ 2
wheelchair 2
gikie 2
stairs 2
set@@ 2
Dep@@ 2
ression 2
brick 2
miech@@ 2
’t 2
ZA@@ 2
sch 2
Cur@@ 2
Yan@@ 2
has 2
ather 2
Nation 2
Eri@@ 2
ges@@ 2
unist 2
pit@@ 2
oph@@ 2
cen@@ 2
Bru@@ 2
epe@@ 2
Swa@@ 2
Maj@@ 2
War 2
jolweny@@ 2
lands 2
Mob@@ 2
Fur@@ 2
ov@@ 2
off 2
maton 2
ban@@ 2
VEN@@ 2
gile 2
jana 2
Faith 2
mpi@@ 2
barra@@ 2
sof@@ 2
Hospital 2
Roman 2
gym@@ 2
Cri@@ 2
ctor 2
seed 2
ource 2
Magdalene 2
Interpre@@ 2
ter’s 2
NG’A@@ 2
Battle 2
ng’at@@ 2
zon@@ 2
mur@@ 2
hug 2
union 2
gri@@ 2
Shar@@ 2
pay@@ 2
Isa@@ 2
cs 2
gai 2
eld 2
jian 2
ste@@ 2
uter@@ 2
ef 2
sw@@ 2
estry 2
bli@@ 2
tuari 2
Sak@@ 2
è 2
mark 2
ft 2
iling 2
Delph@@ 2
sex 2
Ac@@ 2
galaxies 2
pp@@ 2
imit@@ 2
Pursue 2
Goals 2
Honor 2
crimin@@ 2
AST@@ 2
sad 2
Circuit 2
part@@ 2
conduct 2
donia 2
Christ’s 2
libemb@@ 2
Alu@@ 2
vous 2
Sat@@ 2
assa 2
Hunt@@ 2
Gui@@ 2
awar@@ 2
Associ@@ 2
jasam@@ 2
Social 2
bra@@ 2
MIN@@ 2
FOR@@ 2
Ele@@ 2
Witness 2
Maduong’@@ 2
shel@@ 2
AF@@ 2
About 2
vy 2
ate@@ 2
Spok@@ 2
ints 2
Trans@@ 2
Grandpa 2
Macedonia 2
Ki 2
Earth 2
ades 2
star 2
tre@@ 2
yle 2
Sex@@ 2
courtesy 2
Caleb 2
ú 2
pur@@ 2
zer@@ 2
Blurb 2
thel 2
nec@@ 2
Free 2
BOR@@ 2
odu@@ 2
wp17@@ 2
ents 2
mani@@ 2
two@@ 2
Moab@@ 2
thod@@ 2
Cos@@ 2
vul@@ 2
run 2
QU@@ 2
pap@@ 2
Andre@@ 2
bs 2
Gospel 2
var@@ 2
irano 2
singer 2
web 2
bus@@ 2
fly 2
cus 2
ford 2
iktor 2
visit 2
Hum@@ 2
Leon@@ 2
Elisha@@ 2
Pentek@@ 2
thor@@ 2
Nov@@ 2
etus 2
Jeremi@@ 2
tom 2
Guard 2
Hei@@ 2
gw@@ 2
Joher@@ 2
Food 2
:@@ 2
str@@ 2
titu@@ 2
mang’ong@@ 2
Poli@@ 2
tar 2
Saint 2
ø@@ 2
Vati@@ 2
ry@@ 2
stal 2
imus 2
Nyasach@@ 2
Religious 2
knoloji 2
apping 2
On 2
barr@@ 2
over@@ 2
Out@@ 2
tents 2
AGO@@ 2
Theocratic 2
SER@@ 2
ITY 2
lon@@ 2
tic@@ 2
Russian 2
Palestine 2
Sele@@ 2
pani@@ 2
bili@@ 2
tragrammaton 2
weth 2
kers 1
err 1
Mex@@ 1
ican 1
ken 1
renego 1
Corin@@ 1
knolo@@ 1
Who 1
Influ@@ 1
let 1
eh 1
ambi@@ 1
zerland 1
stor@@ 1
omic 1
Scientists 1
uodia 1
Building 1
lid 1
cky 1
thering 1
gaz@@ 1
psy@@ 1
hiro 1
dges 1
Medi@@ 1
eval 1
When 1
Rul@@ 1
ā@@ 1
Fal@@ 1
Hell 1
toire 1
fers 1
ges 1
ONI 1
faith 1
karad@@ 1
WENY 1
Siri@@ 1
District 1
Flori@@ 1
LIVE 1
MATTHE@@ 1
sy 1
sident 1
make@@ 1
fit@@ 1
diks@@ 1
Sod@@ 1
bre@@ 1
September 1
Col 1
GH@@ 1
ï@@ 1
gy 1
Comfort 1
pper 1
ards 1
PAGE 1
hing 1
ē@@ 1
Paragra@@ 1
LEE 1
executed 1
iled 1
Ü@@ 1
Steph@@ 1
myth 1
aden 1
Pow@@ 1
tasi@@ 1
Hun@@ 1
fac@@ 1
Mik@@ 1
ITED 1
KINGDOM 1
cam@@ 1
apos@@ 1
bus 1
now@@ 1
emia 1
upon 1
ster@@ 1
post@@ 1
market 1
Act 1
ague 1
test 1
baby 1
Ital@@ 1
Apo@@ 1
pse 1
Attention 1
Nebukad@@ 1
nez@@ 1
athe@@ 1
Lev@@ 1
zed 1
sen 1
Lef@@ 1
FU@@ 1
ithin@@ 1
ibbe@@ 1
Catal@@ 1
Internet 1
bling 1
kati@@ 1
KED 1
manif@@ 1
ox@@ 1
Sad@@ 1
itarian 1
fran@@ 1
IR 1
Syria 1
eler@@ 1
plat@@ 1
USE@@ 1
ely 1
ï 1
Oriental 1
Haru@@ 1
Martha 1
Id@@ 1
Noah 1
Zelofe@@ 1
pension 1
seal 1
service 1
director 1
INY@@ 1
Complete 1
aison 1
thers 1
Nyuol@@ 1
karuoth 1
Any@@ 1
lov@@ 1
fo@@ 1
Tac@@ 1
trade@@ 1
marks 1
Genesis 1
womb 1
Archives 1
Why 1
Rec@@ 1
gli@@ 1
fred 1
tanet 1
Aramaic 1
nyasi@@ 1
JOHN 1
rel@@ 1
sex@@ 1
lion 1
pages 1
clo@@ 1
wise 1
from 1
left 1
all@@ 1
Galilee 1
Emperor 1
Rom 1
Š@@ 1
ů@@ 1
ý@@ 1
Assyria 1
Alive 1
Highlights 1
Philemon 1
Hebrews 1
None@@ 1
elno 1
billion 1
Make@@ 1
rative 1
REG@@ 1
Communist 1
ouse’s 1
eving 1
Heart 1
stance 1
sana 1
fal@@ 1
lass 1
tension 1
Ł@@ 1
chenego 1
Main@@ 1
resid@@ 1
ential 1
ills 1
bou@@ 1
Loch@@ 1
libe@@ 1
electricity 1
Merib@@ 1
High 1
mission@@ 1
Ref@@ 1
gees 1
Happiness 1
Wall@@ 1
his 1
night 1
ther 1
Skin 1
aking 1
ílio 1
FA@@ 1
udri 1
ş 1
purple 1
angle 1
By 1
permission 1
astes 1
Student 1
ail@@ 1
imag@@ 1
ward 1
Experi@@ 1
www.@@ 1
tos@@ 1
hen@@ 1
ests 1
PU@@ 1
Debor@@ 1
ury 1
poli@@ 1
fon@@ 1
cin@@ 1
attack 1
erg 1
Exam@@ 1
consi@@ 1
tions 1
ques 1
Consider@@ 1
Step 1
Wars 1
Gide@@ 1
plan 1
mah 1
len 1
chor@@ 1
Armen@@ 1
Arabic 1
Sla@@ 1
aces 1
Cru@@ 1
ó 1
asha 1
Humble 1
iry 1
Into 1
Scripture 1
Acc@@ 1
ding 1
grim 1
isera 1
Nyim@@ 1
Tex@@ 1
calcul@@ 1
ments 1
Eden@@ 1
Or 1
gold 1
ainia 1
Bil@@ 1
Cla@@ 1
wheel@@ 1
Millennium 1
cos@@ 1
essment 1
Evidence 1
Ola@@ 1
Prote@@ 1
Safe@@ 1
covered 1
Pana@@ 1
Amer@@ 1
dian@@ 1
eline 1
Education 1
kalu@@ 1
kawuon@@ 1
Guide 1
Care 1
Develop@@ 1
ringre@@ 1
gased@@ 1
weyoru 1
att@@ 1
Armageddon 1
Ephraim 1
ded 1
hai 1
ery 1
Questions 1
Readers 1
ndrome 1
À 1
chris@@ 1
cla@@ 1
thur@@ 1
LATION 1
mines 1
gina 1
stic@@ 1
Caiap@@ 1
outline 1
nant 1
bru@@ 1
servants 1
fel@@ 1
nyor@@ 1
This 1
Ç@@ 1
depend@@ 1
adul@@ 1
Four 1
Steps 1
Sud@@ 1
mood 1
disorder 1
MENT 1
had 1
Last 1
Days 1
Again 1
mobile 1
device 1
urant 1
Tib@@ 1
tlements 1
Kno@@ 1
Str@@ 1
nurse 1
ard@@ 1
Ek@@ 1
Both 1
TIT@@ 1
media 1
apti@@ 1
Ce@@ 1
ountain 1
Home 1
than 1
Let@@ 1
Fav@@ 1
may@@ 1
TEN@@ 1
GRE@@ 1
pow@@ 1
Alcohol 1
Alcoho@@ 1
DS 1
pre@@ 1
CT@@ 1
Bedell’s 1
original 1
manuscript 1
cir@@ 1
published 1
Ox@@ 1
Send 1
light 1
truth 1
form 1
port@@ 1
ying 1
rec@@ 1
chs 1
ashi@@ 1
DURING 1
THRE@@ 1
ENT@@ 1
ENT 1
bania 1
tech@@ 1
sons 1
eig@@ 1
Sancti@@ 1
million 1
DWO@@ 1
sby 1
motor@@ 1
Temple 1
Its 1
acco 1
ones 1
suffering 1
patience 1
aring 1
IM@@ 1
dug 1
Alexand@@ 1
Greater 1
conc@@ 1
Cul@@ 1
THER 1
Faithful 1
Under 1
Trials 1
ple 1
Stand 1
Firm 1
ult 1
DUR@@ 1
sels 1
FROM 1
OUR 1
STUD@@ 1
en’s 1
mand 1
stin@@ 1
ct 1
named 1
LORD 1
zer 1
atis@@ 1
venti@@ 1
KOGI 1
rob@@ 1
isher 1
Music 1
ven 1
Modern 1
You@@ 1
secu@@ 1
tor 1
nah 1
emin@@ 1
But 1
nini 1
husu 1
ween 1
company 1
servant 1
fin@@ 1
Jin@@ 1
har@@ 1
film 1
slide 1
ham@@ 1
auto@@ 1
immune 1
illness 1
Gener@@ 1
ear@@ 1
Gius@@ 1
GOCH@@ 1
ENY 1
Tes@@ 1
key 1
Too 1
chat@@ 1
Mark@@ 1
RIS@@ 1
tificate 1
Sacrifice 1
fugi@@ 1
Galati@@ 1
astic 1
miko 1
Timo@@ 1
ombwa 1
origin 1
mide@@ 1
uonj@@ 1
too 1
Birth 1
stitu@@ 1
ordin@@ 1
ators 1
secondhand 1
tea 1
NYAS@@ 1
Lwen@@ 1
rights 1
reserved 1
seem 1
woru 1
oner 1
nei@@ 1
dian 1
Marriage 1
tal@@ 1
rum@@ 1
Origin@@ 1
March 1
hano 1
sun 1
ía 1
Festival 1
col@@ 1
King@@ 1
wp16@@ 1
tum 1
Mom@@ 1
General 1
Every@@ 1
Foreign 1
.E 1
Hit@@ 1
aeus 1
‘@@ 1
sto@@ 1
forbidden 1
reproduce 1
licate 1
this 1
image 1
means 1
River 1
Ananias 1
nyin@@ 1
portable 1
Sex 1
ctr@@ 1
mission 1
aburi 1
wedego 1
divorce 1
them 1
Eph 1
Austr@@ 1
hil@@ 1
rou·siʹa 1
low@@ 1
His 1
picture 1
alliance 1
cards 1
ι 1
korach@@ 1
orial 1
xy 1
lic@@ 1
lift 1
anni 1
ital 1
hab 1
bron 1
astro@@ 1
̇@@ 1
Ṭ@@ 1
Michi@@ 1
Model 1
ures 1
vir@@ 1
onment 1
sc@@ 1
rd 1
ico 1
Then 1
thqu@@ 1
fire 1
some@@ 1
Soci@@ 1
Repu@@ 1
anc@@ 1
tics 1
Aqu@@ 1
Between 1
istance 1
Third 1
Ces@@ 1
bridge 1
ling@@ 1
angla 1
chenr@@ 1
ae@@ 1
Has 1
Done 1
sou@@ 1
Persian 1
Sun 1
ays 1
phone 1
ts@@ 1
fra@@ 1
saw 1
igned 1
verse 1
tolerance 1
judi@@ 1
khi 1
afany@@ 1
imin@@ 1
Broad@@ 1
gate 1
Public 1
mira@@ 1
adoption 1
death 1
marches 1
minis@@ 1
tive 1
Bla@@ 1
Fit@@ 1
Low@@ 1
Ef@@ 1
Nure@@ 1
loose 1
brazen 1
olive 1
vil@@ 1
Posi@@ 1
Gh@@ 1
Bapti@@ 1
sts 1
ppi 1
sports 1
Ei@@ 1
Bet@@ 1
ran 1
mies 1
Arama@@ 1
werano 1
Nyaka@@ 1
pla@@ 1
î@@ 1
Hur@@ 1
plague 1
isai 1
fatigue 1
Far 1
esman 1
ass 1
spon@@ 1
Professor 1
ograf@@ 1
Information 1
yard 1
Elijah 1
hab@@ 1
ust@@ 1
ros 1
Davi@@ 1
Babylon 1
Jehov@@ 1
initi@@ 1
ura@@ 1
Jacob@@ 1
diction 1
Freder@@ 1
emergency 1
room 1
PR@@ 1
PS 1
ulti@@ 1
ctronic 1
Publ@@ 1
ishing 1
dro@@ 1
arri@@ 1
step 1
Mic@@ 1
robes 1
newspapers 1
Gone 1
ames 1
wn 1
Hap@@ 1
Say 1
tism 1
Troas 1
hori@@ 1
Asa@@ 1
found@@ 1
Place 1
offspring 1
Und@@ 1
nursing 1
home 1
Credit 1
sang’@@ 1
code 1
bsa@@ 1
azar 1
migap@@ 1
Can 1
have 1
dream 1
Priest 1
cted 1
ack 1
rai@@ 1
Amale@@ 1
moon 1
Organized 1
Share 1
Whole 1
clus@@ 1
Shun@@ 1
onship 1
Laz@@ 1
gaze 1
ank 1
fish 1
appeal 1
bowl 1
archite@@ 1
ctural 1
engine@@ 1
Vis@@ 1
limited 1
Fir@@ 1
pri@@ 1
Step@@ 1
cor@@ 1
onary 1
snow 1
IST@@ 1
Brit@@ 1
Joanna 1
vent 1
micro@@ 1
LAI 1
DU@@ 1
fet@@ 1
ants 1
Congregation 1
Worship 1
Discipline 1
Truth 1
Leads 1
Eternal 1
eas@@ 1
house 1
ll@@ 1
Americ@@ 1
Some 1
hold 1
efs 1
sign@@ 1
Ã@@ 1
VES 1
Religi@@ 1
third 1
smoke 1
Judaism 1
First 1
Centuries 1
Those 1
dic@@ 1
uous 1
gres@@ 1
sive 1
hta 1
ofun@@ 1
addic@@ 1
pone 1
panic 1
state 1
Maure@@ 1
stars 1
imperfe@@ 1
hes@@ 1
himu 1
HOV@@ 1
geria 1
down 1
raf@@ 1
zig 1
jel@@ 1
wodhi 1
stadium 1
igu 1
monarch 1
Origin 1
Spe@@ 1
cies 1
ress 1
tory 1
Melchi@@ 1
prin@@ 1
estina 1
Bib@@ 1
ex@@ 1
Other 1
formed 1
Congreg@@ 1
Godly 1
Dev@@ 1
Po@@ 1
May 1
tery 1
Rah@@ 1
ng’ne 1
God’s 1
Love 1
blood 1
Wor@@ 1
sheet 1
appendix 1
mus 1
Ever@@ 1
hotel 1
Twe@@ 1
Valu@@ 1
Reho@@ 1
ace 1
depi@@ 1
aying 1
19th 1
century 1
illustr@@ 1
Coming 1
generation 1
Nim@@ 1
mish 1
misang@@ 1
Bibli@@ 1
musi@@ 1
Father 1
erxes 1
Lab@@ 1
rest 1
into 1
tap@@ 1
met 1
vier 1
arm 1
dec@@ 1
ske@@ 1
Advancement 1
ored 1
source 1
Sep@@ 1
cher 1
kina 1
Been 1
Loving 1
kindness 1
loyal 1
love 1
faithfulness 1
š@@ 1
LD 1
ces 1
lls 1
ergy 1
photogra@@ 1
PRO@@ 1
Spiritual 1
Chris@@ 1
Inger@@ 1
·gaʹpe 1
Rev@@ 1
ries 1
wild 1
parties 1
Rep@@ 1
Things 1
glass 1
asion 1
sue 1
Tok@@ 1
sine 1
ly@@ 1
tiz@@ 1
zy 1
anni@@ 1
des@@ 1
bishop 1
Minis@@ 1
ctic 1
Hall@@ 1
Jose@@ 1
teria 1
Manuscrip@@ 1
Secre@@ 1
tary 1
prime 1
minister 1
Second 1
ough@@ 1
tures 1
− 1
sus 1
son’s 1
vens 1
Anglo 1
Australian 1
Medical 1
off@@ 1
sci@@ 1
national@@ 1
dam@@ 1
wetego 1
ö 1
Simple 1
TA 1
tle 1
mid 1
others 1
above 1
onomy 1
ories 1
kni@@ 1
Gaius 1
Contemporary 1
Long 1
Fathers 1
Invol@@ 1
vement 1
vior 1
aged 1
pping 1
Today 1
Colle@@ 1
Edition 1
cular 1
dy@@ 1
phy 1
pr@@ 1
program@@ 1
eth@@ 1
back 1
therine 1
king 1
Frank@@ 1
Yes 1
Satis@@ 1
fying 1
How 1
tain 1
MBER 1
ern 1
build 1
super@@ 1
embr@@ 1
logist 1
sam 1
LOR@@ 1
printing 1
secretary 1
inal 1
TION 1
Congregations 1
Their 1
ners 1
Messiah 1
akuya 1
AP@@ 1
inv@@ 1
mining 1
vili@@ 1
sor@@ 1
pati@@ 1
edition 1
once 1
pil 1
Spirit 1
shu@@ 1
YOE 1
magnetic 1
wasi 1
Sing 1
Out 1
fully 1
ees 1
Aquila 1
visits 1
orenigi 1
ful 1
YU@@ 1
_ 1
az 1
Chinese 1
ited 1
hip 1
with 1
zeal 1
known 1
only 1
those 1
who 1
follow 1
footsteps 1
Ephra@@ 1
wandu 1
indefinite 1
overies 1
signal 1
mawa 1
hus@@ 1
kle 1
Vit@@ 1
ess@@ 1
õ@@ 1
dary 1
real@@ 1
culture 1
tribu@@ 1
centuri@@ 1
ʹen·na 1
operative 1
tances 1
Analy@@ 1
poll 1
Jude 1
Pit@@ 1
Ó@@ 1
unit 1
bodia 1
influ@@ 1
Scro@@ 1
ll 1
even@@ 1
Over@@ 1
assembly 1
Children 1
loves 1
dari 1
Thir@@ 1
Years 1
Lon@@ 1
drin@@ 1
ophel 1
pan 1
Gased@@ 1
Thousand 1
Year 1
Reign 1
peace 1
Universal 1
linger 1
Mala@@ 1
Swe@@ 1
dish 1
Zi@@ 1
was 1
deb@@ 1
credit 1
burgh 1
MI 1
sl@@ 1
dragon 1
ambu@@ 1
Athen@@ 1
gum@@ 1
Facts 1
pend@@ 1
Juma@@ 1
Eliz@@ 1
Hy@@ 1
Grat@@ 1
colos@@ 1
wall 1
itta 1
orchestra 1
enom@@ 1
therapy 1
sage 1
ors 1
Cornelius 1
kamp@@ 1
ras@@ 1
Kath@@ 1
HEL@@ 1
à@@ 1
lightning 1
pa·@@ 1
dei@@ 1
Eklesi@@ 1
ão 1
ration 1
Use 1
Day 1
CAN 1
ours 1
lue 1
masa@@ 1
nic@@ 1
Elis@@ 1
terrorism 1
AH 1
Friend 1
esome 1
nut 1
y’s 1
Increase 1
ibacy 1
ditions 1
sore 1
ides 1
for@@ 1
uoche 1
tono 1
