. 117631
, 110152
the 93985
to 71577
of 56246
and 46780
in 37237
a 35090
that 31270
“ 26506
” 26181
? 23459
: 22306
is 19419
we 18019
for 17652
his 16676
​ 14102
— 14088
you 14027
with 13953
Jehovah 13918
be 13844
was 13383
I 12823
not 12581
he 11812
will 11708
as 11556
have 11052
our 10707
God 10484
Jesus 10367
on 10280
are 10090
- 9867
us 9864
it 9663
The 9415
can 9146
from 8837
by 8376
who 8296
their 7786
what 7678
they 7492
What 7294
do 7181
Bible 7150
or 7107
God’s 6512
him 6379
this 6359
your 6301
had 6231
all 6109
were 5708
’ 5698
) 5698
at 5685
them 5682
( 5678
about 5571
people 5488
How 5456
one 5401
would 5376
an 5362
did 5263
In 5235
Jehovah’s 5098
when 5006
my 4992
has 4799
time 4669
1 4548
may 4462
those 4425
life 4371
but 4087
help 4084
! 4063
so 4056
; 4050
how 4048
He 4019
me 3810
We 3781
love 3473
her 3367
some 3359
more 3254
also 3254
good 3248
out 3168
should 3099
way 3036
been 3024
such 2982
work 2918
if 2910
things 2905
make 2894
many 2811
Paul 2807
When 2795
does 2793
spirit 2793
could 2789
up 2761
‘ 2752
It 2743
2 2700
need 2642
others 2618
other 2565
no 2549
Kingdom 2524
even 2479
faith 2448
said 2439
congregation 2420
first 2402
Why 2401
day 2376
there 2375
But 2358
example 2352
Christians 2319
Christian 2314
For 2309
As 2300
she 2294
earth 2286
world 2286
If 2252
man 2247
3 2210
than 2200
years 2199
spiritual 2165
family 2155
into 2155
They 2142
Read 2127
these 2082
made 2061
A 2047
see 2021
being 1995
This 1995
must 1990
because 1984
which 1965
know 1942
You 1937
only 1934
Christ 1928
4 1906
15 1884
5 1871
heart 1835
says 1824
brothers 1818
take 1792
like 1788
then 1756
6 1747
Witnesses 1738
children 1730
words 1714
well 1703
come 1696
might 1693
true 1692
That 1667
become 1663
give 1662
ones 1652
12 1632
over 1628
own 1608
death 1526
before 1523
just 1516
now 1505
new 1490
name 1482
truth 1473
men 1470
8 1470
And 1469
b 1465
Word 1452
after 1451
11 1435
10 1425
times 1423
great 1410
John 1409
show 1407
another 1401
Do 1400
[ 1395
] 1395
learn 1390
feel 1387
7 1382
two 1368
keep 1361
much 1361
faithful 1345
ministry 1340
through 1339
find 1333
any 1330
apostle 1311
To 1300
its 1297
use 1295
13 1295
9 1293
David 1291
study 1286
14 1283
why 1274
person 1270
However 1262
each 1250
holy 1241
very 1237
Satan 1230
found 1226
himself 1223
parents 1219
important 1218
young 1217
today 1216
Father 1212
part 1194
say 1189
So 1186
17 1172
16 1162
One 1159
means 1144
though 1131
preaching 1129
mind 1129
end 1124
consider 1124
worship 1123
serve 1115
never 1112
wrote 1104
against 1104
told 1102
read 1101
where 1093
news 1093
place 1085
After 1085
human 1082
right 1079
• 1078
service 1074
course 1071
most 1065
disciples 1064
same 1063
let 1063
want 1058
/ 1056
Peter 1054
put 1051
view 1044
wife 1040
ways 1039
able 1035
became 1032
used 1014
servants 1011
fellow 1006
hope 999
given 994
18 992
doing 989
go 989
At 983
Israel 974
long 971
too 971
By 970
live 969
gave 964
home 963
during 962
came 954
days 952
Some 951
get 951
word 950
20 950
set 946
later 944
Scriptures 941
anointed 932
whom 928
every 919
away 917
elders 915
marriage 907
often 905
prayer 903
humans 896
began 892
Moses 890
Son 889
article 886
Our 885
am 882
among 882
peace 878
back 874
19 873
living 871
old 868
joy 863
King 862
making 861
under 859
power 857
future 855
His 853
personal 851
book 844
loving 843
brother 835
down 833
Let 832
She 832
still 825
century 821
questions 821
always 819
year 815
helped 810
fact 808
house 806
un@@ 806
There 802
On 801
felt 801
three 801
heaven 796
21 793
ourselves 793
order 791
Is 791
son 789
full 789
Many 787
counsel 787
think 782
themselves 782
sin 779
ask 779
upon 778
Then 773
24 772
needed 766
without 765
meetings 762
face 762
something 762
hand 761
benefit 757
asked 756
My 756
really 753
took 751
Yes 748
together 745
* 742
learned 742
With 742
share 741
experience 741
Yet 739
purpose 739
reason 737
close 737
heavenly 735
understand 733
toward 733
called 731
serving 731
Even 731
Israelites 730
Psalm 725
both 723
husband 721
message 721
knowledge 717
look 715
care 714
possible 714
Matthew 714
however 710
father 708
ever 705
22 705
while 702
having 700
best 693
wicked 691
continue 690
wisdom 686
relationship 681
bring 680
language 679
support 676
Consider 672
No 668
someone 666
desire 664
mankind 658
result 657
happy 653
answer 652
last 652
eyes 650
baptized 648
See 648
matter 647
mother 646
sisters 642
again 642
s 640
done 638
receive 637
Luke 636
moved 633
Because 631
giving 625
pray 624
avoid 623
knew 620
Abraham 615
23 614
All 614
follow 614
sure 613
enjoy 612
saw 612
Jerusalem 611
speak 610
righteous 609
friends 608
lead 608
teaching 606
Job 603
Joseph 602
between 601
age 599
situation 599
received 598
different 598
Those 595
hard 595
bad 594
thinking 594
respect 594
Your 594
woman 593
lives 592
remain 591
system 590
cannot 589
needs 588
25 588
king 586
Acts 585
These 584
child 582
mean 580
members 576
fine 574
From 573
left 572
imitate 572
following 572
wise 571
followers 570
feelings 569
Does 569
likely 568
Although 568
yourself 568
sister 567
gift 567
few 566
Isaiah 564
food 563
sense 563
act 562
wanted 560
went 559
question 558
point 558
city 556
married 554
known 552
thought 551
spiritually 550
free 550
better 548
qualities 545
reading 545
believe 545
30 544
kind 544
yet 540
slave 539
kindness 537
provide 536
attitude 535
sons 534
Thus 533
apostles 532
self 532
thus 531
Adam 531
trust 530
account 530
especially 527
real 526
Who 525
in@@ 524
Timothy 523
problems 523
Matt 523
ing 521
sheep 521
conduct 521
taking 521
certain 520
organization 519
prayers 518
Rather 517
ed 517
number 514
sacrifice 514
case 512
present 511
little 511
difficult 510
special 510
strong 509
off 508
died 508
everlasting 506
saying 506
perfect 505
principles 505
whether 504
privilege 502
Jews 502
Lord 501
prophet 501
far 500
ancient 498
early 498
teach 497
matters 497
wrong 496
28 495
Of 494
resurrection 492
next 490
nor 490
Satan’s 489
individuals 489
circumstances 487
es 486
religious 486
until 484
fully 483
righteousness 482
nations 480
nation 480
loved 479
attention 478
similar 476
re@@ 475
sent 474
C.E 473
whole 473
S@@ 473
brought 473
change 472
soon 471
inspired 470
Law 468
allow 468
gives 468
law 466
Ps 466
decisions 466
cause 466
try 466
taught 466
rule 465
material 465
blessings 465
dead 462
examples 462
ransom 461
mentioned 460
SONGS 460
false 459
pioneer 459
move 459
comes 459
Paul’s 457
Are 457
Christ’s 457
ate 456
along 454
turn 454
honor 453
makes 453
body 452
heard 452
truly 451
works 450
prophecy 449
clear 448
women 446
shows 446
states 446
Scriptural 446
greater 445
past 445
return 444
maintain 443
comfort 443
going 442
loyal 442
opportunity 441
forever 439
believers 439
26 437
talk 437
accept 436
strength 435
since 434
coming 433
Watchtower 432
promise 432
temple 430
preach 430
New 429
Can 429
integrity 428
understanding 428
around 427
information 427
Such 426
direction 426
apply 425
meaning 424
er 423
involved 423
willing 422
Be 421
school 420
suffering 420
using 419
war 419
second 419
including 418
thing 418
doubt 417
Noah 417
events 415
remember 415
29 414
Instead 414
tell 414
showed 413
evidence 413
nothing 412
kingdom 412
effort 412
meeting 410
provided 409
land 408
prove 405
27 405
wants 405
33 404
led 404
friend 404
Romans 404
Devil 403
anyone 403
serious 402
kept 401
decision 400
While 400
fear 400
witness 400
Like 400
regarding 400
31 399
interest 398
lost 398
health 397
field 397
seen 396
Now 395
Bethel 394
draw 394
s@@ 393
blessing 393
During 393
based 392
stand 392
older 391
Today 391
angels 391
effect 390
money 390
small 389
James 389
determined 389
four 389
activities 388
hearts 388
Solomon 388
Mark 387
page 387
Daniel 387
experienced 387
lived 386
Creator 386
courage 385
baptism 384
confidence 382
ers 381
near 381
Revelation 381
written 380
certainly 380
once 379
Since 379
foretold 379
spoke 378
standards 377
elder 376
got 376
A@@ 376
promises 376
speaking 376
appointed 375
congregations 375
Still 375
started 375
Greek 375
helps 375
born 374
control 374
earthly 373
deep 373
Did 372
thoughts 371
Will 370
religion 370
appreciation 370
Cor 370
strengthen 369
sins 369
efforts 368
promised 367
already 367
group 366
taken 366
ability 365
night 365
respond 365
covenant 364
served 363
perhaps 363
stated 362
role 361
anything 361
water 361
Mary 361
recorded 360
▪ 360
THE 360
rather 360
’s 359
Hebrew 359
Therefore 358
actions 358
tribulation 357
illustration 356
worshippers 356
value 354
practical 354
listen 354
Proverbs 354
unity 353
Corinthians 353
dis@@ 353
offer 353
happiness 353
affect 353
appreciate 352
ated 351
32 350
light 350
authority 350
clearly 350
helping 349
couple 349
Eve 349
issue 348
heavens 347
hands 347
physical 347
ts 346
named 346
simply 346
imperfect 345
everything 345
Messiah 345
precious 345
mate 345
letter 344
World 344
complete 343
advice 343
high 343
here 343
continued 342
Indeed 342
Would 340
wonderful 340
reach 340
gain 339
judgment 339
C@@ 339
glory 339
hear 339
leave 339
flesh 338
Not 338
available 338
Genesis 337
pages 337
hold 337
showing 336
head 334
ting 334
responsibility 333
accepted 333
working 332
instance 332
considered 332
powerful 331
longer 331
Just 329
freedom 328
meet 328
ating 328
alone 328
influence 327
b@@ 327
local 326
Jewish 326
focus 325
form 325
Their 325
May 325
encouragement 325
vital 325
guidance 324
action 324
Keep 324
regard 324
whose 323
reasons 322
chapter 322
answers 321
L@@ 321
stay 321
harmony 320
according 319
public 319
T@@ 318
deal 318
assignment 317
build 317
divine 316
else 316
trials 316
desires 316
training 315
happened 315
Later 315
proved 315
branch 314
die 314
seek 314
choose 313
created 312
country 312
position 312
within 312
40 312
large 312
Bible’s 311
please 311
grow 309
Have 308
tried 308
servant 308
therefore 307
regular 307
reflect 307
ation 307
common 306
humility 305
single 305
Hence 305
First 305
c@@ 305
call 304
start 304
obey 304
People 302
Samuel 302
de@@ 301
Brother 301
conscience 300
open 299
prayed 298
Roman 298
carry 298
easy 298
Egypt 298
Or 298
offered 298
fulfillment 297
daily 296
explained 296
teachings 296
e@@ 296
goal 296
Prov 296
birth 295
further 295
described 294
raised 293
earlier 293
concern 293
Moreover 292
creation 292
Saul 292
faced 292
challenge 291
occasion 291
visit 290
knows 290
provides 290
soul 289
t 289
encourage 288
explains 288
challenges 288
ten 288
examine 288
history 288
Before 287
changes 287
D@@ 287
Heb 286
godly 285
knowing 284
35 284
34 284
rest 284
seed 283
Rom 283
develop 283
encouraged 282
attend 282
interests 282
changed 282
endure 281
clean 280
decided 280
seeking 280
several 280
Tim 280
warning 279
bear 279
pain 279
sovereignty 279
behalf 278
en@@ 278
met 278
proper 277
personality 276
regularly 275
psalmist 275
goals 275
blood 275
greatest 274
daughter 273
Perhaps 273
seem 273
B@@ 273
shall 273
learning 272
ahead 272
turned 271
takes 271
Jeremiah 270
enemies 269
realize 269
beyond 269
behind 268
speech 268
O 268
protect 267
area 267
various 266
months 266
worldwide 265
steps 265
everyone 265
force 264
d@@ 264
discipline 263
benefits 263
True 262
period 261
expect 261
myself 261
articles 261
cultivate 261
expression 260
stop 260
United 260
quickly 260
above 260
throughout 260
held 259
humble 259
door 259
allowed 259
convention 259
Similarly 258
ago 258
quality 258
praise 258
enjoyed 258
studying 258
positive 258
wonder 258
progress 257
choice 257
salvation 257
happen 256
less 256
Jacob 256
t@@ 256
resurrected 255
Hall 255
addition 255
loyalty 255
worked 255
include 255
37 255
lesson 254
alive 254
strive 254
becoming 254
ted 253
fulfilled 253
basis 253
Others 253
sacrifices 253
ready 252
expressed 252
publications 252
E@@ 252
personally 251
express 251
tells 251
books 250
five 250
pioneers 250
P@@ 249
individual 249
deeply 248
publishers 248
crowd 248
truths 248
arrangement 247
subject 246
An 246
Love 246
accounts 246
looking 246
Really 246
revealed 245
class 244
Pet 244
forgive 244
families 244
friendship 244
Most 244
results 244
blessed 243
side 243
angel 242
closer 242
seven 242
problem 242
importance 242
asking 242
overseer 241
Witness 241
forth 241
walk 240
1914 240
imagine 240
source 240
neither 240
f@@ 240
prepare 239
F@@ 239
flock 239
assigned 239
favor 239
keeping 239
languages 239
millions 239
invited 238
destruction 238
discuss 238
entire 238
laws 238
office 237
Hebrews 237
building 237
R@@ 236
Life 236
line 236
students 236
presence 236
completely 236
activity 236
indeed 236
l@@ 236
actually 235
record 235
Though 235
test 234
sacred 234
enough 234
government 234
traveling 234
bread 234
According 234
begin 233
evening 233
poor 233
Clearly 232
kings 232
sound 232
command 231
sign 230
involves 230
whatever 230
chosen 230
shown 230
realized 229
Each 229
caused 229
compassion 228
demonstrate 228
PAGE 228
y 228
modern 228
dedicated 228
literature 228
Another 228
interested 227
filled 227
Babylon 227
fight 227
urged 227
key 227
surely 227
circuit 227
despite 226
relatives 226
practice 226
sometimes 226
About 225
g@@ 225
fire 225
sexual 224
wives 224
contrast 224
returned 224
beginning 223
eat 223
pressure 223
dedication 223
reveal 222
ent 222
centuries 221
States 221
reward 221
v@@ 221
zeal 221
Memorial 221
patience 221
affection 221
natural 221
gifts 220
added 220
M@@ 220
firm 220
B.C.E 220
necessary 220
trying 220
rich 220
forward 219
answered 219
obedient 219
getting 219
paradise 218
arrived 218
situations 218
recognize 217
exercise 217
leaders 217
simple 216
job 216
David’s 216
acts 215
Rev 215
p@@ 215
sharing 215
member 215
explain 215
aware 215
response 215
negative 215
eventually 214
spent 214
followed 214
approach 214
standing 214
mercy 214
lack 214
justice 213
G@@ 213
seems 212
suffer 212
anger 212
shepherd 212
published 211
priests 211
specific 211
included 211
genuine 211
forgiveness 211
display 211
convinced 210
carefully 210
understood 210
invitation 210
cope 209
protection 208
react 208
verse 208
places 207
beautiful 207
experiences 207
appropriate 207
Governing 206
Sarah 206
walking 206
overcome 206
grateful 205
uses 205
Teach 205
Body 204
voice 204
Also 204
moral 204
conditions 204
six 204
related 204
disciple 204
opposition 203
confident 203
approval 203
sort 203
missionary 203
Holy 203
H@@ 203
brings 203
evil 203
offspring 202
week 202
short 202
Remember 202
rejoice 201
Despite 201
undeserved 201
tree 201
church 201
final 201
household 201
teaches 201
English 201
Was 200
Great 199
Nevertheless 199
meant 198
treat 198
lessons 198
spoken 198
guide 197
devotion 197
offering 197
prophecies 197
TO 197
foreign 197
former 196
responsibilities 196
territory 196
late 196
attending 196
term 196
Soon 196
association 196
al 195
lot 195
race 195
areas 194
feeling 194
fruit 194
workers 193
effective 193
hours 193
consequences 192
observe 192
Imagine 192
zealous 192
fulfill 192
valuable 192
discreet 192
pure 192
success 192
morning 192
Paradise 191
neighbor 191
paragraph 191
conclusion 191
step 191
yourselves 191
original 190
one’s 190
opened 190
vision 190
praying 190
er@@ 190
sincere 190
enter 190
text 189
Joshua 189
putting 189
lands 189
ates 189
education 189
passed 188
condition 188
over@@ 188
beloved 188
accomplish 188
guard 188
School 187
be@@ 187
itself 187
immediately 187
seemed 187
warned 187
a@@ 187
thousands 187
reasonable 186
obedience 186
Think 186
prepared 186
loves 186
ri@@ 186
beliefs 185
write 185
le@@ 185
grew 184
preached 184
wait 184
political 184
prospect 184
Rome 184
hour 183
opportunities 183
Through 183
required 183
anxiety 183
Re@@ 182
conversation 182
violence 182
elderly 182
practices 182
prison 182
aspects 182
im@@ 181
least 181
Judah 181
Being 181
destroyed 181
pursue 181
Gospel 181
encouraging 181
temptation 181
failed 181
satisfaction 180
ous 180
heartfelt 180
army 179
seeing 179
calls 179
lose 179
Isa 179
al@@ 179
world’s 178
agree 178
relates 178
Con@@ 178
universe 177
Isaac 177
as@@ 177
m 177
includes 177
image 177
referred 177
town 177
danger 177
persecution 176
note 176
attended 176
concerned 176
Where 175
38 175
emotional 175
fall 175
state 174
bless 174
caring 174
privileges 174
measure 174
miles 173
request 173
existence 173
resist 173
limited 173
y@@ 173
accurate 173
relief 173
translation 173
parts 172
fruitage 172
mental 172
visited 172
nature 172
ti@@ 172
ter 172
youth 171
feet 171
declared 171
Young 171
50 171
affected 170
sick 170
Family 170
Could 170
Look 170
for@@ 170
ark 170
looked 170
battle 170
an@@ 170
ant 170
More 169
man’s 169
n@@ 169
ar@@ 169
studies 169
minds 169
suffered 169
acceptable 169
watch 169
I@@ 169
chose 169
ly 169
spend 169
room 168
assist 168
assured 168
enemy 168
greatly 168
meditate 168
est 167
parent 167
discussed 167
Elijah 167
pay 167
overseers 167
outside 167
judge 167
als 166
eye 166
extent 166
directed 166
improve 166
h@@ 166
insight 166
Ephesians 166
delight 166
energy 165
produce 165
concerning 165
month 165
student 165
riches 165
spread 165
Ask 165
Armageddon 164
illustrate 164
event 164
points 164
remained 164
younger 163
priest 163
idea 163
mis@@ 163
promote 163
picture 163
ans 163
di@@ 163
appeared 162
leading 162
Should 162
forget 162
con@@ 162
refers 162
either 162
Abraham’s 162
entertainment 162
active 162
tongue 162
appear 161
describes 161
p 161
play 161
listening 161
consideration 161
security 161
subjects 161
comments 160
communication 160
ro@@ 160
third 160
faithfully 160
W@@ 160
eight 160
successful 160
prevent 160
manifest 160
meal 159
fail 159
loss 159
pleasure 159
helpful 159
evident 159
growth 159
principle 159
sees 159
sinful 159
teachers 159
manner 159
ations 158
secular 158
War 158
N@@ 158
train 158
requires 158
succeed 158
endurance 158
half 158
trained 158
immorality 158
direct 158
built 158
creatures 158
bearing 158
Note 158
slaves 157
unique 157
focused 157
save 157
Make 157
Gen 156
becomes 156
believed 156
box 156
countries 156
kindly 156
don’t 156
receiving 156
instead 155
Eph 155
viewed 155
e 155
V@@ 155
occur 155
li@@ 155
45 155
Her 154
Over 154
almost 154
pride 154
O@@ 154
pass 154
boy 154
statement 154
at@@ 153
attack 153
noted 153
indicate 153
Students 153
sex 153
verses 153
lies 152
36 152
drawn 152
Worship 152
scriptures 152
immoral 152
evidently 152
applied 152
translated 152
facts 151
conclude 151
pre@@ 151
increase 151
finally 151
reveals 151
co@@ 151
refused 150
cut 150
teacher 150
refuge 150
million 150
mistakes 150
warm 150
adds 150
lie 150
careful 149
discern 149
challenging 149
type 149
witnessing 149
assistance 149
deliver 149
km 149
likewise 149
distress 149
outstanding 149
42 148
Regarding 148
responsible 148
busy 148
expressions 148
c 148
setting 147
rejected 147
established 147
Philippians 147
BE 147
Mount 147
acted 147
closely 146
easily 146
Watch 146
basic 146
Having 146
responded 146
strengthened 146
eternal 146
usually 146
engage 146
demons 146
or@@ 145
on@@ 145
ex@@ 145
break 145
Good 145
presented 145
critical 145
quite 145
continues 145
killed 145
cases 145
lo@@ 145
ground 145
girl 145
homes 144
41 144
claim 144
Only 144
person’s 144
r@@ 144
views 144
44 144
animals 143
rulership 143
contact 143
groups 143
considering 143
freely 143
sight 143
joined 143
contrary 142
youths 142
telling 142
raise 142
ra@@ 142
expected 142
companions 142
front 142
applying 142
patient 142
Likewise 142
ma@@ 142
cares 142
issues 141
decide 141
cities 141
stopped 141
aspect 141
letters 141
bond 141
garden 141
willingly 141
master 141
Messianic 140
hurt 140
i@@ 140
dear 140
concerns 140
contribute 140
general 140
Spirit 140
2010 140
Whether 139
injustice 139
tender 139
I’m 139
illness 139
pioneering 139
particular 139
aside 139
essential 139
honest 139
big 139
inside 138
primary 138
hearing 138
tions 138
Faith 138
fill 138
destroy 138
se@@ 137
bringing 137
car 137
carried 137
dealings 137
harvest 137
rely 137
instructions 137
report 137
wine 137
pleased 137
placed 137
reached 137
worth 137
notice 137
theocratic 137
prophets 137
ill 137
easier 136
decades 136
Take 136
2011 136
In@@ 136
touched 136
although 136
due 136
Mosaic 135
magazine 135
ty 135
spirituality 135
commanded 135
sp@@ 135
developed 135
70 135
saved 135
m@@ 135
ings 135
pornography 135
opening 134
Among 134
ence 134
business 134
road 134
talking 134
mature 134
forms 134
entered 134
treasure 134
escape 133
treated 133
wickedness 133
identify 133
moving 133
afraid 133
ded 133
drink 133
courageous 133
de 133
Well 133
100 132
recent 132
Ezekiel 132
contains 132
harm 132
fell 132
drinking 132
2012 132
pattern 132
Under 131
Gilead 131
Furthermore 131
anxious 131
united 131
survive 131
France 131
ch@@ 131
amount 131
occurred 131
determine 131
Once 131
observed 130
search 130
resolve 130
forgiving 130
Finally 130
struggle 130
shared 130
el@@ 130
process 130
trial 129
grief 129
merely 129
gathered 129
powers 129
story 129
weeks 129
committed 129
Two 129
2@@ 128
IN 128
providing 128
viewpoint 128
deeds 128
provision 128
appearance 128
Both 128
normal 128
delivered 128
abilities 128
per@@ 128
ce 128
discussion 128
reality 127
Never 127
pro@@ 127
rec@@ 127
reaching 127
designed 127
High 127
indicated 126
recognized 126
selfish 126
daughters 126
appears 126
39 126
declare 126
calling 126
beneficial 126
details 126
provisions 126
tears 126
represent 126
Martha 126
gratitude 126
ha@@ 126
divorce 126
York 125
generous 125
reject 125
Translation 125
studied 125
join 125
paragraphs 125
indicates 125
bed 125
Father’s 125
listened 125
organized 125
formed 125
refer 125
generation 125
USED 125
fleshly 125
program 125
writing 125
eager 125
correct 125
Catholic 125
Him 124
ab@@ 124
mere 124
st@@ 124
discouraged 124
lasting 124
Christianity 124
exactly 124
ze 124
dealing 124
involve 124
n 124
witnesses 124
performed 124
arise 124
advantage 124
qualified 124
handle 123
60 123
determination 123
reference 123
constantly 123
Tower 123
nearly 123
Phil 123
send 123
allows 123
construction 123
conventions 123
lifestyle 123
sun 122
gods 122
quoted 122
forces 122
rebellion 122
Eden 122
awake 122
particularly 122
growing 122
Pentecost 122
missionaries 122
u@@ 122
choices 122
gone 122
perform 121
goes 121
sinners 121
belong 121
ve 121
Germany 121
Here 121
it@@ 121
Give 121
Second 121
Israel’s 121
facing 121
ir@@ 121
worse 120
Hezekiah 120
Sadly 120
descendants 120
husbands 120
waiting 120
feels 120
parable 120
remarkable 120
violent 120
carrying 120
mildness 120
social 120
impressed 120
accomplished 120
ons 120
ment 119
yes 119
legal 119
OF 119
compared 119
dangerous 119
speaks 119
begotten 119
en 119
sought 119
commandments 119
separate 119
Israelite 119
inheritance 119
Passover 118
reports 118
Picture 118
Pharaoh 118
la@@ 118
occasions 118
ful 118
career 118
associated 117
satisfying 117
appreciated 117
recalls 117
tion 117
Happy 117
grasp 117
directly 117
Ruth 117
mention 116
arrangements 116
ought 116
highly 116
Sometimes 116
es@@ 116
hospitality 116
widow 116
worthy 116
leaving 115
Without 115
seriously 115
acting 115
patiently 115
background 115
Un@@ 115
connection 115
ance 115
referring 115
superior 115
global 114
ruling 114
grown 114
Land 114
produced 114
neighbors 114
difference 114
pointed 114
stake 114
walked 114
ously 114
rise 114
Children 114
invite 114
allowing 114
music 114
Has 114
– 114
invisible 114
joyful 113
significant 113
Every 113
wheat 113
Noah’s 113
preceding 113
comforting 113
successfully 113
recreation 113
meaningful 113
Internet 113
eating 113
humbly 113
main 113
financial 112
k@@ 112
Joseph’s 112
attendance 112
Parents 112
advance 112
ves 112
proof 112
recall 112
address 112
shepherds 112
Al@@ 111
couples 111
run 111
mouth 111
wild 111
scripture 111
Go 111
ended 111
benefited 111
ep@@ 111
assures 111
influenced 111
factors 111
reaction 111
cover 111
Jas 111
governments 111
major 111
Awake 110
ad@@ 110
emotions 110
out@@ 110
assignments 110
pe@@ 110
Promised 110
tempted 110
wish 110
mo@@ 110
Exodus 110
ge 110
k 110
marry 110
military 110
d 109
names 109
god 109
replied 109
Sam 109
probably 109
inclined 109
ap@@ 109
weak 109
Notice 109
journey 109
Flood 109
th@@ 109
adultery 109
ruler 109
instruction 109
requirements 109
deliverance 109
Colossians 109
Ecclesiastes 109
travel 109
paid 109
secure 108
tive 108
rightly 108
mighty 108
impossible 108
secret 108
endeavor 108
Pro@@ 108
Aaron 108
ents 108
mild 108
Come 108
wondered 108
turning 108
outcome 108
mi@@ 108
Lazarus 108
purposes 108
suggestions 108
Study 108
ters 108
gradually 108
ul@@ 108
meditating 108
z@@ 108
effects 108
sleep 108
chapters 108
treatment 107
difficulties 107
white 107
par@@ 107
heavy 107
series 107
peaceful 107
mates 107
July 107
zed 107
lovingly 107
U@@ 107
Questions 107
temporary 107
approached 107
is@@ 107
3@@ 107
associate 106
inner 106
demonstrated 106
Ministry 106
writings 106
Sovereign 106
2013 106
stood 106
Gal 106
September 106
ideas 106
associates 106
healthy 105
literal 105
sword 105
authorities 105
company 105
imperfection 105
le 105
increased 105
thank 105
assurance 105
commission 105
Deuteronomy 105
vast 105
cost 105
values 105
sinned 104
K@@ 104
Am 104
South 104
international 104
resulted 104
Almighty 104
offers 104
throne 104
Peter’s 104
motivated 104
surprise 104
granted 104
moment 104
reflected 103
Whatever 103
beast 103
guided 103
useful 103
acknowledge 103
potential 103
October 103
Us 103
sea 103
remains 103
chief 103
physically 102
il@@ 102
brotherhood 102
concluded 102
angry 102
lay 102
trusted 102
h 102
ears 102
zing 102
ministerial 102
causes 102
compassionate 102
Surely 102
reminded 102
Learn 102
serves 102
sing 102
ho@@ 102
didn’t 102
spouse 101
disfellowshipped 101
preparing 101
safe 101
ci@@ 101
exists 101
ds 101
stick 101
ac@@ 101
treasures 101
admonition 101
surprised 101
Help 101
familiar 101
abandoned 101
baby 101
gold 101
Ephesus 100
relate 100
Canada 100
enabled 100
wide 100
date 100
sang 100
46 100
inter@@ 100
prejudice 100
writer 100
court 100
non 100
am@@ 100
limitations 100
prophetic 100
ding 100
Solomon’s 100
choosing 100
dwelling 100
figurative 100
opposers 100
Africa 99
exist 99
sacrificing 99
properly 99
remaining 99
lowly 99
April 99
repeatedly 99
environment 99
inhabited 99
traveled 99
instructed 99
car@@ 99
religions 99
Elisha 99
illustrations 98
marvelous 98
thereafter 98
listeners 98
faithfulness 98
research 98
intended 98
WHAT 98
reasoning 98
soldiers 98
balanced 98
Australia 98
songs 98
holding 98
habits 98
wrongdoing 98
thousand 98
hundreds 97
sickness 97
Col 97
ungodly 97
path 97
culture 97
Levites 97
endured 97
conviction 97
mankind’s 97
adjustments 97
discovered 97
cry 97
communicate 97
se 97
Halls 97
routine 97
o@@ 97
ity 97
repentant 96
ling 96
excellent 96
society 96
behavior 96
dignity 96
ction 96
finding 96
hell 96
exercising 96
visiting 96
wrath 96
ING 96
Asa 96
Titus 96
maintaining 96
proud 96
unable 96
ved 96
dress 96
alcohol 96
numerous 96
sit 95
oil 95
require 95
pleasing 95
pursuing 95
rendered 95
firmly 95
modest 95
none 95
qu@@ 95
Y 95
l 95
Doing 95
model 95
spirits 95
severe 95
boldness 95
encourages 95
motives 95
Ar@@ 95
ally 95
drawing 95
noticed 95
disease 95
describe 95
seventh 95
abroad 95
refuse 94
higher 94
Lord’s 94
abundance 94
stress 94
camp 94
Ex 94
obtain 94
poured 94
43 94
relative 94
fying 94
wilderness 94
En@@ 94
advancement 94
people’s 94
strengthening 94
under@@ 94
campaign 94
Explain 94
conflict 93
keeps 93
village 93
accepting 93
S 93
entrusted 93
assembly 93
Judas 93
belongs 93
official 93
released 93
leads 93
August 93
wealth 93
inherited 93
inhabitants 93
miracles 93
Pharisees 93
Enoch 93
minister 92
limit 92
stone 92
abundant 92
happens 92
wars 92
Ex@@ 92
remind 92
writers 92
red 92
ine 92
gra@@ 92
ist 92
nine 92
tests 92
December 92
obeying 92
prize 92
attitudes 92
brief 91
displayed 91
bo@@ 91
friendships 91
divided 91
hatred 91
vow 91
affairs 91
ors 91
Jonathan 91
adjust 91
Time 91
Corinth 91
Version 91
win 91
65 91
Nathan 91
supporting 91
restore 91
medical 90
belief 90
apart 90
resolved 90
moves 90
Hannah 90
relations 90
T 90
asks 90
ness 90
visits 90
drew 90
heed 90
Lamb 90
glorious 90
Abel 90
trouble 90
tra@@ 90
believing 90
aid 90
blind 90
Y@@ 89
scholars 89
quit 89
differ 89
hate 89
corrupt 89
Prayer 89
ments 89
painful 89
ms 89
COVER 89
2009 89
March 89
arranged 89
tri@@ 89
royal 89
RE@@ 89
air 89
slavery 89
HOW 89
abandon 89
te 89
ying 89
majority 89
notes 89
merciful 89
animal 89
man@@ 89
task 89
reliable 89
darkness 89
ite 89
unclean 88
represented 88
Cain 88
Michael 88
trip 88
January 88
gathering 88
root 88
buy 88
ish 88
zealously 88
peoples 88
welcome 88
resources 88
perfection 88
release 88
cared 88
lovers 87
sad 87
maturity 87
Ki 87
render 87
audience 87
supported 87
fearing 87
recently 87
review 87
waters 87
kill 87
tendency 87
quick 87
low 87
readily 87
BIBLE 87
Sea 87
features 87
res@@ 87
ered 87
144,000 86
protected 86
private 86
edition 86
sake 86
reported 86
teenager 86
relationships 86
employment 86
balance 86
universal 86
Unlike 86
Other 86
touch 86
55 86
ering 86
el 86
Brazil 86
dream 86
Esau 85
Gospels 85
weeds 85
rewarded 85
gi@@ 85
dangers 85
possessions 85
Day 85
Peace 85
Upon 85
heads 85
ble 85
additional 85
Eventually 85
clothing 84
upbuilding 84
earnest 84
Dis@@ 84
intense 84
slow 84
exciting 84
householder 84
firstborn 84
Out 84
suddenly 84
i 84
compare 84
mountains 84
symbolic 84
dwell 84
struck 84
across 84
ently 84
ne@@ 84
song 84
identified 84
Shortly 84
rules 84
Europe 84
terms 84
ch 84
error 84
ur@@ 83
broke 83
Japan 83
German 83
create 83
peaceable 83
Z@@ 83
restored 83
enable 83
sh@@ 83
Sermon 83
fied 83
bodies 83
ar 83
region 83
victory 83
Service 83
bl@@ 83
grain 83
E 83
plans 83
scholar 82
cruel 82
enjoying 82
pagan 82
sold 82
flee 82
48 82
understands 82
district 82
significance 82
Nehemiah 82
Church 82
mar@@ 82
th 82
represents 82
disaster 82
methods 82
stars 82
Chron 82
repentance 82
te@@ 82
tr@@ 82
reign 82
residents 82
broken 82
PS 82
trusting 82
unbelieving 82
willingness 81
ces 81
establish 81
herself 81
singing 81
Work 81
meditation 81
contain 81
leader 81
fitting 81
entitled 81
solid 81
property 81
Robert 81
copy 81
fast 81
remove 81
developing 81
glad 81
governing 81
store 81
Recall 80
tribe 80
magazines 80
today’s 80
surrounded 80
De@@ 80
tic 80
season 80
table 80
ah 80
variety 80
extended 80
op@@ 80
finished 80
foundation 80
Thessalonians 80
pressures 80
agreed 80
belongings 80
removed 80
alert 80
claimed 80
shine 80
Ahab 80
urgency 80
gained 80
threatened 80
ning 80
mon@@ 79
qualify 79
union 79
wedding 79
cre@@ 79
II 79
mark 79
mistake 79
indefinite 79
Job’s 79
mountain 79
Its 79
dealt 79
habit 79
wisely 79
preserve 79
expects 79
partner 79
119 79
lying 79
goodness 79
miraculously 79
For@@ 79
warfare 79
Draw 78
permanent 78
cal 78
bride 78
Biblical 78
passage 78
eliminate 78
applies 78
detail 78
June 78
apparently 78
list 78
likened 78
devoted 78
Committee 78
influences 78
priority 78
writes 78
father’s 78
w@@ 78
Imitate 78
Master 78
Granted 78
unrighteous 78
approved 78
enduring 78
motivate 78
persecuted 78
strangers 78
objective 78
initiative 78
publisher 78
content 77
degree 77
prominent 77
anxieties 77
marked 77
Micah 77
U.S.A 77
life’s 77
stayed 77
schedule 77
er’s 77
companion 77
talks 77
pp 77
comp@@ 77
Galatians 77
18@@ 77
Zechariah 77
differences 77
marital 77
war@@ 77
ours 77
straight 77
miraculous 77
imitating 77
plan 77
up@@ 77
kingdoms 77
explanation 77
earnestly 77
distance 77
ingly 77
finish 76
YOU 76
judged 76
Elders 76
causing 76
damage 76
headship 76
4@@ 76
ends 76
skills 76
depth 76
standard 76
armies 76
generosity 76
regret 76
spending 76
printed 76
harmful 76
traits 76
accord 76
midst 76
Judea 76
80 76
newly 75
ties 75
heal 75
persons 75
Adam’s 75
fish 75
believer 75
conducted 75
Which 75
images 75
Earth 75
addressed 75
guilty 75
brotherly 75
begins 75
tribes 75
eagerly 75
ator 75
ing@@ 75
worldly 75
ou@@ 75
modesty 75
shed 75
nearby 74
loyally 74
Thess 74
sayings 74
expand 74
der 74
innocent 74
upright 74
om@@ 74
g 74
England 74
me@@ 74
Ad@@ 74
hardships 74
site 74
appeal 74
fundamental 74
53 74
sur@@ 74
comforted 74
reminds 74
burden 74
Egyptian 74
us@@ 74
Deut 74
comfortable 74
les 74
utmost 74
passing 74
plant 74
customs 74
grave 74
involving 73
Trinity 73
miss 73
bi@@ 73
he@@ 73
fornication 73
Christendom 73
finds 73
si@@ 73
welfare 73
weaknesses 73
warnings 73
ative 73
Mexico 73
reads 73
scene 73
primarily 73
Continue 73
American 73
subjection 73
holds 73
distant 73
possession 73
priorities 73
economic 73
wind 73
Drama 73
Joel 73
letting 73
raising 73
Russia 73
emotionally 73
thanks 73
reminders 73
child’s 73
STUDY 72
ftn 72
signs 72
played 72
ists 72
Person 72
delighted 72
cooperate 72
wipe 72
highlights 72
Become 72
identity 72
ks 72
doctrine 72
terrible 72
pursuits 72
souls 72
Spain 72
Jude 72
previously 72
cted 72
rescue 72
ages 72
contained 72
commands 72
asleep 72
talents 72
maintained 72
Following 72
reflecting 72
conscious 72
houses 72
acknowledged 71
tering 71
pictures 71
watching 71
ol@@ 71
faces 71
Barnabas 71
obeyed 71
ter@@ 71
tired 71
officials 71
inherit 71
overwhelmed 71
conversations 71
attacks 71
ignore 71
idolatry 71
encounter 71
approaching 71
ent@@ 71
2008 71
stories 70
AN@@ 70
conducting 70
impact 70
ct 70
1919 70
no@@ 70
temptations 70
thrilling 70
caught 70
paying 70
possess 70
torture 70
associating 70
Compare 70
copies 70
stronger 70
foolish 70
sustain 70
context 70
rulers 70
calm 70
humankind 70
translations 70
initial 70
cast 70
engaging 70
losing 70
na@@ 70
Making 70
popular 70
ably 70
observing 70
project 70
PAGES 69
Close 69
ruled 69
clergy 69
anymore 69
opinion 69
possibly 69
visible 69
center 69
motive 69
victim 69
ism 69
add 69
discussing 69
risk 69
urge 69
looks 69
gather 69
admit 69
preserved 69
countless 69
serpent 69
total 69
IS 69
AL@@ 69
deepen 69
bound 69
street 69
fore@@ 69
Per@@ 69
police 69
Things 69
Brooklyn 69
ps 69
do@@ 68
51 68
February 68
commendation 68
bus 68
ru@@ 68
hundred 68
disappointed 68
tly 68
Reign 68
o 68
har@@ 68
Faithful 68
portion 68
acquire 68
forced 68
sorts 68
x@@ 68
mine 68
trees 68
diligent 68
warns 68
whenever 68
tools 68
goats 68
disasters 68
feature 68
Bethlehem 68
headquarters 68
assemblies 68
fe@@ 68
debt 68
beauty 68
percent 68
I’ve 68
attempt 68
ministers 68
reply 67
urges 67
phone 67
Everyone 67
feed 67
isolated 67
ran 67
failure 67
crime 67
amazing 67
Herod 67
courageously 67
ving 67
WHEN 67
temper 67
ited 67
submit 67
Death 67
citizens 67
fields 67
tu@@ 67
imperfections 67
French 67
priesthood 67
tend 67
valid 67
ship 67
pl@@ 67
x 67
rejoicing 67
Readers 67
Use 67
Lot 67
os@@ 67
rewarding 67
ni@@ 67
corruption 67
regardless 67
privileged 67
Again 67
widely 66
crushed 66
rewards 66
deceived 66
tested 66
Rahab 66
opinions 66
Using 66
Pray 66
cold 66
community 66
worker 66
min@@ 66
po@@ 66
literally 66
cherish 66
City 66
Were 66
burning 66
tax 66
urgent 66
searching 66
sincerely 66
depends 66
draws 66
highlight 66
extraordinary 66
Eccl 66
except 66
Brothers 66
Judge 66
hates 66
male 66
empty 66
capable 66
silver 66
returning 66
peer 66
manuscripts 66
Friend 66
forgiven 66
distressing 66
satisfied 66
constant 66
hidden 66
thankful 66
miracle 66
reflects 66
Mar@@ 66
fit 65
covered 65
enables 65
commandment 65
ES 65
projects 65
w 65
expectation 65
poverty 65
memory 65
AR@@ 65
sub@@ 65
aged 65
Book 65
witnessed 65
tabernacle 65
Des@@ 65
minded 65
top 65
Speaking 65
Com@@ 65
continually 65
continuing 65
brochure 65
custom 65
grant 65
Jehu 65
opposed 65
senses 65
realm 65
vi@@ 65
solution 65
gets 65
7@@ 65
j@@ 64
opposite 64
tent 64
striving 64
admits 64
Above 64
Britain 64
arms 64
rain 64
imprisoned 64
repeated 64
rendering 64
existed 64
effectively 64
em@@ 64
appealing 64
Further 64
November 64
worry 64
gracious 64
arose 64
memories 64
fi@@ 64
ic@@ 64
Li@@ 64
passages 64
ns 64
punishment 64
valley 64
obstacles 64
relatively 64
commit 64
unexpected 64
fears 64
Knorr 64
Asia 64
mourning 64
judges 64
threat 63
lawlessness 63
thrown 63
promotes 63
perfectly 63
od@@ 63
supply 63
readers 63
turns 63
D 63
wall 63
ED 63
cl@@ 63
6@@ 63
Concerning 63
condemned 63
IN@@ 63
drugs 63
discussions 63
unless 63
du@@ 63
Russell 63
ders 63
acquainted 63
viewing 63
captivity 63
shepherding 63
remembered 63
satisfy 63
refreshing 63
pleasant 63
her@@ 63
reputation 63
discernment 63
types 63
troubled 63
mentions 63
Galilee 63
birds 63
TH@@ 63
cra@@ 63
smoking 62
adopted 62
den@@ 62
defend 62
statements 62
sitting 62
fallen 62
comment 62
cultivating 62
participate 62
safety 62
examination 62
1950 62
specifically 62
deeper 62
ending 62
calamity 62
healed 62
extend 62
grand 62
requirement 62
historical 62
wear 62
fed 62
ear 62
ca@@ 62
repent 62
watchful 62
ruin 62
col@@ 62
shortly 62
blame 62
Marriage 62
mid 62
planet 62
Source 62
stumble 62
extreme 62
Grand 62
developments 61
commended 61
thorough 61
observes 61
shoulder 61
AND 61
fulfilling 61
surface 61
49 61
hair 61
wholesome 61
evolution 61
66 61
yielding 61
Says 61
ner 61
huge 61
current 61
sanctified 61
ses 61
gaining 61
Michelle 61
settled 61
Spiritual 61
assume 61
ordered 61
boat 61
charge 61
wa@@ 61
ber@@ 61
Know 61
earth’s 61
bit 61
depend 61
appointment 61
prayerful 61
Me 61
Jehoshaphat 61
arrive 61
abuse 61
otherwise 60
hospital 60
ward 60
development 60
ed@@ 60
preachers 60
wholeheartedly 60
commissioned 60
stumbling 60
disobedience 60
missing 60
puts 60
stones 60
science 60
confronted 60
profound 60
It’s 60
patriarch 60
LI@@ 60
proclaim 60
highlighted 60
rock 60
altar 60
avoided 60
sed 60
executed 60
welcomed 60
bitter 60
considers 60
color 60
ary 60
47 60
glorify 60
application 60
exposed 60
Show 60
ging 60
await 60
Congregation 60
immediate 60
location 60
worshipped 60
pi@@ 60
suggested 60
greed 60
per 60
hardly 60
quiet 60
Evidently 59
hated 59
interesting 59
examining 59
imitation 59
churches 59
Latin 59
oppression 59
running 59
selected 59
Serving 59
sides 59
aging 59
clothes 59
ard 59
to@@ 59
title 59
ph@@ 59
Theocratic 59
fled 59
extra 59
favorable 59
bore 59
factor 59
inspiration 59
billions 59
sets 59
crowds 59
atmosphere 59
eternity 59
judging 59
attain 59
won 59
blesses 59
wi@@ 59
twice 59
fiery 59
Leader 59
Priest 59
horse 59
healing 59
proceeded 59
publicly 59
Sa@@ 59
afterward 58
harsh 58
remnant 58
press 58
texts 58
respected 58
increasing 58
illustrated 58
ga@@ 58
widows 58
jw.org 58
computer 58
uphold 58
it’s 58
St@@ 58
ry 58
replaced 58
completed 58
confirmed 58
Kings 58
dark 58
ely 58
outlook 58
positions 58
dust 58
equipped 58
generally 58
ongoing 58
Spanish 58
middle 58
visitors 58
dra@@ 58
et 58
officer 58
ess 58
minutes 58
hoped 58
ck 58
Philip 58
cup 58
ants 58
joyfully 58
proclaimers 58
totally 58
Truth 58
throw 58
victims 58
counted 58
Besides 58
doubts 57
54 57
creature 57
burned 57
sending 57
ins 57
experiencing 57
An@@ 57
focusing 57
ls 57
pity 57
deaf 57
AL 57
Im@@ 57
ST@@ 57
hears 57
JEHOVAH 57
tempered 57
Nazareth 57
funds 57
inactive 57
rights 57
can@@ 57
Pilate 57
execution 57
guilt 57
Philippi 57
Three 57
gentle 57
manifested 57
elements 57
oppose 57
productive 57
Empire 57
Trust 57
safeguard 57
tear 57
Sophia 57
friendly 57
located 56
capacity 56
sion 56
gr@@ 56
changing 56
struggling 56
Any 56
backing 56
weakness 56
Truly 56
prominence 56
settle 56
Year 56
initially 56
outset 56
judgments 56
north 56
weekly 56
Anna 56
Rebekah 56
Additionally 56
Man 56
doctor 56
resulting 56
Jer 56
ctions 56
laid 56
Scripture 56
distracted 56
displaying 56
obtained 56
meek 56
associations 56
Knowing 56
intelligent 56
fathers 56
neutrality 56
Name 56
deceptive 56
survived 56
devote 56
Se@@ 56
sessions 56
Italy 56
Box 56
cts 56
lean 56
garments 56
chance 56
Society 56
Thereafter 56
clay 56
Ruler 56
ob@@ 55
dying 55
hand@@ 55
principal 55
obligation 55
claims 55
visions 55
happily 55
ators 55
Within 55
Jephthah 55
exercised 55
reproach 55
ged 55
sorrow 55
hypocrisy 55
cur@@ 55
playing 55
famous 55
bones 55
Be@@ 55
Gideon 55
proving 55
72 55
kingship 55
sinner 55
island 55
warn 55
propaganda 55
desirable 55
belonging 55
duties 55
recognition 55
volunteers 55
overly 55
exert 55
Early 55
everywhere 55
favorably 55
prior 55
pa@@ 55
olive 55
ver@@ 55
northern 55
strongly 55
brother’s 54
undoubtedly 54
trustworthy 54
badly 54
vigilant 54
unfaithful 54
comparison 54
timely 54
team 54
assure 54
Much 54
possibility 54
description 54
2,000 54
worshipper 54
method 54
re 54
exact 54
Dad 54
ars 54
IT 54
synagogue 54
Nisan 54
length 54
desired 54
Throughout 54
announced 54
chi@@ 54
jealousy 54
pleasures 54
2014 54
unselfish 54
Leviticus 54
id 54
ement 54
fra@@ 54
lu@@ 54
remote 54
suggests 54
ches 54
smile 54
alongside 54
cks 54
handed 54
obvious 53
He@@ 53
83 53
e’s 53
ring 53
declaring 53
boys 53
Especially 53
frequently 53
ah’s 53
Dan 53
openly 53
ched 53
strike 53
weapons 53
explaining 53
prophesied 53
items 53
sports 53
Whom 53
angelic 53
depressed 53
steward 53
national 53
priceless 53
talked 53
dedicate 53
EN@@ 53
peers 53
singleness 53
emphasized 53
Next 53
trap 53
empathy 53
scientists 53
reasoned 53
pursuit 53
tro@@ 53
Mary’s 53
equal 53
ag@@ 53
steadfast 53
emblems 53
services 53
teens 53
garment 53
sensitive 53
hide 53
supplication 53
Rep@@ 53
fourth 53
cal@@ 53
Jordan 53
No@@ 53
mor@@ 53
Avoid 53
load 52
deserve 52
errors 52
children’s 52
Sunday 52
mission 52
empire 52
ON 52
virgin 52
Please 52
logical 52
bears 52
presentation 52
whereas 52
annual 52
500 52
lion 52
DE@@ 52
ste@@ 52
expensive 52
Christlike 52
hospitable 52
Egyptians 52
cor@@ 52
originally 52
directions 52
destination 52
cancer 52
impression 52
thereby 52
Often 52
discouragement 52
correction 52
revealing 52
warmly 52
stands 52
Pictures 52
z 52
topics 52
absorbed 52
admonished 52
accused 52
intentions 52
disposition 52
Naomi 52
expressing 52
printing 52
ev@@ 52
morally 52
testimony 52
diligently 52
arrival 52
H 52
era 52
Car@@ 51
ta@@ 51
5@@ 51
thrilled 51
arrested 51
everyday 51
Lo@@ 51
reside 51
ang@@ 51
fighting 51
intimate 51
L 51
proclaimed 51
che@@ 51
ws 51
exchange 51
300 51
bow 51
apostate 51
ge@@ 51
por@@ 51
tendencies 51
52 51
Nothing 51
falling 51
dies 51
engaged 51
protects 51
Right 51
weight 51
unusual 51
Malachi 51
iting 51
Seeing 51
120 51
Power 51
recalled 51
15@@ 51
Mother 51
upset 51
centered 51
solve 51
family’s 51
ines 51
iled 51
inv@@ 51
jealous 51
suitable 50
a’s 50
Jericho 50
planning 50
su@@ 50
inc@@ 50
heartwarming 50
hi@@ 50
delay 50
dry 50
brain 50
Web 50
missed 50
ON@@ 50
materially 50
foreigners 50
respects 50
Try 50
Reading 50
Nonetheless 50
1,000 50
com@@ 50
Accordingly 50
www.jw.org 50
Maintain 50
Absalom 50
Deborah 50
bul@@ 50
News 50
River 50
contributed 50
ching 50
Get 50
ck@@ 50
offerings 50
Heart 50
hoping 50
inf@@ 50
permit 50
THIS 50
kinds 50
composed 50
sufficient 50
AN 50
analyze 50
foremost 50
lips 50
Daniel’s 50
Provider 50
accident 50
pour 50
t’s 49
population 49
Looking 49
tor@@ 49
suggest 49
ridicule 49
distributed 49
operation 49
van@@ 49
hesitate 49
walls 49
taste 49
execute 49
hopes 49
Human 49
bought 49
independence 49
object 49
Living 49
y’s 49
promoted 49
discover 49
seated 49
Servant 49
telephone 49
respectful 49
video 49
ari@@ 49
Shepherd 49
characteristics 49
exemplary 49
badness 49
Anointed 49
refreshment 49
overwhelming 49
Res@@ 49
yours 49
tic@@ 49
discusses 49
vain 49
ths 49
Likely 49
facilities 49
commercial 49
proclaiming 49
grieving 49
reassuring 49
ven@@ 49
worthless 49
requests 49
Jon 49
leaves 49
identifies 49
disposed 49
adult 49
9@@ 49
proves 49
illustrates 49
happening 49
inspiring 49
Christmas 49
price 49
Par@@ 49
achieve 49
Chronicles 49
moon 48
med 48
wherever 48
We@@ 48
foot 48
compromise 48
COR 48
drive 48
replace 48
gro@@ 48
moments 48
disobedient 48
ass@@ 48
earn 48
Thousand 48
et@@ 48
listed 48
improper 48
fortify 48
sc@@ 48
absolutely 48
Evening 48
RI@@ 48
credit 48
ban 48
offended 48
resurrect 48
Barak 48
Cameron 48
worshipping 48
instruct 48
fac@@ 48
trans@@ 48
reap 48
56 48
cried 48
bri@@ 48
schools 48
1@@ 48
Illustrate 48
il 48
unbelievers 48
namely 48
access 48
similarly 48
resentment 48
loud 48
deserves 48
generously 48
leaven 48
immortal 48
Karen 48
tries 48
yield 48
expectations 48
Baruch 48
limits 48
Goliath 48
enhance 48
fy 48
Pharaoh’s 48
sa@@ 48
childhood 47
publication 47
extremely 47
emphasis 47
Fi@@ 47
average 47
follows 47
grows 47
non@@ 47
agreement 47
somewhat 47
| 47
UR@@ 47
M 47
girls 47
virgins 47
husband’s 47
tremendous 47
origin 47
Hearer 47
spreading 47
enti@@ 47
amazed 47
count 47
Suppose 47
prospects 47
Nations 47
helper 47
surrounding 47
emphasize 47
apostasy 47
sacrificial 47
copper 47
party 47
hungry 47
rebellious 47
awe 47
Ireland 47
honesthearted 47
afflicted 47
spiritism 47
sat 47
accompanied 47
murder 47
scale 47
stage 47
portions 47
historian 47
feared 47
labor 47
giver 47
representatives 47
shame 47
lesser 47
rid 47
psalm 47
mer@@ 47
62 47
enthusiasm 47
pas@@ 47
distractions 46
interfere 46
indication 46
necessarily 46
tradition 46
occurs 46
Years 46
accurately 46
adults 46
comforts 46
Purpose 46
TI@@ 46
respectfully 46
eg@@ 46
aim 46
exp@@ 46
ill@@ 46
complex 46
adjusted 46
Listen 46
Meal 46
unwise 46
Dead 46
Times 46
Philippines 46
accompany 46
producing 46
transformed 46
John’s 46
ud@@ 46
Babylonian 46
judicial 46
Assembly 46
exercises 46
lacking 46
widespread 46
perceive 46
territories 46
Saul’s 46
rebel 46
praising 46
bra@@ 46
J@@ 46
honesty 46
enjoyable 46
session 46
appreciates 46
strange 46
Josiah 46
siblings 46
rebelled 46
soil 46
Bibles 46
difficulty 46
90 46
George 46
declaration 46
practiced 46
Way 46
petitions 46
arrives 46
receives 46
des 46
fifth 46
P 46
admitted 46
enjoyment 46
uring 45
Isaiah’s 45
roads 45
repay 45
unscriptural 45
Taking 45
ise 45
Eric 45
Serve 45
awaiting 45
Arthur 45
LO@@ 45
ER@@ 45
distinguish 45
Ezek 45
outworking 45
womb 45
ately 45
exclusive 45
flo@@ 45
fresh 45
61 45
begun 45
conflicts 45
def@@ 45
fas@@ 45
jobs 45
we@@ 45
spe@@ 45
down@@ 45
backgrounds 45
prosperity 45
·@@ 45
Thanks 45
weaken 45
MATT 45
adopt 45
MY 45
8@@ 45
submission 45
European 45
Canaan 45
Millions 45
sheba 45
avoiding 45
tragic 45
timing 45
id@@ 45
gu@@ 45
Gog 45
formerly 45
measures 45
perspective 45
iron 45
produces 45
entering 45
Andrew 45
disastrous 44
embrace 44
Certainly 44
Stephen 44
saving 44
Reflecting 44
truthfulness 44
America 44
convey 44
jo@@ 44
ay@@ 44
stating 44
Jacob’s 44
conquer 44
founded 44
considerable 44
silent 44
weighty 44
sower 44
IS@@ 44
elsewhere 44
Describe 44
cleansing 44
del@@ 44
criminal 44
CE 44
freed 44
ming 44
Judges 44
Simon 44
au@@ 44
schoolmates 44
appreciative 44
meantime 44
Thomas 44
Charles 44
Had 44
scroll 44
feeding 44
r 44
farm 44
speaker 44
ma 44
Consequently 44
land@@ 44
lifesaving 44
sentence 44
reserved 44
hypocritical 44
sell 44
TRY 44
Giving 44
phrase 44
cure 44
tongues 44
keen 44
W 44
ishing 44
creative 44
worthwhile 44
thoroughly 44
Third 44
richly 44
auxiliary 44
honored 44
glorified 44
questioned 43
unnecessary 43
weighed 43
Head 43
struggled 43
introduced 43
gate 43
bereaved 43
Rachel 43
HISTORY 43
London 43
offense 43
submissive 43
ease 43
sleeping 43
Gentiles 43
bs 43
Ma@@ 43
Greater 43
partial 43
ked 43
detailed 43
partake 43
strayed 43
select 43
ites 43
expresses 43
genuinely 43
Thessalonica 43
broad@@ 43
marriages 43
appoint 43
Philistines 43
SE@@ 43
references 43
anti@@ 43
opens 43
waited 43
conquered 43
happier 43
doctrines 43
selfishness 43
ia 43
ges 43
traditions 43
advanced 43
Branch 43
sive 43
mothers 43
devastated 43
contributes 43
incident 43
cooperation 43
Hope 43
implies 43
ear@@ 43
plenty 43
ES@@ 43
cloud 43
transferred 43
attracted 43
Follow 43
fl@@ 43
bro@@ 43
Di@@ 43
combined 43
recommended 43
William 43
purposed 43
Regardless 43
remembering 43
drop 42
increasingly 42
scrolls 42
kingly 42
Jonah 42
Bethelites 42
inclination 42
um@@ 42
Qu@@ 42
1,@@ 42
tract 42
black 42
ensure 42
HAVE 42
tered 42
fo@@ 42
row 42
hunger 42
str@@ 42
br@@ 42
ished 42
hinder 42
Ones 42
hurtful 42
overlook 42
guests 42
shield 42
cli@@ 42
lifted 42
believes 42
bas@@ 42
indicating 42
progressed 42
cting 42
sowing 42
Lystra 42
strengthens 42
theme 42
apostates 42
gl@@ 42
ad 42
domestics 42
prayerfully 42
cul@@ 42
coun@@ 42
ared 42
headed 42
challenged 42
informed 42
decisive 42
washed 42
contra@@ 42
keenly 42
yoke 42
ships 42
ignored 42
capital 42
ality 42
inclinations 42
wealthy 42
extensive 42
plague 42
qualifications 42
Ancient 42
outcry 42
wage 42
Neither 42
ger 42
Testament 42
prisoners 42
radio 42
boldly 42
confirm 42
Yearbook 42
JESUS 42
longing 42
Happily 42
Giver 42
ped 42
covering 41
kers 41
prevented 41
tin@@ 41
unrepentant 41
Learning 41
lift 41
haughty 41
ests 41
envy 41
Loving 41
ton 41
Whoever 41
dignified 41
occasionally 41
Cornelius 41
depression 41
chaste 41
snare 41
Christian’s 41
ER 41
invites 41
board 41
refugees 41
Baal 41
Me@@ 41
LY 41
discourse 41
tation 41
mal@@ 41
preacher 41
television 41
Everything 41
doors 41
exhortation 41
mass 41
impart 41
73 41
Rule 41
conquest 41
Religion 41
ride 41
contemplate 41
16@@ 41
deceive 41
fails 41
recover 41
Mom 41
greeting 41
somehow 41
Brian 41
donations 41
Samaritan 41
cleansed 41
Red 41
oversight 41
Up 41
deliberately 41
Pay 41
pieces 41
practicing 41
Sodom 41
win@@ 41
wor@@ 41
pres@@ 41
needy 41
apartment 41
famine 41
empowered 41
permission 41
ke 41
View 41
arriving 41
antly 41
exile 41
recognizing 41
contributions 41
sions 41
level 41
art 41
awaits 41
injury 41
respecting 41
sites 41
U.S 41
river 41
newspaper 41
liked 41
character 41
captive 41
end@@ 40
istic 40
driver 40
Ser@@ 40
Joy 40
contentment 40
Assyrian 40
beat 40
SUBJECT 40
yeartext 40
ure 40
Together 40
3,000 40
connected 40
Golden 40
stumbled 40
Rutherford 40
ethnic 40
hit 40
Rel@@ 40
go@@ 40
movies 40
skilled 40
fixed 40
typical 40
souled 40
imagination 40
mentally 40
preparation 40
idols 40
ining 40
owner 40
exhorted 40
forgives 40
valueless 40
200 40
ys 40
ens 40
southern 40
consult 40
International 40
dominant 40
online 40
disloyal 40
flow 40
ils 40
unmarried 40
vary 40
misled 40
ical 40
funeral 40
corrected 40
unknown 40
exc@@ 40
topic 40
buried 40
honestly 40
accomplishing 40
previous 40
voluntary 40
fought 40
plain 40
Silas 40
staying 40
translators 40
describing 40
naturally 40
numbers 40
convince 40
iling 40
oath 40
Actually 40
69 40
Little 40
Teacher 40
forbidden 40
arti@@ 40
av@@ 40
soldier 40
bur@@ 39
Haran 39
definitely 39
wh@@ 39
separated 39
branches 39
valued 39
actively 39
Back 39
larger 39
approachable 39
ashamed 39
planned 39
repented 39
necessities 39
imagined 39
foretell 39
ordinary 39
son’s 39
noteworthy 39
safely 39
f 39
Benjamin 39
researchers 39
ber 39
Put 39
ands 39
assembled 39
2007 39
answering 39
civil 39
sha@@ 39
sky 39
wholehearted 39
repair 39
heat 39
At@@ 39
ana 39
HE@@ 39
favored 39
suppose 39
sorry 39
exalted 39
surprising 39
ME@@ 39
uncleanness 39
chooses 39
Until 39
piece 39
State 39
Le@@ 39
programs 39
Samantha 39
Jeremiah’s 39
stable 39
materialism 39
records 39
84 39
station 39
lacked 39
Humility 39
leprosy 39
sentenced 39
attempted 39
weigh 39
punish 39
mold 39
bar@@ 39
ten@@ 39
ati@@ 39
skin 39
attempts 39
u 39
memorial 39
media 39
Men 39
behave 39
directing 39
Maria 39
thinks 39
relying 39
adversity 39
threw 39
roof 39
ned 39
nor@@ 38
symbolized 38
Num 38
pen@@ 38
bor@@ 38
Earlier 38
scattered 38
handled 38
GOD 38
Understandably 38
breaking 38
status 38
gross 38
pregnant 38
ased 38
tenderly 38
entirely 38
relevant 38
Chinese 38
so@@ 38
unbeliever 38
steal 38
games 38
Korah 38
Creation 38
fault 38
survival 38
R 38
protective 38
wanting 38
des@@ 38
excuse 38
educated 38
om 38
wife’s 38
Find 38
ran@@ 38
exclaimed 38
bu@@ 38
despair 38
ani@@ 38
ash 38
globe 38
sanctification 38
scenes 38
east 38
faults 38
grooming 38
posed 38
1918 38
Answers 38
scribes 38
guides 38
Department 38
philosophy 38
As@@ 38
vis@@ 38
Gu@@ 38
regain 38
Lu@@ 38
Five 38
size 38
Photo 38
guarantee 38
tened 38
63 38
Last 38
longtime 38
cu@@ 38
att@@ 38
heirs 38
East 38
tribulations 38
firsthand 38
uni@@ 38
ow@@ 38
messages 38
sin@@ 38
Wise 38
treacherous 38
neutral 38
cited 38
consistent 38
Volume 38
EN 38
Macedonia 38
hall 38
ARTICLES 37
cer@@ 37
temporarily 37
persevere 37
rob 37
demand 37
Baptizer 37
organizations 37
volunteer 37
els 37
concentration 37
India 37
Pri@@ 37
smoke 37
rebels 37
watched 37
Ab@@ 37
FOR 37
pleases 37
taxes 37
understandable 37
pu@@ 37
HO@@ 37
begged 37
starting 37
ily 37
Polish 37
acc@@ 37
BE@@ 37
Don’t 37
ced 37
towns 37
highest 37
stuck 37
ored 37
103 37
cease 37
doctors 37
independent 37
disturbed 37
owe 37
vo@@ 37
armor 37
female 37
ban@@ 37
intention 37
cked 37
touching 37
ies 37
perceived 37
check 37
ponder 37
governor 37
tics 37
unjust 37
managed 37
imprisonment 37
pair 37
Samaria 37
sources 37
cleanse 37
via 37
Ro@@ 37
deception 37
VI@@ 37
shi@@ 37
Seek 37
reminder 37
mail 37
shadow 37
responding 37
range 37
port 37
chariots 37
fer@@ 37
confidently 37
Meditating 37
drug 37
rescued 37
tically 37
manners 37
af@@ 37
can’t 37
deed 37
WE 37
realistic 37
transportation 37
tobacco 37
alike 37
lines 37
Applying 37
crown 37
Pennsylvania 37
thanksgiving 37
searched 37
wearing 37
endless 37
Teaching 37
excessive 37
function 37
pos@@ 37
addiction 37
Tra@@ 37
and@@ 37
depicted 37
Obviously 37
zes 37
hot 37
cap@@ 37
card 37
outward 37
mate’s 37
immortality 36
hellfire 36
That’s 36
ler 36
worst 36
minor 36
LE@@ 36
splendor 36
surviving 36
relied 36
tragedy 36
64 36
cross 36
golden 36
17@@ 36
Days 36
accommodations 36
standpoint 36
dy 36
CI@@ 36
Whenever 36
unfair 36
CH@@ 36
website 36
N 36
teenage 36
technology 36
tasks 36
unrighteousness 36
undermine 36
LA@@ 36
mother’s 36
bling 36
sticking 36
containing 36
vicious 36
misleading 36
fruits 36
favorite 36
ren@@ 36
permanently 36
undo 36
persuaded 36
thy 36
é@@ 36
Mon@@ 36
cies 36
adversities 36
Manasseh 36
thi@@ 36
Meanwhile 36
obediently 36
ta 36
metal 36
offices 36
Greece 36
Jo@@ 36
rent 36
anointing 36
disappointment 36
Along 36
delightful 36
unseen 36
the@@ 36
seemingly 36
belonged 36
End 36
homeland 36
teen 36
focuses 36
hur@@ 36
ances 36
duty 36
Court 36
sho@@ 36
Gaius 36
planted 36
Stop 36
penalty 36
attractive 36
ats 36
hear@@ 36
oned 36
ping 36
tracts 36
Humans 36
legs 36
gladly 36
C 36
.@@ 36
flour 36
financially 36
supplies 36
succeeded 36
falsely 36
ur 36
desperate 36
frustrated 36
marrying 36
heading 36
86 36
forgotten 36
evangelizers 36
1930 36
inviting 36
tomb 36
vows 36
ver 36
impress 35
ir 35
Bo@@ 35
ery 35
legally 35
cing 35
misery 35
star@@ 35
convincing 35
Canaanite 35
divorced 35
weep 35
Devil’s 35
creating 35
Seed 35
lic@@ 35
sadness 35
ress 35
SU@@ 35
plants 35
ker 35
ire 35
ards 35
adapt 35
refrain 35
Honor 35
ERS 35
forgave 35
shy 35
eng@@ 35
cultures 35
tiny 35
2004 35
onward 35
cultural 35
FI@@ 35
Keeping 35
starts 35
rate 35
Myanmar 35
discerning 35
pillar 35
forefathers 35
distorted 35
ene 35
rising 35
prefer 35
restoration 35
wood 35
dominated 35
20th 35
don@@ 35
tour 35
dressed 35
channel 35
devastating 35
Over@@ 35
spite 35
product 35
Ghana 35
Happiness 35
characters 35
Psalms 35
authorized 35
latter 35
burial 35
billion 35
paths 35
ef@@ 35
horses 35
follower 35
supports 35
storm 35
adjustment 35
vivid 35
commented 35
der@@ 35
Bath 35
reconciled 35
arrange 35
Jew 35
earthquakes 35
lifetime 35
Elijah’s 35
fun 35
tents 35
Alex 35
evangelizer 35
ung 35
Persian 35
oneness 35
tool 35
onto 35
loneliness 35
Sabbath 35
star 35
og@@ 35
university 35
collect 35
Centuries 35
bondage 35
st 35
participating 35
convenient 35
sto@@ 35
scientific 34
● 34
distressed 34
res 34
Na@@ 34
weapon 34
troubles 34
Suffering 34
commend 34
orderly 34
rage 34
enslaved 34
ght 34
os 34
colporteurs 34
rooms 34
cr@@ 34
torment 34
mostly 34
pick 34
Habakkuk 34
spared 34
1995 34
neglect 34
central 34
Jerusalem’s 34
alize 34
Th@@ 34
resisting 34
Gentile 34
arm 34
sentiments 34
Maker 34
Near 34
betrayed 34
prompted 34
violate 34
Interestingly 34
attached 34
Care 34
Moscow 34
discerned 34
objects 34
dramatic 34
arises 34
Antioch 34
atory 34
summer 34
advancing 34
earthquake 34
lin@@ 34
reliance 34
da@@ 34
catch 34
TH 34
Old 34
performing 34
Man@@ 34
lamb 34
supportive 34
meals 34
romantic 34
south 34
guiding 34
ency 34
seeds 34
History 34
Mo@@ 34
ve@@ 34
sworn 34
perish 34
footnote 34
Har@@ 34
severely 34
ounded 34
actual 34
joint 34
OR@@ 34
sudden 34
religiously 34
ei@@ 34
Very 34
Ap@@ 34
tal 34
ctive 34
leadership 34
teenagers 34
selling 34
75 34
joys 34
aries 34
Richard 34
ual 34
improved 34
commonly 34
deceased 34
intervene 34
133 34
gatherings 34
sacrificed 34
provoked 33
Wor@@ 33
double 33
ser@@ 33
introduction 33
Ted 33
hal@@ 33
chariot 33
Immediately 33
Blessed 33
defense 33
wrongdoer 33
outlined 33
Must 33
Yourself 33
sixth 33
almighty 33
150 33
607 33
ading 33
57 33
TION 33
abusive 33
approaches 33
revised 33
sexually 33
caution 33
Canaanites 33
Elizabeth 33
streets 33
sharp 33
refresh 33
wasn’t 33
evaluate 33
2000 33
linked 33
ny 33
ann@@ 33
wn 33
driving 33
Ob@@ 33
Co@@ 33
absolute 33
hing 33
Jephthah’s 33
honoring 33
tur@@ 33
outright 33
Sisera 33
demanding 33
helpless 33
Esther 33
fierce 33
afford 33
section 33
skill 33
oun@@ 33
wishes 33
dec@@ 33
deny 33
Anthony 33
Millennial 33
shape 33
Writing 33
astrologers 33
harder 33
magnificent 33
Apparently 33
fruitful 33
ff 33
individually 33
eness 33
enjoys 33
conclusions 33
sounds 33
19th 33
ured 33
ample 33
Rehoboam 33
examines 33
plays 33
weeping 33
tire 33
low@@ 33
grandmother 33
2006 33
figuratively 33
Georgian 33
oning 33
Divine 33
king’s 33
subtle 33
gambling 33
dated 33
all@@ 33
hor@@ 33
F 33
Professor 33
exquisite 33
tel@@ 33
worried 33
G 33
71 33
sown 33
guards 33
remembrance 33
nationality 33
reasonableness 33
shortages 33
window 33
Against 32
ak 32
demonstrates 32
Lev 32
crush 32
Full 32
renewed 32
Working 32
fare 32
Place 32
truthful 32
employer 32
Sh@@ 32
neighborhood 32
uttered 32
examined 32
bles 32
correctly 32
bright 32
broad 32
permitted 32
perceptive 32
Cyrus 32
rebuild 32
scarlet 32
104 32
Set 32
greaters 32
acquired 32
pictured 32
cling 32
pan@@ 32
hardship 32
failing 32
Relate 32
lonely 32
pri@@ 32
approve 32
figure 32
reassured 32
far@@ 32
tional 32
ints 32
onal 32
couldn’t 32
rest@@ 32
Meeting 32
US 32
CON@@ 32
lady 32
immense 32
mislead 32
0@@ 32
tors 32
racial 32
Anyone 32
CAN 32
Nebuchadnezzar 32
displays 32
feast 32
tenderness 32
greedy 32
ME 32
motivation 32
greet 32
ce@@ 32
listens 32
Babylonians 32
injustices 32
secondary 32
whoever 32
handling 32
progressively 32
heritage 32
la 32
unite 32
Mor@@ 32
esses 32
mu@@ 32
symbol 32
sti@@ 32
positively 32
diagnosed 32
spring 32
Ten 32
eli@@ 32
blow 32
rose 32
dro@@ 32
hardworking 32
JOHN 32
assisting 32
Jesse 32
chores 32
frequent 32
Portuguese 32
parallel 32
conform 32
Asa’s 32
molded 32
participation 32
recommend 32
successor 32
PRO@@ 32
fted 32
promising 32
tending 32
K 32
multitude 32
ARTICLE 32
Let’s 32
festivals 32
grandparents 32
camps 32
bank 32
affects 32
dishonest 32
comm@@ 32
Syriac 32
ctor 32
99 32
super@@ 32
aying 32
Neh 31
est@@ 31
washing 31
Kindness 31
ranks 31
nights 31
unlike 31
aming 31
las@@ 31
ultimately 31
overjoyed 31
uncircumcised 31
soundness 31
AS 31
HA@@ 31
cha@@ 31
Caleb 31
divisions 31
Showing 31
WA@@ 31
bitterness 31
representative 31
periods 31
ʹ@@ 31
regrets 31
electronic 31
shut 31
guidelines 31
falls 31
complaint 31
conquering 31
existing 31
mast@@ 31
afternoon 31
Nicodemus 31
TV 31
proc@@ 31
leper 31
accordingly 31
coping 31
reacted 31
ture 31
advantages 31
entrance 31
flood 31
keepers 31
Ty@@ 31
desiring 31
inferior 31
normally 31
sheeplike 31
Into 31
Modern 31
striking 31
classmates 31
Russian 31
GOD’S 31
mutual 31
cat@@ 31
vengeance 31
grandfather 31
distinct 31
organize 31
voices 31
700 31
psalms 31
CH 31
threats 31
satanic 31
112 31
Elihu 31
gg@@ 31
presents 31
95 31
counseled 31
Assyria 31
tru@@ 31
warmth 31
pr@@ 31
AS@@ 31
householders 31
base 31
Toward 31
attacked 31
concept 31
ach 31
rapidly 31
Cam@@ 31
manage 31
men@@ 31
dly 31
cleaning 31
supposed 31
treating 31
Index 31
rejoiced 31
Ethiopian 31
cam@@ 31
delivering 31
contemporaries 31
simplify 31
wages 31
merit 31
tures 31
frustration 31
deadly 31
flight 31
seriousness 31
native 31
1955 30
Members 30
space 30
tempting 30
cooperating 30
differently 30
Marcus 30
ali@@ 30
ined 30
bed@@ 30
COUNTRY 30
ORIGIN 30
market 30
Colossae 30
roles 30
aling 30
chronic 30
spices 30
cy@@ 30
Philistine 30
89 30
staff 30
Josephus 30
mixed 30
Worldwide 30
cards 30
SE 30
LUKE 30
unprecedented 30
imp@@ 30
platform 30
armed 30
None 30
enc@@ 30
malicious 30
Messiah’s 30
convictions 30
Supreme 30
proselytes 30
imitators 30
solely 30
fleeing 30
gates 30
rightful 30
jah 30
Malawi 30
incense 30
furn@@ 30
secretary 30
Prophecy 30
hid 30
span 30
reduced 30
xing 30
1999 30
signed 30
inexperienced 30
char@@ 30
ore 30
remembers 30
wing 30
rejecting 30
income 30
pains 30
Long 30
Something 30
ousness 30
wake 30
EX@@ 30
height 30
Answer 30
10@@ 30
extending 30
legitimate 30
defeat 30
Angels 30
condemn 30
cherished 30
ori@@ 30
delegates 30
prosperous 30
surroundings 30
learner 30
titles 30
contribution 30
Encyclopedia 30
cured 30
movement 30
journal 30
comprehend 30
fun@@ 30
commitment 30
confusion 30
adhere 30
winds 30
val 30
ories 30
orders 30
prey 30
Comfort 30
RO@@ 30
praised 30
expose 30
cheerful 30
materialistic 30
cell 30
floor 30
discourage 30
Timothy’s 30
embraced 30
shar@@ 30
ound 30
British 30
descendant 30
considerate 30
pes 30
numbered 30
longed 30
Pre@@ 30
promoting 30
scope 30
AT@@ 30
Always 30
YEAR 30
races 30
pace 30
hometown 30
nar@@ 30
hostile 30
impaled 30
sanctify 30
insisted 30
Jezebel 30
diseases 30
climate 30
promptly 30
destructive 30
tes 30
incomparable 30
Offered 29
author 29
pin@@ 29
alienated 29
fortified 29
motivates 29
expelled 29
Potter 29
Eastern 29
spar@@ 29
calf 29
instances 29
RA@@ 29
disobey 29
1990 29
Language 29
below 29
fication 29
em 29
fts 29
prime 29
Ne@@ 29
1940 29
mic 29
Ananias 29
JEHOVAH’S 29
goods 29
reluctant 29
mirror 29
hurled 29
accompanying 29
twelve 29
loaded 29
Sy@@ 29
Song 29
border 29
damaged 29
liar 29
secretly 29
Need 29
awaken 29
declares 29
acknowledges 29
mid@@ 29
crisis 29
roots 29
strict 29
permits 29
version 29
endeavoring 29
wounds 29
mes 29
Ever 29
encountered 29
reduce 29
goddess 29
justified 29
leisure 29
SA@@ 29
dreams 29
oldest 29
prophesy 29
sen@@ 29
intently 29
eless 29
Caesar 29
sustained 29
scor@@ 29
graduated 29
birthday 29
Example 29
rider 29
accountable 29
till 29
oneself 29
False 29
materials 29
elevated 29
intimacy 29
fond 29
cutting 29
breaks 29
heavily 29
comparing 29
simplified 29
greetings 29
arrest 29
silence 29
2015 29
resurrections 29
intensely 29
recovery 29
Is@@ 29
house@@ 29
sow 29
bly 29
pose 29
resident 29
design 29
breath 29
experts 29
killing 29
Nazi 29
largest 29
Author 29
generations 29
ams 29
endures 29
obje@@ 29
post 29
12@@ 29
mob 29
Savior 29
fellowship 29
War@@ 29
cho@@ 29
separation 29
testing 29
rented 28
amed 28
versions 28
terrified 28
despised 28
impartial 28
ads 28
appealed 28
anywhere 28
distribute 28
Ohio 28
Baptism 28
Gabriel 28
document 28
excuses 28
structure 28
emi@@ 28
appreciatively 28
apocryphal 28
equip 28
cas@@ 28
households 28
increases 28
punished 28
Moab 28
MI@@ 28
medi@@ 28
vulnerable 28
ays 28
derive 28
partners 28
Fear 28
aloud 28
Bezalel 28
demands 28
ABOUT 28
ory 28
divide 28
Josh 28
145 28
irrit@@ 28
collected 28
shock 28
upheld 28
bal@@ 28
Luke’s 28
conveyed 28
identifying 28
stewards 28
displeasing 28
proverb 28
collection 28
pping 28
Sanhedrin 28
itation 28
waste 28
Austria 28
advised 28
Inter@@ 28
lodging 28
benefiting 28
honors 28
grounds 28
employed 28
Ur 28
curse 28
petition 28
fearful 28
prisoner 28
wash 28
Ch@@ 28
carries 28
Convention 28
seize 28
Syria 28
prof@@ 28
Dec@@ 28
LIFE 28
Ber@@ 28
UN@@ 28
ignorance 28
PO@@ 28
Simply 28
ic 28
mil@@ 28
commits 28
OK 28
forsake 28
synagogues 28
Wisdom 28
BORN 28
Thank 28
buildings 28
Bill 28
dependent 28
on’s 28
ili@@ 28
emperor 28
excitement 28
lied 28
eyewitnesses 28
neighboring 28
400 28
bold 28
Gre@@ 28
justify 28
celebrate 28
disputes 28
mainly 28
misuse 28
59 28
Mis@@ 28
Asaph 28
Future 28
pur@@ 28
Wi@@ 28
massive 28
pressured 28
tal@@ 28
Septuagint 28
spies 28
vessels 28
SOME 28
vessel 28
stic 28
fate 28
dictionary 28
gar@@ 28
camels 28
Guard 28
apparent 28
ty@@ 28
Courage 28
vacation 28
parties 28
58 28
infancy 27
charged 27
spirit’s 27
consume 27
host 27
2003 27
damaging 27
operate 27
intent 27
bitterly 27
Martin 27
professor 27
reassure 27
dre@@ 27
enmity 27
bef@@ 27
distinction 27
recordings 27
wer 27
politics 27
thirst 27
Live 27
97 27
our@@ 27
pointing 27
cles 27
locally 27
2005 27
stressed 27
Organization 27
flocks 27
oppressive 27
MA@@ 27
awareness 27
reflection 27
arguments 27
dispute 27
unkind 27
fairly 27
DO 27
basically 27
print 27
eds 27
ish@@ 27
domestic 27
committing 27
Gradually 27
systems 27
Appreciate 27
vine 27
booklet 27
TE@@ 27
AGE 27
uncertain 27
dearly 27
cs 27
stream 27
suit 27
ology 27
drove 27
Few 27
flourish 27
observance 27
stor@@ 27
Otherwise 27
Nearly 27
fascinating 27
Rejoice 27
pleaded 27
regretted 27
fies 27
CO@@ 27
ancestors 27
Might 27
Training 27
lofty 27
style 27
concentrate 27
target 27
muster 27
corulers 27
QUESTIONS 27
pic@@ 27
doesn’t 27
10,000 27
grand@@ 27
transform 27
exerts 27
6,000 27
insignificant 27
2,@@ 27
fu@@ 27
sanctuary 27
slaughter 27
filling 27
Praise 27
wed 27
rush 27
ct@@ 27
Bad 27
reconciliation 27
SI@@ 27
Ukraine 27
Suddenly 27
Syrian 27
omy 27
route 27
expenses 27
fatherly 27
affliction 27
ell 27
Someone 27
NE@@ 27
briefly 27
Sinai 27
tempt 27
sustenance 27
Jeroboam 27
rare 27
Naboth 27
horns 27
Cho@@ 27
cy 27
disciplined 27
Lives 27
equipment 27
woman’s 27
Tract 27
intellectual 27
mile 27
Babel 27
Valley 27
twisted 27
options 27
Vis@@ 27
ctively 27
Jairo 27
Library 27
ARE 27
ministering 27
gems 27
ke@@ 27
newborn 27
Irish 27
essing 27
J 27
undergo 27
stealing 27
trips 27
dri@@ 27
fin@@ 27
Benefit 27
demonstration 27
incite 27
akes 27
dist@@ 27
1949 27
chan@@ 27
68 27
foreigner 27
certainty 27
forming 27
Coun@@ 27
subjected 27
Gift 27
wording 27
daunting 27
zone 27
tactfully 27
back@@ 26
fil@@ 26
110 26
seeks 26
skillfully 26
estimated 26
quietly 26
doubtless 26
ple@@ 26
PET 26
weather 26
Republic 26
film 26
Hagar 26
devour 26
Self 26
Aaron’s 26
app@@ 26
undue 26
GI@@ 26
disown 26
packed 26
ological 26
Numbers 26
el’s 26
priestly 26
possessed 26
FROM 26
Thankfully 26
drama 26
criticism 26
heartache 26
burn 26
xes 26
movie 26
injured 26
humbled 26
astray 26
desert 26
troops 26
Judgment 26
industry 26
calmly 26
eding 26
Husbands 26
Ru@@ 26
Potiphar’s 26
assisted 26
theory 26
pursued 26
wings 26
ot@@ 26
debts 26
solemn 26
ie 26
flying 26
denied 26
Apollos 26
Ezra 26
grieve 26
Turkey 26
demanded 26
lower 26
blameless 26
conscientious 26
dr@@ 26
,000,000 26
endeavored 26
instill 26
Japanese 26
closest 26
requested 26
fir@@ 26
Afterward 26
abyss 26
desperately 26
receptive 26
virtue 26
bear@@ 26
th’s 26
Gehazi 26
indigenous 26
reaches 26
cou@@ 26
equ@@ 26
Levite 26
villages 26
bonds 26
FE@@ 26
farmer 26
yearn 26
overcoming 26
code 26
transgressions 26
sometime 26
98 26
Reflect 26
entrenched 26
defeated 26
progressive 26
Gra@@ 26
emphasizes 26
cultivated 26
mobile 26
regards 26
disfellowshipping 26
fold 26
Aquila 26
MAR@@ 26
motion 26
Sup@@ 26
upbringing 26
oni@@ 26
1958 26
waves 26
vindication 26
Eli@@ 26
Speak 26
thieves 26
criminals 26
tical 26
corrupted 26
Anglo 26
Magog 26
Mil@@ 26
milk 26
ref@@ 26
protecting 26
gged 26
crucial 26
wept 26
im 26
130 26
shocked 26
oppressed 26
California 26
Certain 25
purity 25
Emperor 25
She@@ 25
ISA 25
Ste@@ 25
Christendom’s 25
fair 25
deserved 25
bicycle 25
prehuman 25
meat 25
borne 25
1956 25
um 25
Chief 25
accepts 25
implied 25
Hans 25
unworthy 25
Middle 25
seat 25
controlled 25
Ecuador 25
crying 25
advances 25
accuracy 25
len@@ 25
sooner 25
heeding 25
eaten 25
ak@@ 25
iah 25
comply 25
1931 25
Mark’s 25
approves 25
trapped 25
Share 25
Levi 25
confront 25
Amos 25
expecting 25
automatically 25
Mat@@ 25
rooted 25
refusing 25
MO@@ 25
pe 25
elled 25
enraged 25
Em@@ 25
cupbearer 25
kly 25
remarks 25
fame 25
with@@ 25
proclamation 25
useless 25
HEB 25
distract 25
match 25
talent 25
concludes 25
ENT 25
purchase 25
molding 25
transformation 25
Setting 25
occult 25
’ll 25
keys 25
ft 25
ose 25
mp@@ 25
educational 25
excited 25
ladder 25
1953 25
adding 25
inst@@ 25
Megiddo 25
thers 25
momentous 25
ational 25
tense 25
boundaries 25
disposal 25
1922 25
Story 25
gs 25
Italian 25
ries 25
ther@@ 25
lam@@ 25
descended 25
absence 25
ners 25
Eli 25
asser@@ 25
Je@@ 25
enced 25
largely 25
patriarchs 25
den 25
2002 25
cen@@ 25
impressive 25
praises 25
mustard 25
eighth 25
extends 25
Don 25
owned 25
commemorate 25
walks 25
lists 25
communities 25
Ter@@ 25
Samson 25
cleanness 25
V 25
ising 25
lowing 25
presenting 25
Changes 25
translate 25
placing 25
Personal 25
Fine 25
wrongdoers 25
sealing 25
© 25
SO@@ 25
club 25
affections 25
Salvation 25
spot 25
festival 25
throwing 25
116 25
Sheol 25
resting 25
600 25
WHY 25
decree 25
sealed 25
destroying 25
door@@ 25
shift 25
honorable 25
Assyrians 25
materialized 25
Col@@ 25
dating 25
African 25
passion 25
introduce 25
Far 25
Real 25
ements 25
reli@@ 25
decreed 25
esti@@ 25
Minor 25
relieved 25
seldom 25
ina 25
Antonio 25
91 25
weakened 25
139 25
banned 25
parental 25
yoked 25
hab@@ 25
radi@@ 25
trespasses 25
besides 25
pays 25
instructors 24
Ephraim 24
apathy 24
err@@ 24
maintenance 24
alized 24
consistently 24
differs 24
Fellow 24
reverence 24
shocking 24
upholding 24
binding 24
Sarah’s 24
Given 24
reasonably 24
colored 24
irs 24
que 24
Jah 24
Bear 24
La@@ 24
fuel 24
Pe@@ 24
Hel@@ 24
Out@@ 24
realization 24
PI@@ 24
grandson 24
DI@@ 24
ele@@ 24
burst 24
noble 24
Hosea 24
repeat 24
obstacle 24
codex 24
livestock 24
ender 24
unthinkable 24
dominate 24
composite 24
Loyal 24
ice 24
climax 24
modestly 24
compass 24
Matthew’s 24
youthful 24
suffers 24
Modesty 24
fer 24
Paulo 24
fills 24
Lefèvre 24
blo@@ 24
anoint 24
blasphe@@ 24
planets 24
5,@@ 24
establishment 24
ane 24
claiming 24
tful 24
ig@@ 24
uous 24
ung@@ 24
march 24
ets 24
relieve 24
cking 24
oversee 24
threatening 24
cave 24
link 24
vel@@ 24
unnoticed 24
Respect 24
isolation 24
2001 24
volume 24
parted 24
crossed 24
Steve 24
rains 24
burnt 24
esteem 24
resumed 24
Gomorrah 24
Four 24
nobody 24
gies 24
tioned 24
tain 24
lessness 24
behold 24
mortal 24
Sennacherib 24
governmental 24
Nineveh 24
TS 24
consolation 24
matic 24
Boaz 24
Switzerland 24
beg 24
attentive 24
questioning 24
cautious 24
MBER 24
swept 24
giant 24
burdensome 24
realizing 24
products 24
footsteps 24
strife 24
tre@@ 24
Hon@@ 24
spoil 24
estimate 24
signal 24
Respon@@ 24
dering 24
clothe 24
hu@@ 24
imply 24
corner 24
push 24
lit@@ 24
calamities 24
renounce 24
contemplating 24
Zephaniah 24
Mer@@ 24
PE@@ 24
shop 24
obviously 24
truck 24
survivors 24
expansion 24
closed 24
sobering 24
comple@@ 24
pre 24
Initially 24
curious 24
Abigail 24
Getting 24
ested 24
revision 24
1513 24
torn 24
Best 24
impartiality 24
Phinehas 24
Referring 24
unduly 24
measured 24
Pontius 24
representing 24
Unless 24
resort 24
Finding 24
constructed 24
raises 24
islands 24
masters 24
grass 24
conver@@ 24
B 24
potentially 24
stri@@ 24
lightly 24
1970 24
issued 24
I’ll 24
o’clock 24
distresses 24
complained 23
Judaism 23
Blurb 23
entity 23
celebrations 23
disregard 23
announcement 23
counsels 23
fla@@ 23
d’s 23
any@@ 23
Zechariah’s 23
medicine 23
threaten 23
responses 23
classes 23
Bulgaria 23
messenger 23
removing 23
regions 23
manager 23
Understanding 23
Willingly 23
mining 23
WAS 23
contend 23
immune 23
unreasonable 23
lets 23
ultimate 23
terror 23
ath 23
worries 23
hung 23
tar@@ 23
greeted 23
dread 23
shrewd 23
holiness 23
peacemakers 23
ility 23
disappointments 23
translating 23
Isabel 23
OUR 23
tolerate 23
combat 23
Shirley 23
Standard 23
QUESTION 23
Emlyn 23
grip 23
sunset 23
block 23
ST 23
preferences 23
distribution 23
Paris 23
foretells 23
abound 23
exerted 23
acquiring 23
revelation 23
subsequent 23
suggestion 23
intervened 23
school@@ 23
reminding 23
deserving 23
Madagascar 23
aven@@ 23
addressing 23
TER 23
accusations 23
Scripturally 23
1943 23
ere 23
Tuvaluan 23
stability 23
reproof 23
divinely 23
seasons 23
males 23
traps 23
ess@@ 23
harmonize 23
organizational 23
interpreted 23
arly 23
separating 23
clearer 23
personalities 23
veness 23
Tell 23
Mal 23
Prayers 23
paralyzed 23
disrupt 23
ra 23
ist@@ 23
Priscilla 23
THAT 23
Allow 23
persecute 23
dic@@ 23
shelter 23
Preaching 23
qui@@ 23
gging 23
fortune 23
vers@@ 23
Daily 23
harbor 23
escaped 23
gray 23
fearlessly 23
tion@@ 23
Thinking 23
1952 23
aned 23
attributes 23
impe@@ 23
tus 23
94 23
hun@@ 23
prompt 23
House 23
confined 23
anguish 23
lessly 23
Return 23
widen 23
ades 23
embarrassed 23
tactics 23
$ 23
frank 23
Megan 23
flowers 23
instituted 23
Poland 23
Several 23
pit@@ 23
92 23
plagued 23
newspapers 23
roaring 23
bishop 23
disobeyed 23
betrayal 23
maybe 23
tens 23
criticize 23
congregation’s 23
treats 23
dle 23
define 23
Insight 23
lame 23
symbolize 23
clouds 23
5,000 23
desol@@ 23
Ana 23
format 23
auto@@ 23
125 23
106 23
lasted 23
mentioning 23
grants 23
7,000 23
execu@@ 23
Justice 23
goat 23
stimulate 23
ay 23
unbaptized 23
cro@@ 23
impelled 23
West 22
Hear@@ 22
explanations 22
Gehenna 22
transgression 22
tling 22
pul@@ 22
imitated 22
lamp 22
bat@@ 22
enrich 22
reader 22
Neighbor 22
mistaken 22
argue 22
aci@@ 22
touches 22
riding 22
merchants 22
trade 22
Down 22
harlot 22
ong@@ 22
Loyalty 22
fervently 22
circumcision 22
treasured 22
attachment 22
neglected 22
confessed 22
inappropriate 22
Sin 22
accomplishment 22
schooling 22
ruining 22
Prepar@@ 22
800 22
settling 22
exceptional 22
passengers 22
Of@@ 22
ka@@ 22
characterized 22
Du@@ 22
featured 22
unhappy 22
mer 22
hes 22
North 22
pap@@ 22
ics 22
expert 22
hypocrites 22
ly@@ 22
ruined 22
complement 22
mus@@ 22
stro@@ 22
slowly 22
Choose 22
lovely 22
pregnancy 22
heart@@ 22
Juli@@ 22
agrees 22
annihil@@ 22
Samaritans 22
skillful 22
lawless 22
anniversary 22
govern 22
1941 22
Role 22
overlooked 22
nice 22
tac@@ 22
accomplishments 22
yed 22
traditional 22
tower 22
keeper 22
Seeking 22
unthankful 22
mistreated 22
Soviet 22
ko 22
ne 22
IT@@ 22
ah@@ 22
Integrity 22
thrive 22
covetousness 22
embryos 22
cars 22
correc@@ 22
Hezekiah’s 22
101 22
Mas@@ 22
diction 22
altogether 22
Gary 22
Wicked 22
contributing 22
exhausted 22
Tal@@ 22
meditated 22
contents 22
band 22
verb 22
shortcomings 22
oring 22
lord 22
courts 22
Amalekites 22
Leads 22
prevalent 22
1948 22
rying 22
captured 22
submitted 22
AD 22
FAITH 22
kin@@ 22
palace 22
1980 22
VE 22
WHO 22
zation 22
fewer 22
compelled 22
Train 22
owing 22
loaves 22
victorious 22
han 22
restoring 22
hiding 22
pped 22
ade 22
cont@@ 22
wrongs 22
thief 22
quar@@ 22
infant 22
900 22
tomorrow 22
recommends 22
aking 22
hotel 22
ideal 22
deb@@ 22
confess 22
listener 22
virtually 22
ib@@ 22
Jim 22
pal@@ 22
ums 22
immigrants 22
Friends 22
memorable 22
flag 22
strategy 22
chron@@ 22
sla@@ 22
explo@@ 22
occupied 22
grasping 22
Bar@@ 22
insist 22
scenario 22
135 22
hed 22
locations 22
snow 22
presumptuous 22
tactful 22
ile 22
iring 22
preservation 22
unlikely 22
empower 22
111 22
tle 22
game 22
supplied 22
Rose 22
celebrated 22
seal 22
labor@@ 22
pain@@ 22
1960 22
José 22
improving 22
frame 22
queen 22
auth@@ 22
assault 21
sided 21
legacy 21
adequate 21
preserving 21
dogs 21
Zedekiah 21
Strong 21
stupid 21
occup@@ 21
Ways 21
undertone 21
grudge 21
mercies 21
100,000 21
worrying 21
pit 21
improvement 21
Grave 21
seats 21
accusation 21
expanded 21
establishing 21
disrespect 21
bag 21
essed 21
Precious 21
Mus@@ 21
hostility 21
ANSWER 21
The@@ 21
Tony 21
persistent 21
progressing 21
AC@@ 21
publish 21
deciding 21
shel@@ 21
amid 21
latest 21
FA@@ 21
imple@@ 21
tery 21
stirred 21
Amen 21
GE@@ 21
KE 21
gener@@ 21
Building 21
Recei@@ 21
Sure 21
Throw 21
Studying 21
anc@@ 21
tations 21
Prove 21
foods 21
indefinitely 21
Health 21
tone 21
diminish 21
workmates 21
amounts 21
observers 21
functions 21
persist 21
surgery 21
rious 21
knocked 21
prepares 21
ach@@ 21
ki@@ 21
mur@@ 21
teeth 21
hospit@@ 21
manuscript 21
surpasses 21
dad 21
dynamic 21
Benin 21
Build 21
kle 21
runs 21
watchfulness 21
wound 21
enabling 21
Creator’s 21
appointments 21
ences 21
effectiveness 21
AD@@ 21
puffed 21
costly 21
aggressive 21
Do@@ 21
Child 21
liter@@ 21
evenings 21
organs 21
assign 21
idol 21
aches 21
emergency 21
PER@@ 21
plainly 21
cooking 21
unexpectedly 21
map 21
institutions 21
enslavement 21
fishing 21
TO@@ 21
Jenny 21
payment 21
Mankind 21
ena 21
ea 21
sensed 21
shout 21
unwilling 21
battles 21
steady 21
Ear@@ 21
detect 21
som@@ 21
undergoing 21
equivalent 21
depended 21
humanity 21
appetite 21
advoc@@ 21
casual 21
plagues 21
Verse 21
antichrist 21
communicating 21
Min@@ 21
roll 21
tragedies 21
tenth 21
Rul@@ 21
omed 21
speed 21
mystery 21
cti@@ 21
Ver@@ 21
physician 21
ambition 21
X@@ 21
colleagues 21
Meditate 21
captives 21
Important 21
failings 21
messengers 21
Greeks 21
prays 21
fugitive 21
questionable 21
Su@@ 21
Gr@@ 21
nursing 21
struggles 21
Preach 21
fashioned 21
atten@@ 21
adi@@ 21
rebuilt 21
day’s 21
ap 21
tun@@ 21
blue 21
16th 21
ature 21
enormous 21
ision 21
division 21
multi@@ 21
shaken 21
Es@@ 21
pt 21
shameful 21
submitting 21
guarding 21
pronounced 21
sely 21
fits 21
lions 21
unitedly 21
rebuilding 21
disc@@ 21
innermost 21
wished 21
thanked 21
Henry 21
bel@@ 21
quoting 21
kne@@ 21
ball 21
aded 21
attract 21
trumpet 21
deepens 21
stepped 21
obliged 21
acknowledging 21
Ful@@ 21
vers 21
watches 21
Persia 21
backs 21
Paragraph 21
ick 21
19@@ 21
spare 21
invaluable 21
ust 21
murdered 21
smaller 20
figs 20
Women 20
Oh 20
relating 20
uncontrolled 20
nas@@ 20
endearing 20
dishes 20
Thousands 20
jar 20
communicated 20
tness 20
contract 20
succumb 20
guarantees 20
laying 20
Admittedly 20
depart 20
ONE 20
adjusting 20
Pla@@ 20
ishes 20
edly 20
rivers 20
Simeon 20
dispen@@ 20
marks 20
defenses 20
tted 20
Anne 20
Better 20
regulations 20
plea 20
Cor@@ 20
consumed 20
joining 20
aring 20
Sub@@ 20
enthroned 20
unnamed 20
Bel@@ 20
realities 20
Ac@@ 20
stronghold 20
1974 20
hills 20
downhearted 20
she@@ 20
track 20
adoption 20
portrayed 20
Age 20
advis@@ 20
apped 20
unt 20
frustrating 20
rival 20
foot@@ 20
investig@@ 20
wonders 20
atheist 20
disabled 20
mas 20
Evidence 20
pillars 20
Cre@@ 20
strip 20
DS 20
refined 20
ired 20
shares 20
measuring 20
decade 20
budget 20
pastor 20
hence 20
suicide 20
responds 20
babies 20
olo@@ 20
blinded 20
guess 20
kets 20
comfor@@ 20
regained 20
mag@@ 20
ught 20
adminis@@ 20
Six 20
regul@@ 20
evalu@@ 20
intend 20
gen@@ 20
obtaining 20
cycle 20
tible 20
gre@@ 20
who@@ 20
restricted 20
coast 20
uding 20
Everlasting 20
an’s 20
96 20
inscription 20
saddened 20
conveys 20
Nero 20
bridegroom 20
offend 20
straw 20
Ke@@ 20
Allen 20
Pa@@ 20
my@@ 20
flu@@ 20
reinforce 20
Part 20
dire 20
travelers 20
preparations 20
circumstance 20
Sister 20
Strive 20
dozens 20
Korea 20
urt 20
infected 20
coins 20
tied 20
ama@@ 20
aff@@ 20
Strengthen 20
ater 20
Eve’s 20
deliberate 20
distraction 20
withdrew 20
picked 20
learns 20
domin@@ 20
unpleasant 20
detestable 20
speakers 20
Dictionary 20
MANY 20
befall 20
forgot 20
machine 20
figures 20
tends 20
Publications 20
coin 20
utter 20
shrine 20
loc@@ 20
outer 20
province 20
Nabal 20
Zarephath 20
bone 20
testify 20
Linda 20
ass 20
accoun@@ 20
transmitted 20
77 20
leng@@ 20
closeness 20
dness 20
compares 20
WOR@@ 20
Genuine 20
perseverance 20
Acc@@ 20
cord 20
fulness 20
morality 20
BY 20
specul@@ 20
nic@@ 20
links 20
restraint 20
Bal@@ 20
condemnation 20
Franz 20
Britannica 20
decent 20
Or@@ 20
circumcised 20
notable 20
ord 20
unborn 20
harshly 20
rescu@@ 20
Evil 20
partiality 20
Can@@ 20
esteemed 20
horsemen 20
Warwick 20
Ra@@ 20
85 20
eas@@ 20
western 20
gang 20
reas@@ 20
defined 20
ba@@ 20
employees 20
roving 20
healthful 20
unjustly 20
Ezekiel’s 20
intact 20
alcoholic 20
ough 20
1947 20
ph 20
tombs 20
50,000 20
saints 20
vity 20
1.@@ 20
bus@@ 20
aglow 20
ff@@ 20
therapy 20
Pacific 20
AT 20
Fo@@ 20
ling@@ 20
Mesopotamia 20
interchange 20
ROM 20
originate 20
tless 20
showy 20
presently 20
asses 20
involvement 19
wondering 19
purchased 19
ailing 19
Judean 19
ian 19
classi@@ 19
insis@@ 19
merits 19
glimpse 19
Ri@@ 19
viol@@ 19
fic@@ 19
seized 19
overnight 19
Guided 19
instantly 19
enriched 19
wheelchair 19
narrow 19
mani@@ 19
Bridegroom 19
popul@@ 19
multiply 19
usion 19
Than 19
Cultivate 19
wards 19
analy@@ 19
PSALM 19
production 19
Alice 19
Zion’s 19
ignorant 19
JW 19
eable 19
grievous 19
winter 19
Starting 19
ode 19
courses 19
quest 19
flas@@ 19
dwel@@ 19
Elisha’s 19
shoulders 19
computers 19
ath@@ 19
unfaithfulness 19
remar@@ 19
ARY 19
charges 19
pet 19
ri 19
barely 19
excessively 19
Ta@@ 19
decisively 19
fly 19
Public 19
heated 19
withstand 19
blocks 19
ring@@ 19
glo@@ 19
grieved 19
commenting 19
prophetically 19
4,000 19
pounds 19
exhorts 19
Bedell 19
ben@@ 19
definite 19
reunited 19
fri@@ 19
Fe@@ 19
ase 19
Bri@@ 19
Si@@ 19
uniting 19
delights 19
exiled 19
’S 19
consciences 19
disobeying 19
Iscariot 19
exception 19
mediator 19
slept 19
recognizes 19
78 19
Joanna 19
1961 19
Archives 19
movements 19
1997 19
currently 19
mers 19
So@@ 19
rarely 19
princes 19
retain 19
Apost@@ 19
uded 19
loose 19
Remain 19
prostitute 19
Mario 19
Jaracz 19
swords 19
PAST 19
utterance 19
boring 19
addresses 19
fos@@ 19
imit@@ 19
strikes 19
lowliness 19
1946 19
demonstrating 19
supp@@ 19
Western 19
Lam@@ 19
presentations 19
sively 19
Blessing 19
sinning 19
Money 19
extension 19
reser@@ 19
overcame 19
designated 19
LE 19
poses 19
Judg 19
deleg@@ 19
IMAGINE 19
emotion 19
Themselves 19
mines 19
evangelizing 19
obligations 19
minute 19
founding 19
costs 19
expanding 19
Words 19
bre@@ 19
und@@ 19
usual 19
underlying 19
ot 19
ong 19
regarded 19
policy 19
Stand 19
vigorous 19
curiosity 19
cries 19
You@@ 19
celebration 19
care@@ 19
green 19
west 19
peacefully 19
repe@@ 19
ef 19
introducing 19
meekness 19
ai@@ 19
shouting 19
PROV 19
archangel 19
ignoring 19
beha@@ 19
devoting 19
inten@@ 19
Remembering 19
adverse 19
Sydney 19
1957 19
alizing 19
confused 19
stadium 19
weaker 19
tan@@ 19
Kor@@ 19
Blessings 19
82 19
87 19
Guide 19
recovered 19
elle 19
adoptive 19
illumin@@ 19
Eliezer 19
rural 19
compromising 19
discovery 19
president 19
hearers 19
123 19
JO@@ 19
divisive 19
salute 19
Baptist 19
spokesman 19
1994 19
youngest 19
legends 19
convent 19
hating 19
od 19
cally 19
Nor@@ 19
nurture 19
eldest 19
persevered 19
notices 19
mercifully 19
head@@ 19
opponents 19
Provi@@ 19
unwholesome 19
arouse 19
arrogant 19
consisted 19
ket 19
Wa@@ 19
commemor@@ 19
attac@@ 19
Cour@@ 19
nam@@ 19
kills 19
cian 19
sis@@ 19
treatments 19
heir 19
cherubs 19
Pure 19
drunk 19
67 19
Queen 19
118 19
lights 19
demon 19
Food 19
slaughtered 19
rushed 19
cool 19
rod 19
noise 19
Asking 19
EPH 19
outline 19
Based 19
drinks 19
dict@@ 19
haven 19
maneu@@ 19
doomed 19
ascended 19
81 19
fights 19
ordeal 19
worn 19
imminent 19
thirsty 19
counteract 19
Ni@@ 19
alities 19
oked 19
argued 19
bak@@ 19
nowhere 19
Grace 19
inspection 19
Jael 19
bla@@ 19
reactions 19
fatherless 19
PEOPLE 19
appeals 19
Single 19
Spiritually 19
End@@ 18
prec@@ 18
sel@@ 18
lers 18
ills 18
procedures 18
outbreak 18
warrior 18
scre@@ 18
Exercise 18
visualize 18
prodigal 18
relaxed 18
tall 18
University 18
siege 18
Nephilim 18
dried 18
liberated 18
excels 18
underestimate 18
vehicle 18
editions 18
foolishness 18
eld 18
Samuel’s 18
flow@@ 18
confirms 18
drank 18
St 18
Forever 18
bod@@ 18
checklist 18
Philemon 18
screaming 18
choke 18
Rock 18
uncle 18
dish 18
7,@@ 18
Seven 18
gaze 18
plot 18
Cri@@ 18
mal 18
dispensing 18
workplace 18
vation 18
collector 18
ental 18
Taiwan 18
Reve@@ 18
donated 18
advertising 18
consu@@ 18
lad@@ 18
Del@@ 18
Prepare 18
Gener@@ 18
off@@ 18
Encourage 18
other’s 18
hy@@ 18
achieved 18
centers 18
competitive 18
dance 18
Evelyn 18
Barr 18
degra@@ 18
gospels 18
Bethany 18
ples 18
shrines 18
gently 18
kg 18
> 18
paper 18
sum@@ 18
child@@ 18
acquaintances 18
overing 18
osition 18
winning 18
disorder 18
enthusiastic 18
dismiss 18
overall 18
accustomed 18
exclusively 18
Inv@@ 18
quotes 18
smooth 18
flat@@ 18
pause 18
ctic 18
commander 18
oppres@@ 18
conce@@ 18
Meaning 18
wan@@ 18
greatness 18
conceive 18
observation 18
Campanus 18
ris@@ 18
corrupting 18
enrolled 18
dev@@ 18
Slave 18
coupled 18
trends 18
doves 18
videos 18
Stadium 18
rejection 18
Encourag@@ 18
helmet 18
ures 18
salt 18
Prophets 18
ende@@ 18
guaranteed 18
Resist 18
Christine 18
directs 18
abstain 18
stresses 18
multitudes 18
ods 18
Char@@ 18
citizen 18
reprove 18
unaware 18
cia 18
exhort 18
Maybe 18
TIM 18
internal 18
Oholiab 18
Festival 18
Bro@@ 18
am’s 18
Roald 18
engine@@ 18
Whose 18
dragnet 18
79 18
ination 18
complain 18
Azariah 18
Mal@@ 18
tended 18
Naaman 18
Beyond 18
Athens 18
beneath 18
ep 18
supplications 18
vir@@ 18
somewhere 18
eggs 18
privacy 18
Praetorian 18
Deluge 18
Ann@@ 18
Sandra 18
reviewing 18
lacks 18
ble@@ 18
pla@@ 18
interpret 18
core 18
cop@@ 18
Helping 18
psalmist’s 18
CT 18
Moved 18
visitor 18
canceled 18
sta@@ 18
Universal 18
stricken 18
unacceptable 18
Jud@@ 18
Mind 18
lation 18
Sha@@ 18
Nathanael 18
iness 18
é 18
Temp@@ 18
Abrahamic 18
solidly 18
KING 18
concealed 18
step@@ 18
enticed 18
unforeseen 18
Ryan 18
impresses 18
Focus 18
defending 18
upper 18
Credit 18
schemes 18
distributing 18
pat@@ 18
aids 18
courtyard 18
cent 18
pen 18
pp@@ 18
Missionary 18
,@@ 18
ocean 18
ter’s 18
trait 18
1993 18
yl@@ 18
Godly 18
Cal@@ 18
archaeological 18
Mediator 18
fervent 18
Gal@@ 18
ener@@ 18
conf@@ 18
GH@@ 18
accumul@@ 18
Nehemiah’s 18
clothed 18
linen 18
ESS 18
Ger@@ 18
distinguished 18
gran@@ 18
entertain 18
electri@@ 18
awaited 18
76 18
Saturday 18
dedicating 18
imparts 18
1991 18
sand 18
builders 18
graciousness 18
interrupted 18
Been 18
beautifully 18
vowed 18
overwhelm 18
stra@@ 18
Ja@@ 18
unshakable 18
summoned 18
strictly 18
prevailed 18
ere@@ 18
drastic 18
arch@@ 18
earliest 18
superhuman 18
Survi@@ 18
homosexuality 18
furnace 18
assumed 18
prisons 18
characteristic 18
prevail 18
Mediterranean 18
Lesson 18
eastern 18
smallest 18
Youths 18
lab@@ 18
vineyard 18
precise 18
ounds 18
soft 18
Son’s 18
appropriately 18
Dawn 18
Association 18
maker 18
partaking 18
sus 18
Sil@@ 18
mit 18
Free 18
Ca@@ 18
Enoch’s 18
Pharisee 18
Guidance 18
organizing 18
presiding 18
pled 18
Catholics 18
Ash@@ 18
betray 18
ented 18
slander 18
ritual 18
seas@@ 18
driven 18
disgusting 18
sufferings 18
intrigued 18
wore 18
conflicting 18
sends 18
Talk 18
awa@@ 18
dar@@ 18
documents 18
needing 18
gossip 18
cau@@ 18
arr@@ 18
pained 18
erous 18
persecuting 18
prosecutor 18
1944 18
cos@@ 18
concluding 18
clo@@ 17
hastily 17
films 17
element 17
Suggested 17
dian 17
cour@@ 17
PA@@ 17
’re 17
acy 17
Say 17
beaten 17
flirting 17
Island 17
Nigeria 17
sor@@ 17
Righteous 17
songbook 17
tormented 17
portrays 17
avail 17
Carol 17
RES@@ 17
loyalties 17
sects 17
stir 17
affor@@ 17
converse 17
futile 17
Step 17
condemns 17
prone 17
fertili@@ 17
FUL 17
MAN 17
ake 17
apologize 17
subdue 17
companionship 17
reasonings 17
LD@@ 17
Ple@@ 17
lock 17
announce 17
plan@@ 17
dropped 17
xed 17
adversary 17
specified 17
atheists 17
Success 17
precisely 17
1879 17
bull 17
snares 17
National 17
Paolo 17
supporters 17
contrasts 17
Pi@@ 17
eliminated 17
ever@@ 17
smell 17
weekends 17
Wisely 17
asserted 17
unblemished 17
competent 17
humiliating 17
illusi@@ 17
drift 17
victories 17
barren 17
sl@@ 17
ail@@ 17
fornic@@ 17
hindered 17
volunteered 17
rides 17
attendant 17
disability 17
unfamiliar 17
wave 17
penetr@@ 17
rede@@ 17
discipleship 17
deities 17
agents 17
pac@@ 17
has@@ 17
’t 17
Kevin 17
provoking 17
recommendations 17
Riches 17
law@@ 17
1951 17
pay@@ 17
honey 17
Union 17
Martha’s 17
tran@@ 17
citizenship 17
1998 17
deprive 17
item 17
ol 17
motivating 17
spir@@ 17
wo@@ 17
individual’s 17
persecutors 17
puzzled 17
trivial 17
itor 17
Sur@@ 17
intensify 17
urgently 17
District 17
mp 17
Kingsley 17
cultiv@@ 17
locked 17
dishonor 17
phonograph 17
revolt 17
Trans@@ 17
officers 17
Reas@@ 17
miserable 17
88 17
stranger 17
Willing 17
crip@@ 17
din@@ 17
governed 17
curing 17
Government 17
Practical 17
housing 17
penned 17
vit@@ 17
manslayer 17
□ 17
Dublin 17
bind 17
ech 17
kes 17
Rights 17
mistreatment 17
Individuals 17
Susan 17
ll 17
shopping 17
swiftly 17
AH 17
ony 17
liber@@ 17
Central 17
magic 17
searches 17
eded 17
onlookers 17
likes 17
med@@ 17
ye 17
loaf 17
GU@@ 17
hol@@ 17
trace 17
olu@@ 17
Patterson 17
Mc@@ 17
alter 17
clergymen 17
Highlights 17
overtake 17
knocking 17
department 17
empathetic 17
supers@@ 17
another’s 17
devout 17
colors 17
shot 17
brightly 17
Mountains 17
ort 17
admonishes 17
slides 17
Reli@@ 17
likens 17
kens 17
Mean 17
farther 17
commanding 17
endeavors 17
anticipated 17
1992 17
predicament 17
copyists 17
styles 17
definition 17
wooden 17
historic 17
inher@@ 17
dishonesty 17
Janet 17
faithless 17
mb@@ 17
widowed 17
sympathetic 17
Pursue 17
Easter 17
eagerness 17
cred@@ 17
Eduardo 17
Religious 17
pressed 17
arguing 17
Rico 17
inspe@@ 17
Markus 17
Stay 17
abundantly 17
professional 17
ero@@ 17
arranging 17
sum 17
amounted 17
Instru@@ 17
Moab@@ 17
ja@@ 17
Righteousness 17
clarified 17
Encyclopædia 17
sil@@ 17
laugh 17
initi@@ 17
refine 17
Spe@@ 17
myth 17
embarrassing 17
abortion 17
THE@@ 17
Scrolls 17
LD 17
endanger 17
seeming 17
Protector 17
translator 17
Kim 17
lecture 17
rebu@@ 17
ec@@ 17
Ahab’s 17
admire 17
Ref@@ 17
consulted 17
biggest 17
sy@@ 17
bru@@ 17
beside 17
ide@@ 17
93 17
Fran@@ 17
morals 17
squ@@ 17
IUDs 17
pioneered 17
electricity 17
Reach 17
Sadducees 17
operating 17
drunkenness 17
celestial 17
day@@ 17
sland@@ 17
ires 17
harvesting 17
ey@@ 17
builds 17
ols 17
orts 17
num@@ 17
seduced 17
carpenter 17
102 17
rejoices 17
xi@@ 17
Ephesian 17
1945 17
expense 17
director 17
wayward 17
Hand 17
logically 17
Prote@@ 17
tively 17
1988 17
disheartened 17
Century 17
Every@@ 17
KE@@ 17
induce 17
Abishai 17
forma@@ 17
tension 17
Melchizedek 17
OTHER 17
stressful 17
defe@@ 17
minimize 17
Capito 17
guest 17
TRU@@ 17
entertained 17
traffic 17
jailer 17
cattle 17
Ha@@ 17
adap@@ 17
opposing 17
ther 17
minding 17
denotes 17
Naboth’s 17
deaths 17
moun@@ 17
discouraging 17
lo 17
Eureka 17
unloving 17
parables 17
ord@@ 17
secu@@ 17
bent 17
pool 17
zy 17
astounded 17
leg@@ 17
professed 16
work@@ 16
solved 16
Op@@ 16
untold 16
wronged 16
Nathan’s 16
les@@ 16
Go@@ 16
swift 16
prince 16
asi@@ 16
impending 16
Pres@@ 16
myriads 16
Included 16
ically 16
Beli@@ 16
Deep 16
uncomfortable 16
Bre@@ 16
conc@@ 16
proceed 16
cramped 16
bing 16
parent’s 16
contin@@ 16
1939 16
reporting 16
round 16
poisonous 16
Uni@@ 16
disagreements 16
rotten 16
ga 16
dollars 16
appointing 16
Viol@@ 16
emin@@ 16
Jean 16
lingu@@ 16
occurrence 16
bin@@ 16
soci@@ 16
despise 16
phase 16
screen 16
container 16
fol@@ 16
Conversation 16
swear 16
decay 16
coordinator 16
Kno@@ 16
ungodliness 16
restrain 16
za 16
persuade 16
corpse 16
Action 16
violated 16
Haiti 16
descent 16
dragon 16
ableness 16
fullest 16
operates 16
THER 16
Sk@@ 16
psycho@@ 16
mul@@ 16
Yourselves 16
beset 16
lovable 16
contradic@@ 16
betr@@ 16
cular 16
heel 16
risked 16
tained 16
Mel@@ 16
ame 16
tence 16
tin 16
Cu@@ 16
São 16
nouris@@ 16
Taze 16
soothing 16
wouldn’t 16
da 16
1,600 16
adulthood 16
employ 16
aled 16
Forgive 16
sink 16
bom@@ 16
intimidated 16
borders 16
CA@@ 16
notion 16
unconscious 16
Some@@ 16
break@@ 16
assa@@ 16
Hun@@ 16
absorb 16
tments 16
plu@@ 16
hat@@ 16
frightened 16
230 16
elling 16
shun 16
unnatural 16
mails 16
alo@@ 16
va 16
college 16
inadequacy 16
menting 16
Keys 16
bon@@ 16
cated 16
estly 16
Mormon 16
chain 16
advertise 16
surpassing 16
Atonement 16
essence 16
incentive 16
sig@@ 16
’@@ 16
ker@@ 16
Council 16
abusively 16
ba 16
multiple 16
barrier 16
sal@@ 16
consequence 16
coworkers 16
melt 16
rever@@ 16
bills 16
murderous 16
discrimination 16
misconduct 16
locate 16
rests 16
colle@@ 16
CHANGED 16
intervention 16
papyrus 16
cleaned 16
phic 16
hearted 16
bigger 16
tionally 16
thering 16
Isaac’s 16
fre@@ 16
ca 16
Practice 16
Ill@@ 16
flooded 16
ety 16
Safeguard 16
coals 16
courtesy 16
nings 16
THEIR 16
drought 16
Die 16
Dep@@ 16
colporteur 16
grandchildren 16
74 16
un 16
hosts 16
entang@@ 16
cel@@ 16
tual 16
horn 16
participants 16
token 16
Mir@@ 16
val@@ 16
Quebec 16
prophet’s 16
ple 16
sympathy 16
ini@@ 16
Eyes 16
fam@@ 16
107 16
thirsting 16
fiction 16
brokenhearted 16
consis@@ 16
pornographic 16
Challenges 16
expel 16
tment 16
ell@@ 16
fron@@ 16
Her@@ 16
ace 16
Protestant 16
limitless 16
accidents 16
tracks 16
Them 16
fran@@ 16
Sel@@ 16
Walk 16
20@@ 16
refugee 16
stipulated 16
burg 16
1996 16
Line 16
planting 16
confidential 16
merchant 16
scales 16
ults 16
motorcycle 16
Research 16
prospective 16
nervous 16
foregoing 16
lap@@ 16
soften 16
lake 16
fes@@ 16
predict 16
likeness 16
blossom 16
dew 16
stepping 16
finest 16
succumbed 16
plying 16
6,@@ 16
aw@@ 16
Cares 16
pilgrim 16
argument 16
abandoning 16
rebuked 16
avenge 16
adv@@ 16
releasing 16
Proclaimers 16
labeled 16
trusts 16
Kenneth 16
contacted 16
vigor 16
San 16
Lamech 16
forest 16
adopting 16
heal@@ 16
ible 16
stimul@@ 16
lining 16
Trials 16
alien 16
belly 16
Cy@@ 16
conceal 16
Communist 16
collecting 16
ership 16
Pho@@ 16
voluntarily 16
Tre@@ 16
iri@@ 16
duced 16
BENEFITED 16
possesses 16
gratefully 16
nearing 16
disturbing 16
mas@@ 16
Believe 16
í@@ 16
Ol@@ 16
Understand 16
rewarder 16
infe@@ 16
tim@@ 16
expend 16
cherishes 16
possibilities 16
safeguarded 16
predictions 16
mourn 16
reproving 16
tiness 16
controlling 16
clos@@ 16
tar 16
varied 16
oms 16
Valu@@ 16
erable 16
treas@@ 16
Jack 16
disowned 16
Tom 16
garden@@ 16
competition 16
animosity 16
jected 16
shining 16
Sp@@ 16
Cellarius 16
NOT 16
cunning 16
inno@@ 16
beforehand 16
manifestation 16
hon@@ 16
preoccupied 16
Ur@@ 16
136 16
needless 16
Kyrgyzstan 16
turing 16
dawn 16
Found 16
pag@@ 16
depending 16
OU@@ 16
Naz@@ 16
communic@@ 16
coat 16
installed 16
rampant 16
lucrative 16
windstorm 16
attendants 16
strained 16
humiliated 16
handsome 16
newcomers 16
fatal 16
slo@@ 16
Decisions 16
tting 16
boas@@ 15
instrument 15
dreamed 15
weighing 15
Sacrifice 15
vigorously 15
pressing 15
Nation 15
repeating 15
Dorcas 15
sustaining 15
extensively 15
Florida 15
theirs 15
diverse 15
offender 15
hasty 15
Minis@@ 15
breathing 15
rup@@ 15
direc@@ 15
Cap@@ 15
tage 15
urging 15
wedlock 15
uge 15
Dist@@ 15
read@@ 15
youngsters 15
odds 15
exerting 15
ENCE 15
RU@@ 15
OUS 15
compelling 15
ressing 15
wasting 15
190@@ 15
Sign 15
Williams 15
brutal 15
equally 15
book@@ 15
manna 15
Bedell’s 15
gesture 15
hobbies 15
attainable 15
devices 15
VER@@ 15
derived 15
lyrics 15
Meetings 15
imper@@ 15
adhering 15
dancing 15
illicit 15
TIONS 15
displeased 15
brilli@@ 15
congreg@@ 15
hin@@ 15
forfeited 15
1st 15
fragment 15
Reason@@ 15
TER@@ 15
gor@@ 15
immersed 15
Schol@@ 15
potter 15
lure 15
toiling 15
rape 15
withdraw 15
couple’s 15
ots 15
weary 15
Gethsemane 15
fondly 15
climb 15
analysis 15
gir@@ 15
unfulfilled 15
Tur@@ 15
humor 15
casting 15
Wherever 15
1987 15
rained 15
duc@@ 15
tress 15
intensity 15
ko@@ 15
perished 15
.5 15
bol@@ 15
scheme 15
medic@@ 15
neighborly 15
rough 15
adher@@ 15
Pierce 15
ACTS 15
Spir@@ 15
criptions 15
furious 15
Home 15
luxury 15
oting 15
Science 15
ack 15
Cyprus 15
devious 15
sou@@ 15
hum@@ 15
ridiculed 15
Hai@@ 15
surprisingly 15
WORD 15
oul 15
Yankee 15
aggres@@ 15
Ken@@ 15
WITNESSES 15
ue 15
seasoned 15
Knowledge 15
115 15
disappear 15
complied 15
sounded 15
enthusiastically 15
mat@@ 15
rightfulness 15
accommod@@ 15
Commandments 15
vil@@ 15
stroke 15
diligence 15
marvel 15
rab@@ 15
Differ@@ 15
Ev@@ 15
Wil@@ 15
sli@@ 15
theologian 15
sible 15
nourished 15
scheduled 15
sympa@@ 15
Discipline 15
sts 15
Exc@@ 15
impatient 15
Jane 15
1966 15
arous@@ 15
determines 15
Today’s 15
fosters 15
archaeologists 15
Rabshakeh 15
educ@@ 15
foreshadowed 15
rep@@ 15
Doris 15
stretching 15
anyway 15
Similar 15
pleasantness 15
wheels 15
Caiaphas 15
ok@@ 15
isn’t 15
leather 15
Up@@ 15
mountainous 15
Agent 15
prestige 15
explore 15
ounding 15
vice 15
thoughtful 15
attributed 15
consol@@ 15
acqu@@ 15
swore 15
awkward 15
Originator 15
city’s 15
puzzling 15
bled 15
sport 15
Worth 15
sof@@ 15
barriers 15
blamed 15
lifelong 15
interference 15
DA@@ 15
osing 15
campaigns 15
welcoming 15
bridge 15
informally 15
collectors 15
main@@ 15
Ang@@ 15
northwest 15
stabili@@ 15
Marilyn 15
beard 15
ountain 15
hesitated 15
harmless 15
atures 15
admired 15
ham 15
reinstated 15
entary 15
attentively 15
titious 15
negatively 15
ush 15
deceitful 15
tow@@ 15
sandals 15
idolatrous 15
Bir@@ 15
dow@@ 15
reproved 15
Mi@@ 15
cense 15
counter@@ 15
transforming 15
Wycliffe 15
corresponding 15
symbolically 15
tas@@ 15
ose@@ 15
depend@@ 15
Shepherds 15
zz@@ 15
Drawing 15
blows 15
prejudices 15
thrones 15
Hol@@ 15
abused 15
woes 15
anced 15
tolerated 15
eing 15
minis@@ 15
dig 15
top@@ 15
fisher@@ 15
church@@ 15
dete@@ 15
122 15
Onesmus 15
gas 15
renowned 15
near@@ 15
eling 15
vings 15
differed 15
shoes 15
breastplate 15
ister 15
vicinity 15
,0@@ 15
misunderstandings 15
Reuben 15
traces 15
Orthodox 15
Prior 15
Uriah 15
inculcate 15
savings 15
discreetly 15
of@@ 15
CHRIST 15
Ir@@ 15
echo@@ 15
laud 15
ela 15
entry 15
mel@@ 15
selecting 15
sing@@ 15
meets 15
onement 15
Edition 15
exultation 15
gun 15
ambitious 15
shaped 15
Deliverer 15
tsunami 15
nurse 15
tedly 15
stretched 15
Master’s 15
inform 15
Portugal 15
IMITATE 15
HEL@@ 15
unfolding 15
long@@ 15
firstfruits 15
rati@@ 15
attribute 15
ale 15
fix 15
El@@ 15
arity 15
assuming 15
flaws 15
vineyards 15
apologized 15
violating 15
Significantly 15
debilitating 15
mon 15
feeds 15
naive 15
finances 15
patients 15
corners 15
practic@@ 15
refu@@ 15
AY@@ 15
rich@@ 15
abounds 15
convinces 15
poetic 15
extra@@ 15
elementary 15
facility 15
ential 15
lamented 15
fertile 15
dates 15
fle@@ 15
beasts 15
lawyer 15
steadily 15
harmoniously 15
exce@@ 15
grim 15
ney 15
Santa 15
plus 15
spots 15
oph@@ 15
Baptized 15
Origin 15
oke 15
pah 15
entice 15
obligated 15
marily 15
Wal@@ 15
Beloved 15
Cur@@ 15
decline 15
elds 15
ut 15
itely 15
speci@@ 15
unleavened 15
thro@@ 15
unselfishly 15
stretch 15
Tri@@ 15
experim@@ 15
archives 15
loses 15
nears 15
high@@ 15
achiev@@ 15
105 15
flat 15
hug 15
zer 15
rin@@ 15
marking 15
stirring 15
Luther 15
elev@@ 15
Growing 15
Brings 15
relax 15
advises 15
eks 15
plo@@ 15
Shinto 15
demonic 15
Miriam 15
deepened 15
vol@@ 15
hardened 15
committee 15
fe 15
20,000 15
instructs 15
casts 15
impulses 15
gues 15
pleas 15
Studies 15
monthly 14
controversi@@ 14
Troas 14
Shiloh 14
250 14
oth 14
guar@@ 14
resolute 14
lows 14
instant 14
au 14
Born 14
pierced 14
brochures 14
boost 14
contaminated 14
conspir@@ 14
sections 14
kni@@ 14
leness 14
distances 14
enture 14
tolerant 14
aks 14
colossal 14
Edith 14
chart 14
Open 14
Margaret 14
1870 14
administration 14
arian 14
THO@@ 14
theater 14
converted 14
Ge@@ 14
ven 14
deceiving 14
1976 14
committees 14
kness 14
ken 14
breath@@ 14
minimum 14
fullness 14
Hypo@@ 14
gically 14
Pornography 14
END 14
HU@@ 14
logic 14
fashion 14
bath 14
underground 14
Gwen 14
mustered 14
conductor 14
AP@@ 14
Cop@@ 14
Point 14
tivity 14
1962 14
prosper 14
inactivity 14
High@@ 14
André 14
thriving 14
fraud 14
consists 14
spiritistic 14
Answered 14
ation@@ 14
syndrome 14
pangs 14
orial 14
Fred 14
swallow 14
vin 14
consulting 14
Opp@@ 14
contentiousness 14
vile 14
signi@@ 14
caregivers 14
infirm 14
Mike 14
creates 14
informal 14
fragments 14
LU@@ 14
after@@ 14
exposure 14
Review 14
plates 14
nephew 14
majestic 14
cape 14
Ed@@ 14
thrill 14
clue 14
superlative 14
dom@@ 14
relaxation 14
counselor 14
riders 14
Confid@@ 14
quali@@ 14
Worse 14
overeating 14
Between 14
Birth 14
altars 14
destroys 14
originates 14
genetic 14
compar@@ 14
square 14
spends 14
rested 14
agony 14
rel@@ 14
net@@ 14
registered 14
tirelessly 14
Epaphroditus 14
Mari@@ 14
predicted 14
anic 14
aven 14
Undoubtedly 14
pulled 14
Demas 14
Conventions 14
objected 14
survey 14
ALL 14
spectacular 14
inspire 14
that’s 14
counting 14
inscribed 14
urs 14
Person@@ 14
gible 14
Feeling 14
Po@@ 14
Swiss 14
ast 14
itary 14
passes 14
Aramaic 14
pel@@ 14
Considering 14
disrespectful 14
Jairo’s 14
eth 14
ened 14
anism 14
renders 14
rupt 14
environmental 14
robe 14
noting 14
Dalia 14
incapable 14
depicts 14
cement 14
absent 14
abiding 14
interview 14
drin@@ 14
18th 14
faulty 14
water@@ 14
checked 14
stored 14
ORI@@ 14
fig 14
lepers 14
diversity 14
sweet 14
Capernaum 14
fathered 14
reassigned 14
assigning 14
eni@@ 14
philosophers 14
skir@@ 14
tight 14
Eunice 14
wrathful 14
bountifully 14
historians 14
mar 14
heartening 14
onship 14
Diotrephes 14
undefiled 14
Discus@@ 14
pestilences 14
Fiji 14
profession 14
vegetables 14
invitations 14
crushing 14
stewardship 14
syn@@ 14
free@@ 14
temper@@ 14
ough@@ 14
misguided 14
punctual 14
collapse 14
1954 14
Edenic 14
boast 14
ladies 14
temples 14
alternative 14
vin@@ 14
Jan 14
sol@@ 14
rafter 14
Helped 14
Lar@@ 14
PAR@@ 14
defended 14
endowed 14
substanti@@ 14
excellen@@ 14
figured 14
Hu@@ 14
murderer 14
ashes 14
ug@@ 14
Pr@@ 14
insects 14
dare 14
stops 14
fulfills 14
gardener 14
estate 14
HI@@ 14
Coast 14
sprout 14
pleading 14
copied 14
hill 14
groaning 14
cells 14
DNA 14
ial 14
joy@@ 14
applause 14
stolen 14
upcoming 14
sul@@ 14
residence 14
124 14
Pun@@ 14
1989 14
persuasi@@ 14
occupy 14
Tabor 14
storing 14
Associ@@ 14
partakers 14
Bearing 14
Rest 14
Servants 14
persists 14
racing 14
similarities 14
level@@ 14
gradual 14
pushing 14
faint 14
Mad@@ 14
formal 14
vel 14
ridiculers 14
inevitable 14
Left 14
substance 14
learners 14
Shi@@ 14
Islands 14
Made 14
Euphrates 14
Hushai 14
theless 14
taining 14
María 14
consuming 14
Milton 14
adulterers 14
stu@@ 14
Zion 14
punishing 14
chasteness 14
deepest 14
Cheri 14
Alan 14
atives 14
imaginary 14
fr@@ 14
rapid 14
Nobody 14
inadequate 14
hypo@@ 14
cand@@ 14
OL@@ 14
launched 14
ship@@ 14
adolescence 14
rocks 14
San@@ 14
newfound 14
attaining 14
Eva 14
Win@@ 14
flowing 14
websites 14
14@@ 14
Pressure 14
Achan 14
manger 14
Cle@@ 14
summari@@ 14
pil@@ 14
Gaining 14
ficial 14
hang 14
defines 14
conten@@ 14
lectures 14
rein@@ 14
clever 14
instructor 14
bi 14
disclosed 14
kably 14
Ahead 14
Walter 14
heart’s 14
Committees 14
arily 14
sincerity 14
defiling 14
adolescent 14
Dedication 14
MATTHEW 14
householder’s 14
PR@@ 14
Gno@@ 14
ust@@ 14
Pakistan 14
fan@@ 14
appoints 14
ro 14
fingers 14
160 14
1978 14
rigid 14
implored 14
’ve 14
rows 14
ancy 14
ruins 14
comprehension 14
restrictive 14
hopeless 14
deli@@ 14
tie 14
127 14
formidable 14
engrossed 14
1942 14
Bithynia 14
cide 14
Common 14
Examples 14
shook 14
trembling 14
truthfully 14
Vengeance 14
incidents 14
spon@@ 14
1920 14
phi@@ 14
vindicated 14
rob@@ 14
findings 14
expl@@ 14
isolate 14
Fa@@ 14
aliens 14
lest 14
enhanced 14
caves 14
lunch 14
procedure 14
inous 14
disciplining 14
permitting 14
emb@@ 14
trend 14
Hear 14
Ammonites 14
rites 14
Sum@@ 14
freeness 14
selective 14
Naturally 14
moderate 14
develops 14
COUR@@ 14
disapproval 14
Sus@@ 14
fa@@ 14
Present 14
thr@@ 14
counts 14
summed 14
lim@@ 14
bloodshed 14
Gover@@ 14
livelihood 14
hanging 14
Peshitta 14
inj@@ 14
contempt 14
marries 14
Jonathan’s 14
extre@@ 14
Gri@@ 14
acceptably 14
complicated 14
ceremon@@ 14
neat 14
wiser 14
crash 14
TA@@ 14
critics 14
Contrast 14
Prison 14
Ho@@ 14
acceptance 14
GE 14
scra@@ 14
bers 14
class@@ 14
Perfect 14
ard@@ 14
vy 14
creations 14
hel@@ 14
stem 14
usive 14
earned 14
commendable 14
option 14
reassurance 14
indul@@ 14
Accept 14
vividly 13
loy@@ 13
IVF 13
etic 13
millenniums 13
Rober@@ 13
they@@ 13
JA@@ 13
teous 13
photos 13
let@@ 13
patri@@ 13
awakened 13
confron@@ 13
memorized 13
itting 13
Joshua’s 13
Becoming 13
interrup@@ 13
Babylon’s 13
monum@@ 13
flame 13
jects 13
chable 13
influential 13
begging 13
trated 13
en’s 13
need@@ 13
Promises 13
Circuit 13
conducts 13
nec@@ 13
exposing 13
grati@@ 13
SPIRIT 13
TIMOTHY 13
rode 13
supreme 13
50@@ 13
deluge 13
aver@@ 13
renoun@@ 13
earth@@ 13
ERE 13
COL 13
Elderly 13
Tu@@ 13
PRE@@ 13
YOUR 13
Anti@@ 13
mourned 13
reacting 13
confuse 13
wasted 13
Josiah’s 13
Tuesday 13
General 13
alling 13
alleg@@ 13
some@@ 13
sentiment 13
masses 13
poetry 13
Singleness 13
hind@@ 13
thin 13
THESS 13
lain 13
post@@ 13
Almost 13
vable 13
Potiphar 13
ually 13
cruelty 13
Dr 13
bishops 13
exploit 13
dictat@@ 13
Failure 13
Rosa 13
valid@@ 13
Iconium 13
bored 13
Jehoash 13
debates 13
MAY 13
adul@@ 13
Sto@@ 13
ka 13
custody 13
addic@@ 13
kable 13
gri@@ 13
Resurrection 13
addicted 13
san@@ 13
17th 13
demeanor 13
ysi@@ 13
glorifying 13
ores 13
Ministerial 13
intimately 13
slanderers 13
ison 13
exal@@ 13
deteriorated 13
Corinthian 13
uprightness 13
bes 13
misunderstood 13
solving 13
degrading 13
ʹ 13
ley 13
categ@@ 13
surve@@ 13
surgeon 13
trek 13
illegal 13
superiority 13
CRI@@ 13
grum@@ 13
entreat 13
nuclear 13
Ages 13
Ethiopians 13
trigger 13
tably 13
joyous 13
ki 13
leaning 13
domination 13
stag@@ 13
pir@@ 13
revel@@ 13
tain@@ 13
Expla@@ 13
134 13
liberation 13
flawed 13
Bor@@ 13
differing 13
skeptical 13
bel 13
Flee 13
lis@@ 13
preferred 13
volumes 13
insti@@ 13
resolving 13
battling 13
Satis@@ 13
rude 13
yard 13
distort 13
hu’s 13
eventual 13
Tarsus 13
wrapped 13
Realizing 13
gravity 13
incl@@ 13
excelling 13
nearest 13
Hi@@ 13
designs 13
sures 13
dignifies 13
retirement 13
Carlos 13
ular 13
knees 13
detri@@ 13
envo@@ 13
credible 13
unintentional 13
coworker 13
fertility 13
evildoer 13
intriguing 13
gun@@ 13
glance 13
Che@@ 13
nuns 13
determining 13
han@@ 13
1982 13
fortun@@ 13
disdain 13
foundations 13
trains 13
vices 13
construct 13
Eliphaz 13
Ef@@ 13
Salvador 13
matchless 13
nu@@ 13
cigarettes 13
There’s 13
hill@@ 13
Written 13
fire@@ 13
mond 13
Special 13
booklets 13
solutions 13
Newton 13
transport 13
Works 13
lac@@ 13
tasted 13
DO@@ 13
implicit 13
Youth 13
Barbara 13
MU@@ 13
Tob@@ 13
Married 13
Own 13
Watch@@ 13
invented 13
privately 13
covenants 13
taunted 13
species 13
sy 13
15th 13
rified 13
Compassion 13
burdens 13
itors 13
harming 13
Called 13
m’s 13
there@@ 13
Causes 13
spear 13
mot@@ 13
Ransom 13
Ontario 13
ai 13
ote 13
bucket 13
Chil@@ 13
plead 13
flexible 13
cle@@ 13
likelihood 13
REV 13
Est@@ 13
ha 13
sancti@@ 13
traced 13
Listening 13
coal 13
ECC@@ 13
indescribable 13
TEACHES 13
scat@@ 13
suppress 13
Northern 13
Plan@@ 13
remorse 13
Sen@@ 13
depi@@ 13
Qualities 13
tons 13
cousin 13
yearning 13
singers 13
particip@@ 13
glorifies 13
revenge 13
121 13
philosophies 13
accomplishes 13
ticul@@ 13
retired 13
WORK 13
asing 13
arbitrary 13
escap@@ 13
midnight 13
panic 13
farming 13
Max@@ 13
craving 13
metap@@ 13
1971 13
Fin@@ 13
breakfast 13
enthr@@ 13
tips 13
notic@@ 13
weedlike 13
Puerto 13
cancel 13
voc@@ 13
admonishing 13
compatible 13
harass@@ 13
pol@@ 13
Traveling 13
palm 13
Turn 13
athe@@ 13
energi@@ 13
obscure 13
parting 13
sors 13
suggesting 13
ague 13
147 13
harmoni@@ 13
ROU@@ 13
swe@@ 13
peace@@ 13
deceit 13
Education 13
facets 13
hood 13
inging 13
1,500 13
sundown 13
cows 13
compel 13
Problems 13
Leaving 13
invest@@ 13
esting 13
depos@@ 13
amazement 13
customers 13
fanati@@ 13
beware 13
stru@@ 13
30,000 13
impose 13
udi@@ 13
graciously 13
resume 13
stole 13
ckery 13
contemporary 13
myths 13
comment@@ 13
interpretation 13
1977 13
Developing 13
ripped 13
Hong 13
Kong 13
Courageous 13
div@@ 13
oaths 13
Hutter 13
inches 13
cm 13
ok 13
dog 13
cious 13
denounced 13
incor@@ 13
enligh@@ 13
Pap@@ 13
justi@@ 13
willful 13
Create 13
sian 13
tains 13
thor@@ 13
silently 13
CT@@ 13
reserv@@ 13
nie 13
inqu@@ 13
disregarding 13
spin@@ 13
Demetrius 13
jumped 13
resurrecting 13
criticized 13
runners 13
assemble 13
k’s 13
otic 13
ciful 13
Augustine 13
2,500 13
Luigi 13
willfully 13
ent’s 13
Toru 13
apping 13
cooperated 13
jac@@ 13
heigh@@ 13
sheer 13
forged 13
vely 13
Beware 13
Dun@@ 13
politici@@ 13
Fathers 13
WITH 13
Man’s 13
preference 13
Coping 13
enticements 13
console 13
Matter 13
exhibit 13
Lat@@ 13
mons 13
Unity 13
Gen@@ 13
corresponded 13
toes 13
announ@@ 13
stages 13
splendid 13
ele 13
Stephanie 13
foresee 13
theologians 13
aunt 13
Deliverance 13
crops 13
ctors 13
powerless 13
sus@@ 13
docum@@ 13
termin@@ 13
capture 13
Peer 13
hardest 13
tured 13
courtship 13
diet 13
Subject 13
crimes 13
Honest 13
mali@@ 13
chest 13
aeons 13
sentences 13
emed 13
ministered 13
pope 13
Medo 13
galaxies 13
Pioneers 13
ANSWERED 13
breathe 13
Praying 13
heaped 13
mount 13
elded 13
kitchen 13
exiles 13
Felisa 13
Poli@@ 13
workmate 13
Abram 13
Cultivating 13
dilemma 13
exult 13
Lett 13
Zech 13
mation 13
Ahaz 13
ration 13
widower 13
endlessly 13
mes@@ 13
conversing 13
mob@@ 13
Gail 13
Stu@@ 13
Hor@@ 13
oxygen 13
bosom 13
unforgettable 13
clarify 13
Fre@@ 13
regulating 13
whe@@ 13
thrust 13
atlike 13
tely 13
rolled 13
warring 13
eting 13
Frederick 13
8,@@ 13
dled 13
magical 13
hurts 13
yo@@ 13
Global 13
titude 13
decides 13
tact 13
supervis@@ 13
eradicate 13
Greatest 13
dukes 13
runner 13
counselors 13
fidelity 13
devo@@ 13
Araceli 13
Te@@ 13
Janny 13
wolves 13
NO 13
holidays 13
painted 12
dow 12
elaborate 12
Albert 12
chap@@ 12
chap 12
memorize 12
rowing 12
mysterious 12
sad@@ 12
Undeserved 12
pun@@ 12
wag@@ 12
astonished 12
IF 12
twofold 12
ration@@ 12
Mass 12
mod@@ 12
road@@ 12
resses 12
condi@@ 12
econ@@ 12
alls 12
recounted 12
liberty 12
contradict 12
nationalism 12
dinner 12
Oli@@ 12
proclaimer 12
strengths 12
failures 12
Sing 12
jus@@ 12
11th 12
VIOL@@ 12
totter 12
shyness 12
canon 12
canonical 12
240 12
dividing 12
Australian 12
jeopar@@ 12
Recently 12
1981 12
Emp@@ 12
nation’s 12
eyesight 12
yearned 12
oration 12
EL 12
Phil@@ 12
culmin@@ 12
sly 12
critically 12
pleasurable 12
strove 12
egg 12
sperm 12
Influ@@ 12
cafeteria 12
AU@@ 12
ENTS 12
perfumed 12
suspected 12
air@@ 12
illnesses 12
Alcohol 12
World@@ 12
crowned 12
stationed 12
profoundly 12
disagree 12
ese 12
contempl@@ 12
produc@@ 12
gar 12
but@@ 12
bothered 12
Adver@@ 12
unfailing 12
fore 12
ju@@ 12
succumbing 12
VED 12
Tar@@ 12
1984 12
combination 12
DURING 12
sister’s 12
Agboola 12
clock 12
1965 12
wrestling 12
discre@@ 12
ger@@ 12
pollu@@ 12
Oct 12
appearances 12
agreeable 12
poised 12
Tetragrammaton 12
skinned 12
verdict 12
Patience 12
mies 12
graduation 12
lude 12
stool 12
chor 12
sting 12
achievement 12
Herod’s 12
illed 12
reform 12
injuries 12
hopelessly 12
1925 12
snake 12
memori@@ 12
rituals 12
Compar@@ 12
1929 12
tivities 12
Teen@@ 12
ups 12
customary 12
Accepting 12
Cru@@ 12
influ@@ 12
9,@@ 12
mit@@ 12
circul@@ 12
Natural 12
Ba@@ 12
Include 12
champion 12
FREQUENTLY 12
ASKED 12
leanings 12
Empowered 12
Endurance 12
believ@@ 12
Volun@@ 12
purely 12
AF@@ 12
scourge 12
Cas@@ 12
Penin@@ 12
Earn@@ 12
Dec 12
invaded 12
incomplete 12
gists 12
1937 12
cursed 12
momentary 12
DOES 12
beating 12
Letter 12
forcing 12
Julian 12
1800 12
spotless 12
chaos 12
confusing 12
refreshed 12
Scientists 12
dull 12
luxuries 12
Determined 12
therly 12
dramatically 12
constitute 12
Woe 12
defi@@ 12
heeded 12
Behind 12
intimidate 12
rum@@ 12
Heaven 12
OR 12
Accurate 12
tank 12
neck 12
kiss 12
troublesome 12
Law@@ 12
mood 12
astonishing 12
gambl@@ 12
forsaken 12
Forgiveness 12
weekend 12
nels 12
surrender 12
exagger@@ 12
tial 12
widow’s 12
upro@@ 12
empha@@ 12
comparatively 12
jail 12
dog@@ 12
Appro@@ 12
molds 12
Mum 12
instinc@@ 12
Don@@ 12
Marie 12
abstract 12
concepts 12
desig@@ 12
preced@@ 12
passersby 12
ascension 12
El 12
partially 12
realizes 12
rushing 12
je@@ 12
Bulgarian 12
ew 12
agonizing 12
Sol@@ 12
preceded 12
0,000 12
infir@@ 12
mities 12
affirmed 12
cil 12
ghts 12
rebelling 12
TIES 12
significantly 12
succession 12
disadvantaged 12
opposer 12
Anxiety 12
restrained 12
uproot 12
master’s 12
redemption 12
unch 12
Evangelizers 12
wand@@ 12
awesome 12
returns 12
dispu@@ 12
unified 12
cleanliness 12
Basically 12
poin@@ 12
lifting 12
perilous 12
Dev@@ 12
locust 12
swarm 12
Vulgate 12
brigh@@ 12
whi@@ 12
ski@@ 12
split 12
sidetracked 12
lit 12
admonish 12
sarcas@@ 12
forbade 12
remarked 12
Ultimately 12
crossing 12
Examine 12
eties 12
stubborn 12
medium 12
sterling 12
drow@@ 12
academic 12
Nikolai 12
Sonia 12
abusing 12
bird 12
unfruitful 12
repa@@ 12
LINE 12
bags 12
linger 12
Sapphira 12
symbolizes 12
rev@@ 12
Apply 12
Eight 12
resisted 12
concer@@ 12
compens@@ 12
Galatia 12
slide 12
yielded 12
Fri@@ 12
prolonged 12
Ebed 12
melech 12
Test 12
interc@@ 12
champi@@ 12
affecting 12
Ethiopia 12
ut@@ 12
cians 12
instruments 12
visi@@ 12
expan@@ 12
hole 12
ert 12
forfe@@ 12
Loved 12
epide@@ 12
insults 12
sermons 12
destiny 12
MARCH 12
Goals 12
Shem 12
Vie@@ 12
initiated 12
cum@@ 12
JAS 12
preventing 12
locusts 12
Ele@@ 12
blood@@ 12
draft 12
Affect 12
swa@@ 12
baptizing 12
trumpets 12
bottom 12
defra@@ 12
bouts 12
celebrating 12
isi@@ 12
Netherlands 12
eri@@ 12
marty@@ 12
Monique 12
deals 12
overseas 12
extor@@ 12
gage 12
fountains 12
EG@@ 12
authori@@ 12
crop 12
cri@@ 12
fat 12
dh@@ 12
interpre@@ 12
patterns 12
DAN@@ 12
Uzziah 12
ensnared 12
populated 12
pronounce 12
separates 12
Shulammite 12
waver 12
delicate 12
Lydia 12
mud 12
respective 12
Sweden 12
Liter@@ 12
TIME 12
beheld 12
ORE 12
Ga@@ 12
sma@@ 12
Learned 12
evildoers 12
savior 12
Eternal 12
attire 12
Provide 12
twin 12
sticks 12
Treasure 12
mach@@ 12
LES 12
clu@@ 12
tition 12
incorruptible 12
Louise 12
Describing 12
farmers 12
1933 12
Histori@@ 12
ringing 12
Archi@@ 12
unci@@ 12
Kind 12
mbing 12
finishing 12
Less 12
characterize 12
dig@@ 12
snat@@ 12
minimi@@ 12
4,@@ 12
sole 12
triumph 12
wal 12
divination 12
alien@@ 12
sluggish 12
Tr@@ 12
Cher@@ 12
welling 12
129 12
slip 12
gains 12
Fern 12
collections 12
overseeing 12
flames 12
1963 12
entangles 12
tuous 12
doer 12
ficiency 12
Face 12
mill 12
life@@ 12
oral 12
pers@@ 12
beverages 12
undershepherds 12
consen@@ 12
survivor 12
harmonious 12
lover 12
ud 12
Ramah 12
ouch 12
Heeding 12
downpour 12
pertaining 12
apostle’s 12
mirrors 12
KGB 12
upward 12
rashly 12
chang@@ 12
Usually 12
Ros@@ 12
itarian 12
Rahab’s 12
reinforced 12
weakening 12
sparrows 12
you’re 12
OT@@ 12
breeze 12
poison 12
revol@@ 12
pretty 12
appendix 12
olution 12
wherein 12
inflicted 12
reverse 12
photogra@@ 12
EP 12
humiliation 12
echo 12
Midian@@ 12
CHI@@ 12
shore 12
someone’s 12
Enjoy 12
ette 12
falsehood 12
Manoah 12
fool 12
random 12
14th 12
af 12
philosopher 12
ther’s 12
losses 12
Royal 12
Cha@@ 12
Possible 12
depict 12
Complete 12
burdened 12
offensive 12
alism 12
2.@@ 12
Chi@@ 12
authenticity 12
Successful 12
unfold 12
underscore 12
indignation 12
elimin@@ 12
profitable 12
moth 12
poli@@ 12
threefold 12
fur@@ 12
breas@@ 12
Br@@ 12
thorn 12
JULY 12
treachery 12
indifferent 12
Lead@@ 12
Alexander 12
Indian 12
gical 12
wiped 12
risks 12
mistakenly 12
wil@@ 12
Wallkill 12
restrictions 12
ky 12
flouris@@ 12
babe 12
Obey 12
faultless 12
Wives 12
shorter 12
CE@@ 12
1934 12
contr@@ 12
Artemis 12
primacy 12
compulsion 12
ANS 12
30@@ 12
home@@ 12
Morris 12
unmista@@ 12
oper@@ 12
Ama@@ 12
Fittingly 12
Publ@@ 12
cip@@ 12
stations 12
Selves 11
angers 11
etary 11
ctor’s 11
shipp@@ 11
retaliate 11
polite 11
entrust 11
murmuring 11
engine 11
1979 11
ridden 11
sprou@@ 11
China 11
Facts 11
God@@ 11
liness 11
prompts 11
utensils 11
clutches 11
smok@@ 11
secondhand 11
dining 11
109 11
one@@ 11
ables 11
sling 11
envel@@ 11
prices 11
jump 11
asion 11
fav@@ 11
Sam@@ 11
lender 11
Feel 11
simultaneously 11
toll 11
537 11
paint 11
Conf@@ 11
widowers 11
Johannes 11
boy@@ 11
represent@@ 11
ems 11
Jason 11
premature 11
alog@@ 11
Grief 11
exhaus@@ 11
1985 11
eval 11
MENT 11
withhold 11
breach 11
delivers 11
apple 11
Rebekah’s 11
miners 11
wrongly 11
calmed 11
andi@@ 11
accusing 11
disagreement 11
frankly 11
Cedar 11
perpe@@ 11
Ci@@ 11
vul@@ 11
alleged 11
crafty 11
Divor@@ 11
formation 11
sermon 11
woke 11
perple@@ 11
nourishment 11
troubling 11
ows 11
publishing 11
scar@@ 11
disappeared 11
underscores 11
ov@@ 11
Institute 11
fool@@ 11
Chris 11
encoun@@ 11
ound@@ 11
erce 11
neared 11
disappoint 11
ayer 11
meaningless 11
tigh@@ 11
recipients 11
tingly 11
versaries 11
gul@@ 11
usur@@ 11
traumatic 11
corresponds 11
dragged 11
ascending 11
Juan 11
Letters 11
exterminate 11
Bu@@ 11
Din@@ 11
teries 11
Plan 11
Obedience 11
inauguration 11
kening 11
rolling 11
fearless 11
wickedly 11
acquaintance 11
ox@@ 11
Dustin 11
Côte 11
d’Ivoire 11
Lead 11
slanderer 11
manu@@ 11
bait 11
Gam@@ 11
lands@@ 11
swallowed 11
apathetic 11
lessen 11
Sar@@ 11
intensified 11
sensible 11
stores 11
clari@@ 11
grudgingly 11
dictate 11
fury 11
smel@@ 11
touris@@ 11
ouring 11
sleep@@ 11
LOVE 11
aud@@ 11
recount 11
betrayers 11
re’s 11
solitary 11
atri@@ 11
Wrong 11
nationalistic 11
tolerance 11
dissolved 11
Glory 11
indulgence 11
embarked 11
persuasive 11
sun@@ 11
replies 11
Fac@@ 11
scour@@ 11
lawful 11
employ@@ 11
Maintaining 11
trailer 11
simpler 11
Scenario 11
Sele@@ 11
praiseworthy 11
scenarios 11
taunting 11
musical 11
resem@@ 11
Ready 11
magni@@ 11
instructing 11
ditions 11
b’s 11
gh@@ 11
situated 11
Colporte@@ 11
Facing 11
reigned 11
essness 11
hearer 11
sheet 11
denominations 11
soothed 11
tea 11
Louis 11
abhor 11
tism 11
essive 11
stepchildren 11
trialsome 11
soever 11
1938 11
Foretelling 11
specialized 11
twins 11
entic@@ 11
correspond 11
Jeal@@ 11
Sept 11
elic@@ 11
drifted 11
Progress 11
underwent 11
disgra@@ 11
plight 11
Gi@@ 11
recipient 11
commu@@ 11
conne@@ 11
Rutherford’s 11
sh 11
comb@@ 11
interrog@@ 11
despond@@ 11
confid@@ 11
gue 11
diver@@ 11
resentful 11
printery 11
granting 11
Rabbi 11
DE 11
Reaching 11
Onesimus 11
racism 11
arts 11
neglecting 11
Poverty 11
builder 11
prestigious 11
bicycles 11
cle 11
agitated 11
What’s 11
Agrippa 11
WILL 11
shouted 11
relinqu@@ 11
empa@@ 11
stomach 11
mble 11
tily 11
complaining 11
spo@@ 11
ceased 11
thwarted 11
stripped 11
dismissed 11
stray 11
investigate 11
bars 11
connections 11
mented 11
restaurant 11
quantity 11
seduce 11
kled 11
boxes 11
rail@@ 11
prohib@@ 11
breadth 11
Val@@ 11
accus@@ 11
Shall 11
earthling 11
agno@@ 11
inquire 11
emis@@ 11
Ish@@ 11
hori@@ 11
Lowell 11
defects 11
emerged 11
13th 11
Experi@@ 11
disturb 11
forbid 11
persevering 11
indifference 11
set@@ 11
airplane 11
Impressed 11
insulted 11
Zeus 11
vegetation 11
kind@@ 11
ex 11
bottle 11
Arne 11
ner’s 11
borrow 11
invention 11
in’s 11
Bruno 11
sowed 11
contamination 11
barley 11
thanking 11
Mod@@ 11
unites 11
Thessalonian 11
motor 11
periodically 11
reconcile 11
redeem 11
postpone 11
EVER@@ 11
ordained 11
ram 11
ducing 11
controversy 11
QU@@ 11
dislikes 11
pull 11
Finland 11
valiant 11
Needed 11
entreated 11
Russell’s 11
ete 11
dreadful 11
ner@@ 11
Millennium 11
manifests 11
terribly 11
uncertainty 11
flood@@ 11
greediness 11
Rewarding 11
shortsighted 11
ean 11
pilot 11
sinless 11
misunderstanding 11
Believers 11
soccer 11
Art 11
walled 11
woven 11
kidneys 11
Palestine 11
buying 11
Depending 11
mitting 11
mage 11
ile@@ 11
Hab 11
packa@@ 11
diminished 11
setbacks 11
fondness 11
astic 11
Beroeans 11
knit 11
rearing 11
My@@ 11
Jehoram 11
men’s 11
Nabal’s 11
meager 11
guns 11
sights 11
Ninevites 11
targets 11
respondence 11
gy 11
camel 11
fittingly 11
stunning 11
Rus@@ 11
Kenya 11
stairs 11
inquiry 11
ign@@ 11
eva 11
wol@@ 11
heap 11
Tyndale 11
indic@@ 11
transfer 11
n’t 11
babes 11
Humble 11
sign@@ 11
Sho@@ 11
reserve 11
drunkards 11
Sisera’s 11
á@@ 11
observations 11
ank 11
TR@@ 11
endang@@ 11
sk@@ 11
Str@@ 11
grains 11
brick 11
interfaith 11
Quite 11
chase 11
nes@@ 11
let’s 11
emer@@ 11
arius 11
Fight 11
parchment 11
quote 11
alliance 11
Regrettably 11
lots 11
robbed 11
prophetess 11
frightening 11
stature 11
grated 11
classmate 11
chasing 11
reaped 11
circle 11
admirable 11
Surpris@@ 11
ster 11
speechless 11
inde@@ 11
celibacy 11
roman@@ 11
swim@@ 11
sorcer@@ 11
Kar@@ 11
origin@@ 11
persisted 11
tough 11
Georgia 11
dissatisfied 11
Commenting 11
Lessons 11
outlines 11
bolster 11
Arabic 11
WI@@ 11
mechanical 11
alig@@ 11
apostolic 11
machinations 11
brazen 11
usions 11
projector 11
rene@@ 11
ascend 11
Exactly 11
empowering 11
Question 11
che 11
orches@@ 11
bush 11
lightning 11
wool 11
athle@@ 11
worthily 11
Mephibosheth 11
impressions 11
oured 11
Originally 11
Student 11
timid 11
Sou@@ 11
pronoun@@ 11
Ben@@ 11
dirty 11
Med@@ 11
sians 11
approximately 11
Cope 11
everybody 11
insightful 11
symptoms 11
dir@@ 11
trium@@ 11
crow@@ 11
distinctions 11
tail 11
PE 11
suspicion 11
oming 11
timetable 11
adulterous 11
mbled 11
senseless 11
Daughter 11
ler@@ 11
Abel’s 11
allo@@ 11
cornerstone 11
childless 11
genealo@@ 11
Whereas 11
emer 11
BU@@ 11
luxu@@ 11
Regularly 11
encing 11
cot@@ 11
1935 11
sweeping 11
helpers 11
alerts 11
refusal 11
year’s 11
macy 11
Qualifications 11
tioners 11
emptied 11
taunts 11
bloodguilt 11
sits 11
ver’s 11
hs 11
announcing 11
crowded 11
Hughes 11
Cain’s 11
advertised 11
Drin@@ 11
LAND 11
bal 11
Write 11
you’ve 11
student’s 11
asting 11
Benefits 11
band@@ 11
nati@@ 11
gration 11
compromised 11
embarrassment 11
remedy 11
3,@@ 11
sorely 11
VING 11
wer@@ 11
audiences 11
aboard 11
overtime 11
battle@@ 11
stal@@ 11
POR@@ 11
schedul@@ 11
confis@@ 11
Neg@@ 11
Posi@@ 11
crag 11
00 11
saves 11
mocked 11
strain 11
reviled 11
finance 11
beach 11
reviewed 11
Vatican 11
Claire 11
hurry 11
prejudiced 11
by@@ 11
Ti@@ 11
divorces 11
fuller 11
or’s 11
repaired 11
unrealistic 11
Ocean 11
photo 11
Beginning 11
Constantine 11
pha@@ 11
sue 11
personi@@ 11
128 11
Abimelech 11
framework 11
sel 11
stum@@ 11
Meribah 11
scribe 11
attracts 11
demonstrations 11
Jr 11
refinements 11
o’s 11
Delilah 11
smiled 11
fantasies 11
phones 11
Message 11
nel 11
ury 11
reaping 11
Zeal 11
insurance 11
regional 11
APRIL 11
deteriorate 11
circuits 11
Previously 11
bruise 11
Pen@@ 11
passion@@ 11
whis@@ 11
comparable 11
strongest 11
Examining 11
nonessential 11
fitted 11
ket@@ 11
Johnny 11
alerted 11
entreaty 11
defect 11
sale 11
scienti@@ 11
Goliath’s 11
manifesting 11
compels 11
accidental 11
escaping 11
Hap@@ 11
Fol@@ 11
swearing 11
Amy 11
exam@@ 11
convicted 11
assets 11
fet@@ 11
reportedly 11
mol@@ 11
BELIE@@ 11
outback 11
gment 11
foresaw 11
eagle 11
cke@@ 11
freedoms 11
tening 11
decor@@ 10
deemed 10
Far@@ 10
opportune 10
ind 10
practically 10
jour@@ 10
Gamaliel 10
immigrant 10
hip 10
combine 10
floodwaters 10
gymn@@ 10
dy@@ 10
nighttime 10
baseball 10
admi@@ 10
lending 10
eves 10
employee 10
oriented 10
dense 10
impels 10
108 10
Appreciating 10
maid@@ 10
audio 10
Norway 10
statu@@ 10
Faithfulness 10
erup@@ 10
Freedom 10
Accompl@@ 10
tary 10
Eutychus 10
marijuana 10
ult 10
Trus@@ 10
Fulfill@@ 10
gene@@ 10
coastal 10
1983 10
Namibia 10
glu@@ 10
UT 10
lamps 10
tireless 10
reed 10
choked 10
glass 10
der’s 10
nard 10
terrorist 10
X 10
WH@@ 10
pocket 10
Trin@@ 10
Mar 10
acqua@@ 10
incid@@ 10
Deliver 10
para@@ 10
counterfeit 10
igned 10
acceler@@ 10
Sch@@ 10
mountain@@ 10
perverted 10
night@@ 10
directive 10
actor 10
throngs 10
erful 10
Hell 10
Annas 10
controls 10
birthright 10
On@@ 10
implications 10
isting 10
protest 10
rance 10
viewpoints 10
MIN@@ 10
magnetic 10
COM@@ 10
suitcase 10
resorted 10
tum 10
thres@@ 10
unfor@@ 10
notorious 10
constancy 10
Teach@@ 10
nal 10
Ben 10
evangel@@ 10
accessible 10
fair@@ 10
flir@@ 10
wonderfully 10
realistically 10
esi@@ 10
AUGUST 10
imagin@@ 10
condem@@ 10
decrees 10
Kris@@ 10
Zelophe@@ 10
efly 10
unresponsive 10
swit@@ 10
supplying 10
degrees 10
math 10
Map 10
vener@@ 10
exhausting 10
prophesying 10
itous 10
calculated 10
reprehensible 10
righthearted 10
fortifies 10
managing 10
Sharing 10
consci@@ 10
regime 10
malaria 10
peacemaker 10
trunk 10
Elsebeth 10
ool 10
compassionately 10
ayers 10
fearsome 10
Fru@@ 10
Glori@@ 10
milestone 10
dialect 10
Analy@@ 10
soothe 10
Publishers 10
Recognizing 10
Wel@@ 10
revive 10
Lorraine 10
vindicate 10
apprehensive 10
lid 10
lighten 10
acle 10
agers 10
Start 10
stab@@ 10
makeup 10
inborn 10
risen 10
isolating 10
agency 10
requesting 10
confinement 10
◇ 10
sav@@ 10
pilgrims 10
forsook 10
Ferguson 10
Cir@@ 10
forgo 10
will@@ 10
depraved 10
dawned 10
tooth 10
ana@@ 10
purposeful 10
obs@@ 10
vens 10
fabri@@ 10
5th 10
sens@@ 10
embryo 10
ll@@ 10
subdu@@ 10
JUNE 10
semin@@ 10
syste@@ 10
frozen 10
plane 10
benevolent 10
dove 10
portray 10
stre@@ 10
rocky 10
paraly@@ 10
proceeding 10
sect 10
repu@@ 10
Fam@@ 10
matches 10
EST 10
requiring 10
recoun@@ 10
robes 10
esman 10
Shane 10
Tas@@ 10
pon@@ 10
Missouri 10
lend 10
Adds 10
contemp@@ 10
Steven 10
depri@@ 10
doctrinal 10
embraces 10
Buddhist 10
Attitude 10
faculties 10
Pos@@ 10
impostors 10
qualifies 10
bund@@ 10
navig@@ 10
bapti@@ 10
Laodic@@ 10
adapted 10
ingredient 10
discretion 10
odi@@ 10
accor@@ 10
matched 10
chus 10
Acting 10
15,000 10
countryside 10
epis@@ 10
Gerri 10
cir@@ 10
stand@@ 10
deal@@ 10
Develop 10
3,500 10
hurried 10
wallet 10
SER@@ 10
salary 10
Dathan 10
Abiram 10
usher 10
steadfastness 10
imposed 10
fantasy 10
gec@@ 10
pow@@ 10
Identify 10
nur@@ 10
Perfecter 10
disregarded 10
judgmental 10
chris@@ 10
collective 10
severity 10
tina 10
straigh@@ 10
onally 10
forethought 10
Olives 10
humbling 10
unwittingly 10
GEN@@ 10
obsc@@ 10
industrious 10
desk 10
louder 10
bribe 10
rises 10
Discer@@ 10
cloth 10
knock 10
plunged 10
activ@@ 10
Pursuing 10
ssing 10
Pride 10
passover 10
confession 10
journeys 10
formul@@ 10
unions 10
Adversary 10
Former 10
Congregations 10
bruised 10
wel@@ 10
wr@@ 10
Zealous 10
subur@@ 10
stics 10
Pat@@ 10
suffi@@ 10
CU@@ 10
vocabulary 10
grammar 10
isha@@ 10
ghty 10
Raising 10
AI@@ 10
designation 10
explicit 10
arrows 10
exempli@@ 10
Pioneer 10
number@@ 10
1927 10
civili@@ 10
disciplines 10
Shebna 10
southeast 10
defenseless 10
ó@@ 10
sabbath 10
1924 10
ation’s 10
sows 10
succ@@ 10
welled 10
myrrh 10
urity 10
Jezreel 10
iner 10
owed 10
Estonia 10
reluct@@ 10
traitor 10
conversion 10
Contemporary 10
Warrior 10
ised 10
pearl 10
sun’s 10
Search 10
urring 10
thorns 10
AST 10
separ@@ 10
fal@@ 10
arri@@ 10
Ph@@ 10
ibly 10
selfless 10
boasting 10
deprived 10
favoritism 10
contention 10
conception 10
iture 10
gal@@ 10
143 10
idden 10
conditional 10
debauchery 10
necessity 10
nurtured 10
peril 10
matu@@ 10
delayed 10
stark 10
postponed 10
Philadelphia 10
exemp@@ 10
swayed 10
completing 10
Tend@@ 10
cleans@@ 10
Oly@@ 10
cash 10
scarce 10
delaying 10
blasphemer 10
tern 10
hore 10
symbols 10
slain 10
fing@@ 10
graduate 10
WHILE 10
denying 10
hor 10
woe 10
rud@@ 10
BI@@ 10
Anticip@@ 10
contemplated 10
Caring 10
blis@@ 10
Exemplar 10
dge 10
foretelling 10
remarry 10
Togo 10
Light 10
Dar@@ 10
cils 10
nurturing 10
descend 10
Care@@ 10
givers 10
potent 10
tor 10
system’s 10
drun@@ 10
unbreakable 10
146 10
pushed 10
Center 10
efs 10
secre@@ 10
shipwreck 10
Methuselah 10
Under@@ 10
softened 10
plentiful 10
intri@@ 10
Sac@@ 10
bb@@ 10
bestowed 10
squand@@ 10
Fabian 10
galaxy 10
Chap@@ 10
Increas@@ 10
inevitably 10
itess 10
motor@@ 10
won’t 10
Baasha 10
Humbly 10
Nepal 10
l’s 10
doubted 10
blade 10
device 10
bye 10
los@@ 10
ager 10
Taught 10
replac@@ 10
Jennifer 10
Clothe 10
cursing 10
trustworthiness 10
void 10
pondering 10
Jürgen 10
quotations 10
h’s 10
uity 10
impartially 10
operative 10
apprehension 10
mayor 10
thir@@ 10
1926 10
rust 10
dus@@ 10
Braille 10
erect 10
cooperative 10
ternal 10
ul 10
ignores 10
peri@@ 10
condone 10
intelligence 10
cla@@ 10
hateful 10
distin@@ 10
Bring 10
Saskatchewan 10
luck 10
prop@@ 10
tails 10
forsaking 10
Act 10
SAYS 10
boss 10
encamped 10
half@@ 10
hint 10
musician 10
carved 10
envious 10
barracks 10
Ly@@ 10
ny@@ 10
CHRISTI@@ 10
Paraguay 10
cycles 10
resemble 10
supposedly 10
smiles 10
resented 10
int 10
horizon 10
Effective 10
CTION 10
Hospital 10
unknowingly 10
storehouse 10
nak@@ 10
fect 10
Younger 10
phrases 10
prevents 10
URE 10
superficial 10
Nazar@@ 10
intercourse 10
grabbed 10
aching 10
uterus 10
resent 10
ishly 10
constructing 10
Grateful 10
fulfillments 10
dug 10
adulter@@ 10
clergy@@ 10
holi@@ 10
wounded 10
straightforward 10
Researchers 10
TEACHINGS 10
devi@@ 10
Thursday 10
Commend@@ 10
Javier 10
spot@@ 10
fif@@ 10
enlar@@ 10
calendar 10
PHIL 10
sustains 10
Dor@@ 10
teenth 10
puri@@ 10
simplicity 10
Queensland 10
Adamic 10
supplicate 10
relation 10
starry 10
overshadow 10
aptly 10
presumptuously 10
Riana 10
liberating 10
girlfriend 10
Pon@@ 10
ry@@ 10
prudent 10
preside 10
lications 10
GA@@ 10
oner 10
ouse’s 10
pack 10
extract 10
tability 10
Essential 10
ous@@ 10
vent 10
Plans 10
teri@@ 10
fancy 10
fetched 10
ege 10
cook 10
passive 10
Nov 10
ara 10
researcher 10
itable 10
badger 10
raging 10
safe@@ 10
decei@@ 10
WOULD 10
baptisms 10
unwisely 10
tables 10
erring 10
Regular 10
theft 10
Bi@@ 10
testified 10
displease 10
Tobiah 10
usable 10
timeless 10
repudiate 10
verbal 10
fascinated 10
Anxi@@ 10
vered 10
foregle@@ 10
KNO@@ 10
Godship 10
desperation 10
Rev@@ 10
coin@@ 10
Twen@@ 10
insult 10
Hades 10
infli@@ 10
onic 10
techniques 10
Walking 10
v 10
slave’s 10
fooled 10
erase 10
van 10
essentially 10
beds 10
cheerfully 10
senior 10
Lis@@ 10
Revealed 10
dampen 10
edge 10
Absalom’s 10
forti@@ 10
restri@@ 10
inhabit 10
Pl@@ 10
hoods 10
mary 10
outpouring 10
Secret 10
pledge 10
orting 10
impalement 10
mightiness 10
unwary 10
Countless 10
unevenly 10
tify 10
short@@ 10
readiness 10
confrontation 10
impel 10
Pope 10
profit 10
NA@@ 10
atively 10
plural 10
sis 10
incited 10
insecure 10
w16.0@@ 10
Kyriacos 10
scores 10
tals 10
mise 10
homesickness 10
pho@@ 10
assistant 10
Tem@@ 10
handful 10
pitfalls 10
hosted 10
chat@@ 10
repul@@ 10
surrendered 10
operated 10
Enrollment 10
unchristian 10
sackcloth 10
Standing 10
watered 10
composer 10
bath@@ 10
Appreciation 10
bid 10
Foret@@ 10
Possibly 10
eful 10
Czech 10
Contrary 10
proposed 10
Milan 10
reproached 10
Bus@@ 10
astrology 10
sleeps 10
identical 10
dows 10
scared 10
Sun 10
Caesar’s 10
ita 10
add@@ 10
wander 10
antidote 10
Arimathea 10
readjust 10
Harv@@ 10
grasped 10
doub@@ 10
hib@@ 10
iter 10
corpses 10
Macedon@@ 10
Barabbas 10
Wars 10
unrealities 10
ductive 10
Prince 10
Anything 10
bbed 10
advertise@@ 10
cially 10
cigarette 10
King’s 10
pers 10
godless 10
letup 10
benefici@@ 10
egotism 10
removal 10
bowl 10
enders 10
anim@@ 10
rank 10
inquired 10
Epaphras 10
ripe 10
ab 10
constituted 10
agencies 10
vacations 10
Whole 10
aim@@ 10
Organized 10
vory 10
appe@@ 10
lighting 10
Report 10
voyage 10
kest 10
Pioneering 10
eternally 10
contending 10
Spokesman 10
hesitant 10
Lor@@ 10
pened 10
shu@@ 10
side@@ 10
Sal@@ 10
evid@@ 10
Couples 10
springs 10
righ@@ 10
stimulates 10
Gracious 10
candidates 10
pens 10
doubting 10
Doubtless 10
destined 10
cruelly 10
ordin@@ 10
taunt 10
river@@ 10
reigning 10
implying 10
mari@@ 10
Past 10
indications 10
Send 10
sand@@ 10
concentrated 10
Davidic 10
unforgiving 10
thize 10
Change 10
infallible 10
starving 10
diagnosis 10
compete 9
theast 9
err 9
summary 9
turmoil 9
sprin@@ 9
unfathomable 9
annoyed 9
micro@@ 9
CONSIDER 9
Thor@@ 9
attraction 9
prevailing 9
mannered 9
Persecu@@ 9
cords 9
Buddh@@ 9
exalt 9
hybri@@ 9
wells 9
shattered 9
lue 9
foe 9
Miss 9
Scott 9
schoolteacher 9
114 9
op 9
heating 9
Arti@@ 9
conquer@@ 9
Elkan@@ 9
ret@@ 9
proportion 9
BIBLE’S 9
Gil@@ 9
reliability 9
Mairambubu 9
overheard 9
quarters 9
unwanted 9
8,000 9
inkhorn 9
p.m 9
horrible 9
People’s 9
Federico 9
compli@@ 9
az@@ 9
untrue 9
destitute 9
Medical 9
harvested 9
Stories 9
lively 9
recipe 9
vigilance 9
uncovered 9
lifeless 9
Jairus 9
indulging 9
TRA@@ 9
deviate 9
filed 9
meekest 9
urable 9
adequately 9
ATE 9
battlement 9
ession 9
crum@@ 9
VEN@@ 9
án 9
Comm@@ 9
debate 9
Esau’s 9
shoot 9
abstaining 9
Nebuchadnezzar’s 9
inestimable 9
Persever@@ 9
unsuitable 9
WAR@@ 9
alleviate 9
LL 9
poles 9
RE 9
radical 9
cefully 9
FIN@@ 9
provoc@@ 9
goti@@ 9
occupation 9
Mental 9
preview 9
n’s 9
dation 9
anticipate 9
towers 9
Disci@@ 9
alle@@ 9
Realistically 9
relap@@ 9
restrict 9
fath@@ 9
rehear@@ 9
deter@@ 9
pani@@ 9
Rec@@ 9
emplo@@ 9
bound@@ 9
yer 9
scholarship 9
erod@@ 9
distra@@ 9
efully 9
compe@@ 9
irritated 9
furnished 9
ise@@ 9
aison 9
wavered 9
straits 9
function@@ 9
Uri@@ 9
ographic 9
marvel@@ 9
adness 9
dignify 9
yan 9
efulness 9
frustrate 9
sic@@ 9
turbulent 9
Georgina 9
footnotes 9
Gone 9
REVELATION 9
quarrel@@ 9
pondered 9
ninth 9
deliver@@ 9
encam@@ 9
Jabin 9
Jesse’s 9
PEN@@ 9
GAL 9
tablets 9
engra@@ 9
Treas@@ 9
Office 9
Woman 9
testifies 9
Communism 9
logist 9
hair@@ 9
undeniable 9
mildly 9
Created 9
statutes 9
kering 9
altern@@ 9
journe@@ 9
Mildness 9
maps 9
headstrong 9
ham@@ 9
Refres@@ 9
millennium 9
iller 9
psychi@@ 9
inic 9
envied 9
abhor@@ 9
2,7@@ 9
Hin@@ 9
Hinnom 9
orful 9
Social 9
tex@@ 9
bitumen 9
liqu@@ 9
departure 9
breakup 9
Hold 9
Pu@@ 9
Cleveland 9
rabbinic 9
plowshares 9
depar@@ 9
Bit@@ 9
sula 9
Syntyche 9
sensi@@ 9
430 9
Appropriately 9
caregiving 9
verbs 9
unending 9
Authority 9
mote 9
Adri@@ 9
provoke 9
orchestra 9
sprang 9
labors 9
nment 9
bet@@ 9
ack@@ 9
suring 9
ext@@ 9
navi@@ 9
ilies 9
Needless 9
Sand@@ 9
ply 9
eled 9
offenses 9
attend@@ 9
PUBLI@@ 9
theology 9
Aug 9
phoned 9
Elias 9
coffee 9
thetically 9
slu@@ 9
Carefully 9
cled 9
Ponder 9
Displaying 9
Euodia 9
ester 9
boarding 9
AB@@ 9
Expressing 9
shadows 9
depres@@ 9
Q@@ 9
SH@@ 9
provinces 9
desir@@ 9
I’d 9
aste 9
fatigue 9
Stri@@ 9
Belong 9
wind@@ 9
immeas@@ 9
requ@@ 9
insolent 9
MANS 9
array 9
exclaim 9
punctuality 9
pairs 9
Lou@@ 9
ville 9
emper@@ 9
infirmity 9
ee 9
Lot’s 9
dges 9
publi@@ 9
reproaching 9
Deaden 9
Details 9
relentlessly 9
praisal 9
folk 9
download 9
144 9
bowed 9
Valentina 9
Gar@@ 9
ya 9
reprimand 9
pearls 9
affli@@ 9
melted 9
pical 9
sank 9
Sacrifi@@ 9
Pers@@ 9
142 9
len 9
run@@ 9
Hate 9
phenomen@@ 9
jewelry 9
Firm 9
itted 9
dissen@@ 9
Gives 9
Going 9
predetermined 9
holes 9
gap 9
graduates 9
Marilou 9
Consideration 9
interpreter 9
adorned 9
Egypt’s 9
moder@@ 9
kindled 9
sums 9
Burrus 9
idolaters 9
Bombay 9
fering 9
incar@@ 9
Athen@@ 9
ians 9
caravan 9
Nile 9
Lois 9
interviews 9
bibli@@ 9
JU@@ 9
dispatched 9
educate 9
vas@@ 9
constitutes 9
friend@@ 9
mathe@@ 9
considerably 9
hesitation 9
carpen@@ 9
enlightenment 9
pressions 9
perception 9
Brazili@@ 9
ior 9
originated 9
Irina 9
inadvertently 9
Carolina 9
Appendix 9
pale 9
chairman 9
Giuseppe 9
tumor 9
Foreign 9
unfolded 9
appearing 9
dif@@ 9
IA 9
Him@@ 9
oks 9
incorpor@@ 9
Planning 9
Communication 9
assessment 9
signals 9
Bethzatha 9
affluent 9
ind@@ 9
accidentally 9
circulated 9
kissed 9
Aware 9
Joachim 9
Offer 9
embittered 9
scrutini@@ 9
pment 9
afflict 9
isition 9
wit@@ 9
craft 9
principally 9
ancestor 9
11@@ 9
get@@ 9
communion 9
incess 9
Uncle 9
sighing 9
Gold 9
perceiving 9
weigh@@ 9
13@@ 9
concubines 9
Eng@@ 9
onlike 9
Visit 9
Addressing 9
dishonoring 9
cements 9
emphasizing 9
Wonderful 9
nutritious 9
selection 9
hygi@@ 9
ken@@ 9
bad@@ 9
renew 9
orium 9
continu@@ 9
instig@@ 9
liken 9
tat@@ 9
conta@@ 9
sailing 9
ano@@ 9
inability 9
1975 9
tip 9
Apocryphal 9
orable 9
dogma 9
mness 9
flu 9
predictable 9
Jerome 9
stance 9
stern 9
Beroea 9
covers 9
depths 9
onary 9
careless 9
Thorough 9
ues 9
uncommon 9
Magdalene 9
Rachel’s 9
Acqu@@ 9
wrest@@ 9
stren@@ 9
researched 9
Jude@@ 9
impulse 9
mics 9
gover@@ 9
sunlight 9
ambass@@ 9
boots 9
chore 9
pecu@@ 9
districts 9
Temple 9
fragile 9
slightest 9
library 9
validated 9
brave 9
recording 9
ave 9
unavoid@@ 9
yl 9
signing 9
atop 9
frivol@@ 9
reap@@ 9
pile 9
blindly 9
hadn’t 9
borrowed 9
conforming 9
persecutor 9
forty 9
Simple 9
tantamount 9
polit@@ 9
lambs 9
inciting 9
inordinate 9
141 9
tossed 9
row@@ 9
parenthood 9
teacher’s 9
Boldness 9
completion 9
BO@@ 9
toil 9
nomin@@ 9
kid@@ 9
marched 9
textbook 9
reception 9
crite 9
Denmark 9
MB@@ 9
hallmark 9
overturn 9
integr@@ 9
undesirable 9
Pow@@ 9
horror 9
discrimin@@ 9
ases 9
infinite 9
objectives 9
Timekeeper 9
enga@@ 9
institution 9
Obedient 9
inval@@ 9
clima@@ 9
longs 9
ickness 9
forbids 9
Hil@@ 9
grat@@ 9
dia 9
ligh@@ 9
eth@@ 9
ine’s 9
Fav@@ 9
bes@@ 9
tow 9
subsequently 9
gh 9
factory 9
characterizes 9
overflow 9
villagers 9
Bene@@ 9
Inher@@ 9
ongs 9
Wallen 9
kids 9
smo@@ 9
cc@@ 9
Ari@@ 9
duration 9
itate 9
disloyalty 9
terrorism 9
superabundantly 9
tales 9
ree 9
tol@@ 9
at’s 9
pron@@ 9
bese@@ 9
Rejoicing 9
Harmony 9
Nep@@ 9
belt 9
common@@ 9
occurrences 9
Dignity 9
Lei@@ 9
collap@@ 9
Distra@@ 9
orphans 9
Wickedness 9
laughed 9
Ren@@ 9
inmates 9
blasphemy 9
Haggai 9
concrete 9
justly 9
outnumbered 9
suffici@@ 9
copes 9
Victoria 9
locks 9
transf@@ 9
nutrition 9
Ram@@ 9
facial 9
funerals 9
catastrophe 9
stopping 9
xity 9
Feb 9
Value 9
unrestrained 9
gia 9
tificate 9
colum@@ 9
secrets 9
lords 9
massac@@ 9
Archaeology 9
hurting 9
Nicol@@ 9
urred 9
ceremonies 9
taneous 9
ious 9
decently 9
Done 9
rele@@ 9
Myth 9
stock 9
anticipation 9
blin@@ 9
continuous 9
iles 9
Dif@@ 9
Circum@@ 9
stances 9
chor@@ 9
1986 9
cleared 9
conveying 9
2017 9
Yu@@ 9
rightfully 9
Jon@@ 9
agreements 9
VES 9
journeyed 9
propitiatory 9
blemish 9
cris@@ 9
thank@@ 9
network 9
ITY 9
Various 9
weightier 9
gem 9
Shech@@ 9
clarity 9
Itali@@ 9
Tiberi@@ 9
magnify 9
insulting 9
Apr 9
complacent 9
disrup@@ 9
Addi@@ 9
Zambia 9
melody 9
Angelo 9
though@@ 9
satisfies 9
exceed 9
Helps 9
drifting 9
Sanderson 9
omb@@ 9
ported 9
LORD 9
ises 9
dens 9
purple 9
mak@@ 9
clubs 9
interviewed 9
Dani@@ 9
Origen 9
Individu@@ 9
Interpre@@ 9
Either 9
Verses 9
Olga 9
we’re 9
laughter 9
emp@@ 9
Friendship 9
Mic 9
ority 9
Au@@ 9
artists 9
prosp@@ 9
oughly 9
dye 9
HIS 9
inconveniences 9
credited 9
scrutiny 9
marketplace 9
equips 9
adorn 9
barr@@ 9
parenting 9
piti@@ 9
suspicious 9
bleak 9
prun@@ 9
mpi@@ 9
donor 9
amy 9
prevails 9
posted 9
disrupted 9
owners 9
mated 9
thri@@ 9
Sex 9
shortage 9
Damascus 9
Saulo 9
mattered 9
provocation 9
excess 9
1928 9
supre@@ 9
incess@@ 9
Katherine 9
newlyweds 9
LIVE 9
sw@@ 9
Events 9
Advancement 9
Frost 9
net 9
administer 9
Da@@ 9
justification 9
asted 9
Army 9
cus 9
neglig@@ 9
Sisters 9
headedness 9
pension 9
Reformation 9
Motivated 9
mour@@ 9
Affe@@ 9
ogra@@ 9
Helper 9
dition 9
Direc@@ 9
bulb 9
tled 9
Pal@@ 9
dict 9
nicely 9
sicknesses 9
torr@@ 9
Material 9
Step@@ 9
clim@@ 9
preconceived 9
gracefully 9
closing 9
Putting 9
Henschel 9
noma@@ 9
mix@@ 9
daughter’s 9
w17.0@@ 9
inward 9
denial 9
show@@ 9
stunned 9
executing 9
excluded 9
mable 9
2018 9
logs 9
Coming 9
thology 9
Simpli@@ 9
missiles 9
eunuchs 9
sailed 9
ington 9
Jimmy 9
Vic@@ 9
astounding 9
overies 9
chastity 9
avi@@ 9
Safe 9
invigor@@ 9
worsening 9
1923 9
policeman 9
forceful 9
ome@@ 9
sway 9
airplanes 9
tribute 9
Makes 9
Joe 9
unquestionably 9
inte@@ 9
condon@@ 9
Arabia 9
Overseers 9
Occasionally 9
beings 9
yn 9
lent 9
refining 9
Discernment 9
ossuary 9
unf@@ 9
Rudolf 9
Ann 9
declined 9
Pol@@ 9
Vigil@@ 9
etus 9
cures 9
sings 9
crippled 9
ownership 9
cry@@ 9
procrastin@@ 9
friend’s 9
Kishon 9
human@@ 9
1967 9
duct 9
ek 9
hormone 9
1959 9
decreas@@ 9
UD@@ 9
generate 9
pardoned 9
ouse 9
ges@@ 9
defiled 9
mission@@ 9
confir@@ 9
incomprehensible 9
offends 9
alertness 9
banquet 9
otal 9
Yielding 9
harvesttime 9
nate 9
calculate 9
Colorado 9
plied 9
profession@@ 9
tranquillity 9
Archaeologists 9
stubbornly 9
management 9
flexibility 9
lan@@ 9
Ka@@ 9
consolingly 9
Abund@@ 9
lottery 9
gic 9
Hop@@ 9
dozen 9
illustr@@ 9
Strengthen@@ 9
businessman 9
medit@@ 9
Adolfo 9
where@@ 9
slipped 9
dead@@ 9
Num@@ 9
backed 9
refuses 9
Pilat@@ 9
Ray 9
indignant 9
astr@@ 9
boxing 9
Syrians 9
noon 9
exploited 9
IC@@ 9
goers 9
GRE@@ 9
Hanani 9
vibr@@ 9
oth@@ 9
licitly 9
Kyrgyz 9
Wendy 9
pered 9
rus@@ 9
Siberia 9
Joy@@ 9
figh@@ 9
extermination 9
Location 9
foresha@@ 9
Cro@@ 9
GOOD 9
extremity 9
cating 9
progeny 9
explosi@@ 9
horned 9
prin@@ 9
Paying 9
varying 9
genoci@@ 9
tum@@ 9
prohibition 9
oths 9
utterly 9
Leo 9
observer 9
Changed 9
basket 9
Ahaz@@ 9
wl 9
varies 9
affectionate 9
insecurity 9
enroll 9
GES 9
Michigan 9
priest@@ 9
majesty 9
VERB@@ 9
Hospitality 9
skep@@ 9
centuri@@ 9
bearer 9
Sarai 9
covet@@ 9
defensive 9
charitable 9
census 9
MINIS@@ 9
EAR@@ 9
parchments 8
reg@@ 8
Dig@@ 8
supervision 8
Barry 8
poisoned 8
Luis 8
oneous 8
Masor@@ 8
Niger 8
solitude 8
toys 8
Dew 8
quarter 8
raged 8
paired 8
fellowshipp@@ 8
ati 8
yester@@ 8
otism 8
Dominican 8
st’s 8
spice 8
enting 8
outra@@ 8
simpl@@ 8
tracing 8
worksheet 8
establ@@ 8
seekers 8
specialist 8
secretary’s 8
Jodi 8
omic 8
risking 8
sable 8
liance 8
pel 8
Laban 8
personnel 8
parallels 8
aler 8
Caes@@ 8
versely 8
Hall@@ 8
elu@@ 8
VER 8
stat@@ 8
Af@@ 8
bab@@ 8
desc@@ 8
stays 8
attra@@ 8
pris@@ 8
Vi@@ 8
estry 8
reigns 8
proven 8
monarch 8
Ul@@ 8
stalks 8
shor@@ 8
thick 8
rou@@ 8
Frank 8
Han@@ 8
cock 8
FOR@@ 8
rela@@ 8
pervasive 8
mages 8
unwavering 8
Simone 8
Recogni@@ 8
Jour@@ 8
triggered 8
photographs 8
ulti@@ 8
expe@@ 8
Nap@@ 8
stoned 8
Jersey 8
sore 8
unleashed 8
introdu@@ 8
testimonies 8
calam@@ 8
dened 8
eag@@ 8
slight 8
refreshes 8
unpopular 8
Kathleen 8
gn@@ 8
avail@@ 8
Jassa 8
OD@@ 8
outsi@@ 8
Lebanon 8
tives 8
occur@@ 8
quench 8
sunamis 8
waged 8
Ishmael 8
Amish 8
Prophe@@ 8
verify 8
pup@@ 8
assu@@ 8
twork 8
League 8
Tit@@ 8
ulted 8
tle@@ 8
pige@@ 8
dreds 8
sequence 8
temp@@ 8
gin@@ 8
refle@@ 8
Religi@@ 8
usness 8
Antoine 8
Succ@@ 8
urb@@ 8
grud@@ 8
lian 8
Propaganda 8
shrink 8
prosecu@@ 8
physicians 8
wrec@@ 8
institu@@ 8
Skin 8
gradu@@ 8
1932 8
conveni@@ 8
ingu@@ 8
Midian 8
undane 8
chas@@ 8
ZE@@ 8
ranging 8
Sig@@ 8
unkindly 8
quieting 8
tyrannical 8
lling 8
speakable 8
sojour@@ 8
mov@@ 8
strate@@ 8
CD 8
slaugh@@ 8
persistently 8
wned 8
Information 8
perfe@@ 8
Will@@ 8
intimid@@ 8
abe@@ 8
catastro@@ 8
itu@@ 8
heav@@ 8
Tacitus 8
compla@@ 8
genu@@ 8
roof@@ 8
Gloria 8
logy 8
Aristar@@ 8
suspended 8
gaz@@ 8
limb@@ 8
ballet 8
Shinar 8
warmed 8
White 8
Akiko 8
oudly 8
Anita 8
arrog@@ 8
nah 8
inger 8
ton@@ 8
facul@@ 8
ONS 8
pursu@@ 8
frequ@@ 8
limit@@ 8
modi@@ 8
substitute 8
pred@@ 8
Bildad 8
surpassed 8
fort 8
ail 8
sibilities 8
lene 8
nicotine 8
uma@@ 8
arthritis 8
dest 8
Silistra 8
tw@@ 8
60@@ 8
Francisco 8
ayed 8
smoldering 8
Mozambique 8
tici@@ 8
165 8
saturated 8
unsteady 8
vac@@ 8
mean@@ 8
FRE@@ 8
omer 8
thal 8
ede 8
blind@@ 8
piercing 8
Mos@@ 8
theastern 8
picks 8
consider@@ 8
Jan@@ 8
prideful 8
now@@ 8
nutri@@ 8
ft@@ 8
revolved 8
ambi@@ 8
ming@@ 8
fores@@ 8
vingly 8
vernacular 8
Too 8
traversed 8
recommendation 8
relentless 8
cation 8
aby@@ 8
trator 8
unit 8
Herbert 8
portable 8
rific 8
REG@@ 8
sadly 8
ALI@@ 8
compul@@ 8
sory 8
sanity 8
Belfast 8
450 8
Tuvalu 8
you@@ 8
onment 8
ona 8
mly 8
archite@@ 8
ctural 8
Dedic@@ 8
successes 8
bably 8
suited 8
Mag@@ 8
aces 8
USSR 8
taxerxes 8
Sheila 8
musi@@ 8
om’s 8
reverential 8
imag@@ 8
trol 8
traveler 8
Museum 8
Gabri@@ 8
Gad 8
KINGDOM 8
eving 8
moti@@ 8
adolesc@@ 8
serv@@ 8
uously 8
Oly 8
sap 8
substituting 8
calcul@@ 8
typically 8
repents 8
sickbed 8
physic@@ 8
tory 8
sigh 8
sever@@ 8
watchman 8
fel@@ 8
Malta 8
windows 8
bir@@ 8
Guinea 8
ume 8
seas 8
Pati@@ 8
thwart 8
pits 8
Milky 8
Examin@@ 8
Gregorio 8
stubbornness 8
TEN@@ 8
23@@ 8
struc@@ 8
respectable 8
smoked 8
Kat@@ 8
Oriental 8
SEP@@ 8
histori@@ 8
batt@@ 8
impul@@ 8
thes 8
robbing 8
surround 8
Thir@@ 8
reviling 8
Ahi@@ 8
Melita 8
sweep 8
lead@@ 8
spouses 8
distur@@ 8
proceeds 8
toler@@ 8
Rio 8
Janeiro 8
prospe@@ 8
Eliashib 8
oro 8
similarity 8
Por@@ 8
Stéphane 8
Sab@@ 8
bou@@ 8
Advan@@ 8
asc@@ 8
tually 8
residing 8
recite 8
Concer@@ 8
yearly 8
Catalan 8
renderings 8
uplifting 8
tho@@ 8
elo@@ 8
immi@@ 8
och@@ 8
Miguel 8
ratives 8
lled 8
rs 8
fty 8
lor 8
q@@ 8
Ky@@ 8
unparalleled 8
surd 8
oles@@ 8
restra@@ 8
suit@@ 8
Nimrod 8
los 8
Fr@@ 8
IST@@ 8
rivalry 8
instru@@ 8
retali@@ 8
quen@@ 8
shedding 8
streams 8
diagno@@ 8
pse 8
Marcel@@ 8
ite@@ 8
outwardly 8
tres@@ 8
ruption 8
shake 8
undermined 8
tise 8
cin@@ 8
Dennis 8
teful 8
eunu@@ 8
essly 8
pan 8
bar 8
essor 8
Carmen 8
483 8
Dothan 8
di 8
judi@@ 8
thoughtless 8
◆ 8
Attention 8
Scotland 8
1916 8
scription 8
wheel@@ 8
cler@@ 8
Mean@@ 8
twin@@ 8
Model 8
eptive 8
verbally 8
uniform 8
Americ@@ 8
skin@@ 8
tutor 8
sunrise 8
Beer 8
stamp 8
sued 8
rative 8
gas@@ 8
carbon 8
volunteering 8
proposal 8
pronouncements 8
pollution 8
Micronesia 8
sen 8
1972 8
wavering 8
Doub@@ 8
wield 8
stal 8
sac@@ 8
wither 8
disgus@@ 8
sail@@ 8
mysteri@@ 8
1964 8
venti@@ 8
vey 8
Steps 8
partnership 8
udes 8
Increase 8
researching 8
Happ@@ 8
wardly 8
registration 8
overse@@ 8
Caribbean 8
hap@@ 8
allow@@ 8
reverent 8
ani 8
sco@@ 8
cho 8
infer@@ 8
polygamy 8
variation 8
rooftop 8
withdrawn 8
chasti@@ 8
gious 8
Miz@@ 8
unning 8
custo@@ 8
Abner 8
Raúl 8
bon 8
transi@@ 8
138 8
smiling 8
portrait 8
Sancti@@ 8
132 8
anis@@ 8
Else@@ 8
pupil 8
gin 8
immer@@ 8
skeptics 8
Ilaria 8
CHO@@ 8
lication 8
Mom@@ 8
Nancy 8
sup@@ 8
Choong 8
Keon 8
Ag@@ 8
Pryce 8
tter 8
fications 8
Dra@@ 8
wal@@ 8
sured 8
stalk 8
THRE@@ 8
ourth 8
slowed 8
1915 8
Eliab 8
shaking 8
zar@@ 8
resistance 8
sheds 8
rily 8
Hmm 8
circus 8
cele@@ 8
dic 8
optimistic 8
pasture 8
Ahith@@ 8
wart 8
overconfident 8
dam 8
posing 8
unrepentantly 8
angle 8
Ark 8
ni 8
intel@@ 8
idi@@ 8
powerfully 8
ffed 8
watering 8
Invol@@ 8
undered 8
settings 8
Codex 8
waterless 8
Columbus 8
profess 8
rainy 8
Music 8
finan@@ 8
receiver 8
eye@@ 8
servitude 8
% 8
resourceful 8
signify 8
TIT@@ 8
solic@@ 8
tioning 8
technique 8
126 8
recognizable 8
unlimited 8
Sheba 8
unemployment 8
stakes 8
Cestius 8
Gallus 8
bet 8
sung 8
zon@@ 8
ota 8
References 8
del 8
prostitution 8
laugh@@ 8
ENT@@ 8
RAN@@ 8
wre@@ 8
san 8
Toñi 8
spreads 8
Lake 8
urg@@ 8
enter@@ 8
ldn’t 8
oversees 8
Fu@@ 8
unhealthy 8
NO@@ 8
mud@@ 8
unimagin@@ 8
solu@@ 8
rainstorm 8
posts 8
stems 8
shifting 8
adver@@ 8
wadays 8
warriors 8
spell 8
Delphine 8
sovereign 8
Trou@@ 8
sch@@ 8
148 8
marches 8
smugg@@ 8
solar 8
talented 8
prescribed 8
rit@@ 8
vil 8
Yor@@ 8
Belgium 8
courag@@ 8
oni 8
lined 8
offset 8
appreci@@ 8
a·gaʹpe 8
orit@@ 8
Irenaeus 8
185,000 8
Rob@@ 8
Philip@@ 8
Claus 8
guarded 8
knowled@@ 8
236 8
Bethel@@ 8
sounding 8
amin@@ 8
redness 8
knowingly 8
umed 8
aning 8
seventy 8
wice 8
thunder 8
clear@@ 8
Grandpa 8
thearted 8
teness 8
concl@@ 8
tral 8
smen 8
utterances 8
tenants 8
ticism 8
vague 8
strives 8
mok@@ 8
southwest 8
varieties 8
Toronto 8
Alive 8
cheese 8
pardon 8
Barzillai 8
ès 8
na 8
hom@@ 8
seizure 8
quitting 8
Wan@@ 8
Christ@@ 8
egal 7
Jus@@ 7
sphere 7
ji 7
obser@@ 7
Tor@@ 7
oppos@@ 7
Oxford 7
Burkina 7
Mic@@ 7
plac@@ 7
Rein@@ 7
Thompson 7
Flavius 7
lim 7
Marelius 7
condu@@ 7
Declaration 7
CAR@@ 7
sear@@ 7
Broadcasting 7
MON@@ 7
Pier@@ 7
fic 7
deteri@@ 7
Claude 7
.2 7
aked 7
tak@@ 7
missive 7
raid 7
Chang@@ 7
Stand@@ 7
atira 7
promo@@ 7
lookers 7
best@@ 7
accur@@ 7
twen@@ 7
Ron 7
pilgri@@ 7
anni@@ 7
oor 7
Bardet 7
neighbor@@ 7
adh@@ 7
earing 7
Naples 7
rap@@ 7
ancing 7
Den@@ 7
Billie 7
chal 7
AR 7
instrum@@ 7
Ven@@ 7
enrich@@ 7
Protest@@ 7
ening 7
Heritage 7
ference 7
May@@ 7
Suiter 7
ja 7
Use@@ 7
amb@@ 7
kno@@ 7
tian 7
Nain 7
presumptuo@@ 7
Vol@@ 7
umes 7
rial 7
abled 7
ologi@@ 7
Lefèv@@ 7
omb 7
ony@@ 7
1881 7
Kazuhiro 7
uat@@ 7
Pray@@ 7
Ali@@ 7
Marco 7
ron 7
si 7
hero@@ 7
warming 7
Fel@@ 7
Sofia 7
conv@@ 7
Bulletin 7
onies 7
Hebron 7
dol@@ 7
tlessly 7
ira 7
Willie 7
org@@ 7
Iz@@ 7
TT@@ 7
cient 7
260 7
pardon@@ 7
Gavin 7
Secre@@ 7
eller 7
evol@@ 7
Hur 7
.m 7
1968 7
compani@@ 7
Babylonia 7
commit@@ 7
ustration 7
rai@@ 7
murm@@ 7
Ko@@ 7
d’@@ 7
vier 7
Medicine 7
aband@@ 7
soldi@@ 7
threat@@ 7
deser@@ 7
independ@@ 7
countr@@ 7
Am@@ 7
esty 7
atis@@ 7
Amsterdam 7
unle@@ 7
teen@@ 7
Plato 7
ois 7
lew@@ 7
Joyce 7
Gibe@@ 7
Gide@@ 7
Plac@@ 7
TIC@@ 7
Turin 7
ign 7
ousy 7
Sir 7
Alexandra 7
Langu@@ 7
Nadab 7
Abihu 7
boun@@ 7
00,000 7
preser@@ 7
birth@@ 7
therap@@ 7
Paula 7
Pax 7
Jes@@ 7
clou@@ 7
nesses 7
achable 7
Ray@@ 7
LEM 7
Margarita 7
kins 7
trade@@ 7
Ronald 7
desp@@ 7
Giant 7
cham@@ 7
substantiation 7
le’s 7
rang 7
Trop@@ 7
sted 7
versity 7
To@@ 7
jian 7
transpor@@ 7
Lana 7
licate 7
Tokmok 7
horse@@ 7
ú@@ 7
tae 7
kwon 7
Comple@@ 7
Sun@@ 7
ç@@ 7
Ts@@ 7
chs 7
then@@ 7
Consolation 7
vie@@ 7
Vanessa 7
bare 7
fe’s 7
Big 7
design@@ 7
TE 7
esight 7
thic 7
alcoho@@ 7
acade@@ 7
Streng@@ 7
pper 7
Jerobo@@ 7
specially 7
tlements 7
Aili 7
lio 7
uo@@ 7
transgres@@ 7
prud@@ 7
Bon@@ 7
Laurie 7
dings 7
Elaine 7
rd 7
accompani@@ 7
saf@@ 7
improv@@ 7
alled 7
PHI@@ 7
HER 7
conceived 7
ä@@ 7
gis@@ 7
clopedia 7
Cristina 7
Supot 7
Scou@@ 7
look@@ 7
Wed@@ 7
twis@@ 7
Battle 7
attemp@@ 7
Valen@@ 7
quet 7
Lakselv 7
balsam 7
sex@@ 7
Decl@@ 7
hul@@ 7
thqu@@ 7
Mem@@ 7
Eritrea 7
rout@@ 7
ressful 7
tty 7
hil@@ 7
schol@@ 7
fres@@ 7
abor@@ 7
1910 7
9,000 7
IUD 7
fro@@ 7
Christopher 7
none@@ 7
ape@@ 7
figura@@ 7
Pedro 7
prote@@ 7
tality 7
Patrick 7
ón 7
ster@@ 7
kin 7
sia 7
ich 7
reinst@@ 7
questionably 7
Jehoiada 7
Ki@@ 7
Zer@@ 7
odd 7
ras 7
2016 7
itude 7
0 7
Swahili 7
ope 7
ody 7
AG@@ 7
homosexu@@ 7
Pin@@ 7
Josué 7
unction 7
pati@@ 7
Tokyo 7
DOM 7
Maya 7
ö@@ 7
lig@@ 7
Deli@@ 7
NI@@ 7
interven@@ 7
201 7
Flavia 7
dimin@@ 7
rebelli@@ 7
Friend@@ 7
Regre@@ 7
occasi@@ 7
contamin@@ 7
mou@@ 7
Prin@@ 7
commer@@ 7
Continu@@ 7
Luca 7
pa·rou·siʹa 7
ella 7
ament 7
illing 7
bac@@ 7
Herd 7
concentr@@ 7
certain@@ 7
Rewar@@ 7
ins@@ 7
inting 7
Ham@@ 7
Loy@@ 7
Dal@@ 7
reproduce 7
Games 7
Vietnam 7
Manners 7
Customs 7
Exerc@@ 7
mel 7
resid@@ 7
ISAIAH 7
Washington 7
Alexandria 7
yi@@ 7
Hung@@ 7
oblig@@ 7
DVD 7
NASA 7
Olaf 7
aped 7
Ju@@ 7
Mani@@ 7
persis@@ 7
Pharao@@ 7
Mystery 7
Sukhi 7
jection 7
bub@@ 7
du 7
part@@ 7
port@@ 7
www.watchtower.org 7
eved 7
Roberto 7
inju@@ 7
homes@@ 7
tings 7
stin@@ 7
Jer@@ 7
dim 7
ria 7
Pan@@ 7
BRO@@ 7
OD 7
besi@@ 7
moment@@ 7
wea@@ 7
lad 7
ferv@@ 7
kinson 7
simil@@ 7
itness@@ 7
sa 7
ophel 7
espe@@ 7
tax@@ 7
ayal 7
ject 7
faith@@ 7
Turku 7
ESC@@ 7
SAL@@ 7
exhor@@ 7
ense 7
respe@@ 7
cky 7
gent@@ 7
dee 7
Spr@@ 7
Zeal@@ 7
ti 7
togra@@ 7
conscienti@@ 7
Storrs 7
Say@@ 7
Ribeiro 7
peti@@ 7
cial 7
Ken 7
elding 7
Sex@@ 7
ashed 7
affir@@ 7
Heli 7
boar@@ 7
wed@@ 7
undone 7
worthiness 7
Bangladesh 7
tribu@@ 7
Kent 7
And@@ 7
understand@@ 7
190 7
cate 7
chae@@ 7
Street 7
Vir@@ 7
Graz 7
ér@@ 7
YO@@ 7
tra 7
tles 7
immor@@ 7
Appreci@@ 7
Hungary 7
mber 7
Challen@@ 7
Lily 7
EP@@ 7
III 7
two@@ 7
fear@@ 7
Ramon 7
ale@@ 7
ices 7
discer@@ 7
iter@@ 7
imed 7
impos@@ 7
preach@@ 7
Harold 7
osis 7
Elsie 7
Ene@@ 7
nation@@ 7
dal@@ 7
ital 7
oted 7
Testimonium 7
clamation 7
quic@@ 7
Nicaragua 7
responsive 7
bog@@ 7
Low@@ 7
greed@@ 7
Cathy 7
INGS 7
Lilongwe 7
1,200 7
mati@@ 7
admira@@ 7
oma@@ 7
Michel 7
anti 7
excep@@ 7
materi@@ 7
consul@@ 7
obli@@ 7
program@@ 7
Revised 7
refres@@ 7
kon@@ 7
ech@@ 7
Carol@@ 7
DON 7
q 7
Stel@@ 7
Hand@@ 7
market@@ 7
versed 7
Mul@@ 7
tenberg 7
impl@@ 7
Quali@@ 7
good@@ 7
Victor 7
constitu@@ 7
Patri@@ 7
lic 7
Saint 7
foret@@ 7
vehi@@ 7
park 7
succe@@ 7
Cesar 7
Edu@@ 7
Sin@@ 7
Il@@ 7
SPI@@ 7
prostitu@@ 7
poll 7
zon 7
ub@@ 7
Lost 7
ral@@ 7
Waldo 7
lar@@ 7
Jackson 7
Charitable 7
Victorine 7
fined 7
kis@@ 7
pus 6
Er@@ 6
Nahum 6
embra@@ 6
Sobhuza 6
nal@@ 6
apost@@ 6
erly 6
600,000 6
Costa 6
shepher@@ 6
1908 6
Occ@@ 6
Dutch 6
▸ 6
Kesia 6
Esa 6
Arabi@@ 6
bli@@ 6
diam@@ 6
wom@@ 6
fered 6
Scienti@@ 6
Maureen 6
EM@@ 6
GO@@ 6
jeal@@ 6
Sas@@ 6
pas 6
Develop@@ 6
Tagalog 6
rema@@ 6
ray 6
unned 6
osity 6
College 6
sper@@ 6
wel 6
Zebulun 6
tali 6
pregn@@ 6
ware 6
patriar@@ 6
Was@@ 6
year@@ 6
Chile 6
Pavel 6
Svetlana 6
cism 6
Guy 6
ula 6
obe@@ 6
Grant 6
trage@@ 6
revi@@ 6
dressing 6
dden 6
enza 6
ALS 6
Lansing 6
tend@@ 6
pouring 6
expres@@ 6
selfishly 6
Fail@@ 6
yles 6
rhe@@ 6
abo@@ 6
sigh@@ 6
sils 6
Magdalena 6
Yury 6
JE@@ 6
helpl@@ 6
Blaise 6
Who@@ 6
eously 6
Hiroo 6
cratic 6
Hindu 6
& 6
indulg@@ 6
Sime 6
Tabitha 6
candid@@ 6
Lösch 6
Kitty 6
Adria 6
mous 6
lot@@ 6
Bruce 6
kung 6
fu 6
THI@@ 6
begin@@ 6
watch@@ 6
appla@@ 6
Marc 6
him@@ 6
licated 6
SEPTE@@ 6
earn@@ 6
LAN@@ 6
neutr@@ 6
tune 6
compos@@ 6
JER@@ 6
fom@@ 6
His@@ 6
Apun 6
phonographs 6
fashi@@ 6
memor@@ 6
Max 6
vet@@ 6
gossi@@ 6
wick 6
Az@@ 6
concei@@ 6
Pra@@ 6
Reference 6
lou@@ 6
versi@@ 6
WE@@ 6
Rwanda 6
Alberto 6
etz@@ 6
acco 6
soli@@ 6
13,@@ 6
ania 6
Cuba 6
emy 6
Shunem 6
Knut 6
Rusk 6
BB@@ 6
copy@@ 6
expect@@ 6
constru@@ 6
Lap@@ 6
enters 6
ishness 6
8,000,000 6
Lim@@ 6
hment 6
WO 6
persecu@@ 6
app 6
Jab@@ 6
esh 6
veri@@ 6
Florence 6
chr@@ 6
invis@@ 6
ticle 6
nd@@ 6
Elke 6
aca 6
PU@@ 6
anne 6
Hag 6
bia 6
crisy 6
Atlantic 6
hero 6
Tru@@ 6
virgin@@ 6
Zealand 6
Wo@@ 6
Bas@@ 6
esley 6
erfully 6
embo@@ 6
gru@@ 6
foreseen 6
inti@@ 6
40,000 6
mor 6
August@@ 6
1973 6
dou@@ 6
Balykchy 6
ade@@ 6
ount 6
satisfac@@ 6
Qui@@ 6
dam@@ 6
versal 6
Madrid 6
lod@@ 6
Fil@@ 6
Bronx 6
Tulun 6
Year@@ 6
ador@@ 6
vic 6
pra@@ 6
pleas@@ 6
suf@@ 6
ides 6
homose@@ 6
special@@ 6
Theological 6
stop@@ 6
aden 6
nagogu@@ 6
Armenia 6
angs 6
legiti@@ 6
griev@@ 6
Sul@@ 6
intellec@@ 6
ualize 6
fundam@@ 6
entally 6
Cla@@ 6
stan@@ 6
Sharon 6
WO@@ 6
Writ@@ 6
Thi@@ 6
asy 6
omi@@ 6
tablet 6
Meth@@ 6
else@@ 6
Sri 6
Lanka 6
Righ@@ 6
Jehoshaph@@ 6
bodia 6
g’@@ 6
phoon 6
illustra@@ 6
Hitler 6
alty 6
Haykanush 6
ost 6
stain 6
rement 6
Ammon 6
Jacques 6
nant 6
MAT@@ 6
ilia 6
Philo 6
gio 6
,000 6
mos@@ 6
Nadine 6
Didier 6
Cer@@ 6
ée 6
7.@@ 6
300,000 6
Communic@@ 6
ie@@ 6
Images 6
open@@ 6
ze@@ 6
cil@@ 6
3,9@@ 6
fruit@@ 6
Nuremberg 6
ino 6
ficul@@ 6
1936 6
Baltasar 6
Essly 6
haugh@@ 6
ille 6
Columbia 6
Marek 6
nin@@ 6
Francis 6
occupi@@ 6
Baru@@ 6
Atsuko 6
200,000 6
anno@@ 6
lity 6
tfully 6
fail@@ 6
Smith 6
spok@@ 6
counsel@@ 6
phal 6
zi 6
Laura 6
INE 6
righte@@ 6
country@@ 6
surge@@ 6
Ara@@ 6
Shu@@ 6
PIN@@ 6
wich 6
intensi@@ 6
gy@@ 6
delic@@ 6
eum 6
stic@@ 6
Ella 6
tern@@ 6
Sullivan 6
prosely@@ 6
ording 6
cription 6
stitute 6
quo@@ 6
oud 6
ography 6
Maurizio 6
xation 6
provi@@ 6
terri@@ 6
550 6
Somalia 6
vere 6
defin@@ 6
Kansas 6
dwar@@ 6
Erica 6
170 6
Finished 6
know@@ 6
co 6
Faso 6
Kayla 6
simpli@@ 6
40@@ 6
400,000 6
observ@@ 6
455 6
ʽ@@ 6
issa 6
ev 6
Huntingford 6
rang@@ 6
cru@@ 6
Prac@@ 6
rabb@@ 6
pear@@ 6
Bob 6
thetic 6
wei@@ 6
350 6
glimp@@ 6
achi@@ 6
Ballet 6
mally 6
eradi@@ 6
ne’phesh 6
stir@@ 6
Super@@ 6
Ammon@@ 6
Manila 6
Pentateuch 6
Mikhail 6
heaven@@ 6
ancest@@ 6
Jap@@ 6
Emily 6
Tac@@ 6
dom 6
wary 6
Splane 6
There@@ 6
faul@@ 6
Vari@@ 6
Gardner 6
sym@@ 6
ren 6
Alona 6
ez@@ 6
Raquel 6
Ricky 6
prefer@@ 6
Chr@@ 6
New@@ 6
Era 6
fotostock 6
oss 6
ENG@@ 6
mula 6
ast@@ 6
aus 6
João 6
Chal@@ 6
Lisbeth 6
sheep@@ 6
Eleazar 6
seven@@ 6
Arch 6
resolu@@ 6
kind’s 6
valu@@ 6
Bru@@ 6
Ravensbrück 6
Obe@@ 6
portr@@ 6
Jeho@@ 6
Nadia 6
ör@@ 6
nigh@@ 6
jan 6
not@@ 6
ine@@ 6
tionary 6
feat@@ 6
tially 6
Petra 6
singer 6
Mattias 6
recei@@ 6
Econ@@ 6
Bud 6
AK@@ 6
isions 6
Julie 6
mals 6
relati@@ 6
nments 6
ranted 6
ept 6
Gothic 6
Abi@@ 6
parad@@ 6
FU@@ 6
repen@@ 6
Lidasi 6
sele@@ 6
coordin@@ 6
ather 6
esis 6
Tatyana 6
Hal@@ 6
Informant 6
infin@@ 6
Darwin 6
Spices 6
pois@@ 6
Klein 6
TB 6
hous@@ 6
chat 6
chu@@ 6
survi@@ 6
tees 6
fically 6
addi@@ 6
astery 6
Cat@@ 6
Ori@@ 6
anna 6
erness 6
Sara 6
,8@@ 6
ingredi@@ 6
Ze@@ 6
memb@@ 6
liest 6
olf 6
easi@@ 6
poem 6
Safe@@ 6
tel 6
Pic@@ 6
ames 6
117 6
Kind@@ 6
ero 6
excit@@ 6
rememb@@ 6
Gerar 6
ilig@@ 6
AM@@ 6
ACH@@ 6
Benef@@ 6
Leanne 6
web 6
Mobile 6
Identi@@ 6
etta 6
agre@@ 6
tam@@ 6
optim@@ 6
ression 6
aves 6
regi@@ 6
Kyle 6
Gir@@ 6
Hist@@ 6
orian 6
Mandy 6
U 6
abol@@ 6
1473 6
THIN@@ 6
nities 6
acknowled@@ 6
Herald 6
RIT@@ 6
enh@@ 6
FEBRU@@ 6
inity 6
clusters 6
reconc@@ 6
Emil 6
Bur@@ 6
Emilia 6
inven@@ 6
shoul@@ 6
Congreg@@ 6
Leticia 6
tier 6
ricane 6
Tennessee 6
Erich 6
crimin@@ 6
ogni@@ 6
Tut@@ 6
inhab@@ 6
Nsomba 6
Renato 6
impris@@ 6
TIM@@ 6
affa@@ 6
Pat 6
Pente@@ 6
publish@@ 6
Rud@@ 6
Materi@@ 6
offici@@ 6
kened 6
shap@@ 6
1969 6
tural 6
Fernando 5
Schroeder 5
onso 5
scen@@ 5
progres@@ 5
postpon@@ 5
ishments 5
cluded 5
magnific@@ 5
convi@@ 5
cup@@ 5
Barnes 5
Rica 5
Mac@@ 5
Donald 5
pulated 5
borro@@ 5
Pledging 5
overwhel@@ 5
MON 5
Dale 5
bert 5
bit@@ 5
taf@@ 5
bable 5
ski 5
aska 5
onge 5
Gandhi 5
comman@@ 5
wis@@ 5
favor@@ 5
Tessie 5
toon 5
JANU@@ 5
Texas 5
courty@@ 5
sequently 5
Beach 5
Gol@@ 5
ull 5
cid@@ 5
hard@@ 5
phy 5
Guayaquil 5
Grat@@ 5
Hurricane 5
Katrina 5
illion 5
Fascist 5
Vitaly 5
Catholi@@ 5
Lisa 5
Syl@@ 5
Clo@@ 5
lena 5
migh@@ 5
Indi@@ 5
○ 5
ald 5
Geʹen·na 5
195 5
Cuenca 5
Feinan 5
Travel@@ 5
Messi@@ 5
tranqu@@ 5
Sinc@@ 5
Iowa 5
Lucy 5
Phillip 5
Racquel 5
w17.@@ 5
fantasi@@ 5
Oksana 5
Scha@@ 5
illi@@ 5
ros 5
harv@@ 5
magin@@ 5
curity 5
Courag@@ 5
Beat@@ 5
Karma 5
Bergen 5
Diehl 5
char 5
1.7 5
pneu@@ 5
ʹma 5
eans 5
ain 5
ac 5
Exer@@ 5
wp16.@@ 5
decisi@@ 5
transl@@ 5
Naa@@ 5
fit@@ 5
ition 5
OB@@ 5
León 5
lum 5
travel@@ 5
7,000,000 5
O’Connor 5
Roy 5
devast@@ 5
ource 5
ange 5
cooper@@ 5
Bethuel 5
spect@@ 5
Sidon 5
Caroline 5
Tay@@ 5
sexting 5
Yug@@ 5
kan 5
WAR 5
clif@@ 5
chen@@ 5
Timor 5
Reneé 5
Ephra@@ 5
cub@@ 5
Croesus 5
cust@@ 5
mir 5
Roxana 5
Frankfurt 5
real@@ 5
Keith 5
nacle 5
portant 5
deterior@@ 5
224 5
Romana 5
convinc@@ 5
mption 5
vised 5
Etta 5
és 5
stantly 5
Pascal 5
score 5
Pris@@ 5
Selma 5
eted 5
Ot@@ 5
BR@@ 5
rop@@ 5
hi 5
stein 5
Mapuche 5
LATION 5
hesit@@ 5
fig@@ 5
Wiktor 5
Jensen 5
Claudete 5
ORY 5
MAN@@ 5
rors 5
tch 5
inted 5
tach 5
Wh@@ 5
asian 5
parall@@ 5
iliation 5
tes@@ 5
Py@@ 5
740 5
w16.@@ 5
Vinc@@ 5
Judith 5
Papua 5
lat@@ 5
COUN@@ 5
Annikki 5
Kal@@ 5
ANSW@@ 5
critici@@ 5
ure@@ 5
groom 5
TU@@ 5
Rememb@@ 5
Vict@@ 5
ate@@ 5
Kumiko 5
Elvira 5
1,100 5
cow 5
Obed 5
En 5
Swaziland 5
ün@@ 5
Thailand 5
Petersburg 5
worth@@ 5
Nar@@ 5
Jonas 5
reci@@ 5
weal@@ 5
Rabshake@@ 5
Len@@ 5
frigh@@ 5
diale@@ 5
Burnett 5
scribed 5
Harris 5
kel 5
asis 5
ctly 5
Andes 5
eka 5
Apo@@ 5
prov@@ 5
Shepher@@ 5
emi 5
Sakura 5
schem@@ 5
scri@@ 5
Filip 5
Mesha@@ 5
Cloris 5
Rod@@ 5
Brook@@ 5
pier@@ 5
24@@ 5
Vine’s 5
Expository 5
DeCon@@ 5
ks@@ 5
Apol@@ 5
Alejandro 5
tesy 5
Berlin 5
Corinna 5
Agnes 5
refin@@ 5
Chattanooga 5
planes 5
consequ@@ 5
Victoire 5
lowed 5
Heights 5
ethni@@ 5
orious 5
pes@@ 5
Leonardo 5
ori 5
futi@@ 5
monoxide 5
Bruys 5
ora 5
2,0@@ 5
113 5
ram@@ 5
Orlin 5
repro@@ 5
Joppa 5
onizing 5
Ez@@ 5
Pliny 5
propiti@@ 5
aux 5
LIP@@ 5
Dan@@ 5
kar@@ 5
oter 5
Perrine 5
gen 5
Makr@@ 5
indus@@ 5
Harry 5
Lisbon 5
BER 5
NOVE@@ 5
Livija 5
manag@@ 5
karate 5
conven@@ 5
Yos@@ 5
0,000,000 5
Shar@@ 5
osheth 5
gosp@@ 5
depra@@ 5
Hem@@ 5
weak@@ 5
comprehen@@ 5
ans@@ 5
rently 5
pect 5
ssed 5
Ida 5
titu@@ 5
Obedi@@ 5
Agag 5
iti@@ 5
promis@@ 5
wail 5
w’s 5
ng’@@ 5
Antiochus 5
Afri@@ 5
mule 5
Leavenworth 5
Andreas 5
gal 5
Ny@@ 5
pestilen@@ 5
Irène 5
anski 5
ction@@ 5
thre@@ 5
god@@ 5
stati@@ 5
Beth@@ 5
manifest@@ 5
gres@@ 5
lava 5
Bertil 5
teʹ@@ 5
happi@@ 5
ome 5
Carlo 5
nific@@ 5
CA 5
Ouija 5
alia 5
welve 5
Natalie 5
tab@@ 5
Rab@@ 5
Jonadab 5
tia 5
Alfonsine 5
Masako 5
abi@@ 5
Luz 5
Uganda 5
Pittsburgh 5
Manuel 5
Bin@@ 5
Sylviana 5
Zim@@ 5
Gregory 5
LESIASTES 5
bel’s 5
inau@@ 5
type@@ 5
OUT 5
won@@ 5
rese@@ 5
din 5
cca 5
Aar@@ 5
Panama 5
1912 5
Nora 5
esa 5
itated 5
hly 5
Debor@@ 5
sibly 5
Hollywood 5
1913 5
Karítsa 5
eve 5
Cen@@ 5
ET 5
Mildred 5
Horeb 5
Manuscripts 5
arch 5
illions 5
24,000 5
anum 5
distingu@@ 5
SIN@@ 5
Believ@@ 5
usi@@ 5
Stock 5
oxide 5
Bol@@ 5
.com 5
concub@@ 5
Angie 5
Gertru@@ 5
Peru 5
Jarosław 5
Kel@@ 5
Fern@@ 5
Fir@@ 5
anda 5
Brand@@ 5
Tamba 5
Theodore 5
Jaime 5
Henri 5
toe 5
deci@@ 5
marathon 5
ower 5
effe@@ 5
nia 5
Rudi 5
Alab@@ 5
ama 5
ld@@ 5
Sébastien 5
Pear@@ 5
Mut@@ 5
dedic@@ 5
audi@@ 5
techno@@ 5
fish@@ 5
Marina 5
Simeul@@ 5
Indon@@ 5
esia 5
vious 5
bow@@ 5
Colos@@ 5
hiko 5
chil@@ 5
ulu 5
nony@@ 5
substan@@ 5
Yahweh 5
Gillis 5
zi@@ 5
Jumpei 5
treach@@ 5
divor@@ 5
studi@@ 5
oc@@ 5
gan 5
Evangeli@@ 5
nical 5
sclerosis 5
Bab@@ 5
false@@ 5
sities 5
Tasmania 5
Folake 5
Harp 5
uk 5
suspici@@ 5
60,000 5
Vancouver 5
Irene 5
igh@@ 5
Hardak@@ 5
industri@@ 5
cod@@ 5
mili@@ 5
cere@@ 5
bral 5
palsy 5
rend@@ 5
Riley 5
ITE 5
ini 5
lur@@ 5
Elva 5
aved 5
zal@@ 5
Winnipeg 5
Kathar@@ 5
184 5
Blos@@ 5
Castra 5
Praetoria 5
contenti@@ 5
denoun@@ 5
ishment 5
Macmillan 5
onomy 5
vari@@ 5
ith@@ 5
understandings 5
137 5
diamond 5
Akinori 5
Husb@@ 5
dered 5
ais 5
kal@@ 5
Larson 5
princi@@ 5
complet@@ 5
Joh@@ 5
repor@@ 5
enro@@ 5
Ith@@ 5
shou@@ 5
JON@@ 5
Colle@@ 5
SES 5
mits 5
JOS@@ 5
guing 5
22@@ 5
absor@@ 5
VA@@ 5
tration 5
B.@@ 5
Tris@@ 5
Bul@@ 5
scho@@ 5
ctual 5
insol@@ 5
christ 5
Guatemala 5
Mol@@ 5
Malagasy 5
Auth@@ 5
RIS@@ 5
poss@@ 5
tom 5
led@@ 5
Dom@@ 5
La 5
Jeri@@ 5
crus@@ 5
ve’s 5
John@@ 5
view@@ 5
2370 5
amore 5
Fah@@ 5
° 5
relen@@ 5
sful 5
Zealots 5
Los 5
Angeles 5
pop@@ 5
Strasbourg 5
sob@@ 5
excl@@ 5
DAN 5
Heidi 5
adverti@@ 5
Salome 5
Jehoi@@ 5
akim 5
incul@@ 5
Howard 5
Ramoni 5
Ves@@ 5
204 5
motes 5
mara@@ 5
Space 5
guidel@@ 5
Eshba@@ 5
gam@@ 5
new@@ 5
17,@@ 5
Lauri 5
indig@@ 5
vior 5
Lionel 5
Var@@ 5
Bolivia 5
yle 5
gum@@ 5
Accep@@ 5
tou@@ 5
quanti@@ 5
CHAN@@ 5
2,3@@ 5
Karachi 5
Julio 5
essenti@@ 5
tiv@@ 5
‛ 5
Jay 5
bere@@ 5
Amnon 5
Punjabi 5
worsen@@ 5
shire 5
Tim@@ 5
eship 5
Hutu 5
sib@@ 5
ute 5
purg@@ 5
Brook 5
Yesica 5
Claudia 5
Mr 5
Alfred 5
Grand@@ 5
bat 5
Geoffrey 5
uno 5
fon@@ 5
lin 5
Sinaitic 5
King@@ 5
Arma@@ 5
thered 5
ressed 5
rul@@ 5
laun@@ 5
busin@@ 5
studio 5
SAR@@ 5
Rocio 5
Panos 5
1906 5
Adams 5
sci@@ 5
Bilbao 5
chemotherapy 5
inations 5
Kazanlak 5
Har 5
Magedon 5
blos@@ 5
Dorothy 5
Hut@@ 5
175 5
Diatessaron 5
lovakia 5
Bauru 4
Agri@@ 4
w18.0@@ 4
corrup@@ 4
ang 4
umptuo@@ 4
anings 4
prog@@ 4
MOR@@ 4
Mex@@ 4
ican 4
manuel 4
parti@@ 4
every@@ 4
osi@@ 4
exer@@ 4
prepar@@ 4
testi@@ 4
Beth 4
drag@@ 4
engin@@ 4
tha 4
Allan 4
competi@@ 4
honda 4
Talmud 4
mity 4
decl@@ 4
Steph@@ 4
eases 4
oslav 4
aya 4
Pil@@ 4
circum@@ 4
Alber@@ 4
itage 4
Sear@@ 4
Evi@@ 4
bic@@ 4
godliness 4
usts 4
wee@@ 4
umb@@ 4
197 4
Polo 4
Takuya 4
Stephany 4
DA 4
Herman 4
dw@@ 4
Mari 4
leis@@ 4
verb@@ 4
ik@@ 4
Cynthia 4
punctu@@ 4
Jerry 4
Sap@@ 4
Rehobo@@ 4
kel@@ 4
enda 4
tfulness 4
uninten@@ 4
inda 4
yana 4
philosophi@@ 4
tucky 4
beauti@@ 4
Sovereig@@ 4
nty 4
Nichols 4
lifest@@ 4
commend@@ 4
uma 4
Wis@@ 4
Ku@@ 4
proclaim@@ 4
repres@@ 4
Und@@ 4
ada 4
big@@ 4
tenance 4
oman@@ 4
sick@@ 4
ola 4
Tonga 4
tock 4
senhausen 4
Oc@@ 4
oh@@ 4
contro@@ 4
Christa 4
aroma 4
idol@@ 4
Christi@@ 4
fting 4
Bran@@ 4
Angela 4
Whit@@ 4
Resurrec@@ 4
ye@@ 4
rifi@@ 4
resurrec@@ 4
bot@@ 4
cken 4
oxy@@ 4
Hit@@ 4
bour@@ 4
schberg 4
Soci@@ 4
siding 4
mans 4
zel 4
sushi 4
apar@@ 4
140 4
Lije 4
sei@@ 4
swi@@ 4
Sing@@ 4
than@@ 4
lear@@ 4
resent@@ 4
oppon@@ 4
less@@ 4
shipwrec@@ 4
Meroz 4
confin@@ 4
iberia 4
changel 4
ami@@ 4
foc@@ 4
burn@@ 4
intro@@ 4
verted 4
BER@@ 4
regis@@ 4
tiago 4
Suf@@ 4
dos 4
Orbeliani 4
Amb@@ 4
thly 4
efold 4
edar 4
young@@ 4
uor 4
domes@@ 4
Pel@@ 4
YE@@ 4
Foreig@@ 4
Queen@@ 4
hibi@@ 4
ONG@@ 4
pi 4
itness 4
LO 4
Mama 4
Om@@ 4
exper@@ 4
Cris@@ 4
Damaris 4
ece 4
DV@@ 4
buo@@ 4
sook 4
chi 4
aki 4
whel@@ 4
sar@@ 4
iah’s 4
rewar@@ 4
oten@@ 4
enty 4
simul@@ 4
gig@@ 4
lls 4
onija 4
Maru 4
eda 4
spor@@ 4
pot 4
1,400 4
gotten 4
patter@@ 4
Osaka 4
Étaples 4
DU@@ 4
conveniences 4
Domitian 4
noti@@ 4
conqu@@ 4
Nob@@ 4
wis 4
forts 4
usanne 4
aten 4
Svet@@ 4
omir 4
Israel@@ 4
ego 4
Madge 4
Helen 4
wth 4
Won@@ 4
gers 4
sentim@@ 4
Thr@@ 4
Alfon@@ 4
Catal@@ 4
ush@@ 4
ónisos 4
rele 4
KA@@ 4
credi@@ 4
Ie@@ 4
enor@@ 4
lam 4
w15 4
Edna 4
ilo 4
Whe@@ 4
pzig 4
ה@@ 4
sworth 4
Sinclair 4
phs 4
plate 4
eigh@@ 4
deri@@ 4
dence 4
ansas 4
zens 4
templ@@ 4
Angel@@ 4
Micha@@ 4
enna 4
Ilse 4
Elfriede 4
superi@@ 4
anticip@@ 4
mand@@ 4
jam@@ 4
distribu@@ 4
Wr@@ 4
treal 4
More@@ 4
Eas@@ 4
pus@@ 4
MAK@@ 4
celebr@@ 4
self@@ 4
Id@@ 4
ANA 4
exten@@ 4
221 4
sam@@ 4
gil@@ 4
duo@@ 4
blas@@ 4
נפשׁ 4
gli@@ 4
Antandroy 4
kl@@ 4
dhood 4
ells 4
heth 4
Ei@@ 4
fat@@ 4
Bud@@ 4
14,000 4
Jeze@@ 4
thur@@ 4
appeti@@ 4
otus 4
jorie 4
220 4
aths 4
isely 4
incap@@ 4
Sib@@ 4
AMER@@ 4
bread@@ 4
Kelsey 4
lia 4
ston 4
Any@@ 4
tasy 4
witha 4
tre 4
173 4
sir@@ 4
eze 4
immen@@ 4
Antiquities 4
uracy 4
Sylvi@@ 4
Aris@@ 4
totle 4
VE@@ 4
suo 4
rigi@@ 4
2,520 4
oundness 4
vial 4
Syd@@ 4
oli 4
oking 4
Nathaniel 4
Quito 4
viv 4
trigg@@ 4
Overse@@ 4
Europe@@ 4
percei@@ 4
tem@@ 4
ple’s 4
giti@@ 4
mam@@ 4
heim@@ 4
Zar@@ 4
ago@@ 4
Betty 4
uela 4
motiv@@ 4
Organi@@ 4
fici@@ 4
chop@@ 4
oci@@ 4
dier 4
aken 4
mith 4
six@@ 4
Jord@@ 4
grou@@ 4
tos@@ 4
Hos 4
Paul@@ 4
terr@@ 4
ław 4
ano 4
raq 4
Aksamai 4
Gas@@ 4
pé 4
fellow@@ 4
IM@@ 4
dem@@ 4
Gianni 4
hang@@ 4
equi@@ 4
antness 4
Cecil@@ 4
demon@@ 4
Flavi@@ 4
ques 4
itory 4
mad 4
Ernst 4
MIS@@ 4
Rebe@@ 4
apti@@ 4
sica 4
Kinshasa 4
nob@@ 4
guil@@ 4
adop@@ 4
ata 4
zen 4
famili@@ 4
rach 4
nego 4
Cos@@ 4
Estienne 4
iry 4
physi@@ 4
ques@@ 4
Kon@@ 4
eral 4
GO 4
Ili@@ 4
Accom@@ 4
priv@@ 4
neu@@ 4
embar@@ 4
Program@@ 4
dures 4
S.A 4
telep@@ 4
Hen@@ 4
ryk 4
esome 4
archaeolo@@ 4
Inc@@ 4
regre@@ 4
Mu@@ 4
orities 4
etting 4
urch 4
Mica@@ 4
ried 4
Inger 4
Stéph@@ 4
adly 4
tracked 4
mania 4
puzz@@ 4
promin@@ 4
Carin 4
Fasc@@ 4
ops 4
fid@@ 4
uel 4
Kaz@@ 4
eman 4
Hind@@ 4
WHI@@ 4
ANS@@ 4
gued 4
Map@@ 4
ag 4
beli@@ 4
trau@@ 4
Ran@@ 4
este@@ 4
angu@@ 4
Moldova 4
acles 4
regon 4
ecu@@ 4
Nim@@ 4
rar@@ 4
queline 4
Pur@@ 4
Brit@@ 4
haus@@ 4
U.@@ 4
solem@@ 4
Atl@@ 4
stead 4
trou@@ 4
Uk@@ 4
Erika 4
à 4
jum@@ 4
Non@@ 4
acos 4
Ela@@ 4
appro@@ 4
’al 4
wat@@ 4
Ute 4
Malcolm 4
ctu@@ 4
suing 4
atu@@ 4
tices 4
ho 4
tis 4
surpris@@ 4
ura@@ 4
rah 4
Mich@@ 4
hail 4
entre@@ 4
997 4
een 4
90@@ 4
rem@@ 4
dless 4
unziato 4
atedly 4
symboli@@ 4
Wit@@ 4
dishear@@ 4
gym@@ 4
bini 4
lish 4
olen 4
Ellen 4
const@@ 4
muse@@ 4
ape 4
despread 4
Ye@@ 4
Ern@@ 4
repentantly 4
Sakiko 4
S.@@ 4
justices 4
Austri@@ 4
perc@@ 4
promp@@ 4
une 4
orized 4
Spok@@ 4
Tag@@ 4
rog 4
·neiʹa 4
alties 4
weap@@ 4
Discipl@@ 4
ô@@ 4
Bless@@ 4
serp@@ 4
Lam 4
emplary 4
log@@ 4
prac@@ 4
Emmanuel 4
PON@@ 4
wp17.@@ 4
ticus 4
ive 3
invol@@ 3
Amalek 3
succum@@ 3
bug 3
scal@@ 3
DER 3
prison@@ 3
ya@@ 3
lib@@ 3
pli@@ 3
pically 3
STUD@@ 3
sm 3
licit 3
deep@@ 3
Lin@@ 3
ole 3
chal@@ 3
sighted 3
nom@@ 3
Sat@@ 3
Salv@@ 3
Reg@@ 3
Philippi@@ 3
erie 3
Lau@@ 3
angel@@ 3
Alek@@ 3
sey 3
Joseph@@ 3
lesome 3
magne@@ 3
Nich@@ 3
itful 3
Philli@@ 3
ey 3
Eu@@ 3
itedly 3
phesh 3
Fur@@ 3
pon 3
arrang@@ 3
yo 3
Medi@@ 3
ross 3
wane 3
ith 3
encourag@@ 3
recomm@@ 3
AST@@ 3
person@@ 3
ow 3
canon@@ 3
ʼ@@ 3
harsh@@ 3
fers 3
Geor@@ 3
osla@@ 3
ouses 3
scriptural 3
estament 3
mano 3
Mey@@ 3
Matthe@@ 3
abed 3
nica 3
monde 3
organiz@@ 3
ity’s 3
chop 3
ves@@ 3
myri@@ 3
Johann@@ 3
hen@@ 3
shat@@ 3
Mak@@ 3
deligh@@ 3
opi@@ 3
tine 3
Hay@@ 3
Kla@@ 3
ä 3
homel@@ 3
gue@@ 3
embarr@@ 3
moa 3
ITED 3
☞ 3
mand 3
doll@@ 3
wrong@@ 3
dei@@ 3
sal 3
CC@@ 3
With@@ 3
EM 3
xote 3
sels 3
ike 3
isite 3
destro@@ 3
cancel@@ 3
cher 3
wilder@@ 3
Jo 3
tame 3
ilitating 3
don 3
Ecu@@ 3
Bapti@@ 3
lak@@ 3
ü@@ 3
Ecclesi@@ 3
paw 3
Z 3
see@@ 3
rew@@ 3
tup 3
mately 3
cio 3
Mission@@ 3
sat@@ 3
Gill@@ 3
mech@@ 3
illus@@ 3
í 3
satur@@ 3
Scro@@ 3
hu 3
substitu@@ 3
prophesi@@ 3
ches@@ 3
aro 3
pository 3
arbitr@@ 3
perv@@ 3
ied 3
first@@ 3
ached 3
barri@@ 3
allevi@@ 3
astro@@ 3
pand@@ 3
awk@@ 3
adjus@@ 3
cher@@ 3
Leon@@ 3
check@@ 3
int@@ 3
Sennach@@ 3
ali 3
thod@@ 3
1600 3
Wyclif@@ 3
INT@@ 3
atine 3
gees 3
nett 3
uro 3
Cali@@ 3
highligh@@ 3
tently 3
advanta@@ 3
merci@@ 3
mop@@ 3
stadi@@ 3
asse@@ 3
androy 3
oko 3
shakable 3
Stor@@ 3
use@@ 3
wes 3
teria 3
irst 3
dio 3
responsib@@ 3
ה 3
ustri@@ 3
jar@@ 3
trumpe@@ 3
shrin@@ 3
ouris@@ 3
ado 3
Giorgi 3
Par 3
nap@@ 3
ole@@ 3
abul@@ 3
ctedly 3
ua 3
gram 3
api@@ 3
yrus 3
rejo@@ 3
envi@@ 3
Mah@@ 3
hone 3
recipi@@ 3
complac@@ 3
Sid@@ 3
omo 3
issu@@ 3
anya 3
jewel@@ 3
help@@ 3
OK@@ 3
Ant@@ 3
dha 3
vict@@ 3
NE 3
rine 3
istance 3
yr@@ 3
anal@@ 3
Educ@@ 3
eb 3
predic@@ 3
Ther@@ 3
digi@@ 3
mita 3
Tok@@ 3
odus 3
WER 3
gency 3
zable 3
LA 3
Kend@@ 3
Eph@@ 3
rem 3
dding 3
tap@@ 3
ld 3
logers 3
gian 3
teach@@ 3
neg@@ 3
molo@@ 3
gus@@ 3
resol@@ 3
Evid@@ 3
concep@@ 3
amor@@ 3
tyran@@ 3
inly 3
Fl@@ 3
wood@@ 3
secon@@ 3
Knor@@ 3
vana 3
stitu@@ 3
Chan@@ 3
ila 3
Albania 3
Heber 3
Glo@@ 3
è@@ 3
Timna 3
Langton 3
ern 3
techni@@ 3
Encyclo@@ 3
ayi@@ 3
erless 3
inia 3
icing 3
Gl@@ 3
MED@@ 3
Descri@@ 3
bo 3
outh 3
eous 3
hob@@ 3
passer@@ 3
215 3
asts 3
tremend@@ 3
mittedly 3
sday 3
ox 3
Thank@@ 3
itance 3
prescri@@ 3
sooth@@ 3
Rie 3
Real@@ 3
erals 3
UND@@ 3
stam@@ 3
ATI@@ 3
awar@@ 3
eph@@ 3
meas@@ 3
fumed 3
Gradu@@ 3
Bethlehe@@ 3
mite 3
lood 3
ARI@@ 3
Consider@@ 3
aka 3
Wari@@ 3
Ş@@ 3
destru@@ 3
mala@@ 3
tific@@ 3
Sla@@ 3
stret@@ 3
Ana@@ 3
clas@@ 3
stup@@ 3
Tex@@ 3
ing’s 3
denom@@ 3
chand@@ 3
vili@@ 3
compas@@ 3
strateg@@ 3
Bis@@ 3
sam 3
revil@@ 3
preci@@ 3
PUB@@ 3
rani@@ 3
rit 3
Jehor@@ 3
tish 3
É 3
ibacy 3
lible 3
Pana@@ 3
treat@@ 3
gras@@ 3
Wag@@ 3
Ano@@ 3
enched 3
cclesi@@ 3
mant 3
pendi@@ 3
Appropri@@ 3
ob 3
PA 3
gments 3
nod@@ 3
godd@@ 3
Ji@@ 3
arities 3
tines 3
dru@@ 3
ip@@ 3
milest@@ 3
ceful 3
digni@@ 3
fee 3
onika 3
Kis@@ 3
iny@@ 3
greg@@ 3
tray 3
ING@@ 3
ache 3
sle@@ 3
business@@ 3
SAN@@ 3
Alexand@@ 3
pover@@ 3
question@@ 3
surance 3
chair 3
dule 3
tifully 3
Nin@@ 3
Rat@@ 3
clut@@ 3
li 3
je 3
traf@@ 3
aber@@ 3
repri@@ 3
religi@@ 3
ss 3
oli@@ 3
Kazu@@ 3
lifes@@ 3
estion 3
Deliver@@ 3
lyn 3
olf@@ 3
Nath@@ 3
mi 3
benef@@ 3
raf@@ 3
okul@@ 3
tony 3
mira@@ 3
isol@@ 3
eption 3
Flor@@ 3
520 3
tenti@@ 3
malia 3
ridicul@@ 3
steadfas@@ 3
destin@@ 3
thin@@ 3
tol 3
mir@@ 3
apologi@@ 3
Pog@@ 3
unge 3
ku@@ 3
Cul@@ 3
Que@@ 3
ibr@@ 3
ulo 3
Matti@@ 3
alu@@ 3
amoun@@ 3
valry 3
andi 3
archi@@ 3
trus@@ 3
Islam 3
thern 3
hosti@@ 3
taneously 3
papa 3
obst@@ 3
mia 3
nyi@@ 3
polic@@ 3
apo@@ 3
isa 3
reti@@ 3
aniah 3
Jef@@ 3
duce 3
takers 3
zers 3
Australi@@ 3
seiz@@ 3
Andr@@ 3
perman@@ 3
aic 3
Maj@@ 3
success@@ 3
Fili@@ 3
sional 3
Chris@@ 3
amaz@@ 3
Fro@@ 3
barra@@ 3
tos 3
aba 3
carav@@ 3
ich@@ 3
sgiving 3
Jen@@ 3
tech@@ 3
Virgílio 3
matically 3
gur 3
al’s 3
Jor@@ 3
passeng@@ 3
adab 3
tini@@ 3
Swe@@ 3
forb@@ 3
TEACH@@ 3
som 3
store@@ 3
deca@@ 3
identi@@ 3
Commun@@ 3
otes 3
divi@@ 3
canc@@ 3
mee@@ 3
oba 3
humili@@ 3
wash@@ 3
ral 3
declar@@ 3
lehear@@ 3
wast@@ 3
Juda@@ 3
Dak@@ 3
ji@@ 3
Refle@@ 3
ij@@ 3
ʹa 3
terial 3
opini@@ 3
stem@@ 3
sine@@ 3
usively 3
Ose@@ 3
mansl@@ 3
imi 3
Van@@ 3
EF@@ 3
inhabit@@ 3
clus@@ 3
selves 3
Mand@@ 3
zer@@ 3
riosity 3
uda 3
BOR@@ 3
ric@@ 3
warm@@ 3
blemished 3
sid@@ 3
✔ 3
Herod@@ 3
kedness 3
oling 3
affection@@ 3
After@@ 3
ppo 3
omers 3
sage 3
osen@@ 3
tolic 3
suspe@@ 3
LES@@ 3
Pad@@ 3
Sinai@@ 3
Cze@@ 3
chos@@ 3
Immedi@@ 3
anoe 3
dread@@ 3
kol@@ 3
Od@@ 3
essa 3
titudes 3
Yi@@ 2
istics 2
hall@@ 2
PO 2
wp@@ 2
edo 2
differ@@ 2
Chu@@ 2
zzar 2
Tro@@ 2
egan 2
pread 2
wp16@@ 2
tene 2
yona 2
Orthod@@ 2
timul@@ 2
prophet@@ 2
oti@@ 2
nee@@ 2
Feder@@ 2
App@@ 2
beau@@ 2
ayu@@ 2
ala 2
nis@@ 2
bever@@ 2
ctiveness 2
avoi@@ 2
Theod@@ 2
ANG 2
Wer@@ 2
Alcoho@@ 2
scru@@ 2
posi@@ 2
cus@@ 2
fru@@ 2
Satur@@ 2
chuk 2
profes@@ 2
amo 2
bud@@ 2
Fal@@ 2
Mam@@ 2
encies 2
anak@@ 2
tot@@ 2
kit@@ 2
dispat@@ 2
evangeli@@ 2
avened 2
estima@@ 2
YOU@@ 2
Jam@@ 2
neys 2
US@@ 2
chiko 2
develop@@ 2
unga 2
ogale 2
tali@@ 2
husband@@ 2
pervasi@@ 2
ato 2
sion@@ 2
Spiritu@@ 2
Clau@@ 2
Sod@@ 2
interv@@ 2
nan@@ 2
onga 2
sn@@ 2
ote@@ 2
berg 2
KA 2
amped 2
chen 2
ong’@@ 2
proje@@ 2
sburg 2
admon@@ 2
iny 2
io 2
Anto@@ 2
Testim@@ 2
yos 2
Psal@@ 2
ot’s 2
wen 2
Kit@@ 2
Tatt@@ 2
indefin@@ 2
anach@@ 2
ilis@@ 2
arted 2
bu 2
thusias@@ 2
loe 2
Lon@@ 2
SET 2
gely 2
corru@@ 2
ptible 2
utes 2
benevol@@ 2
isted 2
Mid@@ 2
gry 2
Fla@@ 2
was@@ 2
opo@@ 2
born@@ 2
umpe@@ 2
pines 2
ustin 2
gam 2
salu@@ 2
Lev@@ 2
turo 2
conduc@@ 2
wana 2
Scen@@ 2
lec@@ 2
agit@@ 2
surr@@ 2
terson 2
thful 2
therine 2
kir@@ 2
undeni@@ 2
pond 2
י@@ 2
ו@@ 2
cof@@ 2
ump@@ 2
cations 2
EK@@ 2
Hebre@@ 2
eler@@ 2
plat@@ 2
USE@@ 2
poly@@ 2
nya 2
dep@@ 2
thia 2
Tari@@ 2
proper@@ 2
Media 2
thirst@@ 2
rip@@ 2
MARI@@ 2
acity 2
iber@@ 2
Mano@@ 2
ogu@@ 2
gie 2
cket 2
See@@ 2
weds 2
och 2
command@@ 2
mom@@ 2
sters 2
Pent@@ 2
ica 2
mei 2
stud@@ 2
eny 2
jas@@ 2
kar 2
Kati@@ 2
isive 2
OP@@ 2
Goli@@ 2
mo 2
WITN@@ 2
1000 2
tainer 2
leen 2
stub@@ 2
Praet@@ 2
1900 2
uli@@ 2
Ninev@@ 2
eg 2
famil@@ 2
Archaeolo@@ 2
fors@@ 2
ilee 2
Miri@@ 2
Pot@@ 2
coas@@ 2
entreat@@ 2
apo 2
asi 2
alo 2
Pass@@ 2
murder@@ 2
victim@@ 2
Genti@@ 2
hazi 2
Kid@@ 2
respon@@ 2
Effe@@ 2
Asap@@ 2
mai 2
ibility 2
י 2
impres@@ 2
ERED 2
Lö@@ 2
Kimberly 2
cruel@@ 2
cas 2
phes 2
aseball 2
Pornogra@@ 2
ITATE 2
negle@@ 2
sioned 2
lor@@ 2
nares 2
absta@@ 2
å@@ 2
chy 2
Sugg@@ 2
estions 2
illie 2
shame@@ 2
must@@ 2
Hag@@ 2
Creat@@ 2
occ@@ 2
ness@@ 2
aha 2
ween 2
nes 2
rote 2
atur@@ 2
describable 2
Faith@@ 2
aria 2
sisi 2
iro@@ 2
jos@@ 2
Stre@@ 2
una 2
Le 2
Exam@@ 2
ı@@ 2
sud@@ 2
agu@@ 2
ergy 2
villa@@ 2
mah 2
Nis@@ 2
merly 2
appoin@@ 2
Maril@@ 2
sligh@@ 2
Armen@@ 2
Ethiopi@@ 2
edlike 2
Sik@@ 2
upi@@ 2
mosphere 2
IV@@ 2
gedy 2
BENEF@@ 2
KIN@@ 2
pass@@ 2
lically 2
glori@@ 2
istent 2
dit 2
Ric@@ 2
rie 2
clean@@ 2
extermin@@ 2
remo@@ 2
unting 2
ugh@@ 2
essment 2
remor@@ 2
seless 2
deta@@ 2
demonstra@@ 2
lan 2
BEN@@ 2
aving 2
Wakaw 2
trem@@ 2
mos 2
ía 2
nut 2
Assyri@@ 2
chan 2
material@@ 2
Magi 2
Sta@@ 2
llment 2
edon 2
Lang@@ 2
É@@ 2
wanda 2
etings 2
onde 2
ordinate 2
REVE@@ 2
pa·@@ 2
ongo 2
Simil@@ 2
org 2
approxi@@ 2
hou@@ 2
ae 2
lier 2
nou@@ 2
stan 2
edy 2
sugg@@ 2
wra@@ 2
wire 2
okoro 2
commis@@ 2
Rach@@ 2
Kwa@@ 2
aman@@ 2
Wat@@ 2
ë@@ 2
Ce@@ 2
orrow 2
Contr@@ 2
Sad@@ 2
nerable 2
LOR@@ 2
bathe 2
willing@@ 2
bag@@ 2
anie 2
ITH 2
mong 2
speak@@ 2
father@@ 2
authentic@@ 2
envir@@ 2
Habakku@@ 2
Sé@@ 2
ono 2
gress 2
Freder@@ 2
onen 2
printer@@ 2
Alex@@ 2
sequ@@ 2
vocabul@@ 2
gram@@ 2
orio 2
CHRIS@@ 2
dine 2
lyri@@ 2
THY 2
astes 2
Ten@@ 2
itations 2
Div@@ 2
inely 2
eni 2
fession 2
mona 2
kie 2
public@@ 2
200@@ 2
chiro 2
minent 2
isher 2
ao 2
chool 2
sour@@ 2
Aqu@@ 2
Origin@@ 2
ren’s 2
kiye 2
elec@@ 2
fati@@ 2
lative 2
elation 2
edom 2
turally 2
Aug@@ 2
anta 2
fugi@@ 2
sch 2
Yan@@ 2
bor 2
Samu@@ 2
ł 2
light@@ 2
Eri@@ 2
cha 2
pices 2
Swa@@ 2
thy’s 2
assist@@ 2
orph@@ 2
testim@@ 2
orted 2
wager 2
asia 2
pione@@ 2
jana 2
wake@@ 2
mak 2
ou 2
wen@@ 2
j 2
imbo 2
scro@@ 2
ees 2
odically 2
ari 2
elabor@@ 2
organi@@ 2
oger 2
lem 2
undi 2
tempor@@ 2
ctr@@ 2
wonder@@ 2
myr@@ 2
Ago@@ 2
xy 2
liken@@ 2
ador 2
orum 2
Sheb@@ 2
Isa@@ 2
eri 2
gai 2
visa 2
note@@ 2
neth 2
radic@@ 2
itably 2
Perfe@@ 2
aw 2
ts@@ 2
environ@@ 2
Kim@@ 2
Sak@@ 2
GA 2
lfire 2
contempor@@ 2
KED 2
Delph@@ 2
ingone 2
nephe@@ 2
Color@@ 2
oi@@ 2
psalmis@@ 2
alth 2
polis 2
ferred 2
mpt 2
pach@@ 2
ond 2
deliber@@ 2
1700 2
quities 2
pene@@ 2
fles@@ 2
donia 2
anity 2
por 2
oy@@ 2
vous 2
KI@@ 2
Hur@@ 2
pects 2
Hunt@@ 2
Absal@@ 2
govern@@ 2
Lab@@ 2
Gui@@ 2
Galati@@ 2
gino 2
ura 2
overy 2
gon@@ 2
sab@@ 2
bati@@ 2
ctronic 2
Pes@@ 2
antido@@ 2
ensla@@ 2
enne 2
insigh@@ 2
Tyndal@@ 2
hibit 2
Rene@@ 2
á 2
versy 2
wa 2
kit 2
ourage 2
owered 2
thous@@ 2
ú 2
tu 2
thel 2
KING@@ 2
kla@@ 2
wad@@ 2
nimo 2
wp17@@ 2
crites 2
noy@@ 2
Nab@@ 2
arus 2
pant 2
Andre@@ 2
Scot@@ 2
Neigh@@ 2
offi@@ 2
coven@@ 2
Jac@@ 2
sui@@ 2
Ng@@ 2
oland 2
Shor@@ 2
shrew@@ 2
geria 2
Sophi@@ 2
reven@@ 2
par 2
Bib@@ 2
ford 2
surg@@ 2
Benjam@@ 2
iktor 2
gene 2
answ@@ 2
ultation 2
Tho@@ 2
Elisha@@ 2
hopel@@ 2
Nov@@ 2
osa 2
colos@@ 2
lumin@@ 2
ingo 2
Gom@@ 2
Hei@@ 2
Eliz@@ 2
respect@@ 2
Dic@@ 2
ores@@ 2
Jay@@ 2
Gis@@ 2
mitted 2
expos@@ 2
leep 2
Swit@@ 2
goya 2
ø@@ 2
jan@@ 2
ossi@@ 2
chun@@ 2
BJE@@ 2
Vati@@ 2
swal@@ 2
national@@ 2
neigh@@ 2
imus 2
vement 2
hus@@ 2
kek 2
tho 2
KI 2
MA 2
mechani@@ 2
even@@ 2
Ponti@@ 2
oda 2
KIND@@ 2
ulos 2
pop 2
text@@ 2
dary 2
Rich@@ 2
assig@@ 2
company@@ 2
Hy@@ 2
tragrammaton 2
oria 2
guru 1
lif@@ 1
mann@@ 1
ISE@@ 1
hes@@ 1
itating 1
Corin@@ 1
aku@@ 1
perspe@@ 1
ctives 1
resour@@ 1
Zeph@@ 1
bug@@ 1
aught 1
suppor@@ 1
eh 1
Hiro@@ 1
riage 1
magi 1
estern 1
atim 1
Mach@@ 1
phenom@@ 1
discourag@@ 1
veget@@ 1
scholar@@ 1
Sanhe@@ 1
psy@@ 1
nace 1
tat 1
HIST@@ 1
ule 1
Jeph@@ 1
ā@@ 1
ʼ 1
1500 1
toire 1
chur@@ 1
und 1
lee 1
Jim@@ 1
prev@@ 1
oura@@ 1
lem@@ 1
Flori@@ 1
alwor@@ 1
Shun@@ 1
ammite 1
Kle@@ 1
onous 1
tawa 1
rossed 1
compen@@ 1
MAGE 1
horri@@ 1
adedness 1
pok@@ 1
joyed 1
ï@@ 1
chers 1
phe@@ 1
chari@@ 1
ē@@ 1
tep 1
abstra@@ 1
Ü@@ 1
uten@@ 1
alog 1
chair@@ 1
ansing 1
die@@ 1
aration 1
Read@@ 1
Even@@ 1
apos@@ 1
eliness 1
obi@@ 1
dre 1
ossu@@ 1
emia 1
Ini@@ 1
Uzz@@ 1
descend@@ 1
Mob@@ 1
Lit 1
Mumb@@ 1
marri@@ 1
WI 1
ema 1
lop 1
Lef@@ 1
stewar@@ 1
Levi@@ 1
mad@@ 1
straight@@ 1
lego 1
onia 1
BIB@@ 1
strum@@ 1
vide@@ 1
kiko 1
okel@@ 1
prodig@@ 1
jok 1
Peop@@ 1
ï 1
Haru@@ 1
Osa@@ 1
inal 1
tini 1
Ak@@ 1
xies 1
ilo@@ 1
ondi@@ 1
Ron@@ 1
millenni@@ 1
Ago 1
rigo 1
ONY 1
wne 1
kenly 1
blemis@@ 1
JI 1
lov@@ 1
dium 1
thermore 1
WIT@@ 1
rh 1
pie@@ 1
bol 1
onel 1
fred 1
world@@ 1
vig@@ 1
turi@@ 1
rene 1
spap@@ 1
Kais@@ 1
simo 1
lime 1
anish 1
GOD@@ 1
mined 1
ustr@@ 1
atal@@ 1
Hab@@ 1
tention 1
sim@@ 1
Š@@ 1
ů@@ 1
ý@@ 1
Eliashi@@ 1
Jas@@ 1
descri@@ 1
Bed@@ 1
thumb 1
Understand@@ 1
Amale@@ 1
kite 1
lass 1
judg@@ 1
omi 1
git@@ 1
uprigh@@ 1
Got 1
Main@@ 1
obo 1
watchtow@@ 1
istically 1
agra@@ 1
ongside 1
Wall@@ 1
ílio 1
vigor@@ 1
edless 1
Millenni@@ 1
em’s 1
mose 1
ota@@ 1
jab@@ 1
Angi@@ 1
doctr@@ 1
CHU@@ 1
Abo@@ 1
esal@@ 1
kil@@ 1
Lid@@ 1
thu@@ 1
kuo@@ 1
Mae 1
www.@@ 1
iew 1
cloth@@ 1
doni 1
nil@@ 1
erg 1
consi@@ 1
iri 1
Braz@@ 1
il’s 1
fa 1
endar 1
uti 1
offic@@ 1
osel@@ 1
blam@@ 1
abur@@ 1
Asen@@ 1
unu@@ 1
Yo 1
adore 1
Delil@@ 1
ó 1
unfol@@ 1
purpose@@ 1
doms 1
buil@@ 1
Moldo@@ 1
Bil@@ 1
ath’s 1
Assemb@@ 1
enthood 1
wid@@ 1
agues 1
til 1
gik@@ 1
fice 1
ful@@ 1
Festiv@@ 1
Ola@@ 1
rie@@ 1
rebel@@ 1
contribu@@ 1
jach@@ 1
dian@@ 1
eline 1
breast@@ 1
Domi@@ 1
Agbo@@ 1
rans@@ 1
debau@@ 1
jap@@ 1
Josep@@ 1
recor@@ 1
hai 1
gom@@ 1
KOR@@ 1
bang 1
Esti@@ 1
lima 1
ndrome 1
dha@@ 1
À 1
trust@@ 1
QUES@@ 1
Wher@@ 1
wahili 1
gina 1
Lok@@ 1
Oba@@ 1
fascin@@ 1
proce@@ 1
Yeho@@ 1
Caiap@@ 1
ş 1
posses@@ 1
manif@@ 1
achment 1
disfellowshipp@@ 1
auxili@@ 1
195@@ 1
umi 1
incorru@@ 1
pti@@ 1
iti 1
luent 1
attain@@ 1
Sud@@ 1
nus 1
ambo 1
dowed 1
logo 1
urant 1
waro@@ 1
Tib@@ 1
Josu@@ 1
explan@@ 1
ranean 1
jat@@ 1
Ek@@ 1
test@@ 1
smal@@ 1
amba 1
gile 1
Azari@@ 1
ledge 1
Ox@@ 1
UD 1
ã@@ 1
ountains 1
pornogra@@ 1
gore 1
uri@@ 1
Jol@@ 1
ashi@@ 1
terror@@ 1
bania 1
ario 1
Tab@@ 1
eig@@ 1
usly 1
sby 1
Kay@@ 1
nade 1
syl@@ 1
ür@@ 1
eny@@ 1
tudes 1
circumc@@ 1
Fabi@@ 1
andre 1
necess@@ 1
particul@@ 1
Ess@@ 1
WIN@@ 1
adi 1
abi 1
abri@@ 1
symb@@ 1
Great@@ 1
oru@@ 1
Inde@@ 1
libr@@ 1
mara 1
DUR@@ 1
prosy 1
onogra@@ 1
Jona 1
alam 1
inadver@@ 1
ske@@ 1
uk@@ 1
tut 1
tuo@@ 1
newly@@ 1
chant 1
Egyp@@ 1
wido@@ 1
Sim@@ 1
Ril@@ 1
dan 1
dilem@@ 1
jo 1
Gius@@ 1
ror 1
Tes@@ 1
Megid@@ 1
infor@@ 1
plun@@ 1
Mark@@ 1
wah@@ 1
happen@@ 1
senten@@ 1
instorm 1
wrongdo@@ 1
ZA@@ 1
Quebe@@ 1
Conven@@ 1
did@@ 1
Masi@@ 1
miko 1
aye 1
susp@@ 1
Ma 1
NA 1
Bulg@@ 1
uny 1
sth@@ 1
HIG@@ 1
Pharis@@ 1
viously 1
hum 1
amities 1
tenment 1
aher 1
ras@@ 1
nei@@ 1
splend@@ 1
Nal@@ 1
sie 1
nol@@ 1
Myan@@ 1
prophe@@ 1
portunity 1
kud@@ 1
Sobhu@@ 1
ku 1
brea@@ 1
illa@@ 1
mish 1
Answ@@ 1
taun@@ 1
Chak@@ 1
enship 1
Una@@ 1
gir 1
Dieh@@ 1
speech@@ 1
CHE 1
idolat@@ 1
Joh 1
thood 1
thoth 1
orite 1
Austr@@ 1
accep@@ 1
lon@@ 1
chants 1
Est 1
anxi@@ 1
counterfe@@ 1
ogen 1
assemb@@ 1
̇@@ 1
Ṭ@@ 1
Michi@@ 1
undu@@ 1
Elie@@ 1
lifel@@ 1
uter@@ 1
ico 1
esthood 1
Kingsle@@ 1
waver@@ 1
web@@ 1
Repu@@ 1
Ces@@ 1
moor 1
umen 1
kiah 1
Canaan@@ 1
è 1
mika@@ 1
ones@@ 1
Euni@@ 1
uri 1
wir@@ 1
Esa@@ 1
coho@@ 1
Gile@@ 1
onicles 1
ʺ 1
khi 1
spr@@ 1
kor@@ 1
Philis@@ 1
Resear@@ 1
taber@@ 1
imin@@ 1
Broad@@ 1
wab@@ 1
Fergus@@ 1
dece@@ 1
pare 1
esn’t 1
Fit@@ 1
tari@@ 1
fia 1
Nure@@ 1
oney 1
ight 1
Gh@@ 1
oken@@ 1
Cou@@ 1
ppi 1
imum 1
Shulem 1
î@@ 1
thi 1
Os@@ 1
Jop@@ 1
esseng@@ 1
tee 1
Dha@@ 1
shipw@@ 1
yom@@ 1
spiritu@@ 1
Davi@@ 1
kop@@ 1
Kan@@ 1
ris 1
Jacob@@ 1
aber 1
unforget@@ 1
jor@@ 1
chir 1
voy@@ 1
Guate@@ 1
bies 1
unk 1
Amer@@ 1
gest 1
prophes@@ 1
ego@@ 1
Viet@@ 1
found@@ 1
gather@@ 1
amu 1
tang 1
Irel@@ 1
umbing 1
estilen@@ 1
esttime 1
egle@@ 1
azar 1
match@@ 1
Pione@@ 1
emplar 1
Egypti@@ 1
estine 1
pite 1
Elisabeth 1
portu@@ 1
snared 1
ENTLY 1
jog 1
indo 1
opic 1
Sime@@ 1
Consol@@ 1
Publi@@ 1
kes@@ 1
thage 1
Motiv@@ 1
Eno@@ 1
import@@ 1
emo@@ 1
Epa@@ 1
nde@@ 1
taro 1
reel 1
gamy 1
ourself 1
Ã@@ 1
Abis@@ 1
Hera 1
umbi 1
make@@ 1
hta 1
thiness 1
Maure@@ 1
imperfe@@ 1
zig 1
mb 1
Melchi@@ 1
Ale@@ 1
estina 1
Buil@@ 1
ember 1
Dina 1
Rah@@ 1
oe 1
mus 1
Ever@@ 1
ND@@ 1
Reho@@ 1
itly 1
nop@@ 1
keen@@ 1
Jeremi@@ 1
way@@ 1
isel@@ 1
obe 1
ince 1
tainment 1
enjo@@ 1
Bibli@@ 1
jecting 1
erxes 1
resta@@ 1
pend@@ 1
erity 1
Syn@@ 1
prohibi@@ 1
symp@@ 1
Sep@@ 1
preven@@ 1
Whi@@ 1
discipl@@ 1
Toñ@@ 1
min 1
chok@@ 1
š@@ 1
paralleled 1
girl@@ 1
rina 1
present@@ 1
Inger@@ 1
ami 1
letin 1
osom 1
jah@@ 1
bas 1
gni 1
zo 1
amora 1
Poti@@ 1
tiz@@ 1
Nd@@ 1
tob@@ 1
oler@@ 1
oya 1
marit@@ 1
mony 1
Za@@ 1
tand@@ 1
olo 1
Yes@@ 1
pino 1
Manuscrip@@ 1
Orbeli@@ 1
posal 1
ame@@ 1
ould 1
rod@@ 1
usal 1
many@@ 1
− 1
Malcol@@ 1
Regar@@ 1
chul@@ 1
ubs 1
pat 1
demean@@ 1
BELI@@ 1
sik 1
ö 1
Kap@@ 1
GIN 1
prehend 1
Vul@@ 1
wan 1
peril@@ 1
mare 1
Convers@@ 1
telev@@ 1
Josef 1
appropri@@ 1
.0@@ 1
marath@@ 1
precedented 1
Frank@@ 1
kend 1
kards 1
ubed 1
dend@@ 1
adel@@ 1
concen@@ 1
may@@ 1
agin@@ 1
tog@@ 1
Let@@ 1
embr@@ 1
reat@@ 1
Kin@@ 1
kenhearted 1
Veng@@ 1
ccl@@ 1
pasta 1
rey 1
unist 1
aler@@ 1
sms 1
Command@@ 1
Belo@@ 1
RO 1
compu@@ 1
MATTHE@@ 1
figu@@ 1
isi 1
Hum@@ 1
umba 1
Kev@@ 1
gik 1
reve@@ 1
pa 1
argum@@ 1
ink@@ 1
estic 1
YU@@ 1
KO 1
Dere@@ 1
Kod@@ 1
Mesopota@@ 1
az 1
kus@@ 1
eder 1
PSAL@@ 1
Aka@@ 1
Dhi@@ 1
buch 1
chama 1
individu@@ 1
keth 1
OTE 1
Vit@@ 1
õ@@ 1
arios 1
cter 1
Begin@@ 1
ase@@ 1
Less@@ 1
judiced 1
iger 1
ttably 1
wers 1
oundings 1
mone 1
summon@@ 1
Tha@@ 1
nori@@ 1
elo 1
Pit@@ 1
idi 1
aston@@ 1
Ó@@ 1
campaig@@ 1
MBA 1
say@@ 1
Manasse@@ 1
profoun@@ 1
prais@@ 1
Regul@@ 1
evenly 1
urate 1
immu@@ 1
Nebuchad@@ 1
Mala@@ 1
Kuo@@ 1
burgh 1
ettes 1
preh@@ 1
ombo 1
MOT@@ 1
cigar@@ 1
semble 1
amin 1
rite 1
peg 1
liveli@@ 1
sages 1
motherapy 1
pad@@ 1
à@@ 1
aka@@ 1
Margar@@ 1
Inj@@ 1
Sir@@ 1
Q 1
ão 1
Mig@@ 1
Kam@@ 1
pala 1
insul@@ 1
comprehensible 1
exis@@ 1
Cana@@ 1
hist@@ 1
wak@@ 1
Mad 1
mose@@ 1
Pach@@ 1
Eritre@@ 1
BED 1
Elis@@ 1
tance 1
sip@@ 1
pose@@ 1
aeus 1
