<unk>
<pad>
<s>
</s>
.
,
the
to
and
dey
for
we
of
wey
:
go
Jehovah
e
?
dem
sey
that
no
a
do
in
make
people
us
be
you
“
(
)
fit
”
I
our
wetin
am
one
talk
come
God
get
this
with
—
help
as
Bible
​
is
na
their
about
from
E
im
or
Jesus
-
’
The
his
well
when
things
don
like
‘
was
time
1
person
But
take
not
work
how
on
mind
all
want
have
use
he
know
still
can
will
give
if
We
it
me
How
are
your
love
good
life
they
show
other
see
2
tell
because
;
who
so
by
!
Na
my
some
For
Wetin
re@@
brothers
thing
them
3
example
What
This
many
better
When
what
an
at
If
even
need
congregation
think
Paul
serve
And
de
God’s
learn
had
4
but
more
before
a@@
in@@
5
were
way
Jehovah’s
years
6
did
him
So
ing
happy
kind
would
pass
first
faith
preach
b@@
In
12
S@@
may
s@@
put
Why
happen
Dem
d@@
reach
ed
family
really
As
i@@
You
only
different
8
10
un@@
11
say
world
there
13
o@@
bad
matter
He
t@@
7
en@@
where
9
Kingdom
spirit
children
15
Make
those
pikin
ted
s
follow
has
place
true
man
body
e@@
Christian
b
A@@
strong
E@@
sisters
ar@@
de@@
another
just
up
c@@
wife
new
any
name
suppose
14
brother
John
hand
es
day
could
teach
should
two
una
l@@
again
truth
k@@
er
p@@
16
feel
out
others
Read
’s
read
er@@
let
continue
ac@@
her
st@@
problem
die
u@@
study
17
T@@
ly
f@@
now
After
such
That
start
One
al
y
an@@
young
also
n@@
18
Even
why
carry
own
preaching
t
does
ts
language
choose
small
stop
papa
been
sister
change
Because
No
mama
ti@@
promise
m@@
20
too
ers
li@@
O@@
Christians
di@@
after
support
must
spiritual
peace
B@@
on@@
believe
It
M@@
write
everything
They
sin
sure
apostle
today
al@@
comot
Satan
W@@
end
house
ask
19
being
she
try
ri@@
David
y@@
H@@
mean
P@@
down
heart
part
g@@
elders
husband
which
power
something
ate
F@@
call
st
book
money
ting
back
Matt
r@@
sense
con@@
times
pioneer
stay
w@@
meeting
friend
than
face
A
earth
22
able
hard
Some
pre@@
king
Peter
el@@
1@@
Word
never
23
though
always
D@@
th@@
ds
ma@@
holy
character
z@@
control
ra@@
Many
country
C@@
each
red
Job
Israel
Ps
find
join
To
Christ
L@@
Joseph
anything
these
plenty
I@@
se@@
lo@@
worship
or@@
i
pa@@
old
21
question
made
ded
into
24
enjoy
ever
live
ab@@
same
word
ca@@
correct
co@@
ad@@
King
respect
ready
ent
answer
p
understand
ally
Cor
pro@@
Acts
fight
ex@@
might
said
remember
n
right
le@@
together
keep
tion
organization
praise
leave
men
at@@
People
Do
ones
l
d
K@@
pray
freedom
th
Witness
baptize
whether
important
near
Which
three
parents
vi@@
become
fear
ment
hear
ch@@
G@@
its
ated
over
hope
Luke
look
v@@
ding
woman
topic
news
eye
ful
ss
rule
trust
later
easy
[
im@@
]
su@@
sa@@
every
heaven
am@@
be@@
N@@
mo@@
bless
en
R@@
then
ho@@
gain
year
Noah
advice
m
disciples
Our
po@@
per@@
joy
Prov
self
il@@
ve
suffer
Witnesses
sabi
My
Daniel
com@@
kill
se
te@@
tions
bring
words
much
it@@
very
prayer
ant
government
do@@
allow
sing
days
faithful
school
ci@@
Rom
ministry
human
25
Brother
si@@
as@@
led
direct
big
free
fi@@
ous
last
ge
28
food
ter@@
fully
ro@@
U@@
marriage
Adam
consider
Re@@
service
side
All
o
law
marry
mi@@
among
fe@@
for@@
inside
full
forgive
ty
ine
ul@@
pain
death
says
tly
fine
long
wait
meet
le
doing
19@@
born
son
ation
city
Psalm
vex
worry
Instead
found
me@@
care
area
h@@
Father
ta@@
ur@@
message
serious
sweet
sti@@
der
so@@
through
story
la@@
gree
war
send
build
ance
reason
ourselves
Gen
et
However
30
clean
enter
servant
te
See
train
g
ments
treat
value
ssed
set
Jerusalem
view
remain
convention
most
serving
personal
33
special
servants
yourself
bo@@
5@@
number
At
religion
sh@@
no@@
verse
meetings
used
Heb
ver@@
From
lie
wicked
ea@@
gave
wahala
act
Your
mek
article
Timothy
tive
paragraph
Bethel
ways
26
dis@@
elder
ck
mistake
Abraham
great
ourself
Before
forget
grow
r
par@@
ks
around
Moses
told
prison
quick
Person
ha@@
baptized
course
fellow
lead
plan
ness
ry
Law
himself
against
means
ving
c
ren@@
whole
age
ru@@
gra@@
experience
ct
Matthew
listen
6@@
32
apostles
qu@@
cause
ked
Babylon
bear
Tim
finish
ce
favor
34
*
ev@@
given
everybody
helped
Pet
Today
under
gift
ob@@
27
imself
Isa
k
arrange
Another
ings
ne@@
Then
ga@@
circuit
needed
ary
best
home
theirself
ling
pe@@
branch
Scriptures
ying
endure
sometimes
head
asked
overseer
ged
making
wrote
blessing
ence
29
tu@@
V@@
40
stand
wisdom
Eph
Yes
encourage
kindness
Dey
ir@@
Yet
next
thinking
31
tey
moved
speak
to@@
ss@@
whom
ou@@
min@@
far
save
letter
She
h
tire
Like
Watchtower
result
gi@@
hold
Romans
tre@@
protect
sh
temple
ar
began
less
cted
pri@@
check
decisions
form
wi@@
knowledge
share
chance
concern
land
Eve
light
By
ined
became
copy
gu@@
benefit
sacrifice
Jews
ity
J@@
195@@
four
night
slave
questions
ch
office
humans
ph@@
du@@
visit
turn
37
35
wise
8@@
les
De@@
avoid
ver
x@@
wear
Jew
obey
second
cu@@
har@@
play
clear
away
came
als
church
20@@
run
encouragement
took
baptism
water
order
ses
Th@@
counsel
disciple
possible
True
during
group
Later
having
uni@@
pi@@
both
w
future
move
od
themselves
felt
Consider
Check
prophet
ced
j@@
often
giving
der@@
With
sleep
ter
righteous
qualities
Let
pity
child
conscience
S
point
9@@
ic@@
ction
cloth
ms
ten@@
spiritually
dress
resurrection
ating
learned
receive
judge
sp@@
especially
od@@
ously
patient
Jephthah
fact
va@@
sub@@
open
discipline
property
oun@@
beg
dly
cre@@
man@@
situation
honor
real
Their
travel
Or
already
SONG
SONGS
begin
mother
tri@@
ali@@
while
ther@@
pl@@
No@@
loving
examples
fa@@
On
comm@@
high
angel
sion
Governing
Body
chop
accept
thank
mb@@
ingly
Sometimes
main
friends
fall
we@@
however
flesh
front
wanted
settle
il
app@@
ce@@
Memorial
without
cation
unity
principles
over@@
,000
cor@@
imitate
affect
Since
fin@@
women
father
An@@
Ma@@
Lord
ans
tes
Con@@
Son
James
soon
ws
Hall
publishers
angels
missionary
someone
dre@@
living
School
ol@@
gro@@
pp
wor@@
material
ard
Think
mer@@
fac@@
problems
His
ces
cannot
ach@@
ze
Y@@
nothing
win
sed
early
Israelites
In@@
lives
0@@
res
Ne@@
New
Greek
ates
mp@@
ransom
since
fruit
enemy
explain
toward
Mary
World
Gal
ges
war@@
go@@
ble
invite
likely
purpose
Is
ely
Ser@@
tra@@
undeserved
u
knew
difficult
ned
ssi@@
public
served
draw
fied
Li@@
ve@@
je@@
cri@@
ser@@
Ch@@
These
Im
4@@
Chron
7@@
tr@@
na@@
Isaiah
Life
Still
close
courage
married
sen@@
appe@@
Now
Mar@@
ves
few
ten
00
fy
Hebrew
heavenly
touch
Thus
ven@@
ssing
until
matters
bur@@
coun@@
Un@@
cont@@
May
anointed
ani@@
Who
attitude
Col
everywhere
194@@
ftn
tal@@
handle
z
enti@@
position
teaching
36
desire
There
str@@
lu@@
ship
end@@
soldier
out@@
once
St@@
pu@@
reading
ons
blessings
ved
den@@
ing@@
daughter
op@@
maintain
needs
ber@@
Rev
car@@
Solomon
mate
complete
Sam
sted
clo@@
Be@@
sta@@
sto@@
Mark
Go
comfort
So@@
called
using
feelings
pay
case
Scriptural
Those
zed
tight
x
century
laws
village
hate
ah
ic
decision
shoulder
greater
surprise
inter@@
yed
Phil
ations
—⁠
is@@
cen@@
sheep
pioneers
ge@@
por@@
cha@@
cts
congregations
going
he@@
individuals
got
field
ground
politics
0
Remember
regular
sions
done
contribute
gh@@
Asa
stri@@
ming
strengthen
strength
chapter
experienced
ill@@
ist@@
provide
Di@@
assignment
ell
el
Jo@@
between
pe
Roman
gives
ders
hi@@
mentioned
sofri
certain
willing
10@@
mold
ning
50
members
Zechariah
ke
town
received
gather
Rome
prepare
appreciation
Hezekiah
Jas
39
ad
Of
accomp@@
’@@
army
sur@@
Lo@@
anybody
est
wing
wrong
ties
tional
relationship
Students
hor@@
Pa@@
Eli@@
sures
waka
involved
ner
month
mor@@
sovereignty
ger
ong@@
shed
cap@@
2@@
trials
taking
vo@@
force
Jacob
Be
vision
forever
circumstances
fo@@
deep
ns
personality
Egypt
went
d’s
imperfect
apply
raise
collect
died
gener@@
system
destroy
stre@@
alls
med
ir
saw
ters
comes
Bar@@
confidence
ran@@
Devil
anyhow
lim@@
deal
loyal
ace
mar@@
action
ot
business
au@@
following
stu@@
practical
dent
cting
Se@@
ath
Hannah
id
ele@@
opportunity
Papa
Love
lies
Paul’s
ear@@
ll
showed
conduct
coming
left
working
friendship
ited
six
off
200@@
ang@@
thus
wa@@
Messiah
actions
goal
truly
sha@@
efforts
produce
kept
associ@@
pursue
mouth
responsibility
reflect
wn
goals
compassion
up@@
ite
tribulation
tur@@
sts
Satan’s
Such
Rather
hands
low
issue
:⁠
command
fake
interest
local
mankind
ps
bro@@
Wey
dra@@
false
ors
buy
medi@@
building
loo@@
determined
regularly
Get
paradise
While
La@@
38
sin@@
effort
nor
45
Although
taught
present
territory
saying
ily
temp@@
watch
helping
scatter
belle
sickness
months
off@@
sho@@
nor@@
makes
Ca@@
bu@@
14@@
sses
poor
stated
tion@@
behave
song
bi@@
rep@@
helps
five
loved
Su@@
agree
Pro@@
War
ens
standards
United
ay
witness
tribe
instead
doubt
Martha
spoil
pt
gold
sent
sotey
ability
here
foreign
known
yet
shine
sign
ites
activities
Other
thought
tain
correction
hearts
Ad@@
fail
rest
rather
ear
Ki
Just
leaders
met
des
Proverbs
sy@@
Apostle
Judah
Ex@@
week
cy
develop
oni@@
sive
eyes
ori@@
guide
Ruth
and@@
nobody
des@@
exp@@
Joshua
ys
encouraged
lesson
sell
Germany
spe@@
assigned
vis@@
tic@@
Z@@
Keep
trouble
high@@
provided
godly
older
Jehoshaphat
Au@@
ref@@
wh@@
eal
desires
list@@
deli@@
past
quarrel
top
ol
heavy
emo@@
main@@
priest
perhaps
dead
bor@@
rela@@
Deut
challenges
reli@@
showing
qui@@
sick
students
picture
contribu@@
Are
ff@@
couple
fore@@
sex
member
sins
hear@@
lying
First
cal
stra@@
drink
student
evi@@
sla@@
tax
fun@@
wonder
Ezekiel
Jewish
inspired
ere
return
sugge@@
ster
perfect
cally
T
brought
anxiety
Corinthians
don@@
followers
fre@@
Mo@@
patience
partial
training
oga
cla@@
tation
gr@@
inten@@
evidence
comp@@
fe
precious
199@@
exc@@
similar
ality
progress
mit@@
ue
Eccl
table
neighbor
ap@@
condition
rec@@
road
N
ia
new@@
commen@@
simple
written
ably
miles
ill
understanding
Indeed
About
becoming
Rehoboam
wonderful
ct@@
Ask
sons
sely
temper
jo@@
da@@
rain
attention
please
ines
divi@@
On@@
eight
tain@@
shows
cho@@
sting
humility
Does
focus
glory
row
simply
ward
conclu@@
translate
mercy
creation
States
account
seek
rely
Bro@@
warn
repent
Co@@
cl@@
Any@@
situations
Ze@@
ened
ft
ose
religious
den
Na@@
instru@@
ee@@
ging
70
42
resurrect
accepted
Gaius
shing
everlasting
ef
flo@@
including
heard
provi@@
f
indi@@
justice
little
dia
care@@
pped
arrangement
god
ctions
truths
Me
gy
longer
worshippers
Ar@@
July
y’s
Po@@
Thess
ong
sel@@
quali@@
lose
door
gre@@
regarding
Watch
promised
ign
ste@@
assembly
available
role
gir@@
iah
Lu@@
41
Com@@
jw.org
website
farm
rewar@@
dience
warning
held
miss
consider@@
health
Al@@
bri@@
proper
To@@
men@@
.@@
addition
deceive
court
weak
direction
sexual
uses
Will
ancient
morning
sol@@
ure
lar
supp@@
regard
dedication
attend
influence
everyday
tru@@
The@@
alone
benefits
choice
style
physical
interests
lived
eat
sia
thy
lands
faced
deal@@
privilege
appropriate
political
sitdown
started
effect
sy
Australia
ke@@
wer
ls
bl@@
refuge
respond
ssions
3@@
wo@@
ences
ining
contrast
Jud@@
expect
seen
zing
hospitality
ana
ched
allowed
iting
struction
along
Je@@
steps
C.E
articles
pat@@
spend
ark
ut
under@@
Give
plan@@
exercise
ba@@
dies
Per@@
anyone
Apart
ake
60
ght
att@@
based
greet
km
sk@@
writ@@
meaning
appreciate
filled
firm
obe@@
English
Hebrews
guidance
Go@@
bel@@
Tower
Russell
than@@
quality
Me@@
catch
sand
Where
ory
dist@@
righteousness
mature
speaking
grand@@
Don
refer@@
pres@@
parti@@
motor
Christ’s
ening
Young
realize
comfor@@
drive
Ro@@
strive
humble
Not
us@@
welcome
challenge
York
clearly
enjoyed
Ju@@
certainly
kingdom
younger
Arthur
promises
ssion
Mi@@
invited
earlier
solve
wrong@@
tried
refle@@
alive
all@@
considered
ending
waste
Gilead
Una
spoke
imp@@
boy
chil@@
tal
stone
sor@@
thief
harmony
whose
illustration
else
Also
prison@@
dol@@
Dan
ah’s
voice
named
alous
ement
L
City
ann@@
fire
nu@@
wants
Use
vow
can@@
gri@@
hu@@
ministerial
perfe@@
overcome
minded
lot
hungry
increas@@
happened
Things
Sa@@
Ri@@
lea@@
happiness
ju@@
Y
worked
accep@@
beyond
Would
according
disa@@
attending
paragraphs
ately
ore
fu@@
dro@@
Catholic
ok
cost
cover
decided
cing
integrity
governing
plain
stick
cultivate
mark
Therefore
despite
large
publications
em@@
ag@@
sight
tually
Genesis
explained
remove
ess
thoughts
ker
our@@
normal
sword
Lea@@
offer
sou@@
Si@@
magazine
injustice
enjoyment
believers
sincere
gui@@
discu@@
one’s
guard
test
encouraging
advise
turned
discuss
differ@@
ze@@
Ex
singing
kewise
Did
rebel@@
appro@@
several
box
ire
necessary
June
RO@@
blood
ty@@
importance
Two
stan@@
eti@@
cry
rac@@
taken
ud@@
short
some@@
Le@@
threat@@
R
hol@@
myself
Have
modesty
reasons
ies
O
earthly
colle@@
ni@@
seed
196@@
B.C.E
ach
enga@@
sa
rich
lessons
common
tt@@
tting
modest
greatest
struggle
impre@@
within
urged
Isaac
ants
represen@@
119
everytime
learning
battle
mer
information
ple
one@@
fer@@
presen@@
appointed
Turkey
serves
bus
plant
sharing
ctive
ense
Philippi
bal@@
Brothers
almost
Help
Work
Silas
Bible’s
During
line
endurance
explains
Saul
olden
instance
Am@@
gue
44
claim@@
nation
vered
note
forgiveness
demons
dep@@
stly
nations
est@@
million
sured
Rus@@
Ha@@
island
secular
basis
positive
shepher@@
tree
animal
faithfully
knowing
soldiers
refugee
cope
sha
offici@@
pleas@@
Hence
ral
expe@@
riches
authority
ject
cities
leader
changes
beginning
books
forward
lished
plea@@
minds
descri@@
Others
bes
firstborn
ene@@
Great
col@@
powerful
culture
disfellowship
Happ@@
wuna
proved
weeks
continued
Fa@@
crip@@
Ghana
dr@@
hours
are@@
boat
eli@@
greeting
reward
tro@@
break
salvation
ish
psalmist
conv@@
throughout
divine
Can
Wor@@
Whether
Africa
valuable
Story
18@@
ered
Ireland
camp
kin@@
release
daily
197@@
identi@@
ended
Canada
shame
aly@@
gl@@
raised
lation
walk
Good
include
sity
ears
adju@@
ener@@
keeping
materi@@
ash
pack
tained
Steph@@
react
prove
H
pp@@
trans@@
ches
works
add
takes
rul@@
judgment
effective
Nathan
Fran@@
fruitage
ight
created
further
oin@@
examine
’t
relates
spirituality
ther’s
head@@
promote
national
employ@@
changed
thern
Pri@@
Faith
publisher
Elders
stic
earing
single
hab@@
Maria
Jer
OR
deaf
nesses
provides
anger
blo@@
France
accounts
seeking
focused
pes
returned
ly@@
police
Que@@
bus@@
sees
ext
iness
vely
ber
ma
hide
former
ak@@
tabernacle
relatives
program
ering
fying
included
mistakes
preached
motiva@@
ature
Am
Gi@@
key
lost
experiences
inc@@
ond
genuine
igh@@
arre@@
doctor
stand@@
lion
success@@
immorality
pioneering
pper
ples
closer
refugees
smile
ico
Creator
sm
deeply
sides
cal@@
requi@@
jects
Imagine
reve@@
En@@
understood
reasonable
Wi@@
cer@@
seem
worth
activity
cations
anytime
results
Mal@@
peace@@
ahead
Ni@@
seven
kers
satis@@
Naz@@
exten@@
gran@@
sound
visit@@
literature
decide
consequences
Josiah
1914
paper
suffering
MA@@
knows
Samuel
related
Hans
Better
volunte@@
arri@@
the@@
worl@@
Philippians
auth@@
cur@@
approach
Take
def@@
Being
type
nearly
mil@@
cro@@
aspects
discoura@@
oppo@@
white
source
Ho@@
hundre@@
till
invol@@
Deuteronomy
events
exerci@@
hea@@
regi@@
confident
half
Wil@@
blessed
improve
tem@@
described
punish
ships
trial
completely
spre@@
estab@@
M
Ahab
clay
ins
basic
Moreover
ign@@
room
expression
ached
record
suppor@@
righ@@
reaching
aware
duce
Book
Every@@
Each
assist
crow@@
required
answers
worthy
neutral
practice
expressed
rel@@
ken
43
ount
bed
pla@@
46
fulfillment
mid@@
gh
int
minist@@
realized
military
kin
individual
entertainment
beliefs
cure
buil@@
tel@@
conne@@
involves
grateful
ey
distri@@
poin@@
Japan
sul@@
shown
els
Fe@@
wel@@
partment
cial
um
third
Clearly
Holy
added
lif@@
Philippines
emb@@
quickly
witne@@
El@@
lov@@
invitation
reject
therefore
ture
pride
treasure
great@@
thro@@
develop@@
opp@@
occasion
back@@
surance
orities
approval
cs
senior
Revelation
discer@@
areas
Awake
Britain
Nehemiah
Well
sci@@
enough
prejudice
offered
wea@@
Similarly
privileges
pressure
ort
prophecy
adul@@
separate
Char@@
Sep@@
mea@@
mountain
South
shake
languages
setting
overwhel@@
hurt
display
Spir@@
express
Pra@@
arrived
states
enemies
dedicated
h’s
rejoice
ack
ctor
kings
cti@@
posed
pr@@
nine
ful@@
angeli@@
heartfelt
refused
education
ars
derly
gent
commit@@
lish
choices
distre@@
sacred
eventually
cep@@
da
traveling
evening
personally
cold
cut
ently
lack
IUD
Nevertheless
negative
illu@@
moving
governments
succe@@
indicate
che@@
leading
fulness
jected
worshipp@@
meditate
ld
container
Judges
imagine
execu@@
interested
initi@@
observe
Perhaps
respe@@
iled
whatever
hat@@
ils
147
Ephesians
ring
will@@
secre@@
outside
legal
Christ@@
stranger
sun
ck@@
miracle
recorded
teachings
rou@@
Jan@@
curse
speech
resur@@
concer@@
placed
compa@@
above
appreci@@
cases
ried
ybe
offering
diso@@
lied
families
As@@
visited
Pu@@
rest@@
gun
weak@@
low@@
lions
Ba@@
Tru@@
tively
opposition
teacher
1919
mates
chari@@
Bo@@
strugg@@
scri@@
v
believing
pur@@
tern@@
deed
behind
af@@
Despite
continu@@
ans@@
overseers
tici@@
tary
atten@@
far@@
Most
dation
life@@
trap
acted
pair
affection
tin@@
Rachel
Boaz
mon@@
ugh@@
ON@@
ands
eng@@
succeed
fir@@
late
film
asking
ust
opportunities
she@@
ice
Her@@
everyone
0,000
putting
val
neighbor@@
behalf
sm@@
protection
Questions
55
prayers
An
tch
wives
breeze
tend
Fin@@
happ@@
Kyrgyzstan
posse@@
joy@@
,@@
Mind
loyalty
disturb
hy@@
Assyri@@
Gu@@
spent
danger
Madagascar
char@@
research
heal@@
accurate
foretold
198@@
ners
brea@@
Though
dness
selfish
Sarah
extent
concerned
translation
TH@@
formed
ate@@
gradu@@
lled
2015
beautiful
strangers
rected
vel
ron@@
lau@@
mage
getting
school@@
promo@@
outstanding
less@@
More
survive
ord@@
conditions
direc@@
100
Lam@@
mly
resul@@
organized
afraid
yc@@
65
standing
England
peri@@
April
influ@@
gen@@
lou@@
praying
fast
adly
prayed
issues
prevent
gifts
cou@@
ini@@
manner
Minist@@
Titus
yri@@
Publi@@
chose
sible
shout
displa@@
ili@@
ak
Eden
exist@@
cked
warm
theocratic
response
Corinth
tives
ra
fav@@
guil@@
sele@@
music
difficul@@
ital
Mexico
print
n’s
strengthened
val@@
manage
humb@@
ina
tors
comman@@
weather
construction
Jeremiah
tomorrow
ari@@
wayo
Babyl@@
entire
ouths
Rutherford
compani@@
violence
vir@@
w16.@@
vital
inf@@
ird
Joh@@
ko
HE@@
respect@@
San@@
ind
loves
ycle
acts
ories
patiently
repor@@
practices
Pi@@
original
Gideon
Stu@@
JW
Ethiopi@@
dy
ounds
52
ank
tered
sort
regret
anim@@
hood
universe
beha@@
seemed
association
ority
clu@@
job
applied
JE@@
anxious
brochure
earn
bringing
gentle
load
Ezek
disp@@
increase
Fre@@
obedi@@
failed
Feli@@
Judg
tter
science
tful
occur
Society
car
ble@@
Judea
stat@@
immor@@
fle@@
paganda
corru@@
mission
Colossians
strength@@
deta@@
modern
pha@@
followed
earne@@
mental
Europe
oned
dently
person@@
neither
notice
Num
oper@@
mark@@
demon@@
51
Second
sca@@
mu@@
overdo
feeling
reas@@
seri@@
ney
cul@@
organiz@@
Ver@@
High
phone
seems
careful
united
anywhere
decl@@
letters
iah’s
pleased
inher@@
help@@
determine
viewed
Ang@@
Ra@@
measure
arise
directed
According
sancti@@
tou@@
Geor@@
hot
dered
rele@@
abilities
Around
produ@@
swear
ssa@@
Congrega@@
abroad
IN@@
bel
reque@@
Through
cate
oring
garden
brings
hon@@
expre@@
conversation
pursu@@
command@@
repentant
Jose@@
proce@@
49
vity
fleshly
sk
persecution
recogni@@
ased
condem@@
vor
occur@@
lasting
thri@@
sist@@
prote@@
site
walking
courageous
wp@@
surely
places
1,@@
aspect
spoken
countries
trowey
bo
opened
sacrifices
signed
hael
quar@@
sea@@
Mek
delight
w17.@@
sinful
parent
cra@@
clothing
Armageddon
satisfaction
silver
mol@@
ig@@
Samaritan
convinced
occa@@
F
worse
II
desi@@
titude
trusted
aled
easier
THE
disapp@@
App@@
ither
enly
quire
mildness
mach@@
center
yi@@
Gra@@
incl@@
illed
clean@@
hand@@
Try
devotion
limited
suffer@@
mani@@
aling
Could
trying
transl@@
adverti@@
honest
demonstrate
fit@@
hospital
principle
various
Sm@@
campaign
recognize
assist@@
ctors
class
iron
tran@@
faul@@
missionaries
Shebna
fill
shipp@@
atures
gla@@
throne
quo@@
Pharisee
traveled
November
U.@@
household
black
Plenty
worker
includes
answered
Everybody
mit
homes
gree@@
seeing
Chr@@
cated
prize
mild
watch@@
conviction
hel@@
Ant@@
tee
ush
finally
usu@@
whole@@
prin@@
Abi@@
Elijah
mb
beloved
search
Sim@@
ership
produced
Rea@@
final
repe@@
vice
D
shor@@
faith@@
ese
endea@@
gar@@
opening
cru@@
ya
48
Eu@@
Nov
erci@@
due
itu@@
surpri@@
claim
hone@@
youth
telling
sen
solu@@
choo@@
maj@@
affected
Ga@@
enter@@
itations
chief
social
governor
alou@@
cent
advanta@@
birth
grew
angu@@
yer
least
leg
admoni@@
Every
sty
eafter
December
br@@
Peter@@
prepared
ie@@
kedness
Pen@@
bearing
shment
lar@@
hur@@
specific
mighty
prospect
freely
upon
kindly
Promi@@
songs
challenging
remained
lori@@
drawn
Paradise
Pharao@@
attack
anci@@
believ@@
sist
views
Mic@@
ki@@
strate
Naboth
wine
empha@@
meditating
confli@@
emp@@
dri@@
waiting
centuries
Fri@@
jour@@
vior
tor@@
Ac@@
Por@@
Sh@@
elf
tical
expected
offspring
conven@@
sett@@
sal@@
wed
scro@@
video
wee@@
trained
observed
offic@@
ew
quite
sport
div@@
worldwide
ping
scriptures
sun@@
ots
daugh@@
proud
spea@@
stars
tor
mention
moun@@
studied
partner
thousands
ther
significant
lead@@
poli@@
arrang@@
priests
Can@@
ph
responsibilities
sper@@
tember
ods
contro@@
teachers
ffer@@
zar@@
ames
primary
receiving
responded
friend@@
Bi@@
tells
ep
mon
disfellow@@
oli@@
thi@@
prophe@@
superi@@
V
semb@@
thou@@
vie@@
bli@@
circum@@
B
dea
stions
stud@@
urch
avo@@
stru@@
ste
Gree@@
eness
wal@@
vel@@
sembly
han@@
ern
song@@
knowled@@
Pe@@
benef@@
repent@@
arly
wit@@
fish
atu@@
charac@@
determin@@
cultiva@@
jud@@
cle@@
devo@@
famili@@
dest@@
responsi@@
outh
apti@@
yl@@
Phari@@
Ru@@
tw@@
rea@@
ile
itation
easi@@
reason@@
sever@@
sacrifi@@
thre@@
doub@@
advan@@
Is@@
Israel@@
condu@@
gn@@
heaven@@
apost@@
reg@@
Christi@@
ial
justi@@
magaz@@
sus
assign@@
Davi@@
fulf@@
wil@@
eld
edu@@
thel@@
shi@@
deep@@
bac@@
puni@@
ends
tic
re
valu@@
sear@@
Pl@@
slation
wers
dee@@
ple@@
mean@@
trea@@
publish@@
ound
husb@@
om
Ab@@
fru@@
contain@@
ocratic
bs
publi@@
ious
Do@@
aring
stion
god@@
pray@@
mag@@
em
Colo@@
physi@@
bene@@
see@@
W
reci@@
uch
loy@@
sour@@
ards
med@@
ur
earth@@
tle
/
arding
teach@@
Ste@@
ext@@
comple@@
sign@@
stood
vere@@
illustra@@
ousness
adv@@
angers
mir@@
rit@@
Par@@
san@@
survi@@
proph@@
cei@@
IU@@
Zechar@@
wat@@
Hel@@
ests
Da@@
tral
oc@@
é
house@@
Jer@@
Mat@@
que@@
fron@@
scho@@
Cor@@
tely
reali@@
dwide
persecu@@
per
ularly
effe@@
hospit@@
uring
dren
wake
exam@@
gg@@
gal
nex@@
rejo@@
Phili@@
infor@@
separ@@
Kyrgy@@
dition
ici@@
deci@@
dance
viol@@
religi@@
dence
Ephe@@
read@@
ffer
Eph@@
volun@@
trou@@
ths
long@@
aw@@
titu@@
ince
mee@@
í@@
evil
proper@@
her@@
ey@@
allow@@
princi@@
desty
sit@@
ointed
pose
progre@@
destro@@
pag@@
He@@
aries
Ec@@
simil@@
fri@@
power@@
igh
les@@
ent@@
Ti@@
mission@@
memb@@
ink
Ger@@
itate
lik@@
tribu@@
inking
ven
boo@@
aching
Tho@@
consi@@
beli@@
bir@@
cour@@
grou@@
mber
gement
,0@@
mble
aga@@
ka
thers
fil@@
serv@@
post@@
ñ@@
hun@@
specifi@@
ries
ech
chang@@
itating
ó@@
ours
fam@@
ghts
kes
Jephth@@
pra@@
ages
ise
sexu@@
territ@@
soci@@
sis
Matthe@@
Ge@@
6.@@
privile@@
neu@@
rais@@
mies
reco@@
ranch
salm
deserved
son@@
dom
G
encoura@@
·@@
dem@@
simp@@
gni@@
chap@@
enjo@@
spir@@
U
ceive
vation
dest
star@@
posi@@
ould
Qu@@
tings
liter@@
possi@@
primar@@
foc@@
ices
wish
arr@@
prospe@@
mes
bre@@
urther
distur@@
ous@@
inv@@
missi@@
shou@@
nece@@
illa@@
ator
7.@@
wonder@@
experien@@
meti@@
rifi@@
dents
tics
som
adver@@
mist@@
beg@@
She@@
Sar@@
heart@@
ssage
dedi@@
occu@@
round
with@@
nam@@
conver@@
ead
shly
wide
mine
villa@@
kee@@
ganiz@@
Messi@@
ef@@
promi@@
signific@@
inning
nee@@
relation@@
practic@@
mony
ough
necess@@
Paul@@
discipl@@
any@@
ʹ@@
kly
convinc@@
confi@@
tha
dou@@
fruit@@
sing@@
ö@@
pic@@
conf@@
tries
paren@@
Dani@@
acce@@
ffe@@
anx@@
ilities
Ther@@
affe@@
conversa@@
fol@@
chan@@
web@@
tice
é@@
hou@@
ace@@
stances
ford
cop@@
uter@@
batt@@
Gover@@
raham
plac@@
wan@@
wr@@
ught
tainly
ety
an’s
une
coura@@
sel
pos@@
sty@@
secu@@
Arma@@
sequ@@
Corin@@
speci@@
Min@@
spo@@
genu@@
bapti@@
hab
mista@@
theless
urance
Samar@@
jah
vail@@
orig@@
eep
Lor@@
topi@@
ith
Mad@@
para@@
vol@@
ono@@
interest@@
gy@@
lder
rough
lease
Cre@@
fal@@
sle@@
kno@@
Australi@@
tab@@
mal
moni@@
mot
á@@
­@@
spi@@
geous
ca
youn@@
recor@@
gani@@
–
erial
cious
K
sil@@
Hezek@@
iety
ga
cce@@
ircu@@
tioned
abo@@
allen@@
acle
specially
God@@
var@@
belie@@
rope
usb@@
Chri@@
gn
expla@@
prejudi@@
ghout
offer@@
yr@@
spon@@
Nabo@@
inst@@
ever@@
Phi@@
origin@@
scriptu@@
rect
regre@@
Gre@@
J
Jac@@
acti@@
accur@@
broch@@
vy
ern@@
Ezeki@@
w1@@
disci@@
gge@@
op
ody
ater
Afri@@
lier
vidu@@
accoun@@
spit@@
vities
til
pared
raha@@
first@@
enty
sac@@
edom
marri@@
respon@@
vent
inspi@@
forts
ort@@
evel@@
ô@@
Para@@
Egy@@
xu@@
ior
unities
bility
Wh@@
fort
tiva@@
Jerusal@@
vide@@
Samarit@@
ility
gover@@
Samu@@
individu@@
Tw@@
arrel
ief
ditions
govern@@
contra@@
swe@@
travel@@
even@@
Jap@@
yond
mod@@
è@@
‛
spite
sue
range
reng@@
pione@@
progra@@
deter@@
uding
beau@@
boam
olic
judi@@
psal@@
fic@@
rease
sition
Sp@@
part@@
hal@@
who@@
my@@
ysi@@
shu@@
bas@@
contin@@
w.@@
challen@@
regu@@
recei@@
dea@@
fel@@
mation
anda
nd
answer@@
mans
Ş@@
bilities
hala
ddon
inte@@
Sat@@
Apost@@
mselves
pati@@
mility
gether
Josi@@
soldi@@
Corinthi@@
consequ@@
appropri@@
won@@
lear@@
Eng@@
overse@@
C
ich
ser
É@@
enjoy@@
grate@@
P
beauti@@
quic@@
Simil@@
phs
fr@@
port@@
Fir@@
inst
prou@@
Solo@@
diff@@
Reho@@
turies
sick@@
thel
ul
Tur@@
Isa@@
fellow@@
denti@@
Timo@@
Nehe@@
$
fri
raid
viction
Tit@@
veness
inging
lit@@
twe@@
Soci@@
X@@
thr@@
know@@
morial
rection
streng@@
led@@
devel@@
ü@@
Cath@@
tis@@
gative
fore
ó
Ever@@
X
Sheb@@
ac
org
wer@@
itary
stan
mple
Ephesi@@
Gide@@
tn
rought
sues
hind
ã@@
Mex@@
Jeho@@
their@@
stem
Brita@@
belo@@
avail@@
ius
mained
Hann@@
j
bili@@
Jere@@
Arth@@
alty
tury
judg@@
sic
congrega@@
bor
bree@@
prep@@
q
mist
Ano@@
Joshu@@
­
onomy
fulfill@@
ada
neigh@@
pa
signi@@
mile
abi
B.@@
fter
way@@
fs
giveness
>
refu@@
advi@@
tters
grega@@
Colossi@@
scar
Jehosha@@
ork
every@@
wis@@
vereignty
Ruther@@
sider
spring
pher@@
dise
situ@@
tower
ʺ
satisfac@@
righte@@
ʼ@@
selves
fts
circu@@
gaz@@
integr@@
Ñ@@
