<unk>
<pad>
<s>
</s>
.
,
na
the
nĩ
to
wa
a
of
:
and
-
?
“
”
in
that
o
ũrĩa
—
inĩ
we
Jehova
ya
atĩ
ma
is
ar@@
andũ
a@@
​
ed
ũndũ
for
)
(
no
Ngai
his
ma@@
ũcio
ing
e
on
be
I
Jehovah
you
e@@
with
arĩa
was
he
A@@
Nĩ
maũndũ
s@@
’
as
t@@
not
ire
it
M@@
cia
ta
es
w@@
r@@
are
will
nd@@
c@@
us
an@@
have
at@@
s
our
1
re@@
God
ũ@@
ag@@
m@@
mũno
er@@
or
i
‘
ũr@@
aga
i@@
The
y@@
in@@
it@@
u@@
O
ia
can
;
kũ@@
tũ@@
Jesu
S@@
or@@
ĩ@@
ci@@
k@@
f@@
Jesus
b@@
p@@
E@@
mũ@@
from
th@@
o@@
mũndũ
ũhoro
g@@
Bibilia
ũguo
er
arĩ
K@@
thĩinĩ
T@@
an
rĩa
by
en@@
who
on@@
kana
their
n@@
ũũ
Bible
witũ
harĩ
W@@
marĩa
they
what
mat@@
h@@
y
d@@
ath@@
l@@
ĩte
all
ir@@
u
What
do
one
I@@
kũrĩ
2
rĩrĩa
atĩa
njĩra
ac@@
!
G@@
mbere
at
nĩguo
ĩra
H@@
mar@@
ng@@
al
kĩa
thĩ
R@@
al@@
ũk@@
ak@@
st@@
kĩ@@
wake
God’s
No
had
this
C@@
him
your
ur@@
ĩk@@
ig@@
3
am@@
N@@
t
about
he@@
ĩ
me@@
people
kũr@@
were
them
rĩ
gũ@@
would
wĩra
un@@
ers
ti@@
ly
ĩt@@
Ũ@@
mak@@
mag@@
ĩr@@
5
ate
my
How
In
iria
v@@
ũ
ngoro
did
rĩ@@
4
ho@@
ũmwe
P@@
Jehovah’s
when
agia
O@@
ie
ĩrĩa
age
b
6
ing@@
wa@@
L@@
akĩ@@
has
ana
marĩ
hĩndĩ
aar@@
ab@@
time
me
B@@
ad@@
mo@@
ut@@
Ithe
gĩa
irie
ic@@
ĩyo
life
ek@@
im@@
era
mĩ@@
A
so
ith@@
agĩra
tw@@
may
ation
those
as@@
ri@@
is@@
15
F@@
make
how
tr@@
ũrĩ
ik@@
8
bata
ent
7
nj@@
es@@
help
but
ĩka
D@@
’s
ete
angĩ
He
ted
il@@
We
m
gĩ@@
ũt@@
12
irũo
aarĩ
9
her
Hihi
el@@
tene
wega
gũkorũo
ake
11
more
end@@
ts
hi@@
U@@
10
dis@@
ĩre
hamwe
war@@
wo
mũr@@
some
io
out
ang@@
love
kuuma
k
n
ro@@
tondũ
mb@@
and@@
hinya
angĩ@@
om@@
mĩaka
kĩrĩa
14
igũrũ
ihinda
1@@
le
ec@@
aingĩ
good
le@@
z@@
Akristiano
makĩria
op@@
also
J@@
ũth@@
con@@
gwĩka
for@@
been
ũm@@
gũt@@
ha@@
such
macio
13
could
gu@@
able
many
th
ine
work
ated
ũg@@
ra@@
if
nda@@
lo@@
et@@
se
way
warĩ
kĩũngano
Paulo
ul@@
17
se@@
wao
oigire
agwo
te@@
tũrĩ
should
ny@@
de@@
su@@
itũ
gũth@@
we@@
things
thutha
Ningĩ
pro@@
othe
kĩĩroho
irio
aa@@
It
icio
qu@@
ance
ex@@
16
When
up
biũ
does
even
gũtuĩka
mũnene
ment
sp@@
rĩu
en
be@@
ĩrĩria
no@@
other
mwega
Paul
tũr@@
Kĩ@@
ĩtwo
need
ti
id@@
famĩlĩ
faith
mw@@
ngerekano
h
others
wĩtĩkio
But
ence
18
ania
mahinda
ally
wĩgiĩ
ĩtie
Kingdom
nĩ@@
kw@@
kwa
19
acio
ind@@
ere
there
ies
ũng@@
than
ũtũũro
gũk@@
ũrĩkũ
first
day
par@@
pre@@
ara
Na
Ma@@
l
d
For
]
ciothe
[
ent@@
19@@
nake
ol@@
wendo
hota
ity
example
ũngĩ@@
indo
ter@@
j@@
man
Ũthamaki
Rĩrĩa
em@@
go@@
ting
end
world
rwa
tu@@
she
Why
ĩire
20
As
spirit
years
earth
ĩria
Ĩ@@
har@@
ary
its
family
ciana
irĩ
over
ed@@
Andũ
ve
ona
mangĩ@@
Thoma
nginya
If
said
see
Ũndũ
mis@@
ga@@
eg@@
tion
Read
They
congregation
Nd@@
us@@
ũngĩ
Christians
into
ap@@
maarĩ
ku@@
ah@@
spiritual
ngĩ@@
ying
ariũ
eria
ũh@@
roho
ne@@
ok@@
ar
ĩrĩ
Christian
est
ful
tha@@
akorũo
come
ning
ely
ano
made
Thutha
Kristo
mũtumia
ness
maingĩ
amwe
aria
ev@@
ous
tũk@@
like
ant
kĩr@@
wothe
these
ciugo
nyingĩ
gĩkeno
because
Mũ@@
ari
kĩĩ
mũhaka
You
kũrĩa
ings
makĩ@@
gĩt@@
pl@@
must
onaga
tha
take
mũth@@
li@@
ch@@
ũtungata
yothe
ĩke
says
which
muoyo
aat@@
ch
amb@@
kĩu
kũm@@
only
This
mwaka
atu@@
anagia
know
24
Kwa
nĩwe
man@@
Mar@@
mothe
gũkũ
agĩ@@
ingĩ@@
bũrũri
give
ira
tũngĩ@@
well
Witnesses
gw@@
Re@@
sa@@
Y@@
wor@@
ered
kuona
21
heart
eh@@
being
children
nao
ene
/
mati@@
ure
might
5@@
eri
eer@@
agĩrĩire
agĩria
times
des@@
cl@@
waku
ob@@
ingĩ
kũhunjia
brothers
um@@
tũt@@
4@@
gũthiĩ
res@@
Aira
6@@
ani
Shaitani
ter
two
wĩ@@
22
E
agĩrĩirũo
kũmenya
ciake
per@@
car@@
yake
el
That
mũthenya
mer@@
then
wakwa
ĩmwe
just
V@@
ĩrĩra
nganja
pres@@
hu@@
ĩrũo
ations
com@@
now
true
words
Th@@
ũo
off@@
ha
own
ones
after
ite
r
onania
used
ws
kwĩ@@
ithia
iv@@
maitũ
rĩmwe
use
to@@
ou@@
aken@@
aka
Christ
ect
eka
ited
ass@@
ũyũ
ong@@
ever
thiĩ
nyũmba
enda
cok@@
become
ka
rũ@@
ons
23
igana
inya
*
go
any@@
any
gĩk@@
ice
read
igan@@
iri
Ĩ
anaga
ep@@
before
mũt@@
angĩkorũo
maa@@
marĩkũ
atũ
ce
Kiugo
And
w
men
amũr@@
ds
king
ion
ty
new
kũh@@
pos@@
death
each
p
name
ai
rec@@
iny@@
gr@@
ora
ight
pri@@
ga
truth
feel
’@@
John
serve
ver@@
mũthuri
ents
ain
led
Word
Kwoguo
ue
hihi
ating
Ta
mon@@
ib@@
ambĩrĩria
ality
ua
.@@
aag@@
tions
bo@@
learn
through
Ng@@
agĩrĩra
ish@@
fully
To
ĩkaga
mathĩna
much
ere@@
show
tig@@
Daudi
ĩtĩk@@
ah
faithful
S
most
7@@
agio
great
itua
wat@@
keep
tu
ĩg@@
ũra
find
kũg@@
sion
found
bat@@
agĩrĩria
where
eith@@
person
ati@@
very
ates
kuuga
ear@@
mah@@
ciao
am
ita
rĩĩtwa
hakuhĩ
do@@
ũũgĩ
Do
njega
ĩrire
if@@
ũũr@@
muoroto
athuri
ĩrĩirie
mũk@@
ithuĩ
why
gĩcunjĩ
aam@@
ih@@
eke
25
30
sed
David
parents
ndini
uc@@
onanagia
aath@@
another
ũme
math@@
arutwo
nĩkĩ
ls
ves
cho@@
oh@@
Ar@@
et
ima
kũgerera
ministry
ũtaaro
ĩndĩ
Mũr@@
c
hok@@
kũndũ
Thaburi
ikar@@
ao
ũria
als
Satan
maya
kĩyo
Tondũ
vis@@
act
part
So
However
ama
over@@
endaga
g
watho
mor@@
akoragwo
today
ad
ũkĩ@@
ĩrĩkũ
iguaga
ected
ũũra
magĩ@@
ĩro
consider
the@@
important
ndungata
thayũ
ũũru
ĩa
ast
rĩngĩ
tly
ani@@
comm@@
though
aku@@
ive
twagĩrĩirũo
8@@
gũteithia
28
Hĩndĩ
study
get
Aisiraeli
Thab
ise
str@@
meny@@
say
naguo
eng@@
ond@@
let
mind
di@@
handũ
megiĩ
matarĩ
heo
cio
pe@@
irĩrĩria
kwĩruta
apostle
mehia
our@@
inter@@
Maandĩko
twa@@
ĩrĩ@@
place
jo@@
,000
00
nene
young
Maũndũ
ka@@
cre@@
ey@@
hũth@@
human
meciria
niĩ
mega
ũa
la@@
x
Nĩguo
exp@@
never
kuonania
cu@@
ĩirie
sel@@
comp@@
wĩcirie
anĩra
ũmũthĩ
ill@@
view
kũhũthĩra
si@@
After
right
aciari
One
ina
anj@@
wendi
told
acok@@
arut@@
ega
ibuku
course
igh@@
mwĩ@@
ish
himself
und@@
av@@
etwo
ened
set
Jud@@
ily
ref@@
ĩrĩrie
ikaraga
20@@
against
mũg@@
ved
self
rĩrĩ
ic
eru
means
kĩhiko
ungat@@
etĩk@@
kũu
ndĩ
fac@@
ũhoti
old
put
kũruta
service
ently
mangĩ
agĩt@@
kwaga
Father
iah
kĩndũ
athiĩ
onanirie
utaga
27
son
andĩk@@
doing
ngumo
te
Hatarĩ
coka
Tũngĩ@@
ariĩ
igu@@
live
ages
erũ
given
kuo
Peter
wĩk@@
worship
same
news
No@@
ling
Go@@
maar@@
sh@@
thu@@
tic@@
ini
ways
want
enya
wife
mao
maath@@
iti@@
il
wrote
ther
maguta
maat@@
kũgĩa
kĩonereria
long
endete
akwa
mbaara
oc@@
imũ
po@@
ũrũ
33
ain@@
tie
agĩrũo
makoragwo
ndĩ@@
fe@@
ess@@
ks
29
preaching
31
Mũndũ
became
twĩ@@
felt
hũthĩra
Ũrĩa
mwĩrĩ
ked
gave
Angĩkorũo
mũh@@
bl@@
iĩ
oretwo
ahe@@
att@@
dec@@
ry
Ĩndĩ
tre@@
onok@@
holy
rel@@
Petero
•
gĩtĩo
wath@@
ĩri
home
gar@@
later
Mũthamaki
TH@@
At
servants
ica
yo
days
Iburahimu
ea
ĩrie
tũti@@
gũtũ@@
ahing@@
od@@
expl@@
oni
Musa
oma
Scriptures
gũkĩra
githĩ
oragwo
kwĩr@@
ekire
ekaga
ourselves
came
agĩrĩr@@
ũmeny@@
ehokeku
ering
marriage
wise
disciples
igua
hote
26
Some
moru
mũrũ
clo@@
ship
elders
kũhoteke
article
book
publ@@
ngatho
ding
rũthiomi
orũo
yed
gũc@@
humans
peace
onire
mahoya
ess
les
ũma
ambĩrĩirie
word
every
hope
Kũ@@
stud@@
King
back
By
ciar@@
ection
fellow
ahũth@@
erera
ũteithio
kĩnene
ningĩ
kuumana
out@@
uta
Israel
uth@@
began
inv@@
gra@@
mwene
future
mend@@
ca@@
red
mwana
during
ities
As@@
wet@@
power
Tr@@
expres@@
ĩruta
mbeca
ĩo
gĩth@@
2@@
bel@@
lar@@
too
AN@@
ũkorũo
os@@
less
sal@@
ithio
yugaga
Gĩkristiano
away
mabuku
cr@@
omb@@
ects
mũtheru
gĩkuũ
often
sho@@
appro@@
ĩkĩra
eter@@
enj@@
Johana
anio
atũmire
add@@
sure
Mũrũ
living
fin@@
aahe@@
gat@@
ĩno
gũtirĩ
kwar@@
year
ned
ments
He@@
ciũria
Makĩria
oun@@
ign
gĩake
ici
She
anirie
hoya
ĩrĩire
mũtu@@
still
ũtarĩ
whom
century
de
del@@
Z@@
0@@
moimĩrĩro
br@@
enti@@
An@@
aku
gũikara
happ@@
ands
ans
eire
prayer
ug@@
Moses
kũmũ@@
ũrata
joy
Our
eni
Pro@@
ce@@
ined
face
kaingĩ
co@@
kĩhooto
possible
ateith@@
ameny@@
ek
ask
mweke
ied
ru@@
ke@@
sub@@
Kĩambĩrĩria
wend@@
helped
mawoni
kũringana
serving
Lo@@
ika
32
humb@@
eerire
ition
ast@@
under
gre@@
look
think
ngũrani
making
wn
ute
ors
Let
personal
gũtũũra
mbica
among
ĩrĩr@@
mĩcemanio
ĩtio
od
tio
Al@@
ĩrĩte
st
ement
wing
ũĩ
anointed
ongor@@
athi
sur@@
Ma
Is
land
Ũhoro
heaven
her@@
three
hat@@
citũ
cor@@
ished
fact
His
sin
hik@@
Nĩkĩ
Abraham
9@@
Arĩa
ph@@
T
anie
aka@@
erio
matukũ
brother
pur@@
ening
namo
thĩna
Thim
sin@@
getha
aine
ane
needed
Many
mwanya
ũtongoria
down
ious
Yet
giving
Then
something
gĩkĩ
rĩake
questions
ign@@
Israelites
eli
id
See
res
cont@@
40
ist
Psalm
sing
There
eti
really
twar@@
order
always
purpose
sec@@
ep
ĩrut@@
Isiraeli
Gũ@@
maga@@
real@@
gwĩciria
ata
less@@
mĩingĩ
yao
hand
My
oim@@
At@@
Mathayo
matua
full
ũka
x@@
mũhũthũ
ences
benefit
without
knowledge
ests
kĩĩrĩgĩrĩro
wendete
irik@@
Ayahudi
loving
mũciĩ
amu
kwĩy@@
ions
concer@@
ge
Thĩinĩ
37
challeng@@
iaga
est@@
while
On
ously
courage
together
themselves
reason
34
Matthew
Mwathani
stor@@
akar@@
mek@@
ward
moved
ther@@
kĩheo
learned
asked
erĩ
point
ving
ans@@
acokire
nini
aandĩkire
wĩ
maheeni
Yes
int@@
Je@@
kĩrĩ
Son
anyu
AG@@
ize
Mũkristiano
experience
understand
kũũr@@
ture
language
aarĩria
New
took
Tha@@
In@@
yo@@
ris@@
ũmaga
gũtua
share
best
Ci@@
counsel
anyit@@
uk@@
close
Af@@
tend@@
pr@@
rep@@
irĩkũ
Even
ot@@
Jusufu
du@@
ld@@
Rora
mũingĩ
trib@@
With
aitĩrĩrie
father
both
arata
called
mbaru
ĩngĩ
tũkĩ@@
mu@@
IA
karine
ps
ses
gũtungatĩra
onan@@
fir@@
Adamu
pris@@
care
abataraga
wal@@
kanini
ple
coun@@
eas@@
den
thi@@
De@@
por@@
however
IN@@
person@@
kĩĩmwĩrĩ
tham@@
abatara
wee
iũk@@
kwaria
AR@@
ound@@
hard
Nda@@
noguo
teith@@
rũg@@
mabũrũri
hon@@
maag@@
eithia
gwĩ@@
ĩrĩrio
utwo
hingo
gũteith@@
R
last
maita
Ne@@
irĩtu
▪
arĩ@@
ingly
aff@@
cal@@
ices
C.E
ss
oka
tũgĩ@@
utire
Mw@@
ũteithia
house
ative
support
wĩy@@
Wĩ@@
heavenly
bring
N
Sa@@
husband
fulfill@@
ngĩt@@
Consider
ũthathaiya
serv@@
35
Isa
mũtũmwo
reve@@
bro@@
ũtu@@
hunj@@
ahunjia
discus@@
prot@@
someone
ĩirũo
ial
kĩega
ũna
ound
Isaia
ũkoragwo
continue
ongoria
fl@@
meetings
yarĩ
teach@@
temp@@
chang@@
ira@@
Mor@@
acem@@
reas@@
message
hing@@
oci@@
Un@@
itũũra
arly
Kĩam
Jerusalemu
result
ĩrio
iy@@
Be@@
gun@@
gatagatĩ
ained
desire
ŨR@@
Ch@@
oro
ngombo
saw
anire
kwarĩ
mankind
ced
mo
matter
relationship
tive
gũcok@@
mabataro
abat@@
og@@
hear@@
ho
wicked
kwoguo
ũgam@@
ugaga
happy
mother
toward
gift
done
atumia
Because
Joseph
ater
eny@@
knew
,@@
having
married
mwerekera
Per@@
ist@@
cy
free
kind
uthuria
eki
using
associ@@
utan@@
ethĩ
rĩgiĩ
here
matu@@
ciĩko
ome
taũni
ithe
Ab@@
enjoy
ũri
ongoragia
nacio
Ac@@
thirikari
acc@@
metĩk@@
mil@@
ura
pleas@@
thing
wĩhokeku
hibirania
tic
served
ongo
erek@@
anĩte
hold
ner
ĩtu@@
aya
dist@@
lead
mamwe
lives
ric@@
wak@@
agie
baptized
tiga
prov@@
ĩkire
child
irathimo
known
includ@@
anĩria
answer
avoid
mahĩtia
mwarĩ
transl@@
omi
food
mũritũ
sc@@
giĩ
lead@@
magerio
regu@@
sisters
ature
gũtaũkĩrũo
iũ
ical
needs
ũmĩrĩru
cannot
situation
wanted
bad
ong
emp@@
eful
conf@@
ond
dr@@
Nj@@
mĩr@@
irikana
NG@@
cial
ũrĩ@@
oya
ĩkĩo
ens
thr@@
few
ũthingu
ol
mũthamaki
ĩti@@
dir@@
Adam
kwĩg@@
arĩk@@
thinking
wisdom
marĩ@@
histor@@
50
uo
Nuhu
All
likely
kĩambĩrĩria
Jerusalem
pi@@
try
rul@@
op
arũmĩrĩri
real
gũtu@@
gro@@
ciĩ@@
righteous
ĩkorũo
ĨR@@
aah@@
amũ@@
let@@
between
describ@@
ach
oria
dly
iya
mok@@
wĩyathi
wag@@
ũgwati
Those
kĩĩr@@
sha@@
loc@@
aguo
ten
Tũ@@
thought
ace
ard
ikĩrĩria
Oigire
received
change
cond@@
Does
ndũmĩrĩri
question
receive
log@@
believe
gũthoma
refl@@
present
painia
Your
tũg@@
med@@
ithi
erefore
again
ngĩ
St@@
organization
hikanĩtie
friends
left
ized
ĩkoragwo
ters
da@@
cer@@
onia
side
thathaiya
ef@@
imitate
haana
wĩtagwo
ir
tually
Rĩ@@
val@@
athim@@
ree
tiv@@
ok
gener@@
ili@@
acoka
World
woman
3@@
went
wone
remain
whether
different
sister
D
nde@@
buil@@
mĩh@@
loy@@
ithondeka
ĩkĩ@@
ũrie
ld
mind@@
law
mĩtugo
Watho
hunjia
ind
fru@@
Handũ
sy@@
Bro@@
trust
crip@@
eyes
tal@@
pra@@
aro
ys
uge
onekaga
Mwaka
ori
ay
better
Although
cir@@
fam@@
cem@@
imwe
ango
hau
akoretwo
mean
mba
ngathĩti
Mb@@
move
form
ihenya
many@@
hot@@
wo@@
yaku
position
Gũk@@
sense
system
From
iz@@
ory
om
thamaki
feelings
tũũr@@
strong
eekire
beg@@
kĩmwe
spiritually
Rom
problems
ough
10@@
hoteka
tũkorũo
Luke
hig@@
nor
These
athani
mwe
kũrũmĩrĩra
Jakubu
prove
vie@@
ded
follow
gl@@
ũrũmwe
ũire
AT@@
El@@
ithania
ication
v
following
pray
kũhingia
nyamũ
pati@@
ndũrĩrĩ
moritũ
resp@@
gives
reading
members
’t
ort
cle@@
city
1914
conv@@
ũhũth@@
followers
ĩtwa
died
fa@@
ung@@
pol@@
ud@@
inyanĩru
early
ell
upon
wr@@
respect
ital
oho
ũmĩrĩire
themba
app@@
Acts
igongona
maitho
kũny@@
auth@@
promise
yourself
amba
thuth@@
hab@@
mang@@
nor@@
45
200@@
min@@
tain@@
ef
encourag@@
ĩngĩ@@
Thus
ũũraga
ost
thus
attitude
Ak@@
deci@@
ena
yet
ahotire
aba
ged
gwĩtĩk@@
vo@@
qualities
oĩ
ũhe@@
pass@@
resurrection
kĩeha
sol@@
supp@@
prophe@@
mawĩra
Mu@@
cop@@
Elij@@
decisions
iting
number
OR@@
ng’@@
Ayubu
benef@@
inyi
maĩ
taking
nyit@@
speak
especially
wathani
moim@@
ancient
far
BI@@
On@@
Mũtũmwo
oigaga
ũira
karatathi
fine
Daniel
account
gwĩk@@
ũngĩt@@
bas@@
ũrũk@@
certain
principles
Mĩ@@
gwĩkĩra
apostles
hĩt@@
exc@@
Roma
kũhoya
wĩnyihia
provide
pers@@
ack
f
Isaiah
ines
kerĩ
nyina
ak
itu@@
Y
makorũo
Jews
ĩkĩte
ph
ya@@
Ũr@@
bur@@
mĩthiĩre
ces
special
maritũ
ana@@
thi
difficult
ian
look@@
teaching
you@@
Of
hor@@
igue
Mahinda
ũmbe
turned
nations
kwenda
ick@@
ring
mwena
Timotheo
Ũngĩ@@
pa@@
ress
iguire
off
ng’ondu
guid@@
tice
umb@@
Twagĩrĩirũo
Law
Na@@
ni
pic@@
little
andĩki
Gĩ@@
ority
Rather
kũmeny@@
hel@@
itha
saying
speak@@
ĩraga
turn
gath@@
tur@@
Kĩr@@
parad@@
mia
atũma
mũũru
Ũ
ution
adv@@
arri@@
col@@
obedi@@
Mat@@
cause
ondeka
soon
gũkiny@@
hand@@
ndũire
satis@@
great@@
loved
Rĩu
mũtũũrĩre
atuĩka
aũr@@
cukuru
eciragia
Con@@
njerũ
bor@@
erekania
nayo
Ũguo
nation
ĨA
examples
wrong
ũnene
sacrifice
thig@@
mĩt@@
kĩg@@
pe
rũrĩrĩ
agĩre
Rekei
around
ah’s
mũico
merirĩria
ũteithagia
umia
ser@@
eness
ject
ains
going
kĩĩ@@
requir@@
Thimo
yakwa
attend@@
Who
NYĨMBO
aga@@
tel@@
atũm@@
seem@@
oned
kahinda
akara
whole
im
ama@@
hotaga
arrang@@
ord@@
ze@@
conduct
ide
low@@
mũna
ites
lim@@
ciũngano
gũtig@@
M
tri@@
next
akiny@@
rit@@
loyal
pioneer
form@@
ki@@
utanĩria
ide@@
suff@@
kwĩhok@@
cap@@
coming
iganĩte
matters
exam@@
clear
Timothy
uses
teach
ũc@@
aũkĩrũo
heana
until
Ex@@
Noah
sing@@
circumstances
ũtũ@@
Nĩ@@
atĩrĩ
hoor@@
Danieli
uni
Nake
igĩrĩ
conven@@
harĩa
case
cemania
akuire
privilege
war
ood
gĩtũmaga
mate
mahe@@
matha@@
THE
akiuga
iu@@
atũr@@
instruc@@
greater
ase
rũu
gĩtũmi
mwĩhokeku
ached
mentioned
gũtũma
kar@@
magĩrĩirũo
Gũtirĩ
wond@@
mahũth@@
consci@@
ured
perfect
prayers
ns
material
erũo
ths
sheep
eragia
ei
iũkio
comes
nar@@
erire
ransom
uru
kĩũria
ran@@
ũmĩrĩr@@
contr@@
Mat
38
ũteithie
Mĩaka
ruo
marũa
kah@@
Job
past
aru
igire
Ho@@
fied
brought
makes
wĩtĩk@@
rely
njũru
Lord
tũhote
ful@@
ũrathi
attention
Gĩcunjĩ
kiugo
anga
wĩrut@@
gwath@@
willing
Tho@@
tũng@@
ndaarĩ
MA@@
gũkua
heard
gen@@
ath
ants
sent
Bar@@
ested
suffering
similar
Hawa
hia
religious
body
Watchtower
enjo@@
ngat@@
maku
ective
Misiri
41
Ciugo
hanini
peri@@
truly
itemi
omaga
blessings
money
kwa@@
eendaga
Thĩ
Mess@@
meaning
gain
bre@@
matig@@
commun@@
inspired
anger
der@@
Parad@@
wenda
rĩt@@
wer
individuals
etting
menya
wĩc@@
ũmbũyagia
ũgeni
Kuuma
haar@@
oneka
ented
action
akĩr@@
prophecy
araga
iso
forever
omano
ĩrĩirũo
anx@@
Mag@@
erie
decision
sted
wanyu
anĩrie
prophet
refer@@
atũmwo
one@@
list@@
events
thir@@
iguĩte
control
tem@@
taught
ithimi
Satan’s
igned
Ko@@
ability
Mbere
mac@@
courag@@
comfort
kindness
ach@@
judg@@
iga
Am@@
seen
born
ately
ee
draw
sons
liter@@
Ir@@
occas@@
cha@@
mĩario
atongoria
kũngĩ@@
rungu
gwa
ee@@
To@@
fav@@
ndĩr@@
ER@@
dedic@@
allow
plac@@
promises
ahũthagĩra
got
enem@@
slave
ĩru
ciaku
hekarũ
ũgu@@
endo
ũga@@
shepher@@
ron@@
everlasting
deep@@
SONGS
Instead
inwo
eless
Samu@@
kan@@
pu@@
appear@@
Tũrĩ
ũtugi
macokio
itarĩ
Joshua
Devil
righteousness
Sp@@
understanding
fy
govern@@
writ@@
anagĩra
Matt
39
serious
ihu
The@@
anĩire
involved
actions
sm
rule
rora
ũthamaki
mangĩt@@
ver
small
ũtaũku
gwĩthema
wit@@
Tim
hur@@
vi@@
opportunity
second
Isa@@
indic@@
ngĩkorũo
milioni
milli@@
Scriptural
morutani
thũ
four
doubt
Are
omo
ikuhĩ
evidence
ũgit@@
gwet@@
experienced
anu
thĩ@@
ũũre
women
shi@@
false
sear@@
ndi@@
nda
pite
Ihinda
anda
ongererek@@
ũmbũ@@
tuone
Pet
Paul’s
stand
believers
Genesis
erekera
36
half
sive
ut
Sam
CO@@
ore
ĩkanĩro
apply
takes
Aroma
ingu
talk
maka@@
remember
araika
believ@@
ehe
ũmi
ũraga
ũru
wants
Me@@
with@@
ũkuruhanu
since
char@@
becom@@
onal
asp@@
ins@@
Can
nawe
Ps
hatarĩ
onanĩtie
wĩraga
temple
mũgũnda
lied
return
twĩrut@@
dead
ũkĩte
HO@@
shows
including
ular
motaaro
along
oko
strength
d’s
relati@@
allow@@
mir@@
accept
Romans
Kũrĩ
kept
ũrũri
Kũguũrĩrio
ikinya
table
ũheaga
atuĩkire
⁠
appointed
James
Now
light
maandĩko
Creator
wagĩrĩire
recogn@@
paragra@@
preach
kab@@
mĩnyamaro
member
health
Mũcukani
invol@@
ins
kũnyit@@
ũkia
some@@
Gĩk@@
wabici
working
bi@@
inyuĩ
thy
perhaps
vers@@
ze
lies
states
sion@@
kũririkana
school
agĩire
hikania
mĩtangĩko
increas@@
enaga
ũgar@@
Mũth@@
shar@@
exerci@@
0
wagĩrĩirũo
kwerekera
gĩatũmire
lar
fe
hunjĩria
199@@
imag@@
uti@@
amenyaga
field
overse@@
ements
ining
ms
kĩao
em
up@@
44
ably
showed
immor@@
rather
nothing
itive
daugh@@
af@@
ect@@
Like
information
tell
ery
eps
regarding
Mũnene
atũũra
bataraga
elder
friend
neigh@@
thiomi
rũrĩa
ciarĩ
ingĩra
Revelation
dra@@
efforts
monanagia
provided
ũrutani
ass
kũrigĩrĩria
anĩro
oiga
akũrũ
gwĩkenia
195@@
nĩo
justice
works
aahũthĩrire
ũritũ
gĩe
sou@@
Eve
ugĩte
Mic@@
aamenyaga
itions
tle
determined
ll
wonanagia
Sim@@
Akĩ@@
night
once
gwetetwo
kĩngĩt@@
ann@@
amar@@
than@@
maintain
div@@
ible
so@@
kĩbungo
lear@@
kũna
athire
emo@@
interest
Kũringana
mony
nakĩo
haarĩirie
mameny@@
Greek
Pe@@
enagĩra
ũka@@
While
ombo
ũre
ta@@
Luka
Betheli
eek@@
Hebrew
wel@@
ara@@
Mũthenya
illustr@@
moigaga
valu@@
kũhiũrania
wetagwo
ikũmi
Sar@@
tũm@@
Gĩt@@
stri@@
irikanaga
Ig@@
W
named
sacrif@@
mũnabii
uria
promised
aw@@
zed
anyone
appe@@
every@@
Will
teithie
viol@@
tũkoragwo
started
aarĩirie
my@@
taken
appreciation
mi
itical
ondek@@
kũigua
iriki
pp@@
unjĩ
Solom@@
ũhing@@
rema@@
kanitha
tũh@@
congregations
hunjagia
written
Eng@@
house@@
provid@@
hoyaga
even@@
friend@@
oigĩte
utith@@
Mũthuri
underst@@
prop@@
Since
Com@@
nguo
kũbat@@
produc@@
ndig@@
freedom
lived
Corinthians
eff@@
kũiga
consid@@
mũrata
Suleimani
ũmenyo
itĩra
hearts
fore@@
oneire
orig@@
Austr@@
accompl@@
angels
ĩrĩirio
jud@@
Did
70
ũmb@@
issue
direction
ndangĩ@@
atũmaga
uĩte
onga
Such
andĩkĩtwo
Today
magegania
Akorintho
ous@@
reason@@
thoughts
42
resurrec@@
near
eruta
confidence
atũ@@
ũgĩ
gĩothe
Still
respon@@
enia
ert
Babyl@@
ũũma
ako
wi@@
wide
During
mbo
mwĩcirĩrie
var@@
ũmĩrĩra
fear
kĩrĩkũ
mũbango
Rus@@
fo@@
gwathĩkĩra
helps
destro@@
sins
based
tim@@
eithirie
lost
hĩtũku
det@@
prepar@@
twath@@
tũrabatara
helping
Lu@@
blessing
strengthen
ũhonge
resul@@
mapainia
Athuri
monaga
gũtungata
Mũũmbi
fail@@
earthly
gũkũria
activities
Roman
kũnyita
progre@@
ications
higa
Would
spe@@
mey@@
atarĩ
Fam@@
covenant
ũrania
demonstr@@
Ithenya
inc@@
low
iragĩria
igaga
ste@@
thakame
ill
kĩarĩ
iuga
group
ord
Wor@@
ikoragwo
mũtabarĩre
affect
religion
Nyũmba
necess@@
ident
prosp@@
effect
sk@@
effort
JE@@
witness
Ad@@
Gre@@
akinyanĩru
slav@@
atig@@
Atũmwo
abo@@
overe@@
fur@@
offer
honor
Ibuku
Aciari
mũthia
pray@@
med
iyũr@@
nĩrĩo
goro
onereria
wende
urch
reli@@
kũhing@@
yonanagia
couple
illi@@
Be
requ@@
develop@@
43
ũtũmaga
blic
bran@@
ians
cig@@
answers
sign@@
angĩk@@
ink
emb@@
standards
build
kĩrĩndĩ
erly
ũrĩra
Kũr@@
mwĩhok@@
TI@@
ũkũũri
Babuloni
Kĩĩ@@
ciari
physical
bar@@
gĩkundi
manene
mũgwanja
irikano
proved
anc@@
anything
ech
Bo@@
powerful
deep
appreciate
meeting
Mũtu@@
Ke@@
nĩyo
merĩ
sever@@
moko
cultiv@@
Su@@
ingith@@
aameny@@
tribulation
wid@@
ereria
training
lik@@
continued
Bethel
hi
glory
Amerika
precious
feel@@
Kor
Proverbs
ciria
IR@@
simply
tru@@
mũkaana
ched
tures
speci@@
aamũ@@
ereire
rup@@
sim@@
discipline
head
thers
itate
Ge@@
thiaga
agai
Bible’s
60
encouragement
ecting
gwĩcũrania
mĩoroto
sen@@
akor@@
EN@@
ũra@@
ĩrĩre
repor@@
bapti@@
etĩkĩtie
ational
sequ@@
meer@@
den@@
oti
spoke
ke
success@@
gwĩtĩkĩra
Wendo
bir@@
weh@@
La@@
ndarĩ
Jac@@
certainly
kũhe
travel@@
respond
ũmĩrĩria
ell@@
Jewish
ant@@
iitũ
gũcaria
everything
already
available
Jeremia
complete
ene@@
pla@@
lish
amw@@
line
grat@@
waganu
worshippers
flesh
ick
focus
guothe
ugg@@
ciĩranĩro
sions
reach
habu
ext@@
bea@@
iety
lier
Ku@@
guoya
practical
ail@@
managa
uĩka
magĩrĩire
Kw@@
foretold
leave
rĩandĩko
H
ahĩt@@
ũkũ
alty
fer@@
angĩri
aled
humility
older
kno@@
Li@@
ĩko
uted
Mesia
happiness
die
ateithirie
stay
country
rekei
local
claim@@
kũniina
Joh
makwa
influence
Fir@@
ĩrĩro
care@@
Indeed
regard
desires
play
ũngano
maciaro
ĩirio
formed
trans@@
ngũ@@
Egypt
aambĩrĩirie
er’s
ingata
hear
anĩtie
ithagia
assignment
created
acted
recorded
ike
gũtũteithia
Their
Rĩmwe
tũrĩ@@
longer
ikara
choose
mwaki
ongore@@
agĩa
Christ’s
cam@@
ff@@
ago
NA
KARATATHI
ehaga
ically
ũtukũ
gĩcigo
kingdom
whose
wiki
anĩri
ĩni
responsibility
gũto@@
met@@
uh@@
Stu@@
jw.org
please
scho@@
read@@
wed
stated
Just
ongona
Ũtu@@
air@@
unity
kind@@
illustration
ngomanio
clearly
kĩngĩ
etĩkĩrire
kũbatara
18@@
Tũng@@
mp@@
large
common
ped
amũk@@
struc@@
high
kĩama
advice
Par@@
Aarĩ
erg@@
andĩko
alone
imp@@
gwĩt@@
ental
ential
ven@@
Harĩ
natur@@
Kũg@@
igĩte
aitũ
univer@@
chi@@
onokio
Cor
ĩrĩg@@
ĩnjĩri
ists
mĩeke
Jerem@@
devo@@
perf@@
crow@@
oroto
agĩk@@
blood
Ezeki@@
ũgamĩrĩire
lation
ination
fi@@
conclud@@
accepted
zek@@
dem@@
itation
ilities
obey
imperfect
undi
start
HI@@
instance
gg@@
considered
hotith@@
complet@@
fic
mogarũrũku
chapter
according
cies
y’s
Qu@@
listen
tigĩra
mũrũmu
2013
wonderful
atuĩke
surv@@
ithuothe
nja
dic@@
grow
Ngĩ@@
Have
iness
text
Ger@@
comfor@@
ĩtagwo
Philipp@@
bac@@
oughout
iũrũrũk@@
hands
Njĩra
fill
standing
atwar@@
ought
guo
deal
divine
twarĩrĩrie
tra@@
rest
vir@@
yar@@
raised
world@@
thatha@@
gũku@@
ũmbi
Jos@@
gũtũũr@@
ose
Ath@@
langu@@
heaven@@
aara
ie@@
hokeku
devel@@
streng@@
aching
lic
U
know@@
uma
uri
faith@@
tain
ũrũku
bless@@
mabat@@
aandĩk@@
ever@@
fore
ni@@
foc@@
Mak@@
ople
belie@@
z
teithia
activ@@
ety
wan@@
accep@@
continu@@
sting
pione@@
sac@@
bu@@
poin@@
gũkũr@@
fill@@
giv@@
ve@@
L
cul@@
els
hotire
under@@
emi
uku
minis@@
Ev@@
macok@@
anja
yaga
bango
hiũrania
ple@@
gwat@@
aana
nesses
ome@@
righ@@
thamak@@
mũthĩ
–
ũkũ@@
ũmba
centur@@
ame
accoun@@
qual@@
eciria
ready
haps
aũk@@
cons@@
hy
Chris@@
F
mber
der
individu@@
ungata
practic@@
Wit@@
eds
Hebre@@
princi@@
nam@@
mater@@
fal@@
ciĩ
experi@@
Wat@@
ico
ust
proble@@
Is@@
na@@
h’s
will@@
Israel@@
duc@@
ur
aining
yũ
heal@@
cou@@
eld@@
mwan@@
ge@@
answ@@
Phi@@
suc@@
ukũ
prin@@
ording
Jo@@
star@@
ul
Sam@@
privileg@@
situ@@
occ@@
kũ
ll@@
Eli@@
prac@@
ĩnj@@
learly
appreci@@
import@@
tũũro
uring
fel@@
evil
ngata
sib@@
iragia
ũrani
receiv@@
nyihia
fre@@
ithĩ
ciaro
kuu@@
ost@@
utani
uth
usu@@
cour@@
cla@@
differ@@
ĩlĩ
athimo
dev@@
obe@@
ult
ario
follow@@
wic@@
Ha@@
ũteith@@
ngatĩra
G
ũthi@@
sible
cemanio
aahũth@@
irĩria
gwĩc@@
cunjĩ
:@@
pow@@
itho
han@@
Dav@@
yp@@
Tim@@
influ@@
bet@@
Beth@@
gif@@
—@@
sid@@
iki
maint@@
oub@@
ness@@
Ny@@
Bab@@
ĩtia
mean@@
ith
who@@
sue
succ@@
cro@@
ears
yahudi
spok@@
Jeho@@
can@@
nu@@
pain@@
iver@@
ũrĩrĩ
itude
help@@
org@@
disc@@
hokek@@
B
ungu
deter@@
opportun@@
oyo
responsib@@
stan@@
ese
Josep@@
nyih@@
guũr@@
reat@@
Mũt@@
aki
spir@@
t’s
Egyp@@
Bib@@
Abraha@@
hũthũ
worshipp@@
shipp@@
MB@@
inst@@
bu
itani
enced
cigo
tho
ould
sl@@
earth@@
Amer@@
stand@@
onger@@
ĩkũ
rang@@
Ayu@@
ques@@
Ith@@
ention
ahinda
Christi@@
ples
appoin@@
ĩranĩro
grou@@
horo
ugh@@
uĩ
memb@@
disci@@
Da@@
K
Mos@@
ren
angu@@
uld
abii
them@@
taaro
thema
eno
organi@@
Pa@@
|
diff@@
akĩo
V
erekano
she@@
compl@@
diffic@@
ivid@@
stead
ũku
crib@@
esia
gover@@
apost@@
Ro@@
long@@
hiko
w.@@
hether
é@@
ũmbũy@@
lood
hooto
determin@@
Joh@@
kĩrĩ@@
an’s
husb@@
,0@@
trav@@
lasting
beli@@
doub@@
conduc@@
anĩr@@
Gũt@@
knowled@@
oung
spiritu@@
oto
gũnda
organiz@@
athĩti
anĩru
desir@@
relig@@
ear
Jer@@
ũmu
Do@@
heav@@
child@@
le’s
chap@@
fol@@
kũni@@
prob@@
uhĩ
ility
THI
ather
dom
eded
tun@@
ũmĩrĩri
é
pose
regar@@
yl@@
bs
fles@@
wis@@
exer@@
●
ũhot@@
ept
onge
circum@@
inspir@@
assign@@
Corin@@
gwati
hen
priv@@
orintho
of@@
contro@@
uũ
avo@@
egania
cient
·@@
oig@@
itud@@
meet@@
è@@
ft
jus@@
dy
Q@@
Peter@@
rais@@
atathi
ndũ
human@@
phys@@
nabii
eld
ĩrĩgĩrĩro
ano@@
hua
ught
ustr@@
thin@@
itĩrĩrie
ards
erful
wish
inda
mana
imi
SO@@
cially
Sin@@
sla@@
ʹ@@
ousness
tex@@
gi
Scrip@@
woni
ply
anding
tural
preci@@
cuk@@
irikari
rif@@
Whi@@
tro@@
di
abar@@
NY@@
ulation
nyam@@
lis@@
yu@@
sis@@
apti@@
discipl@@
cent@@
isters
relation@@
cum@@
Kris@@
foret@@
Gen@@
wĩcir@@
bec@@
ii
P
pher@@
Rev@@
í@@
Bec@@
Mũk@@
ũni
wom@@
Jes@@
ũmwo
ys@@
kĩb@@
marri@@
gai
X@@
ristiano
mess@@
Thu@@
cri@@
fu
hat
C
forts
J
ames
Dani@@
ó@@
>
ungo
promis@@
atho
syst@@
simil@@
akuhĩ
sma@@
formation
ough@@
thak@@
certain@@
ithu@@
enyo
ext
thiĩre
anoin@@
ã@@
Mis@@
ũrũrũk@@
aũku
ben@@
hĩ
Thĩ@@
agatĩ
ü@@
ö@@
Mus@@
sat@@
buri
Phili@@
your@@
Sha@@
angĩko
idence
tũũrĩre
oguo
atur@@
­
kũrig@@
cukani
ingana
isiraeli
lit@@
ause
orin@@
mili@@
ũthiomi
©
lf
KAR@@
emu
port@@
nec@@
til
Jerusal@@
garũrũku
Psal@@
­@@
sel
whi@@
ondu
ô@@
ou
ugo
agra@@
aaro
á@@
eha
tak@@
gether
ilia
stances
congreg@@
though@@
led@@
Rom@@
Matthe@@
uloni
irĩt@@
till
wĩcirĩrie
clud@@
Pet@@
nyamaro
buku
Sat@@
him@@
Creat@@
fri@@
fort
æ@@
selves
abarĩre
ñ@@
Luk@@
Paul@@
zeki@@
Timo@@
NGS
use@@
wab@@
q
usb@@
Inde@@
record@@
ividu@@
elation
uture
dam
free@@
Consid@@
․
infl@@
uruh@@
ʹ
risti@@
mwe@@
ATHI
Aro@@
Isra@@
tower
ç@@
ey
ä@@
ekei
X
menti@@
coven@@
tith@@
ʽ@@
Ih@@
urrec@@
ú@@
$
fter
Abra@@
Watch@@
umo
agĩrĩ@@
ĩti
udi
nĩrĩ@@
ween
ht
kũhot@@
ogn@@
demon@@
contin@@
Matha@@
נ@@
פ@@
ש@@
himu
Sol@@
gwanja
ׁ
à
&
MBO
ngom@@
uruhanu
Corinthi@@
avail@@
ה@@
%
eca
ʼ@@
lea@@
É@@
ה
lleng@@
ł@@
rans@@
verbs
ä
Thim@@
í
ĩkĩ
‛
Kũguũr@@
esis
_@@
org
å@@
á
ł
ø@@
righte@@
thel
י
Ş@@
ileg@@
י@@
ו@@
yahu@@
°
⁠@@
̇@@
espe@@
̃@@
-@@
hout
¡
ý@@
q@@
Ã@@
‘@@
š@@
ï
Kwo@@
usal@@
ů@@
ó
è
ú
j
ş
ı@@
ï@@
î@@
oug@@
ö
Š@@
É
Ü@@
njĩ
Jehova@@
_
▼
ù@@
ʼ
‵
▶
Hih@@
ʺ
KARAT@@
ē@@
Ó@@
greg@@
artic@@
✔
ā@@
iraeli
