<unk>
<pad>
<s>
</s>
.
,
ke
the
:
to
of
oro
and
“
”
a
emi
?
in
ye
Jehovah
)
(
mme
s
’
enye
that
owo
nnyịn
—
mmọ
ama
n̄kpọ
nte
Abasi
is
ed
ini
1
Jesus
for
Bible
;
edi
ing
-
se
God
his
we
on
esie
ete
s@@
was
be
t@@
2
I
with
as
an
Ke
not
you
he
in@@
es
3
are
mi
it
S@@
The
ik@@
idem
at
b@@
will
m@@
or
have
4
ẹma
us
mbon
en@@
A@@
is@@
kiet
5
utom
our
anam
6
u@@
E@@
M@@
i@@
Mme
do
c@@
by
p@@
from
d@@
e@@
man
re@@
eke
n@@
kpukpru
es@@
can
onyụn̄
ak@@
‘
an@@
f@@
who
their
r@@
N@@
esịt
l@@
they
er@@
y
w@@
er
ikọ
ar@@
C@@
ndinam
ndien
7
15
9
ek@@
g@@
12
!
one
I@@
10
T@@
ọnọ
8
al
H@@
im@@
ẹs@@
m̀mê
a@@
em@@
id@@
what
P@@
O@@
all
11
Christian
it@@
Enye
k@@
B@@
uwem
this
ed@@
iso
L@@
What
un@@
ly
were
or@@
had
at@@
ers
-@@
i
akpanikọ
y@@
t
14
13
spirit
ọn̄
him
Paul
en
ẹk@@
as@@
n̄k@@
ọdọhọ
Edi
ad@@
o@@
your
on@@
R@@
e
ana
ib@@
ation
Nso
et@@
ediwak
ekeme
them
W@@
usụn̄
al@@
17
U@@
John
people
ata
isua
In
16
D@@
enyene
ikp@@
F@@
v@@
am@@
K@@
about
ab@@
G@@
my
ate
ọk@@
Christ
Nte
el@@
am
ụk
ok@@
ima
when
has
ofụri
st@@
would
ac@@
ent
did
tr@@
How
ti@@
ẹnyụn̄
o
eti
th@@
h@@
ob@@
18
nditọ
ọn̄ọ
us@@
n̄wed
aban̄a
isọn̄
op@@
ibuot
19
ted
life
but
edi@@
ts
ot
ọk
so
time
ido
n̄ko
may
20
imọ
ọ
ns@@
those
esop
me
eb@@
enen̄ede
Ẹ@@
ex@@
ẹnọ
ntak
mb@@
et
ur@@
1@@
A
Matthew
He
fi
]
[
nd@@
ẹkp@@
akpan
mbufo
il@@
ag@@
od@@
b
en̄wen
ẹb@@
di@@
kpa
afo
ẹnam
tion
n
ufọk
edide
ntre
her
ada
Israel
nnọ
eme
ri@@
em
ebe
ated
out
ot@@
Psalm
ẹd@@
24
fo
inyụn̄
om@@
more
akpa
nt@@
ẹy@@
for@@
an̄a
fi@@
aha
how
an̄
ererimbot
able
akam
We
ak
some
21
help
de
also
ndusụk
z@@
otu
22
Ndi
ap@@
ịm
ay@@
itie
good
ey@@
ere
ous
Ọ@@
ol@@
le
utọ
gr@@
/
con@@
such
ndi@@
J@@
love
Peter
up
It
David
other
mm@@
been
Satan
Ntiense
dis@@
ede
inọ
u
ekp@@
ess
ul@@
owụt
uwụtn̄kpọ
ine
op
os@@
ade
way
ity
te
many
usen
edieke
ting
obio
ec@@
ch@@
Didie
ef@@
eka
ọhọ
work
odu
ance
ic@@
19@@
nnyụn̄
than
things
Nnyịn
inyene
should
ọ@@
E
even
no
se@@
day
anamde
23
eken
ut@@
qu@@
Mmọ
does
apostle
odudu
Luke
Witnesses
esi@@
When
Edieke
ẹdi@@
if
there
said
if@@
n̄kp@@
ud@@
l
est
ve
nsio
d
enyịn
sia
ally
ndis@@
akde
inam
make
pr@@
its
edinam
ẹt@@
ary
ubọk
could
k
ment
ẹdi
le@@
idi@@
oyom
ndib@@
•
etịn̄
eyen
Obio
ekedi
ho@@
idụt
others
par@@
Ntak
udọn̄
su@@
Christians
si@@
ọkọdọhọ
ev@@
ifiọk
ow@@
over
pl@@
iti@@
Y@@
Ubọn̄
Ndi@@
Se
n̄wan
world
ence
c
ra@@
om
28
ent@@
into
ci@@
idiọk
mî@@
didie
years
m
earth
el
Emi
ant
per@@
ndida
They
ẹban̄a
Why
she
ẹkeme
ebiet
ekikere
which
For
own
end
n̄w@@
mma
Kingdom
men
ọn̄ọde
ọfiọk
This
these
res@@
mban̄a
ou@@
2@@
25
heaven
Isaiah
ness
sp@@
th
ning
Ikọ
age
ubon
faith
need
idaha
But
ations
ub@@
ẹ@@
ings
ndik@@
first
Mb@@
ẹnyene
mbụk
5@@
aka
made
come
ndidi
oy@@
If
As
ekọn̄
then
because
ce
ukpono
ter@@
example
N̄wed
akan
ful
anade
ia
family
ededi
ọn̄de
spiritual
ẹda
Timothy
like
V@@
ndọ
ha@@
Rome
edu
ẹkes@@
ufọn
re
end@@
children
nditọete
aba
*
Owo
must
ukpepn̄kpọ
okụt
and@@
6@@
congregation
ụt
tutu
ure
says
mbuọtidem
akp@@
kp@@
You
ọde
efen
eyo
li@@
S
ies
mîk@@
only
ukara
ntem
nso
ndid@@
being
ndit@@
ara
car@@
iy@@
iba
koro
ọyọhọ
ny@@
30
erede
Ẹk@@
mmimọ
ep@@
see
ons
pre@@
ves
ikọt
etie
vi@@
edem
str@@
ely
ekededi
Genesis
sh@@
enyịn̄
item
ones
know
ear@@
take
ẹsi@@
Utom
usem
j@@
king
ọwọrọ
enyenede
26
mbono
ake
Job
heart
ụhọde
words
uyo
ise
uk@@
ọfọn
comm@@
true
ẹte
used
ẹked@@
O
mbet
emede
an̄ade
ep
an̄@@
An@@
idi
ek
27
Moses
ita
g
1-@@
ẹnamde
ar
give
pri@@
akwa
idịghe
nnam
ass@@
otde
rec@@
x
ụn̄
use
ati@@
inemesịt
n̄kpa
tions
wọrọ
rem@@
ay
29
af@@
just
okp@@
ds
now
any
inamde
Hebrew
ah
ing@@
7@@
become
an̄w@@
mfịna
Do
ish
edik@@
esịm
h
very
hi@@
in̄wan̄
ufan
before
ọd@@
ndinyene
Es@@
ua
emem
ẹkek@@
T
war@@
ying
nti
That
nn@@
ai@@
fr@@
ating
nsinsi
ro@@
death
gu@@
p
ọb@@
att@@
ukem
gi@@
ty
31
eset
ther
ese
cr@@
usi@@
Jerusalem
idiọkn̄kpọ
andi@@
iban̄a
br@@
N̄ke
cl@@
cre@@
ill@@
Matt
mfịn
mil@@
lo@@
odude
33
udia
after
esịn
20@@
ain
dr@@
ukeme
read
truth
of@@
might
name
00
ikeme
ei@@
als
ge
Word
new
most
we@@
And
idahaemi
an̄wam
ndi
over@@
ene
uduak
Th@@
ịme
Mma
mbemiso
cho@@
Ete
akanam
ifi@@
well
ndin̄wam
two
ndikpep
N̄@@
okụk
ẹka
person
another
brothers
times
ir@@
sion
ika
bl@@
kpọt
3@@
amde
Abraham
ist@@
uf@@
ọsọn̄
ụhọ
ude
pe@@
through
Ab@@
oyomde
edisana
ekere
where
ates
great
ndinọ
ind@@
ited
ter
ered
ọp
baptism
ality
r
today
Ndien
ịbe
act
Acts
much
each
dec@@
ement
ndikụt
ịn̄
James
aw@@
Ntre
To
me@@
ect
amade
ịne
etịn̄de
ori@@
Mar@@
Pr@@
ndifiọk
ubọn̄
etop
Z@@
ọtọn̄ọ
har@@
parents
asi@@
ekemede
akanamde
ẹm@@
Kpa
Is@@
keep
found
ekedide
study
ast
mbụme
though
N̄k@@
find
ekpep
asan̄autom
ụ@@
Corinth
son
ver@@
Oro
opde
Ch@@
pres@@
ehe
ite
fiọk
ida
inter@@
Ak@@
ndin@@
ịn
ụm
ẹnen̄ede
faithful
enti@@
ukwọrọikọ
Mark
32
Mbon
ndikp@@
Mm@@
serve
ẹfiọk
ịmde
word
against
part
himself
ọkpọsọn̄
ọs@@
adi@@
Edi@@
Al@@
4@@
ow
feel
wor@@
ght
34
red
However
ami
One
show
ved
en̄e
learn
de@@
ph@@
essed
ẹnyenede
ibet
young
etiede
tri@@
ew@@
ẹn@@
Ndusụk
enyọn̄
N̄kpọ
ors
ịn@@
Adam
human
ently
und@@
ẹsịn
,000
est@@
ents
uy@@
edit@@
abade
right
Father
ndomokiet
tly
man@@
utọn̄
tive
get
Nd@@
iban
wrote
wak
erọn̄
iere
page
ono
say
book
ving
Ek@@
edis@@
okop
Sia
ne@@
why
ifịk
go
35
means
eny@@
ẹdude
inem
ition
tic@@
ọbọ
n̄ka
bo@@
arade
obufa
enịm
oto
Ps
Ik@@
So
fe@@
En@@
ue
place
ikpe
ụkde
ọy@@
ndise
fac@@
ministry
des@@
Jew
ikpọ
Ẹma
ever
worship
8@@
ifụre
DE
Proverbs
tie
ekpri
never
ori
nneme
enem
ẹkeb@@
40
ẹdu
37
live
app@@
ang@@
temple
course
ong@@
en̄ede
important
Ediwak
obo
urua
Samuel
ikpehe
la@@
same
old
holy
adade
wife
sur@@
ubi@@
Corinthians
After
ember
Greek
At
news
became
gh@@
led
upon
ode
ụre
9@@
do@@
com@@
came
Joseph
home
ze
nyụn̄
go@@
mmọn̄
ọm@@
preaching
Ọ
Daniel
Ed@@
set
St@@
let
AN@@
n̄kan̄
view
omo
iny@@
ear
ọnọde
unana
ked
Solomon
put
imekeme
less
lic@@
ụn̄@@
ukpep
osụk
out@@
ily
our@@
ịmede
ẹdọhọ
ach@@
ned
ea
ikpọn̄
comp@@
idomo
In@@
ndika
idotenyịn
in̄w@@
eri@@
edid@@
Jeremiah
ekpepde
ks
idụhe
0@@
uak
aran
fully
pos@@
zed
inen̄ede
.@@
too
New
min@@
ufọkn̄wed
ịp
ov@@
told
ntọn̄ọ
mind
disciples
od
Kot
knowledge
nditịn̄
ọdọhọde
Y
Eyen
ual
hope
Scriptures
vis@@
Some
ah@@
ekem
eti@@
gl@@
every
ard
abi@@
um@@
By
co@@
udọn̄ọ
days
doing
ces
want
Read
ans
given
service
utịt
ry
Afo
ọkke
under
angel
sub@@
Ini
ways
often
among
ọfiọn̄
fin@@
contr@@
ver
gave
Cor
reg@@
DI@@
ụp
Is
later
ọniọn̄
eg@@
10@@
obot
ọkp@@
uw@@
nnennen
akpatre
bi@@
les
began
ịk
ory
back
all@@
power
There
Im@@
ages
ibuotikọ
away
ebuana
ọn̄@@
ụn̄ọde
ch
mîdịghe
down
ikemeke
eal@@
pro@@
tain@@
ndidu
14@@
mis@@
ẹdade
land
ad
be@@
His
ẹf@@
during
EN@@
Edidem
,@@
gn@@
uko
M
Ar@@
emde
fo@@
KP@@
an̄wan
ea@@
As@@
te@@
ndịk
ẹw@@
ikere
ẹkemede
KE
ist
Romans
an̄wan̄a
yak
rel@@
ice
esinam
ikan̄
Devil
idemesie
ris@@
nsan̄a
ịghe
akabade
Con@@
der
mbu@@
On
King
ụtde
ship
ewe
Kpukpru
200@@
ide
ewet
Our
utịp
servants
called
ani@@
ọkde
century
ẹdide
pleas@@
consider
making
Ntem
long
mbọm
ebi@@
ourselves
ments
orụk
tre@@
Noah
Idem
Ekem
With
eto
sec@@
ened
no@@
still
felt
Ediyarade
ES@@
etieti
ọhọde
father
ifet
fellow
ọn
ọsọn̄ọ
ime
themselves
ekese
peace
wh@@
mar@@
pur@@
eli@@
however
iah
order
akke
Revelation
Tr@@
living
ess@@
IN@@
whom
Okposụkedi
Ata
n̄kpọ@@
kaban̄a
ther@@
gn
ath@@
ọt
while
took
ndutịm
iet
ekerede
rit@@
inv@@
sin@@
thr@@
cor@@
utịbe
ande
tend@@
ikie
three
ug@@
She
un̄wam
nọ
always
mbak
humans
Let
ening
dem@@
ndiwụt
bel@@
ẹnịm
ibat
Uf@@
ann@@
ta@@
Jud@@
rep@@
My
ck
ayanam
unam
ised
cont@@
ough
house
ound@@
uwa
wọrọde
year
asan̄a
obode
personal
okot
vers@@
ndiw@@
prov@@
ẹyom
ities
idatesịt
ọdọn̄
so@@
fact
ai
asked
ende
ẹyomde
sy@@
tu@@
ded
ps
ern@@
Yes
inịm
look
eri
Egypt
ular
prayer
da
mankind
rev@@
nda
ering
eketịn̄de
Mary
50
Ad@@
without
ẹket@@
marriage
ukp@@
Then
concer@@
iw@@
Ọbọn̄
joy
enọ
38
abarede
enen̄erede
both
ests
x@@
36
ẹkụt
ove
deli@@
ask
uc@@
reason
ẹwụt
Many
N
ọwọrọde
ord@@
jec@@
ịbede
hand
early
ple
Son
Am@@
eyen@@
Eve
husband
ath
ish@@
Hebrews
perfect
appro@@
Yet
possible
n̄kan
ọri
wise
face
enowo
ously
sin
eas@@
ey
ali@@
tical
D
mf@@
afanikọn̄
something
atde
emp@@
think
Sh@@
Fr@@
Ob@@
mbon@@
uana
inyeneke
ndinen̄ede
ost
aban̄ade
ekpere
ences
meetings
Israelites
self
Un@@
toward
together
woman
ndikere
ekewet
ẹkenamde
point
esik@@
mother
giving
ative
Id@@
ndif@@
ref@@
Ekeme
learned
ven@@
anointed
purpose
ẹkop
Messiah
ndikop
happy
TI@@
Saul
ands
mbiowo
edib@@
Akp@@
uyen
ọrọ
39
ụk@@
ef
emb@@
po@@
wicked
loving
edidem
akamba
helped
ture
really
Bethel
having
ell@@
enede
afiak
enyịme
45
ced
ill
inamke
ma
ọtọn̄ọde
ol
edinen
mi@@
pp@@
etịm
future
bring
tim@@
reas@@
Deuteronomy
res
righteous
ban̄a
Per@@
questions
5-@@
unen
encourag@@
ibu@@
desi@@
Ephesus
serving
ọdi@@
distr@@
Utu
ore
idiọk@@
por@@
Babylon
to@@
inua
Even
From
All
ẹtịn̄de
Akpa
lead@@
counsel
expl@@
ọt@@
wisdom
child
ind
ingly
ndidi@@
rul@@
ding
ward
omke
Ibet
gre@@
ters
asua
form@@
adan̄a
ubom
n̄kpri
itieutom
in̄wam
ER@@
owụtde
inyenede
brother
between
Ima
utị@@
conf@@
relationship
idiọn̄ọ
3-@@
article
religious
û@@
ubiere
side
kpep
ụri
exp@@
experience
uny@@
ubonowo
ọkọdọhọde
city
okodude
otode
Nt@@
ẹny@@
esis@@
ains
result
Re@@
oll@@
st
OR@@
ature
ẹken@@
ufọkabasi
esid@@
mfọnmma
mek
eful
No
Ị@@
close
abasi
message
ety
known
language
needed
transl@@
ndidọhọ
Em@@
her@@
w
under@@
thing
ndibi@@
utu
ong
ufen
Exodus
hold
left
ẹyak
count@@
discus@@
eyes
Man
ens
again
nsọn̄@@
ọkọnọde
esịne
share
ẹyetde
K
THE
continue
elders
heavenly
Wh@@
writ@@
care
199@@
Be@@
ach
went
odụk
done
44
ahade
jo@@
okok@@
ikemede
baptized
cus
teaching
tic
udi@@
ndiọi
associ@@
ON@@
Tim
ẹkan
Your
ẹto
Uk@@
mon@@
▪
offi@@
understand
bur@@
ebede
Ami
n̄kpọkọbi
ndikot
little
arawa
Apostle
di
any@@
ikwọ
isan̄
eyenete
Heb
Kere
someone
light
lives
2-@@
ịghi
cer@@
dev@@
mod@@
spe@@
ẹbi@@
Esịt
Ama
AR@@
ẹkotde
desire
Judah
idu
edumbet
gener@@
ọsọp
chang@@
ould
ose
ari
ures
ụh@@
ufọt
Lord
fer@@
42
bad
ẹtịn̄
fir@@
eng@@
tal@@
certain
n̄kere
ndausụn̄
last
um
inc@@
Ecclesiastes
kind
nor
esit@@
ndiny@@
matter
isụn̄utom
best
ọdiọn̄
au@@
pi@@
food
ẹkpep
ner
ana@@
ọf@@
ain@@
ancient
fulfill@@
anie
illustr@@
ẹnọde
uni@@
form
akakade
few
ears
epde
adan̄aemi
sol@@
lif@@
different
try
osio
fl@@
streng@@
fine
ided
acc@@
These
present
less@@
akade
oti@@
utuakibuot
els
loy@@
ible
anc@@
Because
mbiet
6-@@
hu@@
direc@@
esịnede
ntịn̄nnịm
number
benefit
ell
support
prom@@
eh@@
prophet
sure
ọdiọn̄ọ
cial
ace
Joshua
ap
utịn
emekeme
mag@@
fiak
Us@@
ẹkey@@
yet
az@@
Those
ree
ịmke
Phar@@
United
ọkpọn̄
nations
ut
account
moved
ets
pris@@
kindness
cannot
Jacob
prọfet
ack
ẹn̄w@@
ịm@@
ụn̄ọ
ụn̄de
the@@
nditịm
oku
Who
received
ẹkere
ndudue
courage
crip@@
following
hard
ndisịn
ọn̄ke
saw
ained
Bar@@
ẹtọn̄ọ
Ns@@
ined
Although
supp@@
Ib@@
better
sel@@
iyịp
exc@@
41
speak
Ufọk@@
enjoy
umb@@
believe
7-@@
answer
IS@@
ended
mîd@@
z
outh
members
teach@@
going
friends
wọ
don
expr@@
shi@@
sal@@
os
etiene
edidiọn̄
law
Ih
fear
view@@
show@@
olo@@
esịnde
ndinịm
off
Jews
suf@@
isi@@
Lev@@
requ@@
ayak
def@@
mbub@@
nditiene
akada
nditre
fre@@
int@@
adv@@
ins@@
ort
he@@
anyan
lear@@
lead
sense
oned
respect
ject
Ụ@@
nsịn
ead
knew
using
served
Law
mfri
Pet
der@@
ond
ident
ẹdiọn̄ọ
ct@@
know@@
ines
peri@@
ukpụhọde
fer
18@@
itiat
ekenyenede
du
Mbufo
ru@@
Ana
ately
saying
ẹkesi@@
attitude
etienede
L
ntịn̄
ị@@
problems
receive
asan̄ade
prac@@
dep@@
obedi@@
concl@@
self-@@
ented
yourself
likely
emana
den
avoid
cap@@
up@@
nto
case
etre
mean
ound
since
spec@@
43
brought
turned
ifan̄
ufọk@@
ten
Ukara
ikop
indic@@
born
situation
Ruth
Je@@
married
star@@
uọt
reading
difficult
look@@
thus
on̄o
followers
pray@@
suffering
Does
ekde
thought
dem
change
isịn
feelings
Enyọn̄
follow
ns
amb@@
eph@@
ọhọke
Consider
system
yom
nny@@
mbre
Catholic
Ub@@
ged
women
Ukpeme
person@@
aha@@
ibọrọ
trust
gen@@
Engl@@
states
ọfọnde
Thus
sons
ending
plac@@
idemmọ
iting
Int@@
trib@@
prove
attention
C.E.
ukpọn̄
died
until
States
ẹwet
nnyene
sio
eal
progr@@
nditie
enyeneke
oppos@@
conduct
ntiense
tur@@
beh@@
nam
ndibọ
far
refl@@
etde
ually
ants
akes
ee
nation
ẹtiene
needs
ineme
ekebe
ished
ọfọn̄
ndu@@
0
mîn@@
ested
enn@@
ok
Paradise
ẹn̄wam
obụp
ukot
lish@@
mbuba
TH@@
ukụt
succ@@
appreci@@
turn
ọkwọrọ
ans@@
ca@@
ached
happ@@
ths
next
inan̄
ndụn̄ọde
̄
Esie
e.
oun@@
nnịm
Elijah
wanted
real
ndidụk
ibi@@
pray
ubak
remain
esị@@
sue
mission@@
ibọk
Ndit@@
pass@@
ured
iren
wa@@
omde
tiene
ẹkabade
allow@@
Ut@@
thinking
ution
dedic@@
liter@@
question
fọn
Since
NW
utịn̄ikọ
kere
imp@@
pression
esịtekọm
money
Ephesians
idide
arri@@
oke
gy
lov@@
Na@@
instruc@@
wi@@
oted
along
ikot
emke
respon@@
n̄kpọntịbe
serv@@
especially
reali@@
ịt
Akwa
Yak
ser@@
around
il
soon
pain
clos@@
e-@@
taught
idan̄
taking
ase
iness
Ẹyak
mfọnido
imm@@
principles
mfụhọ
rely
ọdu@@
Nditọ
aidem
sent
hab@@
Kû@@
akpade
Are
strong
onal
Ikp@@
high@@
teach
World
ẹkedi
eren
cause
ational
Isa
dition
body
everlasting
ndisan̄a
Of
individuals
Such
works
dead
ements
idude
ust
ẹmade
Gospel
occ@@
gives
R
satis@@
wrong
poss@@
tor@@
mîkp@@
leta
Mi
aid
ision
makes
ẹkekp@@
ụhe
righteousness
free
conven@@
ẹkû@@
f
nor@@
fav@@
ast@@
emeke
ride
talk
Koro
night
cal
eben̄e
esisịt
including
rede
idu@@
heard
Rather
IK@@
gar@@
Watchtower
coming
apostles
ches
sisters
ope
refer@@
Bo@@
water
assi@@
proved
Can
anger
sacrifice
provide
Spirit
off@@
ekpeme
okpon
command@@
tain
60
responsib@@
ably
eless
sụn̄
ẹwetde
false
qualities
Bib@@
iketịbede
otke
un̄wọn̄ọ
resurrection
special
ịn̄de
See
oss
list@@
s.
cal@@
great@@
sk@@
spiritually
asu@@
nsu
hon@@
nditọwọn̄
char@@
occasi@@
hol@@
mbakara
dist@@
verse
ekes@@
ikan
ẹfep
mîkemeke
viol@@
akpan@@
eketịn̄
idak
etịbe
ech
nditọ@@
ọkọm
clear
slave
195@@
lion
tiede
Etie
ẹkedade
religion
whole
ense
mînyeneke
mentioned
Gre@@
ebiere
eat
ọnke
small
matters
sign@@
ic
Gilead
arrang@@
kingdom
EM@@
inspired
ert
ER
wit@@
ndikwọrọ
ularly
anana
tre
While
kan̄a
ẹkedude
May
whether
thy
adianade
Rus@@
shar@@
adu@@
ens@@
Mor@@
repor@@
okoneyo
nothing
ikụt
ẹkenam
enjoy@@
obụkidem
beli@@
stand
Be
wa
expec@@
ndikara
ibio
ina
school
Ukem
bir@@
stud@@
comes
tle
loved
N̄kp@@
promise
en̄kpọ
mor@@
Today
my@@
ereke
ms
ES
tion@@
ndima
akadade
earing
action
hour
ẹfiak
daugh@@
ẹmi
cul@@
Ex@@
gned
Creator
war
ọm
moti@@
atch
Of@@
certainly
material
vo@@
ẹse
discipl@@
cam@@
ability
ext
ges
pati@@
exam@@
lands
loyal
ọn̄ọke
affec@@
pite
here
fur@@
ẹdọhọde
shows
ụhọrede
group
Mal@@
idade
Eph
70
omode
El@@
proph@@
wal@@
ọnde
full
ẹkedide
incl@@
ems
sheep
Ey@@
4-@@
identi@@
n̄kukụre
ewụhọ
similar
mbiba
io
48
consid@@
Sim@@
ọkọb@@
iyomde
mer@@
imenyene
odomo
truly
Idi@@
edidi
seen
strength
ekemmọ
ide@@
bre@@
AS@@
ndisọn̄ọ
essing
divine
idik@@
E.N
invol@@
Gr@@
ẹtode
emen
ful@@
On@@
okos@@
imitate
resul@@
circumstances
ekewetde
asian
lies
ẹsis@@
un̄wana
sister
psalm
Ezekiel
godly
ly@@
ukpeme
46
meaning
akama
involved
Wor@@
mfiọk
every@@
understanding
temp@@
sacrifi@@
Jo@@
Ido
govern@@
produc@@
fied
ility
magazine
ọtọkiet
ling
gift
blood
n̄kụt
Ser@@
mọ
protec@@
mbiomo
reli@@
taken
sight
valu@@
four
ike
ẹdụk
believers
claim@@
ndiyom
Ẹs@@
ẹsio
enem@@
mde
an̄ikọ
anam@@
tru@@
deep@@
poli@@
ED
exerc@@
n̄kuk@@
ediomi
cour@@
scho@@
ndin̄w@@
God@@
afai
ịbi
etting
accept
prayers
happiness
ific@@
H
appointed
Sam@@
usọp
unọ
ịn̄@@
baba
return
mfọn@@
During
Enyene
wide
ọbọrọ
Eb@@
Like
wid@@
oburobụt
comfort
adaha
lived
Ok@@
uted
alf
based
ẹkpọn̄
becom@@
prophecy
wọrọke
cons@@
ood
Ver@@
edidi@@
n̄kpep
ọn@@
kept
Le@@
provid@@
high
persec@@
paradise
showed
usọbọ
Not
n̄kọri
conv@@
det@@
low
rule
interest
famil@@
guid@@
Uwem
RE@@
control
iyakke
ẹsọk
MME
second
congregations
Now
humb@@
dom@@
written
ọbọn̄
akan@@
Philippi
ra
iyom
ekondo
Jewish
ped
sil@@
ail@@
ntọt
okụtde
evidence
Ekp@@
started
asiakusụn̄
dia
overse@@
ever@@
hor@@
AM@@
en̄wan
Ibu@@
uforo
isio
immor@@
according
pioneer
ti
recogni@@
ukperedem
ental
tell@@
blessings
Gen@@
ekem@@
B.C.E.
destr@@
Kiet
SE
Brọda
F
heavens
n̄kọk
displ@@
privilege
ẹkebede
shepher@@
ource
ON
okposụkedi
AT@@
abian̄a
n̄kan@@
anyone
provided
ive
okû@@
allow
Par@@
ome
amke
en̄erede
eyet
forever
ri
table
near
effort
Germany
JEHOVAH
witness
nsunsu
Africa
bus@@
ws
Will
duop
shall
leave
conc@@
mmịn
ant@@
ext@@
ater
sing@@
tell
EM
NT@@
iti
demonstr@@
ka
once
ayed
soul
unity
travel@@
justice
cop@@
enịmde
includ@@
ari@@
requir@@
ism
anditiene
ọkọrọ
usọrọ
Christ@@
speaking
ufi@@
ower
oho
cus@@
Edisana
health
public@@
preach
fec@@
65
arly
ubom@@
lions
AL@@
Mmọdo
Ẹd@@
educ@@
ekenyene
reason@@
mbubehe
aster
spoke
otụk
lost
meeting
mfọn
fai@@
willing
local
Mî@@
AB@@
ẹkem@@
blessing
Did
idid@@
therefore
–
origin@@
loc@@
fail@@
Ndinam
Roman
ndondo
iwụt
ẹkot
Andibot
opke
ẹbọ
past
okod@@
efforts
n̄kop
n̄n̄w@@
AN
Ufọkmbono
standing
den@@
physical
opportunity
increas@@
owing
san̄asan̄a
examples
ọr@@
ought
friend
information
Instead
reke
actions
authority
edly
hearts
accompl@@
pers@@
hand@@
W
large
effec@@
greater
mîdụhe
doubt
promises
eidem
courag@@
Sep@@
ọfi@@
ubuene
regarding
wine
Ri@@
ties
ọkọk@@
organization
onde
held
thous@@
Their
omi
than@@
deep
osu
simply
already
confidence
ndutụhọ
full-time
put@@
vation
gain
circuit
ord
got
ẹkew@@
powerful
Ud@@
OU@@
en̄w@@
cri@@
okob@@
imade
Scriptural
sive
ikpîkpu
ẹdid@@
world@@
vely
ẹsụk
ail
lar@@
tation
amama
faith@@
mbufa
odot
Mfịn
pic@@
ink
kn@@
47
Still
continued
draw
standards
rather
prepar@@
enam
sed
De@@
keep@@
glory
ring
tures
sc@@
div@@
value
8-@@
entr@@
enyụn̄
ghty
dra@@
119
challeng@@
du@@
decisions
ịna
ibak
poin@@
ndiyọ
clean
ends
ekeb@@
ma@@
wụt
book@@
ians
editịm
worshipp@@
equ@@
move
effect
field
andikpep
bea@@
Ju@@
edinamde
anim@@
ẹdu@@
eds
ous@@
ites
lied
crow@@
fre
trans@@
experienced
lig@@
dic@@
ligh@@
aries
other@@
apply
aedi
studi@@
adian
lim@@
positi@@
nyom
mirac@@
tually
helps
declar@@
osụhọde
N̄
ẹkụtde
believ@@
enter
disp@@
ekemde
cultiv@@
anything
benef@@
wonderful
ẹnyịme
head
rend@@
ada@@
esida
ịre
yakke
country
IT@@
okpụhọde
ists
hear@@
develop@@
beg@@
ọwọn̄
won@@
arede
9-@@
US@@
maintain
well-@@
low@@
longer
People
Micah
Colossae
Rev@@
medi@@
an̄wa
ass
ndiy@@
older
pages
ẹkenọde
wil@@
n̄kpọn̄
tọsịn
Idịghe
Fir@@
tọn̄ọ
Jos@@
angels
ndọn̄esịt
let@@
working
remember
ndụk
public
esenyịn
area
ukw@@
activ@@
mov@@
complet@@
ọdọ
Anie
oh
bas@@
kû@@
Isaac
serious
accep@@
perhaps
ẹkenyenede
work@@
erc@@
azar@@
sever@@
ẹsinam
events
ntaifiọk
lik@@
vital
iyak
N̄w@@
urance
alls
Prov
atever
osobo
recorded
efep
Hence
fy
determined
ekemeke
listen
die
Sy@@
direction
MB@@
heart@@
rup@@
hear
edin@@
eyeneka
osp@@
Usen
Chronicles
itiaba
ger
andikara
Rom
ilities
ọpde
stated
Eti
miliọn
judgment
within
eket@@
en̄ekede
proc@@
en̄wed
ays
obey
named
ID@@
lier
pros@@
1914
cy@@
ulation
lea@@
isan̄a
overei@@
building
Ot@@
ndisi@@
struc@@
compani@@
55
ẹdomo
deal@@
ground
okotde
ount
ntịn̄enyịn
anamke
house@@
everything
integrity
offer
thoughts
Ge@@
ndiyak
decision
Dec@@
mate
ago
necess@@
psalmist
Des@@
hands
ediye
ising
Comm@@
sins
head@@
estab@@
Iti@@
toto
ick@@
Br@@
Indeed
Just
common
ẹsan̄a
mmemmem
ịmeke
ebịghike
ame
Car@@
ria
Kpasụk
instance
appreciation
okoyomde
ẹnen̄erede
n̄kpet
cover@@
ofụm
ịn̄ke
complete
months
hel@@
oon
accepted
anxi@@
en̄@@
ofụn
Nehemiah
eep
Ọyọhọ
According
minis@@
explained
WH@@
eration
TO
andiwet
uses
P
considered
esh@@
udomo
teachings
Europe
An
esede
ikpep
Ameri@@
seek
commun@@
ched
ụpde
Phil@@
Ererimbot
relati@@
sions
edinyan̄a
etimes
honor
ọn̄wọn̄ọde
PAG@@
eth
rest
ọkọnọ
Ukp@@
couple
gri@@
tate
vir@@
nsobo
spirit@@
press@@
promised
Her@@
ack@@
Ọkp@@
pe
ayan̄wam
ẹtie
buil@@
practic@@
ọsọn̄urua
ufụn
afi@@
Witness
198@@
wants
Idahaemi
n̄wọrọnda
aying
activities
Ukpepn̄kpọ
uyọhọ
zing
akpana
rejo@@
ical
Ny@@
idit@@
stat@@
itiokiet
ereikpe
olu@@
M.E.N
tern
aifiọk
edida
True
ẹsịnde
sequ@@
ọtde
essi@@
ransom
ịt@@
Greece
inọde
heal@@
apti@@
ẹkwọrọ
pione@@
Utọ
aim
conscience
chapter
mfep
ikod@@
ụnọ
iyatesịt
n̄kann̄kụk
whose
history
vic@@
bu@@
first@@
ẹsik@@
Galatia
ebe@@
mû@@
ẹbe
ịghike
role
flo@@
mîdi@@
rich
appear@@
akusụn̄
branch
Su@@
utịm
sa@@
published
Di@@
ING
York
Akpan
fru@@
thers
ẹdik@@
arr@@
Sarah
mba
entually
udu@@
resurrec@@
begin@@
offered
otuowo
acts
various
clearly
akpan̄@@
build
oughout
Thessalonica
uti@@
aph@@
flesh
col@@
pec@@
ẹkenyene
oken
ndikpebe
friend@@
ẹban̄ade
influence
advice
Jonah
Brother
mat@@
natur@@
earthly
mas
ẹwụtde
ẹsit@@
ndifiak
anyan̄a
describ@@
deed
foretold
Fo
letter
ọn̄wọn̄ọ
ukwak
met
covenant
call@@
enc@@
reach
earch
alone
It@@
ta
proper
ash@@
long@@
happened
Idụhe
idemfo
ọny@@
udịm
saf@@
Ukpono
tem@@
sla@@
accur@@
walk
sugg@@
Qu@@
15@@
forth
ẹsiode
eneme
seek@@
mbio
Eyen@@
gold
described
respond
formed
asana
nsi@@
ikanam
Life
mbi@@
BIBLE
mbọhọidụn̄
jus@@
assignment
princi@@
oth
nsọn̄idem
Philippians
ikedịghe
oni@@
ẹkewetde
Ev@@
ours
Jan@@
preci@@
regard
tuak
meet
Man@@
students
ọkpọkpọ
Ewe
nda@@
abuana
answers
otion
ito
im
nse
N̄ko
repres@@
resp@@
neighb@@
Mf@@
church
itus
training
available
acted
helping
EN
EMI
hur@@
ndim@@
fect
harmony
ected
Have
itted
Austr@@
ẹfi@@
akak@@
stay
ọfiọkde
call
ential
wo
Hall
praise
esinamde
Lo@@
line
mount@@
idọhọ
ẹkpepde
class
oyonyụn̄
Usem
year@@
esinen̄ede
fa@@
och
prop@@
Oyom
iọn̄
ẹdis@@
HO@@
Colossians
success@@
destruc@@
Aw@@
stood
ọkodudu
moral
ufak
akara
Therefore
prin@@
fill@@
ur
atch@@
cle@@
evil
ital
Galati@@
Kp@@
indiv@@
sim@@
ịgh@@
U
tiv@@
langu@@
tice
sm@@
prot@@
righ@@
inst@@
iket@@
read@@
Or@@
ca
nei@@
ody
follow@@
efore
imit@@
aching
differ@@
probl@@
aining
Chris@@
Ez@@
wr@@
n̄
joy@@
sou@@
ụt@@
ọnda
uene
sac@@
yụn̄
esses
aking
nec@@
compl@@
devel@@
experi@@
ọi
He@@
emiso
will@@
stand@@
eed
inem@@
ịnde
stan@@
anted
centur@@
who@@
sho@@
wet
̣@@
chall@@
uit
cles
ufa
som@@
spi@@
wọrọ@@
ò@@
continu@@
tit@@
․
Tim@@
Chr@@
oci@@
av@@
coun@@
ready
ave
edu@@
organi@@
ven
wọrọikọ
fering
judg@@
Col@@
hist@@
clo@@
qual@@
n̄@@
uring
cha@@
on̄@@
idụn̄
Uw@@
seri@@
cc@@
No@@
Eli@@
self@@
otikọ
nesses
Gal@@
Lu@@
haps
ept
udu
Eny@@
ith
uch
answ@@
Jon@@
gh
Ger@@
import@@
idem@@
eutom
help@@
cou@@
crib@@
god@@
ld
ni@@
isions
andik@@
ọrede
ards
Christi@@
sm
feel@@
publish@@
□
ie
influ@@
bor@@
can@@
ames
Da@@
main@@
Jeho@@
Thessalon@@
eneke
Mic@@
worshi@@
ques@@
oub@@
é@@
situ@@
gif@@
sion@@
IB@@
usụk
ịb@@
thor@@
recei@@
privil@@
id
urch
Er@@
’@@
mes
fered
efi@@
yp@@
reat@@
uel
Mos@@
youn@@
arding
ọtidem
ME
ọkpọ
edịghe
ples
kind@@
materi@@
v
consci@@
mean@@
an̄autom
Ac@@
ụtn̄kpọ
ile
conduc@@
prod@@
lic
anci@@
ir
V
pow@@
pra@@
enced
appoin@@
hea@@
respons@@
ders
ne
wic@@
opport@@
ew
mmem@@
lasting
LE
prophec@@
grou@@
m̀m@@
earth@@
C
well@@
ention
lood
fter
pose
ʹ@@
ru
ial
ọke
jud@@
Babyl@@
ekọm
ụn
é
Cor@@
ousness
otu@@
dren
ustr@@
itu@@
wis@@
doub@@
determin@@
author@@
ụme
Jehov@@
fam@@
asụk
religi@@
gover@@
Jer@@
ises
prob@@
difficul@@
The@@
hil@@
Do@@
physi@@
one@@
X@@
knowled@@
Isra@@
til@@
disci@@
Pe@@
fel@@
nam@@
benefi@@
yarade
husb@@
◆
isters
sid@@
ount@@
⁠
dif@@
yl@@
okon@@
onom@@
Phili@@
Spi@@
vari@@
Egyp@@
need@@
eve
rc@@
ho
val@@
pde
trav@@
esh
J
priv@@
gin@@
ikọn̄
AG@@
assign@@
ọfet
reco@@
chil@@
tural
oth@@
dom
kpọ
̀m@@
him@@
ld@@
inyan̄a
ịn̄ikọ
Messi@@
wish
í@@
eld
ul
bet@@
ether
with@@
Sin@@
inspi@@
aken
,0@@
ü@@
edic@@
deter@@
chap@@
ere@@
ospel
insi
Acc@@
tidem
whi@@
tode
·@@
duc@@
La@@
kọ
B
mess@@
Scrip@@
kpu
á@@
avo@@
awa
ụkidem
·
some@@
Pro@@
Tho@@
couns@@
mir@@
circum@@
uns@@
vice
ife
nyịn
mfr@@
apost@@
isụn̄@@
oin@@
Bec@@
AH
inform@@
greg@@
Q@@
magaz@@
numb@@
ewetde
ica
eep@@
Ind@@
las@@
relation@@
iọn
gg@@
tow@@
G
ollow@@
angu@@
uth
uakibuot
Cath@@
bọn̄
Esi@@
otenyịn
simil@@
Okp@@
neigh@@
ather
Joh@@
Sar@@
Mat@@
org@@
cov@@
zation
esịt@@
Philipp@@
led@@
©
evel@@
ough@@
pub@@
ndom@@
î@@
attit@@
ọh@@
cent@@
thin@@
Ep@@
contin@@
foret@@
fal@@
atesịt
Afri@@
sis@@
erful
esịn@@
olic
epher@@
them@@
count
Co@@
jah
amba
wed
Sat@@
ó@@
atis@@
un̄w@@
Eph@@
ã@@
fri@@
Josep@@
wọn̄
othing
idence
—@@
rifi@@
full@@
ece
Eur@@
è@@
ekede
certain@@
●
embers
port@@
ö@@
$
atre
æ@@
though@@
nyeneke
apos@@
ob
:@@
bapti@@
marri@@
ʹ
simp@@
ọsịn
ụr@@
harmon@@
|
Pet@@
ben@@
fol@@
ọn̄esịt
congreg@@
till
Ther@@
adan̄a@@
Jac@@
Bab@@
JE@@
ac
ondo
stances
syst@@
anikọn̄
your@@
mem
ainst
ially
flu@@
fort
yọhọ
ointed
forts
recogn@@
til
ndut@@
asi
aim@@
bran@@
ause
how@@
mbot
vid
wom@@
ennen
an̄a@@
ê
Û@@
Ec@@
ô@@
ou
Rom@@
san̄@@
gether
ú@@
ọsọn̄@@
Ŋ@@
Gil@@
psal@@
atur@@
circ@@
ege
ham
Edis@@
Wit@@
ysi@@
-time
wonder@@
tower
ñ@@
Sol@@
ọdo
X
hum@@
ọn̄w@@
Heb@@
usb@@
integr@@
tau@@
urrec@@
ọkọbi
epn̄kpọ
aiah
>
ł@@
fut@@
eredem
xi@@
Î@@
&
ç@@
Apos@@
ndibot
á
q
Consid@@
uak@@
unsu
udue
○
eft
bs
Israel@@
Yor@@
How@@
Á@@
ople
onowo
record@@
heaven@@
ntịbe
meet@@
onomy
okiet
ọhọidụn̄
bless@@
n̄wọr@@
menti@@
lit@@
osụk@@
Abra@@
selves
ording
̀@@
aul
dau@@
í
ä@@
urobụt
̄@@
hou@@
Dani@@
Corinth@@
iduals
sians
q@@
Ê
Z
îkpu
ọkiet
iel
ticle
Watch@@
°
⇩
j
Ephesi@@
B.@@
₦
ë
othy
à
ween
rit
righte@@
É@@
demon@@
Creat@@
n̄kụk
ö
č@@
ʼ@@
clesi@@
ansom
coven@@
overbs
Corin@@
esus
ה@@
ʽ@@
esis
ה
ficul@@
ê@@
IBLE
Thessal@@
←
hua
Ecclesi@@
י@@
®
ו@@
espec@@
↓
ọhọ@@
bec@@
â@@
◇
avail@@
rote
adise
atters
HOV@@
ë@@
Jerusal@@
astes
ā@@
ł
✔
ø@@
=
uter@@
à@@
%
Colos@@
è
ñ
ń@@
▸
ū@@
―
­
̆@@
onicles
stead
_@@
Hebre@@
Solom@@
Ž@@
ś@@
Í@@
ntịn̄@@
Q
\
Didi@@
mist
thel
ý
ọda
⇨
−
JEHOV@@
š@@
ú
obụt
Eg@@
↑
❖
ׁ
נ@@
פ@@
ó
̇@@
ę@@
→
ש@@
­@@
ä
Matthe@@
‛
£
æ
Ü@@
emiah
ż@@
å@@
Ş@@
Ã@@
Ô@@
☞
wọr@@
Š@@
Neh@@
ß
;@@
Ò@@
ịg@@
È@@
΄
€
É
ʼ
ý@@
Isa@@
Ó@@
+
Ł@@
μ@@
ą@@
ù@@
Å@@
▾
inte@@
ő@@
ã
ē
י
̗@@
Ḥ@@
ŋ@@
odus
ū
ß@@
ï@@
å
ī
ì@@
#
Ç@@
ḍ@@
ē@@
Ezek@@
‘@@
™
@
Ö@@
̆
Jerus@@
Ñ@@
ě@@
ü
ć
ẹ
À
_
Revel@@
ź
ı@@
ò
â
ù
ǒ
ž@@
⁄
ï
ī@@
ş@@
Å
ů@@
Ú@@
Á
̧@@
õ@@
Ż@@
Ṭ@@
È
C.E@@
ō
osụkedi
/@@
ị
Ė@@
.E@@
ụ
ṃ
ā
◀
ṭ@@
À@@
ṭ
Α@@
ι
sae
⁠@@
û
ʺ
ˋ@@
