<unk>
<pad>
<s>
</s>
,
.
the
na
ya
to
of
wa
a
and
“
”
in
:
kwa
ku@@
?
that
m@@
katika
u@@
—
is
-
wa@@
kuwa
s@@
M@@
p@@
ed
za
kwamba
t@@
la
ma@@
ing
in@@
for
S@@
ali@@
e
on
we
I
es
hu@@
o
at@@
n@@
as
an@@
ni
s
was
o@@
with
A@@
re@@
it
be
The
b@@
f@@
are
un@@
l@@
k@@
v@@
ha@@
d@@
i@@
Mungu
c@@
it@@
g@@
a@@
ia
or
y@@
Yehova
e@@
as@@
am@@
his
y
K@@
​
not
U@@
ar@@
r@@
you
i
an
H@@
er
E@@
have
T@@
j@@
ak@@
en@@
he
z@@
al@@
Kwa
t
’
N@@
ki@@
by
er@@
on@@
;
watu
ad@@
tu@@
C@@
L@@
W@@
im@@
will
ers
wali@@
P@@
st@@
!
from
li@@
)
(
ili
w@@
sana
1
us@@
their
one
at
al
is@@
D@@
Jehovah
hiyo
cha
es@@
or@@
R@@
us
God
u
ili@@
h@@
I@@
they
ation
hivyo
kama
‘
au
ab@@
ac@@
zaidi
can
this
all
F@@
ut@@
who
our
ted
B@@
hivi
wake
af@@
Biblia
wakati
um@@
ika
el@@
were
J@@
th@@
Bible
ap@@
ate
ts
’s
id@@
yake
po@@
G@@
Yesu
con@@
Jesus
O@@
ang@@
A
had
em@@
2
ur@@
ani
ana
ag@@
do
ly
ro@@
le@@
ch@@
In
what
et@@
your
ik@@
kwenye
we@@
mb@@
hilo
kum@@
kut@@
ul@@
le
to@@
wenye
Ku@@
lo@@
has
nini
il@@
kweli
5
my
ic@@
3
sababu
vi@@
mambo
ti@@
them
ho@@
people
tr@@
hi@@
kus@@
ent
op@@
isha
ka
wan@@
se@@
ua
wat@@
about
uli@@
huo
iwa
de@@
si
vya
fulani
What
4
up@@
[
]
time
kuwa@@
mtu
ity
om@@
si@@
ir@@
if@@
when
juu
ini
tion
m
pro@@
Y@@
6
ing@@
V@@
would
d
8
k
weza
ec@@
kazi
zi
him
zo
and@@
ali
ated
kufanya
but
Jehovah’s
yenye
may
tu
mat@@
dis@@
more
fanya
God’s
me
l
Hata
out
pia
ambayo
moja
wao
mi@@
so
sp@@
mo@@
th
life
Ni
ep@@
qu@@
kuhusu
end@@
ig@@
ele@@
be@@
n
some
ve
miaka
ri@@
ex@@
ano
nili@@
mmoja
ona
kutoka
te@@
ambao
kup@@
nyingi
yao
hali
9
gani
eni
co@@
njia
aji
en
ev@@
jambo
many
ari
sh@@
ta@@
yo@@
ence
kila
ra@@
been
did
able
ol@@
her
7
ea
its
It
und@@
also
har@@
wengine
kuj@@
ter
av@@
ikiwa
ting
h
aj@@
ance
ally
Je
Katika
alikuwa
su@@
those
How
ine
ina
yo
onyesha
such
for@@
ko
hayo
oni
par@@
ze
siku
up
me@@
ud@@
wengi
hata
ishi
no@@
pre@@
Lakini
zwa
than
ment
He
ama
pamoja
ar
ip@@
jinsi
other
ter@@
az@@
15
se
there
cho@@
des@@
b
even
ons
mara
moyo
kubwa
wote
per@@
no
/
go@@
wana@@
res@@
wap@@
4@@
p
age
ent@@
ishwa
lin@@
pe@@
ous
ung@@
Witnesses
10
amb@@
man
yetu
ana@@
Mashahidi
way
ji@@
mwenye
enda
lakini
how
fu
12
ch
mw@@
est
1@@
ara
mis@@
kit@@
watoto
hi
into
Ki@@
which
ema
if
years
she
aa
w
But
ame@@
ary
ant
sa@@
ko@@
pres@@
wame@@
ne@@
cha@@
ations
ny@@
work
ke@@
red
do@@
ina@@
these
We
11
said
help
day
ings
anza
mwaka
any@@
good
ru@@
aka
Ali@@
19@@
14
mar@@
ind@@
This
kuf@@
asema
la@@
mba
fu@@
maj@@
awa@@
world
ya@@
Wakristo
habari
wale
Ma@@
3@@
he@@
man@@
bo@@
ish@@
could
only
Mar@@
ub@@
6@@
When
ob@@
pl@@
ed@@
ndani
ying
tuli@@
iliyo@@
gr@@
should
maisha
ib@@
In@@
asi
ice
yote
hitaji
sha@@
wetu
kuu
kwanza
fa@@
things
They
el
Nili@@
umb@@
Z@@
yangu
ning
wanao@@
ely
king
over
ved
children
dec@@
muda
says
ents
does
first
make
ty
20
ma
13
sha
sehemu
mp@@
love
car@@
Paulo
ong@@
familia
huko
ic
tun@@
eleza
mit@@
5@@
wi
ef@@
Christian
uni
ug@@
inayo@@
like
ulimwengu
zao
wangu
so@@
hawa@@
pa
iko
Wa@@
2@@
huenda
hat@@
walio@@
ls
led
ies
karibu
ji
ou@@
ek@@
umu
pos@@
faa
because
most
For
nguvu
les
shu@@
ds
ful
.@@
ness
hisi
then
iri
ge
ile
huyo
vile
made
hizo
If
rec@@
ambaye
wako
ks
iv@@
As
hao
baada
lili@@
husu
199@@
endelea
maji
ye@@
avyo@@
nchi
used
being
je
od
earth
bila
sion
family
Paul
ess
others
ao
mag@@
17
kutu@@
di@@
od@@
16
wanadamu
E
S
ajili
come
Kristo
nyingine
upendo
22
well
ci@@
g
roho
kupata
mfano
just
awa
imani
war@@
ws
kiroho
kati
kis@@
fan@@
ita
yako
ver@@
ating
end
tions
Christians
kat@@
ke
vis@@
kuli@@
walikuwa
chang@@
zake
times
now
yeye
abu
kabisa
uliwa
need
x@@
Mo@@
cl@@
ja
comm@@
very
br@@
x
gu@@
eng@@
any
18
00
ad
Kingdom
ach@@
Ufalme
kuto@@
zili@@
adi
ita@@
eli
azi
ikia
cre@@
amani
wor@@
ris@@
uka
19
kawaida
jua
ye
ime@@
after
wezi
chini
ish
take
ju@@
st
maneno
see
use
ther@@
ti
ue
uj@@
reg@@
ess@@
ati
chu@@
io
am
zo@@
Th@@
weka
You
maana
tre@@
must
example
hadi
sasa
tena
na@@
wala
et
Why
hili
uma
kun@@
mengi
two
lic@@
leo
una@@
7@@
ki
isho
ast
eta
onekana
ata
kutumia
ise
ala
com@@
hus@@
fe@@
uk@@
r
where
kili@@
new
kik@@
vu
unga
str@@
ical
ill@@
ume
kuz@@
yanayo@@
ng@@
mahali
zi@@
faith
apaswa
know
ima
saf@@
Christ
amini
comp@@
ibu
aka@@
saidia
isi
aje
wana
spirit
asa
zia
aza
men
ones
ka@@
tumia
isa
ill
ked
pata
parents
oma
New
before
ass@@
naye
c
izi
kuv@@
much
est@@
over@@
kuna
asi@@
own
An@@
fo@@
idi
And
ph@@
yaliyo@@
kub@@
ver
wen@@
ten@@
ati@@
alisema
become
att@@
ilikuwa
ther
’@@
iki@@
ep
als
nyumba
cr@@
map@@
shi@@
uzi
amu
ito@@
ah
tic@@
yali@@
pokuwa
kim@@
ifu
through
kufa
24
ight
thing
ves
,000
sur@@
te
ga@@
year
ans
eg@@
jo@@
aliye@@
ce
ps
found
ndugu
land
lazima
O
21
ha
mwa@@
8@@
Na
kubali
mbo
ite
wazazi
of@@
emp@@
shaka
mwa
Be@@
ato@@
true
death
spiritual
give
muhimu
ear@@
get
inter@@
aki
iza
po
kuliko
pri@@
words
pat@@
iti@@
ba@@
ni@@
fin@@
ure
congregation
tive
uliza
kutaniko
ever
vyo
another
umri
Watu
usi@@
ily
sub@@
mwan@@
self
each
30
heart
id
tuna@@
our@@
atu@@
ote
One
zenye
book
alipo@@
ere@@
bali
sed
vit@@
min@@
John
ently
nao
Hivyo
nd@@
go
tofauti
the@@
che@@
pekee
mwingine
ters
kitabu
il
vyo@@
ling
gi@@
ement
lake
ie
akiwa
ane
kab@@
wam@@
itwa
au@@
ality
ered
iga
vitu
kud@@
hasa
hii
akili
zote
ze@@
ities
Al@@
act
ulio@@
ndoa
fac@@
though
less
human
sema
mwisho
ambazo
9@@
ende@@
ry
part
To@@
great
waki@@
read
mbalimbali
sal@@
25
kam@@
Baada
That
clo@@
unao@@
yed
kujifunza
mak@@
name
mad@@
fany@@
jiji
young
dunia
ial
*
So
ect
karne
tic
isi@@
ties
tor@@
As@@
study
ain@@
ath@@
Wakati
home
long
taf@@
res
jina
ta
sta@@
wazi
tly
ands
say
might
tum@@
wal@@
ond@@
Ikiwa
kusema
hamu
harib@@
ungu
sis@@
kupitia
fore@@
ambalo
mkubwa
toa
gre@@
Some
por@@
find
aja
kabla
matatizo
ovu
Re@@
However
often
ars
Neno
wn
feel
kana
ain
ach
anaye@@
Ingawa
huu
dhambi
•
sec@@
lenye
gro@@
aki@@
ake
0@@
kuji@@
di
za@@
pr@@
adhi
haki
cen@@
ates
mon@@
ule
mk@@
person
place
Ch@@
hur@@
yat@@
truth
zinazo@@
To
told
wo@@
called
aswa
sik@@
kuja
azo
eza
maoni
sin@@
far@@
same
acc@@
kiasi
uhai
zetu
kuona
50
nik@@
ne
right
mwenyewe
ilia
old
Pro@@
ay
Kikristo
ten
eli@@
ition
bar@@
Mwan@@
da@@
ces
ors
hapo
tur@@
ory
add@@
ord@@
ume@@
zed
furaha
eti
23
ambia
bora
yan@@
nyumbani
never
hekima
sel@@
ages
mtoto
against
Hu@@
today
No@@
umia
every
ist
too
vizuri
ign@@
fully
kifo
hari
duniani
pra@@
anda
ingine
out@@
chakula
lar@@
At
low@@
son
down
taka
kul@@
dr@@
sho@@
eneo
igh@@
mimi
ned
0
Mat@@
aina
atia
inge@@
ere
back
iki
ura@@
There
walio
yale
under@@
hisia
ide
uta
Ar@@
ard
ens
bl@@
Wat@@
Mas@@
conf@@
sifa
kumb@@
usi
writ@@
dini
vic@@
ada
tumaini
ani@@
keep
After
happ@@
sisi
Baba
baadaye
hel@@
og@@
ongoza
kujua
iriwa
mt@@
damu
under
li
trib@@
Huenda
da
□
sto@@
days
hicho
kusudi
indi
Kama
inda
mbele
came
mpya
cor@@
Do
ayo
became
ture
three
kutoa
bus@@
inaweza
lililo@@
Tr@@
live
uwezo
water
Mi@@
during
still
ular
uki@@
wanafunzi
means
off@@
Word
set
shauri
ld
ambapo
ondo@@
toka
Lo@@
aliwa@@
tumikia
fi@@
brothers
ho
ple
ongo
word
ened
Pia
let@@
put
bado
jifunza
promis@@
century
while
sim@@
wrote
hir@@
ulimwenguni
zilizo@@
ikana
ven@@
ale
ikiria
fuata
els
apo
nzuri
himself
enti@@
ike
waweza
her@@
cho
fl@@
dem@@
umba
St@@
Con@@
kutokana
course
tain
ress
uc@@
wang@@
hatua
fanywa
appro@@
tro@@
low
why
Wak@@
yana@@
among
wata@@
tiwa
sab@@
pub@@
afan@@
requ@@
uv@@
ono
,@@
nyakati
wakiwa
bur@@
ito
Bila
view
anga
light
hatari
bu
chap@@
zin@@
Se@@
lugha
tend@@
ard@@
sheria
want
spec@@
apostle
ase
hubiri
sy@@
hali@@
was@@
vita
jamii
28
mili@@
wewe
poli@@
bre@@
aribu
Shetani
kitu
ran@@
wenyewe
mbe
away
Wan@@
Vi@@
wak@@
elea
gl@@
later
kutia
let
began
milele
important
tim@@
accep@@
Bar@@
pris@@
dha@@
kuishi
upon
serve
she@@
ual
gazeti
acha
ange@@
kia
however
col@@
ple@@
fir@@
kula
mz@@
pe
sa
Ha@@
40
Yohana
learn
without
mv@@
makala
kas@@
ving
ser@@
side
wasi@@
Com@@
N
Yo@@
keza
angu
kwa@@
Is
ough
eka
My
andika
ingi
cour@@
njema
wani
mbia
Kus@@
re
ments
esha
alia
kiwa
ri
ys
kamwe
ack
linalo@@
ir
elekea
show
tiv@@
mind
kosa
oko@@
ba
rel@@
200@@
iba
article
Ba@@
azama
given
mu@@
enga
iti
tayari
kin@@
um
fun@@
kadhaa
David
fore
vers@@
cal@@
ca@@
direc@@
dar@@
Bo@@
ism
between
AN@@
tain@@
ulia
emb@@
ited
prac@@
vijana
By
kwenda
Peter
neno
inst@@
On
mama
worship
kumbuka
mwili
aliwa
With
encour@@
living
mke
msaada
takatifu
uf@@
arisha
Israel
enzi
maz@@
uri
hakika
kale
themselves
pa@@
ome
ign
ative
ses
hope
tak@@
hutu@@
amua
kuhubiri
adili
lia
hab@@
waka@@
ped
Many
Daudi
wife
ision
siri
cro@@
outh
ref@@
mbali
ith@@
jaribu
Ro@@
atu
cap@@
Un@@
matokeo
mwen@@
order
list@@
hear@@
Kisha
afanya
Ne@@
kilicho@@
itahidi
Petro
expres@@
wag@@
kea
ets
exp@@
ge@@
power
fact
kundi
der
wili
bel@@
wanaweza
alivyo@@
mor@@
uz@@
mas@@
eshi
hum@@
wing
ulikuwa
house
chunguza
loc@@
Then
hai@@
esi
sing
mafuta
sure
both
ambua
zungum@@
ature
kuonyesha
number
ef
azam@@
tice
news
adv@@
baba
bidii
cy
upande
uta@@
iness
fur@@
doing
mali@@
jud@@
lea
Wali@@
D
knowledge
ants
faithful
ai
198@@
fura@@
kadiri
He@@
reas@@
religious
teach@@
keo
mer@@
ace
iwe
apata
Zaburi
wazee
Israeli
anya
little
few
onal
kumw@@
mbinguni
Br@@
bro@@
huduma
food
mbili
Matthew
yule
Is@@
cul@@
World
gave
ari@@
pi@@
ied
uhusiano
eas@@
ll
▪
mkono
tii
known
kib@@
vir@@
vin@@
avyo
una
kidogo
chache
ever@@
pote
Mathayo
blood
onyes@@
huru
idadi
26
onjwa
ele
tually
afu
omba
ungu@@
Ili
making
always
Hilo
Man@@
ong
pop@@
unaweza
sol@@
Yeye
form@@
look
child
0,000
ste@@
Chris@@
wer
ists
ways
ania
hakuna
ward
service
lewa
every@@
She
uni@@
mother
ataka
29
Eli@@
pur@@
peace
ust
msingi
kidini
succ@@
asilimia
ibada
iliana
amba
wanawake
hor@@
Father
gy
Marekani
took
cont@@
wange@@
ship
ution
jec@@
face
ously
bir@@
ough@@
W.K
Me@@
tamaa
C.E
resp@@
ests
produc@@
United
ministry
En@@
ms@@
ek
penda
dawa
ater
18@@
huku
really
Yet
ute
full
NW
mab@@
Psalm
city
cop@@
yoyote
yak@@
shangwe
gener@@
ufa@@
afya
ore
Ho@@
27
jibu
wawili
holy
ugonjwa
kuendelea
father
hes@@
problems
hand
kusaidia
vo@@
possible
try
These
mbaya
ongo@@
ira
Sam@@
Jo@@
ences
tatu
ond
saa
ell
form
karib@@
inga
provid@@
pas@@
T
sala
preaching
bless@@
33
huz@@
Mak@@
buil@@
women
anasema
tal@@
baadhi
beg@@
ce@@
streng@@
chi@@
off
felt
kinacho@@
vili@@
rahisi
ail@@
wond@@
ok@@
asked
ening
body
tatizo
fundisha
lilikuwa
ced
dly
ata@@
Wayahudi
something
vid@@
having
elewa
together
nchini
Our
fort
wise
soci@@
His
app@@
thamini
Kan@@
kar@@
Maandiko
Scriptures
tar@@
ingia
Zaidi
ongezeka
ths
ndiye
ired
ine@@
consid@@
erful
concer@@
mapema
hud@@
incre@@
tes
yen@@
IN@@
Waz@@
iliyo
nj@@
since
loy@@
appreci@@
humans
Wana@@
think
Tun@@
hard
chana
mbo@@
standing
kimwili
ort
uku
ajua
ingly
So@@
tab@@
mik@@
percent
stud@@
pt
Bab@@
mamlaka
result
Even
TH@@
31
mil@@
ambavyo
spo@@
halisi
pers@@
King
wekwa
activ@@
Tuli@@
und
pewa
ety
continu@@
oja
endo
f
Ex@@
left
miwa
wanyama
imu
namna
ches
Mara
wez@@
nani
usha
doc@@
iliza
aged
ol
point
high
Per@@
ms
weli
wanaume
fer@@
dia
uko
utumishi
Mfalme
Satan
fic@@
ikiri
kataa
vif@@
lish
hanga@@
abii
Sp@@
Hebre@@
yeyote
nam@@
hiriki
ango
reason
tical
enye
lead@@
zaji
ambacho
nor@@
world@@
ering
mrefu
utia
wanapo@@
care
ndege
Yes
ene@@
school
kupat@@
tor
kanuni
kil@@
lives
last
ns
shind@@
alip@@
plac@@
kusoma
sou@@
haya
All
Mag@@
future
tel@@
hudhuria
From
ner
ndiyo
Badala
ree
haraka
died
pic@@
cle@@
better
believ@@
mengine
main@@
hani
different
ful@@
yaani
thr@@
sive
stu@@
serikali
mwanamke
ian
mwingi
organi@@
eno
badala
eso
olo@@
som@@
uza
haku@@
tang@@
loving
unza
again
asili
loo@@
ebrania
fadhili
lished
exc@@
ajabu
inyi
karibuni
Waisraeli
personal
hon@@
zoea
ingawa
experience
egem@@
Dani@@
marriage
chochea
woman
kulingana
Mkristo
lif@@
fr@@
unapo@@
ujao
mfumo
Si@@
tokea
stan@@
endwa
tin@@
individ@@
kur@@
early
ufu@@
using
’t
Jambo
ping
ungwa
No
Par@@
arly
reali@@
zazi
ham@@
ii
hughuli@@
sauti
historia
mzuri
kufikia
pokea
Mtu
thamani
Ab@@
huwa
system
60
dev@@
whom
toward
around
Go@@
fre@@
tumiwa
star@@
Co@@
Po@@
small
yasi@@
thought
pesa
rep@@
mig@@
Mwana
appe@@
ding
ilioni
rangi
chunguzi
deed
nime@@
disciples
ss
aliandika
yaliyo
hai
mwanadamu
peri@@
dra@@
san@@
hili@@
sacrif@@
ila
zamani
U
kichwa
includ@@
Jud@@
ndi@@
uu
mg@@
temb@@
kwake
aliye
describ@@
aifa
kusanyiko
thibit@@
coun@@
dada
kazini
present
learned
illi@@
alim@@
mir@@
hisha
anisha
Sh@@
anaweza
194@@
ajwa
needed
author@@
y’s
azim@@
uha@@
ukurasa
fect
Americ@@
ve@@
yame@@
Musa
complet@@
religion
health
ric@@
kip@@
York
WA
far
zuri
occ@@
32
dogo
De@@
exam@@
chake
cannot
Bwana
develop@@
kuwat@@
Isaya
mikutano
thers
one@@
ask
viol@@
dhidi
zani
went
sil@@
done
Sasa
consider
mam@@
helped
sib@@
engo
uru
shang@@
70
ujuzi
mume
zation
sci@@
dang@@
den
best
bring
friends
States
follow@@
arib@@
LI@@
wo
kind
Your
apo@@
mingi
ately
happy
juli@@
tunaweza
mif@@
Gre@@
awe
husband
Kila
ber@@
believe
cer@@
izwa
fellow
ongeza
maishani
mkuu
Up@@
here
Mimi
usa
35
Afric@@
aktari
ezi
ainia
pole
azeti
kielelezo
erem@@
vol@@
joy
atizwa
servants
shua
mus@@
Kup@@
unge@@
jus@@
Tim@@
de
wh@@
hia
ndivyo
aliyekuwa
ick@@
ental
Ger@@
head
unda
ren@@
umbe
bi@@
pati@@
along
20@@
uhakika
hospit@@
prog@@
issu@@
maswali
tuki@@
zima
going
oro
witn@@
ist@@
until
ld@@
vari@@
ems
mataifa
itu@@
ire
endeleo
Isaiah
ious
Des@@
rafiki
shi
giving
ishe
fec@@
makao
spe@@
wowote
sk@@
ply
onya
ject
afiki
kuru@@
ident
ath
Y
prin@@
fear
watumishi
trans@@
purpose
certain
Thus
kid@@
kupita
em
ged
war
ndio
matter
uo
pow@@
MA@@
eful
acho@@
inapo@@
following
ines
pione@@
Ser@@
rul@@
meetings
om
Mis@@
t’s
ll@@
Kulingana
states
Siku
Jerusalem
moved
tengene@@
chenye
especially
ither
ancient
questions
uda
ungua
shule
mtume
million
discus@@
cause
basi
Basi
change
engene@@
anishwa
macho
Let
R
four
kile
sin
cy@@
maeneo
waliokuwa
sen@@
hitaj@@
vibaya
Although
ery
ore@@
you@@
vyote
His@@
ased
andikwa
jia
Mambo
Na@@
ind
perfect
mabaya
elfu
money
habu
urahia
kisha
apat@@
ulio
hara
serv@@
language
heav@@
kabili
unguza
ujumbe
Son
husiana
reading
prayer
his@@
next
sea
ongozi
eyes
inadamu
person@@
Proverbs
Bib@@
rest
Eng@@
illing
Jap@@
resurrec@@
nations
members
ended
haribu
miongoni
law
dies
Greek
atimaye
close
maanisha
commun@@
eo
ayansi
lands
fikia
someone
tolewa
speak@@
Waf@@
essi@@
including
chan@@
ck
experi@@
Gen@@
Yerusalemu
wasio
Since
isha@@
hukumu
cou@@
Because
Moses
kuelekea
yenu
Inter@@
kaa
unabii
associ@@
wali
Watchtower
turned
itu
eho@@
ians
udi
tors
milioni
der@@
shamb@@
emo@@
nin@@
cond@@
mpaka
nje
nami
makubwa
char@@
ababisha
anapo@@
nilikuwa
namo
hizi
ame
leg@@
continue
large
walipo@@
kumi
anima@@
Was@@
yourself
ins
According
funzo
bad
mapenzi
seen
fedha
support
kuondo@@
egemea
ested
med@@
hakik@@
ty@@
thous@@
member
afiri
Bro@@
uhitaji
Am@@
Ad@@
avu
there@@
mankind
enjoy
ins@@
andishi
ligh@@
wisdom
wr@@
We@@
earth@@
zime@@
nayo
jitihada
ako
mazuri
huwa@@
soon
onom@@
mean@@
served
Ili@@
kamilifu
kuwasaidia
zangu
Euro@@
stand@@
ile@@
ending
lime@@
parad@@
taken
righteous
fine
wafan@@
tangu
im
kif@@
ak
case
minis@@
oned
situation
mbingu
On@@
safi
bor@@
Kuna
gari
understand
endezwa
ago
sawa
KU@@
undisha
alin@@
indic@@
who@@
BWANA
thus
umu@@
ut
umisha
kuny@@
had@@
hiki
dep@@
matendo
equ@@
teaching
udu
rain
ices
itia
lish@@
share
ould
abo@@
relationship
endele@@
barab@@
new@@
iting
night
ukiwa
transl@@
kuwapo
yet
position
shwa
heaven
alo
yaweza
usiku
zako
reve@@
sup@@
wide
mi
saw
quali@@
born
ivyo
hofu
half
less@@
tumwa
gen@@
ifanya
ented
dist@@
free
iz@@
hwa
zee
thy
ges
dai
uti@@
national
hup@@
mate
tegemea
turn
marafiki
kan@@
mwana
likely
ards
ather
kibinadamu
asu@@
problem
ulation
vip@@
iliyopita
vigumu
itions
z
trad@@
kuk@@
37
tokeza
eless
received
evil
hika
ajiri
brought
emi
elders
crip@@
taifa
dic@@
hirika
doub@@
asiri
Of
mn@@
And@@
control
saying
nor
real
difficult
sing@@
aba
tia
ched
mafundisho
counsel
vered
tered
mwanamume
Wakorintho
ant@@
sense
kuelewa
ably
kusu@@
struc@@
uhuru
While
ass
talk
feelings
ikali
diwa
husisha
serving
lies
pla@@
lasting
etting
kikundi
bu@@
prof@@
ubu
Sim@@
influ@@
hand@@
kipindi
AT@@
attention
heavenly
Muumba
Corinthians
challeng@@
iya
beli@@
hufanya
taking
EN@@
alo@@
waaminifu
hal@@
aliyo@@
liki
faida
ries
zisi@@
wanas@@
14@@
my@@
baptized
kufuata
afuta
val@@
uia
sura
nal
zoni
ush@@
moto
je@@
wicked
don@@
needs
fikiria
mia
Leo
invit@@
James
wis@@
kijana
utendaji
uko@@
ults
ularly
tume@@
brother
whole
ility
Ulaya
34
tern
answer
kuacha
vitabu
kilom@@
cas@@
ON@@
page
avoid
Who
div@@
magazine
Fa@@
walimu
can@@
dead
․
hidi
amaanisha
zawadi
speak
affec@@
mfupi
IM@@
Sheria
hiwa
alipokuwa
wanted
inasema
Ind@@
badiliko
makes
opa
kutokeza
message
enced
ngumu
ually
ided
washiriki
ring
per
kui@@
lile
mind@@
Australia
Ulimwengu
hewa
n’t
ible
vun@@
trac@@
sikuzote
special
Afrika
answ@@
iso
anat@@
liter@@
uadilifu
chukua
U.@@
grap@@
respect
duc@@
prophe@@
ras@@
group
hibiti
orig@@
kutana
accomp@@
arding
ust@@
countries
gy@@
Le@@
refu
esti@@
ahadi
mtazamo
Luka
Abra@@
sex@@
alamu
question
are@@
kuta@@
nafsi
aper
sent
Fam@@
according
10@@
icha
timi@@
ifa
Now
ilika
Baadaye
iria
Kitabu
fru@@
kutimiza
Ny@@
Kut@@
Wor@@
gif@@
tri@@
ised
desire
prophec@@
izo
Jews
mean
kibinafsi
lead
lolote
mali
vention
linzi
simply
ends
barua
prove
Israelites
Mwa@@
mfalme
Ufunuo
information
Timotheo
Timothy
kamanifu
Revelation
Wengine
tunapo@@
ikiana
akatifu
afunzi
ora
chagua
posed
zungumza
jana
once
yl@@
claim@@
arri@@
tukufu
ples
king@@
Maj@@
wil@@
ours
educ@@
provide
learly
Those
famili@@
chi
ok
Luke
cam@@
anointed
amuzi
Can
wrong
nit@@
moyoni
pili
oper@@
consci@@
bin@@
uaminifu
maskini
eld
gir@@
ability
mu
coming
aring
table
nia
kulikuwa
sla@@
kufu@@
Uni@@
Creator
some@@
ongozo
reli@@
naweza
chezo
country
lim@@
Mal@@
wel@@
inc@@
deli@@
Ta@@
Wao
yekevu
aliy@@
fied
aidia
mission@@
apost@@
100
yalikuwa
offer@@
embea
suffering
effec@@
uses
Solom@@
Hiyo
Are
Uingereza
gund@@
haz@@
scho@@
line
ukosefu
dhabihu
unt
ember
train@@
ground
ourselves
verse
die
onwa
inganisha
ishonari
reports
involved
dom@@
apokuwa
unua
nation
1,@@
ined
ngono
illustr@@
ande
strong
During
tures
Today
tuba
Yakobo
wati@@
Such
waj@@
huri
nothing
married
suf@@
past
jeuri
Una@@
ende
hariki
Ndugu
An
lis@@
yes@@
account
baraka
ship@@
onyeshwa
kij@@
sign@@
le’s
ick
ingira
feet
sl@@
hous@@
knew
near
enjo@@
five
Society
195@@
sita
picha
ached
kamili
rely
alit@@
Acts
UN@@
15@@
Not
Nyakati
receive
kusik@@
uli
heshimu
abudu
Catholic
common
comes
olojia
kuu@@
history
wezesha
kondoo
area
bac@@
exerc@@
pass@@
wawe
filled
rest@@
kuepuka
expec@@
Soma
ilo
ished
fal@@
vinavyo@@
opportun@@
L
remain@@
mwenzi
kiny@@
Matendo
shirika
lina@@
second
Mn@@
Ib@@
malaika
months
Read
tom@@
works
awala
whether
miles
pi
Tunaweza
move
fer
Hakuna
respon@@
ific@@
ikio
C
appoin@@
umilia
thinking
uzito
hub@@
already
heshima
endeza
Or@@
kazia
head@@
ripoti
read@@
Ina@@
Tru@@
Hal@@
biashara
great@@
protec@@
mip@@
igned
engwa
taught
bas@@
offic@@
aha
IS@@
kubali@@
ungo
moder@@
survi@@
church
follow
thibitisha
similar
inal
ham
ishia
ufu
peke
spiritu@@
tural
work@@
ements
benefit
public
privil@@
wapa
local
uted
becom@@
eria
igo
isions
walip@@
necess@@
yakazi
Ge@@
Her@@
utawala
ansa
Adamu
recog@@
wanat@@
hekal@@
maadili
H
sugg@@
maini
Jose@@
lo
started
badili@@
jerumani
akam@@
zea
wany@@
atizo
kutafuta
afiti
Kigiriki
ton
joto
amo@@
based
heard
miezi
cur@@
occasi@@
mbi
huj@@
etea
plan@@
Abrahamu
shinda
mno
Fe@@
amri
fikira
stre@@
invol@@
tell
ongezea
itive
explain@@
wafuasi
uwe
Ndiyo
Does
Wh@@
angeweza
kutosha
kwao
athiri
ufalme
dedic@@
conduct
ource
M
Romans
msimam@@
thi
Sep@@
prot@@
vilivyo@@
enea
longer
truc@@
Jan@@
fulf@@
lec@@
irani
ational
instruc@@
within
ishara
Cen@@
hukua
lost
Their
ilivyo@@
Car@@
Mw@@
formed
ukumb@@
moral
zile
circum@@
natural
principles
mny@@
awali
angam@@
physical
zilizo
uals
uwongo
ukio
refl@@
dam
jawapo
waziwazi
asure
gives
det@@
Wal@@
Ya@@
an’s
held
interest
wango
Be
material
husema
che
telev@@
wasio@@
poin@@
kina
abisha
sum@@
hapa
valu@@
aye
Tuna@@
yoo@@
kanisa
labda
ipoti
kua
kutenda
zaliwa
Watoto
ph
ndogo
high@@
Parad@@
Im@@
mwenendo
gramu
ung
tion@@
pite
stand
false
flo@@
mta@@
ando
mwaminifu
Nini
mli@@
fund@@
unguka
People
rekeb@@
vyenye
umla
Law
mid@@
Lord
attitude
clear
smo@@
letu
satis@@
icha@@
chochote
Ona
fav@@
elimu
disci@@
crim@@
Kwanza
andaa
aries
makosa
sahihi
responsib@@
evidence
cus@@
partic@@
hol@@
arrang@@
kupendeza
government
197@@
poteza
V
maendeleo
maumivu
Ay@@
than@@
Braz@@
ot
tra@@
magonjwa
kali
Consider
kufikiri
tou@@
ukawaida
nafasi
entif@@
forts
Har@@
ra
play
bal@@
nim@@
prop@@
AR@@
kuru
takes
rather
tho@@
uku@@
view@@
Res@@
wazo
ods
ly@@
viwango
himi@@
itawisha
ken
nyo@@
ires
maandiko
aji@@
fail@@
kwetu
abab@@
hawa
action
isiyo@@
lililo
adui
ithi
tukia
leave
mji
determin@@
zuia
trust
daugh@@
simulizi
alone
uamuzi
hold
tabia
erous
got
emor@@
Mexic@@
kodi
hif@@
neigh@@
temple
imag@@
obedi@@
wezek@@
mahitaji
vy@@
mav@@
kimungu
matters
isaidia
uka@@
hap@@
upa
moun@@
clud@@
serious
olog@@
duce
sam@@
uangalifu
mchanga
mdogo
esis
Waroma
shows
tokana
kutambua
kuchukua
ought
hasira
medi@@
ert
showed
friend
resear@@
ungaji
chembe
oa
Hab@@
perhaps
edom
teach
report
ingeweza
working
dri@@
wakfu
heal@@
imp@@
wezekana
anzisha
esses
refer@@
several
mentioned
boo@@
Can@@
Mtume
truly
Rus@@
remain
tains
kuzungumza
Job
certainly
lear@@
Shahidi
kind@@
kuch@@
aya
Unaweza
Jew@@
ambako
semb@@
tem@@
Witn@@
azwa
eness
ga
h’s
katikati
AM@@
keep@@
mio@@
mach@@
Qu@@
km
tas@@
kindness
wid@@
appear@@
ee
uji@@
wenzi
Naam
lazim@@
bab@@
return
ena
Roman
nuru
drin@@
muziki
Life
divine
mim@@
atic
vilevile
tukiwa
aging
travel@@
said@@
sons
explains
itate
ungum@@
Ke@@
building
disease
mawazo
I’@@
hut@@
righteousness
ult
tam@@
bad@@
ans@@
ext
andiko
ulizi
elezo
·@@
esa
milli@@
ew@@
Mu@@
idence
inafsi
anz@@
ida
obe@@
amin@@
ikir@@
shiriki
lig@@
congreg@@
ingdom
expl@@
ord
Weng@@
azo@@
fad@@
relati@@
uke
adu@@
repor@@
Sat@@
him@@
chungu@@
meet@@
●
eds
ese
changa
kutano
Scrip@@
fri@@
ilifu
spir@@
hurch
Paul@@
righ@@
ghu@@
sid@@
pray@@
falme
lang@@
hemu
tle
kno@@
husi@@
cla@@
ur
nec@@
evu
watum@@
hana
iah
ustr@@
ingereza
é@@
Kat@@
aul@@
has@@
ngu@@
shar@@
hang@@
hil@@
insi
artic@@
Af@@
onge@@
kusany@@
baya
usal@@
chwa
aburi
G
kutan@@
tumishi
ive
lic
sear@@
oub@@
atten@@
uti
hahidi
preci@@
ren
benef@@
child@@
yewe
hib@@
timiza
yari
etu
sefu
ous@@
suffer@@
sac@@
War@@
umo
ku
lit@@
F
kad@@
iriki
aching
ambo
Amer@@
Hi@@
bid@@
oto
enly
bap@@
differ@@
Su@@
yahudi
v
Christi@@
pec@@
angali@@
–
ivu
sible
devel@@
reat@@
hild@@
histor@@
Pe@@
ama@@
ikwa
fam@@
tegem@@
Ndi@@
tru@@
W
000
idia
lab@@
iny@@
fil@@
fupi
langu@@
blo@@
Je@@
The@@
ready
ys@@
cent
grou@@
himu
whi@@
Ca@@
feel@@
ashara
B
La@@
ith
org@@
J
ogo
pose
proph@@
ʹ@@
hu
Do@@
amba@@
haps
haa
ifunza
du@@
Austr@@
jam@@
wed
ongeze@@
simam@@
phys@@
pita
kristo
uth
anci@@
accoun@@
$
ugu
know@@
Ac@@
trav@@
wisha
Uli@@
fundisho
govern@@
prob@@
thor@@
lik@@
é
©
itude
chag@@
eye
ekani
á@@
ndo@@
ew
circ@@
í@@
vil@@
faith@@
your@@
mater@@
suppor@@
ugh@@
shir@@
ody
crib@@
mes@@
religi@@
main
keb@@
hit@@
las@@
ingana
epuka
giv@@
adamu
ouse
kurasa
avo@@
Bad@@
K
husiano
adilifu
hig@@
naf@@
habihu
contro@@
afun@@
situ@@
import@@
bene@@
conduc@@
fauti
Pet@@
kee
P
ques@@
aul
fol@@
deter@@
dom
Dav@@
compl@@
Joh@@
yansi
eded
Kik@@
tari
diffic@@
Jam@@
receiv@@
Kit@@
rang@@
kumu
vig@@
selves
tuku@@
bs
sion@@
whe@@
elelezo
memb@@
numb@@
husb@@
magaz@@
ekana
ghuli@@
uring
_@@
fano
hihi
ught
ereza
mf@@
toto
Isa@@
Ulimweng@@
ially
long@@
eve
iani
lote
wic@@
them@@
fikir@@
vib@@
kuzote
itud@@
nde@@
fel@@
Za@@
ano@@
knowled@@
okeo
azamo
yes
human@@
divid@@
Tho@@
ü@@
kuzungum@@
syst@@
&
with@@
kwen@@
ousness
mweng@@
reco@@
ongoni
◆
dif@@
sug@@
rip@@
Soci@@
ife
rif@@
bet@@
maf@@
aro@@
ven
Catho@@
X@@
sma@@
poti
formation
heshi@@
uwe@@
æ@@
rika
wom@@
teza
flu@@
msa@@
jwa
Whi@@
ó@@
ro
ʹ
Acc@@
gover@@
Israeli@@
led@@
ã@@
jer@@
atur@@
kaz@@
Isra@@
relation@@
jawa@@
ondoo
spit@@
Rev@@
amoja
Jes@@
sage
simil@@
laya
erc@@
sel
itihada
Ing@@
Rom@@
Bec@@
wafu@@
ease
etani
laz@@
Kul@@
chea
thin@@
angalifu
uju@@
X
dha
akati
God@@
WAN@@
cir@@
ft
ishon@@
orin@@
atis@@
ö@@
oug@@
ey
orintho
kawa@@
contin@@
ugha
asili@@
tume
ziki
sever@@
Q@@
Nd@@
ween
cc@@
hiv@@
è@@
ibit@@
countr@@
yoni
q
Sin@@
marri@@
natur@@
ave
ñ@@
certain@@
chote
port@@
°
%
ause
hat
ainst
aminifu
ders
kini
uro@@
hus
evile
endaji
embe
Kig@@
Math@@
hudi
Sol@@
lleng@@
til
anifu
tower
raeli
Wais@@
ô@@
ç@@
umivu
umani
ä@@
ht
imi
⁠
laka
umbani
ú@@
Psal@@
tury
▫
weng@@
meng@@
lem
á
ł@@
Jerusal@@
í
inted
ikati
blems
gether
Creat@@
afsi
É@@
ishani
wazi@@
elation
✔
hek@@
teg@@
emu
wongo
dun@@
Watch@@
_
q@@
|
—@@
→
Z
funuo
j
mwanam@@
ʼ@@
bapti@@
Consid@@
bec@@
ā@@
akini
ople
◯
Yes@@
alimbali
ciples
Á@@
mala@@
Yor@@
ording
urrec@@
ê@@
Timo@@
ë
○
ḥ@@
hada
à
Matthe@@
ruc@@
minifu
Corinth@@
❑
exic@@
=
verbs
ë@@
itn@@
ú
Yak@@
menti@@
maye
↓
.E
ebr@@
nch@@
audi
obo
Ö@@
>
+
▸
ʽ@@
Q
®
”@@
č@@
â@@
ה@@
←
Jehov@@
#
י@@
ń@@
ה
kevu
ו@@
­@@
espec@@
hudhur@@
portun@@
ø@@
❖
ï@@
greg@@
rom
̆@@
■
rote
❏
iku
­
ū@@
↑
ş@@
zawa@@
ó
Š@@
righte@@
‛
ð@@
õ@@
ī
š@@
ą@@
⇩
☞
habi@@
œ@@
rece@@
‘@@
Í@@
risto
ī@@
è
ę@@
£
ä
ý@@
ś@@
ʼ
É
ï
ł
ž@@
WANA
å@@
ă@@
ã
Ł@@
−
⁄@@
à@@
ehova
ö
▿
▵
▶
ø
š
ē@@
ß@@
Ó@@
Ã@@
ā
ý
Å
⇨
Ż@@
î@@
Ü@@
΄
ehov@@
.K
◇
Ž@@
Ä@@
ò
wanza
▾
Î@@
―
@
Ś@@
ň
▼
ㅇ
ē
ü
kika
Å@@
Ḥ@@
:@@
̩@@
ù
ě@@
ㅅ
ǒ
Č@@
ľ@@
ō
č
ŏ@@
\
◀
Ç@@
¡
Á
ㅁ
Æ@@
ş
ř@@
ō@@
ㄱ
ι@@
ε@@
ż@@
›
ẹ@@
ㅏ
ㅗ
ć
פ@@
ū
ש@@
ς
σ@@
ׁ
ν@@
È@@
™
̧@@
נ@@
Ô@@
æ
Ñ@@
ń
̇@@
Ú@@
➤
▲
ß
ţ@@
€
ㄴ
ἰ@@
ω
Ø@@
ḍ@@
Ō@@
⁄
¿
κ@@
ν
ď@@
γ@@
ㅣ
ő@@
Timothe@@
ė
×
å
π
Ş@@
⁠@@
û@@
Â@@
ṣ@@
ĕ@@
ı@@
ʺ
¥
ㅓ
Ṭ@@
ㅡ
◗
μ@@
ύ@@
Ω
ǔ
ŭ@@
ο@@
ž
·
Ē@@
⇧
÷
ώ@@
ㄹ
י
‐
ẹ
ò@@
À
ȧ@@
ì
ֹ
ṭ@@
adaye
π@@
ְ@@
μ
̗@@
Í
а@@
ė@@
ň@@
ś
ʽ
☒
в@@
ạ@@
Yerusal@@
ť@@
Ā@@
‹
„
ɔ@@
ů@@
ẓ@@
â
Ø
ㅋ
ά@@
Ẹ@@
ㅂ
ê
ㅊ
랑
ㅛ
δ@@
α@@
̀@@
·@@
û
-@@
ר@@
‵
τ@@
Ą@@
Α
Δ
̃@@
Ò
▴
ㅈ
Ō
⇦
ㅍ
ů
ő
ə@@
Ê@@
ㅠ
ֹ@@
ָ@@
λ@@
ㄷ
ρ@@
곰
ό@@
Ń@@
ọ
ᾶ@@
α
ṇ@@
ㅑ
ㅌ
Ë@@
소
상
ă
ㅎ
ô
ǒ@@
ź
ọ@@
đ@@
ㅔ
ì@@
ㅜ
ㅕ
ד
Ọ@@
È
사@@
Č
₦
̆
и@@
υ
н@@
Ρ@@
Υ@@
р@@
ק@@
Ε@@
п@@
Ä
ć@@
ל@@
목
א
Κ@@
Α@@
;@@
➋
ď
῾
ḱ@@
ģ@@
ŕ
ז@@
<
Б@@
є@@
м@@
ю
ж@@
о
о@@
е@@
с@@
ḥ
т@@
и
х@@
м
і@@
д@@
і
➊
