, 779691
. 765662
na 545550
ya 522820
wa 418321
kwa 258681
ku@@ 211449
katika 159734
“ 155167
” 151345
kuwa 135145
: 134344
wa@@ 132599
u@@ 128594
kwamba 124245
za 124194
la 120931
m@@ 119797
ma@@ 105082
? 103452
M@@ 100943
ali@@ 99780
ni 91853
hu@@ 89914
o 84006
Mungu 82142
Yehova 78779
a 74893
i 70107
ha@@ 69858
— 69743
ia 68983
Kwa 66952
K@@ 66142
p@@ 63958
U@@ 63956
- 63741
watu 62200
k@@ 62181
ak@@ 61606
j@@ 61479
ki@@ 61158
at@@ 59838
wali@@ 58257
am@@ 57760
ili 56412
z@@ 56021
sana 55719
a@@ 53409
n@@ 53306
hiyo 52687
cha 52133
t@@ 52056
an@@ 51328
tu@@ 50039
hivyo 49428
kama 49426
i@@ 49136
S@@ 49007
u 48873
A@@ 48126
y@@ 47865
au 47663
zaidi 47004
o@@ 46485
ili@@ 45792
e 45776
hivi 45029
Biblia 44092
wakati 44010
ika 43422
wake 42321
N@@ 42267
as@@ 42186
un@@ 42127
yake 41939
H@@ 41199
Yesu 40939
it@@ 40671
T@@ 40255
s@@ 39960
l@@ 39610
v@@ 39450
ani 39046
us@@ 39038
in@@ 38933
ar@@ 38249
ana 38046
kwenye 35919
W@@ 35651
hilo 35627
kum@@ 35625
kut@@ 35487
wenye 35286
b@@ 35202
Ku@@ 35147
af@@ 34974
nini 34588
kweli 34302
sababu 34022
mambo 33835
ik@@ 33673
um@@ 33512
; 33113
kus@@ 33041
im@@ 32812
isha 32403
ka 31695
ua 31674
we 31532
f@@ 31504
e@@ 31463
huo 31287
iwa 31092
vya 30772
uli@@ 30767
fulani 30734
si 30728
kuwa@@ 30412
mtu 30403
d@@ 30273
‘ 30177
’ 30128
ut@@ 29992
! 29959
is@@ 29741
juu 29739
wan@@ 29517
ini 29368
) 29141
( 29083
ang@@ 28651
weza 28584
kazi 28537
mb@@ 28472
zo 28404
zi 28339
kufanya 28176
ali 28160
yenye 28016
ad@@ 27727
1 27683
tu 27610
wat@@ 27497
g@@ 27469
ab@@ 27397
fanya 27366
li@@ 27227
Hata 27093
pia 26885
ambayo 26688
L@@ 26620
moja 26348
wao 26241
J@@ 26088
I@@ 25810
po@@ 25716
Ni 25603
kuhusu 25298
on@@ 25148
ap@@ 25081
miaka 25054
nili@@ 24894
mmoja 24891
Y@@ 24608
kutoka 24576
ambao 24385
vi@@ 24345
nyingi 24325
ano 24301
kup@@ 24290
ona 24268
yao 24193
hali 24147
gani 24039
njia 23890
eni 23883
aji 23764
jambo 23710
ari 23320
mi@@ 23282
kila 23192
al@@ 23052
h@@ 22920
w@@ 22877
hi@@ 22576
P@@ 22567
E@@ 22539
wengine 22506
kuj@@ 22461
ikiwa 22176
Je 21982
Katika 21945
alikuwa 21872
ing@@ 21837
aj@@ 21734
em@@ 21691
up@@ 21601
mat@@ 21550
onyesha 21539
ele@@ 21413
hayo 21251
oni 21159
siku 21130
yo 21039
yo@@ 20946
D@@ 20937
ko 20919
wengi 20849
hata 20824
ishi 20758
es@@ 20711
Lakini 20591
zwa 20577
pamoja 20443
jinsi 20341
if@@ 20081
2 19925
ama 19741
ina 19647
moyo 19358
kubwa 19357
mara 19352
wote 19331
B@@ 19303
r@@ 19233
en@@ 19229
om@@ 19056
wana@@ 18992
wap@@ 18965
ta@@ 18839
ishwa 18828
ea 18794
ch@@ 18664
yetu 18479
il@@ 18474
Mashahidi 18417
mwenye 18347
lakini 18341
ji@@ 18319
fu 18290
enda 18274
R@@ 18270
mw@@ 18181
watoto 18037
we@@ 17926
V@@ 17834
ema 17772
aa 17711
ara 17695
Ki@@ 17690
kit@@ 17670
hi 17665
ana@@ 17586
ag@@ 17320
ame@@ 17309
ud@@ 17306
G@@ 17277
wame@@ 17222
id@@ 17054
3 17051
ip@@ 17039
F@@ 17002
C@@ 16954
5 16921
si@@ 16916
ko@@ 16891
anza 16851
mwaka 16808
ny@@ 16684
A 16585
aka 16486
ina@@ 16429
and@@ 16416
kuf@@ 16405
et@@ 16388
Ali@@ 16330
asema 16329
mba 16240
amb@@ 16203
to@@ 16161
Wakristo 16114
habari 16099
az@@ 16086
wale 15955
ya@@ 15883
ul@@ 15585
ur@@ 15568
ndani 15528
tuli@@ 15450
iliyo@@ 15443
maisha 15414
4 15342
or@@ 15262
yote 15252
hitaji 15248
asi 15244
wetu 15196
ho@@ 15189
kuu 15186
kwanza 15159
[ 15039
] 15024
Nili@@ 15013
yangu 14956
wanao@@ 14879
muda 14730
6 14662
8 14612
ig@@ 14442
sehemu 14429
ung@@ 14410
huko 14303
familia 14300
eleza 14260
th@@ 14206
sha 14095
Paulo 14073
uni 14020
wi 13987
inayo@@ 13983
ulimwengu 13972
zao 13971
wangu 13963
ir@@ 13907
hawa@@ 13888
huenda 13799
walio@@ 13786
iko 13728
er@@ 13715
karibu 13697
maj@@ 13572
pa 13549
umu 13538
ze 13534
faa 13492
ji 13441
nguvu 13405
fu@@ 13332
ma 13326
hisi 13286
op@@ 13256
iri 13197
umb@@ 13160
huyo 13143
hizo 13121
ambaye 13075
awa@@ 13057
vile 13036
wako 13029
Wa@@ 12971
hao 12966
baada 12961
lili@@ 12912
husu 12868
endelea 12858
maji 12825
avyo@@ 12785
tun@@ 12780
nchi 12754
shu@@ 12726
bila 12700
je 12686
lin@@ 12544
kutu@@ 12500
wanadamu 12458
ub@@ 12449
ao 12443
ajili 12426
Kristo 12375
nyingine 12334
upendo 12326
cha@@ 12315
sh@@ 12297
Ma@@ 12228
ep@@ 12211
kupata 12183
roho 12183
mfano 12181
le@@ 12160
hat@@ 12143
9 12102
awa 12092
imani 12077
har@@ 12058
kiroho 12019
kati 12018
ib@@ 12008
yako 11991
kuli@@ 11894
walikuwa 11892
zake 11846
O@@ 11832
yeye 11806
abu 11772
kabisa 11766
kat@@ 11761
uliwa 11754
ita 11719
kis@@ 11660
Ufalme 11537
kuto@@ 11510
ja 11492
zili@@ 11488
7 11485
adi 11470
ikia 11453
amani 11439
eli 11428
kawaida 11407
uka 11404
jua 11391
wezi 11349
chini 11333
maneno 11290
Z@@ 11248
ye@@ 11216
weka 11183
maana 11175
ime@@ 11151
uj@@ 11132
ati 11119
el@@ 11112
hadi 11074
sasa 11063
tena 11056
wala 11017
ish@@ 11016
ye 10978
re@@ 10972
kun@@ 10953
mengi 10948
hili 10930
azi 10903
isho 10891
onekana 10840
chu@@ 10833
zo@@ 10831
kutumia 10822
leo 10790
uma 10782
end@@ 10780
eta 10747
ti 10738
ita@@ 10709
kili@@ 10646
vu 10630
kik@@ 10628
unga 10616
mp@@ 10588
any@@ 10587
ala 10579
hus@@ 10579
una@@ 10528
kuz@@ 10519
uk@@ 10513
yanayo@@ 10506
mahali 10497
cho@@ 10477
ki 10465
apaswa 10453
amini 10427
ibu 10413
saidia 10391
aka@@ 10373
aje 10373
isi 10366
ata 10356
ima 10349
ju@@ 10349
zia 10336
wana 10297
aza 10294
tumia 10290
fan@@ 10264
asa 10254
pata 10215
I 10174
isa 10142
naye 10134
izi 10124
kuv@@ 10119
zi@@ 10077
kuna 10073
fa@@ 10048
/ 9981
yaliyo@@ 9974
kub@@ 9968
idi 9966
15 9908
alisema 9901
ilikuwa 9856
oma 9848
iki@@ 9794
nyumba 9777
uzi 9740
io 9702
amu 9698
ka@@ 9682
yali@@ 9645
mag@@ 9636
pokuwa 9632
wen@@ 9620
ifu 9597
kufa 9592
ng@@ 9560
map@@ 9517
kim@@ 9497
ito@@ 9464
aliye@@ 9459
ndugu 9400
lazima 9391
mwa@@ 9363
mit@@ 9348
ile 9338
Na 9325
kubali 9309
12 9300
wazazi 9286
shaka 9279
mwa 9261
na@@ 9232
mbo 9230
10 9223
muhimu 9208
sa@@ 9170
4@@ 9149
ume 9137
iza 9125
kuliko 9117
ind@@ 9089
aki 9082
uliza 8990
kutaniko 8989
ha 8969
vyo 8946
po 8940
umri 8937
Watu 8933
st@@ 8930
ek@@ 8893
mwan@@ 8874
tuna@@ 8795
zenye 8741
alipo@@ 8734
ato@@ 8732
bali 8720
nao 8625
und@@ 8614
Hivyo 8600
11 8574
tofauti 8564
sha@@ 8540
pekee 8535
mwingine 8532
kitabu 8509
vyo@@ 8494
te@@ 8433
akiwa 8416
itwa 8404
vitu 8391
wam@@ 8357
14 8357
iga 8355
ke@@ 8355
kud@@ 8349
akili 8329
hasa 8327
zote 8327
hii 8325
ulio@@ 8272
ndoa 8265
ambazo 8212
mwisho 8212
sema 8198
waki@@ 8178
mbalimbali 8173
ti@@ 8149
Baada 8141
unao@@ 8136
kam@@ 8133
kujifunza 8119
lake 8105
19@@ 8086
fany@@ 8078
dunia 8073
jiji 8068
ach@@ 8045
of@@ 8040
karne 8034
Wakati 7979
mad@@ 7950
jina 7928
taf@@ 7927
wazi 7894
he 7871
ac@@ 7822
Ikiwa 7812
kusema 7806
hamu 7805
harib@@ 7791
ungu 7786
1@@ 7781
kupitia 7768
ambalo 7764
mkubwa 7762
toa 7746
ba@@ 7730
matatizo 7719
kabla 7719
ovu 7712
aja 7700
Neno 7683
kana 7669
ie 7666
anaye@@ 7646
Ingawa 7646
huu 7641
dhambi 7638
lenye 7623
kuji@@ 7615
Mar@@ 7608
mak@@ 7588
adhi 7584
saf@@ 7580
aki@@ 7572
haki 7571
ote 7559
20 7544
mk@@ 7537
mar@@ 7515
ug@@ 7513
chang@@ 7506
3@@ 7475
isi@@ 7465
zinazo@@ 7440
aswa 7413
sik@@ 7408
di 7404
kuja 7397
tum@@ 7391
azo 7390
yat@@ 7388
maoni 7384
kiasi 7369
13 7365
uhai 7364
zetu 7364
kuona 7362
eza 7361
6@@ 7359
ende@@ 7336
nik@@ 7323
mwenyewe 7313
Kikristo 7293
Mwan@@ 7271
hapo 7265
ilia 7248
kab@@ 7218
ume@@ 7212
furaha 7208
pe@@ 7195
bora 7186
nyumbani 7172
eti 7163
hekima 7144
za@@ 7137
mtoto 7132
ong@@ 7123
umia 7094
asi@@ 7075
ambia 7068
vizuri 7062
kifo 7039
duniani 7035
hari 7026
ingine 7005
chakula 7000
che@@ 6993
taka 6977
eneo 6968
mis@@ 6967
mimi 6959
yan@@ 6948
aina 6936
inge@@ 6915
walio 6896
yale 6893
iki 6885
hisia 6879
kul@@ 6878
uta 6863
ura@@ 6860
sifa 6829
kumb@@ 6828
atia 6826
ke 6824
usi 6821
dini 6806
tumaini 6799
ru@@ 6793
ta 6790
baadaye 6778
Baba 6776
ic@@ 6766
ongoza 6764
kujua 6761
ri@@ 6757
iriwa 6757
sisi 6756
mt@@ 6752
damu 6748
ane 6746
pat@@ 6736
5@@ 6734
Huenda 6723
to 6706
hicho 6699
do@@ 6686
kusudi 6678
Kama 6670
’@@ 6662
le 6658
mbele 6644
mpya 6640
indi 6639
ayo 6588
kutoa 6579
inaweza 6571
lililo@@ 6566
go@@ 6542
uwezo 6537
su@@ 6513
uki@@ 6510
199@@ 6509
wanafunzi 6507
anda 6505
inda 6496
shauri 6484
ambapo 6475
ule 6475
toka 6458
aliwa@@ 6449
tumikia 6443
la@@ 6438
Pia 6429
16 6421
bado 6421
jifunza 6420
ondo@@ 6395
17 6395
zilizo@@ 6393
ulimwenguni 6393
ikana 6392
sta@@ 6383
ikiria 6382
fuata 6375
nzuri 6360
waweza 6353
av@@ 6349
Hu@@ 6345
ho 6340
ongo 6332
umba 6329
kutokana 6314
li 6303
hatua 6287
wang@@ 6281
fanywa 6279
vit@@ 6277
yana@@ 6260
wata@@ 6255
tiwa 6251
Wak@@ 6250
apo 6247
afan@@ 6236
atu@@ 6231
shi@@ 6215
wakiwa 6204
nyakati 6204
ono 6203
Bila 6186
me@@ 6184
hatari 6177
lugha 6164
bu 6161
sheria 6147
da 6125
anga 6124
hubiri 6122
vita 6110
Mi@@ 6107
jamii 6107
uv@@ 6091
zin@@ 6087
wewe 6083
hali@@ 6079
Shetani 6078
aribu 6078
kitu 6075
wenyewe 6067
2@@ 6064
eng@@ 6064
mbe 6043
y 6038
22 6038
elea 6029
kutia 6014
milele 6008
19 5999
cho 5997
ne 5997
Wan@@ 5994
kuishi 5990
wak@@ 5984
.@@ 5983
dha@@ 5976
an 5970
gazeti 5962
ito 5957
18 5951
acha 5934
ange@@ 5934
ate 5926
mz@@ 5915
kula 5915
kia 5904
Yohana 5900
nd@@ 5893
makala 5889
mv@@ 5889
wasi@@ 5867
kas@@ 5861
keza 5860
he@@ 5850
angu 5843
sab@@ 5840
eka 5808
andika 5797
ingi 5796
njema 5794
wani 5792
kiwa 5776
mo@@ 5775
kamwe 5770
Mat@@ 5769
linalo@@ 5763
elekea 5761
Kus@@ 5760
kosa 5750
oko@@ 5747
esha 5745
azama 5729
og@@ 5727
tayari 5714
iba 5711
enga 5708
In@@ 5702
kadhaa 5701
mbia 5680
hir@@ 5658
alia 5652
vijana 5637
Mas@@ 5633
kwenda 5633
neno 5623
kumbuka 5607
ulia 5606
mama 5606
mwili 5605
aliwa 5602
iti 5582
mke 5570
msaada 5569
ev@@ 5567
takatifu 5566
kwa@@ 5564
arisha 5563
enzi 5555
hakika 5554
kale 5546
hutu@@ 5539
amua 5536
kuhubiri 5532
ro@@ 5526
adili 5522
waka@@ 5519
Daudi 5515
siri 5509
b 5505
ada 5494
mbali 5483
O 5481
jaribu 5475
matokeo 5466
uri 5463
mwen@@ 5463
ri 5450
Kisha 5444
t 5444
afanya 5441
iv@@ 5439
kilicho@@ 5435
itahidi 5434
Petro 5431
was@@ 5424
atu 5418
kea 5402
kundi 5401
wili 5398
wanaweza 5397
alivyo@@ 5393
ra@@ 5390
ulikuwa 5372
chunguza 5367
eshi 5363
mafuta 5351
esi 5350
ba 5343
ambua 5337
zungum@@ 5333
kuonyesha 5320
hai@@ 5311
azam@@ 5304
far@@ 5294
bar@@ 5291
baba 5287
bidii 5285
upande 5276
The 5272
uta@@ 5270
Wali@@ 5260
tak@@ 5240
fura@@ 5235
kadiri 5234
00 5232
An@@ 5219
lea 5214
keo 5213
ere@@ 5213
man@@ 5211
iwe 5205
apata 5196
Zaburi 5195
wazee 5193
lia 5188
kumw@@ 5180
mbinguni 5175
huduma 5169
mbili 5160
7@@ 5156
yule 5153
anya 5150
Israeli 5134
on 5122
kin@@ 5122
uhusiano 5118
mkono 5109
tii 5106
avyo 5101
kidogo 5097
maz@@ 5092
kib@@ 5090
chache 5087
pote 5086
Mathayo 5086
sa 5085
onyes@@ 5083
idadi 5082
huru 5081
ol@@ 5081
onjwa 5079
afu 5074
omba 5073
Ili 5071
Hilo 5063
Wat@@ 5058
unaweza 5058
ungu@@ 5057
Yeye 5052
ath@@ 5037
hakuna 5025
lewa 5023
ataka 5010
c@@ 5006
msingi 4999
kidini 4996
asilimia 4994
ibada 4993
iliana 4989
wanawake 4985
mali@@ 4980
Marekani 4978
wange@@ 4971
una 4968
W.K 4958
ele 4957
tamaa 4949
amba 4940
lo@@ 4933
hum@@ 4926
uz@@ 4921
wag@@ 4901
penda 4894
dawa 4886
huku 4873
NW 4856
yoyote 4852
shangwe 4852
Vi@@ 4846
ufa@@ 4843
afya 4841
yak@@ 4840
jibu 4830
wawili 4828
ugonjwa 4826
kuendelea 4824
24 4821
uf@@ 4819
ms@@ 4812
ale 4802
kusaidia 4801
mbaya 4793
tatu 4782
saa 4780
karib@@ 4759
21 4758
sala 4747
ai 4744
huz@@ 4743
anasema 4737
baadhi 4729
inga 4724
kinacho@@ 4703
rahisi 4702
tatizo 4698
fundisha 4696
ni@@ 4695
lilikuwa 4692
mab@@ 4688
Wayahudi 4687
Ba@@ 4686
elewa 4679
nchini 4670
ata@@ 4659
thamini 4656
Maandiko 4645
s 4636
ingia 4632
Zaidi 4632
ongezeka 4629
ndiye 4628
mapema 4613
mu@@ 4606
iliyo 4597
Waz@@ 4596
ira 4592
wo@@ 4591
Wana@@ 4588
ze@@ 4586
chana 4582
kimwili 4578
ajua 4573
od@@ 4569
uku 4566
mik@@ 4561
To@@ 4558
Kan@@ 4556
hud@@ 4554
mamlaka 4546
,000 4536
yen@@ 4530
ambavyo 4514
halisi 4509
wekwa 4502
Tun@@ 4491
usi@@ 4481
8@@ 4473
pewa 4471
oja 4468
Tuli@@ 4467
miwa 4463
namna 4453
wanyama 4451
nani 4448
wez@@ 4448
iliza 4446
usha 4444
imu 4438
weli 4425
wanaume 4424
endo 4423
Mara 4423
utumishi 4419
kar@@ 4418
Mfalme 4418
kataa 4413
ikiri 4413
er 4411
vif@@ 4407
Bar@@ 4405
hanga@@ 4403
abii 4401
yeyote 4393
hiriki 4391
enye 4386
uko 4386
zaji 4384
ambacho 4382
ga@@ 4377
mrefu 4373
utia 4372
wanapo@@ 4370
ndege 4369
ongo@@ 4352
kupat@@ 4349
kanuni 4347
shind@@ 4339
ango 4337
kusoma 4336
haya 4333
fun@@ 4324
hudhuria 4320
alip@@ 4319
ndiyo 4317
Badala 4316
haraka 4310
mengine 4295
yaani 4290
hani 4290
nj@@ 4286
be@@ 4282
ania 4279
30 4278
serikali 4277
mwanamke 4276
mwingi 4274
badala 4272
n 4270
New 4266
eso 4262
haku@@ 4258
hes@@ 4258
uza 4256
Yo@@ 4249
ebrania 4243
fadhili 4242
ajabu 4241
asili 4240
karibuni 4240
inyi 4239
Waisraeli 4238
unza 4237
eno 4235
zoea 4232
ingawa 4231
egem@@ 4228
chochea 4221
kulingana 4220
Mkristo 4218
unapo@@ 4209
mfumo 4206
ujao 4206
tokea 4204
endwa 4203
ufu@@ 4190
sim@@ 4189
Jambo 4187
ungwa 4179
zazi 4173
kur@@ 4169
hughuli@@ 4165
sauti 4163
historia 4161
mzuri 4160
kufikia 4156
pokea 4156
Mtu 4155
thamani 4152
huwa 4148
tumiwa 4139
yasi@@ 4128
pesa 4126
Mwana 4123
ilioni 4120
rangi 4115
chunguzi 4115
nime@@ 4111
yaliyo 4105
aliandika 4105
mwanadamu 4100
tang@@ 4100
vili@@ 4093
zamani 4090
kichwa 4089
mg@@ 4069
kwake 4066
aliye 4061
aifa 4057
uu 4055
kusanyiko 4053
thibit@@ 4052
dada 4048
kazini 4044
alim@@ 4038
hisha 4036
anisha 4033
anaweza 4031
ajwa 4026
of 4019
azim@@ 4012
ukurasa 4010
yame@@ 4002
25 3999
uha@@ 3995
Musa 3986
zuri 3979
chap@@ 3977
dogo 3975
* 3974
chake 3972
kuwat@@ 3969
Isaya 3969
Bwana 3968
mikutano 3968
9@@ 3964
dhidi 3960
hai 3959
zani 3956
Sasa 3950
engo 3941
ujuzi 3939
shang@@ 3939
Ch@@ 3938
mume 3938
kip@@ 3938
mingi 3913
uru 3911
juli@@ 3910
tunaweza 3908
WA 3900
Kila 3900
izwa 3893
mif@@ 3888
ongeza 3887
maishani 3886
mkuu 3885
ii 3883
Mimi 3883
aktari 3862
ainia 3859
usa 3858
ezi 3854
azeti 3853
Mak@@ 3852
kielelezo 3851
se@@ 3844
atizwa 3843
Kup@@ 3834
ndivyo 3830
aliyekuwa 3829
• 3822
ila 3817
umbe 3814
uhakika 3811
unda 3805
maswali 3800
tuki@@ 3800
do 3800
zima 3798
unge@@ 3795
mataifa 3784
endeleo 3775
rafiki 3766
ishe 3761
pos@@ 3759
pole 3758
arib@@ 3758
makao 3756
wowote 3754
afiki 3748
kuru@@ 3745
oro 3741
watumishi 3737
kupita 3729
ndio 3727
onya 3724
inapo@@ 3719
Ha@@ 3714
Kulingana 3708
acho@@ 3706
Siku 3704
chenye 3703
tengene@@ 3703
uo 3702
and 3695
As@@ 3695
ungua 3694
shule 3691
mtume 3691
basi 3686
Basi 3685
engene@@ 3683
anishwa 3682
dar@@ 3680
shi 3679
kile 3679
ike 3678
maeneo 3675
waliokuwa 3674
hitaj@@ 3671
vibaya 3668
vyote 3662
uda 3662
macho 3661
Si@@ 3660
ari@@ 3660
andikwa 3659
jia 3657
Mambo 3657
mabaya 3646
elfu 3645
urahia 3641
kisha 3639
apat@@ 3635
23 3635
Man@@ 3634
kabili 3634
unguza 3629
ujumbe 3628
husiana 3623
Is@@ 3619
ongozi 3614
hia 3613
inadamu 3612
habu 3612
ulio 3610
mam@@ 3607
Mag@@ 3604
som@@ 3601
haribu 3598
miongoni 3595
atimaye 3593
maanisha 3592
ayansi 3586
fikia 3584
awe 3581
tolewa 3581
Yerusalemu 3573
wasio 3572
ati@@ 3570
Waf@@ 3570
ine@@ 3570
hukumu 3570
kuelekea 3565
50 3561
in 3560
yenu 3559
isha@@ 3558
hara 3558
kaa 3558
unabii 3557
wali 3554
mbo@@ 3549
ec@@ 3547
itu 3546
□ 3546
milioni 3545
mpaka 3541
nami 3540
makubwa 3540
nje 3539
shamb@@ 3537
ababisha 3536
anapo@@ 3536
nilikuwa 3533
hizi 3529
namo 3528
udi 3526
walipo@@ 3525
kumi 3524
es 3519
funzo 3508
mapenzi 3507
fedha 3503
kuondo@@ 3501
egemea 3498
hakik@@ 3496
vis@@ 3490
afiri 3488
uhitaji 3486
0 3483
mili@@ 3483
avu 3477
ef@@ 3473
andishi 3468
zime@@ 3461
nayo 3460
ou@@ 3458
jitihada 3457
mazuri 3454
huwa@@ 3451
kamilifu 3445
kuwasaidia 3444
she 3443
zangu 3443
0@@ 3435
wafan@@ 3435
tar@@ 3430
tangu 3428
Ili@@ 3428
safi 3421
mbingu 3421
mas@@ 3419
kif@@ 3418
endezwa 3418
lime@@ 3418
Kuna 3416
sawa 3412
undisha 3411
gari 3411
BWANA 3407
umu@@ 3403
U 3403
umisha 3401
ed@@ 3401
kuny@@ 3400
matendo 3398
di@@ 3397
hiki 3394
KU@@ 3393
ako 3392
itia 3388
ond@@ 3387
udu 3386
barab@@ 3384
ukiwa 3379
kuwapo 3377
endele@@ 3373
shwa 3371
usiku 3367
yaweza 3367
zako 3367
ivyo 3363
hofu 3363
alin@@ 3361
tumwa 3358
ifanya 3354
alo 3353
tab@@ 3351
nin@@ 3347
hwa 3343
hup@@ 3338
dai 3336
zee 3335
tegemea 3333
marafiki 3331
mwana 3329
kibinadamu 3325
mi 3322
iliyopita 3318
vigumu 3318
mig@@ 3312
tokeza 3307
ajiri 3300
hika 3298
taifa 3292
hirika 3290
vip@@ 3290
had@@ 3289
asiri 3286
bus@@ 3279
ith@@ 3277
kan@@ 3275
kuk@@ 3273
mafundisho 3267
E 3267
AN@@ 3260
Wakorintho 3259
mwanamume 3259
ok@@ 3257
emi 3256
kuelewa 3254
kusu@@ 3248
uhuru 3247
ikali 3233
diwa 3230
husisha 3228
tia 3225
ge@@ 3225
kikundi 3223
kipindi 3208
ake 3203
Muumba 3202
ubu 3201
uc@@ 3196
hufanya 3192
aliyo@@ 3188
aba 3188
waaminifu 3188
faida 3187
zisi@@ 3186
liki 3186
wanas@@ 3185
iti@@ 3183
kufuata 3181
afuta 3180
ine 3178
uia 3176
sura 3174
zoni 3173
moto 3168
iya 3167
fikiria 3164
​ 3160
kijana 3158
utendaji 3156
emb@@ 3156
tume@@ 3152
Ulaya 3151
apo@@ 3147
kuacha 3144
uko@@ 3144
vitabu 3143
hur@@ 3142
Up@@ 3138
sal@@ 3136
walimu 3132
hidi 3130
amaanisha 3129
zawadi 3128
mfupi 3127
Sheria 3126
alipokuwa 3125
hiwa 3123
inasema 3120
badiliko 3119
Ro@@ 3119
Leo 3116
opa 3114
ngumu 3114
kutokeza 3114
washiriki 3109
kui@@ 3104
lile 3103
Ulimwengu 3095
mia 3094
hewa 3094
vun@@ 3092
sikuzote 3091
Afrika 3090
chukua 3086
uadilifu 3086
hibiti 3080
kutana 3079
refu 3060
Was@@ 3059
iso 3057
mtazamo 3056
ahadi 3056
28 3051
Luka 3050
alamu 3048
kuta@@ 3047
nafsi 3041
icha 3035
ilika 3030
Mo@@ 3029
Baadaye 3029
Kitabu 3029
iria 3028
kutimiza 3027
anat@@ 3026
eg@@ 3025
Kut@@ 3024
lolote 3019
kibinafsi 3019
ifa 3018
mali 3017
linzi 3016
barua 3014
kilom@@ 3013
mfalme 3011
Mwa@@ 3010
Timotheo 3009
Ufunuo 3009
kamanifu 3008
izo 3008
Wengine 3006
tunapo@@ 3006
afunzi 3001
ikiana 3001
akatifu 3001
temb@@ 3001
chagua 3000
zungumza 3000
tukufu 2993
LI@@ 2992
Me@@ 2989
tur@@ 2987
ham@@ 2980
jana 2980
Ny@@ 2979
is 2975
h 2966
amuzi 2965
moyoni 2961
pili 2961
maskini 2954
uaminifu 2954
kulikuwa 2945
kufu@@ 2942
mu 2938
No@@ 2936
ongozo 2936
naweza 2935
chezo 2934
ris@@ 2928
Wao 2925
eo 2922
yekevu 2920
aidia 2918
aliy@@ 2917
Un@@ 2916
embea 2916
yalikuwa 2916
,@@ 2914
Hiyo 2909
l 2907
Uingereza 2906
ukosefu 2901
40 2898
dhabihu 2898
gund@@ 2892
onwa 2891
ue 2891
ishonari 2890
ndi@@ 2890
inganisha 2890
apokuwa 2888
unua 2887
ngono 2885
Yakobo 2880
wati@@ 2880
waj@@ 2879
huri 2877
Maj@@ 2877
tuba 2876
his@@ 2874
shua 2874
jeuri 2871
timi@@ 2869
hariki 2867
Ndugu 2866
Mis@@ 2864
baraka 2863
onyeshwa 2860
kij@@ 2860
ingira 2858
200@@ 2856
sita 2849
picha 2849
Una@@ 2848
kamili 2847
wo 2842
Nyakati 2835
kusik@@ 2833
heshimu 2832
abudu 2832
olojia 2831
kuu@@ 2829
kondoo 2828
wezesha 2828
one 2827
kid@@ 2827
ende 2824
wawe 2822
IM@@ 2821
kuepuka 2820
Soma 2816
vinavyo@@ 2812
Matendo 2810
kiny@@ 2810
mwenzi 2810
lina@@ 2809
shirika 2809
malaika 2807
ne@@ 2805
ande 2802
Mn@@ 2802
awala 2796
Tunaweza 2794
Hakuna 2791
ikio 2787
ilo 2782
umilia 2779
uzito 2778
endeza 2777
heshima 2777
uli 2776
kazia 2775
ripoti 2774
alit@@ 2774
biashara 2769
engwa 2767
mip@@ 2766
kubali@@ 2764
thibitisha 2762
ungo 2762
Ina@@ 2758
ishia 2757
aha 2754
wapa 2753
peke 2752
ufu 2751
hub@@ 2751
chi 2750
vid@@ 2749
Eli@@ 2747
walip@@ 2740
yakazi 2738
utawala 2735
bin@@ 2734
Adamu 2734
ansa 2733
wanat@@ 2731
hekal@@ 2730
maadili 2729
maini 2728
badili@@ 2726
en 2723
ora 2720
jerumani 2720
atizo 2716
wany@@ 2716
Be@@ 2716
zea 2716
alo@@ 2713
afiti 2713
akam@@ 2713
kutafuta 2713
igo 2711
Kigiriki 2710
joto 2708
Ib@@ 2706
miezi 2703
uti@@ 2702
huj@@ 2699
etea 2699
mbi 2698
Abrahamu 2697
shinda 2696
fikira 2695
amri 2695
mno 2694
ongezea 2691
wafuasi 2688
Ndiyo 2685
kutosha 2685
angeweza 2685
kwao 2684
uwe 2684
athiri 2683
ufalme 2681
msimam@@ 2678
MA@@ 2677
vilivyo@@ 2677
enea 2675
thi 2669
irani 2666
ishara 2659
hukua 2657
ilivyo@@ 2655
Mw@@ 2654
ukumb@@ 2652
mn@@ 2650
mny@@ 2648
angam@@ 2648
awali 2647
zile 2647
zilizo 2645
uwongo 2645
ukio 2644
▪ 2641
jawapo 2641
waziwazi 2641
yes@@ 2640
ras@@ 2639
198@@ 2637
husema 2629
wango 2629
abisha 2627
wasio@@ 2627
da@@ 2623
hapa 2623
Tuna@@ 2620
yoo@@ 2619
kanisa 2618
labda 2617
ipoti 2617
kutenda 2616
zaliwa 2614
Watoto 2613
kua 2612
ndogo 2610
mwenendo 2609
gramu 2608
aye 2607
ob@@ 2605
kina 2601
mta@@ 2601
mwaminifu 2599
Nini 2599
unguka 2598
rekeb@@ 2595
vyenye 2594
umla 2594
letu 2589
chochote 2586
Ona 2583
elimu 2583
Kwanza 2580
andaa 2579
makosa 2578
His@@ 2578
sahihi 2576
kupendeza 2573
nit@@ 2571
poteza 2570
maendeleo 2569
maumivu 2568
magonjwa 2564
kufikiri 2560
mli@@ 2560
ukawaida 2559
nafasi 2558
Al@@ 2555
kali 2553
kuru 2548
wazo 2548
viwango 2547
itawisha 2547
himi@@ 2545
26 2544
so@@ 2543
nyo@@ 2543
29 2542
maandiko 2542
kwetu 2540
abab@@ 2539
hawa 2538
aji@@ 2536
isiyo@@ 2534
nim@@ 2533
lililo 2532
adui 2529
ithi 2526
uku@@ 2526
tukia 2526
Na@@ 2525
zuia 2522
mji 2521
simulizi 2520
uamuzi 2519
tabia 2518
haz@@ 2516
Ay@@ 2515
vic@@ 2515
kodi 2512
hif@@ 2504
wezek@@ 2502
tim@@ 2501
mahitaji 2499
isaidia 2498
ando 2498
kimungu 2498
mav@@ 2497
dia 2497
uka@@ 2492
kil@@ 2492
vy@@ 2491
chan@@ 2488
uangalifu 2487
mchanga 2486
mdogo 2486
Waroma 2485
tokana 2482
ent@@ 2482
Ya@@ 2481
upa 2481
kuchukua 2479
kutambua 2479
hasira 2478
ungaji 2474
chembe 2474
ingeweza 2467
us 2467
ard@@ 2464
wakfu 2463
anzisha 2461
wezekana 2461
Mtume 2456
au@@ 2455
kuzungumza 2453
And@@ 2453
k 2452
Shahidi 2451
lis@@ 2451
kuch@@ 2450
Unaweza 2449
ambako 2447
azwa 2446
hal@@ 2445
katikati 2443
d 2442
0,000 2440
mio@@ 2440
pi 2440
Naam 2437
lazim@@ 2437
uji@@ 2434
wenzi 2432
nuru 2432
muziki 2430
ene@@ 2430
bo@@ 2430
vilevile 2427
27 2427
tukiwa 2425
said@@ 2423
ungum@@ 2420
san@@ 2418
mawazo 2416
oa 2407
lo 2405
aya 2405
33 2399
andiko 2398
ulizi 2394
gi@@ 2388
elezo 2388
hut@@ 2378
the 2332
mim@@ 2323
inafsi 2323
Sam@@ 2310
ikir@@ 2296
shiriki 2294
nia 2293
Weng@@ 2281
azo@@ 2267
vin@@ 2266
18@@ 2263
wal@@ 2262
31 2262
esa 2260
min@@ 2248
IN@@ 2241
En@@ 2240
sam@@ 2240
chungu@@ 2234
ee 2232
ga 2227
changa 2222
je@@ 2220
kutano 2216
Ta@@ 2212
king@@ 2210
ilifu 2206
AT@@ 2202
ore@@ 2197
iz@@ 2195
por@@ 2188
ghu@@ 2181
him@@ 2176
erem@@ 2172
el 2171
ile@@ 2167
anz@@ 2165
de@@ 2157
wis@@ 2156
uke 2155
g 2153
falme 2151
che 2146
hemu 2144
Dani@@ 2135
lang@@ 2135
tr@@ 2129
fur@@ 2112
husi@@ 2102
Ar@@ 2092
Hab@@ 2090
evu 2090
watum@@ 2081
We@@ 2080
al 2079
eria 2078
Se@@ 2075
tam@@ 2061
ingereza 2055
gu@@ 2051
des@@ 2048
He@@ 2045
194@@ 2035
Bab@@ 2029
sib@@ 2023
ngu@@ 2012
ust@@ 2007
insi 2006
r 2004
eli@@ 2001
kusany@@ 1987
York 1984
onge@@ 1982
fad@@ 1969
baya 1969
chwa 1966
usal@@ 1966
32 1962
aburi 1960
Ho@@ 1958
icha@@ 1956
ida 1951
60 1951
70 1949
kutan@@ 1944
tumishi 1942
hili@@ 1939
chi@@ 1928
hana 1928
her@@ 1923
hahidi 1917
Am@@ 1910
35 1906
UN@@ 1902
hap@@ 1895
yewe 1894
Kat@@ 1892
uti 1889
m 1887
timiza 1876
S 1871
yari 1868
ge 1865
lar@@ 1864
sefu 1861
Mal@@ 1859
etu 1859
sil@@ 1857
let@@ 1853
poli@@ 1850
AM@@ 1848
Australia 1838
umo 1832
iriki 1820
Hal@@ 1815
Fam@@ 1813
Bo@@ 1812
est@@ 1789
ambo 1789
ani@@ 1788
Amer@@ 1786
kad@@ 1781
ku 1780
pro@@ 1779
tor@@ 1769
yahudi 1760
telev@@ 1753
angali@@ 1739
aul@@ 1724
ivu 1722
Mu@@ 1718
itu@@ 1716
ush@@ 1709
oto 1702
ikwa 1699
tegem@@ 1695
the@@ 1695
ter@@ 1694
ain@@ 1686
Ndi@@ 1685
pas@@ 1675
hang@@ 1671
37 1654
has@@ 1649
Ne@@ 1648
sin@@ 1644
fupi 1641
iny@@ 1638
mir@@ 1636
IS@@ 1634
idia 1634
parad@@ 1634
hospit@@ 1631
lif@@ 1622
mil@@ 1619
fund@@ 1618
sub@@ 1618
EN@@ 1617
asu@@ 1614
Wal@@ 1613
c 1609
ch 1607
Tr@@ 1602
Im@@ 1601
himu 1587
34 1582
ashara 1575
Ind@@ 1573
Jap@@ 1555
sis@@ 1553
Ser@@ 1552
as 1551
Pro@@ 1544
ogo 1538
ena 1526
mach@@ 1526
no@@ 1515
ful@@ 1508
haa 1502
Sh@@ 1501
amba@@ 1501
ama@@ 1500
14@@ 1494
olo@@ 1492
ifunza 1492
So@@ 1478
amin@@ 1472
20@@ 1463
ongeze@@ 1450
simam@@ 1447
․ 1447
bad@@ 1445
ome 1445
am 1443
10@@ 1442
pita 1442
bur@@ 1442
Tim@@ 1441
kristo 1434
195@@ 1431
Po@@ 1423
ar 1420
hab@@ 1409
sp@@ 1406
go 1400
me 1396
wisha 1396
te 1395
100 1394
Uli@@ 1393
ugu 1393
fundisho 1389
tend@@ 1389
de 1389
Her@@ 1385
Bible 1384
Re@@ 1383
War@@ 1379
pop@@ 1374
w 1372
sea 1368
ra 1362
z 1362
Des@@ 1360
chag@@ 1357
John 1357
ekani 1354
Har@@ 1351
Jan@@ 1348
lim@@ 1344
et 1341
1,@@ 1338
ndo@@ 1338
fi@@ 1330
Sep@@ 1327
gr@@ 1324
bid@@ 1323
Ge@@ 1320
Br@@ 1319
15@@ 1317
AR@@ 1306
ins@@ 1300
Parad@@ 1298
197@@ 1297
keb@@ 1288
lit@@ 1285
ingana 1281
epuka 1279
adamu 1278
Ab@@ 1277
co@@ 1270
hor@@ 1269
Society 1269
son 1269
kurasa 1266
jam@@ 1252
or 1250
husiano 1246
adilifu 1244
for@@ 1243
naf@@ 1236
habihu 1234
pi@@ 1231
Braz@@ 1222
afun@@ 1220
Af@@ 1217
Bad@@ 1210
fauti 1203
Jo@@ 1195
Lo@@ 1191
hu 1186
tal@@ 1185
M 1184
div@@ 1181
pr@@ 1178
·@@ 1176
Mexic@@ 1174
cy@@ 1170
ton 1169
clo@@ 1166
ame 1163
pe 1162
yansi 1146
– 1143
● 1139
tari 1130
land 1125
Kik@@ 1124
ber@@ 1124
kumu 1121
sid@@ 1115
x 1114
Sim@@ 1111
vir@@ 1109
shir@@ 1107
kee 1105
tuku@@ 1103
wer 1100
D 1098
World 1093
our@@ 1091
St@@ 1089
Jam@@ 1085
elelezo 1080
x@@ 1078
C 1076
jo@@ 1075
Car@@ 1058
ran@@ 1053
ten@@ 1048
ekana 1045
ghuli@@ 1042
_@@ 1039
p 1038
Hi@@ 1034
hihi 1031
fano 1025
ereza 1024
mf@@ 1022
se 1021
toto 1020
Ulimweng@@ 1018
Kit@@ 1016
Par@@ 1016
ci@@ 1012
ation 1012
iani 1004
lote 1003
ve@@ 996
Inter@@ 995
fikir@@ 984
amo@@ 967
kuzote 966
Go@@ 956
ity 953
pl@@ 940
ure 940
é@@ 933
hib@@ 930
okeo 928
azamo 922
Le@@ 918
are@@ 900
bu@@ 899
vil@@ 899
qu@@ 895
mid@@ 891
nde@@ 890
main@@ 880
hol@@ 876
La@@ 875
kuzungum@@ 874
star@@ 872
dom@@ 868
ary 868
tas@@ 866
um 865
kwen@@ 863
Fe@@ 857
mweng@@ 850
war@@ 845
Za@@ 843
ter 842
one@@ 841
Bro@@ 838
ongoni 838
ute 830
ON@@ 828
be 828
000 825
man 818
ry 813
vib@@ 806
ing 803
United 799
bro@@ 795
wil@@ 792
R 782
prot@@ 781
N 777
ly@@ 769
th 768
T 764
poti 761
Co@@ 757
heshi@@ 754
maf@@ 753
J 753
ʹ@@ 747
sen@@ 746
illi@@ 745
uwe@@ 742
she@@ 734
States 733
pa@@ 733
ther@@ 730
dang@@ 729
teza 725
per@@ 720
fal@@ 719
tho@@ 717
Fa@@ 716
mer@@ 715
msa@@ 713
jwa 710
dr@@ 697
br@@ 690
B 685
rika 685
© 684
’s 680
Ad@@ 676
á@@ 673
beg@@ 670
í@@ 667
Con@@ 661
L 660
ans@@ 659
Solom@@ 659
TH@@ 655
Watchtower 654
kaz@@ 654
ong 652
jawa@@ 648
ondoo 647
les 645
bi@@ 644
amoja 640
Je@@ 638
é 635
du@@ 629
V 629
lik@@ 628
sion 628
U.@@ 626
itihada 625
jer@@ 613
laya 608
ers 607
mes@@ 605
f 603
wafu@@ 602
James 602
ert 599
im 599
etani 598
ill 594
Th@@ 593
vol@@ 591
il 591
are 590
ard 589
ite 583
David 582
den 581
wor@@ 580
angalifu 578
ah 578
Kul@@ 577
v 577
chea 573
uni@@ 572
Per@@ 571
ok 570
ent 568
akati 567
uju@@ 567
you@@ 564
ly 563
Or@@ 557
ol 554
H 553
Qu@@ 552
Americ@@ 552
hel@@ 550
hit@@ 550
ant@@ 547
rel@@ 547
tin@@ 546
ew@@ 545
emp@@ 544
prof@@ 541
ence 541
ser@@ 541
WAN@@ 540
st 540
ord@@ 539
dha 534
lish@@ 533
ore 527
orintho 517
Paul 515
ce 515
P 515
kawa@@ 513
Ing@@ 513
ay 511
Pe@@ 509
F 506
ugha 505
sel@@ 502
ph@@ 501
tume 495
fin@@ 491
fo@@ 491
De@@ 487
adu@@ 484
nal 482
tre@@ 482
ws 482
ziki 481
ical 481
act 478
hand@@ 478
eho@@ 476
ily 475
ts 471
ed 470
Su@@ 465
re 463
◆ 462
bl@@ 461
fer@@ 459
vig@@ 455
Jose@@ 455
Rus@@ 455
Nd@@ 454
der@@ 453
ill@@ 451
Uni@@ 451
res@@ 451
ck 448
W 448
ist 445
asili@@ 444
ice 443
ere 443
ibit@@ 442
The@@ 441
Joh@@ 441
Austr@@ 439
ü@@ 432
On@@ 432
yoni 432
at 431
ric@@ 429
grap@@ 426
ph 421
ire 419
age 416
K 416
chote 414
by 413
Gre@@ 405
sy@@ 404
it 404
Tho@@ 403
ago 402
ic 400
ung 398
est 398
ational 394
Com@@ 393
org@@ 393
no 390
Eng@@ 390
ad 389
aminifu 385
stan@@ 381
die 380
ve 380
national 376
ear@@ 374
hard 371
kind@@ 370
Chris@@ 367
kini 367
G 367
par@@ 366
oug@@ 365
ort 365
ell 362
ther 359
so 356
ir 353
hil@@ 353
Peter 352
gl@@ 351
evile 351
ó@@ 350
Ger@@ 350
tion@@ 350
æ@@ 348
ish 348
endaji 346
Jes@@ 344
ʹ 344
ek 343
laz@@ 343
ld 341
Pet@@ 340
ith 340
od 338
leg@@ 338
ur 337
embe 336
Y 335
nam@@ 333
hudi 332
mon@@ 331
sug@@ 329
ess@@ 326
ã@@ 325
gy 325
ase 325
all 323
Kig@@ 322
bal@@ 321
anifu 320
ro 318
ens 318
Do@@ 318
ver@@ 317
Can@@ 314
ys@@ 313
Math@@ 313
Ca@@ 312
bab@@ 311
ty 311
Scriptures 310
lic@@ 309
Wais@@ 308
raeli 308
sing@@ 308
ste@@ 307
Ke@@ 307
yl@@ 306
ans 305
ven@@ 305
ut 304
fe@@ 304
umivu 302
ory 301
ner 300
umani 298
red 296
fil@@ 295
spit@@ 295
las@@ 293
ham 293
than 292
ace 292
ver 291
Gen@@ 291
onom@@ 289
outh 288
sho@@ 287
ll@@ 283
Ex@@ 282
Bib@@ 282
umbani 278
Res@@ 278
imi 277
way 277
laka 277
bel@@ 275
ife 273
lish 273
Wor@@ 272
wn 270
Cen@@ 269
& 269
sk@@ 268
meng@@ 268
weng@@ 267
ö@@ 263
nor@@ 258
for 256
ian 255
ant 253
fic@@ 251
ano@@ 251
ren@@ 250
King 248
ath 245
Sin@@ 244
ps 244
ide 243
reg@@ 242
con@@ 242
Sp@@ 239
cr@@ 238
ress 238
dis@@ 238
sur@@ 236
Catholic 236
ack 236
Jud@@ 235
ren 235
ist@@ 234
ance 234
book 233
ise 233
ikati 231
tro@@ 231
car@@ 228
bas@@ 228
Life 226
ak 225
ustr@@ 224
afsi 224
tion 223
fr@@ 223
kno@@ 221
mor@@ 219
ishani 219
ds 218
ex@@ 217
str@@ 217
wazi@@ 216
Israel 216
è@@ 213
ey 211
use 210
wongo 208
id 208
ight 207
soci@@ 207
ward 205
ations 204
ñ@@ 203
_ 202
vers@@ 199
imp@@ 197
teg@@ 197
vo@@ 196
aro@@ 196
X@@ 195
tic@@ 195
⁠ 192
hurch 191
ies 190
suf@@ 189
ld@@ 189
—@@ 188
tle 188
ick 188
tom@@ 187
my 186
prop@@ 185
emu 184
hek@@ 183
abo@@ 181
olog@@ 181
funuo 179
sl@@ 178
fri@@ 178
ks 176
mwanam@@ 176
oper@@ 176
Jerusalem 175
sto@@ 172
ls 171
shar@@ 169
ref@@ 169
tor 169
Rom@@ 168
ick@@ 168
hiv@@ 168
tem@@ 166
Today 165
ast 165
akini 163
ons 163
From 163
und 162
res 162
bor@@ 162
Christian 162
right 161
uth 161
ment 161
ial 161
mate 158
ew 157
dam 157
cy 156
igh@@ 155
God 155
ars 154
ô@@ 154
bir@@ 152
alimbali 151
fre@@ 148
tel@@ 148
atur@@ 147
ä@@ 146
fl@@ 146
ç@@ 146
old 144
Dav@@ 144
ated 144
poin@@ 143
her 143
Rev@@ 143
▫ 140
ú@@ 139
dem@@ 138
How 137
ach 136
ents 135
ism 135
serv@@ 135
ass@@ 134
ot 133
á 133
mus@@ 133
É@@ 132
With 132
ning 131
lig@@ 131
can 130
some 130
men 130
Yes@@ 129
ys 129
cl@@ 128
ll 128
bet@@ 128
hild@@ 127
hada 127
tures 127
ł@@ 127
ery 126
Jehovah’s 126
ty@@ 125
gen@@ 125
Witnesses 124
Ac@@ 124
inst@@ 124
ates 123
Christi@@ 123
í 123
any 122
our 122
Kingdom 122
tes 122
ings 121
eld 121
well 121
wic@@ 120
minifu 119
att@@ 119
med@@ 119
ss 119
itud@@ 118
pur@@ 116
Your 116
fir@@ 116
lec@@ 115
pres@@ 115
tic 114
cour@@ 114
dies 114
low@@ 114
ese 114
der 114
hon@@ 113
bre@@ 113
over 113
ones 112
ous 111
erc@@ 111
loy@@ 110
✔ 109
em 109
→ 109
cas@@ 107
Afric@@ 107
y’s 107
X 106
him 105
atis@@ 105
cou@@ 105
ture 104
sac@@ 104
pati@@ 103
Q@@ 103
emo@@ 103
gre@@ 102
list@@ 102
Whi@@ 102
sol@@ 101
| 101
off@@ 99
ween 99
enti@@ 99
val@@ 98
into 98
ement 97
◯ 97
out 96
gy@@ 96
col@@ 96
Yak@@ 95
People 95
tern 94
maye 94
dep@@ 94
thy 93
All 93
○ 93
ree 92
Isa@@ 91
ature 91
entif@@ 91
cent 90
my@@ 90
bap@@ 90
Jew@@ 90
tain@@ 89
q@@ 89
Euro@@ 89
ā@@ 88
Matthew 86
j 85
sel 85
cor@@ 84
ource 84
It 84
ind 83
ition 82
rest 82
some@@ 82
An 82
ever@@ 81
ten 81
ness 80
fol@@ 80
ust 80
tain 79
hig@@ 79
ins 79
ants 79
ce@@ 78
ous@@ 78
ca@@ 78
mala@@ 78
Soci@@ 78
out@@ 77
ord 77
ling 77
Sat@@ 77
ody 76
sla@@ 75
line 75
let 75
ting 75
wr@@ 75
ʼ@@ 75
uro@@ 75
hus 74
Á@@ 74
sum@@ 74
lic 74
tra@@ 73
ain 73
ution 73
tury 73
Greek 73
❑ 73
even 72
exic@@ 72
ms 71
rang@@ 71
can@@ 71
memb@@ 71
over@@ 71
dif@@ 70
ouse 70
Tru@@ 69
ave 69
onal 69
day 69
thr@@ 69
Abra@@ 68
ë 68
Paul@@ 68
inc@@ 68
ê@@ 68
don@@ 68
ces 67
dic@@ 66
Bec@@ 66
obo 66
Jesus 66
pec@@ 66
rec@@ 66
ople 66
ḥ@@ 65
cop@@ 65
els 64
kevu 64
lab@@ 64
unt 64
ail@@ 63
per 63
q 62
à 62
see 62
ns 62
ess 61
als 61
an’s 61
ass 61
ters 60
hudhur@@ 60
thers 59
ple 59
By 59
tions 59
= 59
Z 58
ities 58
Christ 58
jud@@ 58
­@@ 58
sup@@ 58
spe@@ 57
cul@@ 57
bec@@ 57
long@@ 57
low 56
cal@@ 56
↓ 56
saw 56
dom 55
had 55
ges 55
Be 55
ences 55
sion@@ 55
pre@@ 55
nec@@ 54
acc@@ 54
fer 54
more 54
ses 54
ally 54
live 54
arly 54
zation 53
app@@ 53
semb@@ 53
up 53
take 53
Timothy 53
cer@@ 53
ugh@@ 52
duc@@ 52
page 52
king 52
God@@ 51
life 51
sin 51
ground 51
ves 51
ë@@ 51
Law 50
ries 50
audi 50
ú 50
ign@@ 50
com@@ 50
▸ 49
inal 49
Our 49
aul 49
loc@@ 48
On 48
ental 48
° 48
ough 48
bac@@ 47
fel@@ 47
thor@@ 47
lands 47
zawa@@ 47
end 46
tical 46
Is 46
God’s 46
ather 46
cro@@ 46
own 46
formation 45
­ 45
ches 45
cla@@ 45
ages 45
than@@ 45
ship@@ 45
% 45
smo@@ 44
iku 44
lem 44
om 44
ainst 44
reli@@ 43
Sol@@ 43
house 43
You 43
them@@ 42
t’s 42
ual 42
ep 42
essi@@ 42
Ö@@ 42
ond 42
> 41
ef 41
+ 41
ative 41
Roman 40
tiv@@ 40
ven 40
left 40
ires 39
ering 39
set 39
habi@@ 39
less@@ 39
← 39
able 38
® 38
head 38
cen@@ 38
ists 38
orin@@ 38
from 38
Yor@@ 37
č@@ 37
ines 37
œ@@ 37
trans@@ 37
Hebre@@ 37
its 37
ving 36
cc@@ 36
ality 36
Wh@@ 36
risto 36
try 36
ʽ@@ 36
ive 36
iness 36
rip@@ 35
formed 35
how 35
pic@@ 35
ised 35
Jehov@@ 35
❖ 35
jus@@ 35
ted 35
tive 34
occ@@ 34
now 34
â@@ 34
ken 34
magaz@@ 34
ה@@ 34
add@@ 34
anci@@ 34
He 33
ign 33
What 33
rif@@ 33
ater 33
yes 33
ń@@ 33
י@@ 33
pite 32
atic 32
ors 32
ision 32
Let 32
side 32
↑ 32
kind 32
ה 32
wel@@ 32
if 32
ety 31
That 31
ends 31
uals 30
imag@@ 30
flo@@ 30
dun@@ 30
nor 30
his 30
situ@@ 30
ets 30
ular 30
cap@@ 30
Word 30
ו@@ 30
emor@@ 29
arri@@ 29
crip@@ 29
■ 29
cre@@ 29
Are 29
ø@@ 29
stu@@ 29
sec@@ 28
under 28
rep@@ 28
very 28
resp@@ 28
sing 28
ple@@ 28
Moses 28
Can 28
ible 27
ding 27
We 27
rain 27
claim@@ 27
like 27
WANA 27
ians 27
ased 26
say 26
In 26
ï@@ 26
ulation 26
produc@@ 26
ult 26
̆@@ 26
water 26
equ@@ 26
tri@@ 25
Jehovah 25
ely 25
esti@@ 25
fec@@ 25
plan@@ 25
wing 25
with 25
vention 25
here 25
ever 25
eds 25
tou@@ 24
ft 24
blo@@ 24
ved 24
When 24
No 24
ó 24
ş@@ 24
peri@@ 24
dec@@ 24
ruc@@ 24
ū@@ 24
Q 23
tice 23
One 23
dra@@ 23
led@@ 23
gro@@ 23
reas@@ 23
Lord 23
ific@@ 23
cam@@ 22
whe@@ 22
eye 22
tural 22
oub@@ 22
pow@@ 22
nch@@ 22
Š@@ 22
rom 22
taken 21
Why 21
lleng@@ 21
aries 21
ð@@ 21
Matthe@@ 21
õ@@ 21
off 21
pri@@ 21
iah 21
fort 21
ying 21
ī 21
⇩ 20
avo@@ 20
char@@ 20
Do 20
ship 20
‘@@ 20
back 20
ht 20
sage 20
war 20
š@@ 20
ems 19
❏ 19
bs 19
inter@@ 19
orig@@ 19
ating 19
Í@@ 19
☞ 19
ciples 19
eas@@ 18
sive 18
My 18
aring 18
Isaiah 18
Luke 18
Their 18
minis@@ 18
light 18
ould 18
other 18
ą@@ 18
cle@@ 18
ī@@ 18
pra@@ 17
Acc@@ 17
ned 17
zed 17
Witn@@ 17
exc@@ 17
ease 17
tru@@ 17
born 17
΄ 17
work 17
each 17
ough@@ 17
è 17
spir@@ 16
ä 16
‛ 16
ished 16
not 16
ties 16
ś@@ 16
sons 16
wanza 16
heal@@ 16
É 16
prin@@ 16
under@@ 16
ý@@ 16
pt 16
His 15
standing 15
# 15
circ@@ 15
wide 15
ehova 15
less 15
ques@@ 15
esis 15
ę@@ 15
read@@ 15
ext 15
ï 15
once 14
aching 14
doc@@ 14
sure 14
thus 14
ful 14
▼ 14
ă@@ 14
edom 14
To 14
å@@ 14
itive 14
ł 14
boo@@ 14
verse 14
adv@@ 14
ž@@ 14
kika 14
cur@@ 14
ʼ 14
Scrip@@ 14
obe@@ 13
ö 13
ered 13
reat@@ 13
ject 13
spec@@ 13
ã 13
ands 13
ebr@@ 13
Now 13
form@@ 13
ied 13
▶ 13
.K 13
too 13
After 13
righ@@ 13
ping 13
ices 12
led 12
strong 12
bad 12
C.E 12
▿ 12
▵ 12
Not 12
Jews 12
ods 12
flu@@ 12
Ł@@ 12
ited 12
ect 12
▾ 12
ours 12
itions 12
ways 12
Who 12
ths 11
le’s 11
beli@@ 11
⇨ 11
à@@ 11
ā 11
Psal@@ 11
◀ 11
ause 11
ý 11
š 11
etting 11
ø 11
til 11
nation 11
ß@@ 11
gir@@ 11
far 11
fam@@ 11
Christians 11
sed 11
syst@@ 11
reali@@ 10
Catho@@ 10
comm@@ 10
has 10
Å 10
Acts 10
sci@@ 10
Ó@@ 10
ember 10
deli@@ 10
ced 10
− 10
◇ 10
Ü@@ 10
î@@ 10
pub@@ 10
rest@@ 10
eve 10
Job 10
Ž@@ 10
struc@@ 9
moun@@ 9
jec@@ 9
peace 9
pass@@ 9
ehov@@ 9
ening 9
fac@@ 9
ò 9
aper 9
port@@ 9
This 9
Ä@@ 9
sou@@ 9
Ż@@ 9
ements 9
sex@@ 9
lished 9
ired 9
loo@@ 9
Ã@@ 9
ility 9
itn@@ 9
det@@ 9
ked 9
tains 9
whi@@ 9
⁄@@ 9
ē@@ 9
religi@@ 9
hat 9
For 8
Î@@ 8
ishon@@ 8
vered 8
change 8
yed 8
uses 8
lies 8
’t 8
down 8
eness 8
prog@@ 8
away 8
ught 8
form 8
ü 8
ments 8
upon 8
hold 8
wh@@ 8
home 8
after 8
urrec@@ 8
evil 8
ň 8
three 8
dev@@ 8
At 7
view 7
So 7
▲ 7
sma@@ 7
get 7
tell 7
$ 7
fore 7
According 7
stre@@ 7
word 7
› 7
earth@@ 7
\ 7
:@@ 7
pris@@ 7
common 7
tors 7
ㅇ 7
illing 7
heav@@ 7
trad@@ 7
with@@ 7
Ś@@ 7
.E 7
@ 7
thing 7
year 7
cond@@ 7
― 7
dri@@ 7
look 7
number 6
fied 6
four 6
indic@@ 6
appe@@ 6
km 6
portun@@ 6
č 6
ō 6
child 6
coming 6
death 6
̧@@ 6
such 6
main 6
lear@@ 6
fore@@ 6
ǒ 6
comp@@ 6
Ç@@ 6
Ḥ@@ 6
ľ@@ 6
ask 6
second 6
̩@@ 6
histor@@ 6
ě@@ 6
ㅅ 6
ē 6
Č@@ 6
truc@@ 6
wid@@ 6
Read 6
long 6
ability 6
ù 6
Revelation 6
trac@@ 6
Å@@ 6
Son 6
close 6
blems 6
night 6
part 5
writ@@ 5
then 5
ident 5
self 5
ㅁ 5
medi@@ 5
system 5
ders 5
two 5
woman 5
ring 5
crib@@ 5
time 5
order 5
hope 5
who@@ 5
coun@@ 5
trib@@ 5
Æ@@ 5
got 5
both 5
felt 5
ş 5
ř@@ 5
ached 5
ㄱ 5
educ@@ 5
Timo@@ 5
Á 5
aged 5
hear@@ 5
¡ 5
ious 5
iting 5
church 5
position 5
Romans 5
ples 5
mater@@ 5
ε@@ 5
human 5
itude 5
pers@@ 5
ż@@ 5
ι@@ 5
Watch@@ 4
ligh@@ 4
◗ 4
· 4
high 4
gether 4
keep@@ 4
fav@@ 4
➤ 4
new@@ 4
come 4
itate 4
adaye 4
last 4
oned 4
ū 4
Ñ@@ 4
turn 4
™ 4
È@@ 4
ń 4
ㅗ 4
cont@@ 4
These 4
ć 4
ㅏ 4
ẹ@@ 4
ards 4
ided 4
ď@@ 4
enly 4
נ@@ 4
פ@@ 4
ש@@ 4
ׁ 4
gener@@ 4
ς 4
idence 4
ν@@ 4
influ@@ 4
parents 4
̇@@ 4
σ@@ 4
They 4
ō@@ 4
direc@@ 4
Does 4
pose 4
å 3
ạ@@ 3
Ú@@ 3
û@@ 3
giv@@ 3
trav@@ 3
head@@ 3
¿ 3
Isra@@ 3
issu@@ 3
Then 3
Timothe@@ 3
ė 3
elation 3
Ş@@ 3
Ô@@ 3
‹ 3
cus@@ 3
ő@@ 3
told 3
ŏ@@ 3
little 3
put 3
π 3
also 3
was 3
spo@@ 3
city 3
happ@@ 3
prob@@ 3
resear@@ 3
Those 3
this 3
apost@@ 3
Satan 3
ㄴ 3
ţ@@ 3
ged 3
new 3
Ā@@ 3
Since 3
ㅣ 3
wed 3
Ō@@ 3
ply 3
famili@@ 3
ḍ@@ 3
lasting 3
As 3
Ø@@ 3
ἰ@@ 3
only 3
stand@@ 3
hand 3
days 3
young 3
Father 3
conf@@ 3
ped 3
million 3
ß 3
work@@ 3
Â@@ 3
While 3
Israeli@@ 3
ν 3
γ@@ 3
Yerusal@@ 3
Consid@@ 3
κ@@ 3
others 3
sign@@ 3
During 3
× 3
sent 3
ened 3
contin@@ 3
aging 3
ω 3
Of 3
nations 3
esses 3
offic@@ 2
first 2
Ē@@ 2
human@@ 2
̃@@ 2
century 2
few 2
known 2
report 2
ented 2
‵ 2
many 2
wise 2
article 2
world 2
concer@@ 2
ǔ 2
faith 2
÷ 2
women 2
⇧ 2
Creator 2
But 2
μ 2
says 2
service 2
remain@@ 2
full 2
arding 2
transl@@ 2
natural 2
face 2
moral 2
experi@@ 2
have 2
☒ 2
provid@@ 2
family 2
Some 2
used 2
י 2
ㄹ 2
ר@@ 2
ẹ 2
ò@@ 2
ì 2
alone 2
ending 2
wom@@ 2
rather 2
ṭ@@ 2
body 2
dead 2
ŭ@@ 2
tower 2
ㅡ 2
children 2
ㅓ 2
ť@@ 2
area 2
fect 2
ž 2
ė@@ 2
pla@@ 2
isions 2
commun@@ 2
crim@@ 2
reading 2
À 2
erous 2
disci@@ 2
ś 2
ı@@ 2
but 2
ĕ@@ 2
thinking 2
μ@@ 2
ṣ@@ 2
π@@ 2
ought 2
Ω 2
ύ@@ 2
ο@@ 2
read 2
ְ@@ 2
ֹ 2
natur@@ 2
ώ@@ 2
states 2
¥ 2
̗@@ 2
using 2
selves 2
·@@ 2
great 2
thous@@ 2
requ@@ 2
stand 2
æ 2
play 2
table 2
Ṭ@@ 2
tly 2
ȧ@@ 2
̀@@ 2
served 2
does 2
you 2
‐ 2
Jerusal@@ 2
teach 2
based 2
child@@ 2
mean@@ 2
fru@@ 2
control 2
place 2
Many 2
valu@@ 2
There 2
person 1
real 1
menti@@ 1
ched 1
occasi@@ 1
did 1
govern@@ 1
ㅎ 1
Ą@@ 1
succ@@ 1
liter@@ 1
ô 1
ọ@@ 1
➋ 1
đ@@ 1
along 1
consci@@ 1
knowled@@ 1
mission@@ 1
support 1
expec@@ 1
hous@@ 1
rote 1
fact 1
È 1
Ń@@ 1
῾ 1
ended 1
ㅕ 1
소 1
personal 1
ŕ 1
thin@@ 1
blood 1
ready 1
earth 1
Ë@@ 1
deter@@ 1
interest 1
I’@@ 1
duce 1
means 1
grou@@ 1
that 1
사@@ 1
랑 1
ק@@ 1
ל@@ 1
ד 1
-@@ 1
serving 1
Ọ@@ 1
ọ 1
ㅌ 1
author@@ 1
case 1
eful 1
takes 1
ḱ@@ 1
daugh@@ 1
Proverbs 1
where 1
prove 1
today 1
made 1
ingdom 1
ㅜ 1
ì@@ 1
against 1
ㅔ 1
atten@@ 1
n’t 1
ģ@@ 1
⁄ 1
when 1
went 1
ź 1
ǒ@@ 1
ă 1
spirit 1
material 1
complet@@ 1
refer@@ 1
enced 1
which 1
상 1
ousness 1
law 1
viol@@ 1
uted 1
will 1
Í 1
ㅑ 1
ṇ@@ 1
travel@@ 1
α 1
bring 1
ᾶ@@ 1
ό@@ 1
υ 1
א 1
problems 1
목 1
tered 1
ć@@ 1
Ä 1
Ε@@ 1
Υ@@ 1
Ρ@@ 1
given 1
̆ 1
sible 1
anima@@ 1
Č 1
feet 1
Κ@@ 1
ρ@@ 1
care 1
ined 1
physical 1
Corinthians 1
;@@ 1
곰 1
ㄷ 1
ɔ@@ 1
ously 1
cir@@ 1
been 1
whole 1
later 1
ẓ@@ 1
„ 1
ㅋ 1
mother 1
ㅂ 1
ê 1
ㅊ 1
miles 1
Ø 1
â 1
Ẹ@@ 1
exam@@ 1
father 1
ested 1
point 1
ů@@ 1
return 1
good 1
give 1
disease 1
course 1
things 1
history 1
And 1
prac@@ 1
holy 1
necess@@ 1
refl@@ 1
organi@@ 1
temple 1
ʽ 1
ά@@ 1
δ@@ 1
α@@ 1
λ@@ 1
mind@@ 1
ָ@@ 1
ֹ@@ 1
country 1
appro@@ 1
associ@@ 1
matter 1
they 1
ㅠ 1
Ê@@ 1
love 1
illustr@@ 1
ə@@ 1
inted 1
Even 1
ő 1
explain@@ 1
heart 1
contro@@ 1
ď 1
ů 1
ㅛ 1
ㅍ 1
dist@@ 1
small 1
⇦ 1
uring 1
asure 1
milli@@ 1
world@@ 1
every 1
encour@@ 1
forts 1
works 1
Ō 1
according 1
vari@@ 1
magazine 1
Psalm 1
may 1
h’s 1
through 1
ㅈ 1
▴ 1
Α@@ 1
lead@@ 1
soon 1
Ò 1
best 1
If 1
religious 1
protec@@ 1
arrang@@ 1
phys@@ 1
ently 1
ז@@ 1
speak 1
ately 1
consid@@ 1
around 1
Δ 1
Α 1
building 1
exp@@ 1
witn@@ 1
eyes 1
τ@@ 1
➊ 1
years 1
û 1
