, 802493
. 772409
the 685932
of 426094
to 424627
and 331704
a 270931
in 269899
that 188451
“ 171334
” 167400
is 150227
ed 130142
: 129994
ing 118753
for 112389
? 104025
on 101910
es 95210
s@@ 94333
was 91288
as 91242
I 89459
with 89449
it 87924
s 87297
be 87126
are 84756
— 84550
The 82363
- 80386
his 78033
re@@ 77883
or 77834
c@@ 76654
not 76524
you 75078
in@@ 73806
​ 73478
t@@ 71319
y 70983
have 70372
p@@ 69263
we 68879
er 67660
an 67102
by 62252
e 61944
S@@ 61858
t 60290
he 60179
will 59006
ers 58127
from 57195
r@@ 55950
their 54918
f@@ 54690
g@@ 54157
at 53920
Jehovah 52894
d@@ 52177
one 51944
b@@ 51817
al 51767
God 51057
they 50390
en@@ 49229
us 48909
er@@ 48796
st@@ 48742
ation 48443
E@@ 48063
e@@ 46992
this 46869
can 46782
all 46443
who 46244
our 46068
ted 45863
m@@ 45097
l@@ 44369
o@@ 44244
al@@ 43915
C@@ 43831
v@@ 43265
were 43209
un@@ 42233
ts 41724
’s 41430
Bible 41276
A@@ 41266
an@@ 41108
it@@ 40964
con@@ 40578
Jesus 40371
n@@ 39827
had 39805
ac@@ 39381
ly 37836
ar@@ 37565
on@@ 37136
or@@ 36724
In 36493
ate 36436
what 36428
as@@ 36221
your 36156
P@@ 35533
do 35194
has 34587
ad@@ 34121
my 33940
L@@ 33895
’ 33893
at@@ 33782
R@@ 33650
them 33596
w@@ 33394
people 33345
i@@ 33163
ro@@ 32604
M@@ 32356
el@@ 32345
ent 32287
D@@ 32034
about 31904
H@@ 31479
es@@ 31344
tr@@ 31186
y@@ 30975
What 30645
time 30504
lo@@ 30054
when 29764
li@@ 29705
T@@ 29609
F@@ 29519
ity 29311
tion 29287
u@@ 29260
; 29150
would 29088
de@@ 28819
le 28677
O@@ 28498
th@@ 28480
him 28355
a@@ 28191
se@@ 28179
ated 28101
but 28078
Jehovah’s 27897
may 27775
1 27765
h@@ 27737
m 27607
pro@@ 27600
) 27546
( 27497
more 27420
ic@@ 27348
God’s 27300
! 27279
dis@@ 27264
im@@ 26971
out 26946
d 26452
B@@ 26266
k 26176
me 25868
so 25739
life 25631
ti@@ 25575
id@@ 25050
ec@@ 25036
le@@ 25012
th 24986
some 24970
ex@@ 24768
ve 24699
I@@ 24696
sp@@ 24543
qu@@ 24423
l 24255
W@@ 24155
G@@ 24147
ur@@ 23813
many 23521
A 23385
is@@ 23351
been 23140
did 23071
able 23021
her 22879
its 22858
ence 22801
co@@ 22671
It 22657
also 22566
ting 22091
ally 21934
ance 21798
ag@@ 21723
those 21687
ter 21609
How 21474
N@@ 21421
such 21405
en 21037
k@@ 20959
up 20920
be@@ 20890
n 20848
par@@ 20799
pre@@ 20613
He 20492
am@@ 20400
ment 20389
ab@@ 20337
than 20265
other 20203
for@@ 20061
mo@@ 20036
et@@ 19966
ul@@ 19830
there 19693
2 19542
even 19452
op@@ 19387
ons 19346
no@@ 19211
‘ 19165
to@@ 19159
h 19148
ar 19013
no 18888
se 18715
ous 18601
per@@ 18565
Witnesses 18529
age 18525
res@@ 18522
ine 18408
ch@@ 18359
ter@@ 18359
ho@@ 18313
how 18289
ri@@ 18255
ev@@ 18184
way 18131
em@@ 18103
ol@@ 17971
p 17910
we@@ 17909
which 17873
into 17827
years 17797
if 17791
est 17789
man 17780
ra@@ 17769
des@@ 17589
But 17550
ap@@ 17368
5 17250
ant 17231
pres@@ 17156
work 17138
3 17018
these 16986
ations 16969
said 16962
help 16958
We 16949
day 16836
red 16822
good 16795
ings 16771
J@@ 16629
ary 16618
ch 16614
ent@@ 16407
This 16401
ut@@ 16323
us@@ 16223
w 16188
world 16143
ma@@ 16073
te@@ 16010
ir@@ 15927
il@@ 15896
av@@ 15868
po@@ 15810
could 15752
only 15736
When 15585
] 15545
[ 15544
ying 15489
should 15420
4 15312
su@@ 15175
things 15113
They 15075
ice 14826
ely 14821
ning 14815
me@@ 14774
ved 14758
children 14750
king 14745
dec@@ 14724
says 14703
does 14693
over 14683
first 14671
make 14669
pl@@ 14615
6 14586
ents 14562
end@@ 14454
love 14399
ne@@ 14398
ty 14350
she 14339
8 14190
und@@ 14112
gr@@ 14101
b 14095
car@@ 14091
Christian 13949
like 13945
ic 13888
led 13706
ls 13560
ies 13513
because 13482
most 13480
For 13467
bo@@ 13328
ful 13322
then 13262
ep@@ 13244
ness 13233
made 13127
ds 13123
If 13104
rec@@ 13012
ob@@ 13003
si@@ 12986
As 12974
el 12869
ks 12845
les 12759
ha@@ 12735
used 12726
being 12725
earth 12703
family 12681
others 12595
ess 12556
go@@ 12543
come 12403
od 12379
just 12181
U@@ 12177
Paul 12162
ed@@ 12148
well 12127
sion 12062
9 11998
ating 11965
and@@ 11951
Christians 11930
end 11919
tions 11884
z@@ 11865
times 11832
now 11793
need 11745
ver@@ 11670
comm@@ 11658
very 11636
ws 11577
cl@@ 11562
pe@@ 11551
any 11507
7 11470
Kingdom 11448
cre@@ 11417
so@@ 11417
V@@ 11367
after 11362
ge 11343
ang@@ 11326
take 11260
war@@ 11228
see 11225
sh@@ 11219
ci@@ 11203
ad 11195
om@@ 11183
mis@@ 11139
You 11138
must 11100
example 11098
use 11075
Why 10998
reg@@ 10982
ish 10971
br@@ 10963
two 10942
tu@@ 10931
ess@@ 10896
wor@@ 10859
K@@ 10805
st 10755
ig@@ 10753
com@@ 10733
ast 10720
where 10682
hi@@ 10655
x@@ 10650
ef@@ 10648
lic@@ 10636
new 10632
tre@@ 10621
ia 10614
Th@@ 10597
man@@ 10597
S 10586
ise 10577
ali@@ 10572
ther@@ 10545
x 10539
har@@ 10500
fe@@ 10457
faith 10455
know 10446
do@@ 10426
comp@@ 10414
um@@ 10385
1@@ 10385
str@@ 10384
Christ 10372
spirit 10350
men 10215
ked 10212
parents 10211
ones 10206
before 10194
ou@@ 10186
ill@@ 10122
ical 10102
much 10101
ass@@ 10058
g 10035
over@@ 10023
own 10011
And 10006
he@@ 9989
ru@@ 9930
af@@ 9915
15 9882
become 9870
la@@ 9857
4@@ 9801
ep 9766
pos@@ 9756
am 9755
o 9747
att@@ 9743
als 9729
if@@ 9704
et 9681
ver 9667
ill 9645
In@@ 9627
gu@@ 9600
through 9592
vi@@ 9558
thing 9538
cr@@ 9534
fo@@ 9523
ther 9490
ves 9483
tic@@ 9482
year 9480
ph@@ 9476
found 9443
10 9381
ight 9346
sur@@ 9292
true 9240
spiritual 9220
death 9218
cho@@ 9213
give 9211
ps 9207
E 9190
get 9177
/ 9173
ans 9157
inter@@ 9147
ah 9109
words 9091
pri@@ 9089
di@@ 9088
congregation 9047
up@@ 9018
12 8998
tive 8981
ever 8955
mar@@ 8949
another 8942
ce 8941
ten@@ 8871
self 8862
ear@@ 8811
each 8808
heart 8807
ke@@ 8793
emp@@ 8739
One 8721
r 8714
ite 8709
sed 8706
Mo@@ 8675
ently 8646
id 8594
fin@@ 8579
c 8523
book 8507
ris@@ 8488
19@@ 8470
ters 8469
ily 8453
3@@ 8430
ling 8417
vis@@ 8408
ement 8394
11 8389
ered 8385
jo@@ 8385
ality 8366
ue 8339
est@@ 8312
sa@@ 8279
land 8268
6@@ 8252
though 8250
fac@@ 8248
human 8240
ities 8234
less 8230
part 8188
great 8182
read 8173
14 8160
Mar@@ 8127
ure 8126
yed 8112
That 8106
name 8106
te 8101
young 8071
So 8044
ect 8032
study 8012
ties 8008
home 7959
long 7948
il 7918
tic 7914
od@@ 7902
ial 7899
tly 7877
ands 7849
might 7832
say 7815
act 7795
res 7772
fore@@ 7761
j@@ 7750
2@@ 7740
find 7730
Some 7728
However 7703
our@@ 7701
wa@@ 7698
often 7694
feel 7680
gre@@ 7630
ze 7630
sec@@ 7600
gro@@ 7600
ain 7588
iv@@ 7574
ars 7533
cen@@ 7530
person 7524
ach 7522
place 7508
ak@@ 7488
5@@ 7446
truth 7446
ates 7432
told 7426
called 7421
To 7417
wn 7413
ry 7389
ing@@ 7378
same 7374
ind@@ 7363
mb@@ 7352
.@@ 7339
acc@@ 7316
John 7301
sub@@ 7282
ors 7236
mon@@ 7219
ten 7210
ces 7201
add@@ 7198
ition 7197
zed 7195
ong@@ 7182
go 7175
never 7157
old 7156
right 7153
13 7145
against 7125
today 7121
ages 7090
every 7071
too 7056
fully 7044
pra@@ 6999
ign@@ 6998
20 6996
At 6983
down 6971
clo@@ 6970
ory 6945
ned 6935
out@@ 6928
back 6903
There 6897
low@@ 6872
under@@ 6871
conf@@ 6852
the@@ 6845
writ@@ 6814
igh@@ 6809
keep 6791
ay 6785
happ@@ 6778
After 6773
trib@@ 6737
under 6717
days 6706
ord@@ 6689
sho@@ 6683
sha@@ 6676
came 6640
sel@@ 6639
ide 6635
ist 6626
became 6594
Do 6583
three 6572
ens 6556
sto@@ 6539
Be@@ 6539
cor@@ 6538
during 6529
still 6524
ug@@ 6516
water 6510
means 6505
live 6489
ular 6489
ere 6485
ture 6476
Word 6464
set 6451
min@@ 6450
brothers 6440
eg@@ 6436
ened 6430
word 6428
put 6418
pr@@ 6413
promis@@ 6411
bl@@ 6409
off@@ 6400
century 6399
while 6398
wrote 6396
00 6380
ple 6377
himself 6358
199@@ 6353
ati@@ 6334
Re@@ 6324
ain@@ 6313
els 6308
course 6301
ard 6286
dr@@ 6277
appro@@ 6277
why 6273
enti@@ 6257
among 6256
tor@@ 6250
lin@@ 6245
22 6234
sis@@ 6234
requ@@ 6233
pub@@ 6226
tain 6221
hel@@ 6219
low 6217
any@@ 6214
dem@@ 6208
fl@@ 6201
view 6177
light 6161
want 6142
ld 6134
apostle 6134
17 6129
spec@@ 6128
gi@@ 6103
ven@@ 6081
ress 6061
away 6054
16 6049
tro@@ 6044
later 6018
began 6009
important 6003
accep@@ 5998
mat@@ 5989
serve 5989
pris@@ 5985
upon 5982
bre@@ 5968
au@@ 5948
however 5941
let 5939
ual 5930
New 5929
ple@@ 5904
iti@@ 5903
learn 5898
without 5894
ving 5848
col@@ 5845
side 5840
fir@@ 5806
ase 5798
Is 5793
ough 5789
My 5781
ments 5773
7@@ 5763
show 5760
mind 5759
Pro@@ 5754
sin@@ 5738
Al@@ 5733
article 5732
given 5723
tiv@@ 5720
son 5712
sy@@ 5711
fore 5688
cour@@ 5683
direc@@ 5670
gl@@ 5668
18 5664
between 5660
Con@@ 5656
ys 5641
prac@@ 5638
ited 5627
cal@@ 5622
worship 5609
ca@@ 5596
encour@@ 5585
eng@@ 5581
By 5576
living 5573
On 5567
wal@@ 5566
tain@@ 5566
themselves 5551
por@@ 5542
hope 5537
ack 5528
ism 5526
ign 5515
ped 5514
wife 5514
Many 5513
ative 5506
inst@@ 5494
ses 5492
vers@@ 5484
ision 5481
Com@@ 5470
With 5469
cro@@ 5455
order 5450
hu@@ 5448
cap@@ 5439
hear@@ 5439
expres@@ 5432
ir 5409
19 5408
exp@@ 5403
power 5402
fact 5401
ets 5385
Then 5364
wing 5348
Israel 5344
list@@ 5343
both 5334
ser@@ 5334
sure 5329
house 5328
sing 5323
ref@@ 5323
re 5322
loc@@ 5319
number 5313
news 5299
der 5287
eli@@ 5281
Peter 5280
tice 5279
adv@@ 5277
doing 5267
ef 5266
knowledge 5259
Lo@@ 5258
faithful 5249
she@@ 5243
ature 5239
St@@ 5239
iness 5238
religious 5216
teach@@ 5215
outh 5208
jud@@ 5208
reas@@ 5195
rel@@ 5194
few 5182
little 5182
ants 5178
mor@@ 5170
food 5162
gave 5137
lar@@ 5132
bel@@ 5122
cy 5121
David 5116
ied 5113
onal 5112
fi@@ 5111
ga@@ 5110
known 5105
eas@@ 5099
fa@@ 5090
cul@@ 5085
N 5084
blood 5083
ke 5078
tually 5076
Matthew 5073
making 5071
always 5070
ili@@ 5054
look 5044
child 5044
form@@ 5038
sal@@ 5025
every@@ 5022
service 5021
She 5020
ways 5016
mother 5015
ran@@ 5014
ever@@ 5009
ani@@ 5009
ists 4995
succ@@ 4994
peace 4994
,000 4993
ll 4987
Father 4980
took 4974
cont@@ 4970
Tr@@ 4962
ously 4962
face 4962
jec@@ 4955
sol@@ 4954
ship 4948
ough@@ 4943
ests 4939
C.E 4930
ust 4920
ministry 4917
ace 4913
resp@@ 4911
produc@@ 4902
ution 4893
pur@@ 4890
mit@@ 4876
really 4872
Yet 4870
8@@ 4865
cha@@ 4863
full 4861
Psalm 4856
ater 4852
city 4852
gener@@ 4847
um 4847
holy 4825
father 4822
ward 4820
pa@@ 4817
bir@@ 4810
problems 4810
An@@ 4801
hand 4800
possible 4800
These 4791
cop@@ 4789
Ar@@ 4785
tend@@ 4771
24 4765
try 4763
form 4758
provid@@ 4752
preaching 4750
bless@@ 4750
bur@@ 4749
pe 4747
ond 4741
ish@@ 4740
buil@@ 4740
women 4736
ste@@ 4734
ek@@ 4732
ences 4729
streng@@ 4713
wond@@ 4701
felt 4700
asked 4699
body 4696
ening 4690
dly 4689
Y@@ 4687
something 4686
off 4684
having 4681
ced 4680
together 4672
Chris@@ 4669
ta@@ 4664
wise 4657
gy 4657
da@@ 4648
His 4643
ce@@ 4642
fort 4641
ail@@ 4638
consid@@ 4620
ired 4618
ths 4617
erful 4616
Our 4614
concer@@ 4611
21 4608
vo@@ 4605
app@@ 4605
incre@@ 4602
since 4595
appreci@@ 4592
humans 4589
think 4588
ingly 4570
let@@ 4570
standing 4565
percent 4565
stud@@ 4564
ek 4562
result 4546
Even 4540
pt 4539
30 4534
spo@@ 4510
pers@@ 4501
mer@@ 4493
activ@@ 4487
loy@@ 4482
tes 4479
continu@@ 4476
usi@@ 4452
soci@@ 4451
wat@@ 4447
ety 4445
uni@@ 4444
aged 4440
ond@@ 4439
point 4436
doc@@ 4433
high 4433
her@@ 4427
left 4423
ell 4417
ake 4417
ong 4413
Satan 4412
ches 4407
reason 4391
lead@@ 4385
bro@@ 4378
world@@ 4377
ni@@ 4377
Yes 4368
care 4368
chang@@ 4366
school 4366
Hebre@@ 4361
hur@@ 4359
ms 4359
tical 4345
lives 4344
last 4338
plac@@ 4337
ering 4336
Scriptures 4331
sou@@ 4326
future 4322
und 4319
As@@ 4318
ore 4312
died 4310
better 4297
believ@@ 4297
vic@@ 4294
different 4292
cle@@ 4285
ns 4280
pic@@ 4272
organi@@ 4271
tur@@ 4268
sive 4260
King 4258
loving 4250
again 4249
stu@@ 4248
ung@@ 4248
9@@ 4244
loo@@ 4236
All 4233
poli@@ 4232
personal 4232
lished 4232
experience 4229
marriage 4228
exc@@ 4224
ree 4222
thr@@ 4218
woman 4216
hard 4214
ort 4209
individ@@ 4199
early 4196
using 4186
Ex@@ 4181
0@@ 4180
’t 4179
tor 4178
tel@@ 4174
ping 4174
No@@ 4165
reali@@ 4163
fic@@ 4163
D 4162
Sp@@ 4160
25 4159
From 4157
No 4154
whom 4145
system 4143
toward 4142
dev@@ 4140
around 4138
small 4130
lish 4130
thought 4127
ea 4124
nor@@ 4122
United 4120
hon@@ 4120
arly 4119
appe@@ 4117
deed 4112
hab@@ 4110
disciples 4109
ome 4104
rep@@ 4098
ding 4096
Se@@ 4095
sacrif@@ 4091
includ@@ 4089
* 4085
peri@@ 4076
dra@@ 4073
describ@@ 4059
nam@@ 4059
beg@@ 4058
World 4047
coun@@ 4044
present 4043
learned 4043
ute 4034
needed 4025
author@@ 4023
ian 4021
ner 4017
fect 4007
complet@@ 3996
vir@@ 3994
religion 3994
health 3992
fre@@ 3991
T 3990
fr@@ 3990
ss 3988
cannot 3971
exam@@ 3971
develop@@ 3970
far 3969
fer@@ 3965
viol@@ 3959
ask 3954
went 3953
done 3950
consider 3949
helped 3944
occ@@ 3944
wer 3935
friends 3934
best 3933
bring 3933
follow@@ 3927
sci@@ 3926
y’s 3916
happy 3913
ately 3912
thers 3904
husband 3903
pi@@ 3901
believe 3894
O 3889
fellow 3889
kind 3888
ol 3884
zation 3883
TH@@ 3867
f 3867
Per@@ 3866
here 3859
Br@@ 3854
Bo@@ 3852
Jud@@ 3850
i 3846
joy 3843
servants 3843
cer@@ 3840
mp@@ 3839
ile 3836
wh@@ 3826
stan@@ 3823
along 3814
• 3812
az@@ 3811
jus@@ 3803
issu@@ 3802
Your 3801
prog@@ 3797
going 3796
witn@@ 3791
Ne@@ 3789
50 3786
head 3786
until 3785
vari@@ 3784
ental 3778
ele@@ 3777
Afric@@ 3768
ious 3768
ems 3766
giving 3763
Isaiah 3756
ply 3749
ident 3738
fear 3738
ject 3737
fec@@ 3734
certain 3733
purpose 3733
Thus 3731
matter 3726
ged 3725
prin@@ 3724
Z@@ 3721
following 3719
eful 3718
pione@@ 3716
hor@@ 3716
rul@@ 3715
meetings 3713
ze@@ 3713
pati@@ 3713
war 3707
mus@@ 3707
moved 3704
states 3704
especially 3702
pow@@ 3700
spe@@ 3699
ither 3699
trans@@ 3698
ancient 3697
questions 3697
ard@@ 3692
pop@@ 3690
discus@@ 3689
million 3688
cause 3687
Ma@@ 3685
ines 3681
change 3676
four 3673
t’s 3668
om 3667
Although 3667
ick@@ 3658
tin@@ 3657
Let 3650
perfect 3647
money 3643
language 3635
ased 3634
To@@ 3633
heav@@ 3627
sin 3627
prayer 3620
Son 3620
reading 3619
em 3619
next 3618
eyes 3612
person@@ 3611
Proverbs 3610
resurrec@@ 3605
illing 3600
ud@@ 3599
members 3599
nations 3597
ended 3597
ld@@ 3596
law 3594
Jo@@ 3590
close 3586
commun@@ 3585
someone 3582
speak@@ 3579
including 3576
experi@@ 3573
ren@@ 3570
Ch@@ 3569
Because 3568
ind 3568
23 3568
Since 3568
ric@@ 3562
ist@@ 3557
associ@@ 3554
turned 3550
tal@@ 3548
shi@@ 3546
ery 3539
tors 3539
Moses 3539
lands 3538
essi@@ 3534
cond@@ 3534
Jerusalem 3529
rest 3528
continue 3526
large 3526
ians 3522
Greek 3521
anima@@ 3519
char@@ 3517
ere@@ 3513
yourself 3512
ach@@ 3507
seen 3504
According 3502
support 3501
serv@@ 3500
Gre@@ 3500
tim@@ 3500
ested 3497
ath 3496
bad 3495
member 3488
De@@ 3488
thous@@ 3487
sk@@ 3484
there@@ 3481
dies 3480
mankind 3479
Ger@@ 3476
enjoy 3475
0 3467
wisdom 3466
ligh@@ 3463
cou@@ 3463
Americ@@ 3456
earth@@ 3455
soon 3448
mean@@ 3445
served 3444
emo@@ 3439
stand@@ 3437
fine 3436
ending 3436
righteous 3436
ins 3432
ll@@ 3425
case 3422
situation 3421
oned 3418
understand 3418
taken 3416
main@@ 3413
Y 3406
minis@@ 3405
who@@ 3402
indic@@ 3401
teaching 3397
thus 3392
share 3392
wr@@ 3390
relationship 3386
ices 3381
Co@@ 3380
new@@ 3378
med@@ 3378
iting 3377
yet 3377
transl@@ 3375
ib@@ 3375
heaven 3375
night 3374
position 3371
equ@@ 3371
ould 3371
rain 3370
ty@@ 3366
reve@@ 3366
quali@@ 3365
half 3360
ire 3357
den 3354
Euro@@ 3352
wide 3351
free 3350
ented 3350
dist@@ 3349
born 3346
Bib@@ 3329
likely 3329
turn 3328
problem 3325
ards 3324
less@@ 3321
ip@@ 3313
,@@ 3309
saw 3309
sup@@ 3308
eless 3306
received 3305
dep@@ 3304
trad@@ 3303
itions 3303
bus@@ 3299
brought 3299
ulation 3298
illi@@ 3294
elders 3294
evil 3292
doub@@ 3289
ges 3287
Gen@@ 3283
ather 3281
Of 3278
saying 3276
control 3275
difficult 3275
real 3274
ched 3267
counsel 3266
star@@ 3265
crip@@ 3265
tered 3259
bor@@ 3258
sense 3255
vol@@ 3254
ably 3253
vered 3252
thy 3252
nor 3246
talk 3243
While 3242
struc@@ 3238
feelings 3237
gen@@ 3233
serving 3227
dic@@ 3226
pla@@ 3223
lasting 3221
lies 3219
Eng@@ 3217
etting 3213
influ@@ 3209
abo@@ 3208
attention 3207
dang@@ 3206
heavenly 3204
ak 3201
Corinthians 3199
challeng@@ 3199
States 3198
ub@@ 3192
taking 3191
leg@@ 3189
beli@@ 3188
’@@ 3184
He@@ 3184
Go@@ 3183
baptized 3182
ass 3182
mate 3177
bi@@ 3172
wicked 3169
□ 3168
needs 3165
fur@@ 3162
invit@@ 3162
onom@@ 3159
Par@@ 3158
ularly 3154
ults 3154
brother 3151
whole 3150
answer 3146
ility 3142
avoid 3136
ries 3136
magazine 3132
dead 3130
ck 3128
affec@@ 3128
speak 3127
Who 3123
wanted 3122
one@@ 3121
makes 3118
message 3114
enced 3113
ually 3113
ided 3108
ut 3101
mind@@ 3101
don@@ 3101
ring 3101
uc@@ 3100
you@@ 3098
my@@ 3093
n’t 3093
awa@@ 3093
So@@ 3092
der@@ 3091
answ@@ 3090
special 3090
page 3086
liter@@ 3085
trac@@ 3085
respect 3084
prophe@@ 3083
val@@ 3082
group 3081
pas@@ 3079
accomp@@ 3077
countries 3076
arding 3075
eho@@ 3074
ible 3067
orig@@ 3061
can@@ 3061
tern 3053
question 3048
28 3045
per 3042
sex@@ 3041
according 3036
sent 3036
duc@@ 3032
cas@@ 3032
esti@@ 3032
aper 3031
fru@@ 3026
gif@@ 3024
prophec@@ 3022
desire 3022
mean 3020
lead 3019
Now 3017
simply 3016
Israelites 3013
ago 3013
prove 3012
information 3009
Jews 3008
ve@@ 3008
40 3004
Revelation 3001
posed 3000
tri@@ 2999
vention 2993
asi@@ 2989
On@@ 2989
ised 2987
ples 2987
once 2985
Abra@@ 2984
provide 2984
ends 2983
learly 2982
educ@@ 2980
Those 2979
gy@@ 2979
famili@@ 2977
ours 2974
anointed 2967
claim@@ 2967
sing@@ 2965
arri@@ 2965
national 2964
wrong 2963
consci@@ 2958
Timothy 2956
Luke 2955
cam@@ 2949
table 2948
ability 2946
ath@@ 2945
coming 2945
gir@@ 2942
Creator 2938
fu@@ 2938
Can 2935
aring 2933
country 2931
sen@@ 2926
deli@@ 2917
mission@@ 2916
offer@@ 2916
apost@@ 2914
suffering 2914
fied 2913
effec@@ 2912
scho@@ 2905
uses 2904
mag@@ 2903
R 2900
wel@@ 2898
Watchtower 2897
mil@@ 2895
train@@ 2894
ourselves 2894
reli@@ 2892
reports 2889
involved 2888
ember 2886
ined 2885
illustr@@ 2883
200@@ 2882
verse 2880
Are 2879
Such 2879
During 2878
nothing 2878
Ho@@ 2878
married 2877
nation 2875
past 2873
Ab@@ 2873
strong 2869
sla@@ 2869
account 2863
lish@@ 2859
inc@@ 2859
mi@@ 2858
saf@@ 2858
feet 2857
sign@@ 2856
hous@@ 2856
some@@ 2856
knew 2853
near 2852
enjo@@ 2851
five 2851
le’s 2847
rely 2845
ached 2844
ground 2843
wo@@ 2837
vin@@ 2836
receive 2834
unt 2834
eld 2832
comes 2831
im 2829
Acts 2829
history 2828
line 2827
exerc@@ 2827
area 2826
common 2824
Not 2823
filled 2822
expec@@ 2819
pass@@ 2818
ship@@ 2817
opportun@@ 2812
rest@@ 2811
remain@@ 2809
Ad@@ 2807
second 2803
months 2803
works 2799
ished 2798
Read 2796
whether 2795
miles 2794
move 2793
respon@@ 2788
oper@@ 2785
ful@@ 2784
chi@@ 2783
appoin@@ 2782
An 2782
bac@@ 2781
already 2778
thinking 2777
olo@@ 2777
ber@@ 2773
head@@ 2771
great@@ 2768
taught 2767
igned 2767
protec@@ 2767
ific@@ 2765
survi@@ 2763
offic@@ 2763
moder@@ 2763
follow 2762
similar 2762
read@@ 2759
church 2757
spiritu@@ 2757
benefit 2754
tures 2754
privil@@ 2753
work@@ 2753
public 2753
Wor@@ 2753
ements 2747
local 2747
uted 2745
becom@@ 2744
isions 2741
fer 2738
necess@@ 2738
tural 2734
hand@@ 2733
recog@@ 2733
sugg@@ 2728
started 2726
Today 2715
inal 2712
ant@@ 2712
Po@@ 2710
wake 2705
based 2704
heard 2704
nd@@ 2702
Tru@@ 2701
occasi@@ 2699
invol@@ 2695
nal 2693
maj@@ 2692
yl@@ 2692
cur@@ 2688
stre@@ 2688
explain@@ 2688
suf@@ 2687
tell 2686
Does 2682
dedic@@ 2680
conduct 2680
sl@@ 2679
itive 2677
ike 2676
En@@ 2676
prof@@ 2675
Romans 2674
plan@@ 2673
longer 2673
fulf@@ 2670
ick 2670
truc@@ 2666
instruc@@ 2661
within 2659
grap@@ 2659
lost 2656
circum@@ 2651
moral 2650
principles 2650
Bro@@ 2649
Wh@@ 2649
natural 2648
physical 2647
refl@@ 2643
Their 2638
gives 2636
asure 2635
held 2633
interest 2630
material 2628
det@@ 2626
valu@@ 2621
18@@ 2621
formed 2618
uals 2615
tom@@ 2614
high@@ 2610
0,000 2608
false 2603
mili@@ 2603
stand 2601
198@@ 2600
ource 2595
Catholic 2595
attitude 2593
clear 2593
lif@@ 2592
satis@@ 2589
fav@@ 2580
disci@@ 2579
crim@@ 2578
responsib@@ 2576
evidence 2575
Be 2575
partic@@ 2574
pite 2573
arrang@@ 2572
flo@@ 2572
an’s 2572
government 2571
cus@@ 2571
Lord 2570
wan@@ 2564
Inter@@ 2563
Consider 2561
James 2560
aries 2558
atu@@ 2558
forts 2556
play 2553
lec@@ 2553
sum@@ 2552
Un@@ 2551
takes 2549
view@@ 2549
rather 2548
smo@@ 2545
Law 2544
fail@@ 2541
action 2538
26 2537
bas@@ 2537
ods 2536
tou@@ 2535
Sh@@ 2532
yo@@ 2528
leave 2523
Bab@@ 2523
determin@@ 2522
trust 2522
than@@ 2520
daugh@@ 2519
alone 2517
erous 2515
die 2512
hold 2510
ken 2510
got 2510
neigh@@ 2509
cy@@ 2507
obedi@@ 2506
temple 2506
ires 2503
People 2502
matters 2498
emb@@ 2495
tra@@ 2491
clud@@ 2490
serious 2489
Uni@@ 2489
duce 2486
dam 2486
emor@@ 2484
shows 2484
poin@@ 2484
moun@@ 2482
ought 2477
imag@@ 2476
friend 2476
showed 2476
Sam@@ 2475
medi@@ 2473
▪ 2472
resear@@ 2472
perhaps 2470
esis 2470
29 2468
teach 2467
entif@@ 2467
working 2467
ham 2466
report 2466
U.@@ 2459
several 2459
mentioned 2459
refer@@ 2458
esses 2457
dri@@ 2457
truly 2456
edom 2455
remain 2454
certainly 2452
heal@@ 2446
lear@@ 2446
de 2446
tains 2444
h’s 2444
boo@@ 2444
Job 2443
appear@@ 2439
keep@@ 2439
kindness 2439
eness 2438
km 2434
return 2434
wid@@ 2433
ot 2432
drin@@ 2431
Witn@@ 2429
divine 2428
vit@@ 2427
travel@@ 2423
explains 2422
aging 2422
itate 2416
Fa@@ 2416
building 2416
righteousness 2415
disease 2415
I’@@ 2414
ok 2409
sons 2408
Des@@ 2407
27 2405
mir@@ 2401
AN@@ 2399
amb@@ 2398
Tim@@ 2395
atic 2395
Roman 2395
semb@@ 2394
Cen@@ 2388
ult 2387
ext 2385
milli@@ 2372
prop@@ 2367
ame 2364
Jew@@ 2357
IN@@ 2357
pat@@ 2355
ik@@ 2352
20@@ 2351
Ro@@ 2351
33 2350
idence 2334
bu@@ 2322
ON@@ 2311
olog@@ 2307
u 2297
obe@@ 2295
congreg@@ 2292
ingdom 2291
expl@@ 2285
tem@@ 2280
Jose@@ 2273
Res@@ 2271
ational 2268
imp@@ 2265
Eli@@ 2262
relati@@ 2260
tion@@ 2255
31 2253
Solom@@ 2251
sea 2249
repor@@ 2242
bal@@ 2233
meet@@ 2232
Or@@ 2219
ord 2208
sim@@ 2208
ung 2208
Life 2204
ith@@ 2200
eds 2200
Scrip@@ 2199
60 2197
chap@@ 2197
wil@@ 2195
ph 2190
Ha@@ 2188
spir@@ 2187
righ@@ 2179
ge@@ 2178
hospit@@ 2178
H 2175
ins@@ 2168
pray@@ 2166
lig@@ 2163
Ser@@ 2163
Sat@@ 2163
hili@@ 2154
Le@@ 2151
L 2151
are@@ 2147
Can@@ 2144
Paul@@ 2127
bab@@ 2125
Ke@@ 2111
ese 2111
ki@@ 2105
Sim@@ 2102
sil@@ 2095
fal@@ 2094
Dani@@ 2093
far@@ 2087
kind@@ 2080
itu@@ 2061
la 2059
iah 2058
cla@@ 2056
Jap@@ 2051
nec@@ 2042
fri@@ 2034
dom@@ 2020
32 2015
hurch 2006
York 2002
Rus@@ 2000
artic@@ 2000
194@@ 1994
dar@@ 1992
70 1990
bar@@ 1983
35 1970
Me@@ 1969
mas@@ 1961
div@@ 1953
tle 1950
z 1949
V 1940
ene@@ 1937
vid@@ 1932
dia 1926
sear@@ 1924
sib@@ 1919
atten@@ 1918
preci@@ 1914
benef@@ 1909
ina 1904
ive 1903
oub@@ 1900
child@@ 1899
prot@@ 1896
Qu@@ 1889
kno@@ 1887
ert 1878
lic 1856
kil@@ 1852
shar@@ 1849
suffer@@ 1846
umb@@ 1841
Fe@@ 1839
ustr@@ 1834
tho@@ 1833
Wat@@ 1809
ew@@ 1806
na@@ 1803
parad@@ 1803
aching 1800
ous@@ 1782
enly 1780
ly@@ 1778
differ@@ 1776
ur 1763
adu@@ 1760
fan@@ 1746
sac@@ 1742
ans@@ 1741
amo@@ 1740
sible 1724
devel@@ 1719
asu@@ 1711
C 1710
histor@@ 1706
reat@@ 1706
mid@@ 1702
hol@@ 1698
bap@@ 1690
14@@ 1690
fam@@ 1688
․ 1684
ren 1677
erem@@ 1677
san@@ 1676
pec@@ 1675
tru@@ 1668
ane 1665
hil@@ 1658
37 1654
hat@@ 1652
langu@@ 1638
ready 1621
Christi@@ 1619
Yo@@ 1611
lab@@ 1606
grou@@ 1603
blo@@ 1602
Car@@ 1596
10@@ 1595
Bar@@ 1593
ye@@ 1590
hild@@ 1587
lim@@ 1587
ale 1582
Society 1582
G 1581
feel@@ 1576
EN@@ 1574
tas@@ 1573
Am@@ 1573
whi@@ 1570
34 1567
pose 1549
1,@@ 1548
Ind@@ 1547
che@@ 1545
ton 1540
proph@@ 1539
Is@@ 1531
sta@@ 1527
cent 1523
100 1523
15@@ 1518
io 1509
haps 1508
M 1495
tun@@ 1481
ari@@ 1473
ore@@ 1465
ush@@ 1463
wed 1459
phys@@ 1444
ok@@ 1443
Man@@ 1434
195@@ 1419
Ge@@ 1418
ume 1409
accoun@@ 1409
know@@ 1401
$ 1399
trav@@ 1395
govern@@ 1386
fun@@ 1385
We@@ 1385
prob@@ 1383
anci@@ 1379
itude 1357
Her@@ 1353
Sep@@ 1350
ba@@ 1348
fil@@ 1348
Braz@@ 1343
faith@@ 1340
Mexic@@ 1339
circ@@ 1336
your@@ 1334
eye 1334
thor@@ 1333
mater@@ 1327
suppor@@ 1322
Jan@@ 1322
ne 1318
F 1316
Parad@@ 1312
Su@@ 1311
ada 1308
ys@@ 1306
crib@@ 1301
religi@@ 1291
main 1290
na 1288
Ac@@ 1275
giv@@ 1275
197@@ 1273
ile@@ 1272
ugh@@ 1268
Ca@@ 1265
Australia 1262
uth 1257
AR@@ 1245
of@@ 1243
avo@@ 1239
ody 1236
W 1236
Mas@@ 1230
Fam@@ 1226
contro@@ 1221
ith 1221
tab@@ 1216
import@@ 1213
tar@@ 1209
Vi@@ 1209
·@@ 1209
conduc@@ 1206
bene@@ 1206
Har@@ 1206
ote 1204
ouse 1204
ma 1202
Pe@@ 1198
Do@@ 1198
ra 1194
ew 1194
kab@@ 1193
ndi@@ 1190
ham@@ 1187
situ@@ 1184
The@@ 1182
Mat@@ 1175
deter@@ 1173
ques@@ 1170
v 1170
hig@@ 1165
org@@ 1165
iz@@ 1152
compl@@ 1152
eded 1142
diffic@@ 1138
ta 1137
aul 1134
Na@@ 1131
IS@@ 1131
receiv@@ 1131
é@@ 1122
mu@@ 1116
dom 1115
selves 1106
fol@@ 1102
● 1089
chan@@ 1088
His@@ 1083
bs 1081
wo 1081
temb@@ 1073
Mal@@ 1071
whe@@ 1071
ust@@ 1069
numb@@ 1067
ule 1067
sid@@ 1054
ine@@ 1054
rang@@ 1052
husb@@ 1051
Ba@@ 1047
sion@@ 1043
og@@ 1042
MA@@ 1042
uring 1038
ana 1035
Austr@@ 1034
mbo@@ 1032
Dav@@ 1023
Wal@@ 1022
ught 1021
ially 1017
magaz@@ 1015
Im@@ 1008
memb@@ 1007
AT@@ 1005
wis@@ 1003
eve 998
las@@ 996
Je@@ 986
fund@@ 980
shua 969
hib@@ 959
bad@@ 956
Hal@@ 955
long@@ 952
je@@ 950
ju@@ 950
them@@ 944
ng@@ 942
UN@@ 936
LI@@ 933
knowled@@ 931
Isa@@ 929
mach@@ 916
human@@ 910
ena 909
kid@@ 904
divid@@ 899
fel@@ 897
Mak@@ 892
ana@@ 890
B 887
yes 879
wic@@ 876
telev@@ 875
ende@@ 866
Pet@@ 863
syst@@ 862
ousness 861
du@@ 859
with@@ 858
000 850
Mis@@ 846
Wa@@ 846
reco@@ 844
itud@@ 843
K 831
amin@@ 826
And@@ 825
sa 819
mig@@ 813
J 804
king@@ 781
Af@@ 779
ʹ@@ 779
Hu@@ 778
ita@@ 777
ama 777
Catho@@ 772
ie 769
apo@@ 769
rip@@ 765
rif@@ 763
Hi@@ 759
sma@@ 759
Up@@ 747
ven 747
lik@@ 746
ania 746
uf@@ 746
hit@@ 744
his@@ 744
hal@@ 743
dif@@ 741
hir@@ 737
é 735
wom@@ 725
Soci@@ 720
Mag@@ 719
Ta@@ 714
formation 712
flu@@ 709
Joh@@ 708
ya 701
mes@@ 699
La@@ 697
was@@ 688
U 686
ano@@ 685
© 683
í@@ 682
á@@ 681
ku@@ 677
ina@@ 675
gover@@ 675
P 673
Israeli@@ 671
shu@@ 669
vig@@ 666
eria 666
eo 665
Acc@@ 663
bet@@ 662
som@@ 661
uli@@ 658
nia 654
relation@@ 652
Isra@@ 651
led@@ 647
uti@@ 638
simil@@ 638
ka 633
Mu@@ 631
mn@@ 630
icha@@ 630
ano 627
sage 619
ka@@ 618
vili@@ 609
Whi@@ 604
hap@@ 601
& 601
AM@@ 595
da 594
aro@@ 593
kin@@ 591
– 589
X@@ 586
ease 585
thin@@ 579
hes@@ 564
isi@@ 563
cir@@ 553
lit@@ 552
azi 550
Si@@ 544
sel 544
Bec@@ 540
ishon@@ 539
ft 528
wag@@ 527
erc@@ 525
ife 525
mak@@ 524
God@@ 513
ato@@ 513
atur@@ 512
anda 507
orin@@ 507
contin@@ 504
yo 502
ai 501
Rev@@ 500
ti 494
Tho@@ 485
che 482
ny@@ 478
alo@@ 477
sever@@ 474
ata 474
sug@@ 473
za@@ 467
X 465
bid@@ 465
maz@@ 464
War@@ 463
uz@@ 463
Was@@ 461
ü@@ 448
hum@@ 448
ras@@ 443
vil@@ 442
Rom@@ 441
ki 440
li 440
tum@@ 438
ongo@@ 435
countr@@ 433
atis@@ 431
ara 430
Mi@@ 425
marri@@ 423
kit@@ 421
natur@@ 420
certain@@ 415
lis@@ 413
cc@@ 412
au 410
ye 409
zi@@ 407
sha 402
sab@@ 400
port@@ 400
æ@@ 399
ko@@ 398
ba 398
ha 395
una@@ 394
nit@@ 391
ause 390
haz@@ 389
ro 388
has@@ 388
hat 386
Hab@@ 383
chu@@ 382
aj@@ 372
ders 372
Q@@ 368
q 366
zo@@ 365
oma 361
ida 361
% 359
◆ 359
ʹ 359
° 357
ó@@ 356
kis@@ 355
pi 354
ave 353
cho 353
spit@@ 351
ween 350
tam@@ 349
ainst 343
ko 341
hang@@ 341
mam@@ 340
ã@@ 339
lake 336
wen@@ 335
lia 334
hu 334
pa 334
ua 331
ri 326
za 325
awe 323
lo 321
ona 320
ey 318
aul@@ 315
tower 311
til 310
hi 309
nj@@ 309
IM@@ 306
lleng@@ 302
tak@@ 301
Jes@@ 295
fad@@ 293
ita 291
uro@@ 288
mali@@ 287
hus 284
ii 283
kwa@@ 281
Sol@@ 280
ora 280
hiv@@ 278
ila 273
ht 271
ö@@ 269
Psal@@ 259
laz@@ 254
Ali@@ 254
ya@@ 253
Jerusal@@ 250
sam@@ 247
map@@ 245
uk@@ 244
yan@@ 239
ito@@ 238
Paulo 237
Ki@@ 233
inted 232
ito 230
chi 229
è@@ 229
uma 228
Creat@@ 227
kar@@ 227
blems 225
ala 225
bin@@ 224
gether 224
yes@@ 224
lem 222
ime@@ 221
ga 218
hia 218
jam@@ 213
ñ@@ 213
elation 212
shir@@ 211
di 210
po 207
si 206
ee 206
ji 205
ama@@ 205
ame@@ 203
ari 202
Watch@@ 200
tury 197
hus@@ 196
ira 194
nin@@ 194
ja 193
ini 187
Sin@@ 183
kat@@ 175
bapti@@ 175
dun@@ 174
wa 173
mab@@ 172
Consid@@ 171
arib@@ 168
timi@@ 165
oug@@ 165
vib@@ 164
inda 162
ç@@ 158
mad@@ 155
anz@@ 155
wi 154
Ya@@ 153
hana 152
tang@@ 152
ô@@ 151
ali 149
ä@@ 148
Kat@@ 147
ording 146
hai 146
ao 145
uv@@ 141
leo 140
ú@@ 139
iti 135
ambia 135
ika 133
una 132
ciples 131
urrec@@ 130
kilom@@ 130
zi 130
á 130
ł@@ 130
Timo@@ 129
▫ 129
ani 127
alia 127
iko 126
Z 125
isa 125
ni 124
í 121
ele 121
apo 121
Corinth@@ 117
esa 117
eta 114
Ku@@ 114
bec@@ 114
atia 114
Kit@@ 114
q@@ 113
mbia 113
Maj@@ 113
aka 111
had@@ 111
Yor@@ 110
kim@@ 108
✔ 106
verbs 106
vile 105
mim@@ 104
Ing@@ 104
ongo 103
ando 103
Matthe@@ 102
ati 102
ema 102
Ib@@ 101
ʼ@@ 100
uke 100
ho 100
pole 99
pia 98
kul@@ 97
menti@@ 97
| 97
asa 97
ima 96
ruc@@ 96
ms@@ 96
ople 96
Za@@ 95
Tun@@ 95
Kan@@ 94
j 93
itn@@ 93
uri 92
uj@@ 92
É@@ 89
kee 88
⁠ 88
ji@@ 86
shi 86
.E 86
hili 85
aba 85
zin@@ 84
WA 84
ā@@ 83
oto 82
ande 80
asi 80
ebr@@ 80
hara 78
→ 76
”@@ 75
Á@@ 74
aki 73
ondo@@ 71
yen@@ 71
enda 71
mbo 71
alit@@ 71
mia 70
mala@@ 69
ê@@ 69
nch@@ 68
ḥ@@ 67
oa 67
ë 66
à 64
yat@@ 64
ako 64
ilia 64
eni 63
Wan@@ 63
anat@@ 62
oni 62
espec@@ 61
kut@@ 61
◯ 60
him@@ 60
wana 59
anga 59
hilo 58
ili 58
ku 57
rika 57
uli 56
tu 56
greg@@ 55
aza 55
Israeli 55
kan@@ 55
hud@@ 54
nde@@ 54
ango 54
Q 53
portun@@ 53
wak@@ 53
# 53
atu 52
oro 52
asili@@ 52
ë@@ 52
ú 51
= 51
wam@@ 51
tuli@@ 50
zo 50
amba 50
endo 50
Ay@@ 50
isha 50
kip@@ 50
jer@@ 49
lea 49
aki@@ 49
Jam@@ 49
rote 49
hai@@ 48
awa 48
alin@@ 48
cha 48
Leo 48
lili@@ 47
Ny@@ 47
eli 47
ura@@ 46
ulia 46
tia 46
mi 44
aya 44
ende 43
idi 43
emi 43
ʽ@@ 43
unge@@ 43
righte@@ 42
iga 42
Ö@@ 42
kad@@ 41
kup@@ 41
❑ 41
idia 41
â@@ 40
kud@@ 40
○ 40
eti 40
rece@@ 39
> 39
kia 39
audi 39
+ 39
® 38
Bad@@ 38
↓ 38
exic@@ 38
iri 38
mli@@ 38
eno 37
č@@ 37
maf@@ 37
hut@@ 37
uko 37
anya 36
dha 36
amu 36
kuk@@ 35
£ 35
esha 35
hali@@ 35
ilo 34
vip@@ 34
indi 34
ה@@ 34
anza 34
iki 33
uda 33
Jehov@@ 33
inga 33
י@@ 33
ו@@ 33
mba 33
iso 32
igo 32
je 32
ń@@ 32
ה 32
iya 32
❏ 31
rom 31
habu 31
▸ 30
hek@@ 30
uru 30
ø@@ 30
laya 29
ata@@ 29
ï@@ 29
iki@@ 29
uti 29
← 29
mw@@ 28
kur@@ 28
fu 27
aka@@ 27
ulio 27
Yes@@ 27
Mara 27
̆@@ 27
hub@@ 27
sema 26
‛ 26
Kus@@ 26
kina 26
Math@@ 26
onya 26
eza 26
kas@@ 26
uu 25
emu 25
mara 25
usa 25
iba 25
kam@@ 24
ş@@ 24
uku@@ 24
ū@@ 24
uo 23
iza 23
udi 23
❖ 23
Š@@ 23
ono 23
Biblia 22
ą@@ 22
■ 22
ó 22
ę@@ 22
taf@@ 22
sisi 22
adi 21
ð@@ 21
õ@@ 21
macho 21
aja 21
Una@@ 21
alo 21
kea 21
obo 21
WAN@@ 20
nim@@ 20
nik@@ 20
Í@@ 20
ī 20
ī@@ 20
☞ 20
mbe 20
è 20
š@@ 20
lime@@ 20
⇩ 19
KU@@ 19
kum@@ 19
Kig@@ 19
alip@@ 19
jana 19
Kul@@ 19
‘@@ 19
Kik@@ 18
unda 18
iny@@ 18
mif@@ 18
ä 17
imu 17
inge@@ 17
ogo 17
Ili@@ 17
uha@@ 17
ambo 17
ý@@ 17
⁄@@ 17
ungu@@ 17
Amer@@ 16
− 16
ś@@ 16
↑ 16
ʼ 16
upa 15
Wak@@ 15
kib@@ 15
ifa 15
à@@ 15
yote 15
ndo@@ 15
dha@@ 15
ł 15
muda 15
ï 15
ž@@ 15
bu 15
zia 14
ă@@ 14
Tuli@@ 14
hali 14
Ł@@ 14
É 14
å@@ 14
uta 14
gund@@ 14
ubu 13
aye 13
acho@@ 13
mu 13
ã 13
ume@@ 13
kun@@ 13
toa 13
izo 13
lang@@ 13
teg@@ 13
Musa 13
unza 13
ē@@ 13
abu 12
Ina@@ 12
ö 12
unga 12
isha@@ 12
▿ 12
▵ 12
yak@@ 12
Ó@@ 12
endele@@ 12
Ã@@ 12
isi 11
enga 11
ehov@@ 11
tari 11
š 11
umu 11
udu 11
ø 11
uni 11
ß@@ 11
uko@@ 11
aha 11
Ż@@ 11
fano 11
wang@@ 11
kus@@ 11
ange@@ 11
eshi 11
Nd@@ 11
acha 11
kuz@@ 10
ā 10
Å 10
ehova 10
onge@@ 10
ý 10
ngu@@ 10
hari 10
◇ 10
Ä@@ 10
▶ 10
umo 10
Ü@@ 10
zee 10
î@@ 10
amba@@ 10
sana 9
⇨ 9
ugu 9
thi 9
kali 9
uka 9
ghu@@ 9
uwe@@ 9
iwa 9
ŏ@@ 9
asili 9
eso 9
Ž@@ 9
yali@@ 9
pewa 9
chea 8
ezi 8
Î@@ 8
mg@@ 8
uku 8
ivu 8
kif@@ 8
ò 8
ishi 8
wanyama 8
ē 8
hao 8
vy@@ 8
Waf@@ 8
aa 8
uzi 8
jiji 7
shamb@@ 7
hif@@ 7
akam@@ 7
mama 7
umba 7
oja 7
chache 7
Ḥ@@ 7
ㅇ 7
embe 7
Ś@@ 7
usi 7
keb@@ 7
gari 7
imi 7
.K 7
eka 7
@ 7
― 7
Å@@ 7
iku 6
uju@@ 6
ayo 6
č 6
ō 6
kik@@ 6
ingia 6
dini 6
Mn@@ 6
mik@@ 6
kub@@ 6
umbe 6
ü 6
ǒ 6
kana 6
ľ@@ 6
wenzi 6
hiki 6
̩@@ 6
⁠@@ 6
aina 6
dai 6
azim@@ 6
ě@@ 6
Hilo 6
ㅅ 6
Č@@ 6
esi 6
:@@ 6
¡ 6
uki@@ 6
ň 6
ufu 6
ù 6
€ 6
ō@@ 6
peke 5
Yehova 5
nini 5
ㅁ 5
yari 5
sala 5
Kup@@ 5
wala 5
æ 5
Ç@@ 5
\ 5
aji@@ 5
uka@@ 5
bora 5
Æ@@ 5
kale 5
ş 5
ř@@ 5
avu 5
apata 5
ㄱ 5
mt@@ 5
Á 5
ʺ 5
kula 5
NW 5
⁄ 5
ε@@ 5
himu 5
ż@@ 5
wap@@ 5
ι@@ 5
aji 4
uta@@ 4
aje 4
Ú@@ 4
hii 4
itu 4
izi 4
kua 4
Ô@@ 4
ungu 4
Kuna 4
ū 4
™ 4
È@@ 4
zile 4
ㅗ 4
sik@@ 4
moto 4
etu 4
­ 4
itia 4
shwa 4
uji@@ 4
tuba 4
ć 4
ㅏ 4
▾ 4
ẹ@@ 4
נ@@ 4
פ@@ 4
ש@@ 4
ׁ 4
iani 4
ς 4
azo@@ 4
ν@@ 4
σ@@ 4
Yak@@ 4
å 3
chag@@ 3
Ndi@@ 3
Bwana 3
usha 3
kaz@@ 3
Mwa@@ 3
û@@ 3
¿ 3
Timothe@@ 3
namo 3
Ş@@ 3
wali@@ 3
hwa 3
а@@ 3
в@@ 3
kuru 3
ő@@ 3
wazi 3
× 3
Ñ@@ 3
ė 3
ń 3
zea 3
zili@@ 3
mz@@ 3
π 3
hiwa 3
Luka 3
angu 3
haki 3
hizo 3
­@@ 3
oko@@ 3
ㄴ 3
ţ@@ 3
uliza 3
ṣ@@ 3
familia 3
kuv@@ 3
ㅣ 3
Ō@@ 3
ḍ@@ 3
Ø@@ 3
ἰ@@ 3
chini 3
➤ 3
ı@@ 3
ĕ@@ 3
kutia 3
ß 3
hasa 3
ν 3
γ@@ 3
toka 3
vif@@ 3
vu 3
̇@@ 3
κ@@ 3
¥ 3
apat@@ 3
ň@@ 3
΄ 3
ω 3
uza 3
umu@@ 2
ungo 2
Ē@@ 2
hadi 2
Ni 2
aliy@@ 2
Soma 2
hika 2
himi@@ 2
hani 2
ithi 2
kuja 2
ǔ 2
п@@ 2
р@@ 2
и@@ 2
н@@ 2
ereza 2
vya 2
÷ 2
pita 2
̧@@ 2
Ona 2
mio@@ 2
raeli 2
⇧ 2
μ 2
kazi 2
hawa@@ 2
ataka 2
opa 2
uwe 2
evu 2
י 2
ㄹ 2
ẹ 2
ò@@ 2
ì 2
œ@@ 2
ṭ@@ 2
poti 2
ď@@ 2
ŭ@@ 2
ㅡ 2
ㅓ 2
ž 2
amani 2
risto 2
kuj@@ 2
À 2
yana@@ 2
Í 2
Baba 2
Â@@ 2
μ@@ 2
mav@@ 2
π@@ 2
wani 2
Ω 2
iliana 2
bali 2
₦ 2
enzi 2
ύ@@ 2
ο@@ 2
ְ@@ 2
ֹ 2
sura 2
ώ@@ 2
̗@@ 2
umani 2
lote 2
huru 2
hiyo 2
Uli@@ 2
Ṭ@@ 2
uia 2
laka 2
azo 2
ȧ@@ 2
› 2
‐ 2
ʽ 2
mno 2
Kut@@ 2
umia 2
Na 2
usal@@ 2
mali 2
WANA 2
afu 1
unapo@@ 1
ekani 1
abab@@ 1
ㅎ 1
wanza 1
ḥ 1
pata 1
hutu@@ 1
ifu 1
tii 1
-@@ 1
kuli@@ 1
Ą@@ 1
hada 1
Б@@ 1
ж@@ 1
ю 1
м 1
є@@ 1
м@@ 1
о 1
о@@ 1
е@@ 1
с@@ 1
т@@ 1
и 1
х@@ 1
і@@ 1
д@@ 1
і 1
hizi 1
ô 1
ọ@@ 1
đ@@ 1
fany@@ 1
È 1
Ń@@ 1
ㅕ 1
historia 1
소 1
Waz@@ 1
ibu 1
nje 1
kuna 1
Mwana 1
awala 1
mji 1
sita 1
hapa 1
Weng@@ 1
Ë@@ 1
사@@ 1
랑 1
ק@@ 1
ל@@ 1
ד 1
ishwa 1
Ọ@@ 1
ọ 1
ㅌ 1
zote 1
sawa 1
kumb@@ 1
yako 1
ansa 1
< 1
ㅜ 1
ì@@ 1
ㅔ 1
ť@@ 1
Wali@@ 1
mbi 1
ź 1
roho 1
awali 1
ǒ@@ 1
mambo 1
ă 1
kitu 1
kidogo 1
Kama 1
상 1
liki 1
tuku@@ 1
ingi 1
ś 1
weng@@ 1
zoni 1
ambao 1
ㅑ 1
yule 1
ṇ@@ 1
α 1
ᾶ@@ 1
ό@@ 1
υ 1
א 1
목 1
Kwa 1
hawa 1
ć@@ 1
Ä 1
enye 1
Ε@@ 1
Υ@@ 1
Ρ@@ 1
isho 1
̆ 1
Č 1
Κ@@ 1
ρ@@ 1
☒ 1
dawa 1
Ndiyo 1
곰 1
gani 1
tuna@@ 1
Bila 1
penda 1
ㄷ 1
ɔ@@ 1
iria 1
wale 1
mbili 1
huwa 1
Mwan@@ 1
ẓ@@ 1
„ 1
ㅋ 1
ㅂ 1
ê 1
mip@@ 1
ㅊ 1
Ø 1
â 1
Ẹ@@ 1
shang@@ 1
wao 1
zani 1
ů@@ 1
teza 1
inyi 1
omba 1
ė@@ 1
mk@@ 1
toto 1
chwa 1
ukio 1
hemu 1
ά@@ 1
δ@@ 1
α@@ 1
λ@@ 1
ָ@@ 1
ֹ@@ 1
wasi@@ 1
Petro 1
mv@@ 1
mwan@@ 1
ㅠ 1
Ê@@ 1
ə@@ 1
kumu 1
utia 1
ő 1
said@@ 1
ů 1
ㅛ 1
ㅍ 1
⇦ 1
tatu 1
huri 1
kwa 1
jia 1
akini 1
Ō 1
hata 1
ㅈ 1
▴ 1
Ò 1
vita 1
dada 1
yale 1
wango 1
Δ 1
Α 1
τ@@ 1
huz@@ 1
û 1
yao 1
