. 84376
na 76235
, 69718
nĩ 55006
wa 45554
- 25337
: 20733
ũrĩa 16897
inĩ 16634
? 15780
Jehova 14535
atĩ 14230
o 13807
ya 13702
ma 12831
andũ 12804
“ 12449
” 12252
ũndũ 12020
Ngai 11705
a 10898
ũcio 10750
no 10000
Nĩ 9082
arĩa 9077
maũndũ 8976
cia 8187
ta 7984
) 7906
( 7850
mũno 7221
— 7113
Jesu 6309
ũhoro 5971
Bibilia 5949
mũndũ 5863
ũguo 5828
thĩinĩ 5786
O 5715
rĩa 5696
kana 5570
ũũ 5372
harĩ 5316
marĩa 5294
witũ 5178
‘ 5161
’ 5147
kũrĩ 4857
rĩrĩa 4829
atĩa 4827
njĩra 4778
mbere 4714
nĩguo 4673
kĩa 4526
thĩ 4318
wake 4138
1 4049
No 3912
wĩra 3850
; 3731
rĩ 3670
ngoro 3558
arĩ 3514
iria 3372
hĩndĩ 3339
marĩ 3339
ũmwe 3321
Ithe 3248
ĩrĩa 3224
ĩyo 3151
gĩa 3046
bata 2873
angĩ 2700
Hihi 2647
​ 2617
2 2607
ũrĩ 2607
tene 2602
gũkorũo 2498
hamwe 2463
wega 2458
kuuma 2375
tondũ 2329
aarĩ 2316
hinya 2301
mĩaka 2280
kĩrĩa 2273
igũrũ 2268
ihinda 2255
Akristiano 2204
makĩria 2197
3 2156
macio 2114
gwĩka 2093
kĩũngano 2025
aingĩ 2021
Paulo 2005
tũrĩ 1981
thutha 1933
Ningĩ 1922
nd@@ 1920
! 1910
kĩĩroho 1909
icio 1902
ma@@ 1898
biũ 1878
gũtuĩka 1875
mũnene 1874
rĩu 1861
oigire 1859
mwega 1849
famĩlĩ 1819
ci@@ 1799
ngerekano 1799
4 1790
mahinda 1770
wĩtĩkio 1769
wao 1759
5 1742
kwa 1740
ũtũũro 1715
ũrĩkũ 1710
wĩgiĩ 1707
Na 1691
ciothe 1672
wendo 1661
nake 1658
indo 1652
Ũthamaki 1647
Rĩrĩa 1644
ake 1641
6 1634
rwa 1632
ti 1613
acio 1606
ũ@@ 1596
15 1590
ciana 1582
Andũ 1572
Thoma 1562
nginya 1562
aga 1558
Ũndũ 1546
warĩ 1530
maarĩ 1492
othe 1488
ariũ 1476
roho 1465
12 1438
11 1434
Thutha 1430
Kristo 1429
mũtumia 1428
ũngĩ 1425
maingĩ 1422
ar@@ 1416
mar@@ 1408
wothe 1399
10 1393
7 1387
ciugo 1380
nyingĩ 1379
gĩkeno 1378
8 1378
mũhaka 1363
kĩĩ 1363
kũrĩa 1362
ũtungata 1344
yothe 1342
mũ@@ 1341
a@@ 1340
muoyo 1338
kĩu 1329
tũ@@ 1325
mwaka 1319
ũr@@ 1309
Kwa 1309
nĩwe 1307
mothe 1302
gũkũ 1302
bũrũri 1297
9 1292
amwe 1264
mat@@ 1261
nao 1259
14 1250
we 1248
waku 1240
kũhunjia 1234
kuona 1219
Aira 1215
Shaitani 1210
kũmenya 1197
ciake 1197
13 1197
yake 1194
mũthenya 1190
17 1189
wakwa 1180
ĩmwe 1179
A@@ 1174
nganja 1168
gũthiĩ 1127
maitũ 1123
rĩmwe 1122
y@@ 1119
kĩ@@ 1115
ag@@ 1113
at@@ 1110
ĩ@@ 1107
nyũmba 1094
ak@@ 1090
16 1083
akĩ@@ 1081
irio 1072
angĩ@@ 1067
it@@ 1061
ĩte 1061
marĩkũ 1057
e@@ 1056
Kiugo 1055
ũyũ 1038
nĩ@@ 1014
18 1012
mũthuri 1002
b 1000
Kwoguo 997
irĩ 993
hihi 986
rĩ@@ 985
Ta 982
mak@@ 977
ha 964
kũ@@ 962
wa@@ 955
M@@ 954
mathĩna 953
Daudi 947
ĩrĩ 945
e 944
angĩkorũo 942
itua 937
ir@@ 935
ĩra 935
ka 934
tu 932
ire 930
kuuga 920
ciao 917
hakuhĩ 916
rĩĩtwa 916
ũũgĩ 915
njega 913
ũk@@ 911
muoroto 911
athuri 909
ithuĩ 906
gĩcunjĩ 904
arutwo 890
nĩkĩ 888
ng@@ 882
kũgerera 882
ũtaaro 881
mangĩ@@ 881
20 881
kũndũ 876
Thaburi 874
19 873
maya 872
Tondũ 870
kĩyo 870
me@@ 862
make 853
Ũ@@ 847
ũngĩ@@ 846
T@@ 845
ndungata 842
thayũ 840
rĩngĩ 838
twagĩrĩirũo 829
Hĩndĩ 827
ingĩ 827
Aisiraeli 825
Thab 822
ĩndĩ 818
ndini 817
naguo 816
megiĩ 811
handũ 811
matarĩ 810
mag@@ 809
mehia 807
Maandĩko 804
Maũndũ 802
niĩ 797
mega 797
Nĩguo 794
kuonania 792
ũmũthĩ 788
] 787
kũhũthĩra 787
wo 786
[ 786
kwĩruta 784
aciari 782
agia 780
wendi 777
makĩ@@ 773
ibuku 773
w@@ 765
rĩrĩ 764
kĩhiko 761
ĩr@@ 757
kũu 756
K@@ 756
tw@@ 754
ũhoti 753
kũruta 751
mangĩ 750
kwaga 749
kĩndũ 744
meciria 744
ngumo 739
21 739
nda@@ 738
Hatarĩ 736
24 735
aar@@ 734
kuo 732
wĩcirie 722
22 722
mao 719
itũ 719
agwo 717
maguta 714
kĩonereria 713
ũũru 711
age 707
mbaara 706
ig@@ 701
makoragwo 700
Mũndũ 696
Ũrĩa 694
mwĩrĩ 693
kũgĩa 692
akorũo 691
Angĩkorũo 689
ik@@ 687
tũr@@ 687
Ĩndĩ 686
ana 686
ĩrĩkũ 684
ĩk@@ 684
Petero 684
gĩtĩo 684
ĩre 680
Mũthamaki 680
onaga 678
ndĩ 678
Iburahimu 673
Musa 671
githĩ 670
gũkĩra 670
agĩra 669
ia 669
ehokeku 665
gĩ@@ 664
moru 661
mũrũ 661
kũhoteke 656
rũthiomi 654
ngatho 654
nene 653
tha 651
mahoya 650
ĩtwo 647
irie 646
ũteithio 642
kĩnene 641
ningĩ 640
kuumana 639
mwene 635
mwana 633
23 632
ĩt@@ 630
ie 626
/ 625
yugaga 624
Gĩkristiano 622
mabuku 622
mũtheru 621
gĩkuũ 620
mati@@ 617
Johana 616
Mũrũ 613
ĩno 613
gũtirĩ 611
ciũria 610
watho 609
an@@ 609
Makĩria 609
am@@ 608
gĩake 607
ũtarĩ 601
moimĩrĩro 600
gũteithia 600
gũikara 597
G@@ 593
i 592
ũrata 591
ũt@@ 589
kũr@@ 589
irũo 587
kaingĩ 586
kĩhooto 585
ath@@ 585
mweke 584
ah@@ 584
Kĩambĩrĩria 582
mawoni 581
kũringana 581
ngũrani 577
aa@@ 576
mbica 574
mĩcemanio 573
h@@ 572
Ma 567
Ũhoro 566
citũ 565
ũg@@ 564
Nĩkĩ 561
eerire 561
nj@@ 560
Arĩa 560
mbeca 559
matukũ 557
thĩna 556
namo 556
Thim 556
mwanya 554
r@@ 551
R@@ 551
rĩake 550
gĩkĩ 550
er@@ 548
ĩka 547
gũtũũra 546
Isiraeli 540
i@@ 539
yao 538
tũk@@ 538
mĩingĩ 538
maa@@ 537
Mathayo 535
I@@ 535
matua 535
mũhũthũ 533
Ayahudi 532
onanirie 532
kĩĩrĩgĩrĩro 532
gũ@@ 531
mũciĩ 531
W@@ 530
io 530
Thĩinĩ 528
Mwathani 523
kĩheo 521
25 521
* 520
aandĩkire 519
ngĩ@@ 519
maheeni 518
o@@ 518
kĩrĩ 517
ici 517
Mũkristiano 515
ao 514
gwĩciria 513
gũtua 510
irĩkũ 506
Jusufu 505
Nd@@ 504
mũingĩ 503
Rora 503
aitĩrĩrie 502
arata 501
mbaru 501
ĩngĩ 500
gũtungatĩra 499
karine 499
ĩrũo 498
Adamu 497
kanini 496
ũtongoria 493
kĩĩmwĩrĩ 492
wee 491
kwaria 491
k@@ 490
noguo 488
hingo 485
aat@@ 484
28 484
maita 484
endaga 483
u@@ 477
wĩ 476
math@@ 476
ũthathaiya 476
ndĩ@@ 475
gũt@@ 474
mũtũmwo 474
ania 472
ũna 470
kĩega 470
Isaia 469
maar@@ 466
yarĩ 466
ny@@ 465
itũũra 464
mabũrũri 464
Kĩam 464
Jerusalemu 463
kũm@@ 462
gatagatĩ 461
ngombo 460
kwarĩ 459
mabataro 458
war@@ 457
kwoguo 457
ona 456
kĩr@@ 456
twa@@ 456
atumia 453
mwerekera 450
Ma@@ 449
gĩt@@ 448
ethĩ 448
taũni 447
rĩgiĩ 447
ciĩko 447
Mũ@@ 446
agĩ@@ 446
nacio 445
th@@ 445
thirikari 445
E@@ 443
ũm@@ 443
30 443
era 442
wĩhokeku 441
mũr@@ 439
tũngĩ@@ 438
gũk@@ 438
27 438
akoragwo 436
mamwe 435
irathimo 433
g@@ 433
mahĩtia 432
to 431
mwarĩ 431
N@@ 430
ĩtie 430
mũritũ 429
magerio 428
gĩk@@ 428
gũtaũkĩrũo 427
ũkorũo 426
ũthingu 421
ingĩ@@ 420
mũthamaki 420
Nuhu 418
kĩambĩrĩria 417
H@@ 417
ora 417
arũmĩrĩri 416
onire 414
ga 413
Ĩ 413
maat@@ 412
wĩyathi 411
ũgwati 411
Oigire 409
agĩrĩirũo 409
ndũmĩrĩri 407
gũthoma 406
endete 404
wĩtagwo 402
ĩire 402
ũth@@ 401
wone 400
ĩ 400
ithe 398
ithondeka 397
ahunjia 397
ũkĩ@@ 397
31 397
ith@@ 396
Watho 396
Handũ 396
tũt@@ 395
ũkoragwo 395
ac@@ 395
ĩkaga 394
ek@@ 393
Mwaka 393
29 392
imwe 391
ngathĩti 390
hau 389
ihenya 389
c@@ 389
yaku 387
kĩmwe 386
eekire 386
agĩrĩria 385
tũkorũo 384
m@@ 384
aam@@ 383
erĩ 383
eka 383
Jakubu 382
kũrũmĩrĩra 382
26 382
u 382
ũrũmwe 381
mĩtugo 380
moritũ 379
nyamũ 379
kũhingia 379
ndũrĩrĩ 379
anaga 378
getha 375
mah@@ 374
or@@ 374
ũ 374
agio 372
igongona 371
maitho 371
ur@@ 371
aag@@ 369
kĩeha 366
wĩ@@ 366
ete 366
mawĩra 365
maĩ 364
33 364
Ayubu 364
Mũtũmwo 362
ũira 362
karatathi 362
mo@@ 362
gwĩkĩra 360
kũhoya 360
wĩnyihia 360
kerĩ 359
Roma 359
in@@ 358
Isa 358
nyina 358
makorũo 358
mĩthiĩre 357
maritũ 356
ene 355
aath@@ 354
Mahinda 353
gũth@@ 353
mwena 352
Timotheo 352
kwenda 352
ng’ondu 351
Twagĩrĩirũo 350
agĩria 349
32 348
mũũru 347
ĩria 347
mũtũũrĩre 345
Rĩu 345
cukuru 345
nayo 344
Ũguo 344
njerũ 344
Rekei 343
ũnene 343
rũrĩrĩ 343
mw@@ 343
mũico 342
merirĩria 342
yakwa 341
NYĨMBO 341
Thimo 341
• 341
tũkĩ@@ 339
kahinda 339
mũna 338
athiĩ 337
ciũngano 337
anagia 335
ĩrĩra 333
maath@@ 332
onania 331
atĩrĩ 331
Danieli 330
igĩrĩ 330
mĩ@@ 330
Nake 330
harĩa 330
wathani 329
ũũra 329
gĩtũmaga 329
akiuga 328
wat@@ 328
rũu 327
gĩtũmi 327
ũh@@ 327
mwĩhokeku 327
kũh@@ 326
magĩrĩirũo 326
Gũtirĩ 326
kĩũria 324
marũa 323
ruo 323
Mĩaka 323
Mat 323
en@@ 322
ũmĩrĩru 322
kiugo 321
njũru 321
Gĩcunjĩ 321
tũhote 321
ũrathi 321
ũra 321
magĩ@@ 320
gũkua 320
ndaarĩ 320
O@@ 319
Hawa 319
itemi 318
maku 318
Ciugo 318
Misiri 318
hanini 318
Thĩ 317
eendaga 317
Kuuma 315
ũgeni 315
ing@@ 314
atũmwo 313
wanyu 313
agĩt@@ 312
akwa 312
ani 312
ũria 311
Mbere 311
ane 311
ithimi 311
mĩario 309
oigaga 308
gwa 308
ega 308
rungu 308
gũtũma 308
hekarũ 306
ciaku 306
eke 305
Ĩ@@ 305
Tũrĩ 303
ũtugi 303
34 303
macokio 303
aria 301
aka@@ 301
ũtaũku 300
rora 300
agĩrũo 300
ũka 300
ũthamaki 300
gwĩthema 300
ere 299
milioni 298
thũ 298
morutani 298
uta 297
ikuhĩ 297
painia 296
Ihinda 295
tuone 295
ĩrĩirie 293
Aroma 293
ĩrĩire 293
amũr@@ 293
37 293
kũmũ@@ 292
ũrĩ@@ 292
araika 292
ũkuruhanu 291
atongoria 291
t@@ 291
nawe 290
akĩr@@ 290
ang@@ 289
hatarĩ 289
mũgũnda 289
amũ@@ 289
he 288
motaaro 288
Kũrĩ 287
Kũguũrĩrio 287
kw@@ 287
ikinya 287
mĩnyamaro 286
akar@@ 286
ĩg@@ 285
inyuĩ 285
wabici 285
Mũcukani 285
rũ@@ 284
kũririkana 284
ũng@@ 284
gĩatũmire 283
mĩtangĩko 283
kwerekera 283
agĩrĩra 282
ĩrĩria 282
kĩao 281
kwĩ@@ 281
ambĩrĩria 279
rũrĩa 279
Mũnene 279
ciarĩ 279
thiomi 279
monanagia 278
ũritũ 278
gwĩkenia 278
ũrutani 278
akũrũ 278
kũrigĩrĩria 278
nĩo 278
aahũthĩrire 278
agĩrĩire 278
wonanagia 277
aamenyaga 277
kĩbungo 276
arĩ@@ 276
tu@@ 276
nakĩo 275
Kũringana 275
40 275
kũna 275
Tũngĩ@@ 274
Betheli 274
Luka 274
Y@@ 274
twĩ@@ 274
maag@@ 274
Mũthenya 273
kũhiũrania 272
wetagwo 272
B@@ 272
moigaga 272
ikũmi 272
ya@@ 271
mũnabii 271
mũth@@ 270
tũkoragwo 270
wagĩrĩire 270
ĩrĩte 269
and@@ 269
kũigua 269
anĩra 268
kanitha 268
Mũthuri 267
▪ 266
nguo 266
kũiga 266
ica 266
ira 265
ithia 265
Suleimani 265
mũrata 265
ũmenyo 265
ai 264
ekaga 264
tũti@@ 263
amu 263
magegania 263
tũg@@ 263
mũt@@ 263
C@@ 263
gĩothe 262
Akorintho 262
onanagia 262
ũũma 261
n@@ 261
mũk@@ 261
ga@@ 260
gwathĩkĩra 260
mwĩcirĩrie 260
mũbango 260
kĩrĩkũ 260
tũrabatara 259
mapainia 258
gũtungata 258
monaga 258
Athuri 258
ĩngĩ@@ 258
gũkũria 258
kũnyita 258
Mũũmbi 258
ciar@@ 256
Ithenya 256
Kĩ@@ 256
ara 256
mb@@ 256
thakame 255
kĩarĩ 255
U@@ 255
tiga 254
Nyũmba 254
atu@@ 254
mũtabarĩre 254
ua 253
agĩre 253
anĩte 253
35 253
akoretwo 253
gũtũ@@ 253
Atũmwo 252
eg@@ 252
ĩkĩ@@ 252
akinyanĩru 252
eh@@ 252
nĩrĩo 251
Aciari 251
S@@ 251
Ibuku 251
ĩkoragwo 251
goro 251
mũthia 251
Kũ@@ 250
yonanagia 250
Nda@@ 250
A 249
ũtũmaga 249
kĩrĩndĩ 248
wath@@ 248
oĩ 248
Babuloni 247
manene 247
gĩkundi 247
ũkũũri 247
mũgwanja 247
igana 246
wagĩrĩirũo 245
merĩ 245
nĩyo 245
inya 245
moko 245
Amerika 244
Kor 244
mũkaana 243
mĩoroto 241
New 241
gwĩcũrania 241
ndi@@ 240
gwĩtĩkĩra 240
mek@@ 240
Wendo 240
ahũthagĩra 239
ndarĩ 239
gũcaria 239
ũmĩrĩra 239
kũhe 239
iga 239
Jeremia 239
ikoragwo 238
ĩraga 238
waganu 238
ku@@ 237
I 237
ina 237
ciĩranĩro 237
maandĩko 237
guothe 237
ĩke 236
magĩrĩire 236
guoya 236
om@@ 236
rĩandĩko 235
Mesia 234
ũĩ 234
nde@@ 234
rekei 234
kũniina 234
makwa 234
ho 234
gũtu@@ 234
mũh@@ 234
Joh 233
Sam 233
maciaro 233
aambĩrĩirie 233
hoya 233
ĩrĩrio 233
ĩrĩrie 233
ĩrie 232
itarĩ 232
mwaki 231
one 231
wag@@ 231
Rĩmwe 231
KARATATHI 231
ũtukũ 230
wiki 230
ĩa 230
gĩcigo 230
oigĩte 230
ngomanio 229
cio 229
kĩngĩ 229
agie 229
kĩama 228
Aarĩ 228
ndĩr@@ 227
tũm@@ 227
aitũ 227
Harĩ 227
Ũngĩ@@ 227
b@@ 227
mĩeke 226
anie 226
kar@@ 226
twar@@ 226
ĩkĩra 225
thiĩ 224
wendete 224
mogarũrũku 224
aah@@ 223
ithuothe 223
mũrũmu 223
any@@ 223
atuĩke 223
Njĩra 222
ĩo 222
nja 222
kũg@@ 221
twarĩrĩrie 221
aacokire 220
Ti 220
njera 220
Mũira 219
kabere 219
ngai 218
Muoroto 218
Wee 218
arũme 218
atarĩ 218
mũrimũ 217
mbeũ 217
Tham 216
mũrango 216
aga@@ 216
kĩĩranĩro 216
ka@@ 216
Nĩkĩo 216
icunjĩ 216
Ahibirania 215
Roho 214
ĩrio 214
gũkirĩrĩria 214
Atĩa 213
riri 213
Sara 213
ok@@ 213
ũo 212
mwĩhoko 212
ũma 212
D@@ 212
watũmire 212
Mũriũ 212
igu@@ 211
rũhonge 211
kĩrĩkanĩro 211
ithatũ 211
ũgitĩri 210
Wĩra 210
L@@ 210
mũtĩ 209
ũgarũrũku 208
marakara 208
igua 208
ih@@ 208
Kĩririkano 208
makoretwo 207
Ũcio 207
thamiri 207
aka 207
magĩe 207
ĩkĩte 207
anire 206
nĩkĩo 206
ũraga 206
kũbatithio 206
ngiri 206
eria 206
mũkinyanĩru 205
The 205
gũtooria 205
mahote 205
ũkirĩrĩria 205
inene 205
man@@ 204
gũcokia 204
aathire 204
ekire 203
Witũ 203
kwambĩrĩria 203
kuoya 203
mawatho 203
mĩhĩtũku 202
Kĩrĩa 202
Ĩĩ 202
gwĩtĩkia 202
Mũrangĩri 202
thigari 201
Amwe 201
Kaingĩ 201
mathaa 201
tũthiĩ 201
marĩ@@ 201
mũg@@ 201
Gũkorũo 200
gwaka 200
me 200
kwagĩrĩire 200
Igũrũ 199
ũtonga 199
kwĩrutanĩria 199
kĩũmbe 199
Mwarĩ 199
Rom 199
itũmi 198
kũheana 198
guoko 198
mweri 198
ha@@ 198
Arutwo 198
NA 197
ab@@ 197
iny@@ 197
ũre 197
rĩarĩ 196
Ndĩ 196
oraga 195
the 195
Ar@@ 195
oneka 195
on@@ 195
et@@ 195
ndũire 195
mwerũ 194
erio 194
mũciari 194
rĩt@@ 194
ũire 193
Ci@@ 193
hota 193
ĩrĩirũo 193
ahote 192
thoma 192
igai 192
ndangĩ@@ 192
mendete 192
amb@@ 191
atuĩka 191
kũheo 190
tũrĩ@@ 190
enda 190
riugaga 190
gũkoragwo 190
ciitũ 190
maka@@ 190
erũo 190
Bũrũri 189
mathiĩ 189
wak@@ 189
maigana 189
agĩcoka 189
Mariamu 189
matatũ 189
Mũtumia 189
ũkombo 188
angĩk@@ 188
gitũ 188
kahora 187
1914 187
ey@@ 187
ĩrire 187
Ũmũthĩ 187
aamũ@@ 186
ciĩgiĩ 186
ikĩ@@ 185
iraya 185
metĩkĩtie 185
kwĩhoka 185
cionanagia 185
tũgĩe 185
matuĩke 184
aaheire 184
gĩthomo 184
magũrũ 184
twa 184
ũgima 184
kau 183
makinya 183
gũthondeka 183
mwandĩki 183
ikar@@ 182
mer@@ 182
Elija 182
kũngĩ@@ 182
kũrũa 181
Ahib 181
gũc@@ 181
Atũm 181
Ath 181
mĩthemba 180
gũtiga 180
ndaimono 179
38 179
ĩirie 179
Kĩhibirania 179
ikara 179
aakuire 179
mũnini 179
Kana 178
tha@@ 178
baba 178
ĩrĩre 178
anio 178
kiumia 178
matig@@ 178
tũtiagĩrĩirũo 178
heo 177
rũgano 177
acok@@ 177
ũga@@ 177
wayo 177
mũirĩtu 177
yo@@ 176
mũthingi 176
mĩeri 176
mbũtũ 176
gat@@ 176
ithagia 176
gũtũũria 176
hũthĩra 176
KA 176
ũa 175
Tũ@@ 175
mahikanĩtie 175
kwaranĩria 175
gwake 175
gũthuthuria 175
gũthikĩrĩria 175
ndar@@ 175
ndaigana 175
Ng@@ 175
mĩerekera 174
athĩnjĩri 174
twĩke 174
45 174
of 174
kĩgomano 174
Kũr@@ 173
mokĩte 173
ũka@@ 173
maambĩrĩirie 173
ic@@ 173
aiguaga 173
utaga 172
mĩega 172
ho@@ 172
Reke 170
mũthemba 170
ithio 170
rĩrĩkũ 170
Saulu 170
wara 170
ũngĩhota 170
WA 170
etwo 170
Kũgerera 170
Cukuru 170
mũthiũrũrũko 170
ũũmbi 170
akĩambĩrĩria 170
meny@@ 169
acoka 169
arar@@ 169
athamaki 169
anĩtie 169
Niĩ 169
Nĩ@@ 169
agĩk@@ 169
ũtheri 168
mũkũrũ 168
Arĩ 168
mũgate 168
im@@ 167
ikaraga 167
Ak@@ 167
mamũ@@ 167
itiganĩte 167
iguaga 166
mwĩthĩ 166
njĩhokeku 166
athingu 166
thoni 165
Akĩ@@ 165
ib@@ 165
kwao 165
mac@@ 165
athathaiya 165
41 165
kĩngĩ@@ 165
ita 164
korũo 164
ũragia 164
mũraika 164
oka 164
ĩtio 164
agĩe 164
hũũra 163
kũnyitanĩra 163
akinya 163
eithia 163
Maũ 163
Kĩngiriki 163
twendete 163
anj@@ 163
anagĩra 162
kwĩgirĩrĩria 162
ĩruta 162
rĩk@@ 162
Joshua 162
Matukũ 162
rĩera 162
iri 161
oni 161
riũa 161
paradiso 161
kĩrũmĩrĩire 161
wan@@ 161
kũhunjĩria 161
maabataraga 161
ereire 161
irikana 161
tũngĩhota 161
magĩt@@ 161
ĩtarĩ 160
Ngĩ@@ 160
ĩkire 160
Wĩtĩkio 160
wĩk@@ 160
wende 160
maga@@ 160
ndag@@ 160
ndaar@@ 160
kwĩgerekania 160
gũtaarĩria 160
mami 160
akĩmwĩra 159
Nj@@ 159
Gũcok 159
we@@ 159
mu@@ 159
ithie 158
rĩaku 158
atig@@ 158
ameny@@ 158
eer@@ 158
Ũtũũro 158
aarĩria 158
ndawa 158
athire 158
GA 158
ĩirũo 158
oya 158
eri 157
kũngĩ 157
ũhinya 157
atũheete 157
Kĩama 157
ũũr@@ 157
mũhaano 157
ũguni 156
mwanake 156
aarutire 156
maikaraga 156
Firauni 156
thimũ 156
ndwarĩ 155
maah@@ 155
Luk 155
erera 155
araga 155
nda 155
Gũ@@ 154
akua 154
oririe 154
kũhikania 154
ũngĩkorũo 154
Githĩ 154
P@@ 154
um@@ 154
thikũ 153
ũkĩte 153
36 153
Pet 153
gwĩtigĩra 152
mĩũru 152
aku 152
Mat@@ 152
kĩongo 152
Mbaara 152
makĩr@@ 152
Agĩcoka 152
eragia 152
akĩaria 152
Paradiso 151
ũtu@@ 151
ũmenyeru 151
hoyaga 151
Ũtungata 151
Jer 151
kwĩr@@ 151
muonere 151
ũke 151
atũma 151
Gĩ@@ 151
mũrori 151
Ririkana 151
tũgĩ@@ 150
gũtũteithia 150
gũkũra 150
airĩtu 150
Korũo 150
– 150
Famĩlĩ 150
Koh 150
Ngũrani 150
ũndũire 150
nũ 150
ehe 150
sayansi 150
yagĩrĩire 149
s@@ 149
kũnyua 149
tũhũ 149
matiganĩte 149
Mar@@ 149
are 149
ĩigana 148
mũgambo 148
kwĩyũria 148
menya 148
Ngeretha 148
rũgendo 148
end@@ 148
gũtũmaga 148
Juda 148
Tene 148
tig@@ 148
mũrĩ 148
nĩkuo 148
eendete 147
hwaĩ 147
iitũ 147
tũngĩĩruta 147
toro 146
Samueli 146
nĩmo 146
INĨ 146
mone 146
magongona 146
gũtongoria 146
Angĩ 146
kwa@@ 146
ĩro 146
kũingĩra 146
hotaga 146
amenya 145
Edeni 145
wĩruti 145
matariĩ 145
gũcoka 145
ndibei 145
ciakwa 145
akiny@@ 145
arĩk@@ 144
John 144
ĩkagĩra 144
mũtwe 144
kũrora 144
kwĩ 144
Ariũ 144
mũtugo 143
nyĩmbo 143
Gwĩka 143
Wa 143
Hinya 143
ambĩrĩirie 143
ĩrĩ@@ 143
Kũg 142
kũrutana 142
:⁠ 142
mĩciĩ 142
hĩt@@ 142
onia 142
ũmũndũ 141
ĩĩrĩ 141
he@@ 141
gũthingata 140
1@@ 140
mĩrimũ 140
NĨ 140
Maathani 140
inini 140
ĩri 140
44 140
50 140
IA 140
tuonaga 140
ug@@ 139
Wĩ@@ 139
ũtũme 139
atũ@@ 139
ithirĩro 139
matũũra 139
cionereria 139
anĩire 138
ũrũo 138
rĩothe 138
ehia 138
ndaa@@ 138
anene 138
Mĩ@@ 138
ũrĩra 138
’@@ 138
—⁠ 138
Alawii 138
ũmagĩrĩra 138
agĩthiĩ 138
Tim 138
makar@@ 138
ara@@ 138
anirie 137
ind@@ 137
erire 137
biacara 137
nini 137
gw@@ 137
nowe 137
yar@@ 137
mũhari 137
atũr@@ 137
eni 137
anĩria 137
ndat@@ 136
rĩũkĩte 136
eire 136
makuĩte 136
ithenya 136
kwĩima 136
un@@ 136
gũti@@ 136
gũtũme 136
atariĩ 136
acokire 135
aac@@ 135
Nao 135
gĩth@@ 135
agai 135
ate@@ 135
aaririe 134
kũhinga 134
J@@ 134
marabatara 134
kũ 134
cigana 134
Rĩandĩko 134
mũriũ 133
mũhunjia 133
ĩh@@ 133
mahũthagĩra 133
ingĩra 133
agĩrĩrio 133
aabataraga 133
wĩkindĩru 133
ngari 133
Ciana 132
onagia 132
aũkĩrũo 132
amenyaga 132
43 132
Aingĩ 131
onekaga 131
ombire 131
rũa 131
2@@ 131
39 131
igweta 131
okire 131
aku@@ 130
tũbataraga 130
gũteithĩrĩria 130
ũnga 130
moimĩte 130
mate@@ 130
mor@@ 130
ũrie 130
in 130
Mbica 130
angĩt@@ 130
akĩhũthĩra 130
cia@@ 130
aaragia 130
gu@@ 129
ũc@@ 129
hiũrania 129
ateithia 129
mataarĩ 129
cianyu 129
gĩkĩro 129
enj@@ 129
meekire 129
metĩk@@ 129
42 129
gĩaku 128
matiarĩ 128
mĩbango 128
ciũmbe 128
ut@@ 128
rũũru 128
Tw@@ 128
ũũraga 128
rĩagĩrĩire 127
itherũ 127
tũth@@ 127
wĩtĩk@@ 126
the@@ 126
historĩ 126
matingĩ@@ 126
ithirie 126
World 126
athomi 126
Gũcokerithia 126
Injiri 126
ano 126
kũũmĩrĩria 126
ũcamba 126
BIBILIA 125
ũhote 125
agat@@ 125
kĩngĩtũma 125
mamenye 125
ugaga 125
erie 125
Taarĩria 125
gwathana 125
thiritũ 125
hũthũ 125
meke 125
ĩĩhokekete 125
ũngĩk@@ 125
ũteithia 125
ũũre 124
hote 124
uo 124
tũtarĩ 124
ihooru 124
z@@ 124
eciragia 124
ũkaga 124
aamenyire 124
rĩao 124
iheo 124
maathire 124
rũciaro 124
ũronania 124
F@@ 124
wo@@ 123
rĩr@@ 123
nĩgetha 123
arĩrĩria 123
em@@ 123
ritũ 123
ũmbũyagia 123
aaheanire 123
acoke 123
mũthuriwe 123
har@@ 123
kũrũmbũiya 123
ageni 123
magaakorũo 123
ũkoretwo 123
matũũre 123
cok@@ 123
MA@@ 123
ũtariĩ 123
Ndi@@ 123
magĩthiĩ 122
ũkũ@@ 122
mekaga 122
aagwetire 122
aaiguire 122
ũtũ@@ 122
oragwo 122
Gĩtongoragia 122
mũtongoria 122
iuga 122
erere 122
nĩcio 122
ũrutaga 121
maagĩrĩirũo 121
mũtu@@ 121
kĩingĩ 121
wonaga 121
U 121
Marĩ 121
igaga 121
Njĩrĩmani 121
ũremi 121
ngaari 121
Hezekia 121
cir@@ 121
ĩtwĩraga 121
hing@@ 121
tũkwarĩrĩria 121
twage 120
Bible 120
ĩrĩirio 120
ine 120
ĩrĩrũo 120
Kwahoteka 120
akam@@ 120
ee@@ 120
thenema 120
gũkinyĩra 119
thigara 119
ithania 119
tũkũbatara 119
2013 119
nyita 119
anĩtio 119
ĩgiĩ 119
ungatĩra 119
aan@@ 119
Hari 119
moĩ 119
ũra@@ 119
angĩahotire 119
atheru 118
ngũ@@ 118
cira 118
mangĩkorũo 118
tũtirĩ 118
gĩkĩ@@ 118
Kohelethu 118
mata@@ 118
atatũ 118
gath@@ 118
ge@@ 118
anyu 118
Rĩ@@ 118
njiarũa 118
19@@ 118
wetereri 118
anĩrie 118
At@@ 118
tũngĩka 117
irĩma 117
Isaaka 117
oiga 117
ũrag@@ 117
Gĩthũngũ 117
uaga 117
ũthiĩ 117
Thama 117
riita 117
Ayub 117
ũgĩ@@ 117
Magedoni 117
agĩa 117
Asa 116
iti@@ 116
ore 116
eithagia 116
meer@@ 116
Kũna 116
eruta 116
mũrutwo 116
mũru 116
mwĩ@@ 116
abataraga 115
gwitũ 115
mangĩk@@ 115
j@@ 115
eciria 115
ura 115
oria 115
mũthutũkanio 115
anĩre 115
iĩ 115
oh@@ 115
twarĩ 115
ŨR@@ 115
ima 115
tio 115
ũgĩe 115
ũkũrũ 115
enagia 115
abatara 114
kwandĩka 114
atua 114
ihoya 114
matũmaga 114
akũr@@ 114
mĩhari 114
ũgwetetwo 114
iritũ 114
Aca 114
Ezekieli 114
Kahinda 114
kaana 114
aganu 113
mara@@ 113
onete 113
mwagĩrĩru 113
heaga 113
mwĩyendo 113
ũthuthuria 113
theru 113
athĩni 113
ĩtatũ 113
ciama 113
agath@@ 112
kweheria 112
Mwega 112
ũhinga 112
aragia 112
kĩerũ 112
onokia 112
gũka 112
taguo 112
tũngĩkorũo 112
65 112
athima 112
waguo 112
arenda 111
agĩtuĩka 111
kũma@@ 111
ngĩambĩrĩria 111
kwĩhokeka 111
ama 111
hinga 111
KĨ@@ 111
ndak@@ 111
V@@ 111
tuuge 111
athiaga 111
ĩrutanaga 111
kĩonanagia 111
ũteti 111
hunjagia 110
ĩkorũo 110
angĩka 110
AT@@ 110
amba 110
wacio 110
hunj@@ 110
ũtuĩke 110
Mariko 110
Kũmenya 110
tiguo 110
maan@@ 110
orũo 109
MA 109
an 109
njata 109
maam@@ 109
Elisha 109
ei 109
ũhing@@ 109
werũ 109
Ngoro 109
Aefeso 109
irĩrĩria 109
Ũtaaro 109
ahinga 109
kũgitĩra 109
gĩũteti 109
ũtig@@ 109
kũmenyeria 109
gũikaraga 108
acemania 108
marĩĩtwa 108
ahe@@ 108
gũkenera 108
kwahoteka 108
kar 108
rĩakwa 108
100 108
oru 108
kĩrathimo 108
Ag@@ 108
kwĩrorera 108
meendaga 108
ama@@ 108
kĩhumo 108
barabara 108
amar@@ 108
magwetetwo 107
iũkio 107
Oigaga 107
tũnini 107
2012 107
Intaneti 107
kũgeria 107
mahe@@ 107
yo 107
tũratũũra 107
arag@@ 107
iguĩte 107
Mwene 107
Ũrathi 107
marutaga 107
makaariũkio 106
rũcinĩ 106
gatatũ 106
kwĩra 106
ti@@ 106
mohoro 106
ũngĩt@@ 106
tũĩ 106
gũkinyanĩra 106
kũhũũra 106
oro 106
many@@ 106
ari 106
ũmeny@@ 106
matu@@ 106
ereria 105
mahiga 105
Ĩrutanaga 105
ĩkia 105
Ngerekano 105
ĨK@@ 105
igan@@ 105
aatũmire 105
icigo 105
yanyu 105
ndeereti 105
aya 105
karĩa 105
hatirĩ 105
kũmũr@@ 105
etĩkĩtie 105
ikundi 105
mbarathi 105
etie 104
anagĩria 104
menyaga 104
orire 104
gũthiaga 104
thabina 104
AN@@ 104
mũrĩithi 104
kũriũka 104
cemania 104
y 104
mũthingu 104
anini 104
ũũmĩrĩru 104
60 104
ndũrĩ 104
ĩna 104
ĩga@@ 103
atũmire 103
Th@@ 103
anga 103
akĩonania 103
MŨ@@ 103
Translation 103
andĩk@@ 103
ki 103
kũrĩ@@ 103
ĩrĩtwo 103
ĩtaga 102
magat@@ 102
maakoragwo 102
Inyuĩ 102
mathiaga 102
ongoragia 102
kĩngĩtũteithia 102
igire 102
arut@@ 102
njeshi 102
narĩo 102
gwat@@ 102
Ef 102
njũĩ 102
46 102
enia 102
gũthuura 102
hema 102
eeh@@ 102
gũthathaiya 102
aagĩire 102
Afrika 101
Kĩĩranĩro 101
us 101
ahing@@ 101
Mwandĩki 101
mĩrongo 101
hũthagĩra 101
maamũ@@ 101
Australia 101
wagi 101
aarathĩte 101
ihiga 101
agĩrĩre 101
kinyi 101
Al@@ 101
AG@@ 101
tũtig@@ 101
gũci@@ 101
nyit@@ 100
oimire 100
ateithagia 100
mwĩtĩo 100
aamwĩrire 100
ĩirio 100
akuũ 100
meri 100
kũrehe 100
Mag@@ 100
ana@@ 100
mũcemanio 100
coka 100
eli 100
rwake 100
twath@@ 100
kĩoneki 100
on 100
twĩrute 100
tũmenye 100
ambĩrĩrie 99
twĩiguĩte 99
uk@@ 99
agĩrĩrũo 99
NG@@ 99
aahũthagĩra 99
igomano 99
mwĩhĩtwa 99
raiya 99
55 99
akĩmũ@@ 99
kwarĩrĩria 99
mangĩt@@ 99
Faranja 99
Ku@@ 99
aarutaga 98
ndũngĩ@@ 98
Iria 98
Enoku 98
Ũr@@ 98
magakorũo 98
hi@@ 98
hunjĩria 98
ĩtu@@ 98
maathiaga 98
Ndar 98
aaiguaga 98
akue 98
akenaga 98
ndũk@@ 98
makĩambĩrĩria 98
Tũngĩĩruta 98
Judasi 98
Dan 98
mey@@ 98
Gatoreki 98
kũgĩe 97
kĩar@@ 97
mĩhothi 97
kũregana 97
ongorie 97
ironania 97
Tũt@@ 97
wam@@ 97
atũheaga 97
ndigwa 97
Gũkinyĩria 97
70 97
morathi 97
kũny@@ 97
mĩhaka 97
tũmũ@@ 96
M.M 96
maathani 96
amishonarĩ 96
ũmbũiya 96
wĩhia 96
Ithuothe 96
ũgam@@ 96
ũngĩka 96
atuĩkire 96
arute 96
rĩo 96
aak@@ 96
athira 96
icanjama 96
onie 96
Gũt@@ 96
Afilipi 96
Kĩonereria 96
l@@ 95
aacemanirie 95
tũgĩt@@ 95
kuonanagia 95
ehera 95
KŨ@@ 95
akenagio 95
Mw@@ 95
gwĩthuurĩra 95
ahĩt@@ 95
ũmenye 95
kwar@@ 95
tuonanagia 95
kũraihu 95
gũtarĩ 95
erek@@ 94
Mũr@@ 94
ũtaarĩ 94
Ũ 94
njũgĩ 94
reke 94
umĩte 94
is@@ 94
gwetha 94
naĩ 94
kũigana 94
oma 94
matirĩ 94
Akĩaria 94
ũkuona 94
agar@@ 94
anda 94
ũrũ 94
kũrũngwo 93
hũth@@ 93
wĩtĩkĩtie 93
Gũkĩrĩ 93
gũtũteithie 93
aamerire 93
aahoire 93
Ezek 93
ateith@@ 93
ereirũo 93
mĩĩrĩ 93
gũcemania 93
gweterera 93
Gũk@@ 93
Baba 93
gũcenjia 92
ũrire 92
ahingia 92
macok@@ 92
mbũri 92
ende 92
eti 92
giitũ 92
ŨRĨA 92
aandĩkĩire 92
ingata 92
etĩkĩrire 92
ũgamĩrĩire 92
ng’aragu 92
mee@@ 92
ĩĩ 92
48 92
agacoka 92
aaragĩria 92
atwar@@ 92
eetĩkĩrire 92
mangĩtũma 92
aarĩirie 92
mang@@ 91
ri@@ 91
Tũti@@ 91
ong@@ 91
endire 91
kuohanĩra 91
guo 91
gũceerera 91
kwĩrira 91
tũga@@ 91
eng@@ 91
kũreka 91
inwo 91
aũr@@ 91
anage 91
ũtharia 91
hith@@ 91
magĩk@@ 91
Twa@@ 91
and 91
Z@@ 91
kũraya 91
gũtĩa 91
ĩĩte 90
onirie 90
mũteithia 90
ririkana 90
etagwo 90
Rĩĩtwa 90
merutanagĩria 90
aine 90
gũtũhe 90
ndo@@ 90
egire 90
ngano 90
mabataraga 90
gũthira 90
akorirũo 90
hikania 90
gũkenia 90
mũtego 90
irĩte 90
agĩire 90
Macokio 90
arĩithi 90
Icunjĩ 90
kĩene 90
eekaga 90
gũtigana 90
119 90
wamo 90
orete 89
ũrĩo 89
gũgũteithia 89
ciath@@ 89
ogĩ 89
erũ 89
thi@@ 89
narua 89
angĩhota 89
itagĩra 89
Gĩtũmi 89
wĩy@@ 89
tuona 89
tũka@@ 89
Ngathĩti 89
ũrĩte 89
itagĩrĩire 89
TH@@ 89
Ũt@@ 89
oretwo 89
akenera 89
gũtongorio 89
geria 89
haarĩria 89
Naguo 89
irikanaga 89
arutaga 89
aagĩrĩirũo 89
gũkuhĩrĩria 89
mameny@@ 89
gwĩt@@ 89
ũmũ@@ 89
ahũthĩra 89
wĩke 89
ĩtĩkĩra 88
mbura 88
maithori 88
maaikaraga 88
Tũngĩonania 88
Ahabu 88
ingithanio 88
aira 88
gĩtĩ 88
ahota 88
omb@@ 88
mendaga 88
kũrega 88
maamũr@@ 88
eithĩtie 88
kwĩmenyerera 88
ekĩte 88
meek@@ 88
njohi 88
ĩtĩk@@ 88
atuire 88
ahũth@@ 88
kĩhĩtahĩtano 88
ũũria 88
nga@@ 88
ũtũteithagia 88
agĩrie 88
kũhonokia 88
manini 88
oimĩte 87
Athomi 87
kũina 87
ue 87
etereire 87
arutani 87
akĩra 87
hu@@ 87
ũcayanĩri 87
Zekaria 87
gwĩk@@ 87
Mak@@ 87
York 87
mangĩhota 87
Holy 87
ũrabatara 87
Pasaka 87
angĩa@@ 87
eririe 87
ndonire 87
v@@ 86
ambire 86
tũthomaga 86
ũheaga 86
gũku@@ 86
ongoria 86
kĩrathi 86
atũteithie 86
onanĩtie 86
kũũr@@ 86
Mahoya 86
gũtigĩrĩra 86
4@@ 86
ER@@ 86
Mũhari 86
erete 86
ũngĩtũma 86
igooti 86
mbia 86
ĩtano 86
ni 86
wendaga 86
ũku@@ 86
ũhonokio 86
ARĨ 86
mũhikanĩtie 85
2011 85
tharĩkĩro 85
arori 85
meciragia 85
kwĩy@@ 85
wendani 85
etha 85
kũnj@@ 85
akĩona 85
mũigana 85
ungata 85
kũrũnga 85
aatarĩirie 85
maak@@ 85
aatuĩkire 85
rĩega 85
gar@@ 85
Hingo 85
kũmũtungatĩra 85
agima 84
Ũrĩ 84
Gileadi 84
riitho 84
Nũ 84
ahingie 84
ũhe 84
haana 84
Nehemia 84
kĩĩ@@ 84
oyaga 84
makĩhũthĩra 84
kũga@@ 84
rũg@@ 84
ateithirie 84
ũmĩrĩria 84
gwĩ@@ 84
NGOTHI 84
matik@@ 84
ituĩro 84
anyih@@ 84
marathiĩ 84
YA 84
mũgima 84
mũc@@ 84
gũteithagia 84
gũciarũo 84
wek@@ 84
Paul 83
uuge 83
18@@ 83
rũmena 83
gũthũkia 83
gũtaũra 83
kũgarũrĩra 83
gĩatũmaga 83
Maitũ 83
AR@@ 83
ongorio 83
gĩkorũo 83
mon@@ 83
mbĩrĩra 83
gũga@@ 83
ndig@@ 83
mũũgĩ 83
ng’ano 83
tũkenaga 83
ikarire 83
mũthithũ 83
mũnyinyi 83
ciĩ@@ 83
hatĩka 83
nuthu 83
Aa@@ 82
uĩka 82
Athamaki 82
gũkũũrana 82
twat@@ 82
Habili 82
Ica 82
ĩtũteithagia 82
igue 82
Kaĩ 82
ĨR@@ 82
nakuo 82
ũpainia 82
unĩka 82
ekĩra 82
arat@@ 82
eranĩire 82
iy@@ 82
gĩĩko 81
rũmwe 81
ũrigitani 81
ũmagĩrĩria 81
gwĩkĩrũo 81
iguire 81
ageria 81
mahing@@ 81
ini 81
kanua 81
mooru 81
ain@@ 81
igĩte 81
Jak 81
tũu 81
rwao 81
Mnara 81
kairĩtu 81
hitho 81
ongoragio 81
aakoretwo 81
matũme 81
abu 81
kũngĩkorũo 81
twĩk@@ 81
thiaga 81
ingĩr@@ 81
anya 81
agĩrio 81
Rũraya 81
igĩtwo 81
orera 80
uur@@ 80
irikanagia 80
iragĩria 80
thamak@@ 80
Mlinzi 80
kũũraga 80
rĩna 80
atan@@ 80
Kĩyahudi 80
kĩg@@ 80
Moimĩrĩro 80
nguhĩ 80
aaheirũo 80
ũhe@@ 80
ĩaga 80
rũngĩ 80
tũtingĩhota 80
og@@ 80
ĩth@@ 80
uĩte 80
rangi 80
ũigananĩru 80
igĩire 80
Tũngĩka 79
Wothe 79
gaakorũo 79
kĩhonia 79
tinĩnja 79
ite 79
ANDŨ 79
athikĩrĩria 79
ũgĩt@@ 79
eeciragia 79
anabii 79
ĩtagwo 79
ingĩrire 79
U.S 79
uria 79
omaga 79
Gũth@@ 79
heire 79
ũte@@ 79
id@@ 79
riugĩte 79
thamĩra 79
ndendaga 79
Indo 79
etĩkĩra 79
eek@@ 79
matungataga 79
ũri 79
ũiguaga 78
enyihia 78
Mwĩ@@ 78
gĩaga 78
ngĩt@@ 78
cit@@ 78
ikagĩrĩria 78
thathayagia 78
karĩ 78
mĩtĩ 78
Ũmwe 78
atũhe 78
Ndũkan@@ 78
Wĩcirie 78
amw@@ 78
Kĩr@@ 78
Mika 78
rũgongo 78
mũgarũ 78
arabatara 78
inga 78
tũthuthurie 77
tũh@@ 77
Korintho 77
Gwĩcũrania 77
te 77
utire 77
ĩc@@ 77
3@@ 77
Mabũrũri 77
mahaana 77
tũũr@@ 77
kũrutwo 77
gwĩkaga 77
ũtangĩ@@ 77
ndagĩtarĩ 77
ĩtuĩke 77
kũng@@ 77
An@@ 77
Ũngĩka 77
gĩc@@ 77
kĩrĩma 77
thuthuria 77
kũbanga 77
aakoragwo 77
twĩyũrie 76
omete 76
ihooto 76
Ndungata 76
anyit@@ 76
ũĩkaine 76
t 76
amat@@ 76
erutanĩria 76
rũũri 76
mĩhianano 76
ũgaakorũo 76
aateithirie 76
mĩgũnda 76
tũrĩa 76
ũkagia 76
anĩrio 76
Wega 76
iganĩrũo 76
Nde@@ 76
matagĩrĩire 76
ĩkĩre 76
tie 76
MW@@ 76
kũgũra 76
marat@@ 76
rĩngĩ@@ 76
ũteithie 76
Kĩũngano 75
nder@@ 75
wĩr@@ 75
thahabu 75
ongerera 75
kahĩĩ 75
tũngĩhũthĩra 75
menye 75
ondek@@ 75
ndũg@@ 75
oire 75
mũhuro 75
aatu@@ 75
wĩkĩra 75
matha@@ 75
Jefitha 75
maiguaga 75
merute 75
ũmb@@ 75
tũng@@ 75
kũriũkio 75
ika 75
mĩr@@ 75
ĩng@@ 75
atwendete 75
humb@@ 75
ikorũo 75
kwĩyamũrĩra 75
aandĩk@@ 75
mothamaki 75
gwath@@ 75
kũingĩ 75
aikari 75
aririe 74
hoe 74
Mor@@ 74
mĩt@@ 74
maroka 74
kamwe 74
kũmĩ@@ 74
anyita 74
JEHOVA 74
hunjia 74
igerio 74
Maita 74
twende 74
mage 74
gũkinyĩria 74
ndeto 74
han@@ 74
ũngĩr@@ 74
moim@@ 74
iki 74
51 74
met@@ 74
wamũ@@ 74
cokia 74
kwamba 74
meekaga 73
kũmar@@ 73
erĩgagĩrĩra 73
akaar@@ 73
mũthĩnjĩri 73
bilioni 73
kũmateithia 73
ũhooreri 73
ũririe 73
wĩkagĩra 73
ohera 73
Ir@@ 73
twĩtheme 73
akenagĩra 73
ateithie 73
thaa 73
kenda 73
ciumia 73
Afil 73
kĩanyu 73
ũn@@ 73
ingĩhota 73
aacok@@ 73
hik@@ 73
kũgegania 73
gũtekũmakania 73
Marĩa 73
ũngĩtũteithia 73
nyendete 73
nginyanĩru 73
hat@@ 73
eerutire 73
yat@@ 73
ũrar@@ 73
twe@@ 73
kĩo 73
twĩrutanĩrie 73
bataraga 72
utagia 72
njiguaga 72
kompiuta 72
mũthigari 72
utĩte 72
aatuire 72
Alaw 72
ũhiki 72
matir@@ 72
haha 72
atũũra 72
ungatĩire 72
ec@@ 72
aahotire 72
ati@@ 72
ne@@ 72
Mati@@ 72
kũniinwo 72
akĩh@@ 72
mangĩahotire 72
aũkagĩrũo 72
atha 72
ũhĩt@@ 72
hoire 72
macemanagia 72
go@@ 72
kilomita 72
eng’@@ 72
al@@ 72
heete 72
Kĩrĩma 72
hoteka 72
iũkia 71
mĩhĩrĩga 71
Julaĩ 71
ngenaga 71
uga 71
ako 71
ũngĩenda 71
mayo 71
Ũthathaiya 71
Tũngĩhota 71
monete 71
Tu@@ 71
Esau 71
Ũk@@ 71
kwĩyendera 71
hi 71
ũiguano 71
aheaga 71
Ngumo 71
ĩkiny@@ 71
con@@ 71
abatithirio 71
maroho 71
twĩ 71
onanie 71
kũrera 71
Japan 71
yath@@ 71
aataarĩirie 71
hot@@ 71
wer@@ 71
maaragia 71
mĩoyo 71
wĩkaga 71
jw.org 71
ndirĩ 71
iũk@@ 71
batara 71
ũmaga 71
kũgweta 71
ithĩtio 71
ũru 71
ehire 71
manyu 71
kwĩhumba 71
maacokire 70
Nĩwe 70
agire 70
ro 70
ata 70
koragwo 70
Josh 70
kũrakara 70
ũiru 70
matikoragwo 70
rita 70
Mũno 70
KUUMA 70
Lazaro 70
matheru 70
mĩkaana 70
eki 70
endi 70
Kĩĩmandĩko 70
umaga 70
kĩĩmbeca 70
Brazil 70
rĩtarĩ 70
riitũ 70
ũkia 70
ũmĩrĩire 70
Ciũria 70
oke 70
imũ 70
gũkĩ@@ 70
twarĩrĩria 70
Ũtatũ 70
wĩyũrie 70
twendaga 70
iai 70
enagĩra 70
kiumanaga 70
aken@@ 70
amũk@@ 70
wend@@ 70
mũrũaru 70
Ĩpuro 70
Thiĩ 70
ũhaana 69
eera 69
oima 69
igĩ@@ 69
kuonia 69
ecũrania 69
emwo 69
marenda 69
Rahabu 69
kwĩrutĩra 69
cierĩ 69
mogwati 69
Mũt@@ 69
nyama 69
utia 69
ũnd@@ 69
hotete 69
Aat@@ 69
ikĩrĩria 69
eretie 69
tũkĩr@@ 69
tũngĩt@@ 69
aru 69
ob@@ 68
amenye 68
el@@ 68
aheete 68
twag@@ 68
ũhũthũ 68
Ona 68
cu@@ 68
maatũũraga 68
Ny@@ 68
irikania 68
wona 68
en 68
ciagĩrĩire 68
Mami 68
as@@ 68
ũteithagia 68
uru 68
CI@@ 68
ithagio 68
magĩtuĩka 68
ĩtandatũ 68
iragĩrĩria 68
nduma 68
maronania 68
manyit@@ 68
Kwĩruta 68
ũny@@ 68
kũmũteithia 68
Heana 68
atũm@@ 68
gwaku 68
maahũthagĩra 68
Gĩk@@ 68
Ruthu 68
ithĩtie 68
aarĩrie 68
Akolosai 68
twĩcirie 68
kũgirĩrĩria 68
ndeendaga 68
ehaga 68
ciria 67
tũreruta 67
uma 67
enera 67
kũnd@@ 67
ũthĩni 67
Drama 67
ndũgũ 67
ũkararia 67
cingĩ@@ 67
ngoragwo 67
ũkũgwetetwo 67
ehaarĩirie 67
haan@@ 67
ato@@ 67
gĩkoragwo 67
Gal 67
Judea 67
itũmaga 67
aamũr@@ 67
er 67
nyinyi 67
gũtũteithagia 67
kamwana 67
kĩrũrũngano 67
maakuire 67
mũgeni 67
wenda 67
gũtwarithia 67
ngucanio 67
mĩhang’o 67
hoor@@ 67
ikarĩte 67
twana 67
Ndũrĩrĩ 67
WĨ@@ 67
andĩke 67
eheire 67
athuthuria 67
ĩrĩtie 67
itĩra 67
agĩrĩrie 67
utĩtwo 67
aigue 67
wombire 67
wekĩkire 67
OR@@ 67
akuire 66
kũũria 66
E 66
Irio 66
onokio 66
kaũndũ 66
ondeka 66
mũrigo 66
IR@@ 66
ithamĩrio 66
angĩr@@ 66
anĩri 66
cemanagia 66
mamb@@ 66
athũk@@ 66
oim@@ 66
macini 66
arathimaga 66
SW 66
kambĩ 66
andĩki 66
ariĩ 66
ota 66
ahotire 66
twacemania 66
ome 66
Mo@@ 66
Mũtheru 66
Kĩndũ 66
We 66
gathandũkũ 66
ĩka@@ 66
mwĩnyihia 66
athi 66
amũrĩire 66
Septemba 66
aameny@@ 66
Ithuĩ 66
ndonaga 66
oe 66
Gĩkũyũ 66
nyoni 66
kuu@@ 66
mĩk@@ 66
aire 66
Ũũgĩ 66
magana 65
Mũnabii 65
atũmirũo 65
mana 65
HO@@ 65
ungumania 65
wakĩo 65
Warĩ 65
Kamĩtĩ 65
oririo 65
car@@ 65
andĩkirũo 65
niina 65
eith@@ 65
gũthamĩra 65
ĩgĩ@@ 65
ario 65
oko 65
rũnene 65
moonanirie 65
irire 65
Gĩkeno 65
Kol 65
nyonaga 65
akinyire 65
ũthiaga 65
umanaga 65
il@@ 65
maac@@ 65
gũtiarĩ 65
naruo 65
Rũgano 65
rũhiũ 65
kũhota 65
Wathani 65
kũngĩhoteka 64
son 64
ũhũth@@ 64
mĩthenya 64
as 64
iraihu 64
uona 64
gĩti@@ 64
ndũ@@ 64
iraga 64
arũmbũyagia 64
thu@@ 64
ĩkĩtie 64
AGA 64
gũkena 64
ul@@ 64
Tũkĩ@@ 64
Waku 64
tũtũũre 64
ũrat@@ 64
ute 64
ekĩrire 64
matangĩ@@ 64
no@@ 64
ũkĩra 64
uumĩte 64
Ndini 64
magath@@ 64
tũtaũkĩrũo 64
Maritha 64
abatarire 64
eekĩrire 64
ngat@@ 64
andĩka 64
mateithie 64
ũhoreri 64
gũkinya 64
amĩ@@ 64
utwo 64
kĩarĩrĩirie 64
hotithirie 64
mũmwe 64
meet@@ 64
gũũka 64
k 63
mĩnene 63
kwĩg@@ 63
anĩirũo 63
rĩar@@ 63
ciĩga 63
ũgamagĩrĩra 63
Kĩĩmesia 63
caragia 63
mũcara 63
ndege 63
nyende 63
akĩmeera 63
Watch 63
heana 63
eru 63
akĩgeria 63
oige 63
anagio 63
5@@ 63
tũc@@ 63
Gĩkuũ 63
Hwaĩ 63
Mũrata 63
ongereire 63
gwathĩka 63
ihũth@@ 63
mend@@ 63
kiugaga 63
Awa 63
hiũranagia 63
gũkoma 63
Neh 63
ciat@@ 63
kũũmba 63
arutire 63
ũmenya 63
haarĩirie 63
NGAI 63
Loti 63
ũrathiĩ 63
eretio 63
ekwo 63
tuonanie 63
f@@ 63
Russia 63
ŨT@@ 63
atuĩte 63
aara 63
Gu@@ 62
Aacokire 62
rĩũmba 62
kwagĩire 62
ahaana 62
kũrĩkia 62
ungatagĩra 62
abatithio 62
Rebeka 62
tũngĩonania 62
kũũragwo 62
Tower 62
mataũkĩrũo 62
Hana 62
Asia 62
kuongerera 62
mahũth@@ 62
thibitarĩ 62
etĩkagĩra 62
mũrĩ@@ 62
igwo 62
Mũthomi 62
erekera 62
Mathĩna 62
rũheanĩtwo 62
gake 62
wacokire 62
Maarĩ 62
kĩ 62
kĩgiĩ 62
ũrona 62
Kĩrĩkanĩro 62
tũikarage 62
ũrenda 62
nũũ 62
haanaga 62
ng’@@ 62
mũhianano 62
nĩt@@ 62
aguc@@ 62
mũthomi 62
makenagĩra 62
mũtaratara 62
kũrũmia 62
And@@ 61
Ith@@ 61
ĩtũheaga 61
Russell 61
mahe 61
Eerire 61
umb@@ 61
Gatũrũme 61
maigu@@ 61
kũngĩt@@ 61
ũkire 61
agĩaga 61
ondeketwo 61
Atongoria 61
ambĩte 61
kũũrĩra 61
ange 61
aiguire 61
Ka@@ 61
ĩtire 61
yugĩte 61
acĩre 61
ĩrĩgĩrĩra 61
ũgakorũo 61
maarutaga 61
1919 61
mangĩtũteithia 61
agũteithie 61
etĩk@@ 61
akara 61
nĩng@@ 61
ũaga 61
anwo 61
ndaiguaga 61
hunjio 61
kah@@ 61
kũhaarĩria 61
Athesalonike 61
ikĩrĩirie 61
maarut@@ 61
ndingĩ@@ 61
ND@@ 61
angĩenda 61
HIHI 61
Atiir 61
Ingĩ@@ 61
abat@@ 61
c 61
eeyoneire 61
onok@@ 61
g 61
irĩ@@ 60
thamaki 60
taranda 60
ndaat@@ 60
mende 60
aguo 60
mom@@ 60
moimanaga 60
ra@@ 60
Mũtongoria 60
gwĩc@@ 60
MB@@ 60
tigagĩra 60
nyih@@ 60
matungatagĩra 60
ithanagia 60
heetwo 60
tũra@@ 60
ingate 60
wĩyamũrĩri 60
athimwo 60
tũku@@ 60
hutie 60
to@@ 60
aci@@ 60
athoma 60
Ab@@ 60
tũheetwo 60
mũkĩ@@ 60
eerĩte 60
Mar 60
Karine 60
Tweka 60
gwĩtĩkĩrĩka 60
49 60
Ahunjia 60
Tũk@@ 60
kobĩ 60
ĩtig@@ 60
wahota 60
es@@ 60
rĩtagwo 60
Peter 60
ongerereka 60
atek@@ 60
makaar@@ 60
etio 59
aacokirie 59
wĩkĩraga 59
ngĩk@@ 59
utĩra 59
ĩrut@@ 59
thaka 59
p@@ 59
hingia 59
Itua 59
trakti 59
ngĩr@@ 59
won@@ 59
kao 59
ndaathire 59
maanyit@@ 59
athũire 59
ũtũmĩte 59
wathĩki 59
gĩtaũrĩtwo 59
ang’@@ 59
Thirikari 59
broshua 59
ũku 59
gĩateithirie 59
anyaga 59
tũtue 59
acokia 59
itĩre 59
Haruni 59
iragia 59
Ndaarĩ 59
Gũkena 59
ndu@@ 59
500 59
twĩtĩk@@ 59
aro 59
gak@@ 59
ombirũo 59
ĨT@@ 59
mabat@@ 59
Nĩa 58
ũkiny@@ 58
bat@@ 58
riboti 58
gwetete 58
Jonathani 58
agĩtũma 58
Oktomba 58
itũh@@ 58
Kwarĩ 58
tũkuona 58
.@@ 58
kaba 58
Canada 58
woim@@ 58
gwatũmire 58
2014 58
eta 58
kuon@@ 58
Kwĩ@@ 58
go 58
agendi 58
twĩkaga 58
gwĩtĩkĩria 58
atũrũmbũyagia 58
ayo 58
tũcemanagia 58
amenyete 58
iuma 58
arie 58
iko 58
Mũiyũro 58
utĩtie 58
ũkĩrĩte 58
orie 58
gũcokeria 58
akĩruta 58
Ik@@ 58
njano 58
ahũthĩre 58
Amu 58
irĩrĩirie 57
tũgat@@ 57
atũmaga 57
makiuga 57
ĩciria 57
hiũ 57
kũrehaga 57
ũrehaga 57
tũheagwo 57
agĩkua 57
Ath@@ 57
ikio 57
akũra 57
mamũr@@ 57
anĩrĩra 57
rũhuho 57
tũngĩr@@ 57
wĩkĩre 57
hotithia 57
ecirie 57
mona 57
ũũrũo 57
thuura 57
igagwo 57
Nĩgetha 57
ege 57
kĩĩruru 57
matek@@ 57
mũhianĩre 57
inj@@ 57
tũgĩaga 57
maamenyaga 57
oniĩ 57
angĩar@@ 57
ũrĩre 57
eth@@ 57
aruta 57
gũtwarana 57
ambaga 57
wĩhok@@ 57
tũiguaga 57
magathiĩ 57
gũtig@@ 57
aikaraga 57
matiagĩrĩirũo 57
tũkenagĩra 57
mootaro 57
kũrutithania 57
Kũndũ 57
Dicemba 57
iire 57
ũgĩk@@ 57
gwathire 57
ũgĩria 57
acir@@ 57
gĩakwa 57
IN@@ 57
ũtaũri 57
cokeria 57
ũigue 57
Mawoni 56
kuga 56
orere 56
onagwo 56
onekire 56
ngĩona 56
unj@@ 56
maakoretwo 56
hũthĩrũo 56
agaga 56
agĩte 56
monanĩtie 56
ĩkĩire 56
54 56
wor@@ 56
Ndũk@@ 56
cionekaga 56
honge 56
gũg@@ 56
arĩirie 56
matongoragia 56
hoy@@ 56
ũikaraga 56
mawathe 56
ĩtuĩka 56
iũka 56
atũme 56
tũtingĩ@@ 56
her@@ 56
orag@@ 56
akũhe 56
wonekaga 56
kũgarũra 56
aarĩirio 56
el 56
ene@@ 56
mũti@@ 55
tigĩrĩte 55
ongerere 55
Agosti 55
irĩrĩrie 55
uumaga 55
ũũrire 55
gũikarania 55
ũgatũma 55
ikoretwo 55
kũiganĩra 55
aaregire 55
ambagĩrĩria 55
ndũr@@ 55
Mĩĩ 55
mangĩar@@ 55
wĩkĩte 55
arũaru 55
ĩtaaragĩria 55
Amkeni 55
makam@@ 55
gũgaatũũra 55
ũthaka 55
maatu@@ 55
etĩkĩrĩtie 55
hitha 55
magĩcoka 55
eraga 55
arĩte 55
wĩhocetie 55
waambĩrĩirie 55
ohwo 55
ndĩĩ@@ 55
maany@@ 55
7@@ 55
ũhootani 55
ũũrĩte 55
mũthaka 55
matu 55
ũteithirie 55
aageririe 55
6@@ 55
wandĩkĩtwo 55
gaitũ 55
eny@@ 55
ru@@ 55
Wanja 55
ume 54
aũrĩtwo 54
Wabici 54
themaga 54
ithandũkũ 54
gũtha@@ 54
Abisalomu 54
wĩki 54
gĩikaro 54
ũrugarĩ 54
Le@@ 54
tũtir@@ 54
kũrĩha 54
M.M.M 54
ũthi 54
utith@@ 54
Thayũ 54
riika 54
Kwaga 54
gĩat@@ 54
Kiumia 54
Goliathu 54
ũnyit@@ 54
kwĩingĩria 54
oc@@ 54
IG@@ 54
ekereria 54
Hatirĩ 54
mahota 54
utĩire 54
kĩhuhũkanio 54
ihĩtia 54
akuĩte 54
ingĩre 54
ũme 54
rĩonanagia 54
gũtharĩkĩra 54
riuma 54
hocetie 54
ĩronania 54
kũmenyithia 54
kĩna 54
waarĩ 54
ũrũka 54
aamenyete 54
meh@@ 54
Tũtiagĩrĩirũo 54
mĩnini 54
aririkanaga 54
ung@@ 54
hete 54
gũtũr@@ 54
ĩku 54
ĩki 54
makah@@ 53
Kĩu 53
Kaini 53
eharĩirie 53
tũgunĩke 53
tũmenyaga 53
90 53
kaarĩ 53
iyũire 53
Debora 53
twĩtĩkĩtie 53
ahik@@ 53
video 53
wakoragwo 53
tũngĩk@@ 53
caria 53
ndikĩru 53
Kĩhiko 53
wĩrute 53
Wake 53
oragĩra 53
ũtungat@@ 53
kũhũthĩrũo 53
rĩathani 53
kũrutĩra 53
ol@@ 53
uka 53
ũta@@ 53
onanĩtio 53
tũigue 53
K 53
gũcok@@ 53
anĩrĩria 53
ekete 53
moonire 53
itu@@ 53
matit@@ 53
atwĩraga 53
mo 53
gĩtũmĩte 53
kĩĩmeciria 53
ap@@ 53
ĩy@@ 53
watũmaga 53
eherio 53
ngorũo 53
und@@ 53
mĩgate 53
kũũmĩrĩrio 53
ondekaga 53
tũtik@@ 53
maage 53
maci@@ 52
matano 52
Matua 52
meekĩkire 52
wĩrut@@ 52
atind@@ 52
ũranagia 52
s 52
tũrahunjia 52
te@@ 52
tũrĩkoragwo 52
Me@@ 52
kũhũthia 52
mwend@@ 52
gũtindanĩra 52
onwo 52
maiy@@ 52
nyoka 52
woigire 52
ingataga 52
ingĩt@@ 52
Pilato 52
twend@@ 52
anjamũkĩte 52
humbĩte 52
aũrũo 52
magĩaga 52
| 52
aand@@ 52
kwĩigĩra 52
mathako 52
atige 52
men@@ 52
makenaga 52
kĩĩndini 52
waranaga 52
ANA 52
hithĩte 52
ciacio 52
Muoyo 52
ũmĩrĩrie 52
heanaga 52
kũho@@ 52
arĩkia 52
marar@@ 52
ũkoniĩ 52
ũman@@ 52
aathiaga 52
eheria 52
nĩa 52
ingĩk@@ 52
gũteithio 52
kwĩrirĩria 52
Kĩlatini 52
uth@@ 52
hikanĩtie 52
es 52
Maria 52
twan@@ 51
etĩkĩririe 51
rĩkoragwo 51
wey@@ 51
kĩmenyithia 51
ĨRA 51
ahutirie 51
be 51
ekwenda 51
thi 51
maaregire 51
mĩtũkĩ 51
andĩkĩtwo 51
igĩra 51
arĩria 51
eey@@ 51
omĩrĩirie 51
ũtũteithie 51
mĩikarĩre 51
kũmahe 51
Marũa 51
tũcunjĩ 51
Machi 51
wambĩrĩirie 51
ehagĩra 51
maigue 51
Kw@@ 51
ciarũo 51
mamũk@@ 51
wage 51
be@@ 51
Aandĩkire 51
Mũk@@ 51
ũraihu 51
athiire 51
akaga 51
kĩh@@ 51
ĩrirũo 51
tũcoke 51
rũtha 51
amateithirie 51
kũguna 51
Tũngĩkorũo 51
rĩĩtana 51
aangĩ@@ 51
maandĩkirũo 51
Knorr 51
z 51
Agĩ@@ 51
83 51
80 51
Wagĩrĩirũo 51
ũmwo 50
ate 50
rĩti@@ 50
mũtig@@ 50
emeny@@ 50
akĩhoya 50
UR@@ 50
Kerĩ 50
tuonire 50
imaga 50
kũũrũo 50
ciragia 50
Mũbango 50
iĩte 50
Mũrungu 50
monekaga 50
enaga 50
mateithagia 50
tũte@@ 50
icua 50
aki 50
gwatha 50
mwath@@ 50
ira@@ 50
mũhuhu 50
kĩb@@ 50
ataarĩirie 50
gakundi 50
Mexico 50
akeneire 50
TV 50
onagĩra 50
anĩrũo 50
maragia 50
agĩka 50
maacok@@ 50
ũkĩr@@ 50
hotithagia 50
gwĩciragia 50
RĨRĨA 50
Ashuri 50
mangĩka 50
ekererio 50
ĩrutaga 50
irik@@ 50
Makĩ@@ 50
two 50
Malaki 50
mĩako 50
Mũyahudi 50
ay@@ 50
mũitĩrĩrie 50
mĩrango 50
kwamũr@@ 50
thaitha 50
ĩtũmaga 50
gũcaba 50
itheru 50
Macũngĩrĩro 50
tũhũthĩre 50
ingĩkorũo 50
ingĩria 50
ingĩrie 50
ataũkĩrũo 50
wĩre 50
n 50
ciagĩrĩirũo 50
ndagĩka 50
aanj@@ 50
Geria 50
73 50
hia 50
gũteithie 50
ekĩrũo 50
kan@@ 50
maamenyire 50
Mũthia 50
gĩthimi 50
Gĩa 49
ũrimũ 49
akenirio 49
Atumia 49
agĩtua 49
wathe 49
gũceera 49
onokie 49
ngenagĩra 49
ũrĩk@@ 49
gakorũo 49
kũhĩt@@ 49
mekĩte 49
aahe@@ 49
Kar@@ 49
nderutire 49
kũhika 49
Gideoni 49
ite@@ 49
l 49
atũũre 49
gĩcigĩrĩra 49
Bar@@ 49
tũtikan@@ 49
athĩki 49
ũtheru 49
utithania 49
makiny@@ 49
Ũrũmwe 49
WA@@ 49
abĩtwo 49
maatungataga 49
ũrathoma 49
ndambĩrĩirie 49
uri 49
TI@@ 49
Car@@ 49
monanie 49
ũmbire 49
eirie 49
kwanangwo 49
Kĩĩmaandĩko 49
ke@@ 49
atigan@@ 49
Araika 49
yaga 49
imeny@@ 49
Angĩ@@ 49
Mũhuro 49
mĩtũũrĩre 49
amũrĩra 49
mwathi 49
meiguĩte 49
Hamwe 49
Kanitha 49
ĩkoretwo 49
aniinwo 49
irima 49
anu 49
Ndirĩ 49
Kanaani 49
ikĩrĩrie 49
mangĩa@@ 49
mũhiki 49
rĩerũ 49
rũth@@ 49
yetagwo 49
mangĩteithia 48
matunda 48
gĩthũri 48
akĩĩ@@ 48
ithanio 48
gĩturi 48
ũteithĩtie 48
Ũrutani 48
mĩndĩ 48
ũũg@@ 48
irũrũngano 48
tũtu@@ 48
maithe 48
bu 48
ngarari 48
ndakoragwo 48
ndemwa 48
mũrũgamo 48
hiũhaga 48
tũngĩenda 48
wet@@ 48
makĩĩr@@ 48
magatuĩka 48
ero 48
tũhũthagĩra 48
0@@ 48
ũtar@@ 48
ũragwo 48
aakenire 48
gũtwĩkĩra 48
marũrũ 48
thogora 48
ani@@ 48
ahingire 48
maakenire 48
ena 48
atongoretio 48
ngĩthiĩ 48
marĩĩgu 48
ugĩte 48
rĩĩtagwo 48
ũthiũ 48
meyoneire 48
ũkie 48
wĩhokete 48
thũkia 48
aanjĩrire 48
etĩkĩrie 48
tũgĩthiĩ 48
Tũthomaga 48
Mal 48
akenete 48
akĩĩra 48
mwĩhumbĩre 48
akĩhe 48
macoke 48
d@@ 48
gũkũr@@ 48
aana 48
moke 48
oneke 48
ME@@ 48
hunjagĩria 48
arĩt@@ 48
ũgucania 48
hoot@@ 48
aheo 48
ũmĩte 48
kĩhurũko 48
twĩtĩkie 48
wamũr@@ 48
matũũraga 48
mwĩt@@ 48
ũtaana 48
Tũngĩĩgerekania 47
eirũo 47
wĩciragia 47
akĩenda 47
Mwana 47
ũũri 47
ehok@@ 47
Wĩnyihia 47
Kĩyo 47
athĩkĩra 47
gacunjĩ 47
Kũhũthĩra 47
indĩkaga 47
ngar@@ 47
ĩngĩc@@ 47
ahotaga 47
Atiirĩrĩri 47
Njoki 47
mũngĩ@@ 47
ũrania 47
tũnyit@@ 47
angĩekire 47
ĩragia 47
iyũrĩte 47
akah@@ 47
mũhera 47
To 47
aheana 47
TA 47
thathaiya 47
heho 47
maatuĩkire 47
monagwo 47
mahĩndĩ 47
gwĩtĩk@@ 47
oonanirie 47
Ũkristiano 47
aahũth@@ 47
kũgarũrũka 47
is 47
ngwatanĩro 47
ererũo 47
hutia 47
www.jw.org 47
tũtũũrie 47
rwĩmbo 47
af@@ 47
abi 47
wateithirie 47
Tũmenyaga 47
ĩgĩt@@ 47
enjia 47
oimanire 47
Akanaani 47
utanĩtie 47
maagĩte 47
yoigire 47
aahota 47
eragĩra 47
Jehoshafatu 47
thitango 47
Kũh@@ 47
akaya 47
aigua 47
maatũmire 47
Nisani 47
athirire 47
Brian 46
mĩmera 46
ererie 46
Mũth@@ 46
itik@@ 46
le@@ 46
ũthome 46
iyũrũo 46
Thu@@ 46
aũ 46
kĩrĩro 46
kĩagĩrĩire 46
angaga 46
gũgũteithie 46
Baraka 46
kwanyu 46
Rũhonge 46
Kĩheo 46
matar@@ 46
kũhutia 46
CIA 46
ingithania 46
gũcanjamũra 46
Ireland 46
Har@@ 46
re@@ 46
atũt@@ 46
ikare 46
Tũgĩ@@ 46
ongoragie 46
ĩkage 46
aahetwo 46
gĩgũtũteithia 46
72 46
ithirio 46
abatarania 46
iganĩire 46
mwaganu 46
Mabuku 46
gwĩthuthuria 46
Ngombo 46
ii 46
maheaga 46
watũũraga 46
Bata 46
wĩna 46
Novemba 46
weta 46
aageragia 46
moonaga 46
NO 46
makĩmũ@@ 46
ndik@@ 46
iu@@ 46
kũgunĩka 46
akenio 46
ndigano 46
ũrĩire 46
53 46
erekeire 46
maagĩire 46
Mũrũwe 46
yag@@ 46
nyitanĩra 46
agĩrĩru 46
ungate 46
rĩkĩ@@ 46
gũtheria 46
wah@@ 46
athimaga 46
gĩtu@@ 46
menyeria 46
kũiguithania 46
kũigu@@ 46
kũringa 46
kũhurũka 46
ingaine 46
irĩria 45
gũgatũũra 45
endwa 45
ĩgerekania 45
ndabataraga 45
teithĩtie 45
tũhunjagia 45
meetĩkĩrire 45
onan@@ 45
ooria 45
maguc@@ 45
atwarana 45
kũmwenda 45
kiugĩte 45
Krismasi 45
kũhaana 45
Kuumana 45
ingĩh@@ 45
kĩratũma 45
gũtũg@@ 45
us@@ 45
uti 45
eekĩte 45
Tha@@ 45
tũting@@ 45
thamĩire 45
anyitire 45
ikarage 45
agĩũka 45
tũtek@@ 45
tũhotaga 45
aruti 45
Galili 45
tũrathoma 45
ciarĩirũo 45
akĩnjĩra 45
Arthur 45
ũmishonarĩ 45
gũtheremia 45
ũmĩtie 45
agoka 45
acemanirie 45
matingĩhota 45
kũnyit@@ 45
la 45
Brooklyn 45
tũũĩ 45
marĩhi 45
kũrĩithia 45
Perisia 45
inyanya 45
eerĩire 45
mecirie 45
kĩroto 45
etĩkĩre 45
mahũthĩre 45
Herode 45
ngĩe 45
tũkiny@@ 45
Mu@@ 45
ĩtia 45
oĩkaine 45
maikare 45
15@@ 45
Robert 45
kũgooca 45
kwĩyona 45
ahoi 45
Nabothu 45
Afarisai 44
tũtuĩke 44
onya 44
No@@ 44
iceera 44
gũcir@@ 44
gwĩkwo 44
akaria 44
M 44
agĩtiga 44
tũgunĩkaga 44
gĩtig@@ 44
twĩhaarĩirie 44
utage 44
mũgithi 44
eeranĩire 44
kũrĩtũteithagia 44
guna 44
yacio 44
Mũtikan@@ 44
akena 44
arire 44
mahĩtũku 44
akĩbatithio 44
aahonoka 44
irigithathi 44
ũtũũraga 44
okĩte 44
gũkoretwo 44
aanyit@@ 44
thabarĩ 44
IC@@ 44
gũkuĩrũo 44
ko 44
iririe 44
agakorũo 44
Mũgarũ 44
ĩtĩkĩria 44
ingithanĩtio 44
ĩgĩrĩire 44
47 44
aniine 44
twaikaraga 44
gac@@ 44
ton 44
9@@ 44
ŨK@@ 44
Wahota 44
ĩta 44
maacemanirie 44
ũgamĩrĩra 44
66 44
hokaga 44
itariĩ 44
Mũraika 44
ANO 44
akĩheana 44
aremi 44
warũmĩrĩire 44
ataũri 44
aarutanire 44
areg@@ 44
anagwo 44
Janũarĩ 44
amenyerete 44
aheanaga 44
njorua 43
makenere 43
ũbataranagia 43
ad@@ 43
Filipi 43
athom@@ 43
anĩirie 43
haarĩ 43
gwakwa 43
agĩkĩ@@ 43
imb@@ 43
hotorete 43
njagĩrĩru 43
irathĩro 43
ingat@@ 43
etĩkia 43
ũnge 43
mahĩt@@ 43
website 43
gwĩth@@ 43
ika@@ 43
agaakorũo 43
ũcoke 43
ciag@@ 43
Arata 43
mĩri 43
mũny@@ 43
ndaambĩrĩirie 43
bu@@ 43
marũmagĩrĩra 43
Thũ 43
ũngĩrĩru 43
eet@@ 43
ũguna 43
haraya 43
wĩtigĩra 43
onere 43
anagie 43
144,000 43
handĩte 43
Wĩrute 43
ũgĩtũma 43
metĩkagĩra 43
mateithia 43
uni 43
eetire 43
hand@@ 43
Kĩgiriki 43
WO 43
ũhũthĩre 43
moigire 43
aragĩria 43
mĩgwate 43
magetha 43
ongoririe 43
Language 43
kũrũ@@ 43
Am@@ 43
ATĨA 43
ũgamĩrĩirũo 43
ahũthĩrire 43
agĩtĩkĩra 43
moigĩte 43
kĩhaaro 43
agĩr@@ 43
tũkaarĩrĩria 43
marute 43
ngĩtuĩka 43
aaheo 43
av@@ 43
arahũthĩra 43
arũa 43
irĩtie 43
mangĩr@@ 43
wĩraga 43
gũkũngũĩra 43
anyitanĩra 43
thuur@@ 43
hie 43
Bendegothito 43
Kuona 43
kũmwe 43
Wendi 43
gĩcagi 43
maahotire 43
ageka 43
magunĩke 43
eciririe 42
Thes 42
athĩte 42
matũteithagia 42
ta@@ 42
mareg@@ 42
mũku@@ 42
ũmba 42
mũga@@ 42
ba 42
kũrebia 42
mahunjagia 42
kũmũkuhĩrĩria 42
ũto@@ 42
ũgĩth@@ 42
ũkũr@@ 42
maikarage 42
ũtũr@@ 42
ĩririe 42
akorire 42
ũthũ 42
Atĩrĩrĩ 42
kũrũĩrĩra 42
twĩr@@ 42
iumĩra 42
kwamũkĩra 42
od@@ 42
mũtungatagĩra 42
ũrehagĩra 42
twer@@ 42
moime 42
ongagĩrĩra 42
mũtikan@@ 42
orio 42
mamenyaga 42
mahotete 42
ũcok@@ 42
ki@@ 42
Mũg@@ 42
103 42
enya 42
kĩrĩra 42
ũrio 42
ũrĩrĩ 42
wĩciria 42
makoiga 42
tũngĩcemania 42
wĩc@@ 42
ori 42
ndaamenyaga 42
njamba 42
Gogu 42
Thesalonike 42
rĩcabĩtwo 42
aba 42
Ũthuthuria 42
Kĩĩrĩgĩrĩro 42
aahing@@ 42
ro@@ 42
ngerenwa 42
hikanirie 42
kĩnini 42
Hakuhĩ 42
ther@@ 42
ikia 42
ũrute 42
MŨT@@ 42
ige 42
Efeso 42
ndaabataraga 42
mũrũwe 42
rĩciria 42
Ũth@@ 42
Jairo 42
akĩtwo 42
iyũirũo 42
aatigire 42
hothe 42
twambe 42
Ũg@@ 42
maguo 42
aatũũraga 42
irĩrie 41
Maitho 41
aũk@@ 41
maareg@@ 41
amu@@ 41
Poland 41
ereirie 41
maandĩkĩtwo 41
gwĩtwo 41
uc@@ 41
Daniel 41
ondeke 41
eetĩkĩtie 41
thamb@@ 41
hũg@@ 41
wathiaga 41
2010 41
gũtangĩka 41
Wĩhokeku 41
moige 41
athaga 41
angi 41
gĩga@@ 41
Aar@@ 41
nia 41
gĩthaka 41
mangĩgũteithia 41
1950 41
ĩko 41
kũmũhe 41
ũhũthagĩra 41
maanj@@ 41
gwata 41
matige 41
oreire 41
itĩrĩirio 41
20@@ 41
harĩria 41
iya 41
gũtingĩ@@ 41
Mũthĩnjĩri 41
Rĩngĩ 41
ũrig@@ 41
Sisera 41
mehaarĩirie 41
ungataga 41
MĨ@@ 41
mehokeirũo 41
teithie 41
wathire 41
maagĩrĩire 41
wĩhaarĩirie 41
meeyoneire 41
akamũ@@ 41
ĩtariĩ 41
ohagĩra 41
kĩĩrĩu 41
Eric 41
kwendia 41
kũmenyithania 41
utagwo 41
kuoneka 41
ko@@ 41
La@@ 41
Gĩt@@ 41
magacoka 41
Scriptures 41
Kĩĩhibirania 41
mũrutani 41
aaraga 41
ndan@@ 41
aarĩrĩria 41
twĩgerekanie 41
kaimana 41
tũkoretwo 41
ohetwo 41
oragirũo 41
Acio 41
maingĩre 41
giĩ 41
ahe 41
aarĩrĩirie 41
ũmia 41
akĩandĩka 41
ondeki 41
ongoreirio 41
akĩoya 41
gũtwara 41
gũtind@@ 41
akĩo 41
ataũkĩirũo 41
Tiga 41
ũmbĩtwo 41
mbathi 41
gwĩkĩrĩra 41
humba 41
acenj@@ 40
irũ 40
THAB 40
iganĩra 40
mangũ 40
mwako 40
El@@ 40
tũtangĩhota 40
NW 40
magĩth@@ 40
ekũr@@ 40
kũmũt@@ 40
ndũkan@@ 40
Mapainia 40
Kĩhumo 40
kũratha 40
wĩka 40
U.S.A 40
wĩyamũrĩire 40
gĩatũmĩte 40
eyoneire 40
ihu 40
tũken@@ 40
meeh@@ 40
ithano 40
ema 40
twagĩrĩire 40
ĩragwo 40
ndaiguire 40
Jo@@ 40
egana 40
metagwo 40
kaĩ 40
● 40
itũhĩrũo 40
erirũo 40
arĩkũ 40
ge 40
Na@@ 40
aaheete 40
17@@ 40
oona 40
Agalatia 40
inyinyi 40
US 40
Ngiri 40
akona 40
mahiũ 40
Tũr@@ 40
twĩy@@ 40
omire 40
meetĩkĩtie 40
athikagĩrĩria 40
endia 40
Mel@@ 40
aakũr@@ 40
mũmishonarĩ 40
atũmĩte 40
gĩko 40
aguũr@@ 40
kũriũkia 40
oheire 40
oragia 40
16@@ 40
ngoretwo 40
Ũyũ 40
ndirikanaga 40
Wĩyũrie 40
Twar@@ 40
eeraga 40
aaikaraga 40
gũkĩria 40
aandĩki 40
iririkania 40
rũkũngũ 40
tũgĩk@@ 40
makaga 40
rũr@@ 40
tũgakorũo 40
ũci@@ 40
areke 40
agaath@@ 40
atw@@ 40
ĩkwo 40
ingĩragia 40
kwĩhia 40
mũka 40
hio 40
ĩrĩgagĩrĩra 40
ANI 40
kũngĩtũteithia 40
tũteithie 40
matoĩ 40
kwĩĩkĩrĩra 40
magĩka 40
akor@@ 40
amwĩrire 40
ithũ 39
magac@@ 39
ithi 39
ca@@ 39
aahunjagia 39
teithirie 39
twĩkage 39
mbĩ 39
gatarĩ 39
ererio 39
ĩtĩr@@ 39
agit@@ 39
iũkĩtio 39
ũhutia 39
ihĩrĩrie 39
wongerereku 39
aany@@ 39
thĩ@@ 39
muku 39
ithathatũ 39
maatongoragia 39
ũrũrũkĩirio 39
ongererekaga 39
ON@@ 39
nĩruo 39
ter@@ 39
ot@@ 39
monire 39
ithaa 39
Thik@@ 39
ndĩmũ@@ 39
kĩa@@ 39
kĩire 39
maacemanagia 39
ĩngĩca 39
makĩruta 39
tũngĩĩgerekania 39
ingĩrĩte 39
Aam@@ 39
Ikaragai 39
ũkũ 39
ciakoragwo 39
aniina 39
Gũtu@@ 39
li@@ 39
maheo 39
Josia 39
omeire 39
ekĩre 39
ahingirie 39
ũgama 39
kĩhĩtũku 39
tũcok@@ 39
mĩena 39
Ithondeka 39
ĩĩ@@ 39
1,@@ 39
Weka 39
guũragia 39
onio 39
William 39
kĩrũmu 39
52 39
kinya 39
Kwaria 39
makĩhunjia 39
kũhing@@ 39
gĩatongoragia 39
maku@@ 39
twahota 39
tũkĩĩr@@ 39
gũtiganĩte 39
Kĩũria 39
ingĩhĩte 39
ũkoroku 39
onga 38
igĩirũo 38
oimaga 38
ũngaga 38
thingo 38
rĩigana 38
akũ@@ 38
mageragia 38
Kũu 38
gweta 38
ũthahũth@@ 38
Philippines 38
iti 38
Ĩt@@ 38
eiguĩte 38
moĩkaine 38
ũhutĩtie 38
tũbatare 38
Re@@ 38
rũciũ 38
onirio 38
ca 38
mekage 38
rũrĩmĩ 38
Mũtwe 38
mangĩg@@ 38
nyo@@ 38
menyithia 38
gũtũnganwo 38
matũteithie 38
carie 38
ili 38
eriragĩria 38
orok@@ 38
ehere 38
twĩriragĩria 38
ceceni 38
unĩkire 38
warũo 38
hokeirũo 38
ere@@ 38
Wĩruti 38
maanyarir@@ 38
uthuria 38
kĩririkano 38
eithie 38
mahotaga 38
ciarirũo 38
ndendete 38
ciara 38
akĩgĩa 38
iyũr@@ 38
metĩkĩre 38
Ndari 38
tĩri 38
kwandandũra 38
ndũkoragwo 38
gũgat@@ 38
matharaita 38
ATH@@ 38
maathamĩire 38
ageragia 38
NY@@ 38
kũgwetetwo 38
betha 38
arũrũk@@ 38
matetĩkĩtie 38
abangĩte 38
atue 38
Ngĩambĩrĩria 38
ndangĩhota 38
ndwagĩrĩirũo 38
ndaam@@ 38
makagaya 38
anake 38
amũre 38
makire 38
James 38
kwarathĩtwo 38
aha 38
61 38
kũgucĩrĩria 38
iyũrĩtwo 38
nyone 38
nditũ 38
aaria 38
onokirie 38
arũ 38
nĩe@@ 38
utanagĩria 38
heirũo 38
eithĩrĩria 38
waria 38
Ndũg@@ 37
tũthiaga 37
wĩrutanĩrie 37
Charles 37
mandĩkĩtwo 37
Uru 37
Baranaba 37
andĩkithia 37
ngen@@ 37
Rakeli 37
aagire 37
tũkũr@@ 37
kũn@@ 37
cian@@ 37
ar 37
ũrehera 37
ĩrĩr@@ 37
marangi 37
wambĩrĩrie 37
Twak@@ 37
makaaheo 37
ũngũ 37
mũbatithie 37
kwagagĩria 37
yagĩra 37
kũbataraga 37
matigari 37
urĩte 37
tiwe 37
di 37
thitima 37
athũkio 37
tũhĩt@@ 37
angĩke 37
kũmakania 37
onj@@ 37
yu@@ 37
athana 37
Gũtungatĩra 37
anjamũr@@ 37
kuohera 37
ũhot@@ 37
Gũthoma 37
atũũraga 37
tũikare 37
arutirũo 37
ndeer@@ 37
ĩhok@@ 37
ũmotho 37
ũkonainie 37
gũtĩrĩria 37
hĩ 37
aroiga 37
uhĩrĩria 37
thawani 37
omo 37
Georgia 37
mũken@@ 37
kũũ@@ 37
Sipania 37
ũngĩteithia 37
mwar@@ 37
ba@@ 37
tũrutaga 37
aaganu 37
ĩngĩt@@ 37
iguĩra 37
kũmaruta 37
ĩe 37
Yothe 37
Amisiri 37
woigĩte 37
rwa@@ 37
ndaakenire 37
matũ 37
tũkũrie 37
Ũng@@ 37
mũrũme 37
ariganĩrũo 37
aatũigĩire 37
ĩtĩrithia 37
62 37
EK@@ 37
iganĩirũo 37
Thi@@ 37
ata@@ 37
mathire 37
ngu@@ 37
thikĩrĩria 37
ingo 37
nyonete 37
Thĩna 37
139 37
ũngwo 37
86 37
macũngĩrĩro 37
niinwo 37
kũin@@ 37
gũciara 37
ũken@@ 37
gunĩka 36
kwĩyenda 36
omba 36
kũmekĩra 36
iganĩre 36
Ĩĩni 36
iganĩirie 36
thamaka 36
gũgũtũteithia 36
kũbatara 36
ũũrania 36
iroto 36
Tũngĩt@@ 36
araria 36
omera 36
eerĩ 36
ĩgat@@ 36
arathiĩ 36
iro 36
ikeno 36
ĩrĩri 36
ĩrĩru 36
macenj@@ 36
kũmat@@ 36
ũngĩhũthĩra 36
mba 36
agathiĩ 36
wonete 36
aagĩa 36
ndĩk@@ 36
gĩgĩt@@ 36
warithia 36
anana 36
Tũng@@ 36
emeire 36
endetwo 36
tũrona 36
mani@@ 36
utagio 36
ame 36
ahũr@@ 36
haanaine 36
ndaka@@ 36
ndamenyire 36
Tũrabatara 36
aaringire 36
aranagia 36
ikũrũk@@ 36
kambuni 36
twathire 36
makonainie 36
ware 36
ũrũk@@ 36
erem@@ 36
mwĩra 36
eerĩgagĩrĩra 36
EN@@ 36
mathi@@ 36
mi 36
145 36
hutio 36
marig@@ 36
kĩrire 36
kũnyarirũo 36
mathondeka 36
are@@ 36
He@@ 36
agei 36
ũriũkio 36
magu@@ 36
Mungu 36
haanĩka 36
acokio 36
UT@@ 36
1,000 36
acenjirie 36
inyĩrĩr@@ 36
ingĩtũteithia 36
aathiire 36
Juni 36
rwerũ 36
andĩkire 36
ũhutagia 36
ekĩka 36
wĩtĩkĩra 36
akĩũria 36
Kaisari 36
agaat@@ 36
redio 36
Nũũ 36
athani 36
agĩcok@@ 36
harĩirie 36
Tũreruta 36
gũte@@ 36
kĩag@@ 36
ũngũ@@ 36
THĨ 36
amenyire 36
mũndũrũme 36
ĩheanaga 35
atongu 35
Macio 35
ŨŨR@@ 35
maandĩk@@ 35
arĩh@@ 35
tũngĩgĩa 35
ũgĩte 35
kũgaacĩra 35
ũta 35
Jona 35
atwĩrĩire 35
indĩk@@ 35
marĩk@@ 35
akarĩte 35
maatariĩ 35
nyũmũ 35
ũtũũre 35
aca 35
nyene 35
ekũm@@ 35
matigarĩte 35
aaigire 35
irwo 35
Mangĩ@@ 35
ũũĩ 35
ARĨA 35
yonanĩtie 35
aage 35
angĩkaga 35
njigue 35
atuĩrũo 35
AAR@@ 35
mamo 35
aamaheire 35
hũthagĩrũo 35
gwĩkĩka 35
Nĩng@@ 35
Kora 35
Ciĩko 35
mwathani 35
kũmũh@@ 35
akĩmũr@@ 35
é@@ 35
kũgucĩrĩrio 35
andĩkĩra 35
marekĩka 35
merũ 35
Ri@@ 35
Februarĩ 35
ponografĩ 35
ciayo 35
ũngĩona 35
kũmath@@ 35
uh@@ 35
Bethilehemu 35
2,@@ 35
makĩaria 35
nĩoĩ 35
haar@@ 35
kĩũru 35
tũbatiĩ 35
maand@@ 35
sh@@ 35
njĩtĩk@@ 35
Thiĩi 35
bar@@ 35
ũmbũy@@ 35
mĩgambo 35
ombĩtwo 35
Thamiri 35
ũthire 35
rwarĩ 35
inyanĩru 35
mangĩhũthĩra 35
iga@@ 35
H 35
mĩth@@ 35
them@@ 35
ũgũthiĩ 35
amũteithirie 35
gũkĩgĩa 35
Ũngĩt@@ 35
cuma 35
gũthũũra 35
gwĩcarĩria 35
ũmaraya 35
utagĩra 35
ũthĩrĩirie 35
HA@@ 35
ũgaacĩru 35
ataũkagĩrũo 35
atigire 35
aagĩte 35
nduka 35
ande 35
David 35
Eendaga 35
cha 35
le 35
Gatagatĩ 35
rumu 35
inaga 35
ngũĩ 35
gĩtheokrasi 35
Mweri 35
mwĩ 35
8@@ 35
agĩc@@ 35
tũhikanĩtie 35
oragire 35
ungat@@ 35
kũhingĩria 35
wetaga 35
AK@@ 35
oy@@ 35
mũtu 35
mũkĩra 35
10@@ 35
thathay@@ 35
kũgoocithia 35
athuur@@ 35
iũkirio 35
ndi 35
wĩkĩrire 35
irikanage 34
aatũũrire 34
aaku@@ 34
ĩtiganĩte 34
Mwerekera 34
kũũrĩa 34
atũ 34
Ndĩr@@ 34
Enda 34
aareg@@ 34
kwĩgitĩra 34
Ũcoke 34
ongoretio 34
take 34
haaro 34
Ũhoti 34
gũteith@@ 34
merutanĩrie 34
matiigana 34
In@@ 34
angire 34
makĩh@@ 34
irikanire 34
utan@@ 34
twĩrutaga 34
ũngĩarĩ 34
cioneki 34
ũguc@@ 34
gũtetera 34
ekagĩra 34
mokaga 34
athĩrĩria 34
ciĩĩtaga 34
ila 34
eerirũo 34
tũrũmĩrĩre 34
eririo 34
mũtungi 34
ũgũteithie 34
ĩkũ 34
akoiga 34
aregenyũki 34
ĩtũme 34
etĩkie 34
ĩkĩraga 34
akaam@@ 34
athuure 34
mĩhĩnga 34
Kũruta 34
ungatĩre 34
makĩg@@ 34
Ruth 34
Ndo@@ 34
ndĩrĩ 34
nog@@ 34
oimb@@ 34
thathaiye 34
menyete 34
mangĩenda 34
rũingĩ 34
gũcit@@ 34
kũmwathĩkĩra 34
tũrat@@ 34
onoka 34
agak@@ 34
Ĩyo 34
Thomas 34
mũkawa 34
KĨA 34
irũgamĩrĩire 34
tũrenda 34
ikaranagia 34
igĩe 34
Austria 34
ũkuhĩrĩirie 34
hetwo 34
Ang@@ 34
ĩnana 34
·@@ 34
aatuĩte 34
kwagĩria 34
ndangĩahotire 34
mũrũthi 34
twathiĩ 34
kwendana 34
mĩthiru 34
athimirũo 34
300 34
ayũk@@ 34
meriragĩria 34
2,000 34
tweka 34
al 34
ĩnga 34
gwetaga 34
weher@@ 34
wahingire 34
kũherithia 34
woh@@ 34
ũnj@@ 34
D 34
mbarabu 34
makona 34
yunivasĩtĩ 34
Mbũtũ 34
uthi 34
ihiko 34
Rutherford 34
Mĩario 34
kũgũa 34
onokirio 34
ndamenyaga 34
uthur@@ 34
enirie 34
mũkonde 34
Nebukadinezaru 34
Kwenda 34
wonanĩtie 34
angĩga@@ 34
ciira 34
inirũo 34
Kĩguũ 34
Tũngĩhũthĩra 34
ongo 33
erutanagĩria 33
twetereire 33
mena 33
eerutaga 33
rĩũru 33
Pentekoste 33
tũny@@ 33
ĩkĩaria 33
agĩth@@ 33
ITH@@ 33
themage 33
itũr@@ 33
maatwar@@ 33
magaatũũra 33
tũngĩona 33
akĩmũhe 33
kũmw@@ 33
Con@@ 33
aahingirie 33
haarĩrie 33
agitĩra 33
atano 33
itũhĩirũo 33
ooigire 33
Hau 33
heen@@ 33
aarathire 33
ĩrutanĩria 33
kansa 33
meeciragia 33
kab@@ 33
MO@@ 33
gwĩtuĩra 33
kũmak@@ 33
Agĩt@@ 33
guũr@@ 33
Er@@ 33
atũteithagia 33
Aamerire 33
aambire 33
ahũthagĩrũo 33
ũgamĩte 33
twĩrutanagĩria 33
wĩcir@@ 33
gũtũmĩte 33
GĨA 33
aamahe@@ 33
amo 33
mĩikaranĩrie 33
ũranie 33
MBA 33
asi 33
maheetwo 33
twambĩrĩirie 33
twathiaga 33
rũt@@ 33
gĩtirĩ 33
akenire 33
ũngĩatũmire 33
cik@@ 33
ndiarĩ 33
gũthũka 33
hũra 33
ahũra 33
yagĩrĩirũo 33
emirũo 33
m 33
aahiũranagia 33
ũrũrio 33
hũgĩte 33
anyitaga 33
ruothe 33
ĩn@@ 33
tua 33
ĩhoka 33
gwak@@ 33
MACOKIO 33
ondekete 33
ciah@@ 33
rwitũ 33
arona 33
Tigagai 33
ataar@@ 33
tũkĩhunjia 33
ndona 33
ũnyinyi 33
mu 33
ndeithia 33
aikare 33
aigana 33
Nayo 33
mareka 33
mateith@@ 33
Rũ@@ 33
kũmeny@@ 33
wonanirie 33
gĩkombe 33
ago@@ 33
GĨCUNJĨ 33
eherie 33
Mwanake 33
gĩtũũro 33
ahũthĩrirũo 33
gũkũ@@ 33
gũkagĩa 33
KOR 33
twĩkĩre 33
agitagĩra 33
MAŨNDŨ 33
angĩahũthĩrire 33
athĩtwo 33
ũbataraga 33
rũthingo 33
maregaga 33
kũriganĩrũo 32
ĩroka 32
ũe 32
ingatwo 32
Makedonia 32
bia 32
ĩgagĩrĩra 32
umi 32
erĩire 32
ũregenyũki 32
ndamũ@@ 32
Potifaru 32
Ũira 32
mwĩtĩkĩtie 32
ũũke 32
Mac@@ 32
Math@@ 32
ũtongoragia 32
kũrig@@ 32
gĩkinyanĩru 32
Mb@@ 32
ikarĩire 32
ahoreri 32
d 32
ũni 32
Mark 32
wand@@ 32
ongererek@@ 32
andeithie 32
ibataraga 32
ĩrũgamĩrĩire 32
cig@@ 32
ali 32
twambĩrĩrie 32
agĩtaarĩria 32
atũũrire 32
AM@@ 32
hur@@ 32
maahũthĩrire 32
­ 32
ehokeirũo 32
Anna 32
nyitwo 32
Gĩtheokrasi 32
batithio 32
mangĩonania 32
F 32
oiki 32
iyũria 32
Lusitera 32
ĩkagĩre 32
ituri 32
njuĩrĩ 32
Othe 32
thik@@ 32
Mas@@ 32
mũhĩrĩga 32
metha 32
ĩti@@ 32
gĩkũngũĩro 32
maken@@ 32
Kũgĩa 32
CIŨRIA 32
ndagĩrĩirũo 32
kũhutĩtie 32
Watchtower 32
humbĩre 32
aakuĩte 32
Richard 32
mũrĩmi 32
makue 32
mathamĩire 32
manyitaga 32
weranĩirũo 32
IRIA 32
ngĩtua 32
India 32
ciumanaga 32
gaka 32
aarathimire 32
tũmeny@@ 32
IT@@ 32
etĩkĩr@@ 32
ĩrute 32
ũkio 32
Ũngĩkorũo 32
ũmĩrĩre 32
merutaga 32
Society 32
thoguo 32
Igai 32
mũiganu 32
gĩthiĩ 32
196@@ 32
Ũre@@ 32
makĩenda 32
atuur@@ 32
tũthi@@ 32
Mamwe 32
arĩtie 32
gwetetwo 32
arĩkĩire 32
thahu 32
kũũra 32
matũire 32
ingĩtũma 32
Ha@@ 32
kũririkanaga 32
gwekĩkire 32
Photo 32
ũngĩgũteithia 32
Mũtũũrĩre 32
mahĩtanu 32
athimĩte 32
magaath@@ 32
gũthaka 32
Ghana 32
ĩtĩkia 32
iratũ 32
r 32
Pon@@ 32
onanagio 32
yah@@ 32
ndaath@@ 32
kũmwĩra 32
aremwo 32
ũmbi 32
wakiny@@ 32
manyamarĩke 32
tham@@ 32
ituĩke 32
It@@ 32
Rehoboamu 32
thuthuragia 32
kũhĩtithia 32
kũrũgamĩrĩra 32
twam@@ 32
kĩĩr@@ 32
njagĩrĩirũo 32
atũruta 32
kwend@@ 32
neana 32
eyonera 32
mita 32
Mũciari 32
Ted 32
kũringithania 31
kwag@@ 31
kũmaka 31
itha 31
Narĩo 31
tũteith@@ 31
ingĩka 31
Jul@@ 31
itungat@@ 31
THA@@ 31
marehaga 31
gun@@ 31
kũũmanĩrĩria 31
maahunjagia 31
mookire 31
heagwo 31
Nazarethi 31
matuĩro 31
iguithia 31
Mũrutani 31
tũtikoragwo 31
gũcokanĩrĩria 31
gũkuua 31
hor@@ 31
erĩgĩrĩire 31
umbũra 31
garũrũk@@ 31
mwĩgitio 31
iaga 31
maagire 31
gwĩtiiria 31
mera 31
ndek@@ 31
irũmu 31
erirĩria 31
ũigu@@ 31
kũndeithia 31
ŨNDŨ 31
ĩtĩkĩtie 31
tũkwenda 31
matanya 31
rũrĩ 31
cara 31
erekania 31
Kũngĩ@@ 31
bang@@ 31
Bedell 31
atongoragia 31
ũkam@@ 31
kũhithĩrĩra 31
arĩkĩra 31
meendete 31
fomu 31
ibat@@ 31
Mũrĩithi 31
acokagia 31
ungatĩte 31
zu 31
ngothi 31
ĩtigĩra 31
WITŨ 31
ũraigua 31
anyamar@@ 31
nyitaga 31
anĩrĩire 31
meyendeire 31
Habakuku 31
ũkũbatara 31
aabangire 31
mahoyaga 31
gũũk@@ 31
aabatithirio 31
Ndarĩ 31
ŨG@@ 31
maahetwo 31
Mil@@ 31
200 31
ub@@ 31
Ũtaũku 31
akũrie 31
ũrĩkoragwo 31
ingana 31
London 31
gũtharia 31
ongoririo 31
mathugunda 31
moimaga 31
Atĩ 31
ke 31
ikabu 31
maheagwo 31
yarũmĩrĩire 31
kũhũthagĩra 31
tũkona 31
erithia 31
kwĩigua 31
Kũrĩa 31
Mũisiraeli 31
kuongerereka 31
Ndaar@@ 31
mekagĩra 31
mũcukani 31
Arũme 31
onainie 31
thaburi 31
rĩkorũo 31
Es@@ 31
Ũtukũ 31
Nju@@ 31
ĩithagia 31
wamũteithirie 31
tũngĩmenya 31
tũũra 31
kũmũcokeria 31
IO 31
Sa@@ 31
anyarirũo 31
hangĩ 31
kũhanda 31
Zek 31
ngĩtiga 31
mwa@@ 31
kĩonanĩtie 31
ĩthi@@ 31
ehagwo 31
teith@@ 31
tao 31
woneke 31
ayagĩra 31
thumb@@ 31
84 31
kũimbia 31
gĩtũteithagia 31
gũtĩ@@ 31
meyamũrĩire 31
Gĩth@@ 31
giria 31
makĩgĩa 31
tũgũthiĩ 31
orirũo 31
mangĩga@@ 31
iguagĩra 31
anji 31
ĩgwetete 30
ngeragia 30
91 30
97 30
maarutire 30
aamũheire 30
haaragĩria 30
kam@@ 30
gũtuĩra 30
matahikanĩtie 30
twak@@ 30
gĩthingithia 30
ndĩna 30
cokagia 30
ndwari 30
mand@@ 30
twĩhoke 30
angĩaga 30
amũrũo 30
As@@ 30
anagĩrie 30
ch@@ 30
indĩkire 30
wambĩrĩria 30
On@@ 30
makenete 30
Michael 30
Gũthuthuria 30
mũigua 30
mũthĩni 30
iũrũrũk@@ 30
matuĩkĩte 30
meth@@ 30
gĩtarĩ 30
ciahũthagĩrũo 30
mũira 30
rĩhia 30
tũtige 30
gwĩkagĩra 30
gũcokereria 30
Mũrutwo 30
Wĩgerekanie 30
ũthaitha 30
ngũr@@ 30
Mĩeri 30
kuonekaga 30
oimĩra 30
oonire 30
mishonarĩ 30
maatuire 30
kũha@@ 30
umanĩte 30
ekĩkire 30
ohere 30
Ndaiguaga 30
ĩrathiĩ 30
oneire 30
tigĩre 30
Moigaga 30
abataranagia 30
meerutire 30
igĩre 30
mwarimũ 30
andĩkĩre 30
ũhotithagia 30
ndaag@@ 30
athiĩte 30
tũmaũndũ 30
cionaga 30
kũguũria 30
anyitirũo 30
kũrũgama 30
ndath@@ 30
Kĩĩroho 30
aariũkirie 30
Ĩrĩa 30
Gwĩciria 30
kĩagĩrĩirũo 30
ithingithia 30
cuk@@ 30
ũgũtũũra 30
BŨRŨRI 30
ũringaine 30
aaheaga 30
inire 30
tabarĩra 30
kandi 30
Akĩr@@ 30
Version 30
104 30
utirie 30
utirio 30
Nathani 30
kũmũthikĩrĩria 30
mũrũmĩrĩri 30
gũtuwo 30
kwĩyonera 30
marag@@ 30
programu 30
utanĩirie 30
hunjie 30
Mwathi 30
imire 30
na@@ 30
Icio 30
aheirũo 30
ciandĩkĩtwo 30
rĩroka 30
eragio 30
batarania 30
gĩtina 30
mũhiku 30
zi 30
matika@@ 30
aamu@@ 30
Korinelio 30
endeire 30
yambĩrĩirie 30
2009 30
mũmaraya 30
waigua 30
marem@@ 30
agatuĩka 30
rĩandĩkĩtwo 30
athĩ 30
do@@ 30
iganaine 30
nĩmũ@@ 30
gĩkwarĩrĩria 30
aatongoririo 30
teithĩrĩria 30
nduĩke 30
Thigari 30
matungatĩre 30
Tũngĩgunĩka 30
uru@@ 30
tũtungat@@ 30
athime 30
abii 30
maandĩkire 30
Ndũmĩrĩri 30
wonanagio 30
,000,000 30
ũgĩrio 30
thaga 30
wetete 30
Ndwarĩ 30
aranĩria 30
kĩgongona 30
Ndaa@@ 30
kũmenyerio 30
matonekaga 30
maatũmaga 30
twĩrĩ 30
akĩmar@@ 30
gĩthima 30
girĩrĩria 30
aigĩte 30
ĩngĩkorũo 30
atũmĩtwo 30
thunagogi 30
Igongona 29
gũthomera 29
ũgar@@ 29
thĩn@@ 29
kabuku 29
ũgitĩra 29
akĩongerera 29
ũcuke 29
ithanie 29
wanj@@ 29
tũrĩk@@ 29
anang@@ 29
ũkinyanĩru 29
aini 29
Manase 29
gwĩtanio 29
batiĩ 29
acemanĩtie 29
kũmeera 29
aikarire 29
ĩrutĩra 29
makaag@@ 29
IRE 29
athimire 29
Jorodani 29
tũingĩre 29
uhĩrĩirie 29
tũraigua 29
itĩ 29
hoyage 29
mũbira 29
acirithania 29
aateith@@ 29
kũmah@@ 29
ng’ongo 29
wĩriragĩria 29
tũkĩhũthĩra 29
uku 29
rũh@@ 29
Tito 29
cũcũ 29
imĩte 29
ũrũrũkĩirie 29
mahonokio 29
iguĩrĩire 29
ehage 29
gũtũũmĩrĩria 29
itũme 29
ũingĩ 29
ŨM@@ 29
aamũre 29
irĩtu 29
kũiya 29
hunjĩrie 29
ndirica 29
KU@@ 29
os@@ 29
eeharĩirie 29
tũtoorie 29
ecirĩtie 29
Jeriko 29
irĩra 29
p 29
mahingie 29
gũtuma 29
moneke 29
ugu@@ 29
ngĩcoka 29
maaku@@ 29
marorete 29
Ng’@@ 29
kũhonia 29
x 29
tũtiũĩ 29
ũheanaga 29
ndĩrĩ@@ 29
igicĩirie 29
MWE 29
ũrũr@@ 29
kũrĩra 29
monanĩtio 29
athĩkagĩra 29
rũĩ 29
tuoh@@ 29
kũgu@@ 29
Mũhunjia 29
thira 29
Mbeca 29
guc@@ 29
ingithanagia 29
makĩĩ@@ 29
GŨT@@ 29
ũkuĩte 29
ũririkane 29
magĩra 29
ingĩha 29
kwega 29
Hoya 29
lo@@ 29
nyeki 29
umĩria 29
Kĩrĩndĩ 29
kwĩnyihia 29
twĩhokete 29
mũtamaiyũ 29
mwĩhia 29
ehwo 29
mĩtego 29
Maswali 29
ũngire 29
matũm@@ 29
Alex 29
tũmwendete 29
JESU 29
gũthatha@@ 29
gĩtwĩraga 29
undi 29
ng’endo 29
ime 29
araigua 29
makuaga 29
Mũigua 29
atwarithia 29
meyũragia 29
angĩagĩire 29
mathiĩte 29
metĩkie 29
kũmũtu@@ 29
Mik 29
gũkũũra 29
Rũthiomi 29
aakenagĩra 29
nyamũkano 29
ĩi 29
ũkĩire 29
ũkĩtio 29
ũtũt@@ 29
Ake 29
tũheo 29
iei 29
Mũirĩtu 29
gũtherio 29
ũgooka 29
itari 29
oimĩrire 29
akaahũthĩra 29
ũgerie 29
unĩkaga 29
aarũmbũyagia 29
arĩr@@ 29
Mũtungi 29
eerera 29
mũtũ@@ 29
bengi 28
ihanĩrĩirie 28
Kĩĩ 28
94 28
aro@@ 28
Ad@@ 28
ĩnj@@ 28
Gayo 28
mahũa 28
uumanaga 28
thũka 28
gĩgacoka 28
okaga 28
kamĩtĩ 28
Filipu 28
ŨNGĨ@@ 28
gĩthoma 28
twĩrĩgĩrĩre 28
ORŨO 28
ingĩririe 28
kĩngĩteithia 28
ũti@@ 28
63 28
69 28
THE@@ 28
andĩkĩire 28
Mbeũ 28
Mwangi 28
ahingio 28
itu 28
agĩthuura 28
ĩngĩk@@ 28
matikar@@ 28
Arĩithi 28
ndĩy@@ 28
Amb@@ 28
ndaagĩire 28
higa 28
kĩndini 28
onokire 28
weh@@ 28
x@@ 28
maakar@@ 28
ndey@@ 28
Mũh@@ 28
ndaaci 28
tũrathiĩ 28
igi 28
kũmuona 28
ĩrĩkaga 28
itig@@ 28
MAT 28
tũtingĩenda 28
tũkĩambĩrĩria 28
ũgoka 28
yarathĩte 28
emu 28
Kũhoya 28
ingĩahotire 28
aathamĩire 28
kĩambĩrĩirie 28
akĩg@@ 28
atuĩkĩte 28
tigĩra 28
eku 28
wandeithirie 28
kũnyitwo 28
ondekire 28
Lefèvre 28
kũhonokio 28
athomire 28
HISTORĨ 28
igwetetwo 28
kĩngĩgũteithia 28
arira 28
akĩmũũria 28
Riboti 28
ũikare 28
aheetwo 28
ũtha@@ 28
marah@@ 28
aariũkirio 28
matwar@@ 28
utithanagia 28
gũkiny@@ 28
oimĩrĩire 28
onera 28
tũgĩka 28
kũgwat@@ 28
Thabatũ 28
ambata 28
za 28
rũũĩ 28
Profesa 28
aihu 28
gwĩtiria 28
Itune 28
gĩe 28
THI@@ 28
hooreri 28
kũmuonia 28
ndĩrut@@ 28
Sila 28
andeithirie 28
Gũc@@ 28
MAR@@ 28
omu 28
Gũti@@ 28
orithia 28
147 28
kwaragia 28
Njoroge 28
eeragĩra 28
gĩtheru 28
Ĩk@@ 28
aarĩk@@ 28
ciarĩtwo 28
00,000 28
ciugĩte 28
teithagia 28
tũhingie 28
mĩtheru 28
kwĩrĩhĩria 28
ũkĩtie 28
Menya 28
mĩĩhĩtwa 28
ambũrũk@@ 28
hiũh@@ 28
aiganĩire 28
tombo 28
gũikar@@ 28
metheme 28
gatano 28
3,000 28
erute 28
ndaamenyire 28
acokie 28
kũnyitana 28
ũmenyi 28
itunda 28
ndam@@ 28
agac@@ 28
kũrũmĩrĩrũo 28
kwĩyumĩria 28
arũ@@ 28
Sarah 28
56 28
waara 28
hagĩrĩria 28
ĩrĩg@@ 28
mwaria 28
areka 28
arĩkĩrũo 28
ndagĩire 28
Kũhunjia 28
ingĩenda 28
amahe 28
ũkang@@ 28
tũrag@@ 28
wonanie 28
ongererũo 28
tũikaraga 28
angĩakorirũo 28
onanagie 28
ish@@ 28
marigĩrĩrio 28
indĩkagĩrĩria 28
Ũrata 28
tũkenere 28
huho 28
Magĩrĩirũo 28
andĩkwo 28
gũgaakorũo 28
Kũheana 28
ũraruta 28
mangĩaga 28
amũteithie 28
wonanĩtio 28
egaga 28
amonaga 28
mwĩy@@ 28
makĩrĩa 28
abatiĩ 28
matingĩahotire 28
ngĩigua 28
engu 27
ciikaro 27
irabatara 27
ongu 27
ereirio 27
Mĩthiĩre 27
gatarũ 27
bo@@ 27
Hans 27
ony@@ 27
njoh@@ 27
tũngĩgunĩka 27
kũher@@ 27
tũkar@@ 27
kũhoyaga 27
tũkahota 27
aatwar@@ 27
enyih@@ 27
gũtũt@@ 27
Mũtu@@ 27
ihing@@ 27
twĩtĩkĩre 27
kwĩmenyeria 27
Suriata 27
nyanĩri 27
itũrũrĩra 27
Isaka 27
Oigĩte 27
mekĩke 27
gwakoragwo 27
ahũthĩrĩte 27
Tũngĩmenya 27
metereire 27
ũtũire 27
gwĩta 27
atungataga 27
Kĩoneki 27
utũk@@ 27
2015 27
ndĩani 27
Itũũra 27
h 27
njora 27
mũkuũ 27
Rũĩmbo 27
ũthũkie 27
ũhotekeku 27
kiromita 27
Malawi 27
utanĩria 27
ĩrĩgĩrĩro 27
mathikĩrĩrie 27
ũmbũiye 27
George 27
utanaga 27
ciambĩrĩirie 27
matũũr@@ 27
warĩo 27
eng’era 27
kũmenyerera 27
tũtikenaga 27
umbũraga 27
mĩthako 27
waragia 27
etĩkĩrĩtio 27
Tũgunĩkaga 27
kũmũmenya 27
matũmĩte 27
atũigĩire 27
erira 27
mamw@@ 27
Mĩr@@ 27
andĩkĩte 27
Tuonanagia 27
maakuĩte 27
eyendeire 27
oonanagia 27
ngor@@ 27
Gũkũ 27
Bill 27
etigĩre 27
inĩra 27
ngĩgĩa 27
ĩrat@@ 27
tũhoe 27
mwarĩrie 27
R 27
ũmbũyanagia 27
egerek@@ 27
iz@@ 27
cer@@ 27
hu 27
gũcokera 27
akĩĩr@@ 27
ea 27
aahunj@@ 27
ũwe 27
akonania 27
weheria 27
arĩrie 27
ahur@@ 27
ANIA 27
eithio 27
aram@@ 27
Nyonaga 27
korokoro 27
ũgat@@ 27
iteithie 27
ũngai 27
ũb@@ 27
anyitwo 27
kuum@@ 27
maigaga 27
ndeerutire 27
Jezebeli 27
ng’ombe 27
ĩhaana 27
tũreka 27
ihũthagĩrũo 27
Mũsamaria 27
woiga 27
ũgacoka 27
erema 27
ororo 27
ateithĩtie 27
merirĩte 27
mĩc@@ 27
etĩkĩria 27
agw@@ 27
kũhũth@@ 27
Twath@@ 27
2008 27
kwĩhĩta 27
matuaga 27
mũgimaru 27
ahikanĩtie 27
makĩona 27
Ĩno 27
ũgũ@@ 27
aik@@ 27
Athuthuria 27
Ũmenyo 27
ũragũri 27
eyũria 27
arĩkĩtie 27
tũhunjagĩria 27
Ũrĩkũ 27
Go@@ 27
gũtha 27
ũnyih@@ 27
ũteith@@ 27
iruka 27
egwĩka 27
58 27
ataaragĩria 27
erutire 27
ne 27
Wĩrut@@ 27
irĩtio 27
agĩcokia 27
Mwar@@ 27
igirũo 27
mahũthĩra 27
ĩtũt@@ 27
wohanĩri 27
aamũcokeirie 27
kuoh@@ 27
guka 27
Encyclopedia 27
akĩbanga 27
makaahonoka 27
atuonetie 27
aũrire 27
kũninwo 27
Italy 27
marũmĩrĩre 27
yeranĩirũo 27
gĩcango 27
kũpainia 27
monetwo 27
kĩĩwatho 27
makag@@ 27
maaheirũo 27
aarũ@@ 27
kũruga 27
ambĩrĩirio 27
agarũrũk@@ 27
matan@@ 27
ndu 27
twagaire 27
aathurire 27
anyinyi 26
ũheanĩtwo 26
gũthe@@ 26
ndĩra@@ 26
Kuh@@ 26
wĩtheme 26
ũbat@@ 26
athigani 26
arania 26
ateg@@ 26
kũhat@@ 26
mekĩre 26
ageeka 26
mberia 26
arĩtũheaga 26
watariĩ 26
inyĩra 26
gũtũtindĩka 26
atekwenda 26
gũit@@ 26
yayo 26
am 26
2000 26
kamarĩ 26
Yaku 26
make@@ 26
ũtue 26
ũmbe 26
etirũo 26
Nazi 26
uge 26
eerutanagĩria 26
aandeithirie 26
ĩtĩkĩrĩka 26
ĩrĩka 26
agu@@ 26
Nacio 26
ihe 26
oime 26
eehokete 26
gũthama 26
ĩcũrania 26
ũragĩra 26
magarũrũk@@ 26
ũhinge 26
Ho@@ 26
akĩrĩ 26
ango 26
ĩrutana 26
ithana 26
ũkuh@@ 26
itwo 26
Ũgwĩciria 26
Ũngĩona 26
ũbumba 26
akuhĩrĩria 26
njokagĩria 26
ungatire 26
kũmũg@@ 26
ngĩciria 26
mũthi@@ 26
rũrũ 26
aakinyire 26
matwĩraga 26
aina 26
hok@@ 26
irathiĩ 26
gatandatũ 26
aring@@ 26
matiendaga 26
gũtw@@ 26
Kurusu 26
mũhĩnga 26
ithanirie 26
ombĩte 26
moimire 26
Lu@@ 26
mũn@@ 26
hokete 26
gooc@@ 26
makũre 26
ũngĩa@@ 26
erĩgĩrĩra 26
ciarĩrĩirie 26
gũthamaka 26
makanitha 26
makoniĩ 26
arũmĩrĩre 26
14@@ 26
maangĩ@@ 26
agĩrai 26
Mũheani 26
Li@@ 26
Ngĩt@@ 26
rĩanyu 26
maaiguire 26
ũgun@@ 26
tũngĩaga 26
ndir@@ 26
acokeria 26
isi 26
indanagĩra 26
arũgamĩrĩire 26
atangĩ@@ 26
cionanĩtie 26
ecir@@ 26
iana 26
ũrage 26
tweruta 26
aathondekire 26
Nĩt@@ 26
itũteithagia 26
hoka 26
akirĩrĩirie 26
wako 26
Ihoya 26
UK@@ 26
Kuonania 26
ithũĩro 26
anĩka 26
itan@@ 26
ũ’@@ 26
aacaragia 26
ondekera 26
egũthiĩ 26
akĩmera 26
­@@ 26
ambat@@ 26
wĩhĩtie 26
irũmĩrĩire 26
ũmĩrĩrio 26
kũng’@@ 26
coke 26
Kwĩy@@ 26
akaa@@ 26
eher@@ 26
rĩonekaga 26
Naomi 26
tũgũthuthuria 26
57 26
Ha 26
ũrĩu 26
Kĩhi@@ 26
tũratathi 26
tũkagĩa 26
kweh@@ 26
abira 26
ũũrie 26
Ndũka@@ 26
mũruti 26
mũkĩmũ@@ 26
gĩgat@@ 26
hũthĩrire 26
mũrũgamĩrĩri 26
ʹ@@ 26
magaathiĩ 26
matakoragwo 26
marutanaga 26
71 26
eretwo 26
arir@@ 26
banga 26
wahing@@ 26
erĩg@@ 26
ũkenere 26
Sodomu 26
warĩrĩria 26
ndĩarĩ 26
ũgitagĩra 26
monanirie 26
weka 26
maing@@ 26
Mahunjio 26
ũgeek@@ 26
ahonokie 26
Mah@@ 26
matuĩte 26
kũheen@@ 26
irĩrio 25
gũgacoka 25
gũtigithĩria 25
mũtaana 25
wana 25
ũmagĩrĩrio 25
ndũka@@ 25
Aathire 25
Wĩc@@ 25
tũkuĩte 25
wacemania 25
igoti 25
one@@ 25
kwandeithirie 25
gwĩkĩrana 25
aataũkĩirũo 25
Kũg@@ 25
UM@@ 25
ũtana 25
mũramati 25
ĩkora 25
thuth@@ 25
ũtũũr@@ 25
agĩtwo 25
Nabali 25
aamw@@ 25
bangĩte 25
aksidenti 25
akĩrega 25
ndaahotire 25
thaithaga 25
tuonania 25
ũhutanĩtie 25
wĩyoneire 25
IM@@ 25
ĨTE 25
Antonio 25
anyitĩte 25
tũtika@@ 25
fiti 25
aũra 25
mangĩgakorũo 25
kweher@@ 25
Ũngĩ 25
kwĩhaarĩria 25
mahũthĩrĩte 25
ũtan@@ 25
MŨR@@ 25
ĩtĩkagĩra 25
aanyitirũo 25
magaakenera 25
mũka@@ 25
Kĩfaranja 25
coho 25
enja 25
mũtuĩke 25
sp@@ 25
aahutirio 25
ihaki 25
mumar@@ 25
ĩtĩrithagia 25
mathagu 25
kĩronania 25
mũtungatĩre 25
waandĩkire 25
kĩngĩkorũo 25
kũngĩthiĩ 25
maremwo 25
AKA 25
mĩnoga 25
1955 25
heanire 25
aaguũririe 25
uraga 25
Hũthagĩra 25
Nineve 25
makaaga 25
atũmeny@@ 25
kũmwĩhoka 25
607 25
Kwĩ 25
Gũthiĩ 25
amũhe 25
qu@@ 25
eku@@ 25
1918 25
heanĩte 25
gũkararania 25
gĩthiithi 25
etaga 25
twamũ@@ 25
cumbĩ 25
TE 25
ũkaar@@ 25
eterere 25
magunĩkaga 25
yona 25
mũhoreri 25
wetire 25
meher@@ 25
arirũo 25
iriĩ 25
ndoĩ 25
HI@@ 25
tũrĩt@@ 25
maateith@@ 25
tũngĩĩthema 25
Gũtekũmakania 25
atuĩkaga 25
hikia 25
uumanĩte 25
mbarĩ 25
gũte 25
Be@@ 25
1995 25
njiganĩire 25
Namo 25
aaikarire 25
Ngĩcoka 25
tũracemania 25
gũtuĩria 25
acĩrĩte 25
kĩoho 25
anog@@ 25
makũrie 25
onage 25
ũigan@@ 25
magĩtiga 25
hoete 25
ĩgwetetwo 25
AACIARIRŨO 25
tũrahoya 25
kĩny@@ 25
To@@ 25
enge 25
Ste@@ 25
gwet@@ 25
twĩhokeirũo 25
mangĩagĩire 25
Ig@@ 25
2006 25
magĩte 25
ahũthĩrũo 25
,000 25
marebeta 25
magaat@@ 25
nĩho 25
wĩtĩkie 25
ngona 25
mia 25
ũrũmbũyagia 25
makaigua 25
ikonainie 25
twĩrut@@ 25
ĨRĨR@@ 25
eyũrie 25
Tũngĩr@@ 25
akĩmũcokeria 25
400 25
ũgunĩke 25
gũtariĩ 25
ĩngĩcwo 25
aatanyĩte 25
aamũt@@ 25
nako 25
ĩgaakorũo 25
icok@@ 25
akamenya 25
inyĩrĩria 25
tũter@@ 25
angĩkagĩra 25
64 25
arutithania 25
imba 25
ũtonekaga 25
Mic@@ 25
eha 25
akario 25
iyũkia 25
ĩgĩth@@ 25
atuny@@ 25
v 25
Hakĩrĩ 25
L 25
ũtaũkĩrũo 25
man 25
matangĩhota 25
75 25
78 25
matigane 25
ũrek@@ 25
kĩgera 25
Irathimo 25
warĩria 25
ĩmeny@@ 25
waar@@ 25
Wĩtheme 25
matikan@@ 25
matigĩte 25
kwĩrĩgĩrĩra 25
aanyarir@@ 24
Mũti@@ 24
endera 24
ĩhũthagĩra 24
gũcon@@ 24
wĩtĩkĩre 24
ũrĩtwo 24
twĩyendeire 24
ano@@ 24
Ũtugi 24
ndah@@ 24
mooigaga 24
tũremwo 24
Her@@ 24
aamenya 24
tũgaakorũo 24
ũranagie 24
Bezaleli 24
magar@@ 24
Maar@@ 24
ongoretie 24
gũtũũr@@ 24
ndune 24
mec@@ 24
aheanĩte 24
arĩe 24
thama 24
Meerutĩire 24
hiũranie 24
meerutanĩirie 24
norĩo 24
ũrabatarania 24
ũgo@@ 24
gũtagĩrĩire 24
ud@@ 24
acokaga 24
kũremera 24
Rose 24
ŨŨ 24
ndacemanirie 24
THĨINĨ 24
iganagĩrũo 24
omĩrĩria 24
akĩmahe 24
ĩtaarĩ 24
akĩgweta 24
kũigan@@ 24
wahutirie 24
tũkwĩruta 24
agu 24
ngurunga 24
zia 24
arutana 24
magoka 24
gũũtha 24
agerie 24
twĩrĩg@@ 24
agĩtu@@ 24
ithagiai 24
gũtwerekera 24
iganĩria 24
eterera 24
KŨRĨ 24
Kĩĩ@@ 24
ciĩy@@ 24
hooto 24
Mũrori 24
mahutagia 24
gwa@@ 24
aagĩrĩire 24
MU@@ 24
Tũngĩaga 24
anĩrĩirie 24
yahũthagĩrũo 24
onanio 24
de 24
emi 24
maringaine 24
uthuragia 24
woonanirie 24
yakoragwo 24
mũte@@ 24
ocithagia 24
hanĩkire 24
akaah@@ 24
tũkue 24
mathiirĩ 24
gwĩ 24
ũgũkorũo 24
air@@ 24
twĩtĩkĩrĩke 24
akiuma 24
anjĩrire 24
sekondarĩ 24
twabataraga 24
hean@@ 24
etigĩri 24
Irish 24
Zefania 24
wĩkĩke 24
Ringithania 24
ciĩgwatio 24
maahĩt@@ 24
twakoragwo 24
kĩriga 24
menyerere 24
maũthĩ 24
atigagĩrĩra 24
teithia 24
120 24
akĩnj@@ 24
ũririkanagia 24
aathanire 24
Ũngĩenda 24
haarĩirio 24
ndeciragia 24
HE@@ 24
muoh@@ 24
angĩkĩra 24
kwĩguna 24
akenagia 24
ũkaarehe 24
ũrũragia 24
niine 24
ũko 24
anyamarĩka 24
mũhothi 24
ngero 24
yũkania 24
ateithĩrĩria 24
Ngũ@@ 24
marahunjia 24
agĩathana 24
watongoragia 24
ũhũthĩra 24
gũka@@ 24
Meyendeire 24
mamũrĩtwo 24
tũkam@@ 24
atongorie 24
ũgo 24
ũmu 24
maaheagwo 24
Arũmĩrĩri 24
Rũrĩrĩ 24
Gwathire 24
Mehia 24
itani 24
tũhĩĩ 24
emane 24
ndereba 24
aheire 24
ST@@ 24
kũrut@@ 24
ũrũgamĩrĩire 24
tũrute 24
atho 24
Gwathĩkĩra 24
cenj@@ 24
iugaga 24
rĩg@@ 24
akinyia 24
twathoma 24
twĩrutĩte 24
kũhikia 24
weheretio 24
theme 24
amĩrĩra 24
ohanagĩra 24
tũtariĩ 24
ela 24
ngĩmwĩra 24
Ĩr@@ 24
Et@@ 24
Ciumia 24
mahik@@ 24
sayanisi 24
agwe 24
maanyitire 24
Wal@@ 24
kĩrĩko 24
thamakaga 24
inia 24
guni 24
ũrigicĩirie 24
w 24
thĩni 24
macemanĩtie 24
mbaũ 24
kũhĩtia 24
ũrutagwo 24
mũkuru 24
Yehova 24
ĩrutanagĩria 24
130 24
ou@@ 24
89 24
Martin 24
heenia 24
matigan@@ 24
Hũthĩra 24
110 24
makĩny@@ 24
amateithie 24
ũrĩtie 23
mũtugi 23
ũritũh@@ 23
ũrakuhĩrĩria 23
mĩĩ@@ 23
Ihiga 23
atathi 23
cama 23
aahotaga 23
ũtagĩrĩire 23
Mĩtangĩko 23
ĩtũrutaga 23
maaiguaga 23
maheete 23
150 23
etĩkĩririo 23
tũhe@@ 23
kĩnanda 23
warutaga 23
ĩkĩr@@ 23
Gehazi 23
magathira 23
ambo 23
ĩkanaga 23
gũkar@@ 23
Nginya 23
kĩĩmabũrũri 23
irig@@ 23
Mbarathi 23
Benjamini 23
nderu 23
ahagĩra 23
Samaria 23
Hosea 23
utha 23
Nini 23
watuĩkire 23
magak@@ 23
Ririkanaga 23
maageririe 23
maroneka 23
She@@ 23
gerek@@ 23
ĩkĩrire 23
ũrahiũrania 23
Kah@@ 23
aguna 23
Jehu 23
tũhotage 23
> 23
Tũngĩteithia 23
ndaikaraga 23
gũkoona 23
Kut@@ 23
ingithanie 23
YUGAGA 23
ũkar@@ 23
mũithikiri 23
reg@@ 23
ciatũmaga 23
Mũcemanio 23
gĩcicio 23
mawĩtĩkio 23
ũrũria 23
wongererekete 23
ŨNG@@ 23
agwetete 23
ũtangĩkua 23
AGIA 23
tũngĩteithia 23
andĩko 23
PET 23
ĩkĩhota 23
gunaga 23
abar@@ 23
hĩrĩirie 23
Onania 23
kwambata 23
ikaro 23
ocithia 23
tũrahunjĩria 23
thatha@@ 23
kũhonoka 23
gĩtiarĩ 23
ong’@@ 23
Mĩcemanio 23
twamenya 23
icango 23
Ũteithio 23
maigĩte 23
omĩrĩirio 23
humbĩra 23
marak@@ 23
ũreg@@ 23
Ngiriki 23
aaringithanirie 23
ino 23
anjamũku 23
ũterĩgĩrĩirũo 23
engereta 23
hĩa 23
kũmonia 23
Magogu 23
ehokete 23
gĩcanjama 23
mwĩrirĩrio 23
ũgathiĩ 23
arĩmi 23
Kuhĩrĩria 23
gũkaar@@ 23
akĩhota 23
onekete 23
maratathi 23
mageka 23
mabatare 23
gũkenio 23
Stephen 23
aatĩtĩrithirie 23
thuthur@@ 23
mahoyage 23
ĩtaarĩirie 23
Bathi 23
Septuagint 23
marac@@ 23
maarũmagĩrĩra 23
aamar@@ 23
Aashuri 23
ũtheremete 23
hotith@@ 23
irimũ 23
ũrĩithi 23
angĩhũthĩra 23
irĩirie 23
magendaga 23
akĩmenya 23
kĩhũthĩrĩtwo 23
etĩkirie 23
ihingo 23
ũthiĩte 23
Megan 23
ũkirie 23
emia 23
ndaya 23
amenyeria 23
aih@@ 23
WĨTĨKIO 23
lo 23
HĨNDĨ 23
Ũngĩhota 23
urire 23
heanagwo 23
mũtungatĩra 23
iganu 23
amaiyũ 23
Mũhikania 23
ĩiyũire 23
kũhiũha 23
ĩrĩtio 23
Ũtu@@ 23
enie 23
mandagĩtarĩ 23
ũrirũo 23
magatũũra 23
njiaro 23
Gĩkundi 23
kũmemerekia 23
gũthomithia 23
mamĩt@@ 23
Emlyn 23
Kanada 23
agatũma 23
tũrahiũrania 23
gĩtagwo 23
Jaeli 23
kuonio 23
nĩũk@@ 23
tũgathiĩ 23
maatungatagĩra 23
ed@@ 23
mĩthabibũ 23
njĩtĩkĩtie 23
KO@@ 23
magaathamaka 23
Je 23
ingu 23
twĩcũranie 23
ria 23
mĩrigo 23
eter@@ 23
wĩhoka 23
ũmire 23
aakenaga 23
twĩna 23
Wakwa 23
twahĩt@@ 23
gĩtongoretio 23
aatig@@ 23
warie 23
ĨRĨA 23
kũbat@@ 23
uruhith@@ 23
aũrĩte 23
King 23
yoigĩte 23
ekagĩrũo 23
hotage 23
kwĩh@@ 23
Josephus 23
wĩhoke 23
aahiũranirie 23
abatare 22
makanyua 22
ĩmbĩria 22
aagar@@ 22
ĩtigana 22
aahĩt@@ 22
etĩkĩrĩte 22
HŨŨRA 22
ra 22
etia 22
esia 22
athagĩrĩria 22
amũt@@ 22
aaciarirũo 22
ndũkĩrĩ 22
arwaru 22
enyeny@@ 22
aarereirũo 22
akĩnd@@ 22
Nyamũ 22
nĩa@@ 22
wĩt@@ 22
makomete 22
thumu 22
aakirĩrĩirie 22
kũheenia 22
intaneti 22
wĩthema 22
gũgatũma 22
aikarĩte 22
kũhitha 22
aaheetwo 22
atigane 22
Rũgongo 22
ũrehere 22
kũiguana 22
ndige 22
kũhoera 22
ium@@ 22
Kĩa 22
orage 22
kweherio 22
Cla@@ 22
ĩnd@@ 22
tũcemanie 22
gen@@ 22
thiũrũrũk@@ 22
arutagwo 22
aainire 22
iyũkirie 22
aanyitire 22
magooti 22
aaheagwo 22
meekagwo 22
ithiĩ 22
ngĩhoya 22
twahotire 22
Twarĩ 22
Ta@@ 22
aaring@@ 22
ĩrĩkĩte 22
190@@ 22
akire 22
engera 22
agĩrĩr@@ 22
akag@@ 22
rĩgakinya 22
Maciaro 22
icagi 22
kũremwo 22
yũkanĩte 22
cokagĩria 22
Afilisti 22
mateithagĩrĩria 22
thondeka 22
maarutithanagia 22
mathomaga 22
ĩrĩriai 22
Korea 22
gũgũgũteithia 22
hiũhe 22
twarutaga 22
akũre 22
ũtũheaga 22
aama@@ 22
gakwa 22
ikĩr@@ 22
ũthi@@ 22
wagĩire 22
twagĩire 22
Rungu 22
manyite 22
Or@@ 22
agũt@@ 22
ithũk@@ 22
ĩgitĩra 22
ekirũo 22
mangĩĩgerekania 22
rĩakinya 22
J 22
igage 22
itaagĩrĩire 22
ndĩg@@ 22
akaahingia 22
Ra@@ 22
Ababuloni 22
tũhoyage 22
ngĩbatithio 22
onyire 22
atũh@@ 22
ure@@ 22
ereri 22
aarũmĩrĩire 22
kũiganu 22
ngĩenda 22
ndangĩr@@ 22
managa 22
st@@ 22
tũririkanage 22
thoko 22
Jes@@ 22
inda 22
manĩte 22
ciĩk@@ 22
Onaga 22
iguithania 22
kaga 22
ũnyitaga 22
tuonete 22
wĩkagwo 22
anjamũke 22
yan@@ 22
Ing@@ 22
ĩcok@@ 22
Bro@@ 22
ner 22
noyo 22
kambĩini 22
matia@@ 22
kwĩhokerũo 22
marona 22
rĩth@@ 22
aker@@ 22
athimĩtwo 22
ngir@@ 22
ndakan@@ 22
marutagwo 22
nginy@@ 22
njok@@ 22
akĩheo 22
Tũratũũra 22
Beth@@ 22
ũmanĩrĩire 22
indaga 22
ithu@@ 22
amah@@ 22
eyumĩririe 22
hoke 22
ohoro 22
ahen@@ 22
ũkwenda 22
ciaragwo 22
erũhia 22
tũkĩruta 22
Don 22
magĩtaarĩria 22
meekĩte 22
maagar@@ 22
MOR@@ 22
ũcenj@@ 22
eeka 22
ike 22
icigĩrĩra 22
iriki 22
ũheetwo 22
Gũteithia 22
wakuire 22
Gom@@ 22
kũrĩtũmaga 22
2004 22
kũũhũthĩra 22
ndahotire 22
ngam@@ 22
mohetwo 22
Atu@@ 22
Tũngĩĩthema 22
hega 22
kwĩharĩria 22
Gary 22
ciĩr@@ 22
wĩkĩire 22
sa@@ 22
irĩt@@ 22
maiganĩire 22
Mũbatithania 22
Tũtingĩ@@ 22
tũngĩ 22
KAINGĨ 22
tũgĩcoka 22
mwe 22
Tũkwarĩrĩria 22
mationaga 22
Ndagĩtarĩ 22
ũragaga 22
omunisti 22
kĩrĩ@@ 22
Amosi 22
imo 22
makenagio 22
acenjie 22
ondekagwo 22
arũrũkire 22
oonaga 22
59 22
aher@@ 22
rũngĩ@@ 22
ĩrutwo 22
gĩg@@ 22
ĩtũteithie 22
Ũkũũri 22
ũthuur@@ 22
ENE 22
kũhingio 22
ũmbwo 22
ũgũ 22
ond@@ 22
akarie 22
maagendaga 22
meharĩirie 22
inyuene 22
igagĩra 22
ũmĩra 22
arek@@ 22
gakenge 22
Senakeribu 22
ungu 22
ungo 22
5,000 22
ethaga 22
ũrĩthiaga 22
indĩkĩrĩria 22
City 22
ũtinĩnja 22
makĩbatithio 22
haga 22
gũthomaga 22
Kitabu 22
athuurĩte 22
mateithĩrĩrie 22
matiũĩ 22
yombirũo 22
aarutanaga 22
themba 22
ndĩrenda 22
Ju@@ 22
ũkũgĩa 22
Hu@@ 22
meend@@ 22
THE 22
Esiteri 22
ANG@@ 22
Taiwan 22
ni@@ 22
kangĩ 22
itonga 22
115 22
emera 22
arak@@ 21
onge 21
cemanie 21
ũkuaga 21
Kĩnjĩrĩmani 21
ehoka 21
aramenya 21
ũrũrũ 21
ian 21
Joana 21
ũrũri 21
yl@@ 21
kũgiria 21
Ndĩ@@ 21
6,000 21
Mũroma 21
mũhĩt@@ 21
Maya 21
igĩrĩra 21
eereire 21
kũmũhoya 21
ũrathimaga 21
ũgatuĩka 21
gũgĩt@@ 21
agimaru 21
twecũrania 21
bur@@ 21
akĩgu 21
akora 21
hingũra 21
ũkagĩra 21
itũrũr@@ 21
akĩandĩkĩra 21
itangĩ@@ 21
ndingĩhota 21
Ram@@ 21
mumu 21
The@@ 21
aũrirũo 21
hũthia 21
aaga 21
borithi 21
ũmĩirũo 21
00 21
buku 21
Mwĩcirĩrie 21
Franz 21
kwamũ@@ 21
aaririkanirie 21
agi 21
Jim 21
kũmũũraga 21
ngamĩra 21
maheni 21
kuuna 21
kanyũmba 21
atũire 21
ũmbũ@@ 21
tũrĩhotaga 21
kũmu@@ 21
eerĩtwo 21
ciongero 21
mũmeny@@ 21
ch 21
ce 21
ũrũng@@ 21
mĩtwe 21
ĩrĩro 21
nĩngũ@@ 21
ũmĩrĩrũo 21
tũmũkuhĩrĩrie 21
ĩtagĩrĩire 21
mwendaga 21
ing’@@ 21
Ndig@@ 21
yaragia 21
MAK@@ 21
GŨK@@ 21
akaniina 21
ngũm@@ 21
kĩngĩt@@ 21
athũkie 21
athini 21
uura 21
ũrũmĩrĩra 21
manj@@ 21
ũkw@@ 21
ekũbatara 21
Mawatho 21
aathĩkĩire 21
kwagĩa 21
Kwambĩrĩria 21
Mary 21
atũth@@ 21
hĩta 21
GUO 21
tũhũth@@ 21
hon@@ 21
uire 21
abangire 21
mũtungatagĩre 21
gũtiganĩria 21
emb@@ 21
tũhoyaga 21
kũring@@ 21
ITHE 21
California 21
gũthiũrũrũk@@ 21
ĩithia 21
ũngĩmenya 21
Efiraimu 21
ciombirũo 21
mahũri 21
kũngĩahotekire 21
Wĩmeny@@ 21
ũhingia 21
athĩrĩirie 21
mai 21
ũciari 21
Kĩbungo 21
etĩkĩrĩka 21
gũtwar@@ 21
onda 21
ithagie 21
meka 21
gwĩthurĩra 21
itia 21
mater@@ 21
N 21
Anene 21
tũcokie 21
gũtuur@@ 21
Ũngĩrora 21
tũririkane 21
itiarĩ 21
ũthomi 21
ũũrirũo 21
Asafu 21
ũmũr@@ 21
IK@@ 21
TE@@ 21
Gĩtuvalu 21
End@@ 21
ũrah@@ 21
ahingagia 21
omi 21
mĩago 21
ũkenagia 21
ethera 21
Kũririkana 21
cerera 21
metanĩtio 21
gũũkĩra 21
ũguũr@@ 21
anaine 21
ithĩria 21
ũtiganĩte 21
atugi 21
gaacĩra 21
inyu 21
ihũthagĩra 21
ũkĩ 21
amũrirũo 21
G 21
Ndar@@ 21
angĩg@@ 21
kũhĩng@@ 21
ũirũo 21
eeriragĩria 21
twerutire 21
ĩrĩrĩria 21
Mikaeli 21
athomu 21
Rũcinĩ 21
malaria 21
wekirũo 21
mahanaine 21
Kĩar@@ 21
aakiny@@ 21
eerutĩte 21
main@@ 21
Noguo 21
yoneke 21
maageragia 21
ũĩrĩra 21
ũrũngano 21
nĩũ@@ 21
eetagwo 21
twĩkore 21
ciatũmire 21
nĩk@@ 21
Ohio 21
acabirũo 21
ũmũ 21
maakorire 21
andũkũ 21
aarutĩte 21
mwĩg@@ 21
ambaya 21
Mĩnyamaro 21
yania 21
Ndaiguire 21
akĩaga 21
chaina 21
woimĩte 21
Mĩt@@ 21
angĩona 21
Aha@@ 21
anyarir@@ 21
aatongoririe 21
Eekire 21
rĩonanĩtie 21
gakaari 21
rwag@@ 21
ũthiũrũrũkĩirie 21
ndaarutaga 21
magekĩka 21
Ndonaga 21
mekũbatara 21
gogo 21
maroiga 21
ĨRĨ 21
kũnyitanagĩra 21
koiro 21
ico 21
inyuothe 21
ũhoe 21
1949 21
Megiĩ 21
thuthurie 21
marĩkĩtie 21
Bathaka 21
makahũthĩra 21
gũtũruta 21
Sim@@ 21
imara 21
ĩhũth@@ 21
gũtaarĩ 21
eetigagĩra 21
mũiyũro 21
kũnyarir@@ 21
United 21
Kwĩr@@ 21
International 21
kwĩyatha 21
ũũmĩrĩrie 21
moyaga 21
Uhai 21
mekagwo 21
mũratawe 21
ũratũruta 21
wakoretwo 21
aarĩkanĩire 21
Creation 21
mambĩrĩrie 21
aamũkĩra 21
kũũrag@@ 21
moth@@ 21
ũheo 21
mbomu 21
guĩ 21
mateithĩtie 21
kĩaria 21
gĩath@@ 21
gũtĩithia 21
mũromo 21
atĩrĩrĩ 21
iũkirie 21
Eduardo 21
aabangĩte 21
é 21
wokire 21
itĩrĩrio 21
IKAR@@ 21
ũtwendete 21
Kolosai 21
matandatũ 21
acĩrithia 20
twaga 20
Njiguaga 20
99 20
Lo@@ 20
Yugaga 20
ingatire 20
ndathiaga 20
kwarĩria 20
Ũmĩrĩru 20
kwendwo 20
ũnyihe 20
makĩgeria 20
gwĩtanga 20
Mega 20
ũthũkia 20
urĩtwo 20
wĩcũranie 20
nyarir@@ 20
kũhootana 20
angu@@ 20
gunĩkaga 20
ang’eth@@ 20
timũ 20
maanyitirũo 20
makinyĩre 20
agaci@@ 20
kũmwĩkĩra 20
igũtũteithia 20
tũngĩbatara 20
gũikia 20
Babeli 20
rũthanju 20
ATA 20
urie 20
nyũngũ 20
Nic@@ 20
tũkĩenda 20
maateithirie 20
Ũkirĩrĩria 20
Timgad 20
kũiyũkia 20
agitĩre 20
ũgekĩka 20
gũthũkio 20
tũrĩonaga 20
ũmwĩgiĩ 20
Kũngĩhoteka 20
mathũkie 20
Makoragwo 20
Boazu 20
ĩrĩgĩrĩire 20
butha 20
goocithagia 20
araragia 20
ĩtuaga 20
magũteithie 20
ũtuĩte 20
ndeg@@ 20
haane 20
ithondeketwo 20
gũthaaka 20
megwĩka 20
wabatithirio 20
garũra 20
athwo 20
Gĩtũmaga 20
aahoyaga 20
arig@@ 20
aakorire 20
oorio 20
kwaranagĩria 20
Nathan 20
kũingĩrĩra 20
1930 20
ũhũthĩkaga 20
wang@@ 20
aganĩte 20
akamar@@ 20
site 20
ciongo 20
mekwenda 20
NYA 20
1958 20
ngĩmenya 20
cokerie 20
athĩrĩrio 20
kũnyiha 20
ũtũrehagĩra 20
ũhinyanĩrĩria 20
abanga 20
ndetigagĩra 20
emenda 20
tũgĩtungatĩra 20
kũhingũra 20
menyeka 20
mathabu 20
kũgaathĩrĩria 20
akĩigua 20
Maa@@ 20
ũtha 20
Ndũkanareke 20
acĩru 20
gĩtũteithie 20
ũranirie 20
kũingĩhĩrũo 20
ndekire 20
gwetwo 20
yonekaga 20
gũciar@@ 20
mbuguĩro 20
aagu@@ 20
ainaga 20
tũtuĩte 20
akinyĩra 20
1931 20
gũgakorũo 20
arĩka 20
hithe 20
mehokete 20
fu 20
yak@@ 20
ego 20
ĨRĨRIA 20
Kũriũka 20
haraihu 20
rũruka 20
ũtangĩoneka 20
mũkenagia 20
ihie 20
akĩmat@@ 20
akũrire 20
yatũmire 20
gu 20
warathĩtwo 20
atagĩrĩire 20
acara 20
inyia 20
marĩrĩirio 20
amati 20
ceera 20
mwĩtĩkia 20
onoke 20
twarĩrĩirie 20
agun@@ 20
ũigana 20
Moigire 20
akaigua 20
Painia 20
ndĩngĩ@@ 20
igĩt@@ 20
maheire 20
tũmenyete 20
twĩyoneire 20
rek@@ 20
oroku 20
eirio 20
makonania 20
Mũgate 20
rĩathũa 20
mamwĩhok@@ 20
atwarirũo 20
Kwĩrĩkanaga 20
wĩmbo 20
matonye 20
Tũngiuga 20
MŨNDŨ 20
THAMAKI 20
wĩkwo 20
ISA 20
ĩthema 20
metĩkĩrĩke 20
matongoretio 20
twakenire 20
moonanagia 20
waath@@ 20
ndaigua 20
hoera 20
aatigĩrĩire 20
airie 20
athome 20
Del@@ 20
4,000 20
gucĩrĩria 20
agooka 20
aarakarire 20
gwateithirie 20
ĩage 20
ĩkanĩro 20
aatũrutire 20
ĩu 20
gũtindĩkĩrĩria 20
Ukraine 20
aarire 20
huhia 20
angwo 20
yunani 20
Endaga 20
ũgamia 20
Tab@@ 20
kũrekereria 20
Rũũĩ 20
erekeria 20
mwĩh@@ 20
aamũrire 20
nderutaga 20
warutirũo 20
maakiny@@ 20
ĩkoniĩ 20
hĩrĩrie 20
hingagia 20
meey@@ 20
angĩĩ@@ 20
Kĩarĩ 20
ũũrĩra 20
Onanirie 20
aathaithire 20
maathathayagia 20
amĩra 20
ngĩtĩkĩra 20
eehokire 20
ũmbũyirie 20
magaacĩre 20
angĩtwo 20
makenagia 20
eec@@ 20
enio 20
ũngĩahotire 20
GŨ@@ 20
Moritũ 20
ndwar@@ 20
mamwendete 20
ĩngĩtũteithia 20
ip@@ 20
Tũngĩĩ@@ 20
tho@@ 20
hikĩ@@ 20
anangwo 20
kuoherũo 20
Agat@@ 20
GERIA 20
Mũtĩ 20
manyamar@@ 20
athondeke 20
andi 20
aahonokirie 20
ũkĩenda 20
MATHAYO 20
gũtara 20
erorera 20
ũtangĩhota 20
kũmũgooca 20
ĩtithagia 20
twĩcir@@ 20
mĩg@@ 20
aacemanagia 20
hokage 20
wongerereke 20
atumumu 20
or 20
Atan@@ 20
Di@@ 20
gũtonya 20
EITH@@ 20
rĩaguo 20
kĩbataranagia 20
etire 20
ũrana 20
GIĨ 20
makiuma 20
gũkararia 20
maakenagio 20
ũrĩt@@ 20
ingi 20
MAT@@ 20
haicĩte 20
mbegũ 20
Mũrimũ 20
inyĩrĩrio 20
,@@ 20
Ikũmi 20
Hab 20
Magongona 20
aaguc@@ 20
kũronania 20
133 20
woimire 20
ũngiuga 20
irikanirie 20
Nyina 20
ake@@ 20
mathĩkagĩra 20
mwĩgatho 20
yũk@@ 20
ũkona 20
ikwo 20
118 20
kũhooreria 20
la@@ 20
mawĩko 20
wabataraga 20
Eli@@ 20
anĩr@@ 20
Sam@@ 19
ũiguĩte 19
gũtũthikĩrĩria 19
merire 19
92 19
ĩtithio 19
Gũtuĩka 19
iganĩte 19
gũtũh@@ 19
humbaga 19
aramati 19
Mogarũrũku 19
eerutĩire 19
atuohere 19
tũrahũthĩra 19
hona 19
ngwenda 19
ero@@ 19
tũgĩetagĩrĩra 19
mamar@@ 19
amaria 19
njĩke 19
yahĩt@@ 19
anagĩre 19
tũnyamar@@ 19
ingĩteithia 19
Ũngĩhũthĩra 19
tũige 19
ĩkaine 19
irikanagwo 19
gĩathĩ 19
aici 19
abagwo 19
kanyu 19
maataũkĩirũo 19
mũhĩtanu 19
rĩtiarĩ 19
Biblia 19
kĩga@@ 19
ndoonaga 19
magĩtua 19
kwĩyaria 19
icenj@@ 19
Akorũo 19
Mĩtugo 19
Ch@@ 19
agĩtongoria 19
gwakwo 19
kũnyamarĩka 19
aatungatire 19
egũ@@ 19
agĩikara 19
kũheaga 19
kũgar@@ 19
manyitanagĩra 19
ũkenagĩra 19
thigũkũ 19
makahunjie 19
ndakenagĩra 19
gĩtangĩ@@ 19
yumanaga 19
kũmenyana 19
mabatiĩ 19
mangĩĩruta 19
yaar@@ 19
uu 19
mũhing@@ 19
haragana 19
Wendani 19
thamire 19
agwetetwo 19
indano 19
ahotete 19
meerutaga 19
mabataranagia 19
ikĩru 19
akene 19
gĩĩk@@ 19
etĩkania 19
gĩkũnjo 19
maakenagĩra 19
Baali 19
eekagĩra 19
ingithanirie 19
ekagwo 19
ŨHORO 19
Ciũngano 19
tũtegũtigithĩria 19
it 19
ciĩtagwo 19
Igomano 19
mũgĩe 19
thur@@ 19
hiki 19
ndakenagio 19
magĩũka 19
arekererie 19
ŨŨRA 19
kwĩhanda 19
atuwo 19
twacemanirie 19
Ndeer@@ 19
NJ@@ 19
ũgĩthiĩ 19
Hag@@ 19
ũgĩtuĩka 19
uure 19
atanakua 19
mũrangĩri 19
INGĨ 19
gũgũtũma 19
atuaga 19
wekĩrire 19
ĩhĩria 19
ndang@@ 19
ndaah@@ 19
Gũcok@@ 19
ũingĩhĩte 19
mĩromo 19
Luther 19
thuuraga 19
Fiji 19
akaririe 19
akararia 19
etĩkĩrĩkĩte 19
ndaga 19
ahotekire 19
itir@@ 19
ũroneka 19
gũcokerera 19
ũmĩire 19
gũgĩk@@ 19
ũreka 19
yũ 19
Tho@@ 19
aahonirie 19
megũkorũo 19
wekĩrirũo 19
matũũrie 19
Ez@@ 19
tũũrie 19
etĩi 19
akuo 19
gũteithĩtie 19
bas@@ 19
getagwo 19
twĩhandĩte 19
ekuuga 19
AHIB 19
KWA 19
sa 19
uro 19
atwarũo 19
kũgathĩrĩria 19
kũrakarĩra 19
ikarania 19
oti 19
1513 19
aatũheire 19
ithomo 19
7,000 19
kũheenania 19
Kũngĩthiĩ 19
iganagĩra 19
magĩkua 19
ũũragwo 19
END@@ 19
igĩk@@ 19
ũmbũyia 19
Tit 19
ũngĩthũkia 19
Ger@@ 19
10,000 19
Sh@@ 19
magĩrĩru 19
gũcabwo 19
Tũkoragwo 19
Kwĩhoka 19
gũtherema 19
abang@@ 19
AB@@ 19
rwaragio 19
ir 19
thiirĩ 19
Ong@@ 19
makuh@@ 19
Rũĩ 19
DNA 19
matekũmenya 19
thũmbĩ 19
Nakuo 19
rĩngĩt@@ 19
matue 19
Rũĩm 19
arĩki 19
aathuurire 19
mĩthia 19
kĩayo 19
matongoragio 19
twaigua 19
eehaarĩirie 19
Aamwĩrire 19
kwĩrũo 19
mamenyete 19
mũnd@@ 19
eekĩrĩire 19
Harĩa 19
Benin 19
mũmena 19
gũtindĩkwo 19
ũrũme 19
mũcayanĩri 19
gucĩrĩrio 19
magego 19
Man@@ 19
ehokire 19
eendire 19
hikirie 19
matuĩtwo 19
anĩrĩrio 19
Meny@@ 19
meerutanagĩria 19
rĩa@@ 19
tũngĩĩ@@ 19
Gĩsuriata 19
Ng’ondu 19
kwĩgwatĩra 19
gũcokagĩria 19
angĩarutire 19
woyaga 19
nyũk@@ 19
2007 19
ngaigua 19
Kuonekaga 19
Turkey 19
twarithia 19
aakenirio 19
magaga 19
macaragia 19
agaatuĩka 19
akuhĩrĩirie 19
ũgunaga 19
kũramata 19
wonetwo 19
ĩru 19
maarũmĩrĩire 19
urũa 19
anyua 19
inyĩrĩka 19
iteithagia 19
ihĩt@@ 19
mahutanĩtie 19
ĩgĩe 19
angĩath@@ 19
igatũma 19
KW@@ 19
gũkora 19
ndeerutaga 19
twaragia 19
abarĩre 19
aarĩkia 19
ingith@@ 19
DE@@ 19
ũheete 19
marath@@ 19
irikane 19
mwĩkĩre 19
mookĩte 19
mok@@ 19
magwat@@ 19
LU@@ 19
Tũtingĩenda 19
mwathĩki 19
Zedekia 19
ick 19
aatwĩrire 19
twĩharĩirie 19
kĩguũ 19
kũmakĩra 19
kĩandĩkĩtwo 19
tũhaana 19
rĩĩciria 19
Wycliffe 19
ahĩra 19
aahunjĩirie 19
ndiugaga 19
athimagwo 19
gũtuonia 19
gũnda 19
gĩtariĩ 19
Samusoni 19
eeciririe 19
5,@@ 19
ebu 19
ũmagĩrĩre 19
megerekanagia 19
Mũciĩ 19
ũtũtindĩkaga 19
Raiya 19
arĩgũteithagia 19
atũk@@ 19
gũkũũrũo 19
gwatĩre 19
twĩgerekanagie 19
Kamb@@ 19
ũgĩ 19
meyamũr@@ 19
tũkĩaria 19
magaatuĩka 19
metaga 19
gũkomania 19
kwamũrũo 19
Zef 19
agĩteithia 19
ihaana 19
aataũkagĩrũo 19
muone 19
tablet 19
nũgũ 19
waagi 19
kũiguanĩra 19
atar@@ 19
akeheria 19
aatũũririe 19
magĩc@@ 19
anjamũka 19
rũkũ 19
maahotaga 19
makũmbĩ 19
RO@@ 19
maaga 19
can@@ 19
gũita 19
gũthũkie 19
igicĩirio 19
Ũngĩteithia 19
Mĩtũũrĩre 19
Hoyaga 19
Baruku 19
magakua 19
Mũethiopia 19
anju 19
kũgera 18
ingĩrĩra 18
marũe 18
omagĩra 18
itho 18
ilia 18
nguĩte 18
ndeciria 18
bishobu 18
ndera 18
atĩ@@ 18
anyihie 18
tũreg@@ 18
twĩkagĩra 18
thema 18
Ĩkagai 18
oretie 18
atũririkania 18
tiganĩria 18
onye 18
ũngĩatuĩkire 18
José 18
twamũkagĩra 18
tiganĩirie 18
tũci@@ 18
Wonaga 18
Mũthigari 18
oherũo 18
of@@ 18
kũrua 18
tũtungatagĩra 18
waranĩrie 18
Shi@@ 18
aameerire 18
Irathĩro 18
cokerera 18
rĩagĩrĩru 18
aamũth@@ 18
mamwĩgiĩ 18
atigĩrĩre 18
aci 18
ithuerĩ 18
Bel@@ 18
wĩtĩkia 18
ũi 18
maratungata 18
wathĩkĩra 18
Ro@@ 18
etĩkagĩria 18
akahe 18
gũtũtongoria 18
abatithie 18
ũtwar@@ 18
kũmũkĩra 18
gwĩtetera 18
GER@@ 18
heanirũo 18
emire 18
rwĩgiĩ 18
sipania 18
Cumbĩ 18
mangĩekire 18
ndoigire 18
angĩgĩa 18
aaiyũkirie 18
atoĩ 18
makũ@@ 18
agiei 18
ngoma 18
magĩtungatĩra 18
inyagĩrĩria 18
wacenj@@ 18
ui 18
oragũo 18
oorie 18
let 18
itirĩ 18
matiĩ@@ 18
ndaathiaga 18
aamakire 18
yaandĩkirũo 18
gũkinyia 18
os 18
makagĩa 18
ITŨ 18
oreki 18
ũgitĩre 18
thĩnia 18
ũara 18
ĩkĩrĩria 18
thec@@ 18
atangĩhota 18
gũtũũrania 18
itĩrĩria 18
gũthi@@ 18
Igo@@ 18
sis@@ 18
South 18
thomaga 18
marĩkoragwo 18
1,600 18
heani 18
1999 18
ini@@ 18
imera 18
matuĩkaga 18
anyĩte 18
tũhũthagĩre 18
anyo@@ 18
Mwĩhĩtwa 18
eithagĩrĩria 18
Em@@ 18
gwĩkĩre 18
do 18
eetereire 18
ngiuga 18
imenyithia 18
ũroka 18
meku@@ 18
tũraruta 18
merek@@ 18
gũtangĩkĩra 18
aroraga 18
mũthathaiya 18
Ciothe 18
ikari 18
Is@@ 18
Ndag@@ 18
mũtaar@@ 18
kũrĩh@@ 18
1957 18
AGIO 18
meg@@ 18
engia 18
angĩakuire 18
Kwaranĩria 18
ambe 18
ũbatara 18
atũguũr@@ 18
mamenya 18
kũgũ@@ 18
moria 18
area 18
tũrĩr@@ 18
600 18
maathurire 18
Gwen 18
anyitanagĩra 18
goocithia 18
ithanirio 18
Kal@@ 18
Akĩg@@ 18
kwĩnyihĩria 18
maatuĩkĩte 18
mamĩ@@ 18
De@@ 18
makamũ@@ 18
Tha 18
ũtũrutaga 18
Njuuma 18
kũmenyeka 18
tũngiuga 18
yathiaga 18
ũini 18
ger@@ 18
thamba 18
him 18
ekereirie 18
ekereirio 18
700 18
awa 18
ngo 18
tũteithagia 18
ũmbĩre 18
hin@@ 18
kwandĩkĩra 18
maarĩaga 18
Gũkũria 18
macokeria 18
105 18
indĩkwo 18
meera 18
ikũngũĩro 18
IRIE 18
indĩka 18
anĩirio 18
akĩnyita 18
mahonoke 18
atandatũ 18
ũtagathira 18
ndĩrutĩte 18
itũhagĩrũo 18
acem@@ 18
une 18
makaahonokio 18
mamũcaragia 18
il 18
ic 18
maka 18
mĩtaratara 18
gũtaũrũo 18
,0@@ 18
Akĩhũthĩra 18
co@@ 18
tũgacoka 18
macokaga 18
kũrikĩra 18
mahũthũ 18
mbur@@ 18
aninire 18
JU@@ 18
ũrak@@ 18
rĩtaarĩirie 18
tũtoĩ 18
ũrĩtũmaga 18
aaririkanaga 18
aatariĩ 18
kwĩyaũra 18
kũmĩthoma 18
mararuta 18
mangĩatuĩkire 18
arũgamĩte 18
akuaga 18
Aama@@ 18
moka 18
tuonanagie 18
ũhũthĩri 18
kĩamũteithirie 18
mangĩgunĩka 18
thamĩre 18
ahingirio 18
hingie 18
gũthĩnjwo 18
twakenagĩra 18
tũingĩ 18
ĩmbo 18
maatigire 18
ũreciria 18
mathiũrũrũkĩirie 18
iranagĩrĩria 18
ereme 18
aarĩrio 18
Lameku 18
andĩkagwo 18
kũni@@ 18
ess@@ 18
Dublin 18
moonagwo 18
tũtikĩagĩrĩirũo 18
kuohwo 18
embe 18
drama 18
mekĩtwo 18
Mormon 18
enereirie 18
ocith@@ 18
Sanhedrini 18
Mĩhari 18
ũhaanaine 18
Tua 18
Mũhonokia 18
ndaakoragwo 18
harag@@ 18
tũhengereta 18
ngĩkorũo 18
atwĩkĩire 18
etĩkagia 18
kũmũkenia 18
ndũrũme 18
eerutanĩirie 18
makene 18
aheane 18
ikaahinga 18
Antiokia 18
Anga 18
mathang@@ 18
Tr@@ 18
Spain 18
Magĩcoka 18
gĩekĩirũo 18
W 18
acenjia 18
tũkaaheo 18
rĩkoretwo 18
akenia 18
ndigi 18
ekond@@ 18
emagwo 18
ĨRĨ@@ 18
gũkĩhũthĩra 18
magereire 18
ainire 18
nyihĩtie 18
mong@@ 18
ũga 18
nogete 18
Ezara 18
Azaria 18
maikar@@ 18
Rĩarĩ 18
thĩtie 18
mwĩk@@ 18
anagĩrĩria 18
Hutter 18
manyih@@ 18
ikũnjo 18
wombirũo 18
gũkomb@@ 18
3,@@ 18
Su@@ 18
kũringĩrĩrio 18
67 18
wendire 18
ũteithĩrĩrie 18
mangĩath@@ 18
merĩgagĩrĩra 18
ũngĩg@@ 18
hĩtũku 18
igo 18
ũkĩĩr@@ 18
maameny@@ 18
gako 18
akaaniina 18
1940 18
marerutanĩria 18
mũtheri 18
maatig@@ 18
yaarĩ 18
mooigire 18
thugu@@ 18
Sin@@ 18
tũgũkorũo 18
ũtungataga 18
ũrehe 18
goocaga 18
Airĩtu 18
kũwĩka 18
hagia 18
Angiriki 18
ũreh@@ 18
ikinyu 18
nĩũka@@ 18
iro@@ 18
mũhũri 18
136 18
kũiguithia 18
tũtingĩkorũo 18
Kĩgomano 18
wĩthĩ 18
enereria 18
aciarũo 18
81 18
akĩmu@@ 18
KE 18
egirie 18
kũmenyera 18
0,000 18
kũhik@@ 18
ĩkanĩirie 18
ũbatiĩ 18
ũmũt@@ 18
itĩrĩrie 18
T 18
maathondekire 18
kĩrũmanĩrĩrio 18
gũthondekwo 18
kwenja 18
twĩkĩte 18
matĩĩte 18
ciaragio 18
agĩgĩt@@ 18
methugunda 18
humbe 18
UGO 18
ũrĩtio 17
kũhen@@ 17
mathuuraga 17
ĩhaanaine 17
gũthaitha 17
96 17
ndekaga 17
Nĩo 17
ombe 17
ry 17
macokeirie 17
AIRA 17
ũranga 17
Motaaro 17
akarire 17
ĩkai 17
ũmwĩ@@ 17
rĩĩ@@ 17
makaaninwo 17
hiũranirie 17
arati 17
ahĩtwo 17
Marĩkũ 17
Kũbatithio 17
heanĩtwo 17
ö@@ 17
mũkar@@ 17
kohoro 17
mare@@ 17
Kĩerũ 17
ndut@@ 17
agĩciria 17
mekenagĩra 17
gũgĩ@@ 17
tũgwĩka 17
hithan@@ 17
ũram@@ 17
indĩkagwo 17
tsunami 17
tur@@ 17
mangĩataũkĩirũo 17
land 17
Magerio 17
Riita 17
ts 17
ĩrũgamagĩrĩra 17
akarĩre 17
tũrore 17
Capito 17
kĩhaarĩro 17
onetie 17
udia 17
nomo 17
ĩkaan@@ 17
mokire 17
kũũmbwo 17
kũmenereria 17
maarutĩte 17
makĩmũr@@ 17
rĩtwĩraga 17
Ithandũkũ 17
akĩũragwo 17
athi@@ 17
198@@ 17
marabatarania 17
maamũth@@ 17
mbũra 17
ĩrĩke 17
gooka 17
Aahũthĩrire 17
kwandĩkwo 17
mehocetie 17
kũguũr@@ 17
bataranagia 17
kũrũng@@ 17
Jan@@ 17
mũcinga 17
iha 17
Ũngĩonania 17
tend@@ 17
atiganĩirie 17
magĩkinya 17
Ĩka 17
kũrek@@ 17
nĩko 17
orania 17
ruonanagia 17
erutĩri 17
aamerĩte 17
rũti@@ 17
Mad@@ 17
mĩaraho 17
memeny@@ 17
iv@@ 17
ithathi 17
gũtinda 17
kĩngĩatũmire 17
kĩah@@ 17
ũmake 17
kwĩingĩrania 17
hika 17
marahiũrania 17
Tinĩnja 17
iyũra 17
namba 17
njoke 17
njĩkaga 17
gũkũũria 17
mahuti 17
acĩra 17
Phi@@ 17
maandeithirie 17
akoya 17
gwiki 17
tooria 17
ũngĩthiĩ 17
INI 17
agucĩrĩirio 17
wongererekaga 17
mũrikĩru 17
wany@@ 17
Marigĩrĩrio 17
gũa 17
Eureka 17
aw@@ 17
arore 17
Kũmenyeria 17
maine 17
makirie 17
yatariĩ 17
twaheirũo 17
gĩtũheaga 17
Zarefathu 17
mũreri 17
ũngĩoneka 17
Twahota 17
ami 17
kwĩyũraga 17
thuure 17
abangaga 17
ciiria 17
andĩte 17
mũici 17
omagĩrĩria 17
wonekire 17
ciigana 17
athuura 17
ceerera 17
kwĩhok@@ 17
woĩkaine 17
ũragano 17
est@@ 17
arĩkĩre 17
itĩrĩirie 17
Hekarũ 17
pa@@ 17
sta 17
maratongoria 17
AND@@ 17
kĩrĩte 17
etagĩra 17
Tũcoke 17
Wĩhokage 17
tũtũũr@@ 17
rĩgĩth@@ 17
arac@@ 17
ũbac@@ 17
mũhe 17
akany@@ 17
Per@@ 17
America 17
gĩ 17
MARĨA 17
tũcokagĩria 17
ndũngĩhota 17
ŨRĨ 17
aniinire 17
nyamarĩka 17
Ũh@@ 17
akwo 17
Yarĩ 17
ngũ 17
Evelyn 17
mathe@@ 17
ROM 17
Merirĩria 17
Meciria 17
tũnua 17
tũrũmagĩrĩre 17
hakoragwo 17
Itemi 17
ANIE 17
ingĩrĩria 17
gũcina 17
rũk@@ 17
aheagwo 17
mabang@@ 17
iũ 17
una 17
tũtegũtĩrĩria 17
Irĩma 17
ũgaathira 17
gũtũguna 17
kwananga 17
acarie 17
tũthuure 17
Ara@@ 17
irehaga 17
GĨ@@ 17
itongoretio 17
gũcaĩra 17
ula 17
ame@@ 17
athuthĩku 17
avana 17
mũbarĩrĩri 17
ĩtigagĩra 17
makũũr@@ 17
ĩkagai 17
mũteng’eri 17
tũgerie 17
kũhonania 17
Naamani 17
cokire 17
cokaga 17
ciaguo 17
je 17
Wĩ 17
UN@@ 17
moe 17
oete 17
ũrahunjio 17
warũgamĩrĩire 17
maahunjirie 17
ĩthemaga 17
mũthabibũ 17
Piris@@ 17
ĨRIA 17
ũthagĩrĩria 17
wĩrutĩri 17
ateithĩrĩrie 17
kag@@ 17
Nar@@ 17
kuonaga 17
Arutani 17
ciendete 17
Ũtaũri 17
weter@@ 17
ation 17
mahaanaine 17
ambia 17
gũitĩrĩrio 17
iku 17
ngundi 17
agũth@@ 17
nĩma@@ 17
tũtigĩrĩre 17
makuĩrĩirũo 17
amenyerio 17
HUNJ@@ 17
moragwo 17
tũrar@@ 17
oce 17
nor@@ 17
Ciama 17
irethi 17
akium@@ 17
aaciarĩirũo 17
aingĩre 17
Monaga 17
Gwĩc@@ 17
ũbatithio 17
tweciria 17
ĩgwetaga 17
adi 17
Twĩ 17
ũtige 17
wĩrĩte 17
mũikarĩre 17
Biũ 17
gwatũmaga 17
etĩkĩrĩke 17
agiria 17
ris@@ 17
ndeh@@ 17
ingĩrĩire 17
maamenyete 17
tũũndũ 17
ĩah@@ 17
magĩtu@@ 17
enanagia 17
amĩte 17
cie@@ 17
makenda 17
kũnyihanyihia 17
ĨA 17
wĩrira 17
igatuĩka 17
gũcokerio 17
meekirũo 17
mareganaga 17
Abishai 17
kũmũth@@ 17
ũmu@@ 17
hũthĩre 17
ĩtĩ 17
ũratwarana 17
ũngĩĩ@@ 17
ũgucĩrĩria 17
ũreruta 17
Abigaili 17
Wĩmenyagĩrĩrei 17
magaikara 17
magigi 17
thĩnj@@ 17
RĨ@@ 17
Ũũmbi 17
Uria 17
ngũrũ 17
68 17
ingĩraga 17
marima 17
nyiki 17
Ũthĩni 17
mekagĩrĩra 17
MŨTH@@ 17
kilo 17
atana@@ 17
nungi 17
arigitani 17
atuĩra 17
itugĩ 17
hĩtũke 17
gune 17
ciringi 17
uthurie 17
maahoyaga 17
ũkĩhũthĩra 17
NJĨRA 17
ekũrĩa 17
maarĩria 17
Mbĩrĩra 17
Ndonire 17
tũngĩĩyũria 17
Paolo 17
JUN@@ 17
magaathana 17
mabatithio 17
kuo@@ 17
gũtugana 17
ndaheirũo 17
rũhũthagĩrũo 17
akĩendaga 17
icoki 17
ũgwĩciria 17
wekire 17
matiamenyaga 17
Ĩmwe 17
bacici 17
ibu 17
Fil@@ 17
aamwĩrĩte 17
Bo@@ 17
NDŨ 17
yathirire 17
aahete 17
eithĩrĩrio 17
irikanie 17
tekinolonjĩ 17
Jason 17
Grace 17
njokagia 17
Cellarius 17
Wĩyathi 17
Tũngĩk@@ 17
aramari 17
Afilisiti 17
ũmũteithie 17
ahingĩtie 17
twey@@ 17
mab@@ 17
ũmagia 16
twakenaga 16
ũmĩ@@ 16
merutagĩra 16
ĩtithie 16
anirio 16
nĩekũmagiria 16
re 16
ri 16
twathomaga 16
Williams 16
umbũrũo 16
gũtiiragĩrĩra 16
gũtoorio 16
twamenyire 16
tũiganĩire 16
materĩgĩrĩirũo 16
magĩikara 16
uumithio 16
ũngĩrĩ 16
maririkanaga 16
COK@@ 16
magĩtĩkĩra 16
makiugaga 16
kũrũmagĩrĩra 16
ũtu 16
inyitaga 16
mũngĩenda 16
merutĩte 16
megerekanie 16
rũtũrĩko 16
Ĩgarũraga 16
maigua 16
anti 16
ĩkagĩrĩra 16
etera 16
kuohanagĩra 16
ndamath@@ 16
oha 16
ay 16
Ed@@ 16
gwĩtongoria 16
Kingsley 16
eremete 16
marĩtwa 16
kĩganda 16
magunĩkĩte 16
etagĩrĩra 16
ith 16
ũtũg@@ 16
tũkĩhikania 16
kũrũmbũiyo 16
makaheo 16
Janet 16
ĩramu 16
marũmbũyagia 16
ita@@ 16
warĩrĩirio 16
ũkwo 16
maakob@@ 16
matiataũkagĩrũo 16
wĩhokaga 16
mama 16
Mesopotamia 16
ngeithi 16
magaci@@ 16
San 16
Vi@@ 16
makaah@@ 16
tũkenete 16
kuonekire 16
kũrĩo 16
wamw@@ 16
C 16
endo 16
kũngĩra 16
mũgĩ@@ 16
shi@@ 16
Campanus 16
yumĩte 16
tũrakuhĩrĩria 16
makĩrĩte 16
marĩaga 16
ũtongoretio 16
noga 16
ĨRE 16
ũngĩĩruta 16
nogia 16
ũkĩria 16
ungaga 16
50,000 16
mũtaarĩria 16
ĩteithagia 16
mũtitũ 16
Tat@@ 16
tũranyamarĩka 16
Atũ@@ 16
mũtungat@@ 16
da 16
gũteng’era 16
oreria 16
kuoywo 16
ngui 16
1970 16
Santa 16
twacokire 16
uliza 16
ĩga 16
kũgerio 16
umu 16
kũingĩria 16
ngakorũo 16
gĩtaarĩirie 16
Rico 16
tigĩri 16
ngo@@ 16
watungataga 16
ũtangĩmenyeka 16
ERE 16
1956 16
1952 16
ron@@ 16
maamenyerete 16
tũrutithanagia 16
mookaga 16
ndacokire 16
mwĩtĩkĩrĩku 16
ũbatare 16
marutithanagia 16
cigo 16
RI@@ 16
ũagĩrĩra 16
makũngũ@@ 16
Marilyn 16
tũtirĩ@@ 16
wagĩa 16
mũtune 16
Ne@@ 16
ũgamire 16
mĩrũthi 16
ũragio 16
mehok@@ 16
kĩhũthagĩrũo 16
ũhoteke 16
ũreke 16
Nad@@ 16
hootane 16
kũũth@@ 16
Steve 16
ũtoorie 16
uugĩte 16
maakũr@@ 16
nĩarĩ@@ 16
UTH@@ 16
tũrerutanĩria 16
kĩiganu 16
mooire 16
irikanwo 16
AN 16
onereria 16
ũrĩmi 16
ĩcokagia 16
rĩtaaragĩria 16
ũigĩire 16
tũngĩthiĩ 16
ĩtiga 16
ille 16
ũrĩtũteithagia 16
ondi 16
gũthima 16
twathĩkĩre 16
Kenneth 16
mang’ũrĩka 16
marigithathi 16
Gr@@ 16
Hushai 16
iguage 16
meerirũo 16
okĩra 16
War@@ 16
ũngĩrora 16
ikũrũka 16
Wa@@ 16
rũkoragwo 16
ekĩragwo 16
kĩonanirie 16
omage 16
mbire 16
ainie 16
ũkinye 16
ũũmagĩrĩria 16
itaarĩ 16
ũtetĩkĩtie 16
ũthii 16
maatũmĩtwo 16
yaambĩrĩirie 16
maahonokire 16
tũre@@ 16
ihĩndĩ 16
goth@@ 16
Isabel 16
thani 16
honia 16
hahidi 16
gũkaagĩa 16
waraga 16
Ũngĩigua 16
mũrũngĩrĩru 16
inye 16
ĩĩtagwo 16
wĩrutĩte 16
mwĩtigĩri 16
gwĩtia 16
kũhonokania 16
eithania 16
kũũrĩrũo 16
ndakena 16
gũkonainie 16
Andrew 16
enai 16
Roald 16
kamweke 16
tũkĩĩ@@ 16
ũarĩte 16
nyitanagĩra 16
itar@@ 16
njuge 16
tũcarie 16
iruga 16
kũũre 16
wabataranagia 16
2005 16
maige 16
eekĩire 16
kwagĩrĩirũo 16
itikoragwo 16
heenania 16
kũmũnyita 16
etu@@ 16
gwatariĩ 16
China 16
ĨRUTANAGA 16
gĩthi@@ 16
Sheba 16
marũmanĩrĩire 16
ogo 16
wahingirio 16
ndaacokire 16
kũmanyita 16
magakenera 16
ndwagĩrĩire 16
at 16
maanyitanĩire 16
kany@@ 16
mwĩhok@@ 16
rĩakinyire 16
ONI 16
ihote 16
AL@@ 16
kwagarara 16
imu 16
irania 16
tũngĩĩcũrania 16
hath@@ 16
ũrore 16
maathomaga 16
kĩĩmĩtugo 16
ũratũma 16
magetĩkĩra 16
kanio 16
edeki 16
makĩaga 16
ihu@@ 16
oneki 16
inegene 16
ũhoi 16
itha@@ 16
1943 16
kũngĩgũteithia 16
eremagia 16
thaith@@ 16
wandekirie 16
127 16
tũkĩgĩa 16
acab@@ 16
menyih@@ 16
nyitire 16
ijana 16
mahũthĩro 16
ũmie 16
ũgũt@@ 16
ũhaga 16
twahũthagĩra 16
mongererekete 16
maathiĩte 16
tũhunjie 16
athimo 16
INDA 16
ũkaaniina 16
ndĩriragĩria 16
ald 16
kĩmaramari 16
tũngĩciria 16
omwo 16
kwĩamũrĩra 16
Joseph 16
ING@@ 16
mahunjie 16
79 16
JW 16
ĩgũteithie 16
meerĩtwo 16
ard 16
ĩkagwo 16
wathoma 16
nge@@ 16
tũmwende 16
ooco 16
ngĩte 16
ũikarage 16
ũtaarĩirio 16
ũmĩrĩirie 16
ũrũrũk@@ 16
tũratua 16
ũngĩtuĩka 16
magatũma 16
ndĩrabatara 16
matiar@@ 16
Histor@@ 16
twagĩa 16
eerere 16
gataũni 16
mahutĩtie 16
ng’ima 16
ũkaigua 16
iganĩtie 16
kũmag@@ 16
gai 15
São 15
101 15
iru 15
Mon@@ 15
Sheb@@ 15
Ecuador 15
Bi@@ 15
CIŨR@@ 15
Ti@@ 15
JOH@@ 15
akarĩra 15
rwar@@ 15
Florida 15
ciĩ 15
len 15
anĩro 15
acemanagia 15
eiro 15
1994 15
Elie@@ 15
hũk@@ 15
kiu@@ 15
Gi@@ 15
mond@@ 15
thu 15
Alice 15
mĩh@@ 15
far@@ 15
aathuur@@ 15
erut@@ 15
1953 15
1990 15
idi 15
MAG@@ 15
che@@ 15
St 15
lawii 15
arĩkĩro 15
Kyrgyzstan 15
TO 15
JA@@ 15
Joel 15
pol@@ 15
nya 15
141 15
wĩh@@ 15
op@@ 15
ote 15
wab@@ 15
í@@ 15
102 15
106 15
oro@@ 15
bert 15
ethi 15
146 15
aariũk@@ 15
ins@@ 15
fal@@ 15
hah@@ 15
Ac@@ 15
enyũki 15
YO 15
Maj@@ 15
sheba 15
Madagascar 15
ĩkĩrĩra 15
wp@@ 15
1948 15
hooreria 15
utani 15
anjamũra 15
uruh@@ 15
mwe@@ 15
garũ 15
duk@@ 15
gir@@ 15
kũrik@@ 15
inĩnja 15
Sinai 15
Asa@@ 15
usu 15
br@@ 15
135 15
85 15
su@@ 15
Elizab@@ 15
our@@ 15
Apol@@ 15
utirũo 15
por@@ 15
Was@@ 14
cam@@ 14
Zion’s 14
umana 14
Mĩh@@ 14
itaga 14
Pr@@ 14
ory 14
Van@@ 14
Will@@ 14
igari 14
inyanĩrĩria 14
ah 14
Ũngĩr@@ 14
Nero 14
kũmũk@@ 14
enema 14
Tig@@ 14
ie@@ 14
Library 14
Pierce 14
Catholic 14
ci 14
Tok@@ 14
© 14
B 14
Anne 14
mũhu@@ 14
Rica 14
bango 14
athaka 14
Fre@@ 14
1939 14
mũikar@@ 14
GU@@ 14
1870 14
ondekwo 14
ihia 14
gr@@ 14
gi 14
St@@ 14
tim@@ 14
ici@@ 14
tuguese 14
agiai 14
oto 14
ngĩ 14
ATHI 14
cem@@ 14
Col@@ 14
Scot@@ 14
Mal@@ 14
anĩru 14
umĩririe 14
gooci@@ 14
icĩirie 14
burg 14
1997 14
Ok@@ 14
mwĩr@@ 14
inyi 14
ũgit@@ 14
Mano@@ 14
Je@@ 14
gwĩti@@ 14
din@@ 14
1960 14
Web@@ 14
2002 14
Oholi@@ 14
2001 14
angĩri 14
Cheri 14
ũheire 14
au 14
esa 14
wetetwo 14
gwatio 14
ananga 14
1974 14
1961 14
Karen 14
Pennsylvania 14
Costa 14
1941 14
Hong 14
per@@ 14
bir@@ 14
Kong 14
But 14
ass@@ 14
etig@@ 14
ĩtithia 14
Jer@@ 14
si@@ 14
States 14
ĩni 14
Rob@@ 14
idi@@ 14
here 13
taũri 13
98 13
95 13
umia 13
Qu@@ 13
TO@@ 13
M.@@ 13
uũ 13
Susan 13
Christine 13
waru 13
um 13
ithikiri 13
hen@@ 13
2,500 13
IRŨO 13
ong 13
Carol@@ 13
ito 13
Kingdom 13
Sand@@ 13
Bal@@ 13
ĩtĩkĩrĩku 13
by 13
Young 13
ago 13
Fred 13
á@@ 13
nyam@@ 13
anĩtwo 13
Paris 13
va 13
Elihu 13
Jab@@ 13
1991 13
fa@@ 13
hotekire 13
ĩtwa 13
Britannica 13
Felisa 13
kũnjo 13
yer@@ 13
eng’eri 13
LE@@ 13
up@@ 13
Hos 13
Ann@@ 13
Ana 13
woe 13
stein 13
Warwick 13
76 13
mam@@ 13
magaa@@ 13
ure 13
128 13
TIM 13
hothi 13
rĩc@@ 13
maraya 13
batithirio 13
Ko@@ 13
ekei 13
Columb@@ 13
Jean 13
haic@@ 13
hel@@ 13
Cy@@ 13
Peshitta 13
ĩranĩro 13
7,@@ 13
ekĩirũo 13
eremia 13
ĩtĩkĩr@@ 13
kũhur@@ 13
900 13
Mc@@ 13
Syl@@ 13
kũmũku@@ 13
thabib@@ 13
Franci@@ 13
2003 13
cokeirie 13
Geth@@ 13
Jacob 13
S 13
Med@@ 13
thaithire 13
1980 13
Henry 13
RISTI@@ 13
Book 13
ius 13
ology 13
ngur@@ 13
Eva 13
Julian 13
maram@@ 13
1922 13
1989 13
ĩrĩh@@ 13
Republic 13
ter 13
Samuel 13
ón 13
uman@@ 13
erĩte 13
THĨ@@ 13
Jonathan 13
mwan@@ 13
ĨRUT@@ 13
kũhonok@@ 13
aari 13
Araceli 12
ŨO 12
agĩrĩrei 12
Par@@ 12
old 12
umo 12
Isra@@ 12
Angel@@ 12
Tract 12
ũtangĩk@@ 12
Janny 12
ut 12
aatũr@@ 12
gũcab@@ 12
ooc@@ 12
eithirie 12
Alexandra 12
Vic@@ 12
KGB 12
njĩ@@ 12
ler 12
Cath@@ 12
tr@@ 12
Fa@@ 12
ff@@ 12
Patric@@ 12
nyihia 12
omithia 12
Bruno 12
lan 12
ly@@ 12
andatũ 12
Doris 12
hana 12
1971 12
andand@@ 12
irĩro 12
ũmbũiyo 12
zamb@@ 12
English 12
mũb@@ 12
1951 12
1992 12
Galatia 12
cigĩrĩra 12
cor@@ 12
enyo 12
amũ 12
ome@@ 12
ev@@ 12
FAM@@ 12
Dictionary 12
Budd@@ 12
iyo 12
Switzerland 12
utu 12
AI 12
Bur@@ 12
ografĩ 12
mail 12
England 12
Ba@@ 12
Johnny 12
kũnyih@@ 12
Ngu@@ 12
aninwo 12
nu@@ 12
ĩmb@@ 12
800 12
Pakistan 12
ford 12
Pacific 12
142 12
WE 12
ence 12
enn@@ 12
Salvador 12
Margaret 12
ivasĩtĩ 12
mun@@ 12
agĩrĩ@@ 12
pa 12
ũĩro 12
araita 12
lim@@ 12
US@@ 12
Kwar@@ 12
Vulgate 12
ogu 12
aĩra 12
Reub@@ 12
lad@@ 12
ansi 12
1982 12
thiĩre 12
erĩgĩrĩirũo 12
beca 12
ent 12
imi 12
prof@@ 12
Haiti 12
1978 12
atur@@ 12
yana 12
1947 12
ũraya 12
ele 12
wĩrire 12
Gra@@ 12
ans@@ 12
1946 12
1945 12
ũkĩirũo 12
ekirie 12
ant 12
uum@@ 12
II 12
IE 12
Ih@@ 12
Nepal 12
Wallkill 12
unga 12
77 12
74 12
ph 12
Andre@@ 12
abatar@@ 12
tan@@ 12
Walter 12
87 12
ĩrĩga 12
inyu@@ 12
Ter@@ 12
112 12
ũhũthagĩrũo 12
iragĩrĩra 11
Matthew 11
Yankee 11
Stephanie 11
Puerto 11
hoi 11
ver 11
Kevin 11
Carmen 11
se 11
fil@@ 11
Portuguese 11
Dor@@ 11
Bero@@ 11
Mũrĩ@@ 11
Ser@@ 11
1,500 11
ombo 11
via 11
Wat@@ 11
odia 11
ugĩ 11
uĩ 11
ija 11
ley 11
pas@@ 11
SU@@ 11
Nathana@@ 11
ĩyũria 11
age@@ 11
AGE 11
1998 11
hiko 11
utũkanio 11
ban@@ 11
isti 11
ant@@ 11
for 11
gũtindĩk@@ 11
Blessing 11
Kwa@@ 11
Bang@@ 11
gwe@@ 11
kuhĩrĩrie 11
Map@@ 11
JO@@ 11
icky 11
oig@@ 11
fe 11
sti 11
Aro@@ 11
hootana 11
Que@@ 11
ũthomaga 11
4,@@ 11
Han@@ 11
ten@@ 11
Titus 11
bi@@ 11
mongererek@@ 11
Tur@@ 11
Ind@@ 11
hũthĩrĩtwo 11
ina@@ 11
de@@ 11
ũmo@@ 11
RA@@ 11
Dennis 11
hotire 11
Sch@@ 11
irĩrĩri 11
kũhot@@ 11
Eunice 11
berg 11
abara 11
ORO 11
ida 11
di@@ 11
agaire 11
Sime@@ 11
Flav@@ 11
hunjirie 11
yun@@ 11
Amos 11
Europe 11
American 11
ongero 11
El 11
nin@@ 11
Christian 11
nĩrĩ@@ 11
Pro@@ 11
Togo 11
IS@@ 11
Linda 11
Norway 11
thĩnjĩri 11
phi@@ 11
Un@@ 11
hĩrĩria 11
ĩnjĩri 11
NO@@ 11
aw 11
AS@@ 11
arr@@ 11
Olga 11
Gat@@ 11
1979 11
1965 11
aũkĩirũo 11
ice 11
Wĩy@@ 11
Sovi@@ 11
1920 11
Por@@ 11
Gal@@ 11
Codex 11
Tyndale 11
ĩti 11
pe 11
fe@@ 11
Alf@@ 11
Bru@@ 11
Hen@@ 11
mal@@ 11
82 11
thin@@ 11
Jehoi@@ 11
Pet@@ 11
Gre@@ 11
Lowell 11
116 11
Juan 11
Ber@@ 11
Wĩgerek@@ 10
mari@@ 10
ó@@ 10
Do@@ 10
Plat@@ 10
ech@@ 10
ũũririe 10
Wĩtĩk@@ 10
ũmenyaga 10
Tony 10
d’Ivoire 10
thabibũ 10
ĩgĩrĩirũo 10
ono 10
Toñi 10
History 10
gooca 10
Lab@@ 10
RE@@ 10
Kyriacos 10
Natalya 10
Kat@@ 10
cemanĩtie 10
Tor@@ 10
emerek@@ 10
Finland 10
cay@@ 10
Benjamin 10
ector 10
Mer@@ 10
Lak@@ 10
Jennifer 10
IVF 10
Dustin 10
mũkagĩra 10
les 10
mũkũr@@ 10
if@@ 10
onso 10
atio 10
ers 10
gerekanie 10
Pa@@ 10
Paraguay 10
Ga@@ 10
Marilou 10
Riana 10
indĩru 10
gũtug@@ 10
can 10
angĩko 10
CIAR@@ 10
1954 10
Arimathea 10
Standard 10
1933 10
1937 10
cemanirie 10
thak@@ 10
Victor 10
sha@@ 10
Chi@@ 10
past@@ 10
Gar@@ 10
iye 10
Encyclopædia 10
Vati@@ 10
Diotre@@ 10
da@@ 10
.2 10
anjamũk@@ 10
esh 10
Côte 10
hiũr@@ 10
ing 10
Rom@@ 10
Elsebeth 10
AA@@ 10
ed 10
worth 10
Ru@@ 10
Co@@ 10
Ontario 10
HI 10
12@@ 10
Johannes 10
iland 10
ainia 10
Lorraine 10
Sak@@ 10
prot@@ 10
Thig@@ 10
AF@@ 10
Golden 10
Luc@@ 10
Ja@@ 10
144 10
Eli 10
9,@@ 10
gen 10
ü@@ 10
197@@ 10
Taze 10
po@@ 10
hũkanio 10
ES 10
se@@ 10
yce 10
Onesmus 10
Jimmy 10
Denmark 10
Bill@@ 10
esti@@ 10
Siberia 10
hob@@ 10
1981 10
Baasha 10
1988 10
ũmanĩrĩria 10
lit@@ 10
Bul@@ 10
Bil@@ 10
1966 10
1963 10
Sarai 10
Rudolf 10
María 10
1942 10
Age 10
Stéph@@ 10
1924 10
Lis@@ 10
ŨH@@ 10
there 10
Louise 10
Nor@@ 10
Nigeria 10
w16.0@@ 10
ary 10
bara 10
akti 10
Fabian 10
tem@@ 10
ost@@ 10
ali@@ 10
athim@@ 10
Rwanda 10
uri@@ 10
P 10
Lat@@ 10
Br@@ 10
Northern 10
zi@@ 10
Fern@@ 10
Mediter@@ 10
88 10
anja 10
Matha@@ 10
100,000 10
vi@@ 10
Sha@@ 10
tith@@ 10
AHI@@ 9
erg@@ 9
ann@@ 9
250 9
thir@@ 9
Miri@@ 9
han 9
net@@ 9
Il@@ 9
ance 9
YO@@ 9
230 9
Tal@@ 9
st 9
sh 9
Elias 9
Elizabeth 9
nji@@ 9
Yan@@ 9
ae@@ 9
Gab@@ 9
Keon 9
240 9
ique 9
Ki@@ 9
hokeku 9
Rosa 9
ũũro 9
ili@@ 9
tion 9
8,@@ 9
Queensland 9
tige 9
Church 9
hiũha 9
f 9
rich 9
ol 9
2018 9
Point 9
UNJĨ 9
8,000 9
Kĩĩr@@ 9
ibitarĩ 9
Katherine 9
CO@@ 9
IRA 9
gũto@@ 9
1993 9
ogra@@ 9
Tag@@ 9
ude 9
ily 9
Y 9
1977 9
Nim@@ 9
537 9
Czech 9
gwati 9
inyĩria 9
Ev@@ 9
media 9
Sil@@ 9
1938 9
los 9
himu 9
1879 9
Cor@@ 9
Hel@@ 9
suriata 9
erage 9
With 9
hootani 9
6,@@ 9
God 9
Pat@@ 9
Sp@@ 9
lin 9
Sask@@ 9
.5 9
Bir@@ 9
23@@ 9
ef@@ 9
Greek 9
win 9
Luis 9
1984 9
Anita 9
Shane 9
Ilaria 9
Ge@@ 9
anyihia 9
121 9
livia 9
Cedar 9
Arĩ@@ 9
ney 9
Gregorio 9
isa 9
eball 9
ella 9
Jenn@@ 9
ĩgu 9
Sweden 9
gwanja 9
Georg@@ 9
Iny@@ 9
Island 9
Jen@@ 9
Antoine 9
det 9
Ces@@ 9
batare 9
uhĩ 9
merut@@ 9
huza 9
anc@@ 9
BI@@ 9
Methus@@ 9
Estonia 9
cou@@ 9
ereta 9
lin@@ 9
Ama@@ 9
1923 9
isiti 9
ion 9
Mike 9
1987 9
Pan@@ 9
Meg@@ 9
ĩgerek@@ 9
1975 9
tũto@@ 9
NGO@@ 9
batũ 9
Ash@@ 9
Se@@ 9
w17.0@@ 9
aratara 9
1944 9
Mis@@ 9
German 9
Kenya 9
Colorado 9
ell@@ 9
Louis 9
ale 9
Barbara 9
ok 9
Sandra 9
Choong 9
Hung@@ 9
mũbat@@ 9
Frost 9
Belgium 9
Federico 9
ris 9
ce@@ 9
isho@@ 9
Jordan 9
Amy 9
gal 9
Western 8
col@@ 8
Rũg@@ 8
km 8
wĩyamũr@@ 8
tũgun@@ 8
emwa 8
tar@@ 8
igic@@ 8
1929 8
ĩrĩhĩria 8
Africa 8
maj@@ 8
ort 8
ach 8
pal@@ 8
oho 8
bet@@ 8
ithik@@ 8
ughes 8
vin 8
more 8
hurũko 8
thic 8
pl@@ 8
Max@@ 8
Sydney 8
garũrũku 8
eth 8
Sk@@ 8
eme@@ 8
1.@@ 8
National 8
Christo@@ 8
isia 8
obĩ 8
Delphine 8
njĩrĩmani 8
athe@@ 8
eb@@ 8
ys 8
1976 8
Frank@@ 8
you 8
ũgu@@ 8
ongore@@ 8
SAY@@ 8
Ros@@ 8
yn 8
Fin@@ 8
hig@@ 8
dol@@ 8
Esther 8
ster 8
Az@@ 8
amata 8
Wor@@ 8
ury 8
yan 8
1996 8
well 8
elle 8
En@@ 8
Ly@@ 8
30,000 8
ngũĩra 8
Mus@@ 8
gũkuu@@ 8
kwĩmeny@@ 8
anjama 8
ĩrana 8
Swa@@ 8
emo@@ 8
valu 8
Ithu@@ 8
ashi@@ 8
Dem@@ 8
ky 8
eland 8
oroto 8
there@@ 8
ngom@@ 8
rit@@ 8
MBO 8
Burrus 8
ada 8
uruhanu 8
est 8
Jac@@ 8
imono 8
Flor@@ 8
tic@@ 8
mĩ 8
gerekanagia 8
week@@ 8
nyamar@@ 8
thab@@ 8
therlands 8
der@@ 8
schel 8
ell 8
He 8
Gl@@ 8
sen@@ 8
Chris 8
30@@ 8
aragu 8
124 8
Cal@@ 8
bal@@ 8
any 8
imaru 8
umania 8
LI@@ 8
Anti@@ 8
Nig@@ 8
roy 8
Palest@@ 8
New@@ 8
iza 8
CH@@ 8
Mill@@ 8
ier 8
Jr 8
Refer@@ 8
Simon 8
lona 8
fast 8
toria 8
ingithia 8
Wendy 8
sk@@ 8
him@@ 8
Biblical 8
aaro 8
Marie 8
Spanish 8
pro@@ 7
wani 7
August@@ 7
shall 7
Hor@@ 7
mĩire 7
ham 7
oreri 7
Aaron 7
Da@@ 7
gwate 7
ME 7
ngata 7
ven 7
ingĩrania 7
with 7
kĩirũo 7
è@@ 7
Hannah 7
RU@@ 7
Students 7
haano 7
Nikolai 7
ud 7
emerekia 7
thia 7
sc@@ 7
Ke@@ 7
atiĩ 7
Christ 7
Testament 7
red 7
horo 7
Cur@@ 7
East 7
Im@@ 7
gra@@ 7
Make 7
wongererek@@ 7
INE 7
em 7
Web 7
stan@@ 7
sel@@ 7
ye 7
lik@@ 7
Pi@@ 7
eithi 7
France 7
Way 7
Tim@@ 7
Germany 7
ren@@ 7
ʹ 7
Hũth@@ 7
att@@ 7
nĩr@@ 7
mere 7
unda 7
eca 7
Jud@@ 7
kũngũ@@ 7
ondu 7
Associ@@ 7
Arab@@ 7
omania 7
Ethiop@@ 7
mane@@ 7
Royal 7
et 7
ston 7
manag@@ 7
mang’@@ 7
ciaro 7
Bor@@ 7
irambubu 7
ery 7
Fran@@ 7
eehok@@ 7
ger 7
KA@@ 7
fur@@ 7
ĩtĩrithirie 7
oywo 7
kũũri 7
Brit@@ 7
hom@@ 7
ç@@ 7
Coast 7
X@@ 7
134 7
ington 7
ür@@ 7
Don@@ 7
gerekanagie 7
my 7
amia 7
kũguc@@ 7
Lar@@ 7
ĩtith@@ 7
casting 7
atal@@ 7
tin 7
2.@@ 7
wom@@ 7
Nik@@ 7
wood 7
ord@@ 7
gwĩtu@@ 7
West 7
ear@@ 7
aũku 7
gwatĩra 7
agarara 7
all 7
KAR@@ 7
bac@@ 7
ũtag@@ 7
EL@@ 7
pu@@ 7
ũngũĩro 7
rid 7
ũmena 7
hung@@ 7
Paul@@ 7
Insight 7
apple 7
ANS@@ 7
ys@@ 7
tin@@ 7
Science 7
Est@@ 7
all@@ 7
mel@@ 7
Old 6
proj@@ 6
Sel@@ 6
University 6
ato 6
okia 6
Sal@@ 6
Paradise 6
Nep@@ 6
Tetragrammaton 6
AC@@ 6
Kais@@ 6
rop@@ 6
ancy 6
Ol@@ 6
Inj@@ 6
ukũ 6
Dec@@ 6
ul 6
ff 6
may@@ 6
aĩ 6
ack 6
wan 6
ken@@ 6
ty 6
social 6
aud@@ 6
Eun@@ 6
kin@@ 6
Amal@@ 6
sen 6
ill@@ 6
itt@@ 6
hithĩrĩra 6
urĩra 6
into 6
un 6
tic 6
App@@ 6
ette 6
ilioni 6
Review 6
Christianity 6
atia 6
Hos@@ 6
rec@@ 6
tre@@ 6
ological 6
ds 6
ile 6
Val@@ 6
Religion 6
Mir@@ 6
Marc@@ 6
not 6
nor 6
ee 6
ey 6
Cu@@ 6
athĩti 6
ũcũ 6
mond 6
Stu@@ 6
ern@@ 6
JE@@ 6
⁠ 6
yahudi 6
awe 6
Pol@@ 6
V 6
EM@@ 6
ibei 6
ison 6
Dar@@ 6
ú@@ 6
Corin@@ 6
UG@@ 6
ens 6
q 6
Che@@ 6
phe@@ 6
125 6
Ul@@ 6
pp@@ 6
onde 6
asha@@ 6
Pap@@ 6
hy 6
itio 6
Ital@@ 6
men 6
Kũmeny@@ 6
ward 6
eshi 6
Hol@@ 6
im 6
endix 6
SEP@@ 6
thit@@ 6
ord 6
beth 6
Peter@@ 6
Jeho@@ 6
lov@@ 6
ach@@ 6
hianano 6
May@@ 6
ast@@ 6
ush 6
ũrĩmĩ 6
FE@@ 6
jo@@ 6
ä@@ 6
ogi 6
udi 6
elius 6
UMA 6
eno 6
Ver@@ 6
Stadium 6
th 6
onto 6
Si@@ 6
ush@@ 6
mas@@ 6
fit@@ 6
lla 6
Let 6
au@@ 6
Fe@@ 6
ands 6
ʽ@@ 6
Pal@@ 6
Pl@@ 6
Sar@@ 6
Ben@@ 6
ican 6
ũrani 6
oyo 6
Bra@@ 6
Global 6
Protest@@ 6
scler@@ 6
ereba 6
unjĩ 6
Ob@@ 6
thamĩrio 6
AND 6
Gwe@@ 6
ent@@ 6
Bl@@ 6
Cro@@ 6
Thim@@ 6
Isaac 6
ex@@ 6
ks 6
ede 6
ague 6
ines 6
erly 6
Adam 6
Miriam 6
lev@@ 6
AP@@ 5
11@@ 5
w17@@ 5
that 5
hit@@ 5
Lou@@ 5
tune 5
inc@@ 5
right 5
_@@ 5
mi@@ 5
IA@@ 5
Barn@@ 5
mani 5
cicio 5
handa 5
codex 5
ulun 5
hel 5
ad 5
rĩath@@ 5
ath 5
Antio@@ 5
bec@@ 5
Sy@@ 5
YE@@ 5
Jos@@ 5
tir@@ 5
․ 5
soci@@ 5
lossom 5
Greece 5
gg@@ 5
tle 5
Syriac 5
Dani@@ 5
bere@@ 5
ins 5
que 5
shua 5
nine 5
ern 5
Mos@@ 5
nyihĩria 5
Soviet 5
erũh@@ 5
ain 5
Pre@@ 5
School 5
pher 5
Te@@ 5
Fol@@ 5
nabii 5
Char@@ 5
humo 5
Str@@ 5
bel@@ 5
should 5
w16@@ 5
beta 5
hibirania 5
ĩkĩ 5
Pictures 5
dr@@ 5
Ric@@ 5
habu 5
vey 5
sook 5
lehe@@ 5
Pentec@@ 5
Michelle 5
iyũ 5
195@@ 5
Life 5
waĩ 5
wal@@ 5
achi 5
AL 5
Chris@@ 5
’s 5
wii 5
UD@@ 5
magun@@ 5
Kath@@ 5
San@@ 5
BE@@ 5
Ancient 5
ish 5
Brook@@ 5
ש@@ 5
ׁ 5
cho@@ 5
Early 5
sly 5
een 5
astic 5
13@@ 5
omin@@ 5
0 5
anna 5
stro@@ 5
פ@@ 5
own 5
Steph@@ 5
Anthony 5
Amo@@ 5
aly@@ 5
ium 5
for@@ 5
acqu@@ 5
ences 5
org@@ 5
atawe 5
EL 5
dancing 5
ES@@ 5
Kũguũr@@ 5
kĩhu@@ 5
Rachel 5
60@@ 5
Man 5
ben@@ 5
bor@@ 5
Orig@@ 5
ly 5
Mari@@ 5
ade 5
ado 5
ese 5
abarĩra 5
ekũmagiria 5
alt@@ 5
aun@@ 5
ock 5
isha 5
hĩtahĩtano 5
נ@@ 5
com@@ 5
chi@@ 5
VI@@ 5
Jap@@ 5
Archae@@ 5
John@@ 5
ans 5
og 5
vis@@ 5
mar 5
ical 5
ER 5
Kris@@ 5
Jair@@ 5
get@@ 5
ran@@ 5
ies 5
vit@@ 5
Alexand@@ 5
200@@ 5
AD@@ 5
eho@@ 5
row 5
beli@@ 5
State 5
Cam@@ 5
ices 5
fer 5
urg@@ 5
GI@@ 5
THI 5
Gĩtu@@ 5
hun@@ 5
sky 5
Fam@@ 5
eb 5
ndũ 5
SA@@ 4
sur@@ 4
engi 4
wr@@ 4
ihoor@@ 4
bl@@ 4
ĩini 4
post@@ 4
uni@@ 4
formation 4
X 4
onger@@ 4
non 4
nar@@ 4
ven@@ 4
Vol@@ 4
Philip 4
LIA 4
nic@@ 4
dom@@ 4
Jon 4
ocr@@ 4
uti@@ 4
sport 4
Hall 4
Greg@@ 4
lot@@ 4
ile@@ 4
Efir@@ 4
very 4
etus 4
her 4
Mes@@ 4
urity 4
pedia 4
edoni 4
sy 4
had@@ 4
Your 4
ũmbĩ 4
hoti 4
Serv@@ 4
Is 4
ugo 4
faranja 4
ON 4
ciũ 4
Rev@@ 4
lar@@ 4
ody 4
om 4
hol@@ 4
Fo@@ 4
etr@@ 4
PS 4
mind@@ 4
ve 4
Ale@@ 4
dam 4
SO@@ 4
uscrip@@ 4
Jesse 4
ren 4
Queen 4
Rak@@ 4
Cha@@ 4
tel 4
Zeal@@ 4
inger 4
Mid@@ 4
ph@@ 4
min@@ 4
ill 4
ongor@@ 4
ple 4
war 4
Lev@@ 4
emic 4
ompiuta 4
Cel@@ 4
ning 4
sour@@ 4
gũkũũr@@ 4
thwar@@ 4
Ex@@ 4
woni 4
obe@@ 4
buy 4
Cre@@ 4
risti@@ 4
Israel 4
eretha 4
sal@@ 4
use@@ 4
ams 4
LO@@ 4
ights 4
.0@@ 4
Latin 4
asy 4
d’@@ 4
okr@@ 4
Dis@@ 4
mp@@ 4
temporary 4
than@@ 4
kĩn@@ 4
ide 4
bro@@ 4
ahĩtano 4
Kĩg@@ 4
Fel@@ 4
British 4
Mex@@ 4
ão 4
Whi@@ 4
insur@@ 4
wi@@ 4
ings 4
ũrĩka 4
Gen@@ 4
oth 4
You 4
Humb@@ 4
All 4
ised 4
ton@@ 4
ist 4
yaũra 4
Lor@@ 4
reka 4
dis@@ 4
Can@@ 4
erine 4
S.A 4
dies 4
B.@@ 4
die 4
agĩtarĩ 4
del 4
Will 4
ert 4
Ur@@ 4
aven@@ 4
orge 4
imag@@ 4
ũki 4
zen 4
Grand 4
Assembly 4
Moim@@ 4
sycho@@ 4
bon 4
ep@@ 4
od 4
fol@@ 4
à 4
ũmĩrĩr@@ 4
der 4
What 4
ũnjo 4
Gener@@ 4
Pho@@ 4
ũmi 4
hokekete 4
thugunda 4
Joh@@ 4
wn 4
ac 4
nguc@@ 4
ũũrĩre 4
cayanĩri 4
Natal@@ 4
anti@@ 4
Eld@@ 4
dem@@ 4
Aga@@ 4
Inter@@ 4
Let@@ 4
ail@@ 4
ian@@ 4
Bibl@@ 4
fl@@ 4
den@@ 4
ende@@ 4
tock 4
mill@@ 4
sol@@ 4
Ce@@ 4
see 4
jud@@ 4
cent 4
else@@ 4
als 4
yahu@@ 4
Ũteith@@ 4
ardo 4
Far@@ 4
Bre@@ 4
ĩhĩtwa 4
ongona 4
ungi 4
ARE 4
Nath@@ 4
Times 4
ku 4
ה@@ 4
ugi 4
Penn@@ 4
Ari@@ 4
lands 4
fri@@ 4
elio 4
North 4
Divine 4
garũraga 4
ist@@ 4
Min@@ 4
Ca@@ 4
ash@@ 4
Var@@ 4
aten 3
ates 3
stery 3
LE 3
hab@@ 3
Work 3
enti 3
í 3
gl@@ 3
etic 3
ished 3
On 3
Persia 3
OF 3
iber@@ 3
acos 3
mbo 3
bot@@ 3
Cap@@ 3
ij@@ 3
Ap@@ 3
Me 3
TER@@ 3
ithori 3
ss 3
& 3
itage 3
say 3
cal@@ 3
Cir@@ 3
Tra@@ 3
ck 3
inter 3
ace 3
cur@@ 3
image 3
hen 3
Micha@@ 3
ection 3
Sing@@ 3
Soci@@ 3
Ecclesi@@ 3
thako 3
alls 3
was@@ 3
Luk@@ 3
Against 3
Pic@@ 3
astro@@ 3
Mark@@ 3
Ear@@ 3
dom 3
ur 3
omano 3
hokek@@ 3
tier 3
off@@ 3
Jesus 3
ũngano 3
ature 3
itution 3
Rus@@ 3
stan 3
Wit@@ 3
pi@@ 3
cious 3
mate 3
ang’o 3
Sin 3
Up@@ 3
work 3
Tri@@ 3
Sea 3
sus 3
Fri@@ 3
ws 3
Sec@@ 3
ail 3
athuth@@ 3
thy 3
aph@@ 3
Edu@@ 3
BO@@ 3
Afr@@ 3
ju@@ 3
thig@@ 3
Pres@@ 3
Down 3
means 3
kir@@ 3
uriwe 3
̃@@ 3
kans@@ 3
Valley 3
gre@@ 3
bos@@ 3
ĩrĩmani 3
echo@@ 3
Matthe@@ 3
ũaru 3
your 3
pool 3
physici@@ 3
drag@@ 3
ost 3
atory 3
darkness 3
É@@ 3
out@@ 3
̇@@ 3
COKIO 3
cla@@ 3
Love 3
sekond@@ 3
Ages 3
lie 3
sw@@ 3
eld@@ 3
Little 3
iticus 3
nal 3
Sheol 3
ze 3
ngatĩra 3
Children 3
Af@@ 3
ekinolonjĩ 3
ser@@ 3
app@@ 3
Why 3
ink@@ 3
erenwa 3
undo 3
enge@@ 3
Bet@@ 3
Main@@ 3
arathi 3
Eph@@ 3
ה 3
Pes@@ 3
its 3
Acts 3
ution 3
Good 3
Sen@@ 3
pag@@ 3
Dav@@ 3
Bethel 3
yi@@ 3
King@@ 3
Ky@@ 3
Deborah 3
Deb@@ 3
Yearbook 3
ble 3
even 3
WHO 3
ster@@ 3
Cz@@ 3
anic 3
Faith 3
entral 3
over@@ 3
Com@@ 3
vin@@ 3
Relig@@ 3
Praet@@ 3
igani 3
ung 3
Ago@@ 3
Are 3
ric@@ 3
buri 3
lac@@ 3
zaru 3
ens@@ 3
ari@@ 3
ck@@ 3
dia 3
rũc@@ 3
mil@@ 3
fly 3
Jehovah’s 3
ine@@ 3
andandũra 3
anyone 3
ber@@ 3
stra 3
Here 3
Pent@@ 3
isha@@ 3
ouse 3
Yor@@ 3
outh 3
—@@ 3
Filip@@ 3
ä 3
tun@@ 3
Salv@@ 3
pr@@ 3
ital 3
den 3
ustin 3
Fes@@ 3
Trinity 3
heal@@ 3
Bad 3
iter@@ 3
Kit@@ 3
NDĨ 3
ATI@@ 3
Rac@@ 3
barĩrĩri 3
% 3
Hat@@ 3
par@@ 3
igĩrĩrio 3
nology 3
ls 3
VER@@ 3
stor@@ 3
qui@@ 3
zal@@ 3
nyamũk@@ 3
Bas@@ 3
athe 3
athu 3
ł@@ 3
christ 3
hidi 3
Can 3
enter 3
Rep@@ 3
Compl@@ 3
Po@@ 3
bed 3
Resear@@ 3
els 3
Nis@@ 3
iyũro 3
Mankind 3
Lusit@@ 3
cunjĩ 3
Du@@ 3
Rome 3
gũkarar@@ 3
clo@@ 3
Hero@@ 3
key 3
Mab@@ 3
ween 3
IR 3
IN 3
IND@@ 3
Austral@@ 3
ot 3
hard 3
his 3
Augu@@ 3
pain@@ 3
Parents 3
GO@@ 3
gri@@ 3
hemu 3
ics 3
S.@@ 3
Ũm@@ 3
rather 3
ide@@ 3
Jor@@ 3
tel@@ 3
aũni 3
Fir@@ 3
ize 3
ô@@ 3
leis@@ 3
ANAGA 3
Dead 3
yr@@ 3
Bu@@ 3
Jehovah 3
yle 3
ehova 3
ibr@@ 3
enti@@ 3
⁠@@ 3
Witnesses 3
Mi@@ 3
Pione@@ 3
inner 3
cha@@ 3
sus@@ 3
Britain 3
tor 3
acĩr@@ 3
Third 3
iberia 3
ef 3
Does 2
ater 2
Stand 2
rac@@ 2
Mũgar@@ 2
Bes@@ 2
ple@@ 2
unc@@ 2
new 2
ations 2
Eph 2
logy 2
hai 2
has 2
Ezekiel 2
ept 2
sing@@ 2
ades 2
Whom 2
Empire 2
Pas@@ 2
ristiano 2
sunam@@ 2
pay@@ 2
logical 2
August 2
iverance 2
so 2
how 2
thĩnjwo 2
ond 2
ony 2
ons 2
arus 2
pho@@ 2
Jewish 2
Ec@@ 2
EP@@ 2
ants 2
Eng@@ 2
cl@@ 2
athy 2
chu@@ 2
gũtũng@@ 2
dark 2
ł 2
ekeku 2
Wis@@ 2
Millions 2
mas 2
eren@@ 2
ak 2
ising 2
guar@@ 2
ound@@ 2
iving 2
Hebrew 2
Encyclo@@ 2
Mika@@ 2
uther@@ 2
udd@@ 2
י@@ 2
bond@@ 2
tion@@ 2
Mwath@@ 2
ses 2
For 2
ו@@ 2
‘@@ 2
ONE 2
With@@ 2
ʼ@@ 2
kamw@@ 2
up 2
Sop@@ 2
Government 2
saying 2
try 2
ũbu@@ 2
empl@@ 2
Christmas 2
ngwat@@ 2
Strong 2
bonds 2
Kor@@ 2
tical 2
imbia 2
gained 2
ø@@ 2
sta@@ 2
lack 2
ree 2
rob@@ 2
id 2
things 2
zer 2
them 2
thel 2
another 2
ler@@ 2
airs 2
zation 2
dy@@ 2
sue 2
dolf 2
European 2
personality 2
dy 2
cici 2
away 2
Res@@ 2
stitute 2
ikũngũ@@ 2
tho 2
taken 2
QU@@ 2
gue 2
ING 2
araho 2
pe@@ 2
duc@@ 2
card 2
Ones@@ 2
Eno@@ 2
Kwo@@ 2
serv@@ 2
amy 2
Living 2
syst@@ 2
uch 2
Get 2
fell 2
DO@@ 2
bab@@ 2
Psal@@ 2
lot 2
Elisha@@ 2
ox@@ 2
Nations 2
ound 2
yp@@ 2
ash 2
ions 2
ift 2
ast 2
ior 2
put 2
cum@@ 2
off 2
ithath@@ 2
True 2
eld 2
cr@@ 2
fin@@ 2
War 2
Ano@@ 2
So@@ 2
res@@ 2
run 2
uth 2
Teach 2
Pos@@ 2
An 2
Isab@@ 2
:@@ 2
fir@@ 2
ekin@@ 2
Bec@@ 2
sy@@ 2
Middle 2
mentioned 2
Imag@@ 2
cen@@ 2
keep 2
ments 2
ars 2
Tru@@ 2
bel 2
Kind@@ 2
Matt 2
tire 2
ngi 2
gal@@ 2
otaro 2
atic 2
Be 2
usal@@ 2
Polish 2
with@@ 2
fun@@ 2
fu@@ 2
posit@@ 2
Joy 2
Sac@@ 2
Josep@@ 2
thiru 2
erto 2
AACIAR@@ 2
iso 2
ise 2
PI@@ 2
Gideon 2
don 2
Organization 2
ban 2
å@@ 2
ix 2
cul@@ 2
yes 2
News 2
Witness 2
Name 2
bul@@ 2
imp@@ 2
Second 2
anaani 2
ping 2
org 2
hianĩre 2
ongo@@ 2
my@@ 2
Court 2
Do 2
ency 2
That 2
We@@ 2
ũrug@@ 2
Vis@@ 2
val@@ 2
mark 2
orua 2
gi@@ 2
God’s 2
thuurĩra 2
Philipp@@ 2
good 2
out 2
stoc@@ 2
EN 2
lif@@ 2
cumb@@ 2
Egypt 2
ooti 2
ray 2
emer@@ 2
Jerusalem 2
Ikar@@ 2
Syd@@ 2
Did 2
doles@@ 2
Gabri@@ 2
U.@@ 2
Zar@@ 2
Fl@@ 2
del@@ 2
aff@@ 2
train 2
Conven@@ 2
ld 2
sia 2
From 2
Caleb 2
Cent@@ 2
Rec@@ 2
trusted 2
ough 2
MAN@@ 2
ious 2
minis@@ 2
rup@@ 2
ilip@@ 2
Chr@@ 2
int@@ 2
pic 2
ous 2
-@@ 2
April 2
tor@@ 2
י 2
air 2
mbar@@ 2
tab@@ 2
Ministry 2
GĨC@@ 2
over 2
ĩnja 2
each 2
ty@@ 2
ingĩhĩrũo 2
For@@ 2
top 2
Only 2
nec@@ 2
Bapti@@ 2
dian 2
ĩtana 2
Delph@@ 2
add@@ 2
nua 2
Pir@@ 2
sts 2
histor@@ 2
acy 2
OL@@ 2
icus 2
art 2
Abigail 2
ny 2
congregation 2
fan@@ 2
Thess 2
Family 2
Wall@@ 2
cere 2
wit@@ 2
ŨRŨR@@ 2
zek@@ 2
ters 2
Sus@@ 2
Coun@@ 2
ial 2
hua 2
uthu 2
itus 2
IL@@ 2
IS 2
persons 2
It 2
oki 2
Solomon 2
fo@@ 2
Pur@@ 2
idence 2
ou 2
Lus@@ 2
Sas@@ 2
ten 2
what 2
aris@@ 2
ED 2
egania 2
Spe@@ 2
fertili@@ 2
á 2
Samu@@ 2
labor@@ 2
spar@@ 2
ities 2
kamb@@ 2
anish 2
PO@@ 2
tius 2
ps 2
ric 2
About 2
ashuri 2
bad@@ 2
des@@ 2
BOR@@ 2
onarĩ 2
du@@ 2
cil 2
once 2
Department 2
aster 2
Armag@@ 2
mũthĩ 2
asĩtĩ 2
ust 2
tal 2
sin 2
light 2
ax@@ 2
mis@@ 2
Bri@@ 2
which 2
Earth 2
sun@@ 2
grounds 2
Timothy 2
will 2
Priscilla 2
Exam@@ 2
book 2
Rul@@ 2
were 2
misiri 2
getting 2
owe 2
French 2
ep 2
Ş@@ 2
provided 1
second 1
watch@@ 1
head 1
century 1
Centuries 1
aving 1
wine 1
His 1
inal 1
ized 1
ı@@ 1
Human 1
meet 1
nations 1
ests 1
Ask 1
ful@@ 1
mouth 1
came 1
athers 1
spirit 1
ever 1
fr@@ 1
med 1
proce@@ 1
typ@@ 1
vain 1
union 1
led@@ 1
anger 1
wick@@ 1
ease 1
wĩcirĩrie 1
Babyl@@ 1
uloni 1
energy 1
ores 1
Friend 1
source 1
ũtũ 1
ose 1
mit@@ 1
Caes@@ 1
along 1
My 1
love 1
fi@@ 1
ority 1
Our 1
Off@@ 1
Who 1
spot 1
ext@@ 1
course 1
vior 1
on’s 1
Revelation 1
contrast 1
wrath 1
ever@@ 1
saw 1
ahinda 1
sis 1
say@@ 1
Worldwide 1
reas@@ 1
doms 1
Christ’s 1
boat 1
ũhonge 1
rest 1
Sud@@ 1
cra@@ 1
masi 1
holy 1
dig@@ 1
learn 1
blemis@@ 1
ity 1
sou@@ 1
taught 1
wall 1
Years 1
fornication 1
also 1
pap@@ 1
Has 1
SI@@ 1
Des@@ 1
bitterness 1
sentim@@ 1
š@@ 1
connection 1
Marriage 1
let@@ 1
wĩko 1
mine 1
ming 1
cred@@ 1
Pentekost@@ 1
multi@@ 1
estion 1
toler@@ 1
beg@@ 1
Ü@@ 1
Intan@@ 1
bey@@ 1
line 1
bol@@ 1
trib@@ 1
helle 1
having 1
moon 1
Ayu@@ 1
filled 1
pic@@ 1
engage 1
YUG@@ 1
Emp@@ 1
istics 1
this 1
Days 1
ties 1
Gospel 1
Over@@ 1
MATHA@@ 1
doing 1
house 1
ITH 1
Anglo 1
zz@@ 1
field 1
Pe@@ 1
drun@@ 1
ones 1
alu@@ 1
first 1
LY 1
error 1
Hek@@ 1
ety 1
Prot@@ 1
Heb 1
uck 1
plac@@ 1
Gen 1
Alex@@ 1
unwise 1
Irĩ@@ 1
PRO@@ 1
apse 1
Need 1
ĩrĩrĩ 1
flesh 1
Hann@@ 1
Den@@ 1
ign 1
become 1
does 1
truth 1
EX@@ 1
KARAT@@ 1
building 1
mũrũgam@@ 1
attle 1
int 1
Story 1
belong 1
February 1
tak@@ 1
q@@ 1
tten 1
cial 1
ergy 1
tain@@ 1
centur@@ 1
mũhik@@ 1
ither 1
stop@@ 1
ounds 1
mũthiũrũrũk@@ 1
so@@ 1
provide 1
Israel@@ 1
after 1
pers@@ 1
lay 1
order 1
inci@@ 1
bank 1
dam@@ 1
ying 1
ells 1
electronic 1
les@@ 1
Saul@@ 1
See 1
even@@ 1
Pot@@ 1
mut@@ 1
cour@@ 1
Step@@ 1
ative 1
Publ@@ 1
fire 1
version 1
iver@@ 1
steal 1
etting 1
wed@@ 1
law@@ 1
Naam@@ 1
sl@@ 1
oning 1
thanks 1
Things 1
ishes 1
plat@@ 1
ũthĩ 1
promises 1
kaim@@ 1
ours 1
enting 1
forgiving 1
ter’s 1
Assyrian 1
igũtũ@@ 1
aling 1
sign 1
indu@@ 1
cies 1
live 1
commissioned 1
crimination 1
indeed 1
River 1
forms 1
now 1
down 1
kers 1
ste@@ 1
Satan’s 1
ileg@@ 1
fund@@ 1
Abab@@ 1
eũ 1
domin@@ 1
Sur@@ 1
sible 1
ink 1
pan@@ 1
Child@@ 1
March 1
cro@@ 1
Through 1
aming 1
cared 1
might 1
è 1
mentally 1
Sho@@ 1
Denn@@ 1
throw 1
utanire 1
ners 1
time 1
Ef@@ 1
ass 1
prin@@ 1
pur@@ 1
egũ 1
family 1
So 1
People 1
pri@@ 1
istance 1
vers@@ 1
Four 1
Syria 1
thr@@ 1
î@@ 1
MAKI 1
ö 1
soon 1
fruitful 1
Hum@@ 1
¡ 1
ces 1
Aqu@@ 1
End 1
oli@@ 1
ï 1
sty 1
speaking 1
ld’s 1
unreasonable 1
enor@@ 1
° 1
var@@ 1
won 1
Oc@@ 1
er’s 1
whatever 1
BY 1
vol@@ 1
ight 1
SP@@ 1
lips 1
rug 1
step 1
faith 1
working 1
ll@@ 1
ids 1
Committee 1
Their 1
himself 1
Those 1
TH 1
AS 1
AR 1
ú 1
Not 1
Now 1
yourselves 1
compassionate 1
oug@@ 1
ult 1
stance 1
o’s 1
vo@@ 1
thagia 1
ather 1
bit@@ 1
Dic@@ 1
peace 1
Roman 1
vement 1
Guard 1
iramb@@ 1
Two 1
hands 1
Supreme 1
bak@@ 1
oguo 1
slav@@ 1
Dr@@ 1
such 1
je@@ 1
This 1
sm 1
ther 1
buk@@ 1
conduct 1
entr@@ 1
badness 1
ram@@ 1
read@@ 1
ous@@ 1
Fur@@ 1
PL@@ 1
Congreg@@ 1
sin@@ 1
simil@@ 1
Š@@ 1
arm@@ 1
Much 1
Ecu@@ 1
ukuru 1
calcul@@ 1
itions 1
eceni 1
Fij@@ 1
lose 1
ubs 1
wic@@ 1
HĨ@@ 1
Belg@@ 1
ht 1
cells 1
CON@@ 1
pit@@ 1
Never 1
star 1
wn@@ 1
theokrasi 1
pper 1
dra@@ 1
force 1
inn@@ 1
ux@@ 1
net 1
hazi 1
met 1
mer 1
credit 1
ek 1
rights 1
Anton@@ 1
every 1
Johann@@ 1
Bed@@ 1
hood 1
itiz@@ 1
matter 1
arri@@ 1
mind 1
seem 1
ù@@ 1
itary 1
opportun@@ 1
ugh@@ 1
exc@@ 1
CE 1
perce@@ 1
VE 1
www.@@ 1
yer 1
paragraphs 1
Lam@@ 1
burn 1
CL@@ 1
MATT 1
form@@ 1
ering 1
lead 1
ship 1
felt 1
hy@@ 1
eff@@ 1
made 1
Where 1
Univers@@ 1
dio 1
did 1
tit@@ 1
lear 1
bor 1
When 1
ians 1
ood 1
Jerem@@ 1
THER 1
photo@@ 1
cism 1
ule 1
grow 1
irikano 1
ethiopia 1
secondary 1
ó 1
Jude 1
ation’s 1
16th 1
Under 1
Chang@@ 1
zed 1
Spir@@ 1
Catholics 1
NE@@ 1
among 1
PE@@ 1
fulness 1
speech 1
sci@@ 1
Promis@@ 1
malicious 1
part 1
unisti 1
rou@@ 1
ũmĩrĩri 1
ow@@ 1
itable 1
ight@@ 1
Rehobo@@ 1
hang@@ 1
ased 1
Hih@@ 1
É 1
‵ 1
former 1
Auth@@ 1
gang 1
hard@@ 1
Corn@@ 1
Pu@@ 1
Kur@@ 1
bungo 1
recall 1
Happiness 1
needs 1
ũmara@@ 1
ging 1
Hus@@ 1
sat@@ 1
aint 1
fish 1
Ki 1
elec@@ 1
Ati@@ 1
copper 1
consid@@ 1
plane 1
ages 1
Repu@@ 1
edonia 1
Teaching 1
car 1
vine 1
ving 1
Neb@@ 1
hold 1
Fro@@ 1
kĩhaar@@ 1
COVER 1
ï@@ 1
aches 1
emba 1
dge 1
samaria 1
Obe@@ 1
hated 1
bit 1
back 1
Sod@@ 1
nation@@ 1
pet 1
Its 1
abusive 1
vir@@ 1
MBER 1
Psalm 1
Isa@@ 1
lyn 1
Foc@@ 1
uarĩ 1
Dio@@ 1
TS 1
linzi 1
giving 1
got 1
Q@@ 1
chs 1
account 1
works 1
ent’s 1
reserved 1
philosophy 1
cemanio 1
ephone 1
lf 1
Bab@@ 1
res 1
count 1
Theocratic 1
str@@ 1
sib@@ 1
loves 1
enses 1
Illustr@@ 1
pre@@ 1
itism 1
ficial 1
becoming 1
gent@@ 1
freely 1
tenderly 1
tival 1
cot@@ 1
Marcus 1
Read 1
Ill@@ 1
tũũrĩre 1
Comfort 1
Ã@@ 1
an’s 1
Scientists 1
Child 1
wise 1
j 1
Ephra@@ 1
cond@@ 1
our 1
Poti@@ 1
deb@@ 1
found@@ 1
swal@@ 1
rish 1
Go 1
pen@@ 1
Jef@@ 1
Discipline 1
Lord 1
ONS 1
wind@@ 1
repro@@ 1
entic@@ 1
Jehova@@ 1
Service 1
ů@@ 1
their 1
too 1
Benefit 1
part@@ 1
Christ@@ 1
watch 1
leg@@ 1
Mediterranean 1
Septu@@ 1
Time 1
Other 1
Janũ@@ 1
MATTHEW 1
evangel@@ 1
omita 1
hearts 1
ely 1
Pri@@ 1
Heart 1
splendor 1
Again 1
ating 1
agatĩ 1
uncleanness 1
Mem@@ 1
ns 1
longer 1
lls 1
Day 1
adv@@ 1
des 1
njĩ 1
Emperor 1
Tob@@ 1
oper@@ 1
Persian 1
Bib@@ 1
Near 1
Pris@@ 1
trans@@ 1
tũũro 1
Conf@@ 1
Martha 1
eas@@ 1
ENT 1
ental 1
place 1
acco 1
rented 1
convention 1
white 1
gy@@ 1
ang 1
ank 1
epend@@ 1
y’s 1
run@@ 1
ign@@ 1
Phil 1
Together 1
pati@@ 1
Cho@@ 1
ication 1
nju@@ 1
IT 1
without 1
In 1
tro@@ 1
cease 1
wali 1
justice 1
walk 1
Master 1
_ 1
strict 1
ples 1
fug@@ 1
HOV@@ 1
phys@@ 1
igh 1
sharing 1
ş 1
ý@@ 1
igr@@ 1
Minor 1
thog@@ 1
ted 1
tee 1
sun 1
shu@@ 1
ear 1
anitha 1
Dra@@ 1
studies 1
hian@@ 1
court 1
Assyria 1
Evangel@@ 1
mission 1
uriata 1
cher@@ 1
nur@@ 1
More 1
illi@@ 1
cand@@ 1
king 1
kind 1
abb@@ 1
discuss 1
iness 1
rũtũr@@ 1
▶ 1
ick@@ 1
orig@@ 1
pon@@ 1
Chronic@@ 1
Scripture 1
Last 1
Trans@@ 1
ABOUT 1
anny 1
abor@@ 1
SE@@ 1
ENT@@ 1
ility 1
achi@@ 1
STUD@@ 1
ernacle 1
Making 1
eds 1
heard 1
Faith@@ 1
use 1
from 1
sort 1
Land 1
asha 1
pla@@ 1
covered 1
lam@@ 1
COUN@@ 1
apar@@ 1
Secre@@ 1
iap@@ 1
who 1
cyclo@@ 1
fied 1
CH 1
ũrũku 1
oner 1
Isaiah 1
ĩrĩu 1
thers 1
lod@@ 1
Gospels 1
Honor 1
scre@@ 1
present 1
ames 1
Of@@ 1
ARY 1
enjam@@ 1
Faithful 1
wil@@ 1
▼ 1
rian 1
because 1
big@@ 1
carried 1
Enj@@ 1
Really 1
contr@@ 1
iraeli 1
rem@@ 1
cel@@ 1
Well 1
