. 81430
, 75650
the 64256
to 48752
of 38156
and 32073
in 25633
a 24622
that 21861
“ 17526
” 17308
? 15961
: 15125
is 13212
we 12515
for 12063
his 11182
— 9738
​ 9738
Jehovah 9550
be 9462
you 9394
with 9353
was 9256
I 9086
not 8583
will 8087
he 8057
as 8032
have 7666
our 7461
God 7347
on 7223
us 6956
are 6891
it 6887
The 6563
- 6508
can 6387
Jesus 6216
from 6079
who 5677
by 5599
their 5568
Bible 5310
they 5271
what 5167
or 5143
What 4899
do 4836
God’s 4420
had 4376
this 4331
him 4298
all 4287
your 4284
) 4115
( 4109
about 4059
at 3979
people 3979
were 3932
them 3925
an 3923
would 3887
’ 3728
one 3690
How 3636
In 3628
did 3542
Jehovah’s 3470
when 3467
my 3454
has 3344
time 3213
life 3175
may 3031
those 3004
1 2959
so 2918
how 2877
! 2853
help 2831
but 2820
He 2733
We 2657
; 2650
me 2646
some 2434
more 2393
her 2389
love 2375
good 2217
out 2182
also 2175
been 2146
such 2113
could 2102
make 2074
work 2056
if 2044
way 2008
many 1983
should 1973
things 1934
It 1903
When 1881
up 1879
does 1875
need 1833
‘ 1826
other 1818
2 1815
faith 1810
no 1795
others 1794
But 1768
Paul 1766
Kingdom 1746
even 1717
there 1707
first 1702
For 1675
day 1667
example 1656
world 1634
she 1622
Why 1618
As 1614
spirit 1612
years 1607
earth 1605
family 1582
than 1574
3 1562
If 1553
said 1548
see 1525
They 1518
Read 1518
congregation 1509
Christians 1500
man 1495
into 1492
spiritual 1478
Christian 1442
made 1431
A 1414
these 1386
because 1368
must 1360
You 1359
says 1339
which 1337
only 1322
This 1320
know 1313
like 1288
Witnesses 1284
4 1281
15 1271
heart 1270
being 1262
children 1262
5 1255
might 1251
take 1239
brothers 1233
ing 1201
well 1197
That 1188
then 1185
un@@ 1185
6 1160
true 1157
words 1154
over 1149
ed 1142
come 1137
b 1129
give 1121
just 1110
Christ 1107
own 1098
now 1093
become 1087
before 1061
And 1051
12 1049
ones 1048
new 1043
after 1033
death 1033
name 1029
truth 1014
feel 1012
times 1008
Word 997
8 995
two 980
10 977
men 976
es 974
11 969
any 968
use 964
learn 963
through 961
its 959
7 957
much 951
show 949
great 940
keep 934
find 933
end 929
person 926
faithful 913
able 911
Do 911
14 909
To 907
why 904
another 891
] 886
[ 886
found 884
ministry 882
13 877
Satan 872
each 872
parents 871
s@@ 864
So 864
However 864
9 864
David 863
John 862
s 862
today 855
re@@ 854
consider 847
very 845
important 845
part 844
17 831
study 827
where 820
serve 820
S@@ 818
say 813
apostle 807
young 802
never 793
16 790
After 783
human 782
One 780
right 777
ers 777
told 776
course 772
himself 771
most 770
against 766
place 762
means 759
let 753
service 751
put 750
Father 749
mind 747
though 743
read 741
same 731
news 731
worship 731
go 726
want 724
ways 724
view 722
er 722
wife 720
wrote 716
used 713
long 711
preaching 698
get 696
became 696
live 685
given 685
holy 684
home 683
later 681
At 679
servants 676
set 675
days 674
Peter 672
doing 670
gave 667
18 665
came 664
marriage 664
disciples 663
Some 661
20 659
elders 656
article 655
humans 652
peace 651
in@@ 649
hope 647
every 647
By 645
b@@ 645
back 644
fellow 644
began 636
future 635
Israel 634
am 633
during 632
/ 631
book 631
Scriptures 629
too 626
King 623
away 620
often 620
old 613
living 613
power 612
year 611
l@@ 610
dis@@ 608
She 607
whom 601
century 600
prayer 595
Moses 592
19 592
joy 591
Our 589
p@@ 589
still 586
helped 581
felt 580
son 579
word 579
think 578
under 578
making 577
personal 576
among 573
Let 571
anointed 569
heaven 566
three 565
fact 563
Is 563
His 562
Abraham 561
sin 560
brother 557
r@@ 555
* 555
needed 554
Many 554
en@@ 552
Then 551
down 551
Yet 551
questions 550
something 550
Israelites 549
ever 548
See 547
There 547
Psalm 546
really 546
face 546
always 544
purpose 544
ourselves 544
’s 543
t@@ 541
hand 538
My 537
24 537
full 535
benefit 533
loving 532
without 532
ask 527
reason 525
themselves 525
On 523
order 522
learned 521
asked 520
serving 518
Yes 518
Son 517
21 516
experience 515
understand 514
Matthew 513
language 513
took 512
F@@ 511
ate 510
share 510
best 509
together 508
counsel 508
close 507
Even 506
possible 505
look 505
C@@ 505
f@@ 503
both 502
called 501
care 496
With 493
however 493
No 491
t 490
y 489
ated 486
last 484
support 478
house 478
bring 477
husband 477
father 477
ation 477
heavenly 477
Consider 476
L@@ 474
d@@ 473
D@@ 471
someone 471
moved 469
while 469
continue 468
meetings 466
age 466
message 465
result 463
desire 461
P@@ 460
mankind 459
saw 458
relationship 458
matter 458
wicked 457
knowledge 457
happy 456
22 455
toward 454
done 454
gift 454
Because 453
knew 452
ts 450
having 450
free 449
enjoy 446
ting 442
act 441
sure 438
Joseph 437
lives 435
baptized 435
child 433
avoid 432
answer 432
T@@ 431
food 430
23 430
mother 429
al 428
sisters 428
A@@ 428
situation 426
cannot 426
wanted 426
bad 425
needs 425
c@@ 423
king 423
giving 421
few 421
fully 420
hard 420
thinking 419
wisdom 418
H@@ 418
likely 417
married 417
er@@ 416
real 416
Jerusalem 415
All 414
ent 414
E@@ 413
between 413
Adam 413
v@@ 411
Those 410
n@@ 410
lead 410
B@@ 409
thought 409
received 408
receive 407
question 407
believe 406
Does 405
again 405
friends 404
left 404
organization 404
known 403
imitate 402
Your 401
went 400
remain 400
woman 400
sister 399
different 399
whether 399
ating 397
trust 395
eyes 394
st@@ 393
better 392
Although 392
self 391
mean 390
M@@ 389
sense 387
system 387
spiritually 386
strong 386
feelings 386
From 385
problems 385
Luke 384
These 382
follow 381
led 379
following 379
pray 379
m 378
members 378
kind 378
city 377
e@@ 377
followers 376
died 376
im@@ 375
point 374
wise 374
upon 373
respect 373
change 372
W@@ 372
yourself 370
ar@@ 370
attitude 369
Acts 369
ly 369
Thus 369
thus 369
yet 368
al@@ 367
qualities 366
resurrection 366
number 365
decisions 365
speak 364
righteous 364
especially 364
taking 364
ancient 363
far 362
principles 361
account 361
o@@ 361
apostles 360
25 360
provide 359
Jews 358
Isaiah 358
special 356
difficult 355
Of 354
teaching 354
early 353
nations 352
30 351
Law 350
little 350
try 350
off 349
nor 349
Rather 349
land 348
using 348
turn 348
saying 347
cause 346
gives 345
reading 345
loved 345
nation 344
soon 344
examples 344
wrong 343
around 343
sacrifice 343
• 343
fine 342
going 341
en 341
Who 340
certain 340
whole 339
next 337
conduct 337
pioneer 336
u@@ 335
promise 335
clear 334
matters 334
until 333
e 333
teach 333
Noah 332
Timothy 332
circumstances 331
ted 331
privilege 330
case 330
R@@ 330
greater 327
present 327
perfect 326
war 326
prayers 326
sheep 325
mentioned 325
material 325
g@@ 325
move 324
ransom 324
comes 324
law 324
Job 323
past 323
28 323
brought 322
makes 322
less 322
Daniel 321
attention 321
willing 320
Lord 320
suffering 319
sent 319
heard 319
religious 319
similar 319
body 319
truly 318
ab@@ 318
blessings 318
money 317
inspired 316
meaning 316
individuals 315
de@@ 315
forever 314
coming 314
ro@@ 314
prophecy 314
prophet 313
decision 313
control 312
events 312
taught 311
comfort 311
loyal 310
Satan’s 310
kindness 310
sons 309
draw 309
allow 307
it@@ 307
promises 306
est 306
slave 306
on@@ 306
Instead 305
m@@ 305
everlasting 305
courage 305
got 305
ant 305
SONGS 305
Devil 303
understanding 302
serious 302
involved 301
k@@ 301
small 300
rule 300
C.E 300
Matt 300
opportunity 299
four 298
second 298
doubt 298
Scriptural 298
or@@ 298
evidence 297
k 296
ations 296
O@@ 296
false 295
stand 295
Paul’s 295
women 295
Are 294
y@@ 294
Genesis 294
talk 293
apply 293
remember 292
wants 291
since 291
Ps 290
temple 289
return 289
dead 289
29 289
ability 289
strength 288
shows 288
including 288
along 287
Romans 287
accept 287
kept 287
Watchtower 287
i@@ 287
Can 287
Creator 286
be@@ 286
preach 286
Now 285
health 285
THE 285
states 284
thing 284
school 284
perhaps 284
showed 281
field 281
33 281
nothing 281
information 280
Like 280
tell 280
26 280
friend 279
w@@ 279
elder 279
regarding 279
G@@ 279
co@@ 278
Revelation 278
efforts 278
rather 278
ous 278
determined 277
night 277
works 277
Eve 277
provided 277
g 277
maintain 276
experienced 275
seen 275
interest 275
While 274
World 274
27 274
once 274
prove 273
righteousness 272
New 272
Hebrew 271
promised 271
mate 271
started 270
served 269
appreciation 269
congregations 268
taken 268
for@@ 268
anyone 267
written 267
Since 267
lived 266
Will 266
freedom 266
Corinthians 266
Greek 266
le 265
angels 264
issue 264
believers 264
hearts 264
direction 264
Such 263
Today 263
hold 262
confidence 262
Re@@ 262
near 262
thoughts 262
Did 262
During 261
Still 261
based 260
helps 260
sins 260
fear 260
lost 259
31 259
helping 259
blessing 258
activities 258
strengthen 258
earthly 258
Would 257
Roman 257
covenant 256
ence 256
I@@ 255
an@@ 255
named 255
affect 254
religion 254
group 254
witness 253
effect 253
effort 253
offer 252
honor 252
actions 252
el@@ 251
couple 250
p 250
answers 248
James 248
standards 248
physical 247
Be 247
here 246
anything 246
ti@@ 246
powerful 246
form 246
deep 246
born 246
ex@@ 246
appreciate 245
meeting 245
light 245
training 244
continued 244
Proverbs 244
sp@@ 244
precious 244
glory 244
tribulation 244
action 243
simply 243
ur@@ 243
ings 243
discipline 242
tr@@ 242
Bethel 241
head 241
Bible’s 241
encouragement 241
spoke 240
respond 239
certainly 239
already 239
everything 239
available 239
complete 238
K@@ 238
gain 238
Jewish 237
worshippers 237
appointed 237
focus 237
reach 237
foretold 236
ul@@ 236
flesh 236
practical 236
tion 235
leave 235
older 235
ac@@ 235
humility 235
country 234
influence 234
stay 234
N@@ 234
local 234
mis@@ 234
happiness 234
Indeed 233
desires 233
ten 233
created 232
recorded 232
ic 232
assignment 232
hear 232
Egypt 231
32 231
choose 231
Christ’s 230
Their 230
whose 230
die 230
responsibility 230
longer 230
kingdom 230
h@@ 229
stated 229
clearly 229
illustration 229
Just 229
please 229
unity 229
se 228
large 228
high 228
a@@ 228
li@@ 228
advice 228
common 228
ity 228
alone 227
working 227
at@@ 226
as@@ 226
blood 226
build 226
Cor 226
start 225
instance 225
considered 225
accepted 225
imperfect 225
proved 224
according 224
chapter 224
listen 223
wonderful 223
Have 222
deal 222
grow 222
pre@@ 222
ha@@ 222
raised 221
ri@@ 221
divine 221
baptism 221
hands 221
ates 220
harmony 220
rest 220
ine 220
goal 220
First 219
V@@ 219
position 219
es@@ 219
Therefore 219
happened 219
le@@ 218
conscience 218
fulfillment 218
branch 218
▪ 217
is@@ 217
seek 217
40 217
regard 217
languages 217
develop 216
speaking 216
n 216
ter 215
tried 215
vital 215
lo@@ 214
ness 214
heavens 214
else 214
Not 214
meet 214
value 214
il@@ 214
behind 213
teachings 213
reflect 213
over@@ 212
Later 212
authority 212
th 212
explained 211
letter 211
Or 210
within 210
May 210
several 210
et@@ 210
Solomon 210
explains 210
reasons 210
easy 209
earlier 209
role 208
pages 208
daily 208
public 208
par@@ 208
ling 207
trials 207
ahead 207
faced 207
water 207
obey 207
ad@@ 206
con@@ 206
single 206
qu@@ 205
changed 205
34 204
judgment 204
happen 203
Brother 203
Messiah 203
als 203
regular 202
servant 202
challenges 202
call 202
warning 202
examine 202
no@@ 202
endure 201
showing 201
People 201
pioneers 200
Before 200
wonder 200
offered 200
knows 200
ment 199
daughter 199
humble 199
ful 199
encourage 198
choice 198
open 198
ra@@ 198
personality 198
pain 198
fulfilled 198
laws 197
knowing 197
ago 197
interests 197
U@@ 197
changes 197
worked 196
bo@@ 196
natural 196
turned 196
described 196
ma@@ 196
seem 196
decided 196
allowed 195
realize 195
Really 195
line 194
verse 194
creation 194
37 194
United 194
attend 194
am@@ 194
area 193
Jeremiah 193
se@@ 193
Keep 192
goals 192
visit 192
greatest 192
convention 192
ies 192
el 191
history 191
held 191
page 191
regularly 191
imagine 190
ance 190
35 190
positive 189
months 189
1914 189
occasion 189
Prov 188
becoming 188
met 188
loyalty 188
everyone 188
alive 188
Sarah 187
provides 187
Rom 187
closer 187
ir@@ 186
therefore 186
throughout 186
millions 186
period 186
articles 186
steps 185
guidance 185
anger 185
ready 185
Moreover 185
ap@@ 185
include 185
learning 184
Perhaps 184
prayed 184
ents 183
challenge 183
expect 183
mo@@ 183
bear 182
resurrected 182
bread 181
assigned 181
z@@ 181
concern 181
B.C.E 181
id@@ 181
sacrifices 180
proper 180
quickly 180
ar 179
prepare 179
beyond 179
enough 179
ag@@ 179
Jacob 179
friendship 179
behalf 178
Babylon 178
enjoyed 178
Mary 178
side 178
further 178
protect 178
paradise 178
True 177
government 177
quality 177
Though 177
praise 177
ve 176
centuries 176
relatives 176
stop 176
carry 176
speech 176
lesson 176
five 175
Hebrews 175
enemies 174
w 174
Memorial 174
angel 174
takes 174
benefits 174
per@@ 174
literature 174
foreign 173
ic@@ 173
encouraged 173
forgive 173
revealed 172
worldwide 172
th@@ 172
fight 172
Mark 172
Most 172
problem 172
addition 172
Others 172
seeking 172
offspring 172
poor 171
j@@ 171
salvation 171
Life 171
myself 171
church 171
PAGE 170
ho@@ 170
sovereignty 170
arrangement 170
modern 170
ering 170
publications 169
ying 169
ds 169
completely 169
force 169
O 169
entire 169
published 169
cultivate 169
families 168
lot 168
negative 168
ors 168
seems 168
deeply 168
publishers 168
sometimes 167
appropriate 167
h 167
Similarly 167
ec@@ 167
paragraph 167
ered 167
Hence 167
su@@ 167
tree 166
em@@ 166
invited 166
interested 166
An 166
destruction 166
personally 166
understood 166
ian 166
In@@ 165
uses 165
anxiety 165
basis 165
students 165
progress 165
Hall 164
English 164
J@@ 164
eat 164
Witness 164
l 164
States 164
do@@ 163
realized 163
studying 163
aware 163
Also 163
di@@ 163
office 163
Each 163
blessed 163
source 163
approach 163
ary 163
Clearly 162
overseer 162
kings 162
sound 162
forward 162
various 162
cha@@ 162
ci@@ 161
Heb 161
test 161
arrived 161
um@@ 161
shepherd 161
Tim 161
practice 161
crowd 160
E 160
Al@@ 160
accounts 160
teaches 160
begin 160
consequences 160
importance 160
tells 160
suffer 160
situations 160
priests 160
activity 160
Paradise 159
beautiful 159
ite 159
godly 159
building 159
According 159
clean 159
patience 159
he@@ 159
record 159
ally 158
firm 158
evil 158
asking 158
fl@@ 158
circuit 158
discuss 158
favor 158
expression 157
returned 157
contrast 157
door 157
conditions 157
Was 157
Teach 157
strive 157
sexual 157
acts 157
convinced 157
necessary 157
rich 156
eventually 156
key 156
lessons 155
expressed 155
evening 155
Saul 155
translation 155
seven 155
express 155
sing 155
reveal 155
inter@@ 155
getting 155
prison 154
agree 154
original 154
d 154
flock 154
actually 154
filled 154
individual 154
despite 154
job 154
walk 154
integrity 153
neither 153
sacred 153
simple 153
S 153
ess 153
T 153
truths 152
surely 152
command 152
Imagine 152
late 152
exercise 152
ans 152
political 152
six 152
above 151
under@@ 151
undeserved 151
subject 151
leaders 151
Another 150
pl@@ 150
trying 150
moral 150
overcome 150
po@@ 150
image 149
results 149
chosen 149
Y 149
psalmist 149
Elijah 149
ks 149
looking 149
followed 148
ch@@ 148
race 148
ne@@ 148
text 148
enter 148
tic 148
caused 147
keeping 147
wives 147
shown 147
answered 147
loves 147
specific 147
Love 147
reward 147
feeling 146
neighbor 146
forgiveness 146
books 146
Y@@ 146
recognize 146
passed 146
justice 146
us@@ 146
approval 146
lands 146
traveling 146
week 146
added 146
short 145
former 145
mercy 145
indeed 145
soul 145
lack 145
birth 144
fire 144
voice 144
education 144
train 144
member 144
urged 144
la@@ 144
garden 143
fruit 143
2@@ 143
Isaac 143
universe 143
grateful 142
x 142
explain 142
om@@ 142
affection 142
Pet 142
household 141
whatever 141
places 141
Despite 141
ol@@ 141
Remember 141
Joshua 141
hours 140
standing 140
pressure 140
compassion 140
wait 140
areas 140
to@@ 140
ou@@ 140
pro@@ 139
sub@@ 139
Con@@ 139
op@@ 139
beliefs 139
Great 139
experiences 139
final 139
beginning 139
spent 139
relates 139
related 139
obedient 138
grew 138
territory 138
ens 138
RE@@ 138
confident 138
chose 138
reasonable 137
forth 137
dedicated 137
ed@@ 137
ently 137
entertainment 137
army 137
sharing 137
sincere 137
least 137
ened 137
ah 137
r 137
sort 137
brings 136
Think 136
effective 136
battle 136
one’s 136
success 136
guard 136
pride 136
den@@ 136
included 136
Samuel 136
About 136
1@@ 135
Students 135
involves 135
preached 135
step 135
parts 135
principle 135
response 135
Soon 135
ical 135
prospect 134
missionary 134
event 134
guide 134
car@@ 134
meditate 134
genuine 134
putting 134
gifts 134
conversation 134
aspects 133
ty 133
seemed 133
Eden 133
ess@@ 133
sign 133
morning 133
idea 133
countries 133
dedication 133
cope 133
thousands 133
demonstrate 133
shall 132
observe 132
failed 132
ses 132
les 132
meant 132
required 132
fall 132
town 132
ver@@ 132
ious 132
picture 132
injustice 131
et 131
out@@ 131
i 131
David’s 131
miles 131
violence 131
hour 131
carefully 131
prepared 131
destroyed 131
ep@@ 131
looked 131
nature 130
enemy 130
produce 130
valuable 130
danger 130
ure 130
state 130
immediately 130
seed 130
lies 130
encouraging 130
satisfaction 130
vision 129
School 129
Judah 129
display 129
ia 129
ingly 129
50 129
Rome 129
che@@ 129
bl@@ 128
ind@@ 128
ons 128
write 128
offering 128
Through 128
lose 128
I’m 128
c 128
ps 128
ent@@ 128
fulfill 127
insight 127
rec@@ 127
ys 127
appeared 127
existence 127
limited 127
react 127
opposition 127
o 126
ive 126
protection 126
prophecies 126
38 126
request 126
communication 126
calls 126
war@@ 125
concerned 125
hi@@ 125
end@@ 125
responsibilities 125
sa@@ 125
D 125
ch 124
appear 124
cr@@ 124
attending 124
id 124
immorality 124
built 124
ended 124
pursue 123
Nevertheless 123
note 123
War 123
ark 123
fruitage 123
Where 123
comp@@ 122
beloved 122
ously 122
viewed 122
attack 122
bed 122
walking 122
attended 122
world’s 122
Look 121
spread 121
security 121
seeing 121
yourselves 121
refuge 121
visited 121
discussed 121
opportunities 121
condition 120
illustrate 120
av@@ 120
eight 120
slaves 120
focused 120
ned 120
adds 120
Holy 120
Rev 120
More 120
believed 119
spoken 119
affected 119
elderly 119
accomplish 119
opened 119
greatly 119
acceptable 119
mental 119
spend 119
almost 119
ms 119
watch 119
temptation 119
ments 119
mistakes 119
Could 119
fail 118
extent 118
ist 118
mar@@ 118
month 118
referred 118
lie 118
paragraphs 118
parent 118
assist 118
wa@@ 118
refused 118
privileges 118
ing@@ 117
rulership 117
animals 117
praying 117
Body 117
Governing 117
type 117
ement 117
younger 117
cities 117
challenging 117
ding 117
leading 117
term 117
conclusion 117
studies 116
Isa 116
secular 116
sion 116
describes 116
ut@@ 116
Over 116
translated 116
Armageddon 116
patient 116
45 116
ice 116
half 116
itself 115
persecution 115
ants 115
acted 115
conclude 115
ill 115
ground 115
low 115
creatures 115
energy 115
ter@@ 115
demons 115
assured 114
pioneering 114
reveals 114
meal 114
sed 114
responded 114
de 114
invitation 114
gr@@ 114
pay 114
association 114
direct 114
att@@ 114
Z@@ 114
feet 114
class 114
Ask 113
car 113
increase 113
br@@ 113
remained 113
ining 113
minds 113
accurate 113
views 113
either 113
heartfelt 113
presence 113
ass@@ 113
sur@@ 112
successful 112
hurt 112
million 112
caring 112
Catholic 112
Ad@@ 112
bless 112
kindly 112
Being 112
resist 112
faithfully 112
groups 112
riches 112
disciple 112
prevent 111
Gen 111
eg@@ 111
ists 111
oc@@ 111
refers 111
ion 111
tions 111
sinful 111
setting 111
relief 111
includes 111
Abraham’s 110
res@@ 110
forget 110
Ephesians 110
ES 110
Ex@@ 110
wine 109
indicate 109
priest 109
don’t 109
treat 109
room 109
verses 109
pure 109
36 109
Should 109
zealous 109
60 109
pleased 109
sick 109
receiving 108
listening 108
finally 108
box 108
youth 108
concerns 108
improve 108
ely 108
70 108
issues 108
For@@ 108
man’s 107
cor@@ 107
established 107
applied 107
emotional 107
decide 107
rejoice 107
yes 107
boy 107
cut 107
warned 107
promote 107
instructions 107
organized 106
ect 106
practices 106
Translation 106
zeal 106
inv@@ 106
directed 106
homes 106
44 106
rely 106
19@@ 106
succeed 106
easier 105
Note 105
Regarding 105
x@@ 105
bearing 105
manner 105
ru@@ 105
contact 105
od@@ 105
obedience 105
temporary 105
delight 105
suffered 105
easily 105
km 105
sho@@ 105
Un@@ 105
expected 105
careful 105
essential 105
enti@@ 105
play 104
recent 104
2013 104
devotion 104
ib@@ 104
witnesses 104
amount 104
points 104
declared 104
theocratic 104
and@@ 104
ded 104
pleasure 104
oned 104
exp@@ 104
cl@@ 103
closely 103
ative 103
concerning 103
usually 103
strengthened 103
mon@@ 103
measure 103
loss 103
100 103
basic 103
save 103
governments 103
scriptures 103
distress 103
due 103
moving 103
busy 102
gra@@ 102
rebellion 102
worth 102
drawn 102
becomes 102
survive 102
killed 102
ast@@ 102
ig@@ 102
er’s 102
endurance 102
evidently 101
likewise 101
Whether 101
bre@@ 101
break 101
ws 101
ev@@ 101
Mosaic 101
ably 101
4@@ 101
def@@ 101
freely 101
41 101
els 101
discern 101
Germany 101
instead 101
master 100
responsible 100
Pharaoh 100
continues 100
the@@ 100
Gospel 100
os@@ 100
Watch 100
notice 100
up@@ 100
Faith 100
ked 100
tongue 100
wickedness 100
magazine 100
fell 100
conventions 100
Only 100
bor@@ 100
Hezekiah 100
outside 100
forgiving 100
story 100
cases 100
wild 100
decades 99
18@@ 99
rejected 99
trained 99
immoral 99
active 99
quite 99
warm 99
third 99
Ar@@ 99
determine 99
ath@@ 99
ities 99
anxious 98
overseers 98
tly 98
EN@@ 98
feels 98
weeks 98
discreet 98
dear 98
claim 98
divorce 98
willingly 98
Make 98
legal 98
man@@ 97
Ezekiel 97
mature 97
forms 97
contains 97
pornography 97
career 97
reaching 97
inner 97
sees 97
facts 97
Second 97
road 97
expressions 97
Passover 97
Le@@ 97
lasting 97
choices 97
unique 96
Philippians 96
gone 96
ud@@ 96
Once 96
ition 96
ce 96
reality 96
ING 96
provision 96
cares 96
gu@@ 96
Dis@@ 96
France 96
ishing 96
ish 96
witnessing 96
nearly 96
aspect 96
cons@@ 96
general 96
person’s 96
recreation 96
red 96
ging 96
ving 96
raise 96
studied 95
bond 95
awake 95
sight 95
identify 95
sh@@ 95
est@@ 95
Likewise 95
discouraged 95
courageous 95
shepherds 95
fill 95
eye 95
waiting 95
Her 95
comments 95
advantage 95
parable 95
ta@@ 94
ins 94
Sadly 94
quoted 94
committed 94
stopped 94
har@@ 94
saved 94
ie 94
spirituality 94
ED 94
Family 94
inheritance 94
mates 94
developed 94
workers 94
opening 94
helpful 94
destroy 93
pass 93
ator 93
marry 93
details 93
assistance 93
occur 93
emotions 93
requires 93
struggle 93
entered 93
Com@@ 93
ites 93
correct 93
writing 93
arise 93
L 93
bringing 92
big 92
Elisha 92
Noah’s 92
ge 92
ically 92
front 92
reference 92
girl 92
reached 92
Two 92
42 92
primary 92
remarkable 92
und@@ 92
ard 92
z 92
student 92
touched 91
min@@ 91
ill@@ 91
Africa 91
letters 91
presented 91
hu@@ 91
invisible 91
telling 91
vast 91
merely 91
calling 91
although 91
talking 91
teachers 91
H 91
Eph 91
pr@@ 91
noted 91
united 91
ved 90
st 90
refer 90
joined 90
engage 90
occurred 90
process 90
adultery 90
mere 90
3@@ 90
subjects 90
exactly 90
considering 90
critical 90
resolve 90
exists 90
selfish 90
applying 90
pres@@ 90
behavior 90
chapters 90
provisions 90
OF 89
ends 89
honest 89
ruler 89
Furthermore 89
ze 89
designed 89
Good 89
ized 89
particular 89
treated 89
AL@@ 89
ible 89
Among 89
violent 89
Parents 89
worse 89
IN@@ 89
Finally 89
aside 88
social 88
poverty 88
conf@@ 88
ak@@ 88
treasure 88
statement 88
Pro@@ 88
report 88
worthy 88
sleep 88
Here 88
stra@@ 88
hospitality 88
afraid 88
inc@@ 87
formed 87
gre@@ 87
Under 87
compared 87
ery 87
observed 87
Israelite 87
occasions 87
mor@@ 87
dec@@ 87
ship 87
run 87
main 87
facing 87
search 87
particularly 87
tender 87
str@@ 87
pattern 87
associated 87
Land 87
proof 87
beast 87
financial 86
cre@@ 86
beneficial 86
ves 86
values 86
stone 86
mighty 86
Me@@ 86
Well 86
placed 86
highly 86
forces 86
commanded 86
gradually 86
patiently 86
COVER 86
39 86
descendants 86
York 86
sinners 86
prophets 86
eternal 86
factors 86
recalls 86
te@@ 86
program 86
qualified 85
Having 85
series 85
Asa 85
contribute 85
meaningful 85
ref@@ 85
Tower 85
reject 85
De@@ 85
win 85
satisfying 85
didn’t 85
Without 85
tu@@ 85
43 85
add@@ 85
companions 85
High 85
wondered 85
abilities 85
travel 84
ring 84
joyful 84
bur@@ 84
Messianic 84
produced 84
2012 84
wed 84
evident 84
ched 84
gratitude 84
gods 84
appears 84
consideration 84
bar@@ 84
Deuteronomy 84
contrary 84
grief 84
iled 84
compl@@ 84
preceding 84
performed 84
ideas 84
allows 84
BIBLE 84
constantly 83
illness 83
sea 83
Young 83
walked 83
humbly 83
Awake 83
business 83
ning 83
Am 83
determination 83
secure 83
ited 83
advance 83
ga@@ 83
deliver 83
Go 83
offers 83
guided 83
Gilead 83
growth 83
allowing 83
ob@@ 82
wing 82
lovingly 82
inside 82
ection 82
causes 82
deeds 82
eager 82
gathered 82
ph@@ 82
global 82
probably 82
noticed 82
com@@ 82
grown 82
assurance 82
normal 82
dangerous 82
ins@@ 82
moment 82
Joseph’s 82
ade 82
disfellowshipped 82
Promised 82
successfully 82
environment 82
speaks 82
viewpoint 82
outstanding 82
shared 82
Israel’s 82
Enoch 82
ry 81
clo@@ 81
dealings 81
construction 81
perform 81
Exodus 81
Take 81
culture 81
seriously 81
ately 81
stood 81
associate 81
hearing 81
peaceful 81
granted 81
IN 81
teacher 81
military 80
uc@@ 80
eness 80
powers 80
sun 80
air 80
igh@@ 80
trial 80
impossible 80
fleshly 80
sought 80
widow 80
Australia 80
growing 80
Mo@@ 80
harm 80
acting 80
we@@ 80
weak 80
July 80
join 80
prejudice 80
impressed 80
carried 80
exist 79
writer 79
send 79
sc@@ 79
Christianity 79
handle 79
familiar 79
illustrations 79
lifestyle 79
with@@ 79
Never 79
involve 79
Worship 79
En@@ 79
Children 79
potential 79
ecting 79
ages 79
significant 79
invite 79
appearance 79
tears 78
thousand 78
cover 78
Both 78
society 78
generous 78
ches 78
indicates 78
concluded 78
background 78
trouble 78
Mount 78
Spirit 78
manifest 78
assignments 78
providing 78
soldiers 78
tor@@ 78
surprise 78
asks 78
superior 78
path 78
apart 78
goes 78
region 78
table 78
literal 78
throne 78
assures 77
ished 77
dress 77
purposes 77
AR@@ 77
drink 77
benefited 77
appreciated 77
sts 77
Ruth 77
remains 77
inhabited 77
Ecclesiastes 77
represent 77
ences 77
ls 77
Questions 77
judge 77
ns 77
couples 77
fe@@ 77
leaving 77
ines 77
reports 76
Levites 76
accomplished 76
prov@@ 76
connection 76
official 76
ina 76
sl@@ 76
acknowledge 76
conviction 76
abroad 76
indicated 76
recognized 76
slavery 76
il 76
Be@@ 76
declare 76
Whatever 76
WHAT 76
chief 76
difficulties 76
ial 76
grasp 76
Mar@@ 76
daughters 76
cont@@ 75
Canada 75
major 75
sex 75
Father’s 75
sting 75
balanced 75
clothing 75
discussion 75
non 75
ners 75
meditating 75
ight 75
eating 75
Flood 75
Ahab 75
stor@@ 75
rise 75
hundreds 75
teenager 75
comforting 75
separate 75
ize 75
instruction 75
ungodly 75
higher 75
associates 75
delivered 74
col@@ 74
stake 74
tempted 74
ang@@ 74
listened 74
holding 74
missionaries 74
Give 74
cared 74
remaining 74
ute 74
enting 74
wars 74
serves 74
difference 74
ER@@ 74
scripture 74
mention 74
arrangements 74
intended 74
Every 74
employment 74
log@@ 74
ined 74
inclined 74
youths 73
ped 73
modest 73
suggestions 73
describe 73
increased 73
Res@@ 73
ily 73
journey 73
drawing 73
5@@ 73
seventh 73
ending 73
Pentecost 73
commission 73
Learn 73
scholars 73
neighbors 73
healthy 73
os 73
influenced 73
relate 73
fast 73
repeatedly 73
abandoned 73
mb@@ 73
ris@@ 72
research 72
ministerial 72
UR@@ 72
figurative 72
Lazarus 72
repentant 72
rightly 72
St@@ 72
people’s 72
treatment 72
referring 72
reflected 72
conflict 72
prophetic 72
Sometimes 72
cal@@ 72
Car@@ 72
turning 72
medical 72
TH@@ 72
yed 72
authorities 72
dealing 72
Abel 72
eliminate 72
ality 72
comfortable 72
Go@@ 72
reaction 72
sol@@ 72
ol 72
coll@@ 72
lying 72
village 72
Gu@@ 71
sacrificing 71
divided 71
disasters 71
Lord’s 71
Explain 71
Has 71
ets 71
choosing 71
directly 71
discovered 71
sted 71
med 71
imp@@ 71
dwelling 71
ged 71
names 71
rendered 71
abundance 71
trans@@ 71
endeavor 71
Phil 71
Robert 71
trusted 70
citizens 70
date 70
resources 70
replied 70
Picture 70
residents 70
animal 70
exc@@ 70
iv@@ 70
zed 70
izing 70
Jas 70
belong 70
tal@@ 70
drew 70
ward 70
peoples 70
ise 70
ming 70
mark 70
recall 70
Sea 70
amb@@ 70
April 70
chi@@ 70
white 70
outcome 70
ana 70
LI@@ 70
si@@ 70
stick 70
court 70
all@@ 70
Lo@@ 69
mouth 69
address 69
begotten 69
ay 69
surprised 69
South 69
inhabitants 69
cost 69
supporting 69
ces 69
ten@@ 69
stress 69
Sovereign 69
lowly 69
royal 69
international 69
useful 69
sword 69
paid 69
adjustments 69
Europe 69
pleasing 69
supported 69
copies 69
buy 69
46 69
wrongdoing 69
65 69
sinned 69
spouse 69
traveled 69
store 69
pp 69
writings 68
music 68
keeps 68
thankful 68
resulted 68
proud 68
El@@ 68
slow 68
Drama 68
thereafter 68
preparing 68
Nehemiah 68
so@@ 68
Unlike 68
physically 68
sha@@ 68
motivated 68
miracles 68
visits 68
Almighty 68
rep@@ 68
herself 68
limitations 68
eng@@ 68
ir 68
thank 68
broken 68
Ac@@ 68
approached 68
disease 68
god 68
sen@@ 68
t’s 68
notes 68
ruling 68
effects 67
Him 67
ace 67
Church 67
assembly 67
ound 67
satisfied 67
religions 67
AT@@ 67
properly 67
restore 67
pped 67
Halls 67
today’s 67
strengthening 67
ought 67
risk 67
requirements 67
ances 67
Corinth 67
sit 67
remind 66
marvelous 66
sad 66
printed 66
adjust 66
plans 66
differ 66
gold 66
alert 66
September 66
Har@@ 66
sel@@ 66
moves 66
broke 66
uring 66
uting 66
me@@ 66
He@@ 66
cur@@ 66
wish 66
victory 66
Colossians 66
German 66
released 66
wide 66
II 66
tribe 66
row 66
ick@@ 66
Micah 66
ices 66
prize 65
rewarded 65
ple@@ 65
angry 65
instructed 65
Ma@@ 65
brotherhood 65
um 65
carrying 65
painful 65
trusting 65
acc@@ 65
gained 65
unable 65
officials 65
severe 65
ame 65
sec@@ 65
aff@@ 65
Internet 65
heed 65
comm@@ 65
inherited 65
ified 65
N 65
TI@@ 65
marital 65
enabled 65
Egyptian 65
pointed 65
aged 65
majority 65
remove 65
her@@ 65
Esau 65
resolved 65
faithfulness 65
straight 65
sang 65
company 65
ters 65
review 65
Recall 65
super@@ 65
generation 65
numerous 65
tw@@ 65
demonstrated 65
Zechariah 64
belief 64
Notice 64
imperfection 64
off@@ 64
it’s 64
nine 64
Surely 64
thanks 64
asleep 64
wheat 64
miss 64
England 64
cruel 64
root 64
abundant 64
firstborn 64
wisely 64
7@@ 64
create 64
husbands 64
routine 64
glorious 64
ST@@ 64
happens 64
Japan 64
go@@ 64
reminded 64
ear@@ 64
mountains 64
ce@@ 64
hor@@ 64
merciful 64
edition 64
cam@@ 63
maintaining 63
.@@ 63
pagan 63
Bel@@ 63
2011 63
if@@ 63
ile 63
ths 63
AN@@ 63
Is@@ 63
dream 63
struck 63
content 63
across 63
oil 63
An@@ 63
unbelieving 63
represented 63
Ministry 63
encourages 63
Thessalonians 63
finding 63
intense 63
wilderness 63
rel@@ 63
mu@@ 63
mildness 63
tired 62
beauty 62
Brazil 62
endured 62
cra@@ 62
science 62
refuse 62
vow 62
serpent 62
safe 62
I’ve 62
commandments 62
touch 62
campaign 62
Peter’s 62
hand@@ 62
relative 62
none 62
Trinity 62
ES@@ 62
Doing 62
f 62
cou@@ 62
writers 62
argu@@ 62
6@@ 62
Gal 62
escape 62
leads 62
gl@@ 62
believing 62
list 62
priority 62
por@@ 62
blind 61
represents 61
camp 61
release 61
Happy 61
conscious 61
reasoning 61
jw.org 61
cry 61
reliable 61
warfare 61
lay 61
modesty 61
aid 61
devoted 61
regret 61
ot@@ 61
manuscripts 61
exciting 61
firmly 61
tive 61
Michelle 61
reads 61
Draw 61
Other 61
aging 61
nd@@ 61
dwell 61
ians 61
ore 61
talks 61
translations 61
Ex 61
solid 61
waters 61
perfection 61
passing 61
des@@ 61
minister 61
admonition 61
swe@@ 61
dly 61
dev@@ 61
ire 60
enable 60
sickness 60
M 60
dro@@ 60
Sam 60
mankind’s 60
wealth 60
poured 60
CO@@ 60
forced 60
cour@@ 60
ain 60
dangers 60
cu@@ 60
Judas 60
heavy 60
belongs 60
1919 60
exercising 60
Per@@ 60
pol@@ 60
distance 60
restored 60
gathering 60
conce@@ 60
star@@ 60
readily 60
pleasant 60
planet 60
sions 60
excellent 60
newly 60
55 60
Martha 60
Fe@@ 60
symbolic 60
eless 60
ied 60
ars 60
80 60
reported 59
a’s 59
threatened 59
union 59
magazines 59
No@@ 59
Wor@@ 59
motives 59
attendance 59
fundamental 59
plan 59
Help 59
spirits 59
schedule 59
Elders 59
strangers 59
terms 59
ination 59
Rahab 59
dr@@ 59
ast 59
ash 59
TO 59
agreed 59
cer@@ 59
additional 59
ping 59
Del@@ 59
emp@@ 59
visiting 59
ad 59
hate 59
quick 59
copy 59
welcome 59
suddenly 59
treasures 59
corruption 59
YOU 59
limit 59
obtain 59
119 59
scholar 58
ective 58
August 58
ector 58
heads 58
variety 58
standard 58
applies 58
mistake 58
songs 58
armies 58
kingdoms 58
trees 58
damage 58
tered 58
singing 58
sold 58
quit 58
detail 58
prominent 58
ism 58
fin@@ 58
e’s 58
audience 58
enjoying 58
abandon 58
It’s 58
Rec@@ 58
tests 58
December 58
ture 58
season 58
unclean 58
attitudes 58
pu@@ 58
AND 58
pe 58
Col 58
hur@@ 58
15@@ 58
drinking 58
permanent 58
Jonathan 58
significance 57
wind 57
task 57
disaster 57
dir@@ 57
talents 57
acy 57
del@@ 57
Hannah 57
kill 57
ON 57
baby 57
Shortly 57
repentance 57
pe@@ 57
finish 57
darkness 57
stayed 57
thr@@ 57
da@@ 57
Committee 57
sin@@ 57
comforted 57
sorts 57
ma 57
protected 57
izes 57
zing 57
establish 57
ER 57
mountain 57
secret 57
rules 57
center 57
phone 57
Im@@ 57
ented 57
ology 57
ell 57
oper@@ 57
expectation 57
IS 57
brief 57
widely 57
hatred 57
degree 57
grain 57
gets 57
goodness 57
Qu@@ 56
foundation 56
pressures 56
AC@@ 56
obeying 56
losing 56
Aaron 56
believer 56
ble 56
Close 56
qualify 56
Solomon’s 56
overwhelmed 56
iting 56
render 56
grave 56
pursuing 56
draws 56
nearby 56
pri@@ 56
AL 56
distant 56
rescue 56
ears 56
balance 56
hardships 56
captivity 56
La@@ 56
habits 56
lovers 56
ications 56
identified 56
Its 56
corrupt 56
miraculously 56
differences 56
crime 56
trip 56
model 56
communicate 56
warnings 56
enduring 56
recently 56
guilty 56
Ki 56
harmful 56
fied 56
profess@@ 56
OR@@ 56
percent 56
Person 55
ner 55
ening 55
esti@@ 55
gen@@ 55
methods 55
Friend 55
reminders 55
site 55
identity 55
relationships 55
guilt 55
ah’s 55
householder 55
ant@@ 55
ain@@ 55
objective 55
pur@@ 55
child’s 55
Peace 55
pictures 55
priesthood 55
shine 55
Titus 55
HI@@ 55
judged 55
sake 55
rev@@ 55
maintained 55
Imitate 55
mat@@ 55
private 55
add 55
property 55
acknowledged 55
habit 55
traits 55
attacks 55
October 55
Chron 55
tically 55
Adam’s 55
IT 55
ign 55
preserved 55
ected 55
willingness 54
Russell 54
tendency 54
father’s 54
earth’s 54
ftn 54
community 54
stronger 54
speci@@ 54
involving 54
y’s 54
appeal 54
marked 54
developing 54
surrounded 54
fy 54
sk@@ 54
ll@@ 54
bas@@ 54
admit 54
Lot 54
shed 54
urgency 54
ric@@ 54
initial 54
mild 54
unexpected 54
arranged 54
Sophia 54
obeyed 54
neutrality 54
fi@@ 54
partner 54
| 54
fac@@ 54
wedding 54
dying 54
song 54
don@@ 54
glad 54
goats 54
ear 54
predic@@ 53
Work 53
project 53
causing 53
preserve 53
played 53
ver 53
Deut 53
Says 53
accepting 53
approaching 53
affairs 53
istic 53
emotionally 53
ff@@ 53
innocent 53
realm 53
entrusted 53
fores@@ 53
LE@@ 53
Ev@@ 53
Service 53
earnest 53
zealously 53
loyally 53
Latin 53
terrible 53
tri@@ 53
ight@@ 53
compassionate 53
ser@@ 53
commendation 53
contain 53
tend 53
on’s 53
Spanish 53
features 53
mil@@ 53
ory 53
inf@@ 53
compare 53
bit 53
48 53
heal 53
removed 53
require 53
possessions 53
color 53
bodies 53
om 53
temptations 53
ran@@ 53
reflecting 53
earnestly 53
LY 52
letting 52
Out 52
ext@@ 52
proving 52
life’s 52
signs 52
pap@@ 52
spending 52
tools 52
2014 52
stars 52
appealing 52
PS 52
aring 52
depth 52
Judea 52
far@@ 52
sincerely 52
cold 52
fir@@ 52
Mexico 52
ass 52
houses 52
addressed 52
Lamb 52
ati@@ 52
evolution 52
smoking 52
iz@@ 52
stories 52
Version 52
fitting 52
deepen 52
motivate 52
publisher 52
clay 52
apparently 52
Spain 52
existed 52
ands 52
storm 52
fed 52
looks 52
searching 52
headquarters 51
eagerly 51
Empire 51
Come 51
te 51
ligh@@ 51
tless 51
contained 51
viewing 51
oppression 51
reign 51
sive 51
regardless 51
bel@@ 51
em 51
countless 51
feed 51
expand 51
ide 51
reflects 51
144,000 51
universal 51
attempt 51
confronted 51
ek@@ 51
www.jw.org 51
miraculous 51
Ab@@ 51
Egyptians 51
replaced 51
hates 51
accord 51
watchful 51
AS@@ 51
bus 51
street 51
Gideon 51
ge@@ 51
rain 51
9@@ 51
leg@@ 51
faces 51
na 51
raising 51
impact 51
At@@ 51
urges 51
sum@@ 50
ching 50
U.S.A 50
iah 50
ell@@ 50
cro@@ 50
technology 50
scientists 50
intelligent 50
Nathan 50
Early 50
greed 50
listeners 50
victim 50
satisfy 50
blame 50
entic@@ 50
ions 50
horse 50
pa@@ 50
distressing 50
ster 50
pursuits 50
ech 50
burden 50
icate 50
io 50
Russia 50
character@@ 50
unrighteous 50
mourning 50
ruin 50
equ@@ 50
foolish 50
ively 50
harvest 50
emb@@ 50
DE@@ 50
Book 50
ran 50
ick 50
passage 50
Using 50
tig@@ 50
Pl@@ 50
Prayer 50
weaknesses 50
char@@ 50
dealt 50
covered 50
sti@@ 50
commands 50
supply 50
leader 50
Britain 50
error 49
ements 49
cap@@ 49
fit 49
humankind 49
ven@@ 49
ours 49
creature 49
Michael 49
maturity 49
customs 49
0@@ 49
observes 49
mer@@ 49
caught 49
anxieties 49
valid 49
minded 49
wel@@ 49
bride 49
popular 49
anymore 49
ren@@ 49
economic 49
computer 49
fears 49
an’s 49
relations 49
17@@ 49
senses 49
obstacles 49
skills 49
governing 49
HE@@ 49
na@@ 49
waited 49
disappointed 49
development 49
isolated 49
dri@@ 49
defend 49
pen@@ 49
priorities 49
ton 49
wear 49
500 49
fallen 49
stones 49
ok@@ 49
Biblical 49
Bo@@ 49
Which 49
Gospels 49
worldly 49
mel@@ 49
10@@ 49
types 48
ca@@ 48
wholesome 48
ishes 48
possibly 48
settle 48
Deborah 48
memories 48
understands 48
ue 48
celebr@@ 48
ministers 48
pers@@ 48
wn 48
Pre@@ 48
cherish 48
turns 48
HOW 48
ft 48
down@@ 48
vo@@ 48
app@@ 48
portion 48
amazing 48
begins 48
initiative 48
opposite 48
commit 48
ens@@ 48
olive 48
Nisan 48
extraordinary 48
distributed 48
dust 48
batt@@ 48
mid 48
reminds 48
Additionally 48
expects 48
tor 48
tation 48
influences 48
March 48
Knorr 48
finds 48
abuse 48
school@@ 48
lessly 48
Pilate 47
generosity 47
funds 47
worker 47
current 47
opposed 47
Jon 47
boat 47
associating 47
inst@@ 47
plant 47
missed 47
focusing 47
forgiven 47
shi@@ 47
safety 47
ple 47
displayed 47
Death 47
dra@@ 47
deaf 47
temper 47
fearing 47
remote 47
American 47
der 47
ond@@ 47
fish 47
disobedience 47
Brothers 47
ama@@ 47
continuing 47
gather 47
top 47
Cain 47
mentions 47
Knowing 47
ured 47
privileged 47
City 47
Making 47
whenever 47
refreshing 47
wall 47
ests 46
nar@@ 46
team 46
courageously 46
primarily 46
male 46
passages 46
weeds 46
wipe 46
literally 46
Jephthah 46
Sh@@ 46
admits 46
oning 46
fo@@ 46
duc@@ 46
tending 46
sible 46
opposers 46
testimony 46
SUBJECT 46
aining 46
Jud@@ 46
deliverance 46
rewarding 46
north 46
clothes 46
calm 46
suggested 46
Cameron 46
lied 46
possess 46
ort 46
Jude 46
ba@@ 46
capable 46
companion 46
blesses 46
fr@@ 46
relatively 46
access 46
oblig@@ 46
extreme 46
promotes 46
claimed 46
profound 46
prophe@@ 46
wat@@ 46
IC@@ 46
clergy 46
district 46
obj@@ 46
urge 46
cast 46
og@@ 46
arose 46
ot 46
iness 46
context 46
brochure 46
stri@@ 46
can@@ 46
wo@@ 45
rac@@ 45
midst 45
Brian 45
increasing 45
sanctified 45
han@@ 45
survived 45
smile 45
cultivating 45
Jehoshaphat 45
readers 45
ie@@ 45
reasoned 45
threat 45
Christmas 45
xes 45
Trust 45
atic 45
singleness 45
Try 45
virgins 45
she@@ 45
birds 45
contr@@ 45
Eric 45
Asia 45
Study 45
execution 45
finished 45
Gr@@ 45
vers@@ 45
imprisoned 45
LO@@ 45
visions 45
sw@@ 45
cell 45
bi@@ 45
pain@@ 45
belongings 45
perfectly 45
Granted 45
motive 45
Eventually 45
Gre@@ 45
judges 45
entitled 45
January 45
Evening 45
Pharisees 45
harsh 45
ius 45
ck@@ 45
playing 45
hoped 45
constant 45
bones 45
afterward 45
Brooklyn 45
billions 45
Know 45
encounter 45
shortly 45
Again 45
memory 45
bound 45
rendering 45
ane 45
persecuted 45
changing 45
settled 45
observing 45
Things 45
ignore 45
upright 45
examination 45
ist@@ 45
watching 45
liber@@ 45
Exam@@ 45
contributed 44
90 44
hidden 44
glorify 44
rewards 44
tir@@ 44
opinions 44
posed 44
work@@ 44
’t 44
ever@@ 44
ta 44
Th@@ 44
proclaim 44
coun@@ 44
sides 44
video 44
pour 44
depends 44
Leviticus 44
ulated 44
Barak 44
ee 44
Were 44
athe@@ 44
comparison 44
northern 44
tre@@ 44
preachers 44
likened 44
ici@@ 44
previously 44
solution 44
tra@@ 44
hel@@ 44
shoulder 44
assume 44
thrilling 44
running 44
fying 44
oun@@ 44
engaging 44
extended 44
joyfully 44
sto@@ 44
completed 44
1,000 44
national 44
promoted 44
friendships 44
selected 44
aled 44
ail@@ 44
Bibles 44
ty@@ 44
subjection 44
discussing 44
66 44
eternity 44
ough 44
texts 44
é@@ 44
associations 44
Readers 44
interpre@@ 43
feature 43
ven 43
ack 43
ach 43
welfare 43
location 43
sid@@ 43
Pray 43
participate 43
opinion 43
Eccl 43
contro@@ 43
stumbling 43
churches 43
Jer 43
Meal 43
delighted 43
trac@@ 43
discernment 43
online 43
shepherding 43
sal@@ 43
gaining 43
depend 43
French 43
imitating 43
mag@@ 43
ids 43
Above 43
det@@ 43
Use 43
wor@@ 43
Christendom 43
arms 43
warn 43
rights 43
cli@@ 43
pop@@ 43
Canaan 43
pha@@ 43
visible 43
doctrine 43
dies 43
Ind@@ 43
ger 43
teens 43
middle 43
pot@@ 43
conducting 43
WHEN 43
Arthur 43
walls 43
cup 43
cat@@ 43
island 43
calamity 43
unless 43
November 43
prof@@ 43
Bapti@@ 43
Dad 43
conversations 43
visitors 43
arrival 43
Di@@ 43
meditation 43
directions 43
ential 43
nur@@ 43
ys@@ 43
flee 43
Galatians 43
empire 43
lean 43
Upon 43
ats 42
ve@@ 42
remembered 42
wherever 42
troubled 42
non@@ 42
cul@@ 42
dark 42
As@@ 42
Philippines 42
writes 42
ounded 42
defin@@ 42
specifically 42
custom 42
await 42
2010 42
children’s 42
Ireland 42
productive 42
ste@@ 42
frag@@ 42
worry 42
ruled 42
exposed 42
tendencies 42
yp@@ 42
tries 42
ced 42
air@@ 42
Ra@@ 42
20@@ 42
famous 42
sensitive 42
alongside 42
ees 42
bul@@ 42
ef@@ 42
eting 42
assemblies 42
won 42
pp@@ 42
tabernacle 42
suitable 42
gradu@@ 42
fields 42
new@@ 42
adverti@@ 42
distracted 42
u 42
copper 42
possession 42
worshipping 42
holds 42
lab@@ 42
June 42
ene 42
W 42
commandment 42
lesser 42
Much 42
tful 42
VI@@ 42
hardly 42
Master 42
Rebekah 42
returning 42
P 42
cooperate 42
trap 42
Faithful 42
Three 41
Sel@@ 41
ects 41
debt 41
Goliath 41
forming 41
Da@@ 41
tear 41
logical 41
ong 41
Thereafter 41
police 41
peaceable 41
pleasures 41
load 41
hoping 41
backing 41
ug@@ 41
miracle 41
resulting 41
atmosphere 41
’@@ 41
lawlessness 41
wer 41
ind 41
total 41
highlights 41
restra@@ 41
seated 41
historical 41
Bar@@ 41
law@@ 41
condemned 41
commissioned 41
1950 41
failure 41
Cre@@ 41
RI@@ 41
throw 41
PRO@@ 41
sustain 41
lik@@ 41
igned 41
worshipper 41
worshipped 41
comforts 41
submit 41
achieve 41
diligent 41
cent 41
surface 41
crushed 41
dry 41
uted 41
Golden 41
ult 41
·@@ 41
developments 41
doctor 41
overly 41
struggling 41
extremely 41
antly 41
per 41
pel 41
Nothing 41
IS@@ 41
resurrect 41
labor 41
1,@@ 41
hair 41
hide 41
punishment 41
William 41
adopted 41
land@@ 41
capacity 41
der@@ 41
reply 41
fourth 41
Ruler 41
origin 41
Wal@@ 41
valley 41
Sa@@ 41
ics 41
Everyone 41
ish@@ 41
ph 41
Scripture 41
tax 41
Kings 41
crowds 41
Des@@ 41
disposition 41
Earth 41
puts 41
amed 41
replace 40
loc@@ 40
silver 40
Please 40
vain 40
inated 40
Charles 40
Pr@@ 40
Galilee 40
weekly 40
resentment 40
appointment 40
prior 40
Thanks 40
sely 40
diff@@ 40
tribes 40
sun@@ 40
elements 40
weaken 40
Bethlehem 40
rebelled 40
obtained 40
ections 40
exercised 40
discussions 40
ail 40
observ@@ 40
iti@@ 40
price 40
title 40
propaganda 40
outlook 40
● 40
rulers 40
TS 40
nal 40
commercial 40
located 40
sy@@ 40
spir@@ 40
refugees 40
Us 40
deeper 40
inherit 40
stro@@ 40
harmon@@ 40
hear@@ 40
sites 40
ency 40
totally 40
application 40
repent 40
feared 40
burned 40
Orig@@ 40
sorrow 40
comment 40
ads 40
deb@@ 40
my@@ 40
Tr@@ 40
JEHOVAH 40
reputation 40
cop@@ 40
charge 40
ict 40
Absalom 40
huge 40
population 40
bra@@ 40
voluntary 40
weapons 40
Herod 40
initially 40
fulfilling 40
du@@ 40
outset 40
cing 40
ni@@ 40
Within 40
cel@@ 40
bitter 39
hated 39
conver@@ 39
remnant 39
ose 39
Ap@@ 39
falling 39
Me 39
drive 39
quiet 39
healed 39
marriages 39
multi@@ 39
toler@@ 39
agreement 39
fresh 39
kingship 39
length 39
utions 39
count 39
chance 39
inspiration 39
doubts 39
Nonetheless 39
zer 39
Judge 39
ly@@ 39
alcohol 39
happily 39
ological 39
Philippi 39
Priest 39
step@@ 39
cies 39
recalled 39
avoided 39
Web 39
respected 39
ights 39
Hel@@ 39
Gog 39
approved 39
var@@ 39
anding 39
empty 39
grand 39
urgent 39
AN 39
discouragement 39
awe 39
ash@@ 39
Thomas 39
warns 39
ised 39
offerings 39
edly 39
VE 39
claims 39
sentence 39
arrive 39
Mil@@ 39
honesty 39
promising 39
solve 39
Year 39
favorably 39
alize 39
16@@ 39
boys 39
explaining 39
effectively 39
– 39
ior 39
repeated 39
47 39
8@@ 39
cle 39
twice 39
51 39
Thess 39
bal@@ 39
gar@@ 39
persons 39
ures 39
upbuilding 39
thrown 39
ousness 39
aw@@ 39
translators 39
highlight 39
eding 39
factor 39
commended 39
Next 39
RO@@ 39
CH@@ 39
Maria 39
dist@@ 38
commun@@ 38
unselfish 38
welcomed 38
ra 38
angelic 38
Man 38
ease 38
Seeing 38
stret@@ 38
exact 38
originally 38
printing 38
Become 38
thereby 38
ab 38
int@@ 38
med@@ 38
immediate 38
sell 38
ler 38
pas@@ 38
ties 38
deceptive 38
adjusted 38
highlighted 38
Suppose 38
ban@@ 38
stumble 38
Ephesus 38
comple@@ 38
fifth 38
aming 38
drag@@ 38
witnessed 38
gro@@ 38
utmost 38
ordered 38
adults 38
ey@@ 38
oth 38
CI@@ 38
Besides 38
appoint 38
weakness 38
enables 38
earn 38
Su@@ 38
garments 38
priceless 38
ord 38
Pharaoh’s 38
amazed 38
unusual 38
sitting 38
perspective 38
attain 38
conducted 38
Serving 38
hopes 38
respectful 38
embarrass@@ 38
imperfections 38
lines 38
criminal 38
inspiring 38
otherwise 38
relevant 38
tremendous 38
sets 38
Don@@ 38
MA@@ 38
radio 38
docum@@ 38
Time 38
realistic 38
tro@@ 38
donations 38
inding 38
lls 38
protects 38
imitation 38
onal 38
rid 38
near@@ 38
requirement 38
scre@@ 38
our@@ 38
Truth 37
strike 37
sil@@ 37
garment 37
bri@@ 37
itated 37
believes 37
ples 37
possibility 37
Spiritual 37
ived 37
scientific 37
brotherly 37
tested 37
patriarch 37
elling 37
indefinite 37
victims 37
projects 37
Stu@@ 37
ur 37
timely 37
experiencing 37
volunteers 37
counted 37
scene 37
owned 37
reassuring 37
Judges 37
headship 37
Chronicles 37
ON@@ 37
publicly 37
’re 37
producing 37
footnote 37
intentions 37
upset 37
shr@@ 37
emblems 37
sign@@ 37
adult 37
girls 37
website 37
News 37
IT@@ 37
happening 37
bow 37
Grand 37
steadfast 37
founded 37
disastrous 37
Continue 37
Power 37
services 37
hospitable 37
materially 37
expensive 37
indication 37
mid@@ 37
rela@@ 37
cas@@ 37
2,000 37
Theocratic 37
crib@@ 37
ble@@ 37
Mom 37
timing 37
NO@@ 37
assure 37
anti@@ 37
49 37
leaves 37
widespread 37
Photo 37
continually 37
drugs 37
Day 37
execute 37
Coun@@ 37
hungry 37
ME@@ 37
ign@@ 37
limits 37
politics 37
ʹ@@ 37
proclaimed 37
gracious 37
commit@@ 37
reside 37
vigilant 37
analyze 37
talked 37
struggled 37
restr@@ 37
fighting 37
press 37
kinds 37
asc@@ 36
insp@@ 36
creative 36
prosp@@ 36
contemplate 36
everywhere 36
sh 36
counter@@ 36
sat 36
average 36
jobs 36
Looking 36
ational 36
HO@@ 36
uge 36
She@@ 36
pieces 36
even@@ 36
Speaking 36
siblings 36
ounds 36
devote 36
compromise 36
2,@@ 36
John’s 36
transformed 36
Barnabas 36
organizations 36
Throughout 36
correction 36
hundred 36
83 36
friendly 36
R 36
highest 36
WOR@@ 36
The@@ 36
mine 36
rejoicing 36
Times 36
interesting 36
vel@@ 36
Col@@ 36
ine@@ 36
everyday 36
images 36
ium 36
destination 36
asts 36
attend@@ 36
Babylonian 36
exchange 36
pil@@ 36
obvious 36
ll 36
acquire 36
Reign 36
mur@@ 36
executed 36
ensure 36
Concerning 36
oath 36
emphasis 36
run@@ 36
tur@@ 36
lec@@ 36
corrup@@ 36
strongly 36
taste 36
memor@@ 36
Sunday 36
fulness 36
grand@@ 36
testi@@ 36
suggests 36
Hearer 36
planning 36
Evidently 35
cles 35
Jul@@ 35
safeguard 35
offense 35
prayerfully 35
paying 35
ading 35
furn@@ 35
operation 35
historian 35
tobacco 35
object 35
elsewhere 35
lar@@ 35
Pra@@ 35
drun@@ 35
clar@@ 35
explo@@ 35
fa@@ 35
declaring 35
receives 35
Dead 35
Commun@@ 35
extra 35
ron@@ 35
appreciates 35
bu@@ 35
missing 35
exert 35
vol@@ 35
ani@@ 35
ased 35
examining 35
approachable 35
Jo@@ 35
accused 35
unseen 35
mal@@ 35
neutral 35
strengthens 35
lim@@ 35
credit 35
U.S 35
fortify 35
somewhat 35
depressed 35
grows 35
ored 35
generally 35
rob@@ 35
skin 35
affl@@ 35
thrilled 35
undoubtedly 35
Stephen 35
ongoing 35
dated 35
mon 35
acquainted 35
Society 35
prisoners 35
Daniel’s 35
squ@@ 35
foreigners 35
itu@@ 35
fet@@ 35
resses 35
res 35
fled 35
admitted 35
aths 35
introduced 35
minutes 35
cond@@ 35
ders 35
feeding 35
hypocrisy 35
centered 35
cycle 35
officer 35
giver 35
you@@ 35
lov@@ 35
reproach 35
strange 35
generously 35
weight 35
73 35
Following 35
Rule 34
schools 34
yl@@ 34
Par@@ 34
IM@@ 34
foremost 34
erg@@ 34
survival 34
Tal@@ 34
buried 34
form@@ 34
considers 34
arrested 34
brother’s 34
doub@@ 34
method 34
tees 34
family’s 34
altar 34
esting 34
warmly 34
Often 34
firsthand 34
races 34
ud 34
gladly 34
discusses 34
Devil’s 34
principal 34
Source 34
ord@@ 34
Get 34
ots 34
forgives 34
February 34
announced 34
Sermon 34
lux@@ 34
striving 34
era 34
oppose 34
explanation 34
nor@@ 34
aim 34
mold 34
ERS 34
brain 34
statements 34
space 34
fruits 34
unmarried 34
pal@@ 34
media 34
Show 34
inqu@@ 34
lacking 34
Dan 34
lips 34
America 34
farm 34
bears 34
Richard 34
sm 34
ury 34
vis@@ 34
Any 34
party 34
Polish 34
Ur 34
enhance 34
mer 34
guests 34
iling 34
SO@@ 34
ridicule 34
yours 34
unnecessary 34
Rel@@ 34
persever@@ 34
proclaimers 34
omed 34
richly 34
description 34
fiery 34
200 34
Name 34
OUR 34
Jordan 34
To@@ 34
ber@@ 34
London 34
US@@ 34
Marriage 34
jo@@ 34
Malachi 34
equal 34
apostasy 34
rup@@ 34
expectations 34
independence 34
Se@@ 34
stands 34
iron 34
ains 34
childhood 34
virgin 34
telephone 34
Mic@@ 34
Likely 34
hit 34
improper 34
fore@@ 34
uphold 34
desired 34
publication 34
rebellious 34
focuses 34
Third 34
big@@ 34
compet@@ 33
extend 33
accident 33
Em@@ 33
Further 33
Her@@ 33
fil@@ 33
Congregation 33
equipped 33
engaged 33
ress 33
burning 33
Ro@@ 33
revealing 33
organiz@@ 33
akes 33
tion@@ 33
astro@@ 33
broad@@ 33
illustrates 33
delay 33
domestics 33
COR 33
deserve 33
immortal 33
desirable 33
items 33
lifted 33
appointments 33
duties 33
exile 33
confirmed 33
Elijah’s 33
Phi@@ 33
Serve 33
F 33
lacked 33
ep 33
Sur@@ 33
famine 33
greeting 33
arti@@ 33
husband’s 33
n’t 33
sty 33
Ezek 33
,000,000 33
liked 33
cooper@@ 33
unwise 33
unfaithful 33
hesitate 33
impression 33
Li@@ 33
frequently 33
suppl@@ 33
increasingly 33
itable 33
wage 33
surrounding 33
perceive 33
Syriac 33
CE 33
question@@ 33
hospital 33
Andrew 33
handed 33
extensive 33
spreading 33
ication 33
Ste@@ 33
300 33
nam@@ 33
cred@@ 33
inclinations 33
condem@@ 33
identifies 33
Nations 33
plain 33
lam@@ 33
certainty 33
tic@@ 33
badness 33
Es@@ 33
suggest 33
complex 33
ong@@ 33
sports 33
grant 33
met@@ 33
Ghana 33
conquer 33
attracted 33
wood 33
tent 33
except 33
lets 33
International 33
lif@@ 33
East 33
Illustrate 33
cleansing 33
mission 33
rever@@ 33
prophesied 33
Georgian 33
overlook 33
attractive 33
selfishness 33
Avoid 33
deceived 33
igr@@ 33
vi@@ 33
morally 32
hot 32
Josiah 32
instruct 32
Mor@@ 32
prayerful 32
qualifications 32
follows 32
yers 32
revised 32
vicious 32
pled 32
representatives 32
reas@@ 32
Thessalonica 32
select 32
ound@@ 32
Years 32
relied 32
Had 32
prospects 32
homeland 32
behave 32
inclination 32
considerable 32
len 32
produces 32
River 32
invites 32
hes@@ 32
preci@@ 32
stage 32
roads 32
cious 32
ake 32
divorced 32
zes 32
respectfully 32
Anna 32
Mat@@ 32
reg@@ 32
peer 32
deception 32
researchers 32
territories 32
topic 32
outcry 32
silent 32
transferred 32
enjoyment 32
ams 32
spr@@ 32
boldly 32
soldier 32
hell 32
foot 32
Neither 32
chariots 32
Living 32
Wr@@ 32
AS 32
ner@@ 32
14@@ 32
ride 32
mal 32
Na@@ 32
shield 32
Consequently 32
speaker 32
diligently 32
ation@@ 32
sorry 32
permit 32
tribulations 32
oms 32
proceeded 32
Jericho 32
utes 32
earthquake 32
ges 32
Maintain 32
fur@@ 32
confirm 32
expressing 32
imagination 32
archae@@ 32
K 32
org@@ 32
Jacob’s 32
lion 32
Rachel 32
openly 32
Whom 32
scale 32
revol@@ 32
rebel 32
Mother 32
Religion 32
bos@@ 32
Ha@@ 32
ak 32
discover 32
numbered 32
regain 32
persec@@ 32
prot@@ 32
badly 32
repro@@ 32
ben@@ 32
advanced 32
civil 32
portions 32
check 32
ne 32
thro@@ 32
ional 32
ental 32
GOD 32
Humans 32
Cho@@ 32
moon 32
Rutherford 32
apartment 32
worst 32
72 32
worthwhile 32
larger 32
tal 32
84 32
respects 32
admir@@ 32
Human 32
Ted 32
aten 31
LD 31
similarly 31
recommended 31
post@@ 31
incense 31
planned 31
ater 31
shadow 31
understandable 31
proves 31
noteworthy 31
Shepherd 31
saving 31
OU@@ 31
om’s 31
anc@@ 31
unrepentant 31
illustrated 31
Jeremiah’s 31
Job’s 31
Benjamin 31
Asa’s 31
plan@@ 31
towns 31
deserves 31
bol@@ 31
petitions 31
spe@@ 31
gentle 31
necessities 31
Samaritan 31
compar@@ 31
truthfulness 31
electronic 31
respecting 31
exercises 31
subtle 31
requests 31
advancement 31
Korah 31
protective 31
hears 31
tragic 31
actively 31
Ne@@ 31
offended 31
phrase 31
une@@ 31
Little 31
oking 31
tim@@ 31
meek 31
puzz@@ 31
quar@@ 31
piece 31
unrighteousness 31
V 31
movies 31
Ancient 31
men@@ 31
d’s 31
exemplary 31
Persian 31
alities 31
dignity 31
hy@@ 31
idolatry 31
bro@@ 31
rock 31
topics 31
tract 31
FOR 31
references 31
combined 31
Actually 31
possess@@ 31
favorable 31
orig@@ 31
fun 31
shape 31
construc@@ 31
absolutely 31
dign@@ 31
fashi@@ 31
doctrines 31
Chinese 31
favorite 31
sinner 31
design@@ 31
Nazareth 31
Thousand 31
tac@@ 31
Lystra 31
aking 31
actual 31
prevented 31
laid 31
murder 31
thorough 31
diver@@ 31
games 31
53 31
iction 31
Truly 31
taun@@ 31
branches 31
reminder 31
tably 31
ok 31
idence 31
presentation 31
Creation 31
PO@@ 31
pac@@ 31
tends 31
eds 31
materialism 31
teenagers 31
fies 31
tures 31
closed 31
bought 31
discipl@@ 31
sufficient 31
cried 31
Five 31
errors 30
ech@@ 30
Millions 30
etic 30
memorial 30
despair 30
fer@@ 30
afford 30
valued 30
nic@@ 30
arriving 30
lifesaving 30
awaiting 30
Cornelius 30
Tra@@ 30
dig@@ 30
teen 30
aves 30
isol@@ 30
Mean@@ 30
ressing 30
definitely 30
code 30
torture 30
meantime 30
2015 30
osity 30
accompany 30
cks 30
C 30
pity 30
Pers@@ 30
moments 30
itions 30
naturally 30
convince 30
tain@@ 30
smoke 30
wido@@ 30
character 30
lad@@ 30
progressed 30
bore 30
disc@@ 30
seemingly 30
Str@@ 30
Pri@@ 30
int 30
recover 30
namely 30
fruitful 30
cleansed 30
illing 30
pet@@ 30
learner 30
instruc@@ 30
hon@@ 30
WA@@ 30
ushing 30
clu@@ 30
dominant 30
Mary’s 30
empowered 30
een 30
Pos@@ 30
th’s 30
portra@@ 30
attr@@ 30
dness 30
hunger 30
cho@@ 30
Giver 30
suppose 30
practiced 30
failing 30
Branch 30
lows 30
marks 30
breaking 30
conquest 30
Mel@@ 30
Manasseh 30
WE 30
We@@ 30
zen 30
person@@ 30
cancer 30
Assembly 30
unbelievers 30
itation 30
prominence 30
Je@@ 30
read@@ 30
196@@ 30
weigh 30
merch@@ 30
Ch@@ 30
2009 30
fran@@ 30
,000 30
beat 30
serv@@ 30
Alex 30
previous 30
guiding 30
Giving 30
guarantee 30
onto 30
plenty 30
prev@@ 30
54 30
depri@@ 30
attempted 30
whereas 30
displaying 30
viol@@ 30
61 30
driver 30
Listen 30
ause 30
IR@@ 30
v 30
tural 30
Meditating 30
measures 30
arily 30
paths 30
Reflecting 30
happier 30
tran@@ 30
tan@@ 30
chaste 30
oked 30
Accordingly 30
View 30
colle@@ 30
Ca@@ 30
isted 30
repe@@ 30
auxiliary 30
contributes 29
unjust 29
vary 29
estimate 29
bes@@ 29
listed 29
fear@@ 29
utter@@ 29
yoke 29
authorized 29
commonly 29
presid@@ 29
assa@@ 29
wrath 29
any@@ 29
Habakkuk 29
fra@@ 29
ives 29
newspaper 29
apostate 29
implies 29
detailed 29
itive 29
corrected 29
introduction 29
moun@@ 29
Song 29
healing 29
Centuries 29
eled 29
Rev@@ 29
Mark@@ 29
repair 29
opens 29
forefathers 29
Ke@@ 29
distinguish 29
Happily 29
accep@@ 29
temporarily 29
ete 29
Gentiles 29
Testament 29
disobedient 29
adopt 29
separated 29
glorified 29
adequate 29
unscriptural 29
occup@@ 29
ils 29
pond@@ 29
Te@@ 29
itude 29
ju@@ 29
sending 29
Austria 29
deterior@@ 29
southern 29
typical 29
forb@@ 29
drop 29
card 29
size 29
Fre@@ 29
ulted 29
tradition 29
DO@@ 29
ify 29
sentenced 29
QUESTIONS 29
Especially 29
ure@@ 29
apped 29
manif@@ 29
positions 29
stance 29
ired 29
overwhelming 29
sche@@ 29
interfere 29
Canaanite 29
pill@@ 29
Nebuchadnezzar 29
roof 29
dep@@ 29
deep@@ 29
humili@@ 29
overy 29
yer 29
dict@@ 29
wanting 29
MATT 29
souls 29
icted 29
genuinely 29
sworn 29
treacherous 29
enthusiasm 29
judging 29
sleeping 29
enn@@ 29
gross 29
ital 29
des 29
impl@@ 29
doctors 29
scattered 29
annual 29
affects 29
Nic@@ 29
FE@@ 29
addiction 29
ature 29
3,000 29
sheba 29
fath@@ 29
qui@@ 29
helper 29
convey 29
Compare 29
ensive 29
assembled 29
consistent 29
keen 29
Ir@@ 29
unknown 29
flow 29
traditions 29
ock 29
fault 29
Rep@@ 29
Philip 29
stuck 29
heartwarming 29
longed 29
emphasized 29
Red 29
Mis@@ 29
numbers 29
hat@@ 29
succeeded 29
Rus@@ 29
ENT 29
adversities 29
62 29
freed 29
é 29
difficulty 29
occasionally 29
Reading 29
betra@@ 29
icked 29
arrives 29
creating 29
BE@@ 29
Describe 29
ABOUT 29
Anthony 29
attrib@@ 29
hinder 29
outworking 29
Obviously 29
spices 29
ust 29
distractions 29
ung@@ 29
unbeliever 29
supplication 29
conflicts 29
sian 29
tracts 29
eted 29
tured 29
ike 29
sky 29
sumed 29
Humility 28
remembering 28
Understandably 28
blind@@ 28
ware 28
tasks 28
pris@@ 28
scope 28
’S 28
haughty 28
troubles 28
records 28
Mal@@ 28
imagined 28
keenly 28
grooming 28
lowing 28
promp@@ 28
realities 28
tain 28
sy 28
river 28
rescued 28
enjoyable 28
Greece 28
ik@@ 28
MO@@ 28
yeartext 28
accompanied 28
Under@@ 28
preacher 28
pursuit 28
eful 28
scenes 28
ponder 28
steal 28
climate 28
sticking 28
perceived 28
George 28
Assyrian 28
INE 28
entirely 28
thri@@ 28
mostly 28
Rehoboam 28
bab@@ 28
HISTORY 28
Babylonians 28
forgotten 28
counsel@@ 28
judgments 28
eld@@ 28
Bill 28
Mus@@ 28
Silas 28
enslaved 28
cloud 28
Sisera 28
university 28
punish 28
ained 28
heart@@ 28
asser@@ 28
regul@@ 28
appreciative 28
ferv@@ 28
dece@@ 28
RA@@ 28
loud 28
lear@@ 28
hardworking 28
threw 28
medi@@ 28
dreams 28
somehow 28
blood@@ 28
billion 28
aries 28
ull 28
conc@@ 28
spiritism 28
G 28
channel 28
HA@@ 28
entive 28
starting 28
declaration 28
oke 28
thoroughly 28
marrying 28
peers 28
ent’s 28
reserved 28
bing 28
fixed 28
You@@ 28
conquered 28
Marcus 28
deci@@ 28
plague 28
found@@ 28
port@@ 28
mess@@ 28
diseases 28
wholehearted 28
part@@ 28
board 28
jealous 28
ther’s 28
fought 28
heat 28
Acc@@ 28
level 28
vivid 28
exclusive 28
separ@@ 28
begun 28
falls 28
Whoever 28
fails 28
ories 28
peri@@ 28
version 28
tragedy 28
Jairo 28
Full 28
Canaanites 28
cher@@ 28
Italy 28
Last 28
ali@@ 28
Por@@ 28
capital 28
flour 28
AG@@ 28
That’s 28
philosop@@ 28
directing 28
Until 27
cy@@ 27
dedicate 27
commented 27
sland@@ 27
book@@ 27
absorbed 27
pose 27
deliberately 27
financially 27
misled 27
el’s 27
captive 27
exhor@@ 27
east 27
floor 27
ME 27
ss 27
rain@@ 27
sexually 27
ony 27
of@@ 27
racial 27
clock 27
occurs 27
fail@@ 27
session 27
flood@@ 27
partial 27
expresses 27
terrified 27
practicing 27
wearing 27
purposed 27
tents 27
Vi@@ 27
tempt 27
disposed 27
repented 27
Bethelites 27
souled 27
thanksgiving 27
planted 27
drug 27
Naboth 27
hellfire 27
EX@@ 27
gover@@ 27
tted 27
chooses 27
ordinary 27
head@@ 27
SOME 27
Publ@@ 27
cooperation 27
lling 27
convincing 27
Regardless 27
symbolized 27
interrup@@ 27
wholeheartedly 27
obligation 27
television 27
devastated 27
embrace 27
longing 27
ators 27
SE 27
systems 27
ye 27
intervene 27
favored 27
past@@ 27
resol@@ 27
UD@@ 27
governor 27
iah’s 27
describing 27
Jerusalem’s 27
Gaius 27
Bet@@ 27
wi@@ 27
120 27
desperate 27
spared 27
PL@@ 27
hearted 27
Br@@ 27
cells 27
pit@@ 27
notic@@ 27
Put 27
103 27
exhorted 27
aggres@@ 27
India 27
steward 27
ban 27
Christian’s 27
im 27
concentr@@ 27
anointing 27
proclaiming 27
transportation 27
sounds 27
accurately 27
desp@@ 27
Irish 27
characteristics 27
skilled 27
deed 27
driving 27
forbidden 27
Man@@ 27
wishes 27
Potter 27
exquisite 27
orders 27
rider 27
pen 27
thinks 27
2008 27
sacrificial 27
south 27
ude 27
lin@@ 27
admon@@ 27
empathy 27
volunteer 27
ugg@@ 27
onward 27
year@@ 27
regrets 27
Caesar 27
vity 27
orderly 27
spite 27
Taking 27
Heart 27
trustworthy 27
can’t 27
sessions 27
duty 27
63 27
ili@@ 27
ender 27
Old 27
cultures 27
rate 27
accompl@@ 27
Lives 27
Encyclopedia 27
ense 27
mitting 27
ifies 27
nationality 27
obediently 27
75 27
THIS 27
art 27
relying 27
plants 27
ost@@ 27
SE@@ 27
range 27
contributions 27
State 27
manifested 27
supports 27
tedly 27
unlike 27
struc@@ 27
inal 26
burial 26
bat@@ 26
rolled 26
lift 26
tar@@ 26
grandparents 26
prefer 26
prefer@@ 26
icated 26
entering 26
JESUS 26
impul@@ 26
JOHN 26
emed 26
heal@@ 26
summer 26
intimate 26
standpoint 26
watched 26
guar@@ 26
iving 26
rapidly 26
misuse 26
status 26
short@@ 26
Sabbath 26
Professor 26
Jos@@ 26
OK 26
cit 26
scor@@ 26
fond 26
liness 26
symboli@@ 26
lock 26
SU@@ 26
Und@@ 26
func@@ 26
organize 26
dy@@ 26
dy 26
secretary 26
tone 26
whi@@ 26
honored 26
gri@@ 26
responding 26
disloyal 26
sor@@ 26
Gentile 26
eded 26
indu@@ 26
icting 26
honesthearted 26
mov@@ 26
informed 26
mentally 26
bondage 26
Earlier 26
sixth 26
central 26
gambling 26
Macedonia 26
injury 26
End 26
ox@@ 26
station 26
xed 26
exer@@ 26
Learning 26
structure 26
formerly 26
contentment 26
undo 26
erless 26
immense 26
harder 26
resident 26
deadly 26
ample 26
persuaded 26
lean@@ 26
advancing 26
faults 26
amoun@@ 26
weighed 26
Wa@@ 26
preparation 26
acquain@@ 26
ung 26
prosperous 26
starts 26
shame 26
skep@@ 26
programs 26
motor@@ 26
wife’s 26
jealousy 26
hom@@ 26
avoiding 26
drif@@ 26
exper@@ 26
UN@@ 26
backs 26
expl@@ 26
cheerful 26
20th 26
Department 26
guards 26
peace@@ 26
longtime 26
gates 26
tering 26
praising 26
Obe@@ 26
arrange 26
ert 26
arises 26
Med@@ 26
bus@@ 26
esteem 26
trad@@ 26
facilities 26
estimated 26
distur@@ 26
Japanese 26
Working 26
grandmother 26
stal@@ 26
dem@@ 26
submissive 26
offices 26
misleading 26
Sodom 26
wealthy 26
rob 26
icating 26
molded 26
partake 26
ignored 26
69 26
inate 26
design 26
proc@@ 26
ards 26
style 26
tel@@ 26
announ@@ 26
penalty 26
sources 26
arm 26
stating 26
Bl@@ 26
awaken 26
handled 26
ENT@@ 26
tempered 26
rightful 26
stable 26
ague 26
19th 26
sli@@ 26
Cla@@ 26
ethnic 26
honestly 26
atively 26
successor 26
QU@@ 26
eh@@ 26
injustices 26
cross 26
largest 26
excessive 26
ranks 26
caution 25
LE 25
hab@@ 25
commemorate 25
Sing@@ 25
simplify 25
irs 25
prosperity 25
oneness 25
net@@ 25
persevere 25
pat@@ 25
massive 25
Portuguese 25
heeding 25
Jonah 25
almighty 25
Whenever 25
tha@@ 25
Dec@@ 25
div@@ 25
intenti@@ 25
2000 25
section 25
CH 25
kne@@ 25
ologists 25
pleases 25
achi@@ 25
intrigu@@ 25
doors 25
Antonio 25
bs 25
Ear@@ 25
householders 25
depic@@ 25
maker 25
shut 25
reacted 25
Meanwhile 25
waste 25
adoles@@ 25
TR@@ 25
sle@@ 25
sta@@ 25
ful@@ 25
flo@@ 25
wore 25
US 25
backgrounds 25
greaters 25
leisure 25
covering 25
ems 25
Malawi 25
ow@@ 25
termin@@ 25
emic 25
ums 25
honoring 25
abor@@ 25
CAN 25
product 25
1955 25
challenged 25
ea 25
uncircumcised 25
reap 25
607 25
low@@ 25
1918 25
critici@@ 25
headed 25
Esther 25
TE@@ 25
questioned 25
inviting 25
fathers 25
heritage 25
mi@@ 25
disfellowshipping 25
ills 25
hostile 25
tire 25
searched 25
10,000 25
Samson 25
MAR@@ 25
vows 25
Gehazi 25
Lam@@ 25
managed 25
teenage 25
deceive 25
gen 25
voices 25
spar@@ 25
occupied 25
crow@@ 25
Shi@@ 25
Vis@@ 25
Suffering 25
romantic 25
fal@@ 25
needy 25
indicating 25
sanctification 25
Am@@ 25
Maker 25
pul@@ 25
YEAR 25
2006 25
depression 25
European 25
composed 25
son’s 25
philosophy 25
tical 25
electr@@ 25
Cyrus 25
molding 25
female 25
supplies 25
los 25
Prophecy 25
Inter@@ 25
Four 25
nec@@ 25
devastating 25
Deci@@ 25
Follow 25
apostates 25
real@@ 25
breaks 25
mas@@ 25
52 25
permitted 25
intensi@@ 25
adv@@ 25
otes 25
legally 25
ank 25
mislead 25
adop@@ 25
Days 25
let@@ 25
grandfather 25
crush 25
Spe@@ 25
horses 25
adapt 25
illi@@ 25
cand@@ 25
athing 25
threats 25
earthquakes 25
Saul’s 25
scroll 25
weighty 25
foretell 25
depicted 25
ships 25
admonished 25
86 25
North 25
Far 25
divide 24
absolute 24
need@@ 24
re 24
necessarily 24
ath 24
legs 24
theme 24
fair 24
WHY 24
ren 24
abst@@ 24
cherished 24
mus@@ 24
evangelizer 24
ond 24
prevail@@ 24
discerning 24
sav@@ 24
Buil@@ 24
Cir@@ 24
confidently 24
industry 24
meals 24
victor@@ 24
ymen 24
ifying 24
blasphe@@ 24
trig@@ 24
reassured 24
anim@@ 24
assisted 24
incident 24
pos@@ 24
worthless 24
Philistine 24
spring 24
hab’s 24
WIT@@ 24
Very 24
sity 24
mate’s 24
function 24
pi@@ 24
oldest 24
Cha@@ 24
ual 24
AM@@ 24
bank 24
Persia 24
ogra@@ 24
unfair 24
arch@@ 24
religiously 24
concept 24
Refer@@ 24
guaran@@ 24
pow@@ 24
progressively 24
hall 24
Lefèvre 24
Hans 24
celebrate 24
evangelizers 24
soo@@ 24
J 24
Lu@@ 24
alized 24
divisions 24
atory 24
yo 24
Pi@@ 24
Sp@@ 24
ested 24
dearly 24
wings 24
crossed 24
Bezalel 24
connected 24
endless 24
shy 24
joys 24
entr@@ 24
accomplishing 24
Way 24
belonged 24
anticip@@ 24
CON@@ 24
Sy@@ 24
frequent 24
indiffer@@ 24
reassure 24
attempts 24
End@@ 24
tiny 24
erfully 24
Let’s 24
Find 24
afternoon 24
permission 24
administr@@ 24
widows 24
JEHOVAH’S 24
cism 24
Numbers 24
equip 24
ster@@ 24
wond@@ 24
pair 24
surprising 24
boundaries 24
comprehend 24
Ho@@ 24
Neh 24
lifetime 24
film 24
tun@@ 24
etly 24
neighborhood 24
rig@@ 24
Naomi 24
spies 24
pping 24
fla@@ 24
Sal@@ 24
SAYS 24
theolog@@ 24
abusive 24
Someone 24
approaches 24
hes 24
sib@@ 24
awaits 24
ila 24
Applying 24
simpl@@ 24
guidelines 24
disciplined 24
esome 24
careg@@ 24
week@@ 24
parallel 24
400 24
Septuagint 24
malaria 24
expenses 24
56 24
sm@@ 24
Gl@@ 24
transform 24
infor@@ 24
graduated 24
crisis 24
stic@@ 24
Emlyn 24
satanic 24
simplified 24
Thinking 24
resurrections 24
IL@@ 24
xing 24
op 24
rising 24
Sarah’s 24
belonging 24
Immediately 24
minor 24
ectors 24
Assyria 24
communities 24
fierce 24
double 24
wasn’t 24
betrayed 24
flight 24
reliance 24
mean@@ 24
income 24
uri@@ 24
separation 24
weeping 24
impress 24
appl@@ 24
pla@@ 24
Martin 24
surroundings 24
GOD’S 24
ARE 24
owe 24
uti@@ 24
intention 24
Eli@@ 24
recommend@@ 23
murder@@ 23
cruel@@ 23
supposed 23
eter@@ 23
fre@@ 23
awak@@ 23
THAT 23
crown 23
ades 23
150 23
Gener@@ 23
Mon@@ 23
dd@@ 23
Anointed 23
mand@@ 23
Dor@@ 23
rejoiced 23
undermine 23
weigh@@ 23
break@@ 23
pick 23
roots 23
begged 23
threatening 23
consult 23
renewed 23
wrongdoer 23
dating 23
forgave 23
span 23
codex 23
defeat 23
oping 23
regions 23
delightful 23
irrit@@ 23
greedy 23
psalm 23
Wisdom 23
Philistines 23
istently 23
thir@@ 23
stop@@ 23
inci@@ 23
educ@@ 23
fellowship 23
medicine 23
shout 23
histor@@ 23
reason@@ 23
pays 23
ump 23
aling 23
thful 23
1995 23
advantages 23
Or@@ 23
ancy 23
Purpose 23
tak@@ 23
colored 23
advised 23
asy 23
selling 23
mp@@ 23
71 23
Off@@ 23
products 23
vir@@ 23
etings 23
Middle 23
globe 23
ink@@ 23
delegates 23
itious 23
legitimate 23
Thank 23
mail 23
examined 23
ere@@ 23
circul@@ 23
Bro@@ 23
entang@@ 23
testing 23
height 23
evol@@ 23
IG@@ 23
eff@@ 23
Changes 23
ke@@ 23
staying 23
Simply 23
fortified 23
foreigner 23
Certainly 23
Spir@@ 23
mour@@ 23
disappointment 23
educated 23
sudden 23
imprisonment 23
Apparently 23
though@@ 23
Amos 23
vigor@@ 23
pregnant 23
wages 23
iter@@ 23
rebels 23
magnificent 23
dimin@@ 23
cure 23
armed 23
vely 23
objects 23
lamb 23
gener@@ 23
VER@@ 23
sayings 23
inferior 23
impres@@ 23
weapon 23
stead@@ 23
tomb 23
eper 23
proced@@ 23
armor 23
inscription 23
consci@@ 23
aching 23
tool 23
ailer 23
cir@@ 23
MATTHEW 23
containing 23
urg@@ 23
comprehen@@ 23
rod 23
ility 23
cid@@ 23
Psalms 23
ultimately 23
eas@@ 23
reconci@@ 23
clearer 23
versions 23
Sim@@ 23
Pon@@ 23
Together 23
weep 23
cease 23
reduced 23
foot@@ 23
Ter@@ 23
ution 23
stun@@ 23
ch’s 23
Everything 23
Might 23
tenderness 23
eag@@ 23
feast 23
ate@@ 23
demonstr@@ 23
Paragraph 23
frustrated 23
safely 23
sanctify 23
BORN 23
rare 23
look@@ 23
Sha@@ 23
Western 22
impartiality 22
95 22
Offered 22
auth@@ 22
190@@ 22
exclaimed 22
pressured 22
ARTI@@ 22
succumb@@ 22
steady 22
flood 22
benefiting 22
hurled 22
oversight 22
Vol@@ 22
refrain 22
symb@@ 22
Tuvaluan 22
ables 22
History 22
alled 22
led@@ 22
oppos@@ 22
bright 22
worries 22
Worldwide 22
enjoys 22
locally 22
Isaiah’s 22
64 22
Succ@@ 22
restoration 22
rush 22
Ram@@ 22
reduce 22
Setting 22
recognizing 22
FROM 22
hardship 22
improved 22
revision 22
Jim 22
ves@@ 22
couldn’t 22
thieves 22
outlined 22
zz@@ 22
fost@@ 22
Prot@@ 22
tible 22
descendant 22
inexperienced 22
icity 22
excitement 22
shel@@ 22
Jew 22
spec@@ 22
6,000 22
overed 22
istent 22
independent 22
post 22
meas@@ 22
Christlike 22
enthusias@@ 22
zone 22
permanently 22
Along 22
intently 22
govern@@ 22
metal 22
islands 22
FRE@@ 22
Ever 22
Jezebel 22
households 22
mati@@ 22
attached 22
Pictures 22
rebuild 22
polic@@ 22
1930 22
buil@@ 22
repay 22
pointing 22
dominated 22
streets 22
shoul@@ 22
dread 22
materialistic 22
Chi@@ 22
None 22
lic 22
NES@@ 22
susp@@ 22
pictured 22
pace 22
hypocritical 22
manage 22
advis@@ 22
elim@@ 22
purcha@@ 22
Gen@@ 22
ous@@ 22
edness 22
inity 22
nourish@@ 22
secre@@ 22
hun@@ 22
presents 22
cial 22
holiness 22
heading 22
foods 22
bitterness 22
resisting 22
ome 22
contribution 22
march 22
entially 22
cking 22
cupbearer 22
goods 22
Ang@@ 22
photo@@ 22
till 22
destructive 22
stability 22
touching 22
COUNTRY 22
taining 22
lar 22
black 22
Right 22
yield 22
alizing 22
synagogue 22
treating 22
00,000 22
movement 22
disputes 22
distinct 22
sharp 22
priv@@ 22
print 22
o’s 22
tolerate 22
emphasize 22
nation@@ 22
employ@@ 22
MBER 22
Megan 22
translate 22
AP@@ 22
2004 22
chariot 22
Hosea 22
Turkey 22
rivers 22
festivals 22
native 22
hop@@ 22
cured 22
overse@@ 22
Pay 22
prisoner 22
fright@@ 22
claim@@ 22
commend 22
harv@@ 22
Supreme 22
supportive 22
shelter 22
persu@@ 22
asses 22
Jephthah’s 22
convictions 22
washed 22
uration 22
participating 22
Provider 22
deny 22
Gra@@ 22
promoting 22
Seek 22
clud@@ 22
impartial 22
tery 22
App@@ 22
author 22
sequ@@ 22
memb@@ 22
ORIGIN 22
bishop 22
stumbled 22
discerned 22
pains 22
tongues 22
alike 22
comb@@ 22
lowed 22
winds 22
adjustment 22
recogn@@ 22
linked 22
fat@@ 22
discourage 22
generations 22
THER 22
window 22
responds 22
bereaved 22
99 21
97 21
locked 21
stup@@ 21
PEOPLE 21
endeavoring 21
fugitive 21
unc@@ 21
Over@@ 21
proce@@ 21
typ@@ 21
Ohio 21
fairly 21
wr@@ 21
ols 21
sing@@ 21
humbled 21
je@@ 21
listens 21
materialized 21
Do@@ 21
Elizabeth 21
EP@@ 21
blo@@ 21
prime 21
cil 21
ouse 21
ihood 21
Babel 21
flocks 21
mill@@ 21
snare 21
Answers 21
calmly 21
apologize 21
rage 21
seriousness 21
displays 21
Relate 21
Samaria 21
Rose 21
alien@@ 21
seize 21
accommodations 21
instituted 21
approve 21
resting 21
igning 21
demands 21
curious 21
mast@@ 21
hometown 21
quo@@ 21
dressed 21
stimulate 21
manuscript 21
owner 21
Anglo 21
> 21
colporteurs 21
Asaph 21
tics 21
flir@@ 21
AGE 21
imagin@@ 21
FAITH 21
inger 21
attacked 21
camps 21
Magog 21
perc@@ 21
copy@@ 21
Willingly 21
helpless 21
curse 21
eks 21
immortality 21
indul@@ 21
uncertain 21
overcoming 21
incite 21
intimid@@ 21
Tu@@ 21
reasonableness 21
PET 21
shortages 21
Ric@@ 21
day’s 21
Zechariah’s 21
appe@@ 21
1931 21
discre@@ 21
preval@@ 21
excuse 21
Pol@@ 21
desperately 21
base 21
ison 21
California 21
match 21
’ve 21
cleaning 21
seless 21
inj@@ 21
publ@@ 21
passion 21
shar@@ 21
Teaching 21
Sub@@ 21
hid 21
Grave 21
tech@@ 21
border 21
ket 21
lofty 21
ulate 21
aler@@ 21
1513 21
examines 21
eling 21
sust@@ 21
enty 21
criminals 21
purchase 21
brib@@ 21
anic 21
Must 21
messages 21
abundantly 21
assisting 21
unworthy 21
eek@@ 21
wrong@@ 21
chives 21
Head 21
dents 21
fly 21
Bath 21
influ@@ 21
compos@@ 21
weakened 21
Sis@@ 21
declares 21
val@@ 21
Sure 21
identifying 21
decisive 21
vessels 21
sens@@ 21
Don 21
cked 21
Language 21
ager 21
Teacher 21
woman’s 21
aches 21
mirror 21
remembrance 21
disgu@@ 21
shock 21
ashamed 21
collection 21
horns 21
parties 21
ree 21
phr@@ 21
Less@@ 21
normally 21
trips 21
MAN@@ 21
establ@@ 21
chronic 21
swal@@ 21
loneliness 21
bicycle 21
Discipline 21
demanding 21
Natur@@ 21
Kar@@ 21
grasp@@ 21
ean 21
swept 21
young@@ 21
accus@@ 21
incomparable 21
Messiah’s 21
experts 21
virtu@@ 21
57 21
dishonest 21
OL@@ 21
mother’s 21
sometime 21
yoked 21
1949 21
clouds 21
tual 21
secondary 21
cards 21
rent 21
farmers 21
prompted 21
journe@@ 21
subjected 21
translating 21
gue 21
hotel 21
seasons 21
5,000 21
Happiness 21
demand 21
inactive 21
complaint 21
Simon 21
Assyrians 21
ounding 21
ect@@ 21
stream 21
underscor@@ 21
interpreted 21
81 21
Nearly 21
impart 21
promptly 21
Hope 21
heavily 21
contam@@ 21
weather 21
stub@@ 21
yles 20
91 20
grievous 20
Science 20
tempting 20
positively 20
Gradually 20
Wise 20
Blessed 20
ann@@ 20
Jael 20
ideal 20
Zarephath 20
aded 20
troubl@@ 20
eans 20
insignificant 20
exce@@ 20
sa 20
Joy 20
ustice 20
neglect 20
Kno@@ 20
worried 20
fame 20
kn@@ 20
atives 20
institutions 20
citizenship 20
aw 20
contemporaries 20
ny@@ 20
condemn 20
ith 20
enraged 20
trade 20
mistreated 20
scribes 20
basically 20
fornication 20
justify 20
movie 20
rejecting 20
eping 20
yield@@ 20
judicial 20
Franz 20
Zephaniah 20
antichrist 20
destroying 20
mark@@ 20
Story 20
shak@@ 20
agu@@ 20
perish 20
exec@@ 20
advances 20
jar 20
Ethiopian 20
rooms 20
ildo@@ 20
Shirley 20
1958 20
Cur@@ 20
cited 20
king’s 20
Catholics 20
observance 20
convenient 20
Fri@@ 20
Aar@@ 20
ept 20
expelled 20
ATION 20
Certain 20
NG@@ 20
accordingly 20
overjoyed 20
warri@@ 20
Sat@@ 20
Republic 20
ship@@ 20
shares 20
burn 20
glor@@ 20
Colos@@ 20
Eu@@ 20
flourish 20
thirst 20
antit@@ 20
tomorrow 20
proclamation 20
vation 20
resp@@ 20
materials 20
punished 20
substanti@@ 20
fortune 20
LUKE 20
oppressed 20
tiv@@ 20
clerg@@ 20
sealing 20
vulnerable 20
Cor@@ 20
approves 20
macy 20
sacrificed 20
spl@@ 20
dol@@ 20
outright 20
than@@ 20
recognition 20
May@@ 20
Back 20
Toward 20
Ob@@ 20
fare 20
route 20
sively 20
employed 20
ught 20
minim@@ 20
calcul@@ 20
7,000 20
countr@@ 20
journal 20
fun@@ 20
hi 20
exerts 20
Arab@@ 20
terr@@ 20
recommend 20
Ger@@ 20
esman 20
War@@ 20
Co@@ 20
classmates 20
ISA 20
villages 20
palace 20
wag@@ 20
will@@ 20
00 20
Otherwise 20
SP@@ 20
endix 20
intellectual 20
Bor@@ 20
efly 20
praised 20
doesn’t 20
troops 20
deceased 20
145 20
gate 20
rebuk@@ 20
answering 20
shocked 20
fills 20
eption 20
worrying 20
pronoun@@ 20
dramatic 20
enthr@@ 20
mor 20
mixed 20
myri@@ 20
class@@ 20
planets 20
reluctant 20
mothers 20
hard@@ 20
long@@ 20
enced 20
Gift 20
misery 20
adulter@@ 20
ingu@@ 20
skill@@ 20
mystery 20
ke 20
HEB 20
reap@@ 20
700 20
infected 20
dship 20
crip@@ 20
Conven@@ 20
attachment 20
fulfill@@ 20
ANSWER 20
dad 20
phi@@ 20
birth@@ 20
fer 20
exceptional 20
define 20
Preaching 20
injured 20
Tur@@ 20
violate 20
lit@@ 20
ONE 20
filling 20
Anyone 20
alism 20
treats 20
Bad 20
Resear@@ 20
Kind@@ 20
confusion 20
corp@@ 20
characters 20
58 20
iles 20
itate 20
1940 20
ivid@@ 20
ply 20
Near 20
figure 20
mainly 20
lonely 20
theory 20
plane 20
5,@@ 20
cent@@ 20
dic@@ 20
idols 20
guides 20
rose 20
falsely 20
success@@ 20
renounce 20
mas 20
symbol 20
ero@@ 20
stewards 20
multitude 20
womb 20
options 20
consolation 20
exalted 20
Jair@@ 20
STUDY 20
HAVE 20
Num 20
shrewd 20
CL@@ 20
confir@@ 20
hip 20
defense 20
pear@@ 20
cautious 20
umb@@ 20
ather 20
makers 20
Zedekiah 20
ittingly 20
ax@@ 20
130 20
139 20
Pione@@ 20
nav@@ 20
Ephraim 20
neighboring 20
acquired 20
investig@@ 20
Loving 20
stat@@ 20
wal@@ 20
const@@ 20
Ten 20
Care 20
mutual 20
gal 20
figs 19
criticism 19
94 19
Easter 19
ri 19
visu@@ 19
’ll 19
Angels 19
eved 19
athers 19
Poland 19
weak@@ 19
equipment 19
bot@@ 19
intent 19
whoever 19
apparent 19
deserved 19
snow 19
ö@@ 19
tors 19
modestly 19
igu@@ 19
realization 19
Guard 19
dispute 19
lifel@@ 19
tane@@ 19
refresh@@ 19
acular 19
Ed@@ 19
ising 19
follower 19
cling 19
lity 19
pleaded 19
shocking 19
thwest 19
Elisha’s 19
banned 19
wording 19
Suggested 19
Honor 19
inations 19
flying 19
pun@@ 19
ut 19
existing 19
ody 19
delivering 19
ley 19
persist 19
wand@@ 19
Buddhi@@ 19
educational 19
blocks 19
AB@@ 19
fascinating 19
accuracy 19
Paulo 19
lest 19
afflicted 19
increases 19
frustration 19
Interestingly 19
apathy 19
rit@@ 19
incap@@ 19
deser@@ 19
threat@@ 19
ferti@@ 19
footsteps 19
daunting 19
damaging 19
target 19
latter 19
Gi@@ 19
physician 19
Praetor@@ 19
aph@@ 19
adding 19
oted 19
introduc@@ 19
entrance 19
bonds 19
kers 19
raises 19
ef 19
rebuilding 19
saints 19
seldom 19
sport 19
charged 19
Bedell 19
hind@@ 19
neglected 19
itional 19
Ann@@ 19
Syria 19
Mas@@ 19
ador@@ 19
ordin@@ 19
concentration 19
cave 19
unreasonable 19
bear@@ 19
Part 19
vessel 19
suicide 19
silence 19
TH 19
ases 19
gs 19
strong@@ 19
prejud@@ 19
British 19
eal@@ 19
Thankfully 19
courag@@ 19
phe@@ 19
correctly 19
here@@ 19
ictions 19
ulti@@ 19
indigenous 19
endearing 19
adversity 19
heartache 19
Up 19
figuratively 19
Yearbook 19
strik@@ 19
104 19
expose 19
festival 19
Ru@@ 19
Nineveh 19
apse 19
crucial 19
hood 19
loss@@ 19
une 19
Verse 19
transformation 19
astic 19
praises 19
permits 19
diagnosed 19
Isabel 19
block 19
entity 19
dominate 19
corner 19
le’s 19
wake 19
heirs 19
malicious 19
ther 19
represent@@ 19
wrest@@ 19
4,000 19
uncontrolled 19
instances 19
Suddenly 19
vine 19
finan@@ 19
solely 19
enge 19
circumcision 19
scarlet 19
Foc@@ 19
desert 19
2007 19
Tab@@ 19
chs 19
Scripturally 19
esses 19
cutting 19
pois@@ 19
Gary 19
que 19
Caleb 19
sac@@ 19
staff 19
conform 19
watchfulness 19
Anx@@ 19
conv@@ 19
Heav@@ 19
domestic 19
citizen 19
desol@@ 19
Comfort 19
ubs 19
Aha@@ 19
turing 19
excep@@ 19
feat@@ 19
Si@@ 19
classes 19
Sanhedrin 19
expan@@ 19
rowing 19
Po@@ 19
catch 19
distr@@ 19
59 19
hung 19
THEIR 19
uncleanness 19
splendor 19
descended 19
lowers 19
Courage 19
upheld 19
contrad@@ 19
nursing 19
occur@@ 19
wit@@ 19
platform 19
door@@ 19
reli@@ 19
surviving 19
appealed 19
SES 19
On@@ 19
hurtful 19
tock 19
Streng@@ 19
eyewitnesses 19
Modesty 19
ken@@ 19
Baruch 19
arrog@@ 19
Amal@@ 19
blow 19
confined 19
reactions 19
strict 19
Boaz 19
ald 19
gir@@ 19
Dra@@ 19
Evangel@@ 19
severely 19
Mill@@ 19
earliest 19
motivation 19
abb@@ 19
measured 19
chang@@ 19
ANS 19
,@@ 19
fond@@ 19
confront 19
collect 19
emphasi@@ 19
sou@@ 19
smaller 19
concludes 19
ural 19
embryos 19
anywhere 19
struggles 19
emperor 19
scour@@ 19
89 19
lev@@ 19
bapti@@ 19
lod@@ 19
faul@@ 19
grounds 19
Taiwan 19
forti@@ 19
apolog@@ 19
mity 19
carries 19
agre@@ 19
tactics 19
0,000 19
Enj@@ 19
surviv@@ 18
distingu@@ 18
bud@@ 18
machine 18
striking 18
dge 18
enormous 18
committing 18
formation 18
conclusions 18
Nep@@ 18
esia 18
confessed 18
proselytes 18
distribute 18
ishments 18
besto@@ 18
Sin 18
pet 18
accomplishment 18
celebrated 18
hen@@ 18
yearn 18
paraly@@ 18
comfor@@ 18
reconciled 18
forsake 18
breath 18
ae@@ 18
endures 18
recipi@@ 18
Yourself 18
motiv@@ 18
restoring 18
Out@@ 18
Timgad 18
legacy 18
tru@@ 18
mass 18
Capito 18
dispen@@ 18
Devel@@ 18
aston@@ 18
nares 18
progressive 18
SI@@ 18
Wisely 18
Train 18
elevated 18
upbringing 18
plagued 18
instructors 18
soci@@ 18
Jon@@ 18
link 18
ulation 18
Potiphar’s 18
trib@@ 18
harbor 18
fewer 18
pic@@ 18
reinst@@ 18
disobey 18
appoin@@ 18
obstacle 18
custom@@ 18
menting 18
mind@@ 18
tle 18
outbreak 18
command@@ 18
Austral@@ 18
efully 18
seeds 18
Campanus 18
cultivated 18
lasted 18
horn 18
lac@@ 18
sobering 18
1990 18
1999 18
somewhere 18
gi@@ 18
barrier 18
Contr@@ 18
peacefully 18
Stop 18
Matthew’s 18
participation 18
Babyl@@ 18
etr@@ 18
division 18
market 18
Down 18
introduce 18
1957 18
traff@@ 18
ff 18
igns 18
sunset 18
fors@@ 18
wounds 18
blemis@@ 18
resid@@ 18
expos@@ 18
relieve 18
TEAC@@ 18
12@@ 18
cleanness 18
surpasses 18
ege 18
motivates 18
uled 18
treasured 18
mobile 18
latest 18
likes 18
Gar@@ 18
maintenance 18
collected 18
Pat@@ 18
w’s 18
wrec@@ 18
conscientious 18
placing 18
.5 18
ancestors 18
TV 18
fol@@ 18
Fel@@ 18
radi@@ 18
honors 18
Scientists 18
ille 18
max 18
itor 18
evangel@@ 18
ainer 18
pursued 18
right@@ 18
fuel 18
joint 18
speak@@ 18
discrimination 18
periods 18
ROM 18
demonstrates 18
Ethiop@@ 18
differently 18
ania 18
therapy 18
Ammon@@ 18
twisted 18
cleanse 18
defeated 18
realizing 18
Antioch 18
strife 18
Cultiv@@ 18
at’s 18
wept 18
Cy@@ 18
distribution 18
maybe 18
sooner 18
ibly 18
unduly 18
DO 18
suspi@@ 18
communicated 18
PE@@ 18
lamp 18
accountable 18
af@@ 18
detect 18
liar 18
washing 18
comparing 18
den 18
ults 18
Ukraine 18
scrutin@@ 18
seek@@ 18
Levite 18
giant 18
Er@@ 18
consume 18
encountered 18
Poverty 18
prepar@@ 18
Gom@@ 18
phonogra@@ 18
counseled 18
Neigh@@ 18
Long 18
Answer 18
ountains 18
confid@@ 18
ld 18
lo 18
reaches 18
heartening 18
wed@@ 18
Prepar@@ 18
bak@@ 18
Sacrif@@ 18
devoting 18
awar@@ 18
Afterward 18
stirred 18
weaken@@ 18
parted 18
infancy 18
supplied 18
leprosy 18
kno@@ 18
preserving 18
este@@ 18
Judaism 18
embrac@@ 18
Sav@@ 18
immigrants 18
coin 18
Bridegroom 18
Bas@@ 18
circum@@ 18
insisted 18
via 18
Mankind 18
ny 18
ans@@ 18
fan@@ 18
burn@@ 18
employer 18
eighth 18
farmer 18
endeavored 18
occult 18
ject 18
orable 18
ension 18
ani 18
Prophe@@ 18
3,@@ 18
Korea 18
frustr@@ 18
kills 18
Something 18
TRY 18
Joanna 18
grass 18
Gal@@ 18
fertili@@ 18
shortcomings 18
resort 18
Protest@@ 18
adhere 18
achiev@@ 18
checklist 18
vindication 18
BE 18
JW 18
Josephus 18
nesses 18
oversee 18
tius 18
TION 18
anguish 18
lower 18
al’s 18
Rob@@ 18
attac@@ 18
nice 18
broad 18
gang 18
settling 18
poll@@ 18
bitterly 18
133 18
Cour@@ 18
xim@@ 18
travelers 18
Mac@@ 18
Divine 18
Eduardo 18
ention 18
viously 18
agreements 18
Appreciate 18
unite 18
unprecedented 18
mir@@ 18
val 18
instrum@@ 18
leaven 18
Initially 17
proj@@ 17
enched 17
waver@@ 17
suggestion 17
detr@@ 17
touches 17
plate 17
altogether 17
ira 17
ano@@ 17
format 17
estly 17
echo@@ 17
uttered 17
98 17
vel 17
minute 17
solved 17
wondering 17
scar@@ 17
spot 17
brut@@ 17
annihi@@ 17
compelled 17
astray 17
plea 17
unnamed 17
convent 17
Themselves 17
company@@ 17
salt 17
16th 17
justified 17
vacation 17
transgressions 17
Share 17
tsunami 17
refl@@ 17
hen 17
af 17
exhausted 17
Evil 17
Kingsley 17
determin@@ 17
invol@@ 17
empower 17
knocked 17
treatments 17
waves 17
child@@ 17
wheel@@ 17
NGS 17
KED 17
unfol@@ 17
ANSW@@ 17
contempl@@ 17
Against 17
pressed 17
congregation’s 17
Bal@@ 17
quest 17
Tha@@ 17
continu@@ 17
I’ll 17
inches 17
imply 17
Library 17
Hezekiah’s 17
ocation 17
desiring 17
hol@@ 17
ette 17
innermost 17
Friends 17
Eastern 17
demonstration 17
defending 17
Loyalty 17
Pe@@ 17
repor@@ 17
alu@@ 17
demanded 17
Syrian 17
tactfully 17
Azariah 17
Mad@@ 17
West 17
consumed 17
age@@ 17
uk@@ 17
ale 17
stressed 17
Hagar 17
ern 17
thi@@ 17
damaged 17
cov@@ 17
gatherings 17
contents 17
casual 17
Timothy’s 17
Alice 17
Lev 17
Tob@@ 17
Ret@@ 17
terror 17
conquering 17
sower 17
Rico 17
inde@@ 17
roaring 17
Pres@@ 17
enslav@@ 17
horiz@@ 17
grandson 17
Author 17
1953 17
1952 17
ulsion 17
Stand 17
distorted 17
aint 17
Luther 17
appreciatively 17
Members 17
duced 17
Leader 17
merit 17
soil 17
Nazi 17
ck 17
roll 17
Government 17
Tok@@ 17
removing 17
particip@@ 17
sadness 17
builders 17
600 17
oppres@@ 17
Modern 17
rors 17
dire 17
ift 17
circumcised 17
bridegroom 17
inno@@ 17
oppon@@ 17
Baal 17
anniversary 17
ITATE 17
enger 17
Oc@@ 17
submission 17
scen@@ 17
Ez@@ 17
payment 17
ignorant 17
soli@@ 17
Sheol 17
decreed 17
plays 17
hiding 17
wis@@ 17
dom@@ 17
sentiments 17
vement 17
masters 17
secretly 17
vengeance 17
overall 17
dre@@ 17
reinforce 17
Qual@@ 17
rein@@ 17
sustenance 17
Evelyn 17
suff@@ 17
shakable 17
truth@@ 17
whe@@ 17
leper 17
Associ@@ 17
star 17
preferences 17
besides 17
counts 17
Money 17
Exerci@@ 17
emplo@@ 17
responsive 17
meat 17
stealing 17
decree 17
onement 17
foolish@@ 17
comply 17
faith@@ 17
blameless 17
ignorance 17
horsemen 17
loaded 17
intact 17
itary 17
bold 17
automatically 17
ores 17
issu@@ 17
dela@@ 17
iously 17
bor 17
myster@@ 17
fleeing 17
ub@@ 17
Aqu@@ 17
mob 17
intell@@ 17
hang@@ 17
strip 17
grudge 17
flex@@ 17
earing 17
pati@@ 17
discouraging 17
oh@@ 17
ridic@@ 17
MOR@@ 17
joining 17
spok@@ 17
Dublin 17
tex@@ 17
patriarchs 17
regre@@ 17
Island 17
keys 17
emer@@ 17
rop@@ 17
lars 17
pronounced 17
inter 17
adjusting 17
Mal 17
ffed 17
Getting 17
buildings 17
la 17
grieving 17
instill 17
trend@@ 17
PAGES 17
tense 17
consequ@@ 17
ambition 17
soft 17
Ver@@ 17
host 17
stip@@ 17
oud 17
princes 17
calam@@ 17
oming 17
first@@ 17
Judean 17
Who@@ 17
manip@@ 17
acknowledges 17
NE@@ 17
Benefit 17
scenario 17
roles 17
wind@@ 17
Compl@@ 17
prostitute 17
sanctuary 17
contacted 17
cust@@ 17
rede@@ 17
ushed 17
ica 17
sustained 17
roving 17
Age 17
kis@@ 17
wrongs 17
Conf@@ 17
unch 17
bir@@ 17
betrayal 17
fatherly 17
ling@@ 17
los@@ 17
acquiring 17
contract 17
insist 17
ivers 17
Prove 17
announcement 17
Anti@@ 17
Creator’s 17
lightly 17
requested 17
perf@@ 17
cigar@@ 17
wrongdoers 17
contemplating 17
intensely 17
itudes 17
smo@@ 17
rabb@@ 17
labor@@ 17
exal@@ 17
preservation 17
Dictionary 17
Paolo 17
ARY 17
show@@ 17
nights 17
ictive 17
79 17
relieved 17
African 17
asing 17
AD@@ 17
rows 17
ky 17
suffers 17
unitedly 17
ulting 17
disposal 17
wished 17
fold 17
ush 17
elessly 17
Nabal 17
Secre@@ 17
displeasing 17
uniting 17
adequ@@ 17
combat 17
oner 17
Ital@@ 17
spoil 17
ple’s 17
clos@@ 17
Sennacherib 17
Shepherds 17
conveyed 17
pleas@@ 17
rently 17
disobeying 16
l’s 16
SA@@ 16
Nabo@@ 16
golden 16
rejo@@ 16
11@@ 16
loyalties 16
University 16
sheet 16
disturbed 16
parent’s 16
Bed@@ 16
workmates 16
Hor@@ 16
drought 16
professor 16
undue 16
pregnancy 16
stadium 16
superhuman 16
eastern 16
Valley 16
Tim@@ 16
oppressive 16
ume 16
ter’s 16
WHO 16
José 16
devices 16
Cap@@ 16
push 16
ost 16
vey 16
hindered 16
momentous 16
passengers 16
tresp@@ 16
ividu@@ 16
repres@@ 16
iven 16
parti@@ 16
mercies 16
Will@@ 16
costs 16
surg@@ 16
elled 16
leadership 16
impressive 16
recommends 16
walks 16
Ser@@ 16
symptoms 16
alcoho@@ 16
fication 16
vehi@@ 16
usb@@ 16
fantas@@ 16
triv@@ 16
Serv@@ 16
fted 16
unjustly 16
dependent 16
handling 16
amy 16
plagues 16
emergency 16
Caes@@ 16
nu@@ 16
suit 16
temper@@ 16
analy@@ 16
Janet 16
Sho@@ 16
Fo@@ 16
harsh@@ 16
tied 16
vineyards 16
iate 16
house@@ 16
San 16
fragment 16
unfaithfulness 16
scrolls 16
winning 16
Need 16
Sk@@ 16
deciding 16
ink 16
worn 16
stre@@ 16
green 16
Elie@@ 16
Zeal@@ 16
obsc@@ 16
mented 16
impelled 16
elation 16
proverb 16
Anne 16
runs 16
miserable 16
warmth 16
deepens 16
1970 16
Char@@ 16
some@@ 16
atically 16
yrus 16
Scho@@ 16
offend 16
Grace 16
Eureka 16
1956 16
defenses 16
uni@@ 16
mons 16
traps 16
iding 16
speed 16
tragedies 16
agers 16
ordinate 16
receptive 16
selfishly 16
pool 16
inev@@ 16
eldest 16
verb 16
manager 16
zedek 16
presumptuous 16
useless 16
lot@@ 16
eable 16
omb@@ 16
valid@@ 16
beha@@ 16
acqu@@ 16
picked 16
links 16
escaped 16
Joel 16
thed 16
inher@@ 16
prays 16
Bur@@ 16
outer 16
emin@@ 16
cen@@ 16
lists 16
torment 16
ram@@ 16
disobeyed 16
sensed 16
tory 16
pit 16
safeguar@@ 16
cem@@ 16
oring 16
strategy 16
í@@ 16
pilgrim 16
inn@@ 16
liberated 16
ignoring 16
record@@ 16
restricted 16
reader 16
forfe@@ 16
1,600 16
dom 16
Organization 16
Hos@@ 16
distinction 16
sup@@ 16
godd@@ 16
pier@@ 16
evaluate 16
prohib@@ 16
iver@@ 16
orrah 16
regarded 16
,0@@ 16
performing 16
signal 16
burg 16
refined 16
iment 16
teeth 16
truc@@ 16
ana@@ 16
conduc@@ 16
aven@@ 16
seal 16
parental 16
transl@@ 16
production 16
predicament 16
Ag@@ 16
belo@@ 16
leavened 16
largely 16
Benin 16
grip 16
sycho@@ 16
homosex@@ 16
understandings 16
imitated 16
titles 16
Inde@@ 16
initi@@ 16
Roald 16
destro@@ 16
dogs 16
province 16
tually 16
ka 16
attle 16
who@@ 16
distressed 16
ATI@@ 16
corulers 16
glimp@@ 16
Mormon 16
prepares 16
implied 16
2005 16
tombs 16
dread@@ 16
ultation 16
disregard 16
icts 16
Jason 16
Eno@@ 16
ai 16
gaze 16
tenderly 16
progressing 16
stepped 16
lation 16
ese 16
anded 16
volunte@@ 16
slander@@ 16
Child 16
kid@@ 16
sear@@ 16
sever@@ 16
solemn 16
establishment 16
slaughtered 16
entertained 16
mansla@@ 16
ONS 16
thor@@ 16
sched@@ 16
futi@@ 16
Let@@ 16
western 16
rides 16
seas@@ 16
sowing 16
negl@@ 16
refreshment 16
considerate 16
Mediterranean 16
vic@@ 16
devour 16
laugh@@ 16
inculc@@ 16
humanity 16
casting 16
scho@@ 16
Emperor 16
plying 16
intimacy 16
1943 16
port 16
Abishai 16
wid@@ 16
downhearted 16
uture 16
plus 16
outwar@@ 16
ressful 16
way@@ 16
uncle 16
gal@@ 16
seness 16
chu@@ 16
67 16
minimize 16
disrupt 16
Costa 16
confess@@ 16
slaughter 16
enriched 16
oneself 16
griev@@ 16
ach@@ 16
Minor 16
stoc@@ 16
Susan 16
Hung@@ 16
unthinkable 16
mire 16
gossi@@ 16
Bre@@ 16
imitators 16
Fa@@ 16
postp@@ 16
intervened 16
reunited 16
78 16
Ta@@ 16
pass@@ 16
BY 16
pt 16
indefinitely 16
foretells 16
prince 16
mately 16
ried 16
fast@@ 16
prey 16
rains 16
ibr@@ 16
beauti@@ 16
fri@@ 16
135 16
transmitted 16
dictionary 16
symp@@ 16
cri@@ 16
slides 16
thwar@@ 16
sigh@@ 16
entary 16
mittedly 16
upro@@ 16
commend@@ 16
fearful 16
Cellarius 16
sim@@ 16
hosts 16
110 16
individually 16
volume 16
distract 16
Hon@@ 16
Supp@@ 15
And@@ 15
ongs 15
remind@@ 15
pper 15
TER@@ 15
São 15
GU@@ 15
uries 15
sures 15
101 15
Mag@@ 15
temp@@ 15
96 15
Apol@@ 15
cum@@ 15
set@@ 15
merci@@ 15
Van@@ 15
domin@@ 15
asp@@ 15
rif@@ 15
PI@@ 15
evalu@@ 15
Luk@@ 15
ugh 15
apost@@ 15
surpris@@ 15
198@@ 15
ho 15
Frank@@ 15
chur@@ 15
resurrec@@ 15
Mesopotamia 15
Cath@@ 15
Jan@@ 15
Paris 15
Strong 15
itution 15
newspap@@ 15
© 15
bon 15
correc@@ 15
cit@@ 15
Queen 15
Happ@@ 15
ere 15
sof@@ 15
dam@@ 15
Mid@@ 15
Soviet 15
92 15
tival 15
fasc@@ 15
St 15
ular 15
tives 15
free@@ 15
Consid@@ 15
vers 15
fe 15
Nehem@@ 15
confl@@ 15
Kyrgyzstan 15
beg@@ 15
prim@@ 15
acknowled@@ 15
dest 15
Fes@@ 15
itics 15
Pacific 15
ger@@ 15
regar@@ 15
kwar@@ 15
neighbor@@ 15
autom@@ 15
ura 15
ishers 15
lend@@ 15
mul@@ 15
controlled 15
Steve 15
Priscilla 15
Abraham@@ 15
Pap@@ 15
King@@ 15
deleg@@ 15
eria 15
infl@@ 15
ourish@@ 15
eiro 15
itations 15
Scot@@ 15
back@@ 15
utr@@ 15
stud@@ 15
800 15
ope 15
bert 15
DNA 15
ari@@ 15
ation’s 15
Court 15
imm@@ 15
Bir@@ 15
pioneer@@ 15
dian 15
Dem@@ 15
medic@@ 15
eptive 15
tional 15
practic@@ 15
stit@@ 15
Onesmus 15
Gabri@@ 15
hosti@@ 15
Oholi@@ 15
Santa 15
ilities 15
1980 15
Nad@@ 15
conveni@@ 15
85 15
kind@@ 15
itual 15
onia 15
ime 15
arrang@@ 15
1974 15
Karen 15
900 15
adul@@ 15
Abigail 15
thood 15
1948 15
Sin@@ 15
Univers@@ 15
rented 15
ership 15
yal 15
wp@@ 15
Nor@@ 15
pan@@ 15
usion 15
Sinai 15
kar@@ 15
vide@@ 15
refres@@ 15
lessness 15
iap@@ 15
hy 15
Histor@@ 15
Alexand@@ 15
mach@@ 15
glo@@ 15
lear 15
suppor@@ 15
ah@@ 15
Sam@@ 14
cros@@ 14
102 14
Williams 14
TO@@ 14
appro@@ 14
inging 14
Zion’s 14
iber@@ 14
Angel@@ 14
Sheb@@ 14
Ecuador 14
tes 14
yo@@ 14
leness 14
viney@@ 14
2001 14
Standard 14
BIB@@ 14
Mer@@ 14
inhab@@ 14
tations 14
Vic@@ 14
Ul@@ 14
ints 14
immigr@@ 14
rene@@ 14
present@@ 14
lossom 14
extrem@@ 14
Jehu 14
gues 14
ca 14
oci@@ 14
Jesse 14
Tri@@ 14
50,000 14
Gwen 14
logy 14
B 14
adap@@ 14
crim@@ 14
thy 14
exclus@@ 14
embr@@ 14
enses 14
smil@@ 14
1994 14
mult@@ 14
Fiji 14
eb@@ 14
Sil@@ 14
EL@@ 14
syst@@ 14
1939 14
treach@@ 14
There@@ 14
ase 14
aa@@ 14
rest@@ 14
cost@@ 14
77 14
Flav@@ 14
ula 14
Stadium 14
Wycliffe 14
duk@@ 14
Ba@@ 14
Ages 14
Hushai 14
nel 14
net 14
106 14
high@@ 14
mane@@ 14
athe 14
Pu@@ 14
compani@@ 14
iety 14
sly 14
appear@@ 14
Ly@@ 14
ignific@@ 14
1997 14
Peshitta 14
Beth@@ 14
BO@@ 14
interven@@ 14
ancest@@ 14
Simil@@ 14
Mano@@ 14
outh 14
Carol@@ 14
Swa@@ 14
emo@@ 14
insur@@ 14
ika 14
Syl@@ 14
itar@@ 14
know@@ 14
2002 14
mitted 14
da 14
tow@@ 14
sett@@ 14
Coast 14
X@@ 14
Cheri 14
ficial 14
136 14
Poti@@ 14
Pennsylvania 14
hypo@@ 14
tab@@ 14
confron@@ 14
appropri@@ 14
transgres@@ 14
1960 14
1961 14
aun@@ 14
magn@@ 14
Bero@@ 14
clean@@ 14
arr@@ 14
ela 14
eld 14
Hear@@ 14
1941 14
Nero 14
68 14
ectively 14
rance 14
tower 14
Jer@@ 14
harm@@ 14
mally 14
vit@@ 14
pon@@ 14
Alf@@ 14
author@@ 14
JO@@ 14
thin@@ 14
oney 14
partment 14
ames 14
Pur@@ 14
deliber@@ 14
Rul@@ 14
Var@@ 14
118 14
minister@@ 14
Araceli 13
watch@@ 13
2,500 13
Tetragrammaton 13
Puerto 13
Josh 13
Some@@ 13
grap@@ 13
consol@@ 13
aku@@ 13
pay@@ 13
IA@@ 13
ertain 13
small@@ 13
Eng@@ 13
iver 13
THE@@ 13
Kenneth 13
dwel@@ 13
aud@@ 13
semb@@ 13
odia 13
ods 13
Florida 13
trav@@ 13
Samarit@@ 13
IVF 13
cia 13
ua 13
cultiv@@ 13
Marilyn 13
divid@@ 13
tier 13
Review 13
Jab@@ 13
physici@@ 13
sis@@ 13
inning 13
mend@@ 13
1991 13
Ath@@ 13
joy@@ 13
Franci@@ 13
contrib@@ 13
airs 13
foret@@ 13
Pa@@ 13
poses 13
Britannica 13
Lev@@ 13
Felisa 13
Global 13
ama 13
ickness 13
jour@@ 13
sook 13
1870 13
oria 13
Que@@ 13
Refl@@ 13
omin@@ 13
bit@@ 13
hly 13
mar 13
127 13
Archae@@ 13
Dar@@ 13
TIM 13
concer@@ 13
Rom@@ 13
Humb@@ 13
ney 13
use@@ 13
ria 13
vin@@ 13
advers@@ 13
arri@@ 13
Fred 13
ugh@@ 13
au@@ 13
Hol@@ 13
abo@@ 13
Eunice 13
Can@@ 13
ford 13
13@@ 13
grud@@ 13
147 13
distrib@@ 13
divis@@ 13
extr@@ 13
eer@@ 13
Columb@@ 13
7,@@ 13
hoke 13
Janny 13
Margaret 13
Taze 13
menti@@ 13
EL 13
dancing 13
itism 13
nography 13
Insight 13
sume 13
Goli@@ 13
Rac@@ 13
elds 13
2003 13
Relig@@ 13
Elihu 13
stewar@@ 13
Warwick 13
inten@@ 13
minis@@ 13
hob@@ 13
athy 13
82 13
Naz@@ 13
Henry 13
AT 13
Lar@@ 13
isting 13
ectiv@@ 13
Madagascar 13
Hong 13
fit@@ 13
anda 13
Pris@@ 13
Hutter 13
dle 13
itici@@ 13
Kong 13
1920 13
1922 13
shor@@ 13
ni 13
Nikolai 13
od 13
assemb@@ 13
sue 13
shu@@ 13
where@@ 13
passes 13
get@@ 13
canc@@ 13
entally 13
kan@@ 13
yr@@ 13
mos@@ 13
conclud@@ 13
bac@@ 13
web@@ 13
Bru@@ 13
tin@@ 13
87 13
Miriam 13
Mir@@ 13
UG@@ 13
115 13
Cal@@ 13
coven@@ 13
fic 12
Ezeki@@ 12
overing 12
disrup@@ 12
mber 12
124 12
gun@@ 12
ba 12
Inj@@ 12
Bi@@ 12
fool@@ 12
itage 12
Royal 12
west 12
ldn’t 12
commo@@ 12
fam@@ 12
had@@ 12
fter 12
RU@@ 12
dden 12
tige 12
estion 12
KGB 12
Bless@@ 12
á@@ 12
sent@@ 12
smok@@ 12
1937 12
anity 12
eth 12
instit@@ 12
uch 12
Kor@@ 12
va 12
Nathana@@ 12
250 12
lis@@ 12
1992 12
obtain@@ 12
civ@@ 12
second@@ 12
audi@@ 12
ith@@ 12
1971 12
1978 12
worth@@ 12
Sch@@ 12
1951 12
grat@@ 12
pour@@ 12
mond 12
ile@@ 12
Tor@@ 12
Tract 12
Geth@@ 12
Ple@@ 12
mit@@ 12
ome@@ 12
rewar@@ 12
barri@@ 12
Ros@@ 12
excess@@ 12
Fin@@ 12
ords 12
$ 12
Vati@@ 12
.2 12
ffer@@ 12
ario 12
za 12
AF@@ 12
comput@@ 12
aband@@ 12
Che@@ 12
ieties 12
pag@@ 12
vac@@ 12
wn@@ 12
overwhel@@ 12
ocr@@ 12
scienti@@ 12
oub@@ 12
Jean 12
ame@@ 12
Bul@@ 12
inti@@ 12
Salvador 12
grim 12
AR 12
deligh@@ 12
Watch@@ 12
GI@@ 12
Wallkill 12
EN 12
urrec@@ 12
Mc@@ 12
tended 12
wer@@ 12
Linda 12
Fir@@ 12
etus 12
SEP@@ 12
Vulgate 12
emane 12
oubtedly 12
mit 12
Ka@@ 12
ap 12
brok@@ 12
ingful 12
1982 12
1989 12
gat@@ 12
erness 12
Promis@@ 12
Abra@@ 12
ian@@ 12
Haiti 12
nment 12
ush@@ 12
ther@@ 12
endeav@@ 12
1946 12
1947 12
Jeho@@ 12
Eva 12
Stéph@@ 12
125 12
Kenya 12
Julian 12
hospit@@ 12
Lis@@ 12
treas@@ 12
1945 12
Thous@@ 12
ón 12
Pakistan 12
inely 12
ede 12
Hen@@ 12
offic@@ 12
splend@@ 12
Juan 12
88 12
KE 12
heav@@ 12
him@@ 12
Stephanie 11
conn@@ 11
Patric@@ 11
han 11
wick@@ 11
Ber@@ 11
Tony 11
Christine 11
Kevin 11
vior 11
believ@@ 11
presumptu@@ 11
stim@@ 11
Ara@@ 11
sis 11
ulun 11
hel 11
ao 11
1,500 11
receiv@@ 11
Minis@@ 11
possib@@ 11
rend@@ 11
find@@ 11
un 11
accommo@@ 11
stantly 11
thic 11
rap@@ 11
Gover@@ 11
cy 11
uck 11
resear@@ 11
listen@@ 11
dam 11
phs 11
1.@@ 11
Dustin 11
Hero@@ 11
1998 11
lan 11
ican 11
stra 11
synago@@ 11
1979 11
pher 11
Cel@@ 11
favor@@ 11
Rica 11
Lat@@ 11
Walter 11
ira@@ 11
100,000 11
cip@@ 11
eb 11
Cu@@ 11
Thessalon@@ 11
risti@@ 11
facil@@ 11
EM@@ 11
AND@@ 11
hing@@ 11
So@@ 11
Han@@ 11
Diotre@@ 11
sincer@@ 11
moder@@ 11
wan@@ 11
oni 11
onally 11
rang@@ 11
simil@@ 11
Johnny 11
105 11
Dennis 11
Sak@@ 11
stein 11
commemor@@ 11
preme 11
reci@@ 11
Bruno 11
Answ@@ 11
onomy 11
Chang@@ 11
neg@@ 11
maj@@ 11
QUESTI@@ 11
absor@@ 11
bisho@@ 11
tices 11
del 11
erable 11
q 11
Val@@ 11
GO@@ 11
El 11
adver@@ 11
ko 11
iko 11
requir@@ 11
Mak@@ 11
olog@@ 11
drama 11
ella 11
erly 11
Pho@@ 11
complet@@ 11
Norway 11
China 11
Reub@@ 11
Mari@@ 11
Bec@@ 11
divor@@ 11
eing 11
Ur@@ 11
occ@@ 11
idolat@@ 11
distinc@@ 11
onic 11
anoin@@ 11
moment@@ 11
icky 11
wh@@ 11
Bil@@ 11
alt@@ 11
LU@@ 11
nake 11
sla@@ 11
eli 11
chron@@ 11
María 11
tie 11
Tw@@ 11
Bra@@ 11
orted 11
bath 11
Yankee 11
Christend@@ 11
imb@@ 11
holi@@ 11
scrip@@ 11
inally 11
Jen@@ 11
liter@@ 11
develop@@ 11
76 11
74 11
ier 11
Jes@@ 11
cement 11
wil@@ 11
tem@@ 11
Blessing 11
Trans@@ 11
Cro@@ 11
apti@@ 11
ee@@ 11
apple 11
ERE 11
Northern 11
Absal@@ 11
ray 11
PLE 11
Lowell 11
itting 11
giv@@ 11
ene@@ 11
Jehoi@@ 11
ó@@ 10
ached 10
ha 10
vill@@ 10
preced@@ 10
ham 10
121 10
d’Ivoire 10
UM@@ 10
Encyclopædia 10
Louis 10
Ontario 10
stly 10
Lab@@ 10
Kyriacos 10
anced 10
Soci@@ 10
marri@@ 10
integr@@ 10
advant@@ 10
sen 10
itt@@ 10
eve 10
Jennifer 10
iland 10
․ 10
ija 10
powered 10
streng@@ 10
Point 10
Max@@ 10
onso 10
Pierce 10
Carmen 10
fav@@ 10
pra@@ 10
tten 10
centur@@ 10
1993 10
ither 10
indic@@ 10
ange 10
numb@@ 10
National 10
Isa@@ 10
roman@@ 10
ickly 10
encing 10
stir@@ 10
utely 10
nia 10
Paraguay 10
anted 10
Nim@@ 10
Riana 10
Czech 10
Sweden 10
decre@@ 10
justi@@ 10
Rebek@@ 10
1954 10
ek 10
eth@@ 10
aine 10
kin@@ 10
exha@@ 10
1933 10
am’s 10
gos@@ 10
plac@@ 10
num@@ 10
undes@@ 10
Fran@@ 10
1879 10
utting 10
6,@@ 10
4,@@ 10
Eld@@ 10
Eli 10
arag@@ 10
23@@ 10
rested 10
activ@@ 10
Côte 10
illustr@@ 10
1981 10
ay@@ 10
Tru@@ 10
2.@@ 10
Ana 10
ht 10
Elsebeth 10
9,@@ 10
Johannes 10
sn@@ 10
windo@@ 10
Every@@ 10
CT 10
eball 10
berg 10
ique 10
Luc@@ 10
Ja@@ 10
30,000 10
envir@@ 10
campa@@ 10
iana 10
ood 10
escap@@ 10
every@@ 10
Sec@@ 10
eyed 10
cuit 10
ü@@ 10
Est@@ 10
Georg@@ 10
contin@@ 10
197@@ 10
sob@@ 10
Amer@@ 10
nings 10
doles@@ 10
Togo 10
help@@ 10
engers 10
demon@@ 10
Christo@@ 10
Ama@@ 10
after@@ 10
herever 10
visit@@ 10
duce 10
ogn@@ 10
ignor@@ 10
itely 10
Mike 10
esh 10
1984 10
Baasha 10
1988 10
meek@@ 10
rele@@ 10
convin@@ 10
teen@@ 10
psal@@ 10
slav@@ 10
Appreci@@ 10
Prov@@ 10
dil@@ 10
1966 10
1963 10
Provid@@ 10
Sarai 10
ND@@ 10
exhau@@ 10
tin 10
1942 10
uter@@ 10
Chris 10
Tyndale 10
30@@ 10
desir@@ 10
doc@@ 10
August@@ 10
sat@@ 10
ita 10
1924 10
diagno@@ 10
clear@@ 10
intr@@ 10
aken@@ 10
volun@@ 10
dar@@ 10
aris@@ 10
Nigeria 10
Nepal 10
ide@@ 10
New@@ 10
w16.0@@ 10
scler@@ 10
dedic@@ 10
ara 10
pa 10
Andre@@ 10
Paul@@ 10
orial 10
aps 10
134 10
zi@@ 10
nograp@@ 10
usual 10
utter 10
Min@@ 10
scal@@ 10
fu@@ 10
ANG@@ 10
Pet@@ 10
Sandra 10
meet@@ 10
Amy 10
Marie 10
ku@@ 9
Plat@@ 9
nder@@ 9
supp@@ 9
X 9
Colorado 9
seem@@ 9
Marilou 9
Jimmy 9
ority 9
230 9
Elias 9
iring 9
enab@@ 9
1929 9
chers 9
aut@@ 9
raged 9
mony 9
Div@@ 9
cauti@@ 9
240 9
shipp@@ 9
alls 9
repent@@ 9
Rosa 9
toria 9
irambubu 9
jud@@ 9
Nath@@ 9
8,@@ 9
Queensland 9
OR 9
1938 9
parad@@ 9
oneer@@ 9
2018 9
Sydney 9
8,000 9
Arimathea 9
mom@@ 9
Hann@@ 9
Kat@@ 9
dark@@ 9
Wit@@ 9
tou@@ 9
arro@@ 9
vig@@ 9
Sol@@ 9
serp@@ 9
elle 9
Tag@@ 9
sus 9
there@@ 9
Doris 9
leng@@ 9
1977 9
1976 9
537 9
oe 9
rescu@@ 9
Fol@@ 9
Delphine 9
1996 9
manag@@ 9
Galatia 9
ington 9
pursu@@ 9
avoid@@ 9
Pil@@ 9
unj@@ 9
ern@@ 9
Victor 9
0 9
Organi@@ 9
istance 9
surr@@ 9
won@@ 9
oli@@ 9
lin 9
psalmis@@ 9
Ty@@ 9
Sask@@ 9
Switzerland 9
Ever@@ 9
urance 9
yce 9
crimin@@ 9
igue 9
Pharis@@ 9
Luis 9
Imag@@ 9
142 9
obl@@ 9
Ge@@ 9
respon@@ 9
yan 9
stery 9
Cedar 9
END@@ 9
eves 9
actly 9
Ko@@ 9
accoun@@ 9
entral 9
Pan@@ 9
itiz@@ 9
shado@@ 9
ston 9
bal 9
perce@@ 9
ATH@@ 9
explan@@ 9
Add@@ 9
istence 9
fle@@ 9
146 9
141 9
individu@@ 9
prais@@ 9
Sime@@ 9
fant@@ 9
yi@@ 9
may@@ 9
sma@@ 9
aly@@ 9
erings 9
enai 9
Denmark 9
resour@@ 9
ki 9
atures 9
itful 9
iced 9
sion@@ 9
Katherine 9
Estonia 9
desper@@ 9
Siberia 9
cler@@ 9
Illustr@@ 9
Burrus 9
fig@@ 9
1987 9
ür@@ 9
Flor@@ 9
dram@@ 9
Olga 9
scrib@@ 9
Shane 9
1975 9
excell@@ 9
Egyp@@ 9
1965 9
humb@@ 9
satis@@ 9
ip@@ 9
Rudolf 9
knowled@@ 9
w17.0@@ 9
urs 9
1944 9
larly 9
Federico 9
Faith@@ 9
Wendy 9
Main@@ 9
inating 9
Barbara 9
great@@ 9
Louise 9
roy 9
Palest@@ 9
tee 9
Frost 9
Jr 9
Kyrgy@@ 9
Fabian 9
Contin@@ 9
sequently 9
conqu@@ 9
allow@@ 9
Bri@@ 9
Sand@@ 9
116 9
112 9
ourish 8
aving 8
Lak@@ 8
idly 8
encoun@@ 8
mang@@ 8
isho@@ 8
Thir@@ 8
friend@@ 8
mec@@ 8
imit@@ 8
cio 8
Natalya 8
inted 8
Keon 8
NO 8
è@@ 8
Finland 8
vin 8
Rwanda 8
IA 8
huza 8
decl@@ 8
household@@ 8
erful 8
elev@@ 8
erous 8
igent 8
Map@@ 8
Emp@@ 8
gg@@ 8
ety 8
vigil@@ 8
view@@ 8
I’@@ 8
defe@@ 8
patri@@ 8
agno@@ 8
Up@@ 8
hable 8
aka 8
ld@@ 8
mut@@ 8
Step@@ 8
wa 8
ili 8
stitute 8
eps 8
h’s 8
gun 8
Toñi 8
ey 8
trust@@ 8
earth@@ 8
syn@@ 8
or’s 8
exam@@ 8
yn 8
FAM@@ 8
asi 8
Braz@@ 8
Tho@@ 8
quarters 8
ida 8
ʹ 8
cribe 8
poin@@ 8
Corinthi@@ 8
Anita 8
strateg@@ 8
128 8
ota 8
mathe@@ 8
livia 8
fically 8
Fij@@ 8
ki@@ 8
void 8
rej@@ 8
Else@@ 8
ina@@ 8
Gregorio 8
isa 8
Ak@@ 8
don 8
pli@@ 8
suc@@ 8
Esa@@ 8
avail@@ 8
sanc@@ 8
common@@ 8
Ilaria 8
hik@@ 8
othe 8
Antoine 8
cloth@@ 8
valu 8
scat@@ 8
are@@ 8
Belgium 8
lings 8
eland 8
ranted 8
ounce 8
Mess@@ 8
Benef@@ 8
Mar 8
Lorraine 8
ughes 8
Brit@@ 8
ESTI@@ 8
Methus@@ 8
Bill@@ 8
Loy@@ 8
insis@@ 8
ording 8
cient 8
Cent@@ 8
prop@@ 8
bound@@ 8
wd 8
au 8
Natal@@ 8
Alexandra 8
ena 8
mok@@ 8
qual@@ 8
rout@@ 8
therlands 8
schel 8
itating 8
tho@@ 8
atal@@ 8
ror 8
rebel@@ 8
suppos@@ 8
gy@@ 8
thre@@ 8
itus 8
abbath 8
1923 8
ween 8
Nig@@ 8
elec@@ 8
identi@@ 8
Choong 8
hib 8
necess@@ 8
gif@@ 8
put@@ 8
disp@@ 8
one@@ 8
lona 8
Commit@@ 8
Fern@@ 8
sians 8
Ces@@ 8
blic 8
superi@@ 8
else@@ 8
posal 8
eh 8
consider@@ 8
less@@ 7
ro 7
nger 7
proclaim@@ 7
devo@@ 7
faci@@ 7
reques@@ 7
prin@@ 7
RIS@@ 7
esi@@ 7
dless 7
hok@@ 7
prob@@ 7
Ti@@ 7
pedia 7
degre@@ 7
ungod@@ 7
aved 7
sel 7
yana 7
ness@@ 7
ij@@ 7
signific@@ 7
genu@@ 7
ount 7
thu@@ 7
Ri@@ 7
uscrip@@ 7
ato@@ 7
MB@@ 7
zation 7
righ@@ 7
raid 7
respond@@ 7
Edu@@ 7
ATE 7
ionally 7
stan@@ 7
erce 7
lea@@ 7
produc@@ 7
Nazar@@ 7
mone 7
Ninev@@ 7
loy@@ 7
isters 7
certain@@ 7
life@@ 7
mob@@ 7
Ga@@ 7
cot@@ 7
sugg@@ 7
ld’s 7
woe 7
ada 7
chris@@ 7
thank@@ 7
mers 7
mission@@ 7
Kath@@ 7
uri 7
mac@@ 7
victim@@ 7
acle 7
regu@@ 7
doctr@@ 7
ya 7
urie 7
adminis@@ 7
opportun@@ 7
Georgia 7
ii 7
etting 7
fore 7
erved 7
JU@@ 7
dia 7
ony@@ 7
tit@@ 7
annu@@ 7
mai 7
ually 7
olic 7
Lefèv@@ 7
ora 7
imag@@ 7
Jenn@@ 7
Pent@@ 7
det 7
cris@@ 7
Far@@ 7
depend@@ 7
provin@@ 7
good@@ 7
bicy@@ 7
Fl@@ 7
ough@@ 7
ç@@ 7
ä@@ 7
frequ@@ 7
elius 7
bec@@ 7
Ol@@ 7
Ephra@@ 7
RISTI@@ 7
Il@@ 7
Cam@@ 7
ele 7
Ash@@ 7
ano 7
deliv@@ 7
oubl@@ 7
YO@@ 7
Sar@@ 7
ress@@ 7
ament 7
vious 7
hot@@ 7
igh 7
Samu@@ 7
Mu@@ 7
ING@@ 7
ris 7
Jac@@ 7
ries 7
144 7
beli@@ 7
Hab 7
Nab@@ 7
60@@ 7
iro@@ 7
uth@@ 7
desc@@ 7
fellowshipp@@ 7
colporte@@ 7
bad@@ 7
ote 6
mari@@ 6
Was@@ 6
itha 6
daugh@@ 6
ilia 6
lleng@@ 6
porte@@ 6
David@@ 6
saf@@ 6
Lou@@ 6
requ@@ 6
sovere@@ 6
insignific@@ 6
ona 6
pho@@ 6
lead@@ 6
conci@@ 6
JE@@ 6
omba 6
ti 6
astr@@ 6
abus@@ 6
oma 6
shepher@@ 6
fug@@ 6
commer@@ 6
material@@ 6
human@@ 6
wak@@ 6
empl@@ 6
istics 6
og 6
transpor@@ 6
tot@@ 6
WH@@ 6
Pal@@ 6
lined 6
onetheless 6
crisy 6
Lor@@ 6
rans@@ 6
Dr@@ 6
Lef@@ 6
eri@@ 6
Tat@@ 6
Pot@@ 6
wan 6
zamb@@ 6
oughly 6
Whi@@ 6
Bang@@ 6
compassion@@ 6
care@@ 6
ization 6
ivers@@ 6
Ef@@ 6
independ@@ 6
fu 6
Pentec@@ 6
rified 6
astern 6
fair@@ 6
arac@@ 6
sump@@ 6
Ok@@ 6
therap@@ 6
ú@@ 6
refug@@ 6
195@@ 6
THI@@ 6
comparable 6
Sen@@ 6
Ing@@ 6
Sac@@ 6
FA@@ 6
UT@@ 6
neutr@@ 6
les@@ 6
Dev@@ 6
Steph@@ 6
oro 6
qualif@@ 6
beth 6
cru@@ 6
thearted 6
gamb@@ 6
mun@@ 6
aster 6
ko@@ 6
pless 6
cla@@ 6
Nar@@ 6
Ce@@ 6
ides 6
Ben@@ 6
Chris@@ 6
nin@@ 6
figh@@ 6
conscienti@@ 6
Jap@@ 6
outr@@ 6
bia 6
tend@@ 6
mold@@ 6
mous 6
sancti@@ 6
expres@@ 6
sour@@ 6
earning 6
hith@@ 6
tsunam@@ 6
atha 6
pic 6
cription 6
marath@@ 6
Meg@@ 6
angers 6
giveness 6
engeance 6
ulers 6
VER 6
ft@@ 6
excit@@ 6
tern 6
acco 6
hus 6
sex@@ 6
IO 6
ross 6
Thi@@ 6
eny@@ 6
imparti@@ 6
Read@@ 6
iga 6
congreg@@ 6
imate 6
travel@@ 6
Codex 6
JUN@@ 6
amar@@ 6
ric 6
ancing 6
attemp@@ 6
yle 6
prec@@ 6
Fil@@ 6
ʽ@@ 6
idi@@ 6
ulations 6
verbs 6
Marc@@ 6
stand@@ 6
matu@@ 6
Debor@@ 5
Corin@@ 5
w17@@ 5
ata 5
ato 5
Philipp@@ 5
iro 5
esis 5
suffi@@ 5
maint@@ 5
tune 5
deal@@ 5
lat@@ 5
ul 5
Pas@@ 5
icing 5
iverance 5
locks 5
Yan@@ 5
Barn@@ 5
John@@ 5
anti 5
Disci@@ 5
ac 5
groom 5
Jeric@@ 5
infer@@ 5
benef@@ 5
Antio@@ 5
accur@@ 5
ito 5
fty 5
illed 5
pregn@@ 5
Sara 5
princip@@ 5
mbers 5
thia 5
institu@@ 5
itical 5
kab@@ 5
fund@@ 5
enda 5
alties 5
Ale@@ 5
tice 5
econom@@ 5
ino 5
vie@@ 5
patriar@@ 5
ako 5
Mos@@ 5
soldi@@ 5
prosely@@ 5
forts 5
foref@@ 5
emi 5
d’@@ 5
happ@@ 5
essor 5
guid@@ 5
din@@ 5
fundam@@ 5
Nebuchadnezz@@ 5
w16@@ 5
idden 5
ighty 5
.0@@ 5
ego 5
extre@@ 5
ibrary 5
Dani@@ 5
hig@@ 5
Phara@@ 5
ableness 5
oy@@ 5
make@@ 5
achi 5
‛ 5
promis@@ 5
utu 5
aga@@ 5
zi 5
ule 5
earn@@ 5
lled 5
200@@ 5
conclus@@ 5
wick 5
tivity 5
Praet@@ 5
situ@@ 5
Congreg@@ 5
wam@@ 5
kind’s 5
San@@ 5
dest@@ 5
equi@@ 5
bearer 5
appreci@@ 5
ix 5
missive 5
gath@@ 5
mat 5
evertheless 5
Brook@@ 5
Peter@@ 5
WO 5
remo@@ 5
je 5
ision 5
abi 5
eces 5
ittle 5
Ari@@ 5
rying 5
nology 5
ʼ@@ 5
% 5
BI@@ 5
lf 5
stances 5
Ju@@ 5
fru@@ 5
udi 5
em’s 5
Syri@@ 5
gent@@ 5
interf@@ 5
Ill@@ 5
overe@@ 5
ident 5
christ 5
mam@@ 5
ourth 5
enia 5
semen 5
essly 5
fres@@ 5
understand@@ 5
cially 5
sess@@ 5
dim@@ 5
Et@@ 5
eye@@ 5
yat@@ 5
urity 5
hold@@ 5
IND@@ 5
virg@@ 5
Afric@@ 5
ou 5
gram 5
surv@@ 5
igi 5
ali 5
lish 5
lla 5
AK@@ 5
decep@@ 5
alle@@ 5
eka 5
tablet 5
tionally 5
anna 5
weal@@ 5
pron@@ 5
upr@@ 5
& 5
gras@@ 5
ebr@@ 5
aar@@ 5
sus@@ 5
hib@@ 5
Of@@ 5
Fam@@ 5
nda 5
propag@@ 5
Bu@@ 5
specially 4
ongo 4
onga 4
inte@@ 4
ng@@ 4
Amb@@ 4
liest 4
anima@@ 4
ler@@ 4
angu@@ 4
uma 4
acos 4
valu@@ 4
Maya 4
succe@@ 4
tioned 4
Gide@@ 4
dilig@@ 4
reluct@@ 4
fes@@ 4
sci@@ 4
Q@@ 4
Mes@@ 4
jeal@@ 4
Micha@@ 4
forn@@ 4
tu 4
Ki@@ 4
ium@@ 4
responsib@@ 4
GER@@ 4
righte@@ 4
mara@@ 4
Pic@@ 4
tary 4
udia 4
Naam@@ 4
intellec@@ 4
atio 4
Benjam@@ 4
Den@@ 4
Shepher@@ 4
eta 4
icus 4
relev@@ 4
ite@@ 4
ques@@ 4
ombs 4
reation 4
ero 4
Rak@@ 4
thur@@ 4
hiko 4
offici@@ 4
festiv@@ 4
disput@@ 4
sumptu@@ 4
Jehosha@@ 4
Afr@@ 4
Kris@@ 4
Langu@@ 4
iya 4
Fab@@ 4
phere 4
aini 4
Child@@ 4
icial 4
MAG@@ 4
incl@@ 4
É@@ 4
Bethel@@ 4
discer@@ 4
phy@@ 4
ya@@ 4
Budd@@ 4
univers@@ 4
Ano@@ 4
ITH@@ 4
rug 4
ache 4
ronic@@ 4
aria 4
COUN@@ 4
Af@@ 4
Rehobo@@ 4
Az@@ 4
ece 4
alty 4
leis@@ 4
ão 4
uru 4
arm@@ 4
cleans@@ 4
Joh@@ 4
wic@@ 4
Belg@@ 4
immor@@ 4
posit@@ 4
enrich@@ 4
judg@@ 4
Cz@@ 4
slaugh@@ 4
ש@@ 4
ׁ 4
Sund@@ 4
yun@@ 4
unting 4
Ng@@ 4
devast@@ 4
mah@@ 4
eru 4
servation 4
yar@@ 4
restor@@ 4
פ@@ 4
idi 4
rema@@ 4
ectly 4
orge 4
Juda@@ 4
aci@@ 4
clam@@ 4
anish 4
ה@@ 4
ion’s 4
Auth@@ 4
Penn@@ 4
B.@@ 4
ka@@ 4
Fro@@ 4
sici@@ 4
hit@@ 4
lifest@@ 4
clou@@ 4
Web@@ 4
noon 4
onom@@ 4
Bab@@ 4
Sheba 4
Hos 4
progres@@ 4
ado 4
cumb@@ 4
safe@@ 4
atic@@ 4
aic 4
Ku@@ 4
rah 4
guidel@@ 4
à 4
marvel@@ 4
נ@@ 4
expect@@ 4
satisfac@@ 4
S.A 4
illions 4
occas@@ 4
Du@@ 4
public@@ 4
weap@@ 4
Ephe@@ 4
reass@@ 4
Scienti@@ 4
Suc@@ 4
illion 4
ardo 4
iza 4
ouble 4
hest 4
MAT@@ 4
ambia 4
hung@@ 4
Europe@@ 4
stumb@@ 4
elio 4
tains 4
Ruther@@ 4
rian 4
eover 4
mab@@ 4
achable 4
quis@@ 3
aro@@ 3
magnific@@ 3
sured 3
hua 3
transfer@@ 3
guil@@ 3
oko 3
THA@@ 3
bond@@ 3
leep 3
tment 3
Sennach@@ 3
mak@@ 3
odus 3
LIA 3
rais@@ 3
awa@@ 3
Ky@@ 3
Deb@@ 3
foc@@ 3
IRE 3
ndi@@ 3
ihu 3
eren@@ 3
proval 3
Kit@@ 3
ront 3
relig@@ 3
YE@@ 3
ugo 3
tfully 3
í 3
sentim@@ 3
embryo@@ 3
ularly 3
World@@ 3
impris@@ 3
templ@@ 3
princi@@ 3
gency 3
ileg@@ 3
quisite 3
accompani@@ 3
dar 3
atan@@ 3
dings 3
Salv@@ 3
stead 3
mond@@ 3
sip@@ 3
tha 3
Hag@@ 3
Jord@@ 3
enor@@ 3
tments 3
eho@@ 3
Christi@@ 3
kir@@ 3
obe@@ 3
kans@@ 3
Modes@@ 3
Knor@@ 3
Ones@@ 3
sess 3
entir@@ 3
cliff@@ 3
alco@@ 3
idol@@ 3
enly 3
Wake 3
aniah 3
ishment 3
rul@@ 3
Kal@@ 3
ste 3
Aro@@ 3
them@@ 3
Jeze@@ 3
lood 3
depres@@ 3
cerning 3
shing 3
iticus 3
TA 3
JA@@ 3
atedly 3
fill@@ 3
Mex@@ 3
Creat@@ 3
embarr@@ 3
kw@@ 3
ה 3
uro 3
inda 3
Dav@@ 3
ł@@ 3
timid@@ 3
hu 3
stan 3
Josep@@ 3
solem@@ 3
Greg@@ 3
Ecclesi@@ 3
ton@@ 3
isi 3
Year@@ 3
Suff@@ 3
gotten 3
heaven@@ 3
ops 3
annivers@@ 3
eph@@ 3
Eph@@ 3
entit@@ 3
org 3
Christ@@ 3
main@@ 3
ason 3
Wycliff@@ 3
umbers 3
invis@@ 3
declar@@ 3
nity 3
OUT 3
Lusit@@ 3
ones@@ 3
ä 3
Yor@@ 3
itance 3
U.@@ 3
efin@@ 3
yan@@ 3
Maj@@ 3
Prof@@ 3
iousness 3
orities 3
zal@@ 3
Aga@@ 3
imi 3
bel 3
progr@@ 3
Timga@@ 3
Color@@ 3
angel@@ 3
wom@@ 3
encourag@@ 3
Ny@@ 3
aka@@ 3
nde@@ 3
mated 3
emia 3
mali@@ 3
iy@@ 3
ob 3
ago@@ 3
relati@@ 3
onment 3
tel 3
S.@@ 3
oya 3
ô@@ 3
ari 3
urch 3
erity 3
With@@ 3
acem@@ 3
STUD@@ 3
BOR@@ 3
proper@@ 3
crut@@ 3
ustin 3
onage 3
mita 3
icide 3
cyclo@@ 3
hance 3
pover@@ 3
espe@@ 3
PEO@@ 3
iberia 3
tith@@ 3
haugh@@ 3
gai 2
promin@@ 2
adju@@ 2
Sus@@ 2
amu@@ 2
Bes@@ 2
il’s 2
wth 2
fellow@@ 2
hat 2
hau 2
bu 2
agra@@ 2
ו@@ 2
hoe 2
tality 2
twer@@ 2
rebelli@@ 2
athom@@ 2
Wat@@ 2
Gab@@ 2
anie 2
å@@ 2
Wis@@ 2
hundre@@ 2
dations 2
pics 2
Encyclo@@ 2
uther@@ 2
udd@@ 2
was@@ 2
answ@@ 2
Uk@@ 2
Mb@@ 2
י@@ 2
famil@@ 2
ulc@@ 2
ugs 2
Ş@@ 2
arati 2
Tynd@@ 2
Sop@@ 2
helle 2
reluc@@ 2
succ@@ 2
clus@@ 2
fe’s 2
thers 2
Pass@@ 2
erete 2
emost 2
BJE@@ 2
una 2
Assemb@@ 2
trag@@ 2
Anto@@ 2
ø@@ 2
U 2
aki 2
eri 2
famili@@ 2
Miri@@ 2
thel 2
ango 2
ł 2
Exer@@ 2
di 2
scro@@ 2
intro@@ 2
ze@@ 2
plat@@ 2
itionally 2
turally 2
thusias@@ 2
Discipl@@ 2
eke 2
acles 2
crimination 2
Cong@@ 2
mbo 2
selves 2
lier 2
Kwa@@ 2
whel@@ 2
atu@@ 2
teach@@ 2
Sas@@ 2
igan@@ 2
Matthe@@ 2
Psal@@ 2
Elisha@@ 2
Assy@@ 2
nant 2
trage@@ 2
ells 2
Hebre@@ 2
subj@@ 2
AGES 2
shre@@ 2
° 2
iye 2
UTH@@ 2
aya 2
TE 2
esa 2
wet@@ 2
lifes@@ 2
Dic@@ 2
persp@@ 2
cle@@ 2
entertain@@ 2
yona 2
aan@@ 2
ignty 2
Pes@@ 2
respect@@ 2
Wall@@ 2
extra@@ 2
mage 2
Fur@@ 2
orio 2
phys@@ 2
Ecu@@ 2
wab@@ 2
mater@@ 2
hazi 2
bet@@ 2
Isra@@ 2
merly 2
apar@@ 2
differ@@ 2
erto 2
arus 2
inspir@@ 2
Bran@@ 2
Isab@@ 2
Swe@@ 2
www.@@ 2
ake@@ 2
IV@@ 2
Sovere@@ 2
nya 2
estament 2
say@@ 2
erine 2
prophesi@@ 2
prac@@ 2
enem@@ 2
rou@@ 2
STOR@@ 2
conven@@ 2
ga 2
aba 2
epend@@ 2
Nis@@ 2
viv@@ 2
Filip@@ 2
proble@@ 2
kil@@ 2
Thr@@ 2
ashi@@ 2
emplary 2
Israel@@ 2
Syd@@ 2
Sod@@ 2
Zar@@ 2
anage 2
cha 2
Nde@@ 2
adly 2
provid@@ 2
onge 2
Armag@@ 2
vul@@ 2
and’s 2
Chr@@ 2
GA 2
י 2
mi 2
rians 2
Delph@@ 2
perman@@ 2
diseas@@ 2
Mem@@ 2
hout 2
tremend@@ 2
zek@@ 2
acity 2
ang 2
opin@@ 2
itants 2
imba 2
legit@@ 2
INDA 2
icy@@ 2
á 2
hie 2
achers 2
aro 2
ANA 2
Ik@@ 2
Stand@@ 2
Eun@@ 2
Asa@@ 2
anny 2
strum@@ 2
enj@@ 2
rich@@ 2
eased 2
Hu@@ 2
EK@@ 2
Mi@@ 2
treat@@ 2
KA 2
uth 2
Habakku@@ 2
dolf 2
geria 2
list@@ 1
detail@@ 1
Lik@@ 1
undi 1
sunam@@ 1
lon@@ 1
maci@@ 1
phar@@ 1
ʺ 1
ı@@ 1
Galati@@ 1
Maril@@ 1
yu@@ 1
arly 1
ustry 1
anx@@ 1
ethn@@ 1
eliness 1
imperf@@ 1
aat@@ 1
Kais@@ 1
spap@@ 1
umi 1
erek@@ 1
AI 1
avo@@ 1
ï@@ 1
husb@@ 1
Ma 1
MA 1
ourself 1
Hum@@ 1
neigh@@ 1
Roma 1
Kuh@@ 1
oim@@ 1
Understand@@ 1
onan@@ 1
Anton@@ 1
tom@@ 1
arat@@ 1
Thu@@ 1
underst@@ 1
doms 1
ousy 1
ranean 1
ineg@@ 1
bey@@ 1
consid@@ 1
IRA 1
Sud@@ 1
spiritu@@ 1
cian@@ 1
Irel@@ 1
ombo 1
chan@@ 1
Ci@@ 1
riage 1
six@@ 1
Bezal@@ 1
hota 1
ameless 1
arted 1
aam@@ 1
Gile@@ 1
š@@ 1
ami 1
Regar@@ 1
ancement 1
nj@@ 1
eera 1
oro@@ 1
ʼ 1
ould 1
grou@@ 1
thema 1
prison@@ 1
Saul@@ 1
etie 1
ressed 1
ITH 1
fif@@ 1
atia 1
promo@@ 1
Chronic@@ 1
cup@@ 1
Alex@@ 1
lem@@ 1
pied 1
twe@@ 1
edy 1
irie 1
ren’s 1
Ã@@ 1
peac@@ 1
ý@@ 1
bere@@ 1
CIA 1
Kev@@ 1
tomor@@ 1
ergy 1
scriptural 1
Ó@@ 1
aku 1
cific 1
univer@@ 1
MU@@ 1
aire 1
ephone 1
utation 1
stanti@@ 1
wrongdo@@ 1
itedly 1
ahe@@ 1
tho 1
gres@@ 1
nda@@ 1
MAK@@ 1
emba 1
tionary 1
hian@@ 1
thig@@ 1
Corn@@ 1
eku 1
plagu@@ 1
Margar@@ 1
asphe@@ 1
mosphere 1
Lead@@ 1
etha 1
wholes@@ 1
maine 1
essels 1
Neb@@ 1
evangeliz@@ 1
Abigail@@ 1
olden 1
è 1
hend 1
interv@@ 1
ndre@@ 1
cl 1
vised 1
figur@@ 1
oig@@ 1
ustr@@ 1
fs 1
î@@ 1
MAKI 1
ö 1
spor@@ 1
alon@@ 1
duti@@ 1
estions 1
Messi@@ 1
idently 1
Nd@@ 1
Jona 1
mili@@ 1
losop@@ 1
ibat@@ 1
dule 1
uti 1
disfellowshipp@@ 1
ú 1
oug@@ 1
fles@@ 1
Egypti@@ 1
hath@@ 1
sud@@ 1
Initi@@ 1
eca 1
heartedly 1
indo 1
buk@@ 1
markable 1
Š@@ 1
amo 1
hin@@ 1
thermore 1
itia 1
amu 1
Joh 1
ux@@ 1
Tai@@ 1
Manasse@@ 1
Johann@@ 1
ernacle 1
aker@@ 1
Mod@@ 1
edonia 1
IK@@ 1
ANIA 1
mw@@ 1
vented 1
tempor@@ 1
omi 1
king@@ 1
ï 1
Thank@@ 1
dang@@ 1
ongside 1
Jerem@@ 1
enjo@@ 1
ē@@ 1
hamwe 1
thani 1
agia 1
Mesopot@@ 1
Azar@@ 1
ika@@ 1
reat@@ 1
Sanhedr@@ 1
ó 1
leav@@ 1
iri 1
clesi@@ 1
imo 1
sioned 1
É 1
isha@@ 1
Phili@@ 1
esn’t 1
thab@@ 1
proclam@@ 1
ember 1
Kw@@ 1
hah@@ 1
ANS@@ 1
Kur@@ 1
Sugg@@ 1
Gat@@ 1
zer@@ 1
Ago@@ 1
oki 1
absol@@ 1
Repu@@ 1
ku 1
ini@@ 1
many@@ 1
iki 1
pread 1
Jim@@ 1
deter@@ 1
acher 1
✔ 1
meth@@ 1
commis@@ 1
idn’t 1
Abis@@ 1
lyn 1
Elij@@ 1
ciat@@ 1
mia 1
magu@@ 1
YA 1
chari@@ 1
greg@@ 1
etu@@ 1
Twar@@ 1
artic@@ 1
Denn@@ 1
teworthy 1
obst@@ 1
nja 1
j 1
natur@@ 1
ople 1
Ü@@ 1
Cana@@ 1
iu@@ 1
rish 1
mbar@@ 1
ob’s 1
Abo@@ 1
compre@@ 1
willing@@ 1
wath@@ 1
mo 1
omano 1
ONI 1
eni 1
entment 1
ů@@ 1
NGO@@ 1
Reho@@ 1
mus 1
Pir@@ 1
thous@@ 1
ico 1
¡ 1
mong@@ 1
ilee 1
Genti@@ 1
Bib@@ 1
mey@@ 1
auxili@@ 1
Gradu@@ 1
amba 1
iti 1
aama@@ 1
sth@@ 1
uru@@ 1
Mab@@ 1
IE 1
esthood 1
Lus@@ 1
thern 1
seven@@ 1
cia@@ 1
Augu@@ 1
ige 1
ş 1
q@@ 1
inia 1
yah@@ 1
ā@@ 1
enship 1
convinc@@ 1
Canaan@@ 1
Zeph@@ 1
unga 1
destruc@@ 1
ingo 1
sgiving 1
After@@ 1
eeing 1
anj@@ 1
twar@@ 1
highligh@@ 1
ehova 1
raine 1
Toñ@@ 1
ific@@ 1
Wendi 1
ara@@ 1
Mah@@ 1
atar@@ 1
mits 1
asha 1
aara 1
anji 1
Kingsle@@ 1
onj@@ 1
