<unk>
<pad>
<s>
</s>
.
,
the
:
to
of
a
and
“
”
in
’
?
s
)
(
l@@
s@@
that
n@@
y@@
—
z@@
ed
ukuba
i@@
m@@
is
b@@
-
ing
e@@
is@@
u@@
al@@
t@@
el@@
we
ab@@
es@@
S@@
e
ng@@
um@@
for
c@@
am@@
1
;
i
im@@
in@@
M@@
w@@
be
kw@@
an@@
as@@
ku@@
on
em@@
en@@
es
f@@
I
ela
U@@
was
as
Jehovah
ul@@
with
k@@
il@@
E@@
God
it
I@@
on@@
his
a@@
d@@
K@@
p@@
ez@@
un@@
g@@
ol@@
o
are
A@@
The
not
you
wa
L@@
r@@
2
or
o@@
er
ele
uku@@
ar@@
B@@
he
er@@
y
ib@@
nd@@
isa
‘
h@@
N@@
have
ac@@
iz@@
v@@
an
ang@@
az@@
th@@
us@@
O@@
3
W@@
ic@@
H@@
will
re@@
t
wa@@
al
id@@
by
C@@
5
T@@
ay@@
no@@
4
om@@
one
eng@@
ek@@
ana
R@@
ak@@
elo
ing@@
ik@@
from
us
their
yaye
-@@
ob@@
ad@@
at
ers
!
6
they
abantu
st@@
and@@
all
ini
P@@
Y@@
it@@
kwa@@
ayo
xa
end@@
q@@
who
ngoku@@
can
or@@
oku@@
x@@
this
Jesus
D@@
Bible
ath@@
u
ise
eb@@
ho@@
our
ey@@
le
ly
aku@@
8
ag@@
ind@@
eni
ent@@
7
ation
Ng@@
ile
be@@
os@@
ala
ke
okanye
tr@@
ec@@
were
ne@@
9
ed@@
ted
iy@@
into
ama
G@@
what
eka
F@@
ig@@
ong@@
10
eku@@
had
way@@
ph@@
af@@
ub@@
elwa
eli
15
12
do
ate
A
uk@@
your
ts
se@@
kum@@
11
aph@@
ok@@
ukuze
bu@@
In
kub@@
ex@@
What
azi
ula
ileyo
them
ha@@
people
at@@
av@@
alo
uYehova
bab@@
ith@@
has
iq@@
ani
anga
ur@@
n
ti@@
13
14
ev@@
uy@@
iph@@
ent
if@@
ngayo
about
aba
yoku@@
my
kwi@@
uThixo
him
ona
iswa
et@@
enza
Z@@
time
when
ef@@
dis@@
k
J@@
would
so
oko
tion
emb@@
j@@
iv@@
int@@
17
for@@
noku@@
Uku@@
izinto
1@@
16
h
si@@
may
weni
but
iya
hl@@
uth@@
kodwa
ap@@
indlela
ro@@
ali
athi
we@@
kuba
ated
ty@@
ine
sis@@
ya
isi
ung@@
any@@
le@@
more
kus@@
ch@@
life
19
did
20
pl@@
res@@
kun@@
oku
kh@@
en
ane
ies
ihl@@
18
njeng@@
awo
am
ithi
m
out
th
me
abo
con@@
How
able
iso
ity
some
qu@@
pro@@
Ngaba
her
nje
ment
na
ibe
those
uYesu
njani
In@@
par@@
la
Nd@@
]
[
ale
also
b
It
many
lo@@
op@@
ir@@
kaYehova
ba
ahl@@
ye
aw@@
sp@@
ud@@
lw@@
eko
He
od@@
ep@@
ka@@
been
wal@@
uz@@
ar
ance
ngo@@
nto
ikh@@
bas@@
uc@@
such
obu@@
aza
esi@@
nom@@
Kw@@
l
Um@@
V@@
Kodwa
thetha
/
ally
aban@@
elela
19@@
Kristu
ting
its
uka
ond@@
up
ence
Xa
enz@@
24
wathi
other
there
und@@
ink@@
ri@@
no
eke
hol@@
even
21
ubu@@
man
22
ter
emp@@
pre@@
ary
gr@@
age
how
ter@@
Ab@@
Witnesses
abang@@
loku@@
se
oc@@
ix@@
li@@
hi@@
wab@@
way
bo@@
bakhe
ngenxa
uM@@
mb@@
if
ic
umntu
ama@@
abanye
uya
amaKristu
abab@@
But
world
est
than
ow@@
good
he@@
d
help
ika
per@@
eth@@
iza
ia
We
said
ings
de@@
elwe
5@@
work
enk@@
eleyo
ye@@
ant
apho
ekile
okuba
should
ha
ous
4@@
yay@@
ely
eph@@
ban@@
ations
oy@@
ax@@
sh@@
et
things
Paul
ila
ug@@
day
eg@@
nam@@
these
eza
ngen@@
which
she
ene
zi@@
enze
yakhe
olo
does
ons
ina
John
pr@@
uph@@
str@@
hel@@
This
onisa
years
iny@@
over
When
des@@
Ukuba
ov@@
wazi
wakhe
uq@@
wayo
alwa
aq@@
Christian
could
love
ure
Ngoku@@
kung@@
ezin@@
6@@
They
enoku@@
sin@@
iBhayibhile
esi
lo
amb@@
ay
23
eminyaka
E
nge@@
yokuba
ut@@
children
inc@@
ain
make
abal@@
ize
rec@@
2@@
nang@@
ixesha
umb@@
ning
ide
ekileyo
ear@@
uthi
cl@@
end
alis@@
nez@@
war@@
akh@@
ou@@
yam@@
nes@@
andla
inga
kaThixo
man@@
dec@@
emva
ve
ents
rem@@
says
Noko
ngum@@
entl@@
earth
Ngoko
ness
only
uza
ts@@
abantwana
ase@@
ulo
koku@@
For
others
aka
Christ
because
uma
amaNgqina
ule
thi
ice
iyo
imp@@
ho
If
Christians
elele
ezi
oya
then
kukho
fund@@
first
over@@
tsh@@
ezing@@
ity@@
hlobo
family
come
ah
lung@@
like
loo
As
ngom@@
ful
25
IN@@
Am@@
woku@@
Matthew
O
aze
elel@@
being
angela
lis@@
car@@
ue
oth@@
Mateyu
ono
28
su@@
made
kwe@@
onke
p
com@@
S
kunye
zonke
uny@@
azo
Why
ess@@
kul@@
anda
baz@@
Kingdom
Yohane
rel@@
anye
ikela
own
har@@
*
ulu
king
ass@@
reg@@
ati@@
w
elelo
hlabathi
need
koko
must
away@@
ukuz@@
okw@@
ade
You
eq@@
dr@@
7@@
ch
abas@@
wam@@
zi
Bukumkani
att@@
omi
sib@@
oph@@
awa
ty
nq@@
just
yo@@
ntu
ukub@@
eki
any
ci@@
ngendlela
anc@@
used
ess
gq@@
sing@@
example
kuphela
uba
hlala
uv@@
kuy@@
ngam@@
comm@@
Is@@
most
qala
old
isela
isayo
use
bay@@
ill@@
g
ied
times
ever
Im@@
inye
ubomi
tic@@
el
ive
ngakumbi
ukum@@
ra@@
faith
alisa
ver@@
spirit
abaninzi
kuye
sc@@
ating
ight
mis@@
00
now
imb@@
take
Genesis
see
pos@@
om
30
fa
of@@
kokuba
ekho
ities
St@@
ered
als
ying
after
olun@@
abath@@
know
bak@@
awa@@
ekayo
And
ithand@@
ny@@
ndand@@
kakuhle
esithi
est@@
ezi@@
ones
men
uye
pe@@
zoku@@
x
wor@@
parents
id
onakala
go@@
sik@@
eny@@
kakhulu
pres@@
sas@@
new
iti@@
inzi
indawo
nem@@
ris@@
anayo
omnye
Roma
ezinye
igh@@
tions
very
lik@@
enti@@
Th@@
uPawulos
become
ike
wele
Psalm
before
true
enziwa
il
enye
lul@@
ill
ze@@
spiritual
bonke
anel@@
les
akho
8@@
phakathi
ilung@@
ihla
fl@@
bam@@
eyay@@
where
hamba
ish@@
ents@@
antsi
lwa@@
zib@@
comp@@
kukuba
aty@@
cha@@
ngab@@
za
obo
words
xesha
ndlela
congregation
bang@@
inyaniso
ka
Tr@@
rep@@
give
kuku@@
anis@@
Emva
ma@@
br@@
siz@@
26
pha@@
to@@
siy@@
anele
ako
ant@@
Al@@
cre@@
9@@
inq@@
uhl@@
wen@@
mon@@
ast
nab@@
well
ebenza
iswe
ite
ezo
Yintoni
1-@@
ep
hal@@
two
kuph@@
emhlabeni
Ch@@
death
sion
kwim@@
much
amandla
29
ds
Ngenxa
de
nt@@
ints@@
luk@@
ion
AN@@
ious
ulul@@
waza
athu
another
yan@@
akhe
27
through
ical
ans
me@@
Peter
New
kuf@@
ters
ekisa
iwa
aleni
cr@@
anj@@
te@@
ibh@@
Un@@
unoku@@
gqitha
get
kwis@@
iba
ot@@
wo
ther
incwadi
tive
zik@@
isi@@
heart
ngokuba
ates
fumana
theth@@
ezininzi
ngc@@
3@@
hom@@
INdumiso
ze
imi
ezib@@
pub@@
uze
199@@
inoku@@
inter@@
akw@@
person
enc@@
ten
abazali
ano
gu@@
ere
Kutheni
read
ngoku
ngem@@
kwam@@
ayi
That
thing
our@@
di@@
izwe
El@@
book
alung@@
prov@@
kuth@@
ip@@
enj@@
ality
nye
bes@@
intl@@
great
njengoko
endlela
bal@@
nc@@
oun@@
found
UYehova
omb@@
was@@
ish
So
led
elisa
app@@
ages
inceda
each
Kwa@@
andela
esh@@
ekanga
waw@@
Ind@@
ement
Korinte
umsebenzi
today
atsh@@
oloko
ited
cho@@
ngoko
33
Ngokomzekelo
One
aye
name
human
0@@
akwazi
Bhayibhile
zaz@@
though
might
acc@@
kufuneka
writ@@
ily
hamb@@
ifund@@
nabo
okomoya
say
kuyo
31
tsha
wel@@
iselo
ukus@@
yonke
ently
young
wayeng@@
ngokw@@
.@@
oz@@
ial
act
uku
part
□
inz@@
elana
iye
waz@@
sil@@
ethi
truth
feel
UYesu
ulumko
ce
likaThixo
kwan@@
land
sebenzi
bel@@
ks
kuya
ect
kwakhe
soku@@
funa
ehl@@
ose
wan@@
sic@@
akumbi
elithi
hok@@
fun@@
go
•
prom@@
Corinthians
ther@@
ko@@
study
onqulo
Ar@@
find
ukuph@@
ps
expl@@
ongo
abh@@
ained
ko
uY@@
tic
happ@@
wayes@@
ngok@@
ands
wakho
entsapho
babo
kom@@
form@@
home
andle
low@@
Oku
zo
United
ced@@
loc@@
abe
ilo
qinis@@
To
up@@
po@@
bl@@
ry
funda
cont@@
An@@
vis@@
place
fac@@
eas@@
against
zim@@
hlaba
elula
yom@@
ukuth@@
often
elayo
Hebhere
zima
Proverbs
sur@@
sebenzisa
same
less
ach
aThixo
ingc@@
ened
Some
kwabo
ux@@
However
Sirayeli
abaz@@
Mar@@
hos@@
endawo
sec@@
kuThixo
fir@@
lakhe
yase@@
son
Do
32
kwenza
gre@@
kuYehova
Thixo
igama
ember
thetho
oq@@
anelekileyo
ual
eleni
all@@
ukun@@
keep
Luke
uphi
abaf@@
bi
lom@@
inda
onza
Luka
wethu
tsha@@
baf@@
naku@@
Ngqina
ea
apostle
Q@@
the@@
ach@@
ors
umk@@
zis@@
never
hay@@
Word
Isaiah
ubani
too
David
ad
red
mar@@
UM@@
Isaya
himself
oni
ard
IS@@
iim@@
brothers
word
tor@@
Acts
fazwe
Abantu
every
sub@@
ost
ign@@
baye
means
med@@
ezis@@
ord@@
ens
ekh@@
There
ory
lonke
At
Israel
ngaphambi
sal@@
nas@@
namhlanje
onakal@@
wrote
ref@@
iweyo
ngowe
stud@@
bakho
ge
ekubeni
od
En@@
Satan
zakhe
ove
uf@@
ned
alulekileyo
right
ange
yethu
olu@@
why
000
40
called
tim@@
um
ntoni
wase@@
ains
ked
umela
off@@
yes@@
upon
wabo
arr@@
ham@@
isele
humi
qubo
elelwa
shi@@
usela
ves
came
hle
ses
hub@@
ima
onakalisa
iintl@@
co@@
dem@@
inane
eya
Ama@@
gl@@
size
una
kunoku@@
became
No@@
under
jalo
IMizekeliso
sel@@
han@@
under@@
N
Be@@
put
nk@@
uncedo
naye
okwenza
uli
course
dla
ian
down
Timothy
te
anisa
ango
tw@@
r
34
After
val@@
zabo
tshato
zinto
States
ili
Ez@@
lob@@
kuz@@
want
Abraham
35
accep@@
iphi
kaYesu
jo@@
IBhayibhile
EL@@
year
phak@@
ixo
uko
yoko
view
Timoti
eyona
Kwakhona
among
im
atha
tsho
del@@
igidi
aya
ngokwenene
ngu@@
ceda
hath@@
c
EN@@
Is
back
serve
Revelation
spe@@
gro@@
kwab@@
live
athand@@
days
Fr@@
learn
show
awul@@
aku
ekele
iness
ukh@@
Yehova
dala
trib@@
let
Le
hear@@
important
nakw@@
elinye
ingq@@
still
sif@@
utsh@@
pri@@
ebenzisa
Nangona
nob@@
yabo
kwiz@@
set
iva
ake
50
Pro@@
vi@@
ume
Adam
gama
worship
during
conv@@
holo
fin@@
Con@@
requ@@
intsapho
kuq@@
ew@@
thand@@
ola
tly
hubeka
baya
ekela
nges@@
kulo
century
wane
ezulwini
okwenene
baze
fe@@
enokuba
enx@@
etyenziswa
afund@@
away
kwez@@
waph@@
inv@@
wife
wam
ety@@
Moses
kuthi
ually
emba
37
Uk@@
while
Njeng@@
kangang@@
faithful
olis@@
hla
sl@@
told
tiv@@
ized
Father
loy@@
ided
va
iink@@
KU@@
wo@@
ziz@@
later
iwe
ena
cul@@
show@@
alelo
long
ngaba
cons@@
D
elw@@
began
news
Com@@
bac@@
ethu
hon@@
ude
Kumkani
sy@@
ut
given
ek
Gal@@
phantsi
uS@@
eed
Romans
waba
angal@@
ser@@
ebe
Petros
bethu
thethe
kang@@
doing
Ex@@
eleka
themselves
usa
onwab@@
ans@@
ast@@
iko
X@@
without
encour@@
fundiso
By
yob@@
og@@
iminyaka
akal@@
Way@@
ths
kanye
do@@
hope
olog@@
lal@@
holelwa
tice
knowledge
ifundo
ians
phaz@@
however
0
aphambili
siph@@
col@@
cour@@
kwen@@
olung@@
sha@@
,000
ngas@@
kuv@@
ukwenza
ambo
child
ular
sokuba
living
mind
hum@@
fr@@
ifanele
ace
anti
azwe
ering
ezil@@
Sp@@
ube
unc@@
you@@
ekw@@
Yaye
peace
turn
three
ism
With
abazalwana
power
ication
20@@
ised
fully
yi@@
ben@@
Ukuze
she@@
,@@
On
ain@@
nokuba
bh@@
qonda
add@@
awula
holy
apha@@
bless@@
igqibo
ign
ungu
ngokung@@
tha
aba@@
etho
teach@@
IZenzo
gc@@
ezaz@@
ukul@@
aphezu
ets
order
fact
cor@@
Jos@@
bus@@
ezint@@
direc@@
eal@@
low
yakho
so@@
ening
Zibhalo
ision
Many
gave
zethu
T
afum@@
C.E.
adv@@
ulwa
amp@@
Then
ead
ist
welo
mor@@
As@@
engama
ngez@@
ngokupheleleyo
resp@@
lula
olu
ef
ngaphandle
cinga
father
ikho
ture
oway@@
ngoxa
self
kuzo
amazwi
iimp@@
preaching
uty@@
andelayo
ihlabathi
service
kho
kulungwane
14@@
pleas@@
hu
both
ative
phaw@@
ubudala
eliz@@
fum@@
thanda
ministry
ezilungileyo
uthando
sol@@
house
ukukh@@
wom@@
UThixo
rev@@
My
ash@@
10@@
phambili
kubu@@
produc@@
itha
ments
oug@@
ebenz@@
othando
every@@
exesha
bele
angeli
tl@@
religious
ikhulu
esib@@
ests
conf@@
ways
andi
leyo
azela
ifo
Scriptures
abafundi
uthaza
wenza
ica
TH@@
She
mas@@
aining
ack
ISityhilelo
always
pur@@
abini
ifum@@
umoya
agq@@
ifunda
mother
His
ukuya
fo@@
▪
inj@@
kube
khulu
aYehova
between
ngabantu
King
exp@@
kubo
axa
inez@@
making
abahl@@
ater
hosi
spec@@
kwes@@
andez@@
umele
Yet
yokuqala
iqela
enzo
imv@@
sinoku@@
ihlandlo
inge
ezulu
yas@@
kwazi
hethekileyo
look
web@@
alela
World
eba
njalo
ship
bur@@
succ@@
ame
pris@@
abane
enzeka
ously
iver@@
fic@@
elokuba
ngokuf@@
enziwe
ward
ukw@@
ail@@
wes@@
baph@@
iint@@
base@@
streng@@
amva
ful@@
kule
wad@@
iselwa
beg@@
iphepha
re
wonke
ling@@
andulo
ort
really
serv@@
alunga
wahl@@
eli@@
ave
something
ipho
imini
ital
beng@@
lokuba
zin@@
ond
disciples
lar@@
imele
Per@@
NG@@
buth@@
thethwa
ome
ingen@@
bul@@
having
ext@@
pp@@
took
asked
jec@@
Yuda
Sekunjalo
ric@@
Yes
kunjalo
ties
ences
James
ature
awu
imbi
Hebrews
yaniso
little
appro@@
uni
ong
Ndand@@
Re@@
yeBhayibhile
ziy@@
ziphatha
Kung@@
ony@@
pray@@
Yesu
qinisekileyo
ngalo
babe
ezingama
uyo
try
eBhayibhileni
izathu
njengom@@
standing
woman
engc@@
Ekubeni
six@@
emv@@
kwang@@
Our
ust
abis@@
198@@
ke@@
think
indlu
ohl@@
ngokun@@
ukuy@@
ngokuthi
lala
erful
humans
imali
ubus@@
abi
sihl@@
izwa
hand
fort
200@@
bam
amaxesha
bukaThixo
Njengoko
water
few
reason
omkhulu
Jud@@
ility
avakal@@
gqibeleni
Jerusalem
eho@@
ute
jong@@
mil@@
isis@@
emaz@@
uw@@
pers@@
okwenyaniso
—⁠
njengokuba
funeka
whom
unya
abatha
number
food
untu
konke
jam@@
felt
gener@@
wond@@
phela
ank@@
De@@
politi@@
e-@@
problems
marriage
ibuzo
baq@@
ingozi
Ewe
lif@@
mod@@
lead@@
l-@@
city
hulumente
concer@@
together
ind
eleleyo
las@@
sed
has@@
ulum@@
ended
appreci@@
uter@@
ikelela
bona
her@@
nguThixo
eling@@
ehlabathini
consid@@
result
Even
yena
cap@@
la@@
onal
aYesu
inst@@
ole
unity
․
Es@@
known
These
tur@@
ahluk@@
nabantu
zing@@
amaninzi
ca@@
haya
yam
indoda
oke
activ@@
apha
All
okholo
nol@@
ezinto
inted
blood
ukumkani
zek@@
ingly
personal
out@@
zimba
esha
ukholo
mankind
ir
endula
icha@@
khona
ants
IM@@
ngx@@
odus
ines
sho@@
imeko
wama
hard
old@@
profeto
face
ol
hali
uzo
vakalelo
cur@@
isiweyo
essi@@
women
future
form
ell@@
believ@@
dev@@
beb@@
urch
haw@@
yez@@
lu@@
oda
off
No
sim@@
zulu
elis@@
akazange
itsh@@
point
clo@@
ulungisa
obela
enoba
Y
iints@@
servants
lives
18@@
els
kind
ats@@
since
phath@@
hala
soci@@
toward
39
husband
From
buzo
bon@@
ulela
ood
jonga
baza
care
let@@
ulindlela
ibhalo
ngob@@
ebu@@
amo
intsha
kwaye
lu
AL@@
ifuna
lwe@@
36
ask
kwe
lase@@
st
kude
akala
again
amaq@@
cle@@
Abanye
R
humayela
AB@@
amk@@
ininzi
better
helekileyo
ru@@
chang@@
usenoku@@
qin@@
aged
liv@@
Nyana
consider
def@@
using
mntu
Son
Let
tre@@
bring
fazi
kuk@@
sibe
ner
umhlaba
nabanye
last
Yerusalem
awe
rul@@
Eng@@
ions
Col@@
different
Iz@@
qond@@
fi@@
Ub@@
author@@
amango
kutheni
yintoni
ithile
nceda
uqul@@
Gre@@
Funda
Sam@@
left
eyo
bath@@
hab@@
amath@@
ndiy@@
Mor@@
experience
efore
thr@@
gqibela
kuquka
hiya
lim@@
kamva
ances
ekhaya
Job
akhulu
wise
umzekelo
fellow
engen@@
happy
siq@@
amaYuda
resurrec@@
elung@@
nations
exc@@
exam@@
body
pione@@
kwem@@
sele
boku@@
eful
ukuq@@
waq@@
hor@@
enu
sk@@
US@@
reas@@
alas@@
friends
pol@@
early
Your
Omnye
ulungiseleli
ath
eze
aki
Kun@@
enkulu
ongezelela
learned
plac@@
tal@@
ba@@
isebenzi
joy
school
continu@@
eB@@
tit@@
kwaku@@
witnes@@
lov@@
45
ngexesha
god@@
zom@@
xolo
needed
ling
xoki
sing
done
religion
lib@@
eliso
azwi
mandla
cannot
contr@@
perfect
isana
C.E
ety
ezela
prayer
sin
ough
ahluko
ingxelo
min@@
real@@
esin@@
Em@@
hig@@
ukileyo
oyika
govern@@
giving
discus@@
wambi
nobu@@
isil@@
hoboka
ept
ekudala
purpose
sindo
mo@@
complet@@
ately
yona
phila
lwakhe
Pr@@
akhol@@
meetings
fect
ata
peri@@
iindlela
compl@@
ists
went
ented
enjenjalo
article
sa@@
engxaki
ree
aking
tya
doc@@
viol@@
baku@@
questions
inis@@
fa@@
someone
righteous
Lo
ngazo
amalung@@
Efese
38
Nkosi
elders
ikolo
eleli
ak
ire
ahla
nor@@
ixeko
emi
iind@@
hak@@
op
practic@@
ebomini
present
bre@@
B.@@
awulo
believe
W
Watchtower
wayen@@
heaven
Ne@@
system
erg@@
my@@
ass
fear
z
ebi
umntwana
kani
ngamnye
tro@@
hasa
ention
ukutya
fundisa
possible
div@@
ithuba
kuwo
Grike
onyana
ava
leg@@
utha
ws
Lizwi
lobu@@
amileyo
Thus
ns
5-@@
Pe@@
igc@@
som@@
ngaloo
ubungqina
efumlo
kwindawo
qual@@
evil
ndi@@
uthuz@@
money
nzima
vakal@@
owo
matter
bad
wabhala
ta
ern@@
loving
ins@@
wisdom
helped
ibano
yourself
star@@
ined
lowo
arly
unqulo
cazelo
anya
ithemba
Ngaloo
bahl@@
isizathu
Ku@@
njengo@@
Ngoku
self-@@
counsel
war
chi@@
fre@@
best
bathi
yim@@
tend@@
inik@@
zo@@
ild@@
sebenz@@
Lord
following
humbula
going
itsha
cop@@
akuba
ihle
kwakhona
walamano
bakaThixo
associ@@
thought
certain
vir@@
eneyo
bakh@@
amaSirayeli
epha
nx@@
ident
change
60
yanis@@
stand@@
heav@@
ard@@
yab@@
Kub@@
yem@@
ngathi
het@@
kukh@@
ancient
pow@@
teaching
relationship
aneka
3-@@
enzayo
bir@@
around
ukung@@
ukux@@
wamk@@
iselelo
akukho
44
language
kunokuba
Because
sen@@
ears
kwezi
wath@@
ON@@
mag@@
wicked
kwenzeka
continue
Greek
ither
uxolo
esibini
oma
ES@@
inxalenye
ekelwe
Chris@@
esiya
lwethu
ms
ject
pe
ibandla
iindaba
press@@
alon@@
abelo
IL@@
azange
judg@@
fulfill@@
ukela
far
Who
cas@@
imo
iing@@
weno
humb@@
situation
sifanele
jeng@@
amadoda
amag@@
phezu
Par@@
less@@
Aban@@
anz@@
em
baptized
until
ambi
f
nor
increas@@
eleleko
experi@@
brother
abiso
wano
mazwi
concl@@
ich@@
kuka@@
ithetho
fine
Ngo@@
minis@@
umph@@
nal@@
ulw@@
obung@@
law
ethe
prof@@
uke
sure
den
ending
ikelelo
share
akes
ilinganiselo
igaqo
heavenly
uSathana
look@@
okus@@
inde
members
abani
anointed
enzi
head
une
eM@@
alulekile
enjoy
with@@
tion@@
isiq@@
yaying@@
uses
ithathu
izi@@
close
cause
support
parad@@
Inter@@
akhi@@
eyes
Enye
ngokomoya
saying
sakhe
wh@@
engqondo
PH@@
hetha
kubantu
ngokus@@
especially
Eku@@
nding@@
non@@
develop@@
emo@@
abela
mean@@
U
ides
light
sive
udu
iganeko
UN@@
onga
ando
ahlukahlukeneyo
ngezinto
Israelites
lic
trav@@
prophec@@
aqond@@
jus@@
70
hlang@@
ested
transl@@
mean
thus
ices
abon@@
talk
akan@@
os
issu@@
understand
along
atsha@@
yet
lished
reat@@
kulu
2-@@
next
anzi
adoda
position
Since
entliziyo
ards
phu
York
small
pati@@
apost@@
indi
ibonisa
ah@@
ild
eye
umo
yobu@@
ental
gqirha
anu
ur
Ngokuf@@
case
uqulelo
Daniel
kunceda
coun@@
ngaphezu
Society
eld@@
ekisela
uleko
tor
olw@@
elweyo
lic@@
ezif@@
eless
serving
Ye@@
respect
embekileyo
afundi
wem@@
amba
aqalisa
thando
nel@@
wala
pression
message
oloph@@
ingqalelo
var@@
siya
Jews
temp@@
alul@@
ilizwe
And@@
nts@@
turned
ra
webo
zalwana
oned
Ephesians
efuna
On@@
ebudeni
aniso
intliziyo
health
fer@@
feelings
abaph@@
wak@@
zeBhayibhile
unaphakade
nangona
wakha
elek@@
shor@@
qub@@
ukelo
sm@@
will@@
speak
including
hamo
Afr@@
free
ease
lands
high
ress
ures
okwenzeka
tom@@
pressed
iphumo
ist@@
iting
answer
ekani
wakh@@
kuthetha
born
ukususela
soon
usuku
dead
ulaph@@
uB@@
lalo
Although
avoid
akeleyo
ingxaki
anim@@
pop@@
brought
ustr@@
mp@@
surv@@
yo
Bo@@
sense
iingxaki
influ@@
wadi
Ad@@
saw
difficult
taken
abhinqa
ukho
42
Brit@@
uDavide
cer@@
ell
ulala
ngq@@
saf@@
awuli
esik@@
thy
states
served
UL@@
lead
anger
ot
attention
ived
magaz@@
twana
Mark
nation
hambo
Mat@@
aluleke
ron@@
onzi
Kum@@
Eli@@
phambi
phi
ems
Of
law@@
Ok@@
heth@@
educ@@
Lev@@
osa
ebiso
gif@@
trans@@
andiph@@
ondo
hoyo
desire
control
Amer@@
answ@@
enq@@
ney@@
night
asela
describ@@
ngabo
Can
kangangokuba
igq@@
hu@@
injongo
esing@@
ann@@
und
ixhobo
enokwenzeka
ery
received
kwiminyaka
ingx@@
arding
izi
oyingcwele
ife
uyela
ufuna
ngobu@@
bad@@
umg@@
othi
thethi
Yakobi
orts
likely
esini
ican
challeng@@
Oko
H
THE
needs
aloo
andeli
kwabantu
ephancwadi
kweni
43
dali
fec@@
Those
his@@
ifanekiso
iving
etting
Creator
reading
Solomon
fur@@
seen
ished
buza
simele
wanted
enem@@
coming
6-@@
zabantu
char@@
fu
real
ached
ses@@
amanye
onyaka
isisa
pic@@
qondweni
ourselves
doub@@
Read
HO@@
prove
beli@@
ibini
taking
ution
per
abadala
died
indic@@
wrong
tu
Ger@@
inspir@@
kux@@
haptizwa
linganiselo
rhoqo
kuloo
learly
conc@@
sase@@
rit@@
mhlawumbi
onoku@@
umKristu
Are
kakubi
Ec@@
endulo
thous@@
enzela
cal@@
oba
ati
Today
intloko
Dis@@
ngokuphathelele
esas@@
dition
ekuhl@@
illi@@
inkonzo
illustr@@
build@@
kund@@
question
equ@@
liter@@
igidimi
person@@
olweni
grow@@
While
ethile
cience
ufanele
kungekhona
ever@@
wax@@
Kus@@
Br@@
kwethu
elin@@
IZ@@
oses
ularly
ote
kweli
vic@@
ged
humayeli
ples
eziph@@
national
makes
anx@@
incinane
esinoku@@
lus@@
enced
ethetha
orig@@
intlanganiso
ekiyo
cy@@
zekelo
nezinye
hlungu
chule
eness
isebenzisa
mat@@
page
ada
earth@@
utshane
fru@@
lish
Such
entif@@
bakaYehova
7-@@
dep@@
ifumana
ults
haza
famil@@
simply
lin@@
affec@@
wide
ngokukhawuleza
onela
ukwazi
ndis@@
AM@@
onde
yeni
ises
ding
Hayi
tain
Rom@@
mus@@
appo@@
offer@@
here
qu
umn@@
help@@
ert
ngokuph@@
special
account
eld
false
iqond@@
four
ezim@@
ifa
wav@@
duc@@
Ukus@@
ulation
spiritu@@
privileg@@
problem
anik@@
ukufunda
inx@@
mission@@
claim@@
Ubu@@
hokelela
ition
suffering
Babyl@@
ithanda
ded@@
ER@@
engqiq@@
intsh@@
Indlela
whole
obomi
umelela
Law
abisa
proved
ezimbini
tors
kululeko
ulaphula
ibona
outh
cou@@
cacileyo
nothing
Now
who@@
pass@@
moral
ok
sent
ound
Kuy@@
disci@@
group
married
andleni
follow
knew
iling@@
inqa
buy@@
ow
Ev@@
Le@@
trust
Does
provide
chaza
ukuthanda
thandazo
iziyweni
strong
akanani
Sinoku@@
iselela
taught
amanzi
its@@
neg@@
kulung@@
abakhonzi
ict
encwadi
fundisi
don
yabantu
L
eas
Ph@@
ukusa
umm@@
erc@@
UPawulos
receive
Afrika
bom@@
temple
banoku@@
lun@@
benef@@
dum@@
engq@@
lab@@
principles
ebh@@
conduct
aliswa
benefit
efund@@
table
appe@@
opport@@
Daniyeli
abakh@@
involved
instruc@@
sengqondo
Ngowe
Tim@@
wama@@
ngonaphakade
thinking
isions
large
itate
amhlanje
onzo
Khaw@@
zam@@
abam@@
ukuk@@
41
moved
Be
ivakal@@
whether
tri@@
ento
itions
nayo
clos@@
ethemba
ability
worshi@@
ible
elelwe
IB@@
lang@@
antoni
aKristu
eso
oza
Not
esis@@
ithemb@@
entr@@
works
Eneneni
amalungu
appl@@
lub@@
ivela
aphambi
gir@@
ilwanyana
Bib@@
He@@
unywa
ombi
obedi@@
Philipp@@
world@@
elanga
once
ekuq@@
babeng@@
mthetho
responsib@@
Katolika
alisayo
profeti
half
ekuph@@
expec@@
Kwi@@
sex@@
antse
fav@@
crow@@
according
wend@@
Wor@@
ulula
seBhayibhile
por@@
habhiloni
zwa
ved
mna
icala
shar@@
ngxelo
hus@@
hat@@
iseni
huty@@
According
HA@@
great@@
iimeko
arm@@
similar
Bro@@
attitude
ngapha@@
akwa@@
eleza
yanisekileyo
maint@@
engx@@
ple
ues
Yobhi
idla
Parad@@
heard
percent
abav@@
Ziziphi
ziye
ntwana
ends
qina
azali
ibana
eleko
righteousness
ago
tural
Enyanisweni
comes
Consider
onyamelo
ches
country
amkela
okom@@
likaYehova
truc@@
ul
izange
qhelekileyo
kum
isebenz@@
enjoy@@
action
ells
qondo
Bab@@
Ag@@
pare
struc@@
lwal@@
Davide
olus@@
ongweni
kindness
ekhulwini
gives
exerc@@
tually
usi
aweni
cwadi
ngokuz@@
divine
ikhum@@
bantu
wand@@
Gil@@
recogn@@
Jeremiah
igned
umfazi
enga
olelo
umdla
oliso
Eli
occas@@
bez@@
See
ibhal@@
waka
teach
natur@@
Kunoko
eremiya
work@@
prophet
Gr@@
During
hil@@
matters
sign@@
II
zobu@@
kingdom
kusenoku@@
Hez@@
akhath@@
ays
becom@@
iziyo
angel
effec@@
invol@@
iver
ezithile
physical
sons
ives
side
jik@@
andakany@@
tern
Hebrew
uted
posed
mir@@
sug@@
An
awule
soul
distr@@
satis@@
195@@
rain
iingc@@
Ngaphezu
circum@@
ick@@
fer
amas@@
information
Catholic
ulung@@
obun@@
ebandleni
lakho
started
abangela
ires
history
ly@@
mov@@
cover@@
already
fanekiso
visisana
head@@
certainly
amahl@@
anje
based
stand
ngamandla
Ak@@
ayiphi
friend
aqhubeka
Japan
incl@@
uPetros
ixh@@
au@@
wat@@
vo@@
ements
Abo
past
endand@@
sia
Ngoxa
abona
wokushumayela
followers
Jewish
ebandla
iLizwi
tell
dom@@
countries
bafum@@
chap@@
elosi
amaz@@
oyik@@
determin@@
Ek@@
fumanisa
shows
phathelele
Namhlanje
gen@@
bro@@
everlasting
full
Watch
ense
ople
refl@@
stor@@
elim@@
material
okh@@
enkulungwane
ingeleli
million
amab@@
protec@@
eS@@
wangc@@
inyam@@
evidence
iah
Their
view@@
ific@@
proph@@
read@@
upha
Ver@@
Egyp@@
kuze
Loo
promise
pray
heal@@
elal@@
interest
ingenelo
lwabo
clear
Filip@@
Sathana
pra@@
Or@@
necess@@
nalo
yezinto
ilizwi
imfuneko
idence
common
amazwe
God@@
ithembiso
Euro@@
awulayo
ured
umpostile
Pawulos
babes@@
kwexesha
ins
amawaka
hold
ie
mit@@
ukuhl@@
si
efuml@@
bano
Samuel
congreg@@
buk@@
ros@@
kubakho
sible
ezili
ne
commun@@
longer
iqonda
wu
maj@@
inika
:⁠
ush@@
ondol@@
ource
okeli
tures
respon@@
othile
Umpostile
zas@@
hubeke
ls
wana
etyenz@@
pher@@
fika
near
ebenzi
oper@@
hohl@@
second
fail@@
sacrifice
aphak@@
daugh@@
aphi
ichaza
okuqala
nazo
sever@@
refer@@
nec@@
ndiz@@
siye
suf@@
onomy
lear@@
Rather
ngal@@
hly
pite
ngaphambili
afunda
forts
lethu
apostile
rule
neigh@@
nabantwana
organization
aving
ongoza
Tower
Yiyiphi
Jam@@
okuth@@
Mas@@
ngaye
leave
Yiputa
rather
mentioned
yenza
truly
bem@@
Dr@@
elane
edom
1914
inal
command@@
reason@@
perhaps
loved
anyone
individuals
msebenzi
Marko
Witnes@@
sikh@@
yayo
remain
angelwa
year@@
wempu
adala
uro@@
ext
Scrip@@
ngaph@@
atur@@
onom@@
ink
osi
enjalo
Tho@@
oo
funeko
ought
ese
ngqina
feel@@
cri@@
some@@
hap@@
ord
ount
ould
inced@@
hlawumbi
ult
det@@
includ@@
Wh@@
qo
ort@@
bap@@
meet@@
cus@@
supp@@
milli@@
sid@@
qulo
beni
jud@@
call@@
long@@
intlang@@
Kuth@@
hi
ey
V
princ@@
aying
ational
alwana
ites
ld
relati@@
Sin@@
umbi
izek@@
lish@@
bor@@
–
G
●
tory
gqib@@
sac@@
M
tle
ngokuk@@
F
izwi
fill@@
fel@@
v
ody
aman@@
cac@@
ews
sacrif@@
humay@@
bec@@
lela
andl@@
prot@@
nj@@
fri@@
ulwini
ente
iel
Om@@
phatha
oka
ost@@
Se@@
ezimb@@
wr@@
kno@@
row@@
preci@@
Yo@@
ahlukeneyo
ob
postile
cedo
obe@@
organ@@
ith
hob@@
thers
individ@@
centur@@
ving
prac@@
Phil@@
intoni
é@@
fore
pi@@
wang@@
aching
C
ʹ@@
deni
suffer@@
spir@@
ileni
mbi
righ@@
follow@@
differ@@
faith@@
Gen@@
hawuleza
uth
alenye
devel@@
’@@
olomon
enly
Kor@@
inyaka
Ac@@
The@@
hawul@@
weyo
Christi@@
efum@@
ew
langu@@
cla@@
pec@@
ongez@@
shumayela
aqo
ready
sind@@
aul
Ndumiso
cent@@
your@@
haps
ilungileyo
ization
crip@@
phy@@
ingcwele
know@@
self@@
ozi
int
iseleli
opp@@
Cor@@
simp@@
eve
·
ildren
grou@@
oub@@
giv@@
kind@@
uly
abathi
yp@@
inking
enxa
·@@
fam@@
relig@@
anci@@
cent
izekeliso
odwa
wanyana
eti
akobi
ityhilelo
scho@@
sou@@
org@@
mater@@
selves
uring
need@@
uld
uel
them@@
obhi
◆
evel@@
import@@
lood
⁠
ekiso
ques@@
lit@@
circ@@
jongo
oki
ous@@
é
ather
ezu
kwak@@
$
situ@@
K
conduc@@
B
itu@@
Ef@@
rece@@
one@@
ngon@@
diffic@@
haptiz@@
priv@@
tiz@@
Nk@@
ants@@
yanisweni
deter@@
ld@@
yana
aphakade
wic@@
tile
lasting
okwen@@
©
ially
Eph@@
een
sion@@
J
knowled@@
P
wis@@
Kris@@
fol@@
numb@@
Af@@
ousness
ainly
í@@
Isa@@
umiso
athana
mess@@
husb@@
xo
Yud@@
ipp@@
á@@
olom@@
can@@
ung
hlabathini
Israel@@
wemp@@
led@@
whe@@
aught
uch
ple@@
ʹ
inform@@
athini
avo@@
dom
hulum@@
Do@@
descr@@
andlo
æ@@
obi
pose
unda
rif@@
Sat@@
eneni
Bec@@
oy
Cathol@@
gover@@
igqib@@
hlab@@
wany@@
Fil@@
auth@@
Yes@@
relation@@
La@@
hlaw@@
&
ü@@
contin@@
E.
him@@
Jes@@
Joh@@
ham
ano@@
sel
simil@@
attit@@
Jehov@@
syst@@
dif@@
iyiphi
ivid@@
ower
oh@@
Sir@@
Bhayibhileni
irha
ã@@
Jap@@
flu@@
Acc@@
yl@@
ó@@
Thi@@
q
cir@@
Pet@@
marri@@
antu
fal@@
ren
ample
wi
cert@@
X
hich
ainst
%
menti@@
ö@@
amano
embers
ause
Soci@@
ucc@@
tak@@
sat@@
hat
ft
tries
how@@
bs
Nang@@
Dan@@
è@@
alleng@@
Wat@@
mbili
ble@@
contro@@
hobo
Psal@@
iyeli
uture
itnes@@
Dav@@
▫
Cath@@
ht
til
omini
iziy@@
ityhil@@
hlabeni
ayeli
uals
Kat@@
ething
°
aug@@
ogn@@
ô@@
ether
Ngokom@@
onyam@@
tower
ñ@@
Ziz@@
Eg@@
ä@@
oci@@
|
blems
bet@@
ú@@
rho@@
ł@@
ʼ@@
kaku@@
urrec@@
ç@@
Consid@@
esis
ros
baptiz@@
Watch@@
á
○
◯
✔
ekhona
blem
Heb@@
j
Z
aniselo
caz@@
⁠@@
Corinth@@
augh@@
oti
olika
usal@@
ording
Seku@@
Yor@@
Á@@
Abra@@
sical
Jerem@@
profe@@
ileg@@
ticle
Bhayibh@@
ë@@
iples
verbs
Ekub@@
→
É@@
righte@@
uta
í
ḥ@@
#
eyu
ā@@
ë
à
Ö@@
ʽ@@
>
❑
▶
ê@@
akany@@
”@@
Creat@@
othy
↓
ה@@
igan@@
Ephesi@@
thu
ו@@
י@@
ה
❏
â@@
=
inth@@
č@@
igid@@
←
How@@
espec@@
®
erusal@@
rote
greg@@
■
Q
❖
C.@@
▸
Jew@@
Isra@@
­@@
ð@@
œ@@
↑
ū@@
⇩
ehova
ï@@
tog@@
ʼ
Š@@
Í@@
atters
hayibh@@
ø@@
ī
š@@
ś@@
Yoh@@
‛
ú
ń@@
ş@@
+
Hebre@@
è
ä
ž@@
ē@@
å@@
ł
ą@@
ę@@
ã
à@@
£
erem@@
◇
rom
ý@@
Ã@@
inte
ó
−
ē
õ@@
ς
ehov@@
⇨
ō
Matthe@@
ň
Ü@@
▾
ι@@
ü
̆@@
‚
―
ε@@
û@@
É
î@@
ý
ö
ī@@
Ž@@
š
‐@@
Ó@@
̩@@
Ś@@
ľ@@
Ḥ@@
ancwadi
ā
‘@@
·@@
\
ć
È@@
hlanje
ō@@
Ż@@
:@@
σ@@
ě@@
Å@@
ß@@
Revel@@
⁄
Ú@@
נ@@
Ł@@
Ô@@
ş
¡
Ä@@
ẹ@@
פ@@
ש@@
Á
ׁ
ū
΄
ν@@
æ
ò
ï
™
ώ@@
τ@@
ο@@
ż@@
π@@
ṣ@@
ß
Î@@
ė
ḍ@@
­
@
habhil@@
☞
γ@@
ό@@
ν
Ş@@
א
Æ@@
Ō@@
κ@@
➤
Ø@@
ř@@
ἰ@@
€
ʺ
Yip@@
×
ă@@
י
Ṭ@@
θ@@
å
ֹ
ְ@@
À
̀@@
Â@@
⇧
ṭ@@
ẹ
ȧ@@
ŭ@@
erusalem
ω
Å
δ@@
Ñ@@
ύ@@
ő@@
μ@@
‐
÷
ò@@
Ç@@
ì
☒
;@@
ì@@
ù@@
ı@@
)@@
awulos
Ë@@
ἄ@@
η@@
ĕ@@
̗@@
ǒ
đ@@
ש
Ε@@
ê
ά@@
›
ὅ
ὅ@@
ǒ@@
α@@
▴
â
ç
ɔ@@
נ
ט
ə@@
Ρ@@
λ@@
υ
ᾶ@@
₦
Ä
א@@
ρ@@
Κ@@
¿
ḥ
ź
û
̇@@
ţ@@
Υ@@
<
Ω
ʽ
ṇ@@
Ò
ù
ė@@
ę
Ō
ֹ@@
ָ@@
Ê@@
Ọ@@
ś
Č@@
È
ד
̧@@
ọ
Ẹ@@
ל@@
ă
ć@@
α
Θ@@
ń
ť@@
ק@@
ȁ@@
‵
⁄@@
!@@
–@@
ģ@@
õ
Ù@@
betw@@
̆
Í
Ο@@
¥
ź@@
anekiso
?@@
