#version: 0.2
a n
i n
t h
w a</w>
k u
l i
a t
w a
e n
h a
a m
o n
th e</w>
a r
i s
y a</w>
e r
h i
n a</w>
u n
i t
i k
r e
t o</w>
e d</w>
m a
a l
i l
e s
o f</w>
h u
a k
in g</w>
o u
o r
e l
i a</w>
z a</w>
e r</w>
m b
a s
an d</w>
e s</w>
h o
a b
i n</w>
o n</w>
a li
t i
r o
c h
y o</w>
a d
k wa</w>
ik a</w>
i li
a t</w>
t u
i d
l e</w>
y o
k at
i b
w an
is h
u s
y e</w>
ku wa</w>
o r</w>
in g
e m
i m
o m
i s</w>
w en
am b
w e
i r
an i</w>
u r
e n</w>
an a</w>
th at</w>
p o
z i</w>
a c
t o
v e</w>
h e</w>
un g
a n</w>
u m
l y</w>
en d
at i
in i</w>
e t
mb a</w>
k i
e ho
l a</w>
s t
eho v
kat ika</w>
e c
th e
an g
a f
l o
w e</w>
u l
k a</w>
a l</w>
n o
k wa
m o
w at
i c
a j
i f
l e
il i</w>
kwa mba</w>
a p
s a
t r
k e</w>
u t
i g
l d</w>
e v
’ s</w>
f or</w>
ish a</w>
u li
a z
it h</w>
t s</w>
e a</w>
wa li
d i</w>
r is
a g
f an
d o
h e
i t</w>
c on
t e</w>
er s</w>
y e
b e
an d
w h
m e</w>
at a</w>
j a</w>
d i
u s</w>
hi v
a o</w>
hi s</w>
s h
a s</w>
ung u</w>
am a</w>
n i</w>
er e</w>
wa s</w>
in e</w>
o d</w>
z o</w>
B ib
s u
ou r</w>
p ro
p e
ar e</w>
wen ye</w>
w ith</w>
en t</w>
s e
b e</w>
T he</w>
u a</w>
o p
m i
c e</w>
e x
n y
M ungu</w>
s i
ak e</w>
em a</w>
J ehov
Jehov a
no t</w>
t u</w>
ati on</w>
ehov a</w>
a v
Y ehova</w>
w or
m e
s p
we za</w>
r a
il l</w>
ha t</w>
c h</w>
r i
yo u</w>
s e</w>
f a
l i</w>
th er</w>
el e
ku t
ha r
f u
z a
s i</w>
ha ve</w>
al i</w>
h a</w>
u d
ak a</w>
wen g
i wa</w>
v i
f u</w>
amb o</w>
ch a</w>
K wa</w>
c om
k o</w>
g o
k a
ou t</w>
on e</w>
ab u</w>
ar i</w>
on s</w>
k e
re s
n e
ou ld</w>
i r</w>
b y</w>
o l
wat u</w>
un d
t ed</w>
d e
p er
id i</w>
ro m</w>
m at
f or
u p
en g
el i</w>
hu s
m an
w ill</w>
t a
fan ya</w>
p l
f rom</w>
hi l
kat i</w>
s ana</w>
u t</w>
aj i</w>
ir i</w>
an a
en ye</w>
ku p
the ir</w>
ku to
d a
ku s
t e
v er
t h</w>
wan a
Jehova h</w>
ku b
hi yo</w>
c i
G od</w>
mo ja</w>
es s</w>
C h
the y</w>
il a</w>
wa ke</w>
m w
am u</w>
li a</w>
s t</w>
f ul
un a
k ama</w>
hiv yo</w>
j u
o d
s o</w>
t er</w>
a r</w>
om e</w>
h t</w>
a u</w>
i v
on i</w>
ur i</w>
za idi</w>
c ha
c an</w>
th is</w>
u g
al l</w>
m ar
end a</w>
on g
ti on</w>
q u
wh o</w>
amb a
p ar
c o
tu m
hiv i</w>
ku j
t er
at e</w>
o te</w>
in a
1 9
Bib lia</w>
ib u</w>
wa kati</w>
ku m
n g
d is
ing i</w>
Ch ris
w ere</w>
es s
ou g
b a
Bib le</w>
ad a</w>
c ho
y ake</w>
in d
ris to</w>
Y es
J es
Yes u</w>
e p
Jes us</w>
ish i</w>
s ab
n d
k o
ou r
ha d</w>
al ly</w>
h i</w>
ak ini</w>
in a</w>
d o</w>
ing s</w>
w eli</w>
K u
f e
v er</w>
hus u</w>
it i
ik i</w>
s er
n j
y es
an o</w>
an s</w>
y s</w>
ku wa
h is
j i</w>
tu r
e k
I n</w>
ik o</w>
w hat</w>
y our</w>
ou s</w>
op le</w>
s hi
k wenye</w>
hil o</w>
n a
m or
s el
il e</w>
k ar
as i</w>
hi di</w>
it y</w>
on yes
l a
ha li</w>
i d</w>
n ini</w>
ha s</w>
s ha
k weli</w>
H o
un i</w>
m y</w>
sab abu</w>
o f
m ambo</w>
h o</w>
a wa
W ak
the m</w>
ma n</w>
en ts</w>
pe ople</w>
b ec
m u</w>
ku f
k it
u mb
a d</w>
en ce</w>
us e</w>
f o
b o
r u
am e</w>
on a</w>
p re
ab out</w>
a u
v u</w>
z wa</w>
f am
e t</w>
k ab
at i</w>
en t
hu o</w>
d s</w>
0 0</w>
us t</w>
v ya</w>
im a</w>
ful ani</w>
W hat</w>
kub wa</w>
p or
as a</w>
y enye</w>
ti me</w>
h ’s</w>
wan g
m tu</w>
h el
et u</w>
y a
g e</w>
g re
al a</w>
ag e</w>
li f
w n</w>
re c
wh en</w>
ju u</w>
a a</w>
a ch
e ar
v it
ha b
W h
f al
t y</w>
o ther</w>
w ould</w>
on g</w>
j i
en o</w>
m wa
t ing</w>
s ik
ka zi</w>
hi m</w>
n ili
e l</w>
en e
T h
at ed</w>
g i
ku fanya</w>
yo te</w>
ig ht</w>
b ut</w>
hu r
m in
Jehova h’s</w>
G od
ing ine</w>
th o
u b
ma y</w>
Chris ti
ang u</w>
l in
mor e</w>
m u
m is
a in
God ’s</w>
oug h</w>
H ata</w>
ha p
p ia</w>
fu l</w>
da y</w>
onyes ha</w>
li li
u ka</w>
p res
d es
amba yo</w>
y ali
h at
wa o</w>
hi t
t en
ab le</w>
M a
ma k
w hi
g r
id ia</w>
lif e</w>
ik ia</w>
s o
end o</w>
N i</w>
ki wa</w>
o ja</w>
ar s</w>
m weng
s a</w>
ku husu</w>
M as
k no
M ar
o to</w>
s ome</w>
mi aka</w>
k i</w>
z uri</w>
it n
m moja</w>
v ed</w>
ad amu</w>
es t</w>
po s
is a</w>
m p
kuto ka</w>
sp ir
ili a</w>
amb ao</w>
ti c
ny ingi</w>
g o</w>
ro ho</w>
y ao</w>
as ema</w>
n e</w>
ho w</w>
g ani</w>
m wan
i th
es e</w>
a wa</w>
u e</w>
K at
l ed</w>
en i</w>
ku li
nj ia</w>
u c
fal me</w>
ish o</w>
j ambo</w>
el ea</w>
e d
v ing</w>
man y</w>
i i</w>
an t</w>
v es</w>
it a</w>
k am
b r
k ila</w>
be en</w>
m ent</w>
k ea</w>
w ote</w>
di d</w>
W a
h er</w>
ur a
th ers</w>
Y o
z e
it s</w>
w s</w>
an y
ha hidi</w>
I t</w>
ac e</w>
e za</w>
al so</w>
ec t</w>
ish wa</w>
weng ine</w>
y ak
ur e</w>
in si</w>
W at
um e</w>
ik iwa</w>
if u</w>
el y</w>
an ce</w>
is i
J e</w>
n o</w>
Kat ika</w>
ali kuwa</w>
c l
z o
ma g
re d</w>
o k</w>
wa p
tho se</w>
Ho w</w>
il y</w>
am e
su ch</w>
ha yo</w>
wa r
hit aji</w>
ma d
z e</w>
a use</w>
sik u</w>
ch o</w>
ess es</w>
tum ia</w>
W itn
am oja</w>
if a</w>
u p</w>
do m</w>
un d</w>
s hu
weng i</w>
h ata</w>
ati ons</w>
k in
f er
n di
f ir
L akini</w>
th an</w>
z ili
H e</w>
p amoja</w>
ung u
it u
em u</w>
uli mweng
i p
j insi</w>
t ak
ic e</w>
t or
un za</w>
ch ang
I s
ev er
k ing</w>
p le</w>
A n
um u</w>
per s
om a</w>
J o
1 5</w>
el l</w>
th ere</w>
am ani</w>
j o
p r
ku n
ev en</w>
it a
id a</w>
s im
m il
or d
i es</w>
mo yo</w>
mar a</w>
T he
s id
u mba</w>
v yo
d a</w>
ku u</w>
n ess</w>
ac h</w>
im e
b ad
I n
al e</w>
an i
y ing</w>
ili yo
sel f</w>
Witn esses</w>
p h
sa idia</w>
1 0</w>
o b
a ul
y etu</w>
wan a</w>
ud a</w>
Mas hahidi</w>
wa y</w>
hil d
m wenye</w>
l akini</w>
1 2</w>
st r
m wen
ar a</w>
s ema</w>
ut a</w>
on go
as t</w>
k ed</w>
com m
wat oto</w>
co un
his i</w>
re s</w>
con t
K i
in to</w>
ku z
ku na</w>
ma p
whi ch</w>
as wa</w>
ti m
i f</w>
ye ars</w>
s he</w>
wan za</w>
we tu</w>
el e</w>
e w</w>
c r
c our
end elea</w>
ig h
B ut</w>
v id
n ch
ar y</w>
wali o
w er</w>
r i</w>
t i</w>
n ed</w>
m a</w>
wa me
sh a</w>
e g
wor k</w>
is i</w>
an y</w>
t un
th ing</w>
il l
e f
et i</w>
th ese</w>
W e</w>
he ar
1 1</w>
sa id</w>
hel p</w>
B a
as i
an za</w>
s tu
mwa ka</w>
f in
go od</w>
y ana
c hu
k im
re n</w>
b l
c hild
e p</w>
h emu</w>
A li
ad i</w>
b ar
1 4</w>
P aul
k ana</w>
ou s
T his</w>
ac c
c c
A l
0 00</w>
ma j
um a</w>
wor ld</w>
ev er</w>
Wak risto</w>
hab ari</w>
k ili
c re
if unza</w>
wa le</w>
n am
for e</w>
ut i</w>
a po
k s</w>
c ould</w>
A f
an s
on ly</w>
t una
ti ons</w>
Wh en</w>
az o</w>
ik i
av yo
a h</w>
nd ani</w>
m eng
ik ir
tu li
is e</w>
s om
s ur
u j
ma isha</w>
on al</w>
ng u
sh ould</w>
w o
le ar
ab a</w>
u k
d un
ye we</w>
M o
hi li</w>
u zi</w>
at es</w>
u ha
p o</w>
k wanza</w>
ati zo</w>
th ings</w>
ku mb
c er
am ini</w>
The y</w>
Is ra
ex am
M at
N ili
t en</w>
y angu</w>
n ing</w>
wana o
w o</w>
w ili</w>
o ver</w>
b ro
d ec
th er
child ren</w>
m uda</w>
sa ys</w>
do es</w>
fir st</w>
ma ke</w>
W or
lo w
g a
, 000</w>
2 0</w>
1 3</w>
ka wa
en d</w>
hu b
se hemu</w>
lo ve</w>
fan y
ek ana</w>
c ar
Paul o</w>
hu ko</w>
fam ilia</w>
e mb
i c</w>
ele za</w>
re e</w>
m it
on o</w>
a zi</w>
hu d
k ik
w i</w>
ha di</w>
Christi an</w>
ung um
hi r
m on
ina yo
an ya</w>
b or
li ke</w>
c en
ulimweng u</w>
z ao</w>
kawa ida</w>
wang u</w>
shi p</w>
p a</w>
ha wa
th r
au l</w>
ing dom</w>
s af
H u
k id
mb ali</w>
hu enda</w>
i al</w>
l s</w>
kar ibu</w>
ug u</w>
ac t</w>
we ver</w>
a m</w>
hi mu</w>
an isha</w>
d ha
z in
e li
com p
ne w</w>
mo st</w>
fa a</w>
F or</w>
bec ause</w>
za zi</w>
on do
re li
l es</w>
ngu vu</w>
re sp
g iv
z i
U n
s al
ali ye
th en</w>
w r
S h
ic al</w>
fan o</w>
j wa</w>
v ile</w>
hu yo</w>
mad e</w>
hi zo</w>
I f</w>
c al
amba ye</w>
s ib
wa ko</w>
as s
ha o</w>
A s</w>
at h</w>
N o
ba ada</w>
f l
ku la</w>
lo w</w>
19 9
ap o</w>
ma ji</w>
p ra
v yo</w>
k ad
po kuwa</w>
nch i</w>
be ing</w>
us ed</w>
j e</w>
ear th</w>
b ila</w>
u le</w>
si on</w>
P aul</w>
fam ily</w>
ac k</w>
m k
tr y</w>
o thers</w>
as e</w>
stu d
on d
1 7</w>
ser v
ku tu
on jwa</w>
1 6</w>
wan adamu</w>
f ura
at t
al s</w>
aj ili</w>
l az
a ye</w>
com e</w>
f un
K risto</w>
ny ingine</w>
up endo</w>
ad hi</w>
2 2</w>
ke za</w>
P et
w ell</w>
we z
n do
f i
kup ata</w>
j ust</w>
m fano</w>
ma s
hu si
im ani</w>
wa si
c es</w>
re l
ki roho</w>
ku r
k is
er ia</w>
yak o</w>
spir itu
at ing</w>
s in
iv yo</w>
li g
f und
Christi ans</w>
s ho
a in</w>
y an
th ough</w>
per i
v is
d uc
it e</w>
wali kuwa</w>
p ri
z ake</w>
tim es</w>
no w</w>
i l</w>
ye ye</w>
j ana</w>
in ter
kab isa</w>
uli wa</w>
ne ed</w>
c lo
ch ungu
p i
a yo</w>
ver y</w>
hub iri</w>
g u
end e
1 8</w>
ke o</w>
f ic
f ol
e m</w>
K ingdom</w>
ar ibu</w>
U falme</w>
it i</w>
ch e
for m
en ti
p e</w>
and s</w>
k ib
gre g
1 9</w>
j ua</w>
be li
af ter</w>
we zi</w>
con greg
ch ini</w>
is h</w>
t ake</w>
se e</w>
man eno</w>
d if
re g
i o</w>
som e
ku l
h es
Yo u</w>
ma ana</w>
we ka</w>
it ia</w>
s y
al o</w>
im i</w>
t re
m ust</w>
exam ple</w>
s asa</w>
T o
ten a</w>
t ers</w>
Wh y</w>
m er
wa la</w>
ta in
meng i</w>
t wo</w>
li c
ri p
kut an
le o</w>
P ro
a ya</w>
tur e</w>
at er</w>
et a</w>
af iki</w>
on ekana</w>
ku a</w>
ku tumia</w>
re ad
ong e
b et
be g
af un
w ho
hap p
un g</w>
wh ere</w>
a th
iti on</w>
ene o</w>
har a</w>
ung a</w>
ha li
it ed</w>
wa zi</w>
l ar
R e
yana yo
g ro
reli gi
ma hali</w>
ha mu</w>
b re
s pe
fa ith</w>
ki f
ur ing</w>
kno w</w>
ap aswa</w>
s ec
Chris t</w>
ak a
aj e</w>
z ed</w>
b u
spir it</w>
m en</w>
z ia</w>
a za</w>
mb i</w>
on es</w>
und er
g e
k an
S t
at u</w>
ti v
id e</w>
hi a</w>
ul t</w>
par ents</w>
he av
p ata</w>
be fore</w>
N ew</w>
cl ud
c rip
ir a</w>
na ye</w>
i zi</w>
ku v
mu ch</w>
o ver
es t
wa ys</w>
he k
o wn</w>
ta in</w>
An d</w>
T im
ili fu</w>
yali yo
ach ing</w>
ku su
m s
oug ht</w>
A b
ig n
ali sema</w>
pl es</w>
and ika</w>
in di</w>
bec ome</w>
a y</w>
po in
ili kuwa</w>
d ev
az eti</w>
m t
Jo h
ad aye</w>
f ec
A r
ny umba</w>
fa uti</w>
c hi
end ele
ke e</w>
az o
it o
mb e</w>
A N
m ili
H e
av yo</w>
d ing</w>
re as
kuf a</w>
thr ough</w>
and iko</w>
o lo
2 4</w>
sel ves</w>
2 0
fu ata</w>
ikir ia</w>
ma ini</w>
f el
shi r
us tr
afun zi</w>
us al
ye ar</w>
d amu</w>
p s</w>
p ed</w>
fo und</w>
v ol
w ith
v en
nd ugu</w>
d r
ing e
l and</w>
laz ima</w>
k ika</w>
2 1</w>
ind a</w>
N a</w>
ele kea</w>
kub ali</w>
mb o</w>
wa zazi</w>
ong o</w>
sha ka</w>
em p
az am
ak o</w>
an ia</w>
B e
m wa</w>
at o
l l</w>
tr ue</w>
sp ec
spiritu al</w>
de ath</w>
mu himu</w>
gi ve</w>
ing ana</w>
g et</w>
war d</w>
u ki
ak i</w>
i za</w>
kuli ko</w>
s es</w>
an ts</w>
wor ds</w>
p at
a cha</w>
n i
en zi</w>
C on
congreg ation</w>
apo st
ti ve</w>
uli za</w>
kutan iko</w>
kar ib
p ub
it o</w>
al o
an other</w>
um ri</w>
us i
Wat u</w>
ar i
su b
ali a</w>
ut h</w>
e ach</w>
am in
em s</w>
3 0</w>
hear t</w>
o l</w>
sh ang
at u
I sa
O ne</w>
bo ok</w>
if e</w>
p ur
z enye</w>
ali po
er e
b ali</w>
s ed</w>
his tor
H a
Joh n</w>
ent ly</w>
n ao</w>
f ri
ang e
kun di</w>
b a</w>
es ha</w>
le wa</w>
af si</w>
mi wa</w>
H ivyo</w>
mb ing
hi m
ati fu</w>
to fauti</w>
con sid
ze e</w>
pe kee</w>
mw ingine</w>
kit abu</w>
cont in
e k</w>
wa k
m am
l ing</w>
em ent</w>
k ia</w>
l ake</w>
i e</w>
K ik
ac ho
wa m
ak iwa</w>
it wa</w>
ali ty</w>
ig a</w>
an e</w>
er ed</w>
ku d
vit u</w>
min is
z ungum
z ote</w>
ha sa</w>
ko sa</w>
hur u</w>
hi i</w>
ak ili</w>
ali mbali</w>
p ec
a ther</w>
iti es</w>
hi g
in st
uli o
ndo a</w>
f ac
I ng
ad ili</w>
l ess</w>
hu man</w>
mw isho</w>
S o
amb azo</w>
so ci
ali wa</w>
r y</w>
g en
par t</w>
su p
gre at</w>
wa ki
re ad</w>
mb alimbali</w>
me mb
y en
l d
to to</w>
m ia</w>
2 5</w>
u z
and e</w>
u ju
T hat</w>
Ba ada</w>
una o
y ed</w>
lo c
kuj ifunza</w>
n ame</w>
yo ung</w>
r igh
ji ji</w>
dun ia</w>
S o</w>
i ani</w>
kar ne</w>
ti c</w>
A s
ti es</w>
st and
stud y</w>
t al
h ana</w>
Wak ati</w>
ho me</w>
ab ii</w>
t af
l ong</w>
ti mi
th in
ele wa</w>
j ina</w>
t a</w>
v in
qu es
st a
R o
t ly</w>
il o</w>
us a</w>
r ic
una weza</w>
sa y</w>
a ifa</w>
wa l
m ight</w>
r ang
kus ema</w>
amb ua</w>
I kiwa</w>
c ed</w>
ex peri
har ib
s is
amb alo</w>
m kubwa</w>
fo re
kup itia</w>
to a</w>
B r
fin d</w>
pro vid
ar tic
ch e</w>
S ome</w>
eg em
kab la</w>
aj a</w>
mwan am
mat atizo</w>
o vu</w>
Ho wever</w>
of ten</w>
fe el</w>
N eno</w>
on e
in clud
f ect</w>
hu u</w>
fol low
ana ye
Ing awa</w>
or in
su f
li sh
dha mbi</w>
por t
ak i
l enye</w>
kuj i
t es</w>
re por
on d</w>
kno w
y ari</w>
j am
ha ki</w>
p i</w>
mar ri
er usal
pers on</w>
tu res</w>
ik ali</w>
ain st</w>
li c</w>
pl ace</w>
G re
k il
k az
umb ani</w>
y at
tr uth</w>
zin azo
to ld</w>
T o</w>
th s</w>
re fu</w>
l ang
cal led</w>
kin d</w>
ku ja</w>
g hu
ex pl
eng ene
ma oni</w>
f ar
v ili
s ame</w>
ki asi</w>
uha i</w>
ku ona</w>
v e
z etu</w>
t am
e w
wa li</w>
5 0</w>
n ik
t le</w>
ar ly</w>
et y</w>
rec e
jo y</w>
r ight</w>
mwen yewe</w>
ele zo</w>
o ld</w>
Kik risto</w>
u we
’ t</w>
s cho
M wan
or s</w>
li s
hap o</w>
ib it
or y</w>
l l
ad d
um e
im port
fura ha</w>
2 3</w>
amb ia</w>
ha a</w>
ki p
bor a</w>
wan y
ny umbani</w>
bu il
n ever</w>
ab uri</w>
hek ima</w>
m toto</w>
ag es</w>
ag ainst</w>
to day</w>
ik u</w>
tr ans
um ia</w>
ma in
c an
orin th
t ab
is t</w>
b id
to o</w>
ever y</w>
vi zuri</w>
har i</w>
ful ly</w>
dun iani</w>
kif o</w>
li t
ou t
and a</w>
cha kula</w>
A t</w>
t aka</w>
s on</w>
do wn</w>
ik iri</w>
m imi</w>
end s</w>
at ia</w>
t el
a ina</w>
in adamu</w>
s en
u o</w>
b ack</w>
Th ere</w>
ci ples</w>
y ale</w>
wali o</w>
c le
s ci
ar d</w>
his ia</w>
en s</w>
D av
le d
st ar
con f
S crip
s ifa</w>
us i</w>
wr it
th ibit
v ic
d ini</w>
ir e</w>
tu maini</w>
ke ep</w>
P ar
Af ter</w>
s isi</w>
hu di</w>
B aba</w>
ba adaye</w>
o g
ak ati</w>
p ly</w>
ongo za</w>
u r</w>
kuj ua</w>
ir iwa</w>
e o</w>
und er</w>
i ans</w>
tr ib
Hu enda</w>
s to
da ys</w>
k u</w>
b lo
hi cho</w>
ord ing</w>
kusu di</w>
o cc
K ama</w>
ug ha</w>
tur y</w>
et ani</w>
ou se</w>
o go</w>
mb ele</w>
S at
tu me</w>
mp ya</w>
c ame</w>
w is
c or
D o</w>
bec ame</w>
fa ith
b i
th ree</w>
kuto a</w>
ina weza</w>
b us
lili lo
e zi</w>
T r
ap pe
a k</w>
ha l
th em
li ve</w>
wat er</w>
uwe zo</w>
d uring</w>
sib le</w>
M i
st ill</w>
amin ifu</w>
v il
ul ar</w>
pre ci
f ad
wan afunzi</w>
me ans</w>
of f
k wen
es a</w>
Wor d</w>
se t</w>
j ia</w>
amb apo</w>
sha uri</w>
to ka</w>
he al
do go</w>
ya hudi</w>
ali wa
tum ikia</w>
ro te</w>
L o
bro thers</w>
wor d</w>
l et
p ut</w>
P ia</w>
en ed</w>
bad o</w>
j ifunza</w>
h ang
e ye</w>
whi le</w>
pro mis
cen tury</w>
zili zo
o keo</w>
w rote</w>
ik ana</w>
ulimweng uni</w>
pr in
n umb
husi ano</w>
el s</w>
ur u</w>
tum ishi</w>
n zuri</w>
as ed</w>
wa weza</w>
him self</w>
ik e</w>
th y</w>
h er
d em
endele o</w>
d et
ek ani</w>
kuto kana</w>
d er
res s</w>
rel ati
cour se</w>
fany wa</w>
m sa
t ro
hat ua</w>
ap pro
wh y</w>
i ous</w>
c us
am ong</w>
wat a
ti wa</w>
u v
re qu
af an
ud u</w>
h wa</w>
ny akati</w>
wa kiwa</w>
B ila</w>
b ur
know led
hat ari</w>
lig ht</w>
kut ano</w>
ang a</w>
c ent</w>
vi ew</w>
cha p
b u</w>
S e
l ugha</w>
po ti</w>
t end
ab isha</w>
Tim o
ar d
sh eria</w>
wan t</w>
r o</w>
ma f
apost le</w>
ili ty</w>
vit a</w>
we en</w>
wa s
2 8</w>
jam ii</w>
N a
onge ze
we we</w>
kit u</w>
Sh etani</w>
po li
r an
wen yewe</w>
dif fer
mil li
ch wa</w>
awa y</w>
W an
V i
um o</w>
u ko
kus any
j e
ru c
st and</w>
l ater</w>
g l
kut ia</w>
beg an</w>
le t</w>
ex t</w>
ati onal</w>
od y</w>
mil ele</w>
import ant</w>
B ar
acc ep
p ris
up on</w>
ku ishi</w>
er eza</w>
ser ve</w>
s he
u al</w>
d ic
g azeti</w>
me et
s ac
ho wever</w>
c ol
p le
m z
Yo hana</w>
in y
m v
4 0</w>
lear n</w>
with out</w>
af uta</w>
righ te
mak ala</w>
k as
on ed</w>
sid e</w>
b ene
C om
i ah</w>
bad ili
I s</w>
or g
wat um
e ka</w>
M y</w>
A mer
v al
wan i</w>
mb ia</w>
nj ema</w>
K us
r e</w>
pra y
m ents</w>
kam we</w>
tur n</w>
s how</w>
lin alo
min d</w>
o ko
Ab ra
20 0
ib a</w>
az ama</w>
artic le</w>
u m</w>
giv en</w>
eng a</w>
y s
Dav id</w>
ta yari</w>
kad haa</w>
u ia</w>
dev el
ver s
di rec
c a
d ar
B o
is m</w>
bet ween</w>
uli a</w>
h u</w>
k risto</w>
vi jana</w>
pr ac
Pet er</w>
B y</w>
pro p
kwen da</w>
n eno</w>
ba ya</w>
O n</w>
m ama</w>
kumb uka</w>
wor ship</w>
au di</w>
W ith</w>
mw ili</w>
en cour
in vol
li ving</w>
Z a
msa ada</w>
tak atifu</w>
ma z
m ke</w>
u f
p a
chu kua</w>
di v
ar isha</w>
them selves</w>
B ad
ha kika</w>
Isra el</w>
M u
ig n</w>
k ale</w>
ati ve</w>
ho pe</w>
hu tu
am ua</w>
ku hubiri</w>
awa la</w>
wa ka
isi on</w>
D audi</w>
w ife</w>
M any</w>
U li
c ro
s iri</w>
hu man
re f
as ili
ou th</w>
am uzi</w>
j aribu</w>
mat okeo</w>
w om
c ap
ord er</w>
li st
pro t
af anya</w>
N e
K isha</w>
ex pres
kili cho
ita hidi</w>
Pet ro</w>
wa g
Ma th
et s</w>
a idia</w>
z ea</w>
ex p
s har
f act</w>
shir iki</w>
th or
po wer</w>
d er</w>
ali vyo
wana weza</w>
b el
e ds</w>
na weza</w>
es hi</w>
h ouse</w>
hu m
uli kuwa</w>
cr ib
resp on
chungu za</w>
w ing</w>
Th en</w>
ik wa</w>
ha i
es i</w>
s ure</w>
s ing</w>
end eza</w>
maf uta</w>
in afsi</w>
bo th</w>
at ure</w>
v en</w>
ku onyesha</w>
n de
numb er</w>
e f</w>
ad v
ne ws</w>
ti ce</w>
b aba</w>
po se</w>
W eng
bid ii</w>
in ess</w>
ut a
kur asa</w>
c y</w>
Mat the
f ur
do ing</w>
lang u
up ande</w>
ma li
le a</w>
j ud
knowled ge</w>
W ali
faith ful</w>
l o</w>
a i</w>
19 8
te g
kad iri</w>
u ke</w>
m f
te ach
religi ous</w>
ou b
ap ata</w>
i we</w>
ghu li
wa zee</w>
Z aburi</w>
C a
lit tle</w>
fe w</w>
wang o</w>
Isra eli</w>
ku mw
mbing uni</w>
hud uma</w>
ed ed</w>
mb ili</w>
fo od</w>
Matthe w</w>
y ule</w>
com pl
Wor ld</w>
c ul
ga ve</w>
b ap
P sal
i ed</w>
u husiano</w>
at ten
e as
v ir
ti i</w>
mk ono</w>
kno wn</w>
expl ain
an ci
u na</w>
di vid
cha che</w>
c la
kid ogo</w>
2 6</w>
po te</w>
id adi</w>
Math ayo</w>
ev u</w>
tu ally</w>
blo od</w>
af u</w>
o mba</w>
I li</w>
mak ing</w>
M an
H ilo</w>
al ways</w>
po p
Y eye</w>
chi ld</w>
s ol
0 ,000</w>
lo ok</w>
st e
bl ems</w>
. E</w>
is ts</w>
ha kuna</w>
teg em
sy st
serv ice</w>
ever y
un i
S he</w>
mo ther</w>
at aka</w>
f t</w>
2 9</w>
pe ace</w>
ms ingi</w>
t ari</w>
E li
asili mia</w>
ili ana</w>
su cc
kid ini</w>
amb a</w>
wana wake</w>
ib ada</w>
en ly</w>
h or
g y</w>
F ather</w>
. K</w>
wang e
Mar ekani</w>
to ok</w>
u tion</w>
wa zo</w>
hi b
oug h
ous ly</w>
ing ereza</w>
M e
j ec
f ace</w>
W .K</w>
t em
b ir
hur ch</w>
hus b
tam aa</w>
C .E</w>
es ts</w>
pro duc
ar o
el elezo</w>
minis try</w>
Un ited</w>
it ud
id ence</w>
E n
uli zi</w>
timi za</w>
e ve</w>
ge ther</w>
s ma
p enda</w>
k ind
da wa</w>
re at
r if
1 8
or d</w>
re ally</w>
hu ku</w>
N W</w>
Y et</w>
ful l</w>
ut e</w>
Psal m</w>
c op
ma b
y our
shang we</w>
or e</w>
gen er
c ity</w>
yo yote</w>
af ya</w>
u fa
am a
2 7</w>
n ec
j ibu</w>
wa wili</w>
ho ly</w>
fa ther</w>
l aka</w>
ku endelea</w>
ug onjwa</w>
sup por
o be
b s</w>
fe el
pro blems</w>
v o
ang ali
h and</w>
ch ea</w>
pos sible</w>
ku saidia</w>
Th ese</w>
S am
mb aya</w>
t atu</w>
en ces</w>
sa a</w>
an z
i ve</w>
ad u
fu pi</w>
p ita</w>
for m</w>
ing a</w>
suf fer
se fu</w>
p as
pre aching</w>
bl ess
s ala</w>
3 3</w>
hu z
wom en</w>
an asema</w>
M ak
yan si</w>
ba adhi</w>
i ally</w>
c e
pro b
chang a</w>
str eng
kin acho
t atizo</w>
li k
H i
of f</w>
fel t</w>
at a
ra hisi</w>
as ked</w>
o k
en ing</w>
w ond
lili kuwa</w>
a il
b ody</w>
fund isha</w>
kum u</w>
some thing</w>
d ly</w>
Wa yahudi</w>
gr ou
ha ving</w>
to gether</w>
nch ini</w>
O ur</w>
for t</w>
bene f
H is</w>
th amini</w>
w ise</w>
ap p
S u
fund isho</w>
K an
Ma andiko</w>
J e
t ar
Za idi</w>
Scrip tures</w>
v ib
go ver
ing ia</w>
s itu
ongeze ka</w>
i red</w>
ndi ye</w>
in e
er ful</w>
map ema</w>
in cre
con cer
I N
iv u</w>
sin ce</w>
W az
ili yo</w>
ap preci
W ana
human s</w>
ch ana</w>
lo y
T un
har d</w>
kim wili</w>
thin k</w>
stand ing</w>
mb o
uk u</w>
aj ua</w>
or t</w>
pro ph
ing ly</w>
per cent</w>
A ustr
m ik
p t</w>
c ir
ra eli</w>
Wa is
mam laka</w>
B ab
E ven</w>
res ult</w>
ir iki</w>
y es</w>
T H
3 1</w>
amb avyo</w>
ha s
l as
s po
hali si</w>
we kwa</w>
K ing</w>
cont ro
ac tiv
pe wa</w>
T uli
contin u
f il
wany ama</w>
E x
le ft</w>
sp it
ch es</w>
im u</w>
us ha</w>
nam na</w>
Mar a</w>
do c
n ani</w>
ili za</w>
ag ed</w>
poin t</w>
rece iv
P er
v ig
ong oni</w>
hig h</w>
u ko</w>
m s</w>
wana ume</w>
u tumishi</w>
d ia</w>
m es
M falme</w>
dif fic
v if
kat aa</w>
Sat an</w>
S p
se ar
read y</w>
hang a
lis h</w>
He bre
reas on</w>
av o
hir iki</w>
ang o</w>
ye yote</w>
tic al</w>
z aji</w>
le ad
amba cho</w>
n or
hud hur
wor ld
er ing</w>
ut ia</w>
N di
wana po
Y es</w>
m refu</w>
scho ol</w>
c are</w>
nde ge</w>
cha g
t or</w>
li ves</w>
kup at
n s</w>
l ast</w>
kan uni</w>
as hara</w>
sh ind
ali p
s ou
e br
pl ac
kus oma</w>
ha ya</w>
F rom</w>
Al l</w>
ad ilifu</w>
M ag
W ar
fu ture</w>
ndi yo</w>
hudhur ia</w>
n er</w>
Bad ala</w>
har aka</w>
di ed</w>
P e
p ic
K ul
bet ter</w>
meng ine</w>
beli ev
J am
h ani</w>
ya ani</w>
differ ent</w>
l ab
si ve</w>
ser ikali</w>
mwanam ke</w>
i an</w>
mw ingi</w>
es o</w>
org ani
ac coun
bad ala</w>
u za</w>
ha ku
t ang
lo ving</w>
as ili</w>
fad hili</w>
ag ain</w>
ebr ania</w>
lo o
lish ed</w>
iny i</w>
ex c
aj abu</w>
Wais raeli</w>
A c
zo ea</w>
h on
pers onal</w>
karib uni</w>
ing awa</w>
D ani
experi ence</w>
marri age</w>
wo man</w>
cho chea</w>
M kristo</w>
kul ingana</w>
una po
f r
uj ao</w>
ha da</w>
mf umo</w>
S i
D o
st an
to kea</w>
t in
end wa</w>
in divid
ear ly</w>
u fu
A cc
us ing</w>
p ing</w>
mag az
J ambo</w>
N o</w>
ung wa</w>
e y</w>
B ec
sa uti</w>
hab i
ha m
re ali
w ic
histor ia</w>
L a
hu ghuli
po kea</w>
6 0</w>
kuf ikia</w>
K it
m zuri</w>
M tu</w>
syst em</w>
th amani</w>
who m</w>
hu wa</w>
tr u
G o
aro und</w>
C o
to ward</w>
tu miwa</w>
f re
Y or
habi hu</w>
P o
sma ll</w>
sim am
re p
m ig
y asi
th ought</w>
ili oni</w>
M wana</w>
Uli mweng
p esa</w>
rang i</w>
chungu zi</w>
s s</w>
n ime
yali yo</w>
ish ani</w>
de ed</w>
ha i</w>
ali andika</w>
dis ciples</w>
mwan adamu</w>
tu ku
ti l</w>
d ra
ph ys
ep uka</w>
hi li
z amani</w>
ki chwa</w>
J ud
sac rif
s an
u u</w>
hu s</w>
iti hada</w>
d ha</w>
te mb
m g
ali ye</w>
kwa ke</w>
des crib
kusany iko</w>
kuz ote</w>
d ada</w>
lear ned</w>
pres ent</w>
kaz ini</w>
il li
relati on
m ir
h isha</w>
ana weza</w>
ali m
aj wa</w>
19 4
ne eded</w>
y ’s</w>
au thor
lo te</w>
u kurasa</w>
az im
si on
Amer ic
y ame
cir c
W AN
S in
compl et
M usa</w>
heal th</w>
W A</w>
religi on</w>
Yor k</w>
3 2</w>
fa r</w>
hap s</w>
D e
d u
ku wat
azam o</w>
cha ke</w>
Isa ya</w>
B wana</w>
mi kutano</w>
devel op
can not</w>
mat er
d hidi</w>
as k</w>
gover n
z ani</w>
vi ol
d one</w>
J erusal
wen t</w>
S asa</w>
s il
W hi
itud e</w>
hel ped</w>
7 0</w>
consid er</w>
w isha</w>
d en</w>
uju zi</w>
eng o</w>
d ang
fri ends</w>
br ing</w>
m ume</w>
w ed</w>
b est</w>
z ation</w>
L I
fl u
St ates</w>
ar ib
Y our</w>
happ y</w>
m ingi</w>
j uli
tuna weza</w>
at ely</w>
m if
K ila</w>
b er
husb and</w>
a we</w>
an o
beli eve</w>
se l</w>
ke b
i zwa</w>
ma ishani</w>
w he
ong eza</w>
con duc
fel low</w>
h ere</w>
M imi</w>
m kuu</w>
Af ric
U p
3 5</w>
to wer</w>
T ho
ak tari</w>
po le</w>
ain ia</w>
shu a</w>
er em
serv ants</w>
ug h
ki elelezo</w>
m us
d e</w>
ati zwa</w>
K up
ung e
j us
r ika</w>
ndi vyo</w>
G er
aliye kuwa</w>
ic k
ent al</w>
und a</w>
he ad</w>
r en
umb e</w>
tr av
p ati
ho spit
al ong</w>
uha kika</w>
u ro
is su
pro g
tu ki
n af
mas wali</w>
z ima</w>
w itn
ug ht</w>
or o</w>
go ing</w>
la ya</w>
mat aifa</w>
is t
v ari
un til</w>
Isa iah</w>
orinth o</w>
sh i</w>
form ation</w>
Wat ch
r afiki</w>
D es
ish e</w>
es pec
giv ing</w>
mak ao</w>
wo wote</w>
sa ge</w>
on ya</w>
j ect</w>
s k
ma in</w>
ku ru
id ent</w>
ur rec
watum ishi</w>
pur pose</w>
fe ar</w>
cer tain</w>
ndi o</w>
kup ita</w>
T hus</w>
g ed</w>
wa r</w>
at ur
po w
mat ter</w>
M A
ver bs</w>
in es</w>
follow ing</w>
e ful</w>
r ul
ina po
pi one
meet ings</w>
M is
o m</w>
t ’s</w>
S er
Kul ingana</w>
st ates</w>
S iku</w>
espec ially</w>
mo ved</w>
ch enye</w>
Jerusal em</w>
t engene
i ther</w>
ung ua</w>
milli on</w>
det er
anci ent</w>
ques tions</w>
shu le</w>
c ause</w>
m tume</w>
dis cus
ma ye</w>
b asi</w>
Isra eli
B asi</w>
k ile</w>
ma cho</w>
chang e</w>
s in</w>
l ong
f our</w>
an ishwa</w>
L et</w>
c y
ma eneo</w>
walio kuwa</w>
d ers</w>
f ikir
hit aj
er y</w>
y ou
vib aya</w>
H is
Al though</w>
o re
v yote</w>
and ikwa</w>
in d</w>
M ambo</w>
R ev
ma baya</w>
per fect</w>
So ci
el fu</w>
ura hia</w>
mon ey</w>
hab u</w>
k isha</w>
uli o</w>
kab ili</w>
langu age</w>
ap at
ungu za</w>
uju mbe</w>
S on</w>
read ing</w>
husi ana</w>
s ea</w>
pray er</w>
ongo zi</w>
res t</w>
n ext</w>
e yes</w>
Pro verbs</w>
Ca tho
pers on
ill ing</w>
J ap
n ations</w>
E ng
res urrec
hi hi</w>
memb ers</w>
clo se</w>
mi ongoni</w>
har ibu</w>
le m</w>
end ed</w>
Gre ek</w>
la w</w>
ma anisha</w>
ati maye</w>
di es</w>
a yansi</w>
spe ak
some one</w>
l ands</w>
comm un
to lewa</w>
f ikia</w>
re co
c k</w>
is ha
ch an
W af
es si
Y erusal
wasi o</w>
includ ing</w>
Sin ce</w>
Yerusal emu</w>
c ou
hu kumu</w>
G en
Bec ause</w>
ku elekea</w>
Mo ses</w>
ka a</w>
In ter
yen u</w>
un abii</w>
Watch tower</w>
it u</w>
as soci
tur ned</w>
u di</w>
n in
mili oni</w>
con d
tor s</w>
ma kubwa</w>
sha mb
em o
nili kuwa</w>
mp aka</w>
ana po
nam i</w>
c har
ab abisha</w>
nj e</w>
su g
nam o</w>
kum i</w>
hi zi</w>
lar ge</w>
le g
hes hi
ani ma
contin ue</w>
wali po
W as
ll eng
your self</w>
map enzi</w>
fe dha</w>
coun tr
Acc ording</w>
in s</w>
fun zo</w>
se en</w>
end aji</w>
ku ondo
ba d</w>
ha kik
suppor t</w>
es ted</w>
egem ea</w>
me d
t y
u hitaji</w>
th ous
A d
memb er</w>
A m
af iri</w>
B ro
man kind</w>
ther e
ondo o</w>
en joy</w>
av u</w>
lig h
wis dom</w>
W e
in s
and ishi</w>
er c
z ime
j itihada</w>
ear th
na yo</w>
hu wa
ma zuri</w>
so on</w>
on om
I li
ser ved</w>
me an
kam ilifu</w>
il e
z angu</w>
par ad
li me
E uro
kuwa saidia</w>
end ing</w>
tak en</w>
WAN A</w>
ish on
righte ous</w>
f ine</w>
t angu</w>
wa fan
i m</w>
Ku na</w>
c ase</w>
O n
saf i</w>
mbing u</w>
under stand</w>
situ ation</w>
g ari</w>
ag o</w>
K U
und isha</w>
ende zwa</w>
sa wa</w>
um u
ind ic
B WANA</w>
al in
sim il
um isha</w>
th us</w>
mat endo</w>
de p
ha d
y oni</w>
te aching</w>
hi ki</w>
ku ny
ra in</w>
ic es</w>
e qu
shar e</w>
ab o
relation ship</w>
j er
bar ab
ye t</w>
ne w
u kiwa</w>
trans l
n ight</w>
it ing</w>
heav en</w>
pos ition</w>
kuwa po</w>
z ako</w>
sh wa</w>
ya weza</w>
w ide</w>
m i</w>
qu ali
ho fu</w>
us iku</w>
re ve
bor n</w>
sa w</w>
hal f</w>
l ess
tum wa</w>
bap ti
if anya</w>
en ted</w>
i z
f ree</w>
dis t
n ational</w>
u ti
g es</w>
hu p
da i</w>
mat e</w>
mar afiki</w>
mwan a</w>
lik ely</w>
N d
tegem ea</w>
prob lem</w>
kuz ungum
ar ds</w>
vi p
an ifu</w>
ul ation</w>
kib inadamu</w>
k ini</w>
as u
iliyo pita</w>
vig umu</w>
iti ons</w>
C orinth
el ess</w>
receiv ed</w>
3 7</w>
tr ad
to keza</w>
ku k
aj iri</w>
hi ka</w>
br ought</w>
em i</w>
ev il</w>
el ders</w>
ta ifa</w>
te za</w>
j awa
as iri</w>
wa fu
d oub
R om
hir ika</w>
m n
O f</w>
A nd
ous ness</w>
diffic ult</w>
sa ying</w>
contro l</w>
re al</w>
t ia</w>
ch ed</w>
s ing
n or</w>
ma fundisho</w>
coun sel</w>
an t
mwanam ume</w>
ver ed</w>
ter ed</w>
Wak orintho</w>
ku elewa</w>
sen se</w>
ab ly</w>
st ruc
tal k</w>
u huru</w>
Whi le</w>
as s</w>
feel ings</w>
S ol
li es</w>
hus isha</w>
ser ving</w>
di wa</w>
pl a
et ting</w>
las ting</w>
ki kundi</w>
el ation</w>
pro f
ub u</w>
h and
S im
A T
kip indi</w>
in flu
atten tion</w>
heav enly</w>
Mu umba</w>
i ya</w>
Corinth ians</w>
tak ing</w>
cha lleng
hu fanya</w>
E N
in ted</w>
fa ida</w>
ali yo
wan as
wa aminifu</w>
li ki</w>
ri es</w>
fun uo</w>
z isi
1 4
m y
ku fuata</w>
za wa
bapti zed</w>
sur a</w>
z oni</w>
us h
n al</w>
mo to</w>
wic ked</w>
d on
C reat
ne eds</w>
L eo</w>
ki jana</w>
in vit
Jam es</w>
ut endaji</w>
f ikiria</w>
who le</w>
bro ther</w>
tu me
ul ts</w>
ul arly</w>
3 4</w>
U laya</w>
O N
ter n</w>
vit abu</w>
ans wer</w>
kil om
ku acha</w>
c as
p age</w>
magaz ine</w>
wali mu</w>
W ho</w>
I M
zawa di</w>
avo id</w>
F a
de ad</w>
spe ak</w>
at is
m fupi</w>
ama anisha</w>
ali pokuwa</w>
hi wa</w>
wan ted</w>
mak es</w>
af fec
Sh eria</w>
badili ko</w>
I nd
en ced</w>
id ed</w>
u ally</w>
op a</w>
in asema</w>
ng umu</w>
mes sage</w>
kuto keza</w>
m ind
wa shiriki</w>
p er</w>
li le</w>
r ing</w>
ku i
Ulimweng u</w>
Austr alia</w>
ib le</w>
tr ac
he wa</w>
v un
si kuzote</w>
n ’t</w>
spec ial</w>
is o</w>
an at
Af rika</w>
ans w
u adilifu</w>
li ter
prop he
resp ect</w>
U .
or ig
gr ap
hib iti</w>
r as
kut ana</w>
ar ding</w>
ac comp
grou p</w>
us t
g y
countr ies</w>
n atur
L e
angali fu</w>
es ti
L uka</w>
a hadi</w>
se x
K ig
mt azamo</w>
al amu</w>
ques tion</w>
n afsi</w>
ar e
kut a
s ent</w>
F am
ap er</w>
1 0
acc ording</w>
ir ia</w>
No w</w>
K ut
i cha</w>
ili ka</w>
proph ec
Kit abu</w>
g if
Ba adaye</w>
ku timiza</w>
f ru
ven tion</w>
um ani</w>
tr i
des ire</w>
e ase</w>
is ed</w>
N y
pro ve</w>
le ad</w>
i zo</w>
Je ws</w>
me an</w>
lin zi</w>
bar ua</w>
ma li</w>
lo lote</w>
kib inafsi</w>
Timo the
sim ply</w>
in formation</w>
Israeli tes</w>
m falme</w>
Timothe o</w>
M wa
Timo thy</w>
tuna po
U funuo</w>
Weng ine</w>
kam anifu</w>
Rev elation</w>
ak atifu</w>
zungum za</w>
chag ua</w>
iki ana</w>
or a</w>
pos ed</w>
cla im
cho te</w>
ar ri
on ce</w>
tuku fu</w>
y l
k ing
k evu</w>
M aj
our s</w>
w il
provid e</w>
ed uc
ch i</w>
lear ly</w>
Y ak
Tho se</w>
fam ili
L uke</w>
c am
C an</w>
ob o</w>
mo yoni</w>
b in
wr ong</w>
p ili</w>
op er
con sci
ano inted</w>
ab ility</w>
g ir
n it
ma la
mas kini</w>
u aminifu</w>
t able</w>
ar ing</w>
el d</w>
com ing</w>
a ve</w>
s la
kuli kuwa</w>
n ia</w>
ku fu
Creat or</w>
Un i
ongo zo</w>
che zo</w>
s ever
li m
coun try</w>
M al
w el
in c
de li
fi ed</w>
ye kevu</w>
W ao</w>
T a
1 00</w>
ali y
of fer
emb ea</w>
mis sion
z iki</w>
yali kuwa</w>
suffer ing</w>
ef fec
Sol om
Ar e</w>
us es</w>
ha z
Hi yo</w>
U ingereza</w>
l ine</w>
g und
un t</w>
uko sefu</w>
emb er</w>
ver se</w>
d habihu</w>
our selves</w>
repor ts</w>
on wa</w>
gro und</w>
tr ain
in ed</w>
di e</w>
d om
1 ,
ishon ari</w>
apo kuwa</w>
invol ved</w>
un ua</w>
ng ono</w>
wa j
D uring</w>
n ation</w>
ing anisha</w>
To day</w>
ill ustr
tu ba</w>
str ong</w>
marri ed</w>
Yak obo</w>
hur i</w>
Su ch</w>
no thing</w>
w ati
p ast</w>
um ivu</w>
por tun
je uri</w>
ing ira</w>
har iki</w>
cer tain
U na
Nd ugu</w>
A n</w>
bar aka</w>
le ’s</w>
ki j
fe et</w>
end e</w>
shi p
onyes hwa</w>
accoun t</w>
wa zi
s ign
ic k</w>
s l
h ous
s ita</w>
en jo
k new</w>
w ongo</w>
ach ed</w>
Soci ety</w>
19 5
ne ar</w>
fi ve</w>
ali t
pi cha</w>
kam ili</w>
re ly</w>
U N
rece ive</w>
Ac ts</w>
No t</w>
1 5
ul i</w>
yak ati</w>
kus ik
N yakati</w>
olo jia</w>
k ondoo</w>
hes himu</w>
ab udu</w>
histor y</w>
Catho lic</w>
comm on</w>
ku u
ex erc
com es</w>
ar ea</w>
wez esha</w>
b ac
fil led</w>
p ass
re st
S oma</w>
wa we</w>
ku epuka</w>
ish ed</w>
ex pec
emb e</w>
vin avyo
op portun
mala ika</w>
kin y
re main
mwen zi</w>
M n
Mat endo</w>
shir ika</w>
sec ond</w>
l ina
I b
mon ths</w>
t om
Re ad</w>
wor ks</w>
whe ther</w>
mil es</w>
T unaweza</w>
f er</w>
mo ve</w>
Ha kuna</w>
iki o</w>
if ic
ap poin
ri poti</w>
al ready</w>
um ilia</w>
ev ile</w>
uz ito</w>
thin king</w>
kaz ia</w>
he ad
b as
O r
heshi ma</w>
I na
gre at
ig ned</w>
ta ught</w>
simil ar</w>
bi ashara</w>
mi p
a ha</w>
H al
eng wa</w>
T ru
prot ec
I S
ung o</w>
thibit isha</w>
mo der
kub ali
in al</w>
sur vi
of fic
ha m</w>
c hurch</w>
wor k
u fu</w>
is hia</w>
fol low</w>
tur al</w>
pe ke</w>
pri vil
wap a</w>
em ents</w>
benef it</w>
pub lic</w>
loc al</w>
isi ons</w>
ig o</w>
ut ed</w>
wali p
bec om
H er
an sa</w>
yak azi</w>
ut awala</w>
Con sid
A damu</w>
reco g
G e
nec ess
hek al
wan at
sug g
ma adili</w>
Jo se
jer umani</w>
star ted</w>
min ifu</w>
ak am
af iti</w>
kut afuta</w>
Kig iriki</w>
t on</w>
am o
hear d</w>
mi ezi</w>
j oto</w>
c ur
b ased</w>
st re
pl an
occ asi
F e
t ell</w>
et ea</w>
am ri</w>
hu j
Abra hamu</w>
onge zea</w>
sh inda</w>
m no</w>
iti ve</w>
Do es</w>
wafu asi</w>
kuto sha</w>
fikir a</w>
u we</w>
Ndi yo</w>
kwa o</w>
th i</w>
ange weza</w>
u falme</w>
en ea</w>
conduc t</w>
ath iri</w>
ik ati</w>
de dic
Rom ans</w>
m simam
vili vyo
our ce</w>
S ep
long er</w>
ful f
J an
tr uc
ir ani</w>
C en
l ec
with in</w>
is hara</w>
inst ruc
hu kua</w>
ili vyo
M w
lo st</w>
z ile</w>
u kumb
mor al</w>
m ny
form ed</w>
C ar
phys ical</w>
circ um
The ir</w>
prin ciples</w>
natur al</w>
awa li</w>
zili zo</w>
u als</w>
wazi wazi</w>
re fl
uki o</w>
u wongo</w>
jawa po</w>
ang am
da m</w>
as ure</w>
W al
giv es</w>
Y a
hel d</w>
an ’s</w>
B e</w>
hus ema</w>
s um
tel ev
mater ial</w>
inter est</w>
k ina</w>
wasi o
hap a</w>
ex ic
T una
val u
i poti</w>
yo o
kut enda</w>
kan isa</w>
lab da</w>
Wat oto</w>
z aliwa</w>
ndo go</w>
gr amu</w>
Par ad
p h</w>
hig h
mwen endo</w>
I m
ti on
m ta
fal se</w>
and o</w>
N ini</w>
p ite</w>
f lo
Pe ople</w>
ung uka</w>
mwa minifu</w>
m li
re keb
um la</w>
m id
s atis
cle ar</w>
L ord</w>
La w</w>
v yenye</w>
s mo
att itude</w>
l etu</w>
f av
O na</w>
cho chote</w>
ic ha
eli mu</w>
cr im
and aa</w>
ar ies</w>
respon sib
dis ci
K wanza</w>
ma kosa</w>
ev idence</w>
par tic
ho l
sa hihi</w>
ar rang
govern ment</w>
19 7
ma endeleo</w>
kup endeza</w>
ma umivu</w>
mag onjwa</w>
Br az
tr a
th an
po teza</w>
A y
o t</w>
Consid er</w>
t ou
naf asi</w>
kuf ikiri</w>
k ali</w>
u kawaida</w>
H ar
m enti
r a</w>
pl ay</w>
for ts</w>
tak es</w>
n im
enti f
u ku
b al
kur u</w>
vi wango</w>
R es
A R
ra ther</w>
vi ew
od s</w>
l y
ita wisha</w>
hi mi
ma andiko</w>
fa il
n yo
k en</w>
i res</w>
ha wa</w>
k wetu</w>
aj i
ab ab
isi yo
ac tion</w>
lili lo</w>
tu kia</w>
ith i</w>
adu i</w>
da ugh
tr ust</w>
tab ia</w>
le ave</w>
al one</w>
u amuzi</w>
m ji</w>
deter min
z uia</w>
er ous</w>
em or
sim ulizi</w>
ho ld</w>
go t</w>
tem ple</w>
ko di</w>
M exic
ne igh
obe di
hi f
i mag
wez ek
v y
mat ters</w>
kim ungu</w>
ma v
ma hitaji</w>
is aidia</w>
u ka
up a</w>
ser ious</w>
mo un
m changa</w>
u angalifu</w>
s am
es is</w>
du ce</w>
olo g
m dogo</w>
War oma</w>
sho ws</w>
to kana</w>
has ira</w>
o a</w>
re sear
kut ambua</w>
fri end</w>
er t</w>
H ab
me di
ku chukua</w>
ung aji</w>
sho wed</w>
ch embe</w>
repor t</w>
per haps</w>
inge weza</w>
e dom</w>
te ach</w>
d ri
wor king</w>
wez ekana</w>
wak fu</w>
sever al</w>
im p
anz isha</w>
menti oned</w>
C an
tru ly</w>
re fer
bo o
kuzungum za</w>
re main</w>
M tume</w>
tain s</w>
se mb
certain ly</w>
Jo b</w>
ku ch
U naweza</w>
A M
S hahidi</w>
R us
kat ikati</w>
en ess</w>
amb ako</w>
Q u
J ew
ma ch
g a</w>
az wa</w>
ke ep
en a</w>
mi o
kind ness</w>
Na am</w>
w id
laz im
k m</w>
appe ar
wen zi</w>
u ji
e e</w>
Ro man</w>
L ife</w>
t as
re turn</w>
b ab
n uru</w>
dr in
mu ziki</w>
div ine</w>
vil evile</w>
sa id
ati c</w>
m im
ag ing</w>
trav el
s ons</w>
it ate</w>
tu kiwa</w>
dis ease</w>
explain s</w>
ma wazo</w>
buil ding</w>
I ’
us u</w>
promis e</w>
K e
if un
hu t
ak ari</w>
righte ousness</w>
le v
kuf ikiria</w>
kab iliana</w>
Ay ubu</w>
Se e</w>
Hebre w</w>
saf ari</w>
pro ved</w>
kut a</w>
con tr
E R
harib i</w>
Mn ara</w>
f ish</w>
t ation</w>
li ved</w>
issu e</w>
fura hia</w>
follow ers</w>
Waz azi</w>
barab ara</w>
as wi</w>
Be th
pre par
wap o</w>
Jew ish</w>
cy clo
Mwan zo</w>
5 00</w>
ho m
kus hiriki</w>
vers ity</w>
E gy
des tro
S a
jud g
sou l</w>
kum tumikia</w>
ele ka</w>
Ind ia</w>
h ind
abo ve</w>
N or
A ng
hekal u</w>
individ uals</w>
ele keo</w>
we ze</w>
mw ongozo</w>
M b
ke pt</w>
h ema</w>
pro c
ter r
kilom eta</w>
fa hamu</w>
TH E</w>
in at
A dam</w>
ongo zwa</w>
wa kit
3 9</w>
ak asema</w>
writ ten</w>
shi kamanifu</w>
mean ing</w>
ali fanya</w>
kik am
R oma</w>
p indi</w>
wa v
moder n</w>
kum husu</w>
kim oja</w>
it self</w>
isi yo</w>
R ather</w>
Witn ess</w>
u chunguzi</w>
j ika</w>
li ed</w>
p are</w>
au ti
I t
est ab
explain ed</w>
y am
v al</w>
kat a</w>
tur i</w>
prophe t</w>
lo ved</w>
recog ni
provid ed</w>
if u
ali s
si x</w>
there fore</w>
ito she</w>
stan ces</w>
qu e</w>
k isi
vi umbe</w>
und s</w>
thibit isho</w>
j aa</w>
gre ater</w>
en ough</w>
pra y</w>
r on
tum ika</w>
azam ia</w>
as isi</w>
maz ingira</w>
h ours</w>
m wang
m o</w>
D is
A L
zo ezi</w>
1 6
pub lic
i j
L ond
m wezi</w>
S i</w>
si ons</w>
fu o</w>
ku ng
hus ika</w>
up e</w>
hif adhi</w>
de ep</w>
z u
reas on
continu ed</w>
nam ed</w>
organi zation</w>
M linzi</w>
tun apaswa</w>
ru le</w>
ma badiliko</w>
F ikiria</w>
u husu</w>
ba hari</w>
ku anza</w>
ki wango</w>
av ing</w>
Is itoshe</w>
Wat ch</w>
ut u</w>
man u
ma zoezi</w>
ak is
d ro
ud ia</w>
ku kubali</w>
Tim es</w>
j uma</w>
Gen esis</w>
t an
y arisha</w>
fl es
Afric a</w>
k ingdom</w>
n ikiwa</w>
m zee</w>
ep enda</w>
3 6</w>
tor y</w>
s le
oko a</w>
W ale</w>
v ingi</w>
A no
cro w
uli op
al most</w>
V ita</w>
karib ia</w>
ch ing</w>
al ed</w>
any one</w>
Abra ham</w>
ro w</w>
n ye
Weng i</w>
ras mi</w>
p ya</w>
To wer</w>
t wa
chang am
ever lasting</w>
mat eso</w>
ma ar
ik awa</w>
author ity</w>
w i
b an
z idi</w>
Man eno</w>
J i
k om
im arisha</w>
b inadamu</w>
ef fort</w>
Bab yl
thous ands</w>
ho tuba</w>
ga in</w>
r ap
sim u</w>
ol der</w>
isha ji</w>
dis co
under standing</w>
h und
ang aza</w>
resurrec tion</w>
hat u
cle an</w>
M ama</w>
z im
at o</w>
sur pris
milli ons</w>
br an
any thing</w>
sacrif ice</w>
t es
Ku toka</w>
z iwa</w>
m ed</w>
an zia</w>
sp ired</w>
se em</w>
y af
ma elfu</w>
se qu
happ iness</w>
wa si</w>
Mi aka</w>
ku chunguza</w>
id e
U jerumani</w>
m si
M ad
G ile
ev en
c all</w>
Wa ebrania</w>
zungum zo</w>
z iko</w>
yen yekevu</w>
m en
g lo
av es</w>
ma zungumzo</w>
Mo st</w>
Mexic o</w>
kuj enga</w>
ef fect</w>
H at
r up
p ain</w>
g ha
an n
vif aa</w>
umb o</w>
we ek</w>
En cyclo
hir ikiana</w>
at ibu</w>
19 6
E S
n inyi</w>
ec h</w>
sh ere
M ith
ze ki
In deed</w>
19 14</w>
h ands</w>
ato a</w>
P hili
B .
she ep</w>
ma ju
g har
don ’t</w>
Br it
ic ally</w>
ef forts</w>
W ill</w>
c el
wa ovu</w>
ough out</w>
ma andishi</w>
ha vi
anima ls</w>
c at
ap a</w>
hitaj iwa</w>
N in
vis it</w>
ong a</w>
op en</w>
C hurch</w>
z ina
tre at
s ig
kus hughuli
o t
mo jawapo</w>
O R
Lond on</w>
endele e</w>
streng th</w>
tic s</w>
spiritu ally</w>
fur ther</w>
ci p
Ku mb
ac hi
H ali</w>
hu tumia</w>
con trib
le ast</w>
az ungum
ma l
kud umisha</w>
inge kuwa</w>
s wali</w>
o s</w>
peri od</w>
M ed
G u
er ’s</w>
Mith ali</w>
G azeti</w>
ar aj
wa f
tu ries</w>
ma l</w>
b ed</w>
S ab
th ir
w in
z ito</w>
activ ity</w>
W ag
tu na</w>
st ated</w>
accep t</w>
m ga
u kweli</w>
sab a</w>
al low
3 8</w>
shind wa</w>
ish eni</w>
gund ua</w>
famili es</w>
quali ties</w>
fi eld</w>
con clud
av ail
vari ous</w>
ku nd
M il
F r
ra m</w>
pat ikana</w>
new sp
ul u
u ch
ili si</w>
pow erful</w>
hes abu</w>
eas y</w>
prac tic
em e
A I
comm and
Tru e</w>
wap aswa</w>
to t
ha kuwa</w>
t ajwa</w>
apost les</w>
S ci
J u
n usu</w>
m ema</w>
in spired</w>
Kan isa</w>
ili ties</w>
ph er
un ia</w>
Ba adhi</w>
mio yo</w>
fre edom</w>
mat unda</w>
ut ano</w>
viol ence</w>
t ani</w>
we ek
sex ual</w>
kuz uia</w>
kut af
ku ingia</w>
ha ya
every thing</w>
dec lar
F ir
if a
de ep
e he</w>
com fort</w>
bin ti</w>
wez aje</w>
reg arding</w>
im ara</w>
ghu li</w>
ak it
U r
usi on</w>
mwen do</w>
em e</w>
d en
K azi</w>
speak ing</w>
prophec y</w>
it es</w>
par ts</w>
uz ima</w>
ku hudhuria</w>
ar ia</w>
al th</w>
sis ters</w>
on ea</w>
m ental</w>
k ote</w>
zili kuwa</w>
8 0</w>
ali zi</w>
ha u
commun ic
over se
ric h</w>
f ika</w>
U g
mb wa</w>
kuli wa</w>
zo e
meet ing</w>
Americ an</w>
pre v
im ama</w>
circum stances</w>
pur su
m ti</w>
z it
pione er</w>
us ually</w>
f as
san amu</w>
h un
bir th</w>
ig wa</w>
d am
juli kana</w>
shi ps</w>
l ao</w>
il ini</w>
mam ilioni</w>
wafan yakazi</w>
s w
lo g
ang er</w>
2 00</w>
yasi yo
ti onal</w>
ura hisi</w>
ha zi
v ation</w>
u tukufu</w>
n ne</w>
mim ea</w>
sal ama</w>
Ano ther</w>
u uza</w>
Dani el</w>
uli zo</w>
ste ad</w>
describ ed</w>
avail able</w>
H all</w>
sis ter</w>
p endeleo</w>
p ania</w>
p ages</w>
he ar</w>
h y
L ike</w>
st at
kuwa s
ku sta
j itahidi</w>
fu la</w>
consid ered</w>
c hur
of isi</w>
boo ks</w>
you ths</w>
ind o</w>
A S
far ansa</w>
ku weka</w>
wali vyo
sla ve</w>
im pres
ke zwa</w>
M ap
val ue</w>
doub t</w>
who se</w>
wan apaswa</w>
ny uma</w>
congreg ations</w>
ana y
en em
us io</w>
mat ukio</w>
m r
Paul ’s</w>
ul ana</w>
ur ity</w>
al low</w>
1 7
er gy</w>
C H
umu iya</w>
let ter</w>
Jose ph</w>
for ce</w>
ev ents</w>
re member</w>
N jia</w>
li er</w>
des truc
u thibitisho</w>
C ol
A wake</w>
end esha</w>
kuny wa</w>
ing ine
lo v
J umba</w>
fore ver</w>
atu res</w>
ho we</w>
shu ghuli</w>
is im
sha mba</w>
Eng lish</w>
r ac
kus ali</w>
ut es</w>
ma kusudi</w>
po or</w>
w ishi</w>
t ary</w>
Ma y</w>
ro le</w>
in ten
A na
sing le</w>
ha u</w>
badili ka</w>
at wa</w>
tain ed</w>
sha ll</w>
hakik isha</w>
dem on
Ib ilisi</w>
ke zo</w>
har mon
mg onjwa</w>
stud ents</w>
J insi</w>
F ran
z ing</w>
uji za</w>
ik a
Jan u
ri ed</w>
ku le
Ki ebrania</w>
experi enced</w>
is ing</w>
us o</w>
spo ke</w>
witn ess</w>
og opa</w>
cho o
s ource</w>
al ing</w>
th eless</w>
mb in
ma amuzi</w>
ed ing</w>
p ain
op e</w>
amb uki
Y A</w>
Th ere
us ho</w>
pers ec
mit ume</w>
mga wo</w>
ame he</w>
e ge</w>
V ivyo</w>
wa yo</w>
pub lished</w>
m eta</w>
hel ps</w>
Vi jana</w>
Hebre ws</w>
t emp
sik ia</w>
n ak
f ig
am p
U K
K .
z ip
at ever</w>
y u</w>
ul u</w>
plac es</w>
hear ts</w>
F in
et er
k r
en u</w>
ad uni</w>
p aswa</w>
ma wili</w>
gu id
opportun ity</w>
S isi</w>
succ ess
kuv un
jus tice</w>
ru husu</w>
n abii</w>
ma shauri</w>
harib iwa</w>
K wenye</w>
In stead</w>
be auti
acc ur
th ali</w>
hus usa</w>
ak ina</w>
Mar y</w>
K. W.K</w>
it isha</w>
t ent</w>
l eni</w>
sib a</w>
heav ens</w>
As ia</w>
tr ied</w>
kum wa
B. C.E</w>
th ough
ill s</w>
wasi wasi</w>
v ision</w>
n ina
ma s</w>
f ikiri</w>
che o</w>
appoin ted</w>
usal ama</w>
taf uta</w>
cen turies</w>
ch em
ag ement</w>
h ati</w>
M essi
mit i</w>
me t</w>
kuru di</w>
harib ifu</w>
dec ision</w>
N am
world wide</w>
r end
dar aka</w>
ma sh
S tu
tuna yo
j eshi</w>
b and
l ack</w>
Euro pe</w>
A mk
Fir st</w>
ak ika</w>
influ ence</w>
h ind</w>
Amk eni</w>
mag umu</w>
yoo fu</w>
kikam ili</w>
n go
mwan d
H ence</w>
E ph
we za
wa st
amb uli
St ill</w>
K um
C ha
p en
o p</w>
gif t</w>
m ing</w>
am s</w>
mi wili</w>
Mwa ka</w>
4 5</w>
W enye</w>
s us
ma shu
Mak ala</w>
A t
newsp aper</w>
m namo</w>
ass ign
ac tually</w>
S outh</w>
G r
wal k</w>
re ach</w>
par ent</w>
ent ists</w>
k ando</w>
s or
Solom on</w>
yana weza</w>
ther ’s</w>
kup unguza</w>
H el
cr it
us hahidi</w>
mik ono</w>
car e
u hi</w>
mwan zoni</w>
ha y
ur afiki</w>
conf idence</w>
wor ship
ta wi</w>
off er</w>
necess ary</w>
kupat ana</w>
gha fula</w>
ud isha</w>
se ems</w>
activ ities</w>
wati wa</w>
tu p
de al</w>
wan aj
are as</w>
Bib le’s</w>
ku fany
in avyo
as t
W A
J ust</w>
ki mbingu</w>
an x
am ia</w>
ep ata</w>
ca used</w>
uha li
kutu saidia</w>
promis es</w>
my self</w>
accep ted</w>
ku kosa</w>
huz un
Ku wa</w>
taf siri</w>
jo b</w>
V er
uk ia</w>
cre ated</w>
W am
B er
ita wi</w>
h atimaye</w>
al on
on ’s</w>
kas kazini</w>
car ry</w>
a h’s</w>
se em
engene za</w>
form er</w>
st s</w>
so m</w>
uv utano</w>
pro mo
li mit
kuf undisha</w>
hum i</w>
kule vya</w>
som o</w>
o ted</w>
hanga iko</w>
a hidi</w>
L ab
st ate</w>
cl ass</w>
an avyo
ne y</w>
mag ari</w>
it al</w>
g etting</w>
ec ted</w>
ag izo</w>
wond erful</w>
W ar</w>
K ab
tu ta
stand ards</w>
uc humi</w>
fir e</w>
a id
n asi</w>
T or
kud umu</w>
ho to</w>
w illing</w>
mis sion</w>
lear ning</w>
9 0</w>
u el</w>
mav azi</w>
ho od</w>
world ’s</w>
ufu fuo</w>
s ote</w>
mz ima</w>
F ur
Chris t’s</w>
vit al</w>
ug g
t ree</w>
himi za</w>
do la</w>
D evil</w>
ye ji</w>
mwa mbia</w>
artic les</w>
gro w</w>
some times</w>
med ical</w>
kis asa</w>
at s</w>
Mis ri</w>
reg ular</w>
ku ku
hat ia</w>
S te
vir on
com par
ak wa</w>
j ini</w>
re pres
kumb usha</w>
for th</w>
fri end
hu mb
ag re
t ism</w>
fan ikiwa</w>
demon str
buil t</w>
bran ch</w>
a weza</w>
O f
sh ort</w>
chang es</w>
D id</w>
wan da</w>
o mbe</w>
j our
lo t</w>
wag onjwa</w>
ku naweza</w>
da ily</w>
st ep
buil d</w>
adv ice</w>
thr oughout</w>
lo s
ip a</w>
believ ers</w>
la ws</w>
hu ku
es eka</w>
rec ord
l er</w>
l ako</w>
inst ance</w>
tengene zo</w>
p sal
ita kuwa</w>
de fin
E zeki
uj asiri</w>
u ki</w>
dec ided</w>
Mwan am
te gr
e at</w>
wa d
dha m
prop er</w>
af f
judg ment</w>
j o</w>
hu onyesha</w>
S hu
sto p</w>
pray ers</w>
pos s
star t</w>
kuv utia</w>
ac qu
se ek</w>
me et</w>
lin asema</w>
ali toa</w>
U faransa</w>
wa amini</w>
plac ed</w>
ap ply</w>
T u
v ely</w>
U nd
S y
Mar ia</w>
mor ning</w>
kup iga</w>
Y uda</w>
lar g
a ut
m we
gl ory</w>
b al</w>
v ingine</w>
ku hani</w>
in zani</w>
u tiwa</w>
d ness</w>
at us
o liki</w>
a ir</w>
le y</w>
kuj it
in i
hur uma</w>
I K
zili z
ukumb u</w>
enti re</w>
m eli</w>
ku husiana</w>
c learly</w>
f all</w>
chap ishwa</w>
bless ing</w>
ali onyesha</w>
Ali kuwa</w>
sam aki</w>
e ing</w>
ath iriwa</w>
u ovu</w>
A g
mad hara</w>
ku kabiliana</w>
b ru
az ia</w>
ut ak
kut embea</w>
po t
kuwa ko</w>
fan ikio</w>
onyes ho</w>
Eph es
shu leni</w>
ma we</w>
wag eni</w>
wa saidia</w>
uko o</w>
kutu miwa</w>
cor rec
complet e</w>
pres sure</w>
pr im
in ning</w>
L az
K ar
p y
ha mia</w>
every one</w>
Dani eli</w>
ro om</w>
kisi asa</w>
mir ac
af aa</w>
um izi</w>
par ti
ac tions</w>
educ ation</w>
ari ji</w>
ic a</w>
M uda</w>
privil ege</w>
ma fanikio</w>
rec ent</w>
loy al</w>
il oni</w>
hon or</w>
aka yo
K im
zungum zia</w>
sub ject</w>
list en</w>
ha uri</w>
s even</w>
vi kundi</w>
st or
id es</w>
hud umu</w>
do or</w>
y ar
Mar k</w>
reg ard</w>
th awa
ba har
za a</w>
p ut
ili vyo</w>
exerc ise</w>
it ikia</w>
ick ly</w>
S om
z aburi</w>
on yo</w>
ear lier</w>
L ater</w>
poli tical</w>
ma kutaniko</w>
iliyo kuwa</w>
cas es</w>
Amer ika</w>
H I
soci al</w>
one ’s</w>
off ice</w>
mv ua</w>
ma elezo</w>
K weli</w>
mus ic</w>
end ea</w>
H O
an c
id hamu</w>
ura hi</w>
amb i</w>
go dly</w>
telev isheni</w>
happ ened</w>
No a</w>
F o
res ults</w>
po to
hu l
gi on</w>
H awa</w>
teach ings</w>
k ari</w>
ag e
add ed</w>
kus ikia</w>
m et
bus ara</w>
uj umla</w>
ang wa</w>
P ol
lang o</w>
repor ted</w>
ir s</w>
disci pl
d ed</w>
afan ua</w>
k wangu</w>
ef s</w>
concer n</w>
U. S</w>
she pher
beauti ful</w>
hu ka</w>
g ar
answ ers</w>
pe dia</w>
n iki
cop e</w>
K is
u cha
mig uu</w>
un e</w>
m siba</w>
Hab ari</w>
re le
ku shinda</w>
kil led</w>
ig ana</w>
egem eza</w>
su per
offer ed</w>
ol s</w>
des turi</w>
ib abu</w>
ito a</w>
J erem
pe po</w>
ever theless</w>
con vention</w>
K ati</w>
mashu huri</w>
im medi
A kiwa</w>
ku andika</w>
et h</w>
ak o
4 4</w>
yasi yo</w>
occ ur
main tain</w>
ma le</w>
d aktari</w>
H A
ther n</w>
devel op</w>
be hind</w>
E d
tu we</w>
S cho
sto od</w>
em wa</w>
wen u</w>
so und</w>
ong ea</w>
emb elea</w>
chang ed</w>
cen tr
D ec
prac tice</w>
N A</w>
record ed</w>
C hild
in tegr
end eleza</w>
daugh ter</w>
us hwa</w>
I I</w>
z ika</w>
ut ar
to wn</w>
jec ts</w>
direc tion</w>
chan zo</w>
K if
though ts</w>
ku o
d re
ar t</w>
appreci ation</w>
Fam ilia</w>
el se</w>
cul tiv
3 00</w>
train ing</w>
sil aha</w>
Be fore</w>
in hab
and uku</w>
s ight</w>
bar idi</w>
as ub
usi o
pre c
er a</w>
saf iri</w>
P r
ur a</w>
treat ment</w>
comm it
che wa</w>
t ment</w>
st ay</w>
sec re
H atimaye</w>
includ e</w>
in deed</w>
T angu</w>
responsib ility</w>
pris on</w>
igh ty</w>
ev a</w>
ard hi</w>
wo ko
co ho
0 0,000</w>
ir ika</w>
S ul
I T
wan avyo
re turned</w>
re jo
cre ation</w>
wa je</w>
kut aka</w>
exam ples</w>
199 0</w>
shu kuru</w>
s c
m zazi</w>
or od
and am
ag uzi</w>
wa fu</w>
on y</w>
appreci ate</w>
ad es</w>
su n</w>
re mind
Ma isha</w>
re hema</w>
Ku fikia</w>
ar eti</w>
c le</w>
kund u</w>
Ab out</w>
fan ye</w>
bless ings</w>
wond er</w>
up ya</w>
to b
fles h</w>
azim ia</w>
appro pri
M ore</w>
mi chezo</w>
dham iri</w>
ach e</w>
mali za</w>
consid er
u haribifu</w>
m tumwa</w>
i ze</w>
um ati</w>
u refu</w>
suf fer</w>
n ers</w>
we ke</w>
ung ano</w>
und ed</w>
promis ed</w>
ch eni</w>
ug s</w>
ang els</w>
z ik
Kus ini</w>
w ingi</w>
Ha ve</w>
un yenyekevu</w>
sik iliza</w>
s et
ro ad</w>
ne t</w>
ad hali</w>
hous eho
Up endo</w>
nyo ta</w>
wa chache</w>
chang ia</w>
Gre at</w>
Com m
reas ons</w>
mar adhi</w>
qu ickly</w>
A le
ere zani</w>
at or</w>
wa changa</w>
e ither</w>
un avyo
no ted</w>
mak ini</w>
ik aji</w>
destruc tion</w>
cou ple</w>
um iwa</w>
determin ed</w>
ang uka</w>
prog ram</w>
a ’s</w>
incre as
ga ther
en n
R ep
was ili
wap i</w>
vic hapo</w>
M t
v isa</w>
iv es</w>
f uliwa</w>
ac ts</w>
Phili p
l ad
el l
um ili
se par
mw elekeo</w>
y ond</w>
harmon y</w>
em ani</w>
Scrip tural</w>
asub uhi</w>
Mo re
K a
mw ovu</w>
reg ularly</w>
b udu</w>
M in
v ill
b ul
ma ha
iti onal</w>
D i
ish oni</w>
fo c
A cheni</w>
kus ini</w>
shamb ani</w>
da ima</w>
Me thali</w>
prac tical</w>
parad iso</w>
mp ango</w>
ac y</w>
und o</w>
add ition</w>
We we</w>
ondo a</w>
en viron
cond itions</w>
ny ingine
kum p
kuj aribu</w>
hi ri</w>
sho wn</w>
maj or</w>
tu mi
t waweza</w>
or o
in v
b atizwa</w>
ifun ze</w>
ec onom
ple as
n zima</w>
mat es</w>
l angu</w>
se ek
gr at
pro gramu</w>
chap ter</w>
ra ised</w>
t est</w>
M us
ma zoea</w>
loo king</w>
f y</w>
W ith
py uta</w>
pro duce</w>
u aji</w>
m kat
ik isha</w>
de pres
R ob
N evertheless</w>
Ku husu</w>
tel ls</w>
j ali</w>
ad ili
wan ap
mbin u</w>
rekeb isha</w>
dra w</w>
Mas hariki</w>
pro sp
langu ages</w>
fur sa</w>
apat ikana</w>
loc k</w>
atten d</w>
Be the
up esi</w>
ple ase</w>
m er</w>
kub adili</w>
T e
umb aji</w>
fore told</w>
Th ough</w>
Kab la</w>
kuondo a</w>
Y erem
liter ature</w>
Yerem ia</w>
hel ping</w>
kwa weza</w>
ak ab
y as
o w
an ity</w>
P l
allow ed</w>
se x</w>
vi ongozi</w>
neigh bor
M namo</w>
prot ect</w>
Ger many</w>
sin s</w>
per fec
uhali fu</w>
S hirika</w>
ic t</w>
g erezani</w>
ele zi</w>
Sul emani</w>
p ay</w>
becom ing</w>
dec isions</w>
at ors</w>
Fe bru
v ya
msimam o</w>
P as
A p
mk azo</w>
encour aged</w>
ad e</w>
4 2</w>
g ri
develop ed</w>
C ity</w>
n idhamu</w>
consci ence</w>
t ambua</w>
U si
pub lish
pre ach</w>
gir l</w>
maj aribu</w>
com for
S t</w>
ta r</w>
be havi
ku chu
M kuu</w>
kuz aliwa</w>
kus itawisha</w>
m kutano</w>
feel ing</w>
Ro ho</w>
R u
th ab
ali tumia</w>
thab iti</w>
s ign</w>
inter ested</w>
al au</w>
reali ze</w>
beg inning</w>
nik a
mi mba</w>
vyo mbo</w>
rel ated</w>
i ashara</w>
nili po
manu faa</w>
pos itive</w>
ris k</w>
ne ither</w>
R ec
st ari</w>
ngo zi</w>
ku tii</w>
fir m</w>
H app
mar e
m ine</w>
in her
More over</w>
qu ality</w>
wen zake</w>
an ish</w>
S .
lo gy</w>
l asema</w>
utar atibu</w>
no tes</w>
ch ungaji</w>
ke y</w>
h y</w>
ele kwa</w>
c ities</w>
There fore</w>
arri ved</w>
O thers</w>
s crip
ran som</w>
ou d</w>
res sed</w>
occasi on</w>
bas is</w>
Som e
temb elea</w>
parad ise</w>
c ar</w>
kus anya</w>
in ing</w>
preci ous</w>
ex per
enjo yed</w>
ondo ka</w>
nyingine zo</w>
en e</w>
kuf urahia</w>
ku me
sp ent</w>
ne arly</w>
spec ies</w>
msi chana</w>
ku amini</w>
ki kubwa</w>
im itate</w>
n ature</w>
ali mw
if ic</w>
zisi zo
spe ech</w>
enti al</w>
de f
incre ase</w>
bap tism</w>
T unapo
M ach
pra ise</w>
C hi
p ped</w>
a wi</w>
any wa</w>
Bethe l</w>
ur ithi</w>
Egy pt</w>
wam es
mag azeti</w>
pop ulation</w>
n ad
kuv umilia</w>
lead ers</w>
kus hirikiana</w>
en ter
ac tive</w>
W ap
D S</w>
k wani</w>
ju i</w>
Uni versity</w>
wat atu</w>
shere he</w>
gr and
cond ition</w>
rec ord</w>
poli si</w>
huz uni</w>
asi ye
kr ani</w>
am o</w>
Sam uel</w>
mat ibabu</w>
im mor
co ven
um iza</w>
u zwa</w>
thir d</w>
stud ying</w>
r id
p hi
kut azama</w>
kab ila</w>
um i</w>
s it
con struc
F ar
wor ked</w>
grou ps</w>
be yond</w>
af siri</w>
ku cho
ka wa</w>
k ish
follow ed</w>
tr ying</w>
kul eta</w>
ende zi</w>
k ambi</w>
gr adu
at aifa</w>
out side</w>
maar ufu</w>
aj ibu</w>
R a
wan af
und e</w>
R eli
R E
tuli kuwa</w>
st ra
mon th</w>
stu dies</w>
yo ung
tun avyo
ta hili</w>
ta ar
mif ano</w>
earth ly</w>
att le</w>
appropri ate</w>
th i
fr on
unao faa</w>
tu t
sim ple</w>
mission ary</w>
ir isha</w>
ak awa</w>
Fr ance</w>
wa abudu</w>
nak ala</w>
on y
ki mb
crow d</w>
Beth eli</w>
na we</w>
anz ishwa</w>
wana om
su ala</w>
t ano</w>
j apokuwa</w>
great est</w>
even tually</w>
al coho
2 ,
st it
o w</w>
cla im</w>
tuki o</w>
kus ababisha</w>
W I</w>
U S
Lab da</w>
C our
iki e</w>
ma dogo</w>
ki hisia</w>
an ces</w>
Nili kuwa</w>
resp ond
provid es</w>
man if
hom es</w>
or ity</w>
challeng e</w>
Per haps</w>
M wenye</w>
ud ongo</w>
f ind
A ug
soci ety</w>
sec urity</w>
ku ti
we kea</w>
kili kuwa</w>
s ia</w>
ku na
hi hir
ali anza</w>
tain ing</w>
sel y</w>
ill ment</w>
al ty</w>
U chunguzi</w>
S aul
s en</w>
pat wa</w>
2 ,000</w>
Chris tend
ko mbo
Pro f
te ch
resp ond</w>
ku shang
kom pyuta</w>
ex tre
an ced</w>
h em
Sat an’s</w>
Yo ung</w>
I A</w>
wa kili
emo tional</w>
W ould</w>
char ac
ak at
ha wana</w>
kno ws</w>
cour age</w>
Ke ep</w>
we ak
con vin
beli efs</w>
M on
Yo sefu</w>
ro ss</w>
coven ant</w>
6 5</w>
hu toa</w>
b aki</w>
sub ira</w>
in fec
hawa wezi</w>
yat a
re ds</w>
psal mis
el der</w>
wange weza</w>
E R</w>
p un
individ ual</w>
f ish
Sim il
Ki ingereza</w>
si an</w>
Ba hari</w>
ul in
E ve</w>
uta kuwa</w>
ag ano</w>
P ha
dis as
N ational</w>
Jerem iah</w>
wan ts</w>
m om
ali ona</w>
work ers</w>
appe ar</w>
pri ests</w>
nj aa</w>
ar aka</w>
L u
C har
orig inal</w>
ng ’
invit ed</w>
h our</w>
choo se</w>
ku pokea</w>
id ea</w>
g ing</w>
E ach</w>
th reat
hawa kuwa</w>
ad s</w>
t ong
tab iri</w>
asu aji</w>
A u</w>
ust adi</w>
integr ity</w>
ngu o</w>
fa uti
Com pare</w>
st i</w>
qu ite</w>
ent i</w>
an ti
y le</w>
succ ess</w>
Bab iloni</w>
ch ers</w>
c ut</w>
So on</w>
M or
Im ani</w>
t ext</w>
mv i</w>
ta wala</w>
ku kumbuka</w>
complet ely</w>
M wis
L inganisha</w>
be ba</w>
Mat aifa</w>
zin az
wan am
Cen ter</w>
wal king</w>
fic i
ec e</w>
chu mba</w>
am es
Tr ans
ele keza</w>
of isa</w>
kut engeneza</w>
chungu ze</w>
Th r
tuna hitaji</w>
ku hisi</w>
for d</w>
con sequ
ad ly</w>
J ac
Christi anity</w>
mb eg
kusik iliza</w>
dep end
bus iness</w>
199 3</w>
lo se</w>
Euro pe
t est
fulf illment</w>
U kristo</w>
Ho ly</w>
tre es</w>
p es</w>
E ar
mbeg u</w>
w ema</w>
mit atu</w>
es i
c ep
v ik
st er</w>
ili po
fa ulu</w>
es sion</w>
Jap an</w>
k ani</w>
el ’s</w>
beg in</w>
any i</w>
Sp anish</w>
ke t</w>
s qu
gro wing</w>
ura hisha</w>
ki kuu</w>
m ighty</w>
er ved</w>
F ren
2 000</w>
y outh</w>
s un
r ad
king ono</w>
an ishi</w>
wr ite</w>
un y
u umbaji</w>
ro b
m ur
kuwa pa</w>
4 ,000</w>
ya yo</w>
travel ing</w>
keep ing</w>
in j
sta hili</w>
re pe
ik oni</w>
Bro ther</w>
b illi
at ayo</w>
D a
Babyl on</w>
kus afiri</w>
W ote</w>
as h
mwan zo</w>
in ation</w>
fura hi</w>
sle ep</w>
ha wat
ter m</w>
obe y</w>
ghar ama</w>
egem e
And iko</w>
wor thy</w>
wa fanya</w>
sab abisha</w>
Wh ere</w>
L a</w>
mat umizi</w>
at im
ful ulizo</w>
O r</w>
reve aled</w>
re mar
expec ted</w>
ele br
ang azi</w>
UK IM
N ime
te en
Scho ol</w>
seem ed</w>
pro per
ar ily</w>
UKIM WI</w>
dis cer
af fect</w>
R ome</w>
Child ren</w>
tum a</w>
mr adi</w>
assign ment</w>
O N</w>
Bar aza</w>
view ed</w>
mili ma</w>
ku ongezeka</w>
ig h</w>
ki g
ha mb
dha habu</w>
an am
p ainia</w>
ku anzia</w>
ha ma</w>
L in
en cy</w>
emor ial</w>
f ungu</w>
ma agizo</w>
u kat
t ful</w>
person ality</w>
expres s</w>
al ama</w>
vo ice</w>
sal vation</w>
mo tiv
ji pya</w>
G al
nd ilo</w>
ab und
Lo ve</w>
behavi or</w>
at ak
y asema</w>
shu krani</w>
sho wing</w>
bus tani</w>
bahar ini</w>
hu f
dr ugs</w>
ing ing</w>
exp ect</w>
Encyclo pedia</w>
pres ence</w>
on oni</w>
ob served</w>
d hiki</w>
adv ant
Fren ch</w>
m it</w>
j irani</w>
inst e
tom s</w>
al though</w>
Ch ina</w>
r ace</w>
l or
ali jua</w>
u tr
estab lished</w>
con cl
ku kaa</w>
ex ec
asi ye</w>
ani c</w>
ang alau</w>
ali tu
to leo</w>
ag er</w>
Z e
kumb usho</w>
bir ds</w>
ach eni</w>
4 3</w>
form s</w>
me th
l at
in t</w>
gen u
benef its</w>
to ba</w>
if an
R em
Ali sema</w>
pass ed</w>
con vers
cal ls</w>
be ar</w>
ato liki</w>
Des pite</w>
om u</w>
n er
mwan afunzi</w>
me dic
kum saidia</w>
v el
us awa
K o
week s</w>
wa jibu</w>
timi zwa</w>
kwa ko</w>
kib ali</w>
aka o
un ity</w>
u asi</w>
Wa ef
y er</w>
ku tumikia</w>
j ingine</w>
c k
ku eleza</w>
U M
Jap ani</w>
199 2</w>
ma simulizi</w>
gener al</w>
div or
sur ro
seek ing</w>
s si
happ en</w>
as semb
pe ac
mir adi</w>
mi z
m chana</w>
discipl ine</w>
comp ani
ang eli
Mar ko</w>
Ku fanya</w>
E l
vya kula</w>
tr us
prepar ed</w>
mit ted</w>
fru it</w>
expres sion</w>
at ana</w>
H awa
sp read</w>
sh or
protec tion</w>
no te</w>
ad ilika</w>
199 5</w>
uj enzi</w>
str ugg
im o</w>
fin ally</w>
am ent</w>
N ina
st ress</w>
il ed</w>
ene za</w>
bad ili</w>
sci entists</w>
Kan ada</w>
wa lin
step s</w>
ny inyi</w>
im ep
cor rup
teach er</w>
psalmis t</w>
m j
comp as
S he
ku lia</w>
kam p
produc ed</w>
pe op
Waef eso</w>
kup enda</w>
am aduni</w>
ab use</w>
P ili</w>
op pos
ndi po</w>
kuj itahidi</w>
ku omba</w>
man ’s</w>
j ea</w>
ist ence</w>
ic ho
gl or
ende keza</w>
war ning</w>
sp end</w>
loo ked</w>
es cap
bi g</w>
5 5</w>
E c
wa hubiri</w>
usawa ziko</w>
pop ular</w>
ali ve</w>
accur ate</w>
ond e</w>
guid ance</w>
c elebr
author ities</w>
con nec
pra yed</w>
ali pata</w>
sp ring</w>
s cen
conf lic
Ger man</w>
u kubwa</w>
fron t</w>
ore sha</w>
fin al</w>
b le</w>
4 1</w>
woko vu</w>
wezek ano</w>
sign ific
Ki maandiko</w>
ic s</w>
s we
atus aidia</w>
om o</w>
prog ress</w>
nili yo
inter ests</w>
ful filled</w>
z inaweza</w>
resp ec
pati ent</w>
ma jiji</w>
ki jamii</w>
j engwa</w>
d le</w>
ca uses</w>
J umuiya</w>
p on
e ating</w>
d y</w>
cho ice</w>
Sam weli</w>
una yo
hili wa</w>
am uru</w>
C al
dev o
r asi</w>
on ia</w>
ess ed</w>
Ephes ians</w>
ru g</w>
Inter net</w>
wa kis
m walimu</w>
gi za</w>
eng e</w>
ali mwambia</w>
ak ing</w>
C huo</w>
ufa hamu</w>
poin ts</w>
lo ss</w>
and ikia</w>
I ndi
I d
ut afiti</w>
deep ly</w>
appear ed</w>
an isa</w>
wanas ayansi</w>
m wake</w>
kik weli</w>
U. S.
Chris t
av er
So vi
reli ef</w>
reason able</w>
pos ema</w>
kuwas iliana</w>
kuli ma</w>
kuj id
mad aktari</w>
hu tokeza</w>
clo s
bre ak</w>
bac k
anx i
l es
serv ant</w>
ir i
W illi
I’ m</w>
ik iliza</w>
believ ed</w>
K as
wh atever</w>
te dly</w>
m shikamanifu</w>
lar ipoti</w>
v ers</w>
nili pokuwa</w>
immedi ately</w>
ess or</w>
Y e
S ec
R eg
s ti
res ul
maj ira</w>
ma si</w>
c er</w>
I B
suffer ed</w>
g ard
f idia</w>
uliop ita</w>
ito lea</w>
bid haa</w>
limit ed</w>
d akika</w>
Y O
wana hitaji</w>
i mbo</w>
M p
ji oni</w>
akis ema</w>
mission aries</w>
maju zi</w>
l am
expl ain</w>
I L
ki adili</w>
expres sed</w>
in iti
ent ing</w>
s ick</w>
wali yo
st ri
s iriwa</w>
qu ar
Messi ah</w>
us ing
p ho
lazim ika</w>
kul ala</w>
ku kusaidia</w>
go al</w>
f le
Th an
lead ing</w>
ili p
ser ies</w>
mb ua</w>
fav or</w>
199 4</w>
m outh</w>
claim ed</w>
Shu le</w>
No ah</w>
sig areti</w>
l er
kuch eza</w>
f ast</w>
hind wa</w>
da y’s</w>
ass igned</w>
tu si
streng th
ku weza</w>
fan ana</w>
Parad ise</w>
wa kat
th ro
m tumishi</w>
ho of
c li
L at
ungu ko</w>
ko ma
i zed</w>
Al so</w>
wa zima</w>
us hirika</w>
proc ess</w>
eas ily</w>
de b
af ter
Afric an</w>
sp or
ma kuu</w>
encour agement</w>
umb ali</w>
el ec
E ver
whi te</w>
reali zed</w>
partic ularly</w>
ku ongoza</w>
ku faa</w>
k em
K ad
wa mbia</w>
ser ves</w>
includ ed</w>
AI DS</w>
requ ired</w>
Mag haribi</w>
M ab
know ing</w>
i als</w>
tu mb
ku chagua</w>
ak ilini</w>
Saul i</w>
Se hemu</w>
i ma
bel ong
ne g
kik e</w>
ad ds</w>
l ate</w>
cle an
bless ed</w>
Tim e</w>
S an
Parad iso</w>
for ward</w>
end ure</w>
att emp
Bo ok</w>
zo eza</w>
sac red</w>
res ol
poli ce</w>
ki uchumi</w>
aliy et
a ir
M es
o s
nor mal</w>
mb ao</w>
ju mbe</w>
al am
kun unua</w>
to p</w>
kis iwa</w>
g n
ang ’
ha wezi</w>
encour age</w>
ear s</w>
as su
me ant</w>
anima l</w>
up aswi</w>
k ingine</w>
ha je</w>
un at
tr oub
ing o</w>
m fululizo</w>
resear ch</w>
bab y</w>
wat ia</w>
igh ts</w>
u pole</w>
ku haribu</w>
in side</w>
es ting</w>
changam fu</w>
an ap
Eng land</w>
wat ch</w>
wana op
trib ulation</w>
ku za</w>
Waf ili
1 ,000</w>
re war
bo y</w>
4 00</w>
tri als</w>
pos sib
fauti ana</w>
um oja</w>
ty pe</w>
mas hariki</w>
m stari</w>
lo ws</w>
ina onyesha</w>
disco vered</w>
sab ab
s oma</w>
k we
Wan afunzi</w>
M af
Ili kuwa</w>
D r</w>
ud ha
j a
destro yed</w>
Simil arly</w>
gro w
ess ing</w>
cont act</w>
O k
re ached</w>
kan sa</w>
G ali
ru di</w>
care fully</w>
Sab abu</w>
st ep</w>
i ously</w>
hu mili
us emi</w>
respon sible</w>
our ces</w>
obedi ence</w>
F or
E nd
kuto kea</w>
kud hibiti</w>
kili cho</w>
im am
Ki kuu</w>
K aribu</w>
wap at
mo shi</w>
fac ed</w>
f ight</w>
asi c</w>
ku kata</w>
far asi</w>
awa re</w>
mili tary</w>
pers ons</w>
ne ar
kun i
ful ness</w>
a head</w>
t w
kit uo</w>
id entif
st one</w>
n ic
ag ree</w>
D ini</w>
y ap
wame kuwa</w>
o mbi</w>
li e</w>
doc tor</w>
dang er</w>
ab iri</w>
rec ently</w>
go es</w>
duc ed</w>
ze eka</w>
teach ers</w>
E S</w>
scho l
re comm
li ki
i mb
aliwa ambia</w>
tengene zwa</w>
r ying</w>
hu o
si ze</w>
Inter national</w>
u wezekano</w>
maj ibu</w>
cho zi</w>
On ce</w>
Kat oliki</w>
affec ted</w>
Sp ir
uni verse</w>
o cr
continu es</w>
saf a</w>
ex istence</w>
P ra
I japokuwa</w>
mny ama</w>
C or
e ight</w>
Ne ws</w>
E L
y on
tuli vu</w>
oko ka</w>
mwa o</w>
maj uma</w>
hu yu</w>
enem ies</w>
en ya</w>
anaye itwa</w>
P re
ph one</w>
araj ia</w>
vis ited</w>
u ele
ten d</w>
kub atizwa</w>
ing anishwa</w>
il in
f are</w>
entif ic</w>
dang erous</w>
199 7</w>
wali fanya</w>
vol un
te kote</w>
l inda</w>
hund reds</w>
af i</w>
Ur usi</w>
ku ongezea</w>
ku onekana</w>
k isa</w>
olog ical</w>
mak asisi</w>
l and
C olo
wata kuwa</w>
up asuaji</w>
pri est</w>
leg al</w>
inste ad</w>
d ate</w>
ali taka</w>
ra ia</w>
ku sa
jo y
jec ted</w>
er ly</w>
W H
Americ a</w>
tim s</w>
st adi</w>
hu ona</w>
ele weka</w>
ac ross</w>
Nam na</w>
l ina</w>
ab and
zu izi</w>
wa ji</w>
tang ulia</w>
band ia</w>
Hu o</w>
ter ia</w>
im perfect</w>
ili wa</w>
ten ti
ili o</w>
f ua</w>
appro ach</w>
w ives</w>
terr it
po ll
minis ter</w>
exp lo
at awa
ad op
I ts</w>
glo bal</w>
dedic ated</w>
car ried</w>
On ly</w>
zisi zo</w>
o il</w>
kit i</w>
en ergy</w>
4 8</w>
is land</w>
effec tive</w>
des pite</w>
crim e</w>
ny ama</w>
Gile ad</w>
Hu ko</w>
D ar
s tic
ku it
inter national</w>
incre ased</w>
gu il
concer ned</w>
aj ifunza</w>
V is
Tun apaswa</w>
uch ungu</w>
m kamilifu</w>
tu ka
sik ili
pla yed</w>
l ation</w>
att ended</w>
declar ed</w>
j it
it ation</w>
Braz ili</w>
A ki
A D
tur ning</w>
re je
prev ent</w>
op ened</w>
des t</w>
K ib
u to
p et
in tro
hab a</w>
J on
kutaf akari</w>
import ance</w>
valu able</w>
mis hi
cl ass
los op
ha wishi</w>
experi ences</w>
es tern</w>
b asic</w>
maj eshi</w>
el der
af ikiri</w>
we ight</w>
uni que</w>
ki mbia</w>
b or</w>
at ikana</w>
s co
re fu
con ven
His pania</w>
using izi</w>
s ch
lis il
kuv uta</w>
ku tiwa</w>
el ele</w>
W ell</w>
O ver</w>
hanga ikia</w>
ali mp
ma ua</w>
ip o</w>
br ings</w>
an ataka</w>
1 .
ub ongo</w>
mip ango</w>
ulu h
tin c
maj ina</w>
li kweli</w>
fav or
ev ere</w>
co ver</w>
arib ia</w>
kut at
fic ial</w>
C learly</w>
refl ect</w>
go ld</w>
amo unt</w>
am az
thous and</w>
sel l</w>
sci ence</w>
comp ut
udha ifu</w>
tend ed</w>
prob ably</w>
li p
To fauti</w>
in o</w>
environ ment</w>
dis play</w>
ag ue</w>
wan ja</w>
mip aka</w>
mi ungu</w>
i wapo</w>
e th
ali li</w>
Europe an</w>
tr an
t azama</w>
r ate</w>
ma chache</w>
let ea</w>
if ied</w>
W il
le pole</w>
dedic ation</w>
wa hi</w>
chu ma</w>
R O
Brit ish</w>
199 1</w>
m lango</w>
kul inda</w>
iliyo fuata</w>
div ai</w>
c ing</w>
prin ci
humb le</w>
mar idadi</w>
invol ves</w>
ing iza</w>
ame kuwa</w>
to m</w>
i ana</w>
genu ine</w>
Jud ah</w>
pos es</w>
m shiriki</w>
d ue</w>
effec ts</w>
He alth</w>
wap enda</w>
wa z
cl esi
S ar
kuf unga</w>
it age</w>
ec ha
O ther</w>
wat o
umu himu</w>
clesi as
sh ed</w>
on ally</w>
f requ
wali anza</w>
ti mu</w>
grow th</w>
ele zwa</w>
ulin zi</w>
se ed</w>
col lec
Kumb uka</w>
transl ation</w>
kuj ali</w>
kub aliwa</w>
L ear
ul ti
u es</w>
som i</w>
s n
rep ent
ub inafsi</w>
tu al</w>
waka wa</w>
la weza</w>
h ung
becom es</w>
Fin ally</w>
n azo</w>
ins ia</w>
war m</w>
w ind
th a</w>
ku fanywa</w>
ali eleza</w>
writ ing</w>
v ema</w>
recogni ze</w>
amb iwa</w>
k ings</w>
fin anci
des ires</w>
m ungu</w>
id ents</w>
att ack</w>
Can ada</w>
wa falme</w>
tho do
re bel
hum o</w>
emp loy
consequ ences</w>
L ev
writ er</w>
vis ible</w>
spo ken</w>
p ical</w>
ly n</w>
d id
d d
H ere</w>
G over
sa yansi</w>
ali an</w>
vi ous</w>
public ations</w>
obedi ent</w>
map ainia</w>
kub oresha</w>
cre atures</w>
wor th</w>
sol di
kushughuli kia</w>
y uko</w>
heav y</w>
contr ast</w>
clos er</w>
beli ef</w>
ongeze ko</w>
on to</w>
l ingine</w>
diffic ul
comp le
uli kana</w>
j enga</w>
fany ia</w>
amb amo</w>
kit iba</w>
am em
t enda</w>
sy mp
abab ishi</w>
M emorial</w>
hutu miwa</w>
elder ly</w>
ku g
kim ataifa</w>
moun tain</w>
k ime
et eme
199 9</w>
se eing</w>
r un
mag haribi</w>
ziliz op
hu pata</w>
hospit al</w>
hihir isha</w>
ve y</w>
maj engo</w>
ko tekote</w>
hitaj ika</w>
es tions</w>
alin i
y ana</w>
umili vu</w>
ku amua</w>
wa ambia</w>
ub aguzi</w>
st ory</w>
on ek
n ing
m ishonari</w>
kur id
answ ered</w>
Sh ould</w>
S tr
wa dogo</w>
pe o</w>
de gre
comm and</w>
Ver sion</w>
Jo shua</w>
zip i</w>
y al</w>
mer cy</w>
streng then</w>
m fu
at ano</w>
ar usi</w>
af adhali</w>
U R
R ic
u awa</w>
th re
kusu dia</w>
affec tion</w>
tem per
sear ch</w>
persec ution</w>
househo ld</w>
econom ic</w>
e mba</w>
Ki yahudi</w>
ug a</w>
e ’s</w>
J er
Am ong</w>
199 6</w>
watum wa</w>
l ying</w>
i aje</w>
d rug</w>
Ku u</w>
5 ,000</w>
phi losop
mam ia</w>
k ill</w>
includ es</w>
g one</w>
att ac
ar is
alcoho l</w>
viol ent</w>
cha fu</w>
Ge or
A th
p um
ac hukua</w>
re kodi</w>
kutan ikoni</w>
um ent</w>
ord in
ev ening</w>
Kup itia</w>
princi ple</w>
olo gy</w>
vi vyo</w>
ung anisha</w>
ro r</w>
pas s</w>
haz ina</w>
vic tims</w>
u res</w>
cho sen</w>
wen zao</w>
sl av
l inaweza</w>
kar imu</w>
iv i</w>
ange kuwa</w>
Mwis howe</w>
Go od</w>
tang aza</w>
kuwa fundisha</w>
Kad iri</w>
wali pokuwa</w>
pri l</w>
eteme ko</w>
devo tion</w>
ak es</w>
A pril</w>
wap ata</w>
wanao ishi</w>
asu res</w>
vi ously</w>
sh tu
po lepole</w>
far aja</w>
exp en
ru n</w>
p esi</w>
M hubiri</w>
E f
n alo</w>
in k</w>
ana yo
L ik
vi e
partic ular</w>
ku ua</w>
fun ua</w>
ev ent</w>
con dem
an apaswa</w>
z enu</w>
pris on
mak ali</w>
hi ari</w>
an ua</w>
wam et
overse er</w>
kwe likweli</w>
at trac
wa kamilifu</w>
to keo</w>
map ya</w>
ed y</w>
za weza</w>
us a
kum pa</w>
4 6</w>
kumw ona</w>
ku kataa</w>
h ini</w>
fac tors</w>
S aul</w>
’ re</w>
ref used</w>
practic es</w>
fad ha
cel ls</w>
6 00</w>
vill age</w>
tre at</w>
K ris
b rain</w>
E D</w>
3 ,
ma somo</w>
m icha
hear t
harib ika</w>
K ore
wat ers</w>
u red</w>
mar k</w>
As k</w>
remain ed</w>
n ur
kas oro</w>
doc tors</w>
co st</w>
b it
vid eo</w>
shind ano</w>
kuj if
det ail
chu ki</w>
P or
g s</w>
Bro ok
ut ajiri</w>
uli ze</w>
pl ant</w>
msimam izi</w>
mad araka</w>
con sis
at aka
Waz ee</w>
H it
fo und
eas es</w>
de al
wat af
pa ir</w>
mo ving</w>
kut unza</w>
huzun isha</w>
hig her</w>
hub iria</w>
cre d
b inafsi</w>
an as
neg ative</w>
T wo</w>
Mo unt</w>
I N</w>
wata alamu</w>
fail ed</w>
exam ine</w>
u pepo</w>
st a</w>
requ ires</w>
huo huo</w>
U.S. A</w>
kuj ibu</w>
c o</w>
amb ana</w>
St ate</w>
wan asema</w>
ul e
tu k
kam ilika</w>
cour t</w>
Des emba</w>
3 ,000</w>
se as
pl ants</w>
con st
Ec clesias
wafan ye</w>
sup p
for get</w>
M li
tre ated</w>
te e</w>
concl usion</w>
It alia</w>
p ig
l ing
doc tr
ang e</w>
Nili po
wa zia</w>
mach oni</w>
hu v
go als</w>
anay et
A pr
war ned</w>
us h</w>
uha kik
om esha</w>
l eta</w>
ine ja</w>
id ently</w>
hu ri
el a</w>
accep table</w>
vip ande</w>
tru ths</w>
pic ture</w>
mz unguko</w>
an zi</w>
v yao</w>
br inging</w>
Trans lation</w>
publish ers</w>
man ner</w>
kum penda</w>
hear ing</w>
Christend om</w>
u kuu</w>
sabab ishwa</w>
i re
en ab
be half</w>
P al
t ac
ji jini</w>
great ly</w>
a e</w>
Apr ili</w>
199 8</w>
v ime
ma hangaiko</w>
ku hakikisha</w>
iv ed</w>
heal thy</w>
f low
drin k</w>
cen ter</w>
lic al</w>
drin king</w>
att ending</w>
te mba</w>
ta abu</w>
parti cip
di o</w>
Sep temba</w>
Sep temb
N chi</w>
A k
ok rasi</w>
J ina</w>
p ure</w>
onom y</w>
mb uzi</w>
Septemb er</w>
S ea</w>
M icha
H atu
st er
s ort</w>
il s</w>
chu mvi</w>
ambuli sha</w>
Brook lyn</w>
wasili ano</w>
u fan
po tenti
occ ur</w>
loy alty</w>
did n’t</w>
ang el</w>
alip om
ak awa
tal king</w>
a hi
Rem ember</w>
wen yeji</w>
remain s</w>
aver age</w>
ufu ku</w>
su kum
pione ers</w>
mp endwa</w>
er ve</w>
U we</w>
religi ons</w>
om s</w>
kin asema</w>
ar ani</w>
issu es</w>
cl es</w>
Nili pokuwa</w>
N azi</w>
om o
kubali ana</w>
hai kuwa</w>
al ous</w>
Eli ya</w>
7 5</w>
z we</w>
str ong
om i</w>
I C
s em
as kari</w>
ama ha</w>
ali o
ter y</w>
P at
sin ema</w>
gre w</w>
am es</w>
success ful</w>
elec tr
billi on</w>
w it
w ill
s ent
ma shirika</w>
iv er</w>
hu ji
har v
communic ation</w>
ach es</w>
D ak
ob serve</w>
ku kazia</w>
had hari</w>
commun ity</w>
ati on
a il</w>
z ina</w>
wad udu</w>
succ e
sa i</w>
kuondo ka</w>
ar my</w>
ali kufa</w>
emp lo
d el
aut y</w>
appe ars</w>
Y ote</w>
M si
J uu</w>
Fam ily</w>
um eme</w>
relati ves</w>
crit ical</w>
your selves</w>
tong ue</w>
p ul
mwang alizi</w>
S ha
Aug ust</w>
sacrif ices</w>
re ality</w>
ob lig
inayo faa</w>
ill ness</w>
angali zi</w>
s ifu</w>
onyes haje</w>
li cha</w>
kup endezwa</w>
associ ation</w>
any iko</w>
ang alia</w>
an ti</w>
O c
vili vyo</w>
shu ghuli
kish eria</w>
im prove</w>
har d
es hwa</w>
as king</w>
zi o</w>
wo od</w>
v ement</w>
spec ific</w>
sa ve</w>
ma chozi</w>
m kusanyiko</w>
m and
ish es</w>
ch ec
Ne hem
wap ate</w>
l ac
Dec ember</w>
z ing
wam ishonari</w>
ur ged</w>
po ver
cop y</w>
Y enye</w>
W as</w>
resurrec ted</w>
f lock</w>
exc ep
ec ho
develop ing</w>
con qu
M to</w>
M am
ku tumika</w>
ac ted</w>
T est
Mwanam ke</w>
yaliyo kuwa</w>
op position</w>
con centr
K il
we po</w>
respon se</w>
it wa
is hi
ima ge</w>
a c</w>
Philip pi
ufa isha</w>
vie ws</w>
ung ependa</w>
pl ying</w>
be i</w>
Kas kazini</w>
Ecclesias tes</w>
A go
pres ented</w>
ki ume</w>
it ors</w>
et e
appear ance</w>
uku zi</w>
tr ain</w>
t endo</w>
shar ing</w>
saf e</w>
m ly</w>
ku ka
kem ikali</w>
T O</w>
kut egemea</w>
kufu atia</w>
b ara</w>
His tory</w>
me asure</w>
kuj ip
ku ongeza</w>
Par ents</w>
Mo yo</w>
Eli j
te ars</w>
ku rekebisha</w>
convin ced</w>
W aj
R ipoti</w>
H er</w>
weza yo</w>
t less</w>
ris e</w>
qu oted</w>
put ting</w>
pri v
il a
dec ades</w>
azungum zia</w>
l en</w>
describ es</w>
ung e</w>
ufa ika</w>
mak anisa</w>
imag ine</w>
c ru
Some times</w>
sk in</w>
ing u</w>
divor ce</w>
dha ifu</w>
arrang ement</w>
N ations</w>
vi ungo</w>
par ently</w>
kus af
H ivi</w>
ur ud
p al
mat ed</w>
T ukiwa</w>
J our
ya elekea</w>
m el
Willi am</w>
Wafili pi</w>
kupat ikana</w>
j ema</w>
Wak atoliki</w>
Ulimweng uni</w>
Ser ikali</w>
wez avyo</w>
kubali ka</w>
in as
foc us</w>
ch eza</w>
an no
T er
T V</w>
mwa d
micha che</w>
lev el</w>
kib uri</w>
it uni</w>
it able</w>
gif ts</w>
S und
ya we</w>
valu es</w>
indic ate</w>
chur ches</w>
Janu ari</w>
p ag
hospit ali</w>
cr y</w>
b ilioni</w>
wa kazi</w>
kus hi
iv ing</w>
g ra
akab ili</w>
Philippi ans</w>
I mag
Gile adi</w>
Ago sti</w>
mer ely</w>
mat ure</w>
illustr ation</w>
dis cre
n ina</w>
ki jiji</w>
kab le</w>
k asi</w>
had har
for ced</w>
cultiv ate</w>
azim ika</w>
ang az
w ine</w>
um ents</w>
magaz ines</w>
eng e
accoun ts</w>
timi zo</w>
ki fedha</w>
f ell</w>
ad ul
V ic
U moja</w>
S al
sur face</w>
ik adi</w>
co mb
With out</w>
Hal afu</w>
wana yo
ki pekee</w>
fore ign</w>
can cer</w>
zi ara</w>
mv ulana</w>
mit ano</w>
ep ing</w>
T azama</w>
under stood</w>
mwen zake</w>
Nor th</w>
yen yewe</w>
s anduku</w>
li n</w>
ha wap
amba a</w>
H en
Ali po
umb wa</w>
u ji</w>
temb ea</w>
husi wa</w>
for ces</w>
d alili</w>
z unguka</w>
n on
in ia</w>
ag iza</w>
wali m
ti ba</w>
p ers</w>
o b</w>
j insia</w>
dar k
ak im
Dak t</w>
C y
kupat wa</w>
hund red</w>
Res ear
situ ations</w>
ma anishi</w>
lin ed</w>
kup anda</w>
wil d</w>
ur ance</w>
rejo ice</w>
ou ld
og a</w>
mk ali</w>
kusany ika</w>
K AT
um ma</w>
ist ance</w>
im es
h an
fo ot</w>
Rob ert</w>
Par is</w>
war s</w>
maz iwa</w>
direc t</w>
comm ents</w>
Janu ary</w>
A mb
att end
sy mbo
stit ute</w>
lililo kuwa</w>
kuta kuwa</w>
fany izwa</w>
olo sai</w>
ha di
fo rest</w>
challeng es</w>
ang ani</w>
am et
a f</w>
w ele</w>
des c
Z A</w>
Ju ly</w>
min utes</w>
in tel
des igned</w>
C r
w in</w>
over come</w>
en ter</w>
ali endelea</w>
aj abisha</w>
m takatifu</w>
ki makusudi</w>
Me i</w>
Kumb ukumbu</w>
Jac ob</w>
E ven
kum fanya</w>
equ ip
con tains</w>
Una po
ms amaha</w>
ex ist</w>
P il
Ok toba</w>
ya i</w>
hadi thi</w>
gir ls</w>
barab arani</w>
mar ufuku</w>
do a</w>
c ere</w>
be l</w>
ma funzo</w>
ki akili</w>
dis trib
Thr ough</w>
x ed</w>
discus s</w>
Test ament</w>
wat ak
trav el</w>
hu ge</w>
bre ad</w>
add ress</w>
P i
P en
Mwan zoni</w>
si hi</w>
p ful</w>
th el
tar aj
t ten</w>
rec al
Y ule</w>
I t’s</w>
198 9</w>
young er</w>
mbo le
li on</w>
go ds</w>
comp any</w>
V al
w ona</w>
ulio kuwa</w>
u thamini</w>
set t
la w
ki cha
hali fu</w>
E e</w>
vun jika</w>
s ick
privil eg
afan ye</w>
to ler
survi ve</w>
mkat e</w>
g er</w>
Und er</w>
su peri
person ally</w>
organi zed</w>
k esi</w>
ifan ye</w>
E ast</w>
Bad o</w>
u it</w>
er ship</w>
wr ong
ther more</w>
id ing</w>
esti mated</w>
wapat ao</w>
fa il</w>
ev ol
con s
4 7</w>
umb avu</w>
tu mbo</w>
tob er</w>
pur poses</w>
o x
maj ani</w>
a p</w>
Si kuzote</w>
Oc tober</w>
list ening</w>
as ayansi</w>
N ik
Mar ch</w>
Co un
tu s
s evere</w>
kusik itisha</w>
C he
A B
200 1</w>
t isa</w>
pover ty</w>
d ig
advant age</w>
Sp ain</w>
s umu</w>
for giv
discus sion</w>
and alia</w>
an tly</w>
Fur thermore</w>
B al
trans f
tot al</w>
o un
hi timu</w>
J une</w>
od e</w>
kup um
isim ua</w>
gu ard</w>
g opa</w>
g ain
et e</w>
Micha el</w>
J ul
Ch ini</w>
to lea</w>
kut eseka</w>
associ ated</w>
co t
No v
A G
ut er
Af ya</w>
ma kuhani</w>
gu ide</w>
dra wn</w>
co vered</w>
ver e
ple asure</w>
mis iba</w>
grat eful</w>
Ug iriki</w>
An asema</w>
ub atizo</w>
n ish
kung e
iv yo
car ing</w>
B el
ma shua</w>
keb isho</w>
hat arisha</w>
f ungwa</w>
ex tent</w>
dis eases</w>
b attle</w>
S up
wali sema</w>
usa hihi</w>
so vere
gener ation</w>
ondo lewa</w>
mali po</w>
li ke
fany iza</w>
az idi</w>
ag ani</w>
wen zetu</w>
tu s</w>
ku poteza</w>
k ilia</w>
ulio fanywa</w>
thawa b
jud ge</w>
encour aging</w>
v i</w>
mt unga</w>
grap hy</w>
cho mbo</w>
Be ing</w>
j eni</w>
humili ty</w>
gr af
ed ly</w>
depres sion</w>
yana onyesha</w>
wasi chana</w>
lin al
be auty</w>
reve al</w>
m ere</w>
let ters</w>
l en
is ted</w>
is ani</w>
impres sed</w>
ali yes
wa adilifu</w>
v yake</w>
tu chunguze</w>
f unga</w>
dam age</w>
S ur
od us</w>
ime kuwa</w>
n zito</w>
m on</w>
li ta
gr an
t is
p aper</w>
o o</w>
less on</w>
k elele</w>
gard en</w>
for give</w>
re gion</w>
de light</w>
bo x</w>
N ew
C O
Lo ok</w>
IK A</w>
mw is
ma shamba</w>
l on
f ying</w>
ath s</w>
stat ement</w>
sin cere</w>
kuvun ja</w>
b ri
no tic
m chang
ku iga</w>
kam ana</w>
hel pful</w>
ent ist</w>
bus y</w>
Mach i</w>
AS A</w>
uluh isho</w>
reje zea</w>
pre gn
m wana
inhab it
eter nal</w>
e uzi</w>
cam p</w>
O b
M ic
19 50</w>
vif o</w>
refer red</w>
j engo</w>
ch oro</w>
Go sp
sa ved</w>
em er
af urahi</w>
Yo shua</w>
Tr act</w>
P icha</w>
I LI
stud ent</w>
ra u</w>
ali for
M ake</w>
C re
wa it</w>
u maini</w>
sid enti</w>
o le</w>
k eti</w>
i mba</w>
car eful</w>
ambuki zwa</w>
af u
T ake</w>
Re ally</w>
una onyesha</w>
financi al</w>
am er
Ma oni</w>
pat ia</w>
anxi ety</w>
Jul ai</w>
sp here</w>
kut angaza</w>
bo dies</w>
at asi</w>
ar g
M other</w>
stu died</w>
sta ha</w>
ko sea</w>
kig eni</w>
Sund ay</w>
L icha</w>
E very</w>
zoe fu</w>
ub a</w>
nili vyo
fac ts</w>
juli sha</w>
N ikiwa</w>
E p
wa kuu</w>
har m
c ell</w>
al d</w>
I nj
we ap
wa ume</w>
tor ia</w>
satis fac
ende wa</w>
H ud
vyo vyote</w>
pho to
pre dic
p unde</w>
kup igana</w>
ku endeleza</w>
is ol
Bib lical</w>
id enti
ati c
U ki
Lin alo
Laz ar
vid ogo</w>
up inzani</w>
kum jua</w>
kis ayansi</w>
h indi</w>
essi ons</w>
U k
sci entific</w>
pow ers</w>
mwis howe</w>
m to</w>
lo wer</w>
ligh ts</w>
karib isha</w>
T wa
territ ory</w>
Th ess
sha uku</w>
im ar
Ezeki eli</w>
ut amaduni</w>
ku zaa</w>
in ity</w>
construc tion</w>
uv umilivu</w>
su rely</w>
angam iza</w>
alifor nia</w>
ag g
ji weka</w>
de l</w>
S af
N ina</w>
vari ety</w>
tar ehe</w>
pre pare</w>
mw ishoni</w>
mind s</w>
ma sha
k si</w>
har ia</w>
con sum
bu y</w>
yanayo faa</w>
train ed</w>
Dav id
u tumi
mis itu</w>
ku kua</w>
ar ed</w>
sec ular</w>
s etting</w>
p wani</w>
ku le</w>
S we
Ex odus</w>
secre t</w>
qu i
prophec ies</w>
ku anzisha</w>
g en</w>
e asi
c ris
bo t
ad ults</w>
M bali</w>
G ani</w>
v ast</w>
dec e
writ es</w>
m fanya</w>
col or</w>
P ic
tion ary</w>
li st</w>
er al</w>
D on
zi ada</w>
waf ungwa</w>
li kiwa</w>
ar ini</w>
H ii</w>
wan ne</w>
wa shikamanifu</w>
jec tion</w>
ito aji</w>
ign ty</w>
ata kuwa</w>
ach wa</w>
mu ungano</w>
le aving</w>
inhabit ants</w>
hatu wezi</w>
unge weza</w>
sur ance</w>
or ing</w>
oper ation</w>
at ory</w>
Ever y
ic ing</w>
f ill</w>
w ivu</w>
occ up
n um
f ung
a hau</w>
we alth</w>
tr ict</w>
la y</w>
kut ek
co ld</w>
bur g</w>
at at
Thess alon
1 50</w>
pati ence</w>
end urance</w>
convers ation</w>
Mat okeo</w>
appro val</w>
ad ed</w>
S il
volun te
u timizo</w>
kil eo</w>
ik ani</w>
es tiv
ad mon
E HO
ut aji</w>
r ia</w>
ku shindwa</w>
fun c
d den</w>
as her
Kris masi</w>
H igh</w>
Geor ge</w>
wi mbi</w>
w ia</w>
scho ol
onyes he</w>
low ly</w>
transl ated</w>
s ite</w>
refl ec
kushughuli ka</w>
ci al</w>
Jour nal</w>
tel ling</w>
requ ire
kuwa zia</w>
hud huri
J uni</w>
par t
mli ma</w>
ing ’
app lied</w>
Wak iwa</w>
I rel
v utiwa</w>
tin y</w>
n ative</w>
W est</w>
spe l</w>
san c
ku y
g od</w>
bl ack</w>
ar r
IN G</w>
p ect</w>
n ment</w>
i um</w>
har m</w>
con vic
pre ached</w>
po keo</w>
pati ents</w>
ku chochea</w>
ip ata</w>
forgiv eness</w>
ev ident</w>
asher ati</w>
ahi diwa</w>
W ake</w>
Min is
F ol
us ual</w>
tain ment</w>
t aja</w>
said ie</w>
fu fuliwa</w>
earth ’s</w>
correc t</w>
ali ka</w>
a id</w>
Tor ati</w>
Mli ma</w>
B ody</w>
sovere ignty</w>
m eno</w>
kuf ika</w>
it ikadi</w>
Wak olosai</w>
ud ishwa</w>
ku imarisha</w>
his pania</w>
fam ous</w>
b ure</w>
wast ani</w>
us hauri</w>
is on</w>
an al
Ear th</w>
EHO V
ele g
ali i</w>
T al
Char les</w>
orod ha</w>
ma adui</w>
m ingine</w>
le aves</w>
hakik ishia</w>
graf ia</w>
ess ential</w>
as tr
as o</w>
al me</w>
T waweza</w>
P res
ut ter
so maji</w>
m ile</w>
it ’s</w>
escap e</w>
M pya</w>
L ili
uf i</w>
l an
uli po
u maskini</w>
govern ments</w>
conclud ed</w>
Ali pokuwa</w>
ser iously</w>
occur red</w>
friend ship</w>
str ic
ka uli</w>
eli min
Pro test
Hit ler</w>
nish ati</w>
kup anga</w>
isi pokuwa</w>
et te</w>
aj iriwa</w>
De uter
Braz il</w>
B O</w>
wap ya</w>
kusu diwa</w>
fici ent</w>
bar afu</w>
U kumbusho</w>
M moja</w>
Bo th</w>
wo ga</w>
ver ing</w>
or i</w>
offer ing</w>
develop ment</w>
T O
M kubwa</w>
L is
yo ya</w>
wa a</w>
w ind</w>
s ar
n anyi</w>
ku andaa</w>
ir uhusu</w>
high ly</w>
go tten</w>
em ekana</w>
b es
H ek
ocr atic</w>
ng’ ombe</w>
l eng
ad ing</w>
Irel and</w>
Fa ith</w>
recogni zed</w>
pa id</w>
p upa</w>
ob serv
neighbor s</w>
lo od</w>
easi er</w>
S ala</w>
Deuter onomy</w>
r ou
orig in
op ini
ny imbo</w>
nam es</w>
U j
B en
rele ased</w>
if y</w>
cha o</w>
ana yes
Pol and</w>
L E</w>
uv i</w>
ilivyo kuwa</w>
ili sha</w>
ali kubali</w>
ab ibu</w>
I tal
wali wa
u zazi</w>
hur t</w>
b ak
af a</w>
E M
wana amini</w>
ssi ans</w>
moun tains</w>
m na
kis asi</w>
es alon
concer ning</w>
Colo ssians</w>
tu f
it er
esalon ike</w>
cur r
st yle</w>
shepher d</w>
sa yari</w>
respond ed</w>
kij eshi</w>
ga wany
direc tly</w>
consider ation</w>
tu saidia</w>
ci es</w>
Egy p
E s
shang aa</w>
prosp ect</w>
neigh bor</w>
dis cour
D r
Christ mas</w>
C alifornia</w>
v utia</w>
re ward</w>
il es</w>
hous es</w>
compas sion</w>
pla ying</w>
near by</w>
kid unia</w>
a eleza</w>
6 6</w>
u tulivu</w>
conf ident</w>
at ili</w>
ac knowled
K id
And re
us afi</w>
s ong
l v
comput er</w>
ar iki</w>
200 2</w>
w n
un aj
smo king</w>
perfec tion</w>
kuj is
k ina
g umu</w>
V it
S el
Laz ima</w>
ya onekana</w>
wa iting</w>
so li
maha kama</w>
al atia</w>
Wag alatia</w>
w ish</w>
s h</w>
jo ined</w>
fa id
f it</w>
ati ans</w>
Elij ah</w>
Ale x
se maji</w>
kushang aza</w>
kub aki</w>
kiny wa</w>
at ’s</w>
off spring</w>
nde fu</w>
mash ine</w>
ku ya
indic ates</w>
ev idently</w>
ele ke
d ari</w>
ab ia</w>
In c</w>
ris asi</w>
kiny ume</w>
ak sidenti</w>
T atizo</w>
N az
ug ua</w>
tic ally</w>
teach es</w>
proph ets</w>
o c
ko fu</w>
ki mbele</w>
hu kuru</w>
and alizi</w>
v isions</w>
telev ision</w>
gro wn</w>
dar asa</w>
d ign
wali pata</w>
ur y</w>
the okrasi</w>
command ed</w>
P ri
L i
bo ys</w>
wali tumia</w>
vi wili</w>
ten i</w>
tem por
tan eti</w>
mat ajiri</w>
ca using</w>
azam iwa</w>
_ _
wap endwa</w>
wa and
su ic
sen s
low ing</w>
fr ustr
emo tions</w>
e um</w>
anno un
a ku
D ay</w>
sik io</w>
promo te</w>
offic ial</w>
kamp uni</w>
differ ence</w>
N aye</w>
Gal atians</w>
David ’s</w>
por t</w>
itud es</w>
in ner</w>
commit ted</w>
chu kia</w>
x es</w>
resear chers</w>
requ est</w>
pro of</w>
pro min
nili anza</w>
m its</w>
hat upaswi</w>
d wel
b an</w>
An ti
Am ani</w>
ut wa</w>
u zoefu</w>
u i</w>
sl aves</w>
responsib ilities</w>
mb i
m wetu</w>
en se</w>
ce an</w>
ut isha</w>
stan tly</w>
poto vu</w>
Lat in</w>
vip indi</w>
un ited</w>
sto pped</w>
mweng u</w>
ide as</w>
disci ple</w>
dem ons</w>
b lin
an ajua</w>
zoe zwa</w>
tal aka</w>
ra id</w>
mt indo</w>
ku fanikiwa</w>
e es</w>
D iv
worship ers</w>
tech no
ta a</w>
sh eleza</w>
n ita
ju mba</w>
cho chewa</w>
cap ital</w>
b en
ali ji
ak ad
ab inadamu</w>
Ital y</w>
ush indi</w>
sub jects</w>
mz igo</w>
mag n
is oma</w>
en tered</w>
M ac
. 5</w>
troub le</w>
sup ply</w>
chi ef</w>
K no
ndo to</w>
le zi</w>
ku kat
ku ge
dom in
at mo
ar ida</w>
Stu d
tum u</w>
sikili zaji</w>
mat atu</w>
m lo</w>
ati wa</w>
n is
mw itu</w>
mta alamu</w>
In taneti</w>
t ajiri</w>
si vyo</w>
mwand ishi</w>
me al</w>
ku ongea</w>
iti z
ita yarisha</w>
fa hari</w>
e ma
dark ness</w>
abab ishwa</w>
s ad
instruc tion</w>
ho t</w>
cul ture</w>
a ibu</w>
lis ilo</w>
be aring</w>
M aji</w>
t ations</w>
potenti al</w>
ord ers</w>
wat akao
ma ono</w>
kuwa p
e ties</w>
T uki
uc le
thawa bu</w>
l led</w>
in no
ik it
i ali
us hi
s it</w>
kut ang
est ly</w>
car rying</w>
t ex
loc ated</w>
li fe
ju e</w>
g ets</w>
kumb ukumbu</w>
circ uit</w>
as h</w>
B u
z ikiwa</w>
un able</w>
uj itoaji</w>
t it
ish ing</w>
an isho</w>
wh el
tr a</w>
satisfac tion</w>
mwad ilifu</w>
ku hifadhi</w>
ki asili</w>
ip i</w>
im possible</w>
hi fad
N ic
19 70</w>
v ice</w>
ut un
o ts</w>
maj ority</w>
g ent
fulf ill</w>
enem y</w>
Wan adamu</w>
wor se</w>
um ikia</w>
st ars</w>
o grafia</w>
ne l</w>
au th
As an
sur g
sa ges</w>
poin ted</w>
mig a
m sha
kuli pa</w>
ki halisi</w>
go od
el ds</w>
ch er
bene ficial</w>
ad ver
wezek an
like wise</w>
larg est</w>
ing ton</w>
gen cy</w>
ev angeli
con ver
bal anced</w>
accomp lish</w>
un yoofu</w>
tiv ely</w>
ref ers</w>
lin amaanisha</w>
ki zazi</w>
ent it
c in
aff lic
Wat a
M s
vun ja</w>
und ing</w>
pursu e</w>
provid ing</w>
pres s</w>
p ani</w>
ma onyesho</w>
increas ing</w>
i or</w>
Wana wake</w>
than k
st e</w>
j iwa</w>
ali posema</w>
y em
ro ck</w>
nye kundu</w>
k ers</w>
extre m
charac ter
U hai</w>
G lo
w w
superi or</w>
sel fish</w>
ku okoa</w>
cop ies</w>
E as
ve mba</w>
ut ing</w>
jo in</w>
eg et
No vemba</w>
H ear
F re
D unia</w>
tr ag
to kezwa</w>
mb io</w>
destro y</w>
F ri
tun am
soldi ers</w>
ki ongozi</w>
b und
L and</w>
In as
H aving</w>
Eli sha</w>
5 6</w>
overse ers</w>
n ine</w>
kuz i
et ing</w>
R uth</w>
H ayo</w>
u tim
sha red</w>
discus sed</w>
Waf alme</w>
po fu</w>
per man
orod hes
lin es</w>
ku thibitisha</w>
ku pewa</w>
conclud e</w>
M fano</w>
L ib
Febru ary</w>
5 1</w>
ze al</w>
it umia</w>
fac tor</w>
cre ate</w>
ud um
tu fanye</w>
pot ea</w>
Inj ili</w>
B IB
pec ts</w>
nor th</w>
kombo a</w>
kab uri</w>
ha j
ex ac
entit led</w>
bro ther
ali j
Wak o</w>
T y
trus ted</w>
sen tim
i hi</w>
T ur
usi ve</w>
ti ves</w>
ter ing</w>
mta wala</w>
con stantly</w>
arib io</w>
ame fanya</w>
tr ial</w>
tes y</w>
sol ution</w>
mat akwa</w>
egem eka</w>
de aling</w>
acc o</w>
L y
we d
un apaswa</w>
t al</w>
pe mbe</w>
kut awala</w>
kuru husu</w>
cho se</w>
Pha ris
so il</w>
per form</w>
has ara</w>
fe male</w>
dec ide</w>
at am
P hoto</w>
ume kuwa</w>
sh ing</w>
ny wele</w>
hawa j
discre et</w>
N gu
thibit ika</w>
ri ver</w>
over whel
min ne</w>
clo sely</w>
L ou
A N</w>
ref re
or ies</w>
cour age
Nov ember</w>
ri an</w>
onge zi</w>
kus huka</w>
b abu</w>
Go spel</w>
z es</w>
y ers</w>
ung anishwa</w>
in fan
hu la</w>
an si</w>
alis m</w>
fun di</w>
dist ress</w>
Un abii</w>
lisil o
kur udia</w>
gather ed</w>
g ua</w>
g al
kif ungo</w>
exc ell
cha sema</w>
Febru ari</w>
u karibu</w>
sk ills</w>
shi mo</w>
ro ma</w>
in af
immor ality</w>
el led</w>
crip tion</w>
Mas ihi</w>
194 5</w>
mb amba</w>
ku maliza</w>
k es
il inda</w>
Or g
re act</w>
pat tern</w>
m ko
ku fahamu</w>
wali op
enter tainment</w>
ame tu
tu red</w>
surpris e</w>
s end</w>
kar atasi</w>
if any
hal ali</w>
hadhar ani</w>
contr ary</w>
u wanja</w>
re memb
pro ce
mom ent</w>
mis tari</w>
l ap
kuzungum zia</w>
direc ted</w>
blin d</w>
aj aribu</w>
Mwan d
7 2</w>
zin zi</w>
wal o</w>
un am
cr af
cha e
N i
on ing</w>
ji we</w>
S ana</w>
N de
C ho
5 2</w>
0 7</w>
st ands</w>
produc ts</w>
ma kabila</w>
ku wepo</w>
kam ari</w>
im moral</w>
demonstr ate</w>
wakili sha</w>
al eta</w>
V ol
hu onekana</w>
hab its</w>
consci ous</w>
W he
T ut
14 4,000</w>
reve als</w>
pra ying</w>
kub adilika</w>
invit ation</w>
inayo fuata</w>
Catho lic
wan afanya</w>
uli ziwa</w>
le e</w>
con cep
ak as
N ig
K am
E no
B et
nyo ka</w>
ele ze</w>
d on</w>
U s
Ezeki el</w>
B ur
A C
zo zote</w>
vers al</w>
v uta</w>
v eget
reg ard
mw ilini</w>
manif est</w>
kus hika</w>
assu red</w>
tun at
ma ovu</w>
gener ally</w>
comple x</w>
back ground</w>
ad ult</w>
stri ve</w>
p ou
log ical</w>
identif y</w>
ang azo</w>
ad jus
wam ini</w>
ordin ary</w>
huku miwa</w>
compar ed</w>
N Y
Mo sco
As soci
s low</w>
per formed</w>
kwen u</w>
grap hi
eng ine</w>
ali kuja</w>
w .
ukat ili</w>
sh o</w>
const ant</w>
as pects</w>
as ide</w>
alam ika</w>
Hud uma</w>
Egyp ti
t wapaswa</w>
ku kutana</w>
chu ki
bre ak
usi ons</w>
ra ise</w>
ita in</w>
ha ir</w>
fer ence</w>
ag a</w>
Br itain</w>
wa zao</w>
strugg le</w>
receiv ing</w>
n on</w>
mand hari</w>
man abii</w>
kuwat ia</w>
kuf un
kas irika</w>
husb ands</w>
bir d</w>
atmo sphere</w>
W ach
M ume</w>
M id
righ ts</w>
ri ches</w>
remar kable</w>
n ane</w>
ji cho</w>
end i</w>
en i
detail s</w>
ca ught</w>
af raid</w>
Kan uni</w>
He bu</w>
tr act</w>
ri thi</w>
out standing</w>
n inge
n esses</w>
depend ent</w>
Bar n
wa kubwa</w>
vit uo</w>
v ia</w>
ti fied</w>
t amani</w>
mishi pani</w>
ku thamini</w>
hu hisi</w>
con ce
Wor k</w>
R iver</w>
C ould</w>
s ought</w>
rul es</w>
mw ema</w>
mi ili</w>
mar vel
l av
identi fied</w>
ch er</w>
Reli gion</w>
un ap
ub lic</w>
r an</w>
op pres
l inge
ku we</w>
k ir
jour ney</w>
him ili</w>
N ever</w>
Mwanam ume</w>
D ada</w>
scen e</w>
ig e</w>
Ma ha
ung ana</w>
m chezo</w>
lead s</w>
de ligh
bar iki</w>
ri d</w>
ma wasiliano</w>
ma kundi</w>
ha it
connec tion</w>
ar ms</w>
Alex and
z er</w>
urud umu</w>
thre at</w>
than k</w>
p sy
his i
hat red</w>
gu n</w>
fel low
ec o
describ e</w>
c itiz
ato ka</w>
Happ y</w>
A j
wat awala</w>
signific ant</w>
peop les</w>
b is
D ic
vi j
u asherati</w>
do keza</w>
dist ance</w>
bel ow</w>
M it
19 60</w>
u kit
tri p</w>
po st
p ac
mirac ul
minis ters</w>
kus isimua</w>
kar amu</w>
famili ar</w>
W estern</w>
200 3</w>
19 19</w>
conflic t</w>
clo th
ain abinadamu</w>
M an</w>
Imag ine</w>
E m
tun as
tr ig
ti m</w>
sh tak
rul er</w>
requ ire</w>
emp ha
conven tions</w>
ush ed</w>
unge kuwa</w>
in sec
expres sions</w>
eli m
b un
ana wa
ag ers</w>
up ainia</w>
joy ful</w>
hand le</w>
fu zi</w>
af urahia</w>
ad habu</w>
Isa ac</w>
Gover ning</w>
E mp
B ud
A maz
, 0
dar k</w>
ap parently</w>
Prof esa</w>
Linalo ongoza</w>
198 0</w>
zi zi</w>
to day’s</w>
sh el
mab aki</w>
ma husiano</w>
li se
deter mine</w>
coun sel
W alikuwa</w>
En zi</w>
wan ya</w>
wa ll</w>
notic ed</w>
ish ment</w>
ap i</w>
Nde ge</w>
8 3</w>
re jected</w>
op ening</w>
o ved</w>
mi es</w>
is adi</w>
hu ishi</w>
ha ji</w>
fe els</w>
daugh ters</w>
Than k</w>
4 9</w>
ma pokeo</w>
ma do
kut azamia</w>
it ating</w>
ati ves</w>
as tro
T una</w>
S cot
Mosco w</w>
umb uzi</w>
to w
map ili</w>
gran ted</w>
form ing</w>
Ju mapili</w>
vir usi</w>
und es
f igh
cal ling</w>
c ks</w>
W asi
person ’s</w>
l u
iti za</w>
is es</w>
employ ment</w>
W o
waka aji</w>
k wisha</w>
im ulia</w>
ifa avyo</w>
d es</w>
clo thing</w>
ac hiliwa</w>
mif upa</w>
maz ito</w>
man yoya</w>
kind ’s</w>
hi mili
Fran c
speak s</w>
m ti
kusta ajabisha</w>
e ag
bro shua</w>
Y ako</w>
w ingu</w>
vis iwa</w>
stre et</w>
numb ers</w>
ath y</w>
ataka ye
anaye weza</w>
Hu man</w>
sig ara</w>
mag euzi</w>
ma ster</w>
kili mwengu</w>
Col umb
ter ms</w>
ol es
kut egemeza</w>
kud huru</w>
ki umbe</w>
indic ated</w>
dr y</w>
dis tinc
af fa
vi l</w>
res h</w>
em pl
Org ani
M wezi</w>
map endeleo</w>
ku kuu</w>
fa thers</w>
bal ance</w>
ar ifu</w>
am ka</w>
Ndi po</w>
wange kuwa</w>
ri ja</w>
j umla</w>
fadha iko</w>
exper ts</w>
ber t</w>
sp ace</w>
kuji ua</w>
hu endelea</w>
aliy em
Tu maini</w>
Rus sia</w>
wat akatifu</w>
vis itors</w>
tuli po
taf siriwa</w>
opportun ities</w>
maj irani</w>
kit ia</w>
il ing</w>
find ing</w>
er r
contrib ute</w>
chap isha</w>
Uni on</w>
T afsiri</w>
N it
H es
z uru</w>
ule ule</w>
success fully</w>
kum u
hu anza</w>
believ ing</w>
U b
M toto</w>
to fautiana</w>
recal ls</w>
pleas ant</w>
hu da</w>
himili vu</w>
g ate</w>
fru itage</w>
H ar</w>
umb u
kim o</w>
iv un
c ut
Sovi et</w>
C hu
witn essing</w>
ma ji
ku huzunisha</w>
k inga</w>
gr ams</w>
ali wapa</w>
a ib
F ura
Ch an
um es
ufa ao</w>
thel uji</w>
o keza</w>
in ua</w>
fig ur
ear n
any aso</w>
pr ide</w>
k er</w>
ch ance</w>
an ja</w>
T am
us hir
ungu fu</w>
sin ful</w>
maar ifa</w>
ko diwa</w>
in str
h en
d hi
ch angu</w>
Id adi</w>
I S</w>
u karimu</w>
plan et</w>
kup uuza</w>
in spir
hus ababisha</w>
sick ness</w>
res ist</w>
offic ials</w>
mo thers</w>
hu maanisha</w>
7 00</w>
wali ko</w>
ku endesha</w>
kif ani</w>
ki falme</w>
hol ding</w>
f ed</w>
exac tly</w>
ak azia</w>
5 4</w>
wo gopa</w>
us eful</w>
surpris ed</w>
refer ence</w>
m emor
itwa ye</w>
es ty</w>
attend ance</w>
asi hi</w>
ari poti</w>
af akari</w>
Qu e
sur vey</w>
ho dari</w>
T it
S T
Of ten</w>
Hel p</w>
Encyclo p
wi mbo</w>
mz ito</w>
ku cha
gu ar
g ereza</w>
bo re
az e</w>
aka anza</w>
agre ed</w>
WH O</w>
IS H
t ele
hon est</w>
h ate</w>
earth qu
amb uliwa</w>
Reg arding</w>
wav ulana</w>
tou ched</w>
pag an</w>
m ea</w>
kufany iza</w>
ass istance</w>
Ji ji</w>
uli onyesha</w>
resul ted</w>
m dom
ku wekwa</w>
ins ight</w>
compl ain
alit aja</w>
Rus sell</w>
K un
za yo</w>
una op
s itawi</w>
no tice</w>
lic ation</w>
igh t
hi la</w>
claim s</w>
au di
ali kwa</w>
Pe ace</w>
K ings</w>
yan at
ut egeme
sk y</w>
num erous</w>
an is
aj itahidi</w>
Sci ence</w>
Brit ann
we vu</w>
rang e</w>
ny anya</w>
l engo</w>
av or</w>
add itional</w>
wa angalizi</w>
trad e</w>
thi op
p iga</w>
ing u
deli vered</w>
Kus udi</w>
HI V</w>
v a</w>
u tions</w>
t ask</w>
og op
mi ujiza</w>
ma shambani</w>
m ic
bund uki</w>
av un
N ote</w>
wil aya</w>
v umilia</w>
bro ken</w>
Hat ua</w>
Britann ica</w>
yaf u
walip aswa</w>
repres ent
f estiv
æ dia</w>
serv ices</w>
s ong</w>
rel ates</w>
po tiwa</w>
n ucle
mid dle</w>
lin ess</w>
lin at
kuvun jika</w>
add ic
walio ishi</w>
oko lewa</w>
it akayo
is tic</w>
conduc ted</w>
ang any
alit ambua</w>
Mag ed
wa sikilizaji</w>
he at</w>
comm er
Wal awi</w>
K ir
D ev
vi zuizi</w>
u cho
o si</w>
mk ononi</w>
mare kebisho</w>
ki faa</w>
ito keza</w>
deli ver</w>
chag uliwa</w>
ar k</w>
amb ano</w>
a itwaye</w>
P indi</w>
Gre ece</w>
Babyl on
ze alous</w>
yo fu</w>
ug o</w>
saf ety</w>
s ake</w>
ij apokuwa</w>
bar aza</w>
Ya elekea</w>
wame fanya</w>
uni on</w>
sa wa
nor thern</w>
kumwa budu</w>
ki elezi</w>
fura hisha</w>
Mat atizo</w>
Ma ana</w>
t in</w>
syst ems</w>
rep lied</w>
r amani</w>
m wangu</w>
kup inga</w>
ig ar
amin iwa</w>
ak acho
achi ev
I R
yak iwa</w>
mi kubwa</w>
m chungaji</w>
kib iashara</w>
jam aa</w>
fail ure</w>
defin ite</w>
Sy d
ON G
C ong
zinaz op
um ie</w>
for nic
ad vis
Mu ungano</w>
H as</w>
vic tim</w>
symp toms</w>
separ ate</w>
m hudumu</w>
disas ter</w>
ap art</w>
Whe ther</w>
Mes iya</w>
198 8</w>
si mba</w>
ib iwa</w>
y ange
trad itional</w>
sy n
s cre
quar ters</w>
iti isha</w>
ab ilities</w>
Kore a</w>
Comm un
A K
t ata</w>
pop ul
phys ically</w>
m saidia</w>
en yekevu</w>
1 0,000</w>
wa ona</w>
schol ars</w>
o ta</w>
kung ’
her self</w>
ex hor
as c
arrang ed</w>
U LI
Rus sian</w>
tou ch</w>
p ha
kus imama</w>
ish we</w>
andam ana</w>
Was h
Ru th
Fura ha</w>
F un
E T
yasiyo faa</w>
walio kufa</w>
to p
ther ap
shere he
rend er</w>
r at
marvel ous</w>
ma vu</w>
ina onekana</w>
al ini</w>
witn esses</w>
travel ed</w>
tob acco</w>
ste ad
p ake</w>
ili g
hy po
hor uba</w>
fe aring</w>
dang ers</w>
cou ples</w>
child ’s</w>
br id
ang u
S an</w>
L it
ther wise</w>
res sing</w>
r udia</w>
on da</w>
n as
kutat ua</w>
ip e</w>
good ness</w>
f it
bl ess</w>
am ano</w>
War umi</w>
wor th
priv ate</w>
nad haria</w>
ms itu</w>
en s
cont ent</w>
aris ayo</w>
Med iter
Con vention</w>
tur ns</w>
proper ly</w>
peac eful</w>
im et
f ly</w>
appreci ated</w>
ac ting</w>
G o</w>
y or
ti li
ter ial</w>
st ore</w>
s word</w>
s ak
rele ase</w>
m te
an ese</w>
Wana ume</w>
J um
yat akayo
hifad hiwa</w>
cl ergy</w>
c u
apat ana</w>
Sar ah</w>
M ke</w>
rest ed</w>
ob jec
em ory</w>
Maha kama</w>
H apo</w>
Dic tionary</w>
1 2
kas isi</w>
g had
dr am
ali ki</w>
Uk ra
Even tually</w>
AN I</w>
up endezi</w>
star ehe</w>
par al
j umuiya</w>
do w</w>
c ked</w>
an cy</w>
afun ua</w>
Med ical</w>
Mar tha</w>
sa ic</w>
harv est</w>
Maj umba</w>
20 th</w>
w onyesho</w>
st ro
kuji uliza</w>
keep s</w>
E arly</w>
um ika</w>
tuli yo
mis uli</w>
kuwa fanya</w>
kam atwa</w>
k iri</w>
her ufi</w>
harm ful</w>
U tatu</w>
K ili
w est</w>
ur adhi</w>
suic ide</w>
sign s</w>
op o</w>
onek ane</w>
do l
chur e</w>
ar ansa</w>
an atu
Wh atever</w>
W r
ver ses</w>
t ons</w>
r out
ma ofisa</w>
kump endeza</w>
wo mba</w>
vis iting</w>
tuku za</w>
tu kit
lo ves</w>
ji onea</w>
g us
d ansi</w>
a w
L et
Asan teni</w>
shor t
se es</w>
reg ul
prin cip
pos oma</w>
miz igo</w>
kut aja</w>
ku kabili</w>
ki zuri</w>
ende ka</w>
Ina onekana</w>
C ap
200 4</w>
1 19</w>
umb ua</w>
taar ifa</w>
pr ice</w>
po unds</w>
kumwa mbia</w>
ip enda</w>
f ariji</w>
can ’t</w>
ath ari</w>
as ts</w>
ana a</w>
ali cho
Encyclop ædia</w>
th ful</w>
ra y</w>
o le
el ev
d ings</w>
ato kea</w>
an g</w>
ak ia</w>
K enya</w>
wal ls</w>
re vol
n one</w>
dha hiri</w>
con tain</w>
b wana</w>
ap plying</w>
afan uzi</w>
U KU
vic ha
ong wa</w>
meth ods</w>
kuto kuwa</w>
happ ens</w>
faid ika</w>
er n
bro chure</w>
assemb ly</w>
U v
U taf
U me
wali ona</w>
us ta
uli mi</w>
tak ataka</w>
mil ki</w>
fo o
comp et
ana hitaji</w>
U t
Tho mas</w>
Ny umba</w>
M kat
F ul
ulu hisha</w>
u tii</w>
tion ally</w>
sum mer</w>
prim ary</w>
pres su
mig r
medic ine</w>
ha mi
gre en</w>
ex posed</w>
bel oved</w>
Ma hali</w>
satis fying</w>
p ande</w>
mag ed
Und er
Maf arisayo</w>
u baya</w>
tu tak
ma wimbi</w>
m waliko</w>
kinacho weza</w>
kim ya</w>
im m
at ini</w>
M az
Ku to
who les
up ate</w>
u zao</w>
kuta yarisha</w>
is k
intel lig
beg ins</w>
a the
E l</w>
um s</w>
s ali</w>
rep ut
pre jud
ng e
ma go
kuu awa</w>
kuk omesha</w>
fin ished</w>
A mo
wan ad
wal ked</w>
sma ll
remain ing</w>
ra ha</w>
n ar
doctr ine</w>
apat wa</w>
ang ry</w>
ad equ
Jap anese</w>
y r
u kuta</w>
temp tation</w>
sha wishi</w>
less ons</w>
kuz unguka</w>
inter pre
flow ers</w>
S ifa</w>
Cen tr
5 3</w>
worship pers</w>
wh ere
un as
u changamfu</w>
pi ece</w>
or ation</w>
mad ha
kuwa ambia</w>
it ems</w>
des ign
bel ong</w>
ap ate</w>
ac hu
H ili</w>
z er
uli vyo
tegem eza</w>
invol ve</w>
illustr ate</w>
i on</w>
des ign</w>
Stud ents</w>
Israeli te</w>
Ch in
v ikali</w>
st ers</w>
kuf urahisha</w>
ku eneza</w>
ir o</w>
in ap
faith fully</w>
de x</w>
wali om
u maana</w>
on es
mil k</w>
ma kusanyiko</w>
afan uliwa</w>
Th ink</w>
Mat t</w>
H um
B ap
succe ed</w>
re mo
prin ted</w>
kuwa je</w>
gradu ally</w>
degre e</w>
V ir
C er
ã o</w>
wa onyesha</w>
s li
relation ships</w>
occasi ons</w>
itu al</w>
ili anza</w>
fan yakazi</w>
B ill</w>
strength ened</w>
re aching</w>
pur cha
har dly</w>
en coun
cred it</w>
abund ance</w>
ab or
we ar</w>
mi amba</w>
ma shindano</w>
in afaa</w>
hai wezi</w>
g amb
fal safa</w>
e ja</w>
Su rely</w>
Pharis ees</w>
Ndi vyo</w>
wic ke
wa ji
sch ed
ku ad
for tun
ex ists</w>
cloth es</w>
Kut an
Da ily</w>
wame pata</w>
u ujiza</w>
su dd
sudd enly</w>
smo ke</w>
prophe tic</w>
p anga</w>
p aa</w>
m ent
ik is
gi c</w>
an aje</w>
ali hitaji</w>
S adly</w>
C ome</w>
sugg ests</w>
so ld</w>
leng th</w>
kind ly</w>
g ames</w>
attac ks</w>
as kofu</w>
Isra el’s</w>
Ag ano</w>
weap ons</w>
t unda</w>
sil ver</w>
ob tain</w>
msa id
G et</w>
zi we</w>
us hu
s uluhisho</w>
off ers</w>
o mbole
l ers</w>
umb i</w>
se ja</w>
p apa</w>
k adi</w>
hu jaribu</w>
fre ely</w>
expl an
difficul ties</w>
tu endelee</w>
than ks</w>
surg ery</w>
sugg estions</w>
shamb ulizi</w>
ong e</w>
mar ket</w>
lise um</w>
ki angazi</w>
compani ons</w>
V itu</w>
Ric hard</w>
M k
Kup ata</w>
1 20</w>
tend er</w>
t ung
m kataa</w>
la id</w>
kum tii</w>
dev ast
command ments</w>
blo od
bis ho
ako sa</w>
U N</w>
T im</w>
Mal a
B es
re moved</w>
ra o
kum t
in atu
ew ise</w>
cl er
ad ha
P ent
Mas wali</w>
Ch ron
vi chwa</w>
mwa ko</w>
list ened</w>
im e</w>
glor ious</w>
dis tur
Lik ewise</w>
Co liseum</w>
u tumwa</w>
techno logy</w>
sy mb
read s</w>
p it
oppos ite</w>
li we</w>
imag es</w>
excell ent</w>
c huo</w>
Wan asayansi</w>
Maged oni</w>
KAT IKA</w>
Cour t</w>
um ef
mik ononi</w>
haku kuwa</w>
fa utisha</w>
Ar maged
wan ajua</w>
po pote</w>
phys ic
men tion</w>
ma zao</w>
kus amehe</w>
kilicho kuwa</w>
ch ungu</w>
ar mies</w>
al lows</w>
Wor ld
N g
Ki jana</w>
up anga</w>
s emwa</w>
ref er</w>
pres ident</w>
mb izi</w>
hu amini</w>
char ge</w>
arib iwa</w>
ac ha
Sa ys</w>
O ld</w>
E N</w>
A po
wali kufa</w>
sa hili</w>
kuji unga</w>
is ti</w>
fi elds</w>
consid ering</w>
ap ped</w>
Wa th
Minis try</w>
A F
8 00</w>
uko mbo
u re
sh ould
kut isha</w>
kumw omba</w>
is ivyo</w>
g ene
di et</w>
ali tabiri</w>
K ulikuwa</w>
Ed eni</w>
una hitaji</w>
rend ered</w>
re move</w>
ple ased</w>
p ping</w>
kilom ita</w>
ka hawa</w>
i wa
fo ot
ep uke</w>
eng ers</w>
d ust</w>
azam io</w>
ana eleza</w>
Prof essor</w>
M od
E z
7 3</w>
uka wa</w>
to red</w>
refu ge</w>
pro ject</w>
ma yai</w>
kut arajia</w>
inhab ited</w>
ind wa</w>
fany iwa</w>
an wani</w>
M wen
Is aka</w>
B i
res ources</w>
ne utr
lov ers</w>
ku athiri</w>
koma a</w>
kim uujiza</w>
ki refu</w>
hu li
hu furahia</w>
Kutan iko</w>
ob serves</w>
inter esting</w>
grap h</w>
ali ishi</w>
adv ance</w>
win ter</w>
tam aduni</w>
shi ka</w>
kum tegemea</w>
ind e</w>
ato keza</w>
ass ist</w>
aband oned</w>
I me
Armaged don</w>
u zuri</w>
thr one</w>
s of
pro mp
ndi cho</w>
li lin
lazim isha</w>
it or</w>
ir r
ili e</w>
azim io</w>
as sa
was ili</w>
war e</w>
stu mb
possib ly</w>
onge zwa</w>
mis takes</w>
ku uliza</w>
kurid hisha</w>
ish angazi</w>
im amia</w>
hol anzi</w>
con c
at azo</w>
Wath esalonike</w>
10 0,000</w>
wen i</w>
wed ding</w>
rul ers</w>
n ic</w>
m emory</w>
ghad habu</w>
cro ss</w>
ba hu</w>
Swe den</w>
N doa</w>
uz iki</w>
und ishwa</w>
tempor ary</w>
stra ight</w>
repent ant</w>
ku unga</w>
ju zi</w>
i ona</w>
ana yo</w>
ad d</w>
abund ant</w>
G U</w>
D en
A ina</w>
n y</w>
liter ally</w>
let s</w>
kut egemeka</w>
id ol
histor ian</w>
gund uliwa</w>
ex ten
U L
Mo saic</w>
J E</w>
writ ings</w>
u kwa</w>
saf u</w>
o king</w>
kub adili
inten se</w>
ifa ayo</w>
flo or</w>
ec es</w>
cal am
ang i</w>
Ste ph
Ruth u</w>
Pha rao
19 30</w>
sec ure</w>
pass ing</w>
m ers</w>
g esi</w>
e an</w>
chang o</w>
J itihada</w>
H an
6 ,000</w>
wa hudumu</w>
tre asure</w>
p enye</w>
lic ations</w>
hughuli ka</w>
hospit alini</w>
ham ishwa</w>
do wn
Ca es
was iliana</w>
waki fanya</w>
quali fied</w>
pl an</w>
our th</w>
k avu</w>
ile ile</w>
fir mly</w>
car es</w>
am sha</w>
M t</w>
Ha i
E r
D NA</w>
wat afiti</w>
wan ataka</w>
te am</w>
run ning</w>
isk eli</w>
instruc tions</w>
e wa</w>
ab les</w>
Wat um
Tr inity</w>
O p
Ad d
ub ora</w>
spor ts</w>
sa d</w>
s outh</w>
p an
o lewa</w>
ent ary</w>
deal ings</w>
acqu ain
4 ,
utumi zi</w>
ukombo zi</w>
sukum a</w>
ri c</w>
o maji</w>
ing ilia</w>
hu saidia</w>
ali yen
ad abu</w>
C ana
19 0
wholes ome</w>
we ak</w>
wat enda</w>
uele wevu</w>
st ation</w>
remind ed</w>
pro claim
peac e
ma lezi</w>
ku enea</w>
in ti</w>
fe ed</w>
fas cin
S ara</w>
Ngu vu</w>
K iny
Beth le
ik ishwa</w>
huzun ika</w>
des er
ak u</w>
Sh or
ro s
one y</w>
kit akacho
ili sema</w>
fund ishwa</w>
extre me</w>
ch etu</w>
S tar</w>
Ho spit
Hek ima</w>
Far ao</w>
zilizo kuwa</w>
wanao fanya</w>
ren ’s</w>
mi ji</w>
mer c
lili po
kujid hibiti</w>
intro duced</w>
frequ ently</w>
eng age</w>
cus toms</w>
complet ed</w>
am en
yanayo weza</w>
wali hitaji</w>
ut af
struc k</w>
scrip tures</w>
mwa m
mif umo</w>
ma suala</w>
ir ing</w>
ana ani</w>
ali lo
ag og
Thessalon ians</w>
H aki</w>
A u
zi wi</w>
wa asi</w>
pro visions</w>
ku onwa</w>
fund am
azam aji</w>
ag no
De ath</w>
ver ance</w>
utim ilifu</w>
un usual</w>
lili sema</w>
ku kiwa</w>
hab it</w>
d horuba</w>
affa irs</w>
W is
F u
As semb
up weke</w>
mas s</w>
mar ry</w>
id s</w>
es tic</w>
Or thodo
wicke dness</w>
undes erved</w>
re action</w>
desc end
al tar</w>
S pe
Ka is
Chin ese</w>
yar ishwa</w>
msha hara</w>
invol ving</w>
direc tor</w>
Lear n</w>
Kil atini</w>
E den</w>
shepher ds</w>
seas on</w>
pre ad</w>
ji unga</w>
b ol
as ha</w>
Z I</w>
S ing
Organi zation</w>
K WA</w>
Joh n
IN G
H ung
C op
ud hi</w>
pl ans</w>
mirac les</w>
kicha po</w>
heart felt</w>
f ia</w>
dis trict</w>
Ser vice</w>
P le
Hen ry</w>
6 1</w>
wa kam
udum uo</w>
resol ve</w>
mean ing
l ini</w>
i wezekan
eg u
e ar</w>
de ar</w>
aff ic</w>
U ta
Por tu
O F</w>
writ ers</w>
utegeme zo</w>
qu it</w>
por no
lab or</w>
is lands</w>
fu mbo</w>
ele kezo</w>
as amu</w>
U s</w>
Na omi</w>
Mus eum</w>
K or
x im
wid ely</w>
no on</w>
mi d</w>
la d</w>
kut embelea</w>
ku ki
ind ustr
hutu saidia</w>
ele we</w>
de eds</w>
ch ron
ag ua</w>
accomp lished</w>
An t
19 40</w>
wil der
ushu huda</w>
st ac
is ting</w>
evol ution</w>
car ed</w>
Ya onekana</w>
Po li
Ku jifunza</w>
K ondoo</w>
A L</w>
ul t
tas te</w>
si kuwa</w>
said iaje</w>
determin ation</w>
Ez ra</w>
wat aka</w>
war ns</w>
tuli za</w>
privileg es</w>
j if
ip ate</w>
hub iriwa</w>
graphi c</w>
crit ic
W om
U T
Tor onto</w>
wak as
threat ened</w>
res ses</w>
pic tures</w>
n avyo</w>
map endezi</w>
im iza</w>
ha n</w>
bo at</w>
ar udi</w>
Wash ington</w>
O ut</w>
Map ema</w>
M yahudi</w>
L am
G ran
AN D</w>
ushi kamanifu</w>
st ake</w>
sc ale</w>
re duce</w>
loo ks</w>
kuto lewa</w>
ku chang
ku beba</w>
found ation</w>
f asihi</w>
as tic</w>
W any
M walimu</w>
Bes ides</w>
we ather</w>
pl ain</w>
ku umiza</w>
kit a
iti onally</w>
at edly</w>
Wag iriki</w>
Spir it</w>
Pro mis
I’ ve</w>
weza ye</w>
und u</w>
ten ed</w>
s tic</w>
relati vely</w>
re dio</w>
prof essor</w>
pi eces</w>
p ath</w>
mj ane</w>
kus hoto</w>
figh ting</w>
em ea</w>
ame wa
al ter
N ao</w>
us crip
u kuliwa</w>
ti red</w>
mali zia</w>
loc ation</w>
idol at
gro unds</w>
er o
c a</w>
ad ha</w>
Sh ang
Mil ele</w>
Don ’t</w>
Chan zo</w>
wond ered</w>
sou thern</w>
rel ations</w>
os ity</w>
kum sifu</w>
ku che
kik ab
ent y</w>
chang ing</w>
ab sor
P hil
F ore
v uli</w>
up o</w>
stre t
simam izi</w>
scho ols</w>
mil d</w>
mal ly</w>
concer ns</w>
Solom oni</w>
yana po
v ilikuwa</w>
require ments</w>
ny ang
in visible</w>
hul eta</w>
hawa jui</w>
fu fua</w>
do ll
con fir
am ep
ab sol
Up on</w>
Ug onjwa</w>
u zinzi</w>
t ments</w>
produc tion</w>
im in
ila hi</w>
em ic</w>
ci vili
With in</w>
Indi an</w>
H akika</w>
B eli
us hi</w>
up right</w>
stic k</w>
peop le’s</w>
mo vement</w>
man kind’s</w>
id ent
har iri</w>
dha rau</w>
cap able</w>
ba wa</w>
ar rested</w>
anx ious</w>
wana ishi</w>
ver b</w>
tho od</w>
st ones</w>
res tored</w>
re ject</w>
mwe upe</w>
kutaf siri</w>
ku zwa</w>
kip imo</w>
ke wa</w>
j eli</w>
influ enced</w>
fac es</w>
expen sive</w>
att itudes</w>
Sim ulizi</w>
S ina
P ur
M c
shir ikiana</w>
re stric
per or</w>
mo del</w>
ir io</w>
gr as
fru its</w>
engene zo</w>
ec hukua</w>
at ta
Or ig
Mil ki</w>
H asa</w>
proph es
E le
on elea</w>
larg er</w>
j apo</w>
inayo weza</w>
if t</w>
fac ing</w>
ak imu</w>
acc ident</w>
9 5</w>
ve hi
the olojia</w>
pain ful</w>
ny uk
nucle ar</w>
mit o</w>
l are</w>
ikir a</w>
fas hi
dign ity</w>
d well</w>
cro s
care er</w>
bur den</w>
at en</w>
ali kataa</w>
K ip
G har
B ora</w>
wa zuri</w>
wa andishi</w>
vi wanda</w>
s tim
qu ick</w>
public ation</w>
orig in</w>
ny asi</w>
ne gl
li tak
in ti
hali ka</w>
bo ard</w>
ag u
N ani</w>
rul ership</w>
put s</w>
or ds</w>
hud ia</w>
fr ag
em o</w>
communic ate</w>
bak teria</w>
ak aribia</w>
S us
Nig eria</w>
L ake</w>
G ent
us try</w>
tim ia</w>
kuto kamilika</w>
kusany wa</w>
kab id
im pro
hu taka</w>
he bu</w>
fer red</w>
f if
audi ence</w>
as pect</w>
anc ing</w>
alimp a</w>
ak ip
Ro m</w>
Mar i
M el
A LI
yafu atayo</w>
vis its</w>
stand ard</w>
pro spec
dre am</w>
al azimika</w>
Syd ney</w>
yo hiyo</w>
y i
wa chungaji</w>
pr on
om vi</w>
mil dness</w>
isha je</w>
ic ial</w>
alivyo sema</w>
ab abu</w>
T ena</w>
P O
Con cer
ye ar
yan avyo
wa somi</w>
taar ifu</w>
ro ot</w>
por tion</w>
kumw iga</w>
ho ja</w>
hat arini</w>
e ager</w>
cam pa
buil dings</w>
Tr uth</w>
Can ad
yak i
ty pes</w>
trad ition</w>
re present</w>
por udi</w>
mdom o</w>
li ps</w>
k y</w>
far ag
ali weza</w>
Wata alamu</w>
S ib
P ho
v ac
spe ed</w>
r am
l amu</w>
kad halika</w>
ic ed</w>
es pread</w>
d ress</w>
appro ached</w>
ach o</w>
W ho
K ud
up ungufu</w>
mz aliwa</w>
iwezekan avyo</w>
it ak
ir on</w>
hi yohiyo</w>
des tin
ad oles
B re
them e</w>
princip al</w>
nili pata</w>
kuwa onyesha</w>
imp act</w>
hu tokea</w>
at e
Fur ther</w>
Al mighty</w>
mny anyaso</w>
list ed</w>
koma vu</w>
estab lish</w>
b wa</w>
ar ch
In af
D O
B ul
A hadi</w>
trib es</w>
sp r
ru b
re placed</w>
re kodiwa</w>
n utr
mb uliwa</w>
li ka
li ber
ina wezekana</w>
ep h
ent ment</w>
ak ifanya</w>
Y ona</w>
Sec ond</w>
uj ana</w>
relati ve</w>
p ap
o jea</w>
aid ie</w>
Me an
M f
Chron ic
wat at
sugg ested</w>
spiritu ality</w>
resul ting</w>
po te
lar ia</w>
iv ely</w>
K ita
we igh
song s</w>
madha bahu</w>
g un
en yeji</w>
dri ve</w>
dre w</w>
conf ron
comfor ting</w>
bro ke</w>
bo und</w>
ba iskeli</w>
Assemb ly</w>
5 0,000</w>
wa kim
refl ected</w>
mo d
in justice</w>
i aji</w>
head s</w>
gri ef</w>
fig ure</w>
en th
demonstr ated</w>
T each</w>
Kif o</w>
IN I</w>
D un
wilder ness</w>
v ye
ur udisha</w>
tou ris
ru in</w>
hughuli kia</w>
c and
b ing</w>
T ar
P AG
In stitute</w>
Associ ation</w>
thawab isha</w>
sp ite</w>
ref use</w>
read ers</w>
promin ent</w>
lina onyesha</w>
kui mba</w>
im ulizi</w>
id ly</w>
aut om
a wezaye</w>
It alian</w>
sp ouse</w>
sou ls</w>
na h</w>
mg umu</w>
ma al
ku itwa</w>
ku abudu</w>
h ly</w>
ali weka</w>
P unde</w>
H ag
Austr ia</w>
read ily</w>
ha us
UKU R
19 th</w>
ye y
wat ching</w>
wan yenyekevu</w>
utun zaji</w>
und isho</w>
rout ine</w>
reput ation</w>
repe atedly</w>
guil t</w>
comp are</w>
c ast</w>
P ac
Catholic s</w>
tun ap
rat iba</w>
kit aifa</w>
kim u</w>
in iki
hol ds</w>
ad minis
Wat afiti</w>
Reli gi
P hi
pa ying</w>
on ic</w>
meth od</w>
extrem ely</w>
d eleg
con tained</w>
am ing</w>
allow ing</w>
ali amua</w>
K uli
Austr alian</w>
ti g
sugg est</w>
na cho</w>
mas ilahi</w>
kumb wa</w>
ing atia</w>
ent ers</w>
citiz ens</w>
bi o
Mt unga</w>
Hal ls</w>
wor shi
ud e</w>
pro vision</w>
perman ent</w>
mu d</w>
kan isani</w>
k aji</w>
hu tia</w>
fornic ation</w>
en y
co ast</w>
ak ata</w>
Ze al
UKUR ASA</w>
Shor tly</w>
F lor
um p
sta hiliwa</w>
ro und</w>
n inapo
ma a</w>
ku yat
excep t</w>
bur ning</w>
ak ap
Eas tern</w>
A S</w>
wel come</w>
taf rija</w>
st ly</w>
pro grams</w>
ny uzi</w>
miga wo</w>
m fadhaiko</w>
hu penda</w>
fany i</w>
b ig
am ali
Th ree</w>
H ap
7 ,000</w>
wali kuja</w>
kip agani</w>
ka ya</w>
fe ature</w>
b ath</w>
M g
A me
wali of
tuli vyo
tab iriwa</w>
me za</w>
kun go
j elea</w>
b ond</w>
atic ally</w>
alivyo fanya</w>
achi lia</w>
8 5</w>
tuna o
rad io</w>
m ani</w>
ku kimbia</w>
kif ua</w>
karib ishaji</w>
ili ki</w>
heshi miwa</w>
guar an
f ourth</w>
enjo y
divid ed</w>
concentr ation</w>
E vid
B E
poto sha</w>
ord ’s</w>
m ulti
inno cent</w>
infec ted</w>
ifu l</w>
do ors</w>
d ying</w>
ato kana</w>
S ONG
R afiki</w>
P apa</w>
ug enzi</w>
uf isadi</w>
reason ing</w>
proper ty</w>
p om
mb s</w>
ma ko
list en
ku hamia</w>
in sis
every where</w>
eme wa</w>
cha pa</w>
amb ue</w>
am ana</w>
ak iri</w>
ab iashara</w>
IM BO</w>
19 39</w>
vi elelezo</w>
str ik
poll ution</w>
kur ugenzi</w>
hoof isha</w>
hi e</w>
heal ing</w>
empha si
corrup tion</w>
ci l</w>
chap ters</w>
M ika</w>
wali taka</w>
t ests</w>
ro yal</w>
rad i
prison ers</w>
po toka</w>
mo on</w>
m mea</w>
m fanyakazi</w>
l eness</w>
har ufu</w>
coun t</w>
Mw isho</w>
Mala ika</w>
A ha
uli zwa</w>
stor ies</w>
pas ipo</w>
on aje</w>
motiv ated</w>
ki historia</w>
inayo itwa</w>
fe ar
cap ac
associ ate</w>
and ing</w>
aliyet ajwa</w>
ab ara</w>
Wa weza</w>
W AT
S hi
M v
ne o</w>
mat o
map ato</w>
ma laria</w>
gather ing</w>
de aths</w>
L A</w>
tw ice</w>
stre ets</w>
sit ting</w>
satis fied</w>
rebel lion</w>
ra il
pre vious</w>
par tment</w>
il led</w>
hu tegemea</w>
bri ef</w>
anaye ishi</w>
ach i</w>
Pent eco
L ord’s</w>
Ku ishi</w>
wa weze</w>
ufan isi</w>
om in
ku haribiwa</w>
ind ustry</w>
guil ty</w>
emp ty</w>
at trib
ar ise</w>
Phili p</w>
tra its</w>
soli d</w>
sim ama</w>
fore sts</w>
er n</w>
d ilig
compani on</w>
co oper
attemp t</w>
M wana
D ad</w>
ucha fuzi</w>
tu bu</w>
righ tly</w>
mo vi
ma uaji</w>
la umu</w>
itu tion</w>
comfor table</w>
c igar
anay em
afan ana</w>
SONG S</w>
K in
Hat ari</w>
la ini</w>
fic ation</w>
fe atures</w>
es wa</w>
agre ement</w>
ung i</w>
reli able</w>
fun ikwa</w>
an ze</w>
Wany ama</w>
NY IMBO</w>
M weza</w>
I le</w>
ti fy</w>
t aba</w>
sa iti</w>
s ets</w>
re mn
or oro</w>
ole zo</w>
kis ababishi</w>
fu n</w>
equ al</w>
as ali</w>
ak aa</w>
ad mits</w>
wez ekani</w>
mar ked</w>
lad ha</w>
ita w
dec lare</w>
b all</w>
alip aswa</w>
ak if
adop ted</w>
wa kulima</w>
v an
s is</w>
pla ys</w>
opini on</w>
mchang anyiko</w>
kul inganishwa</w>
kuj ik
ku uza</w>
f low</w>
depres sed</w>
ang em
aliye itwa</w>
aj emi</w>
after ward</w>
ach er</w>
N abii</w>
Cour tesy</w>
A lin
6 2</w>
wali ishi</w>
shu ko</w>
po mbe</w>
n ation
mat umaini</w>
isol ated</w>
han iwa</w>
hai j
er ror</w>
chem ical</w>
as ks</w>
P amoja</w>
Ib ada</w>
wid espread</w>
us imam
survi ved</w>
schol ar</w>
re gre
protec ted</w>
pleas ing</w>
mwand ikaji</w>
lim it</w>
enth usi
ali jifunza</w>
ali hisi</w>
af rika</w>
U f
Sovi eti</w>
L ong</w>
L O
B ir
kuj itolea</w>
ku kusanya</w>
im ia</w>
discer nment</w>
Ta yari</w>
Mam ilioni</w>
G ive</w>
up at
te ko
kuto sheleza</w>
kujid habihu</w>
ing ie</w>
hoof ika</w>
fikir ie</w>
P enn
Fun zo</w>
z eni</w>
tro pical</w>
tr affic</w>
terr ible</w>
teko ste</w>
se eds</w>
prof esa</w>
pon ografia</w>
o za</w>
li kawa</w>
kut etea</w>
kup a</w>
b on</w>
ar c
angaz aji</w>
amp uni</w>
Sci entist</w>
Emp ire</w>
Cong reg
waka anza</w>
vir tu
the ory</w>
p endeza</w>
mat angazo</w>
lo sing</w>
iki ano</w>
differ ences</w>
d hi</w>
P s</w>
M illi
Cha kula</w>
te mbo</w>
re t
lev els</w>
l ings</w>
im wa</w>
ham ’s</w>
eth nic</w>
en ever</w>
curr ent</w>
Fol lowing</w>
C l
work er</w>
there after</w>
te en</w>
re ver
organi z
ord ered</w>
on i
kind s</w>
hu hitaji</w>
har ura</w>
e bu</w>
b er</w>
b at
ath ani</w>
appe al</w>
world ly</w>
p il
olog ists</w>
olog ist</w>
masha hidi</w>
mash taka</w>
h angeweza</w>
en cies</w>
acc ess</w>
To k
S ho
N is
I WA</w>
um ep
ondo lea</w>
m our
he ed</w>
f resh</w>
d um
Tuna hitaji</w>
n eva</w>
man uscrip
kum karibia</w>
k s
itu o</w>
in definite</w>
gr and</w>
dwel ling</w>
cam ps</w>
atim iza</w>
Ku tokana</w>
up endeleo</w>
re li</w>
mid st</w>
me dia</w>
m hubiri</w>
iki we</w>
ha ki
grat itude</w>
es n’t</w>
elim isha</w>
bur ud
ali mu</w>
ak iba</w>
ab i</w>
Z O</w>
M azo
umbu izo</w>
p ale</w>
mwang aza</w>
ex tended</w>
et r
bur ned</w>
ali f
R ed</w>
M sa
zinazo weza</w>
up i</w>
thank ful</w>
p uko</w>
over e
jour nal</w>
insec ts</w>
go f
essi onal</w>
dri ving</w>
aliyo kuwa</w>
H us
u kamilifu</w>
suf ficient</w>
mar ital</w>
maji maji</w>
maj ini</w>
ma vun
kup ambana</w>
k we</w>
huf a</w>
adul tery</w>
Y ake</w>
P a
Ath ens</w>
utak apo
un less</w>
st age</w>
speak er</w>
re la
pun ishment</w>
new ly</w>
loc ks</w>
less ness</w>
it ance</w>
com mission</w>
af anywa</w>
ad mitted</w>
Sina i</w>
wam ev
su ko</w>
sp ending</w>
ri wa</w>
ony wa</w>
ngu zo</w>
mado kezo</w>
ik aje</w>
huj itahidi</w>
dist ant</w>
child hood</w>
S overe
P et</w>
5 8</w>
z ab
wis ely</w>
uf ikir
ro ads</w>
psy cho
pressu res</w>
ob tained</w>
ik isho</w>
N im
wa jumbe</w>
wa endelee</w>
vit endo</w>
uliop o</w>
thibit ishwa</w>
spir its</w>
si asa</w>
pat ana</w>
mavun o</w>
ma il</w>
l enu</w>
h s</w>
chungu zwa</w>
Ku tumia</w>
z iki
vic tory</w>
repres ented</w>
pro vo
on ds</w>
nili hisi</w>
n ings</w>
lead er</w>
ho ma</w>
gain ed</w>
enjo ying</w>
dep ends</w>
cus tom</w>
ch or
ath iri
U S</w>
S O
Is land</w>
G ide
u uzwa</w>
prim arily</w>
mg eni</w>
kuwa ona</w>
b ib
av ed</w>
and ed</w>
amb ar
Y ud
U kweli</w>
Mi ongoni</w>
M ili
Kita ifa</w>
G i
vy umba</w>
tang azwa</w>
sal t</w>
mo ves</w>
m d
ig ano</w>
hu wezi</w>
g as</w>
appoin tment</w>
and aliwa</w>
am ed</w>
ali li
Msa ada</w>
Lit tle</w>
E thiop
Anti o
wid ow</w>
view point</w>
ri age</w>
mik azo</w>
kusta hili</w>
ku timizwa</w>
cal m</w>
c m</w>
T ito</w>
Nehem ia</w>
Jose p
D ha
wat endea</w>
v ina</w>
uj e</w>
sta yed</w>
s cr
om ’s</w>
kutu bu</w>
kuku za</w>
histor ical</w>
faith fulness</w>
de af</w>
amaz ing</w>
a than</w>
Messi anic</w>
Ku wa
D A</w>
wan d
us afiri</w>
tegem e
s anaa</w>
remn ant</w>
mp a</w>
mali ki</w>
l amaanisha</w>
kit ulizo</w>
hu a</w>
foc used</w>
v es
tumb aku</w>
ongo ze</w>
lim ani</w>
le we</w>
id huru</w>
hat a
el ements</w>
cre ature</w>
ati vely</w>
Orthodo x</w>
AN A</w>
6 8</w>
wat ano</w>
u peo</w>
tuna ishi</w>
tu one</w>
symbo li
sha pe</w>
refu ge
poss essions</w>
p ana</w>
msaid izi</w>
i zaji</w>
gr ac
fish ing</w>
fe e</w>
exerc ising</w>
appro ved</w>
V ipi</w>
V il
K orintho</w>
Hes abu</w>
Gosp eli</w>
usta himilivu</w>
shamb ulia</w>
par ag
ku li</w>
ele ph
di agno
cli mate</w>
S to
Hal mashauri</w>
F lood</w>
me at</w>
ku maanisha</w>
ir able</w>
dr un
discer n</w>
disas ters</w>
dis order</w>
auth or</w>
at umia</w>
H or
E st
y st
wa jua</w>
v im
ur g
su kari</w>
rec all</w>
reali stic</w>
r ary</w>
per ce
hu andaa</w>
hes ab
coun ter
centr al</w>
bl ame</w>
ard hini</w>
ambuki zo</w>
am ek
Watum ishi</w>
L E
Ku anzia</w>
Gr and</w>
Com mit
uto aji</w>
ud angany
produc ing</w>
lo ad</w>
el se
col le
ci vil</w>
c al</w>
Ru ther
No ah’s</w>
wa vyo</w>
st ance</w>
sin ned</w>
res idents</w>
pl ane</w>
hawa ku
g lad</w>
explan ation</w>
el and</w>
dist ingu
aj ulikana</w>
Pen tekoste</w>
C la
you ’re</w>
vi atu</w>
tot oni</w>
ob stac
o therwise</w>
met al</w>
ma bawa</w>
er o</w>
comm only</w>
af a
Wom en</w>
Abra ham’s</w>
vol k
ra ising</w>
produc t</w>
per su
ough ly</w>
liter al</w>
kuv aa</w>
ifu atayo</w>
en cing</w>
do esn’t</w>
chec k</w>
b it</w>
Zeal and</w>
6 4</w>
wanaj eshi</w>
w ings</w>
sub jection</w>
sis im
re pro
mo dest</w>
ip ya</w>
f at
ci ous</w>
ar ity</w>
ab iria</w>
H ol
to x
tele phone</w>
mi chango</w>
j is
in f
fles hly</w>
fe eding</w>
dem and</w>
d uka</w>
as hi</w>
T I
Sovere ign</w>
S E
ukumb usho</w>
rul ing</w>
rekeb ishwa</w>
pat ri
ob ject</w>
hi t</w>
f light</w>
dis played</w>
ali zaliwa</w>
Kis iwa</w>
E neo</w>
E bu</w>
wanao taka</w>
v ul
tunavyo weza</w>
taraj ia</w>
stor m</w>
ro oms</w>
on do</w>
naf uu</w>
mis s</w>
linal op
l inganisha</w>
ign ore</w>
encour ages</w>
YO U</w>
U juzi</w>
T ham
wali ob
te k
pre viously</w>
mp ata</w>
ir ishwa</w>
ent ’s</w>
ende kezo</w>
end ured</w>
bl ue</w>
any more</w>
ann ual</w>
M r
Jam huri</w>
Gran ted</w>
udangany ifu</w>
s y</w>
li she</w>
kij ani</w>
d ishon
V I
wali tu
s ources</w>
p ua</w>
k ond
k illing</w>
inher itance</w>
i chi</w>
fal ls</w>
en able</w>
ad ikisha</w>
Ta asisi</w>
T R
Resear chers</w>
P ris
Hu uliza</w>
His toria</w>
vi ini</w>
v ali
u thabiti</w>
tal ks</w>
tab aka</w>
mwam ini</w>
inv esti
ex isted</w>
Tit us</w>
Pet er’s</w>
L iving</w>
H am
C ro
supp lies</w>
meaning ful</w>
kuv uka</w>
jo bs</w>
g wa</w>
d eni</w>
courage ous</w>
aka andika</w>
a ada</w>
W ab
Rep ublic</w>
D awa</w>
wo od
wan yoofu</w>
wali endelea</w>
tor ture</w>
ten ing</w>
sens itive</w>
ri vers</w>
p anda</w>
nye upe</w>
mi zizi</w>
ji mbo</w>
j um
est ingly</w>
assign ments</w>
adver t
Protest ant</w>
Penteco st</w>
N jema</w>
198 5</w>
sin cer
refer ring</w>
naf aka</w>
invit e</w>
des per
angam izwa</w>
Th ous
S ch
Mu ch</w>
H ad
A H</w>
will ingly</w>
vi kubwa</w>
ta x</w>
poss ess</w>
pl ain
ng ano</w>
ma sikio</w>
kuti bu</w>
j ib
gu u</w>
cris is</w>
be at</w>
an ika</w>
an ii</w>
ali jibu</w>
ak ti</w>
agg res
U tawala</w>
T ulikuwa</w>
Sci entists</w>
Pr in
I r
5 7</w>
ug umu</w>
u n</w>
suppor ted</w>
saf egu
rid ic
mu undo</w>
kus emwa</w>
gra ve</w>
capac ity</w>
aji uliza</w>
Hi m</w>
C orin
wakis ema</w>
ul ate</w>
tup ate</w>
tex ts</w>
surro unded</w>
sa hau</w>
pe peo</w>
ni aba</w>
kup igwa</w>
d harura</w>
Mo un
H az
6 3</w>
z inapo
yata kuwa</w>
wa somaji</w>
qu is
kusaf isha</w>
kur udisha</w>
kuji zuia</w>
ip at
inc lined</w>
difficul ty</w>
condem ned</w>
akit umia</w>
ak azi</w>
T ume
Jon ah</w>
Her ald</w>
A na</w>
wap inzani</w>
mad ini</w>
k g</w>
fu atia</w>
ex pos
emo tionally</w>
Re be
P h
Milli ons</w>
D el
200 5</w>
possib ility</w>
po lic
p endezwa</w>
mare fu</w>
car d</w>
ber g</w>
amb uzi</w>
alis ali</w>
T afadhali</w>
zi e</w>
s crib
ni we</w>
lo jia</w>
ku nj
if iwa</w>
high est</w>
er ation</w>
be gotten</w>
astr onom
Za b</w>
Promis ed</w>
Inter estingly</w>
Ge org
Ber lin</w>
wor oro</w>
sh r
prepar ing</w>
par able</w>
mte go</w>
mb oga</w>
ma ombi</w>
m ous</w>
kup eleka</w>
kume kuwa</w>
in uka</w>
hi dden</w>
fe ars</w>
brother hood</w>
after noon</w>
W enzi</w>
Tuna wezaje</w>
Hap ana</w>
zilizop ita</w>
wen zangu</w>
up atano</w>
un isti</w>
t ality</w>
ob jects</w>
mw elekezo</w>
mater ials</w>
kus uluhisha</w>
in tended</w>
hel l</w>
end er</w>
dra wing</w>
ari an</w>
al thy</w>
acknowled ged</w>
2 50</w>
z ita
wast e</w>
ri ah</w>
re duced</w>
or g</w>
ki za</w>
gre ed</w>
find s</w>
dec ep
ani ed</w>
aki wa
accomp anied</w>
L ugha</w>
Jud a
Ho sea</w>
trib e</w>
tran spor
the ocratic</w>
parag rap
fle e</w>
contrib uted</w>
al safa</w>
U kiwa</w>
Mic ah</w>
Chronic les</w>
AT I
z ek
transl ations</w>
shi da</w>
pr oud</w>
kus hu
har sh</w>
ga wanya</w>
en tr
eg gs</w>
dev oted</w>
ang et
ang anya</w>
Pac ific</w>
N chini</w>
6 9</w>
20 ,000</w>
,0 00,000</w>
zungum ziwa</w>
wis hiwa</w>
tu lif
op ata</w>
kutek eleza</w>
fundam ental</w>
descend ants</w>
azungum za</w>
and wa</w>
al ert</w>
a andika</w>
S tre
K nor
Jon athan</w>
wel fare</w>
vir tually</w>
symb ol</w>
sp ar
sentim eta</w>
s and</w>
re ques
r ig
pres erve</w>
oblig ation</w>
n av
ku e</w>
j arida</w>
ina elekea</w>
iki aje</w>
ben ki</w>
b ia</w>
at ilia</w>
alivyo kuwa</w>
Sep tu
Lo ti</w>
Ki kundi</w>
C ul
Aj ili</w>
is ri</w>
ing izwa</w>
friend ly</w>
fan anisha</w>
eng ine
ele eni</w>
K ale</w>
Chi ld</w>
temper ature</w>
sing ing</w>
nime kuwa</w>
n et
m semaji</w>
lo s</w>
kus hamb
kin za</w>
head quarters</w>
el ing</w>
am w
ach ers</w>
U tumishi</w>
Eli mu</w>
20 11</w>
198 6</w>
wa angalifu</w>
vit ani</w>
ungu o</w>
ti e</w>
slav ery</w>
o li</w>
mp ira</w>
mi ongo</w>
kuwat unza</w>
kusa hau</w>
ji uliza</w>
ha wata
gr av
g hali</w>
atu maini</w>
arrang ements</w>
ad or</w>
T akatifu</w>
So saiti</w>
wa fany
ven ted</w>
t isho</w>
re ign</w>
le ep</w>
ld ers</w>
kuwa eleza</w>
de pic
bot tom</w>
U siku</w>
N ext</w>
Kais ari</w>
K wa
Do ing</w>
v yetu</w>
ug uzi</w>
u totoni</w>
pi za</w>
med itate</w>
ku ajiriwa</w>
gu ided</w>
far m</w>
ende avor</w>
cy cle</w>
L uc
J ibu</w>
Every one</w>
End eleeni</w>
ut at
un ts</w>
uli e</w>
thro wn</w>
minis terial</w>
mag urudumu</w>
kimb ilia</w>
it wayo</w>
comm it</w>
co f
bun iwa</w>
bo ok
ad iki</w>
Wa y</w>
Kiny ume</w>
Kif aransa</w>
Ka ini</w>
G ro
G ol
8 4</w>
th row</w>
squ are</w>
sid es</w>
ma les</w>
k ets</w>
hawap aswi</w>
equip ment</w>
ent ation</w>
conflic ts</w>
ali enda</w>
adequ ate</w>
accomp lish
U holanzi</w>
S ou
Ina yo
F ili
Bib les</w>
wati ifu</w>
te eth</w>
taf akari</w>
prof essional</w>
produc es</w>
porno graphy</w>
p uliziwa</w>
ma andalizi</w>
kufany ia</w>
kil ele</w>
k amba</w>
e ast</w>
atak apo
am izi</w>
ab adilika</w>
U p</w>
Tru ly</w>
Ki hispania</w>
Fa ther’s</w>
9 7</w>
y n</w>
wa budu</w>
sy lv
s lowly</w>
produc tive</w>
mes sages</w>
hali kuwa</w>
h inda</w>
ele kezwa</w>
che zaji</w>
challeng ing</w>
W ana</w>
Stu dy</w>
Penn sylv
Kar ne</w>
Ji oni</w>
Eli zab
sion ate</w>
s at
prin ting</w>
is hiwa</w>
corrup t</w>
cont amin
band ari</w>
assu res</w>
ali chukua</w>
Y ou
B less
198 7</w>
vo id</w>
uha m
t etemeko</w>
qui et</w>
pregn ant</w>
offic er</w>
belong s</w>
Sam aria</w>
Pennsylv ania</w>
M ta
Egypti an</w>
194 3</w>
so ko</w>
shu ka</w>
pione ering</w>
eng anisha</w>
degre es</w>
col ors</w>
ali mt
accep ting</w>
T aifa</w>
O R</w>
N ab
9 00</w>
si vely</w>
prejud ice</w>
oro ta</w>
ogop esha</w>
o se</w>
maj er
k al
is itiza</w>
en yewe</w>
emb arr
des cription</w>
depend ence</w>
bab ies</w>
ali uliza</w>
ali kazia</w>
Y etu</w>
Wa hindi</w>
S ource</w>
200 8</w>
tang azo</w>
necess arily</w>
ma chafu</w>
kuwa hubiria</w>
ku chi
it as
gras p</w>
deb t</w>
V yo
S I</w>
S H
Ruther ford</w>
M ain
Knor r</w>
Corin th</w>
C i
Bar ua</w>
AM A</w>
waki mbizi</w>
vir us</w>
u hiwa</w>
survi val</w>
repent ance</w>
pron oun
mur der</w>
merc iful</w>
m ki
instruc ted</w>
in ev
fal len</w>
enab led</w>
br ight</w>
ar m</w>
ac knowledge</w>
Po st</w>
Ple ase</w>
where as</w>
v in</w>
umb uliwa</w>
ta i</w>
struc ture</w>
mit indo</w>
mis sing</w>
in formed</w>
f ing
cle ans
chu kuliwa</w>
an afanya</w>
akad iriwa</w>
V E</w>
Resear ch</w>
K ic
z inge
wat alii</w>
vi pi</w>
uf afanuzi</w>
tot ally</w>
shughuli kia</w>
o th</w>
ku mba</w>
j itolea</w>
fo ods</w>
far mers</w>
cer em
c king</w>
bl es</w>
ar uhusu</w>
ar med</w>
Es ther</w>
Con tin
ug omvi</w>
re turning</w>
proc ed
philosop hy</w>
o cean</w>
kuru ka</w>
ku ep
ik ili
ic us</w>
dep end</w>
deli verance</w>
Mod ern</w>
H apa</w>
8 6</w>
trad itions</w>
tengene za</w>
repe ated</w>
Lazar o</w>
LI A</w>
yo ka</w>
vin y
sol ve</w>
si kukuu</w>
kutu pa</w>
kuj itoa</w>
kimb ilio</w>
g rain</w>
elimin ate</w>
contro lled</w>
commer cial</w>
c od
ang a
ambuki za</w>
Was hiriki</w>
6 ,
ucha fu</w>
to weka</w>
spec iali
sin ners</w>
pic k</w>
per mission</w>
p iki</w>
ndi zo</w>
miracul ous</w>
main taining</w>
li mp
kutang uliza</w>
ku dai</w>
fa ir</w>
eter n
be gun</w>
bar ikiwa</w>
b onde</w>
a wake</w>
E duc
Andre w</w>
A kit
A Y
ya onyesha</w>
tu j
sex ually</w>
s aji</w>
p wa</w>
inj ury</w>
es te
d in
ap ani</w>
alipo kufa</w>
Utaf iti</w>
Mar tin</w>
K ur
A ris
5 9</w>
wor ry</w>
taf adhali</w>
spec ially</w>
rec re
peri ods</w>
out come</w>
l ala</w>
ku anguka</w>
kamp eni</w>
ish ano</w>
in come</w>
i us</w>
hu wapa</w>
hap ana</w>
ang ers</w>
Qu estions</w>
Jam ii</w>
1 3
trac ted</w>
tend ency</w>
sp ort</w>
ma r</w>
kupum ua</w>
iliyo tangulia</w>
ho mo
engene zaji</w>
dr ama</w>
associ ates</w>
N ing
2 .
uhakik isho</w>
teen agers</w>
rec ords</w>
mili mani</w>
kili o</w>
ho me
Z echa
S ub
Nili anza</w>
M O
I ll
Hi zo</w>
H ope</w>
H ao</w>
y el
v an</w>
un clean</w>
u fundi</w>
th aminiwa</w>
r ates</w>
prec eding</w>
limit ations</w>
ik ina</w>
i yo</w>
ge uka</w>
doll ars</w>
am i</w>
Up esi</w>
Lazar us</w>
J ifunze</w>
H on
E b
Add itionally</w>
so unds</w>
r ar
mat ineja</w>
lin ked</w>
ju kumu</w>
it is</w>
ha ina</w>
ga ther</w>
es sive</w>
equip ped</w>
discour aged</w>
com pre
b uni</w>
b ones</w>
al asiri</w>
Je an</w>
wa ishi</w>
uhakik ishia</w>
na am</w>
li ko</w>
kuto weka</w>
ki wanda</w>
imar ishwa</w>
ik olojia</w>
if iki</w>
ev an
di vin
campa ign</w>
ar t
Waz ia</w>
W E
R i
M ik
M en</w>
wana pokuwa</w>
view ing</w>
s now</w>
jawa hi</w>
hu itwa</w>
fl ying</w>
d life</w>
ali zo
Tun as
Amaz on</w>
tim ony</w>
prop ag
persec uted</w>
kat wa</w>
ig ia</w>
ide al</w>
g ame</w>
ci ent</w>
chag uzi</w>
Sat ur
S ud
Mak ing</w>
M er
A kina</w>
war ming</w>
ur ug
s at</w>
maal umu</w>
kuwat endea</w>
illustr ations</w>
har amu</w>
gamb ling</w>
ex tra</w>
co vering</w>
ali pewa</w>
ad ium</w>
Y ears</w>
W etu</w>
Pharao h</w>
Nehem iah</w>
sh iniki
rap idly</w>
ny ara</w>
me asures</w>
ku ogopa</w>
j itoa</w>
it ely</w>
inher ited</w>
increas ingly</w>
he dr
Tuli po
K arib
As sy
19 18</w>
san g</w>
orodhes hwa</w>
kus onga</w>
hus a</w>
ele wana</w>
6 07</w>
z aje</w>
wa chochea</w>
v ina
un ajua</w>
su itable</w>
sla ugh
sequ ently</w>
sear ching</w>
kup endwa</w>
ili t
hu patikana</w>
he hebu</w>
gri ev
c ure</w>
bre a
Mt azamo</w>
Mas imulizi</w>
wat apata</w>
vy ema</w>
volunte ers</w>
u fupi</w>
so ver</w>
se y</w>
o ka</w>
nim es
humb ly</w>
g ue</w>
dro p</w>
M takatifu</w>
194 7</w>
wali jua</w>
r is</w>
pig ano</w>
olo gi
m ita</w>
linalo maanisha</w>
kuwa linda</w>
kutu kia</w>
i ah’s</w>
gr ass</w>
do g</w>
cha ko</w>
b us</w>
af any
U sing</w>
U husiano</w>
Tok yo</w>
Ki chwa</w>
J ipya</w>
Bar aka</w>
Babylon ian</w>
uni versal</w>
surro unding</w>
resp ected</w>
ra w</w>
pl enty</w>
nj iani</w>
mis aada</w>
m shuko</w>
it ated</w>
hal afu</w>
f at</w>
chap isho</w>
N ame</w>
Lib rary</w>
I we</w>
H ind
200 9</w>
wali t
ut ambuzi</w>
ung ’
u vi
small er</w>
saf ina</w>
r are</w>
ld er</w>
impres sion</w>
i eni</w>
hisi je</w>
comm ands</w>
cal cul
ad ap
U se</w>
J EHOV
D amu</w>
shor tly</w>
op posed</w>
lin avyo
l elewa</w>
kumb uke</w>
kuf ungwa</w>
it iwa</w>
el ed</w>
San hedr
Rep ort</w>
Na than</w>
M we
194 1</w>
wap iga</w>
wa wezesha</w>
us awa</w>
mat etemeko</w>
l ingekuwa</w>
iti ous</w>
ident ity</w>
hu toka</w>
fin ish</w>
eng i</w>
convic tion</w>
ban k</w>
To keo</w>
Scrip ture</w>
S pec
Pas ifiki</w>
Elizab eth</w>
zisizo faa</w>
tuli pokuwa</w>
tr akti</w>
tar atibu</w>
t ested</w>
kuli pia</w>
hear ted</w>
har akati</w>
eng aged</w>
el le</w>
craf t</w>
alis tic</w>
Congreg ation</w>
rest ore</w>
mat akatifu</w>
kup ind
kuj ulikana</w>
ku lea</w>
idolat ry</w>
hor se</w>
fascin ating</w>
ali jaribu</w>
W ame
Ef eso</w>
20 10</w>
ub uni</w>
tuta kuwa</w>
shu tumu</w>
sh indi</w>
r av
part ner</w>
li br
ku iba</w>
ind ing</w>
for giving</w>
ch emi</w>
am ’s</w>
a kumbuka</w>
Vit abu</w>
S ão</w>
R I
N atur
Mar riage</w>
An na</w>
A ve</w>
yak a
wa ves</w>
strength ening</w>
ow ned</w>
n cha</w>
mw ito</w>
led ge</w>
kut amani</w>
kuondo lewa</w>
kuj ilinda</w>
kug usa</w>
ku ko
ku hama</w>
kili sha</w>
ex tra
et ed</w>
en er
emplo yed</w>
else where</w>
as ser
as ka</w>
ar chae
anat umia</w>
Yud ea</w>
An cient</w>
yali po
y al
wali amini</w>
tak wa</w>
rel ate</w>
ra in
occur s</w>
mwe pesi</w>
mwa mba</w>
ld n’t</w>
kushang ilia</w>
f a</w>
cou ldn’t</w>
bac teria</w>
Steph en</w>
S har
N I</w>
Mal aki</w>
BIB LIA</w>
B ene
wat awa</w>
wana ona</w>
w estern</w>
usimam izi</w>
thodo ksi</w>
si jeni</w>
ru husa</w>
p ond
p igwa</w>
ms isim
mid omo</w>
ma wingu</w>
lov ingly</w>
less ly</w>
initi ative</w>
ig a
fa ther’s</w>
d huru</w>
child ren’s</w>
b y
ali po</w>
Un like</w>
Ch ang
A ar
yan zo</w>
nili o
ng ome</w>
ing wa</w>
im perfection</w>
f f</w>
evan jeli</w>
cont ext</w>
Z amani</w>
Ghar ika</w>
therap y</w>
sor ts</w>
m me
kab ili
it ism</w>
em ia</w>
dr ag
com ment</w>
cat ch</w>
benef ited</w>
atim izwa</w>
achi eve</w>
S and
Mid dle</w>
ty pical</w>
sil ent</w>
r age</w>
or i
mis take</w>
mg ongo</w>
imep ita</w>
en or
en h
embarr ass
ek aria</w>
cl ou
as surance</w>
Z ekaria</w>
Y angu</w>
Shang we</w>
Amb ayo</w>
7 9</w>
wor st</w>
wa wa
vis ivyo
uk ani</w>
re ply</w>
nili taka</w>
nika anza</w>
kilicho chapishwa</w>
intellig ent</w>
hu chukua</w>
func tion</w>
fun ika</w>
er to</w>
ak ik
T hir
Par k</w>
P ap
Ki roma</w>
F al
Ar ena</w>
A ri
st af
ro man
mny enyekevu</w>
mali zio</w>
kul inganisha</w>
kis icho
ex cl
discus sions</w>
cus tom
ar ch</w>
admon ition</w>
ad o</w>
U ko
Kar en</w>
Ina elekea</w>
EHOV A</w>
yame kuwa</w>
re gi
re duc
nik it
mi choro</w>
lo gi
ju kuu</w>
gener ous</w>
f ers</w>
ex al
deli ber
ati za</w>
Stre et</w>
P u
Maj ibu</w>
I sa</w>
Fe ar</w>
t fully</w>
s ites</w>
rul ed</w>
ong ’
nyuk lia</w>
min im
min ane</w>
maj aribio</w>
m su
kushi kamana</w>
il la</w>
id hika</w>
er fully</w>
an ism</w>
aband on</w>
U M</w>
zit ak
wan apata</w>
ung od
t unge
re in
pro found</w>
pres erved</w>
mirac le</w>
ma chapisho</w>
ig an
hau kuwa</w>
ha uj
f lies</w>
er eva</w>
enti rely</w>
engene zwa</w>
an ies</w>
Mi ch
M oja</w>
Lu ther</w>
G ab
A ge</w>
y aj
t s
said iwa</w>
ous y</w>
nar row</w>
mwa budu</w>
mi kusanyiko</w>
m kurugenzi</w>
leg s</w>
it icus</w>
ikir ie</w>
ho st</w>
f ib
coun tless</w>
al ousy</w>
M wanadamu</w>
M AN
twa hitaji</w>
th ri
ris ing</w>
poss ession</w>
oro ka</w>
mat ely</w>
kum heshimu</w>
hanga ika</w>
gi ant</w>
fac ilities</w>
enab les</w>
emp ire</w>
dem ands</w>
ali zungumza</w>
E sa
B ack</w>
Ali wa
’ S</w>
sel fish
jud ges</w>
it im
he ight</w>
fo unded</w>
de fe
ad hi
Y EHOVA</w>
P on
E v
D I</w>
wali mw
un acho
u fanye</w>
transf usions</w>
survi v
n ingeweza</w>
h in
deligh ted</w>
clo sed</w>
bit ter</w>
N umb
An sw
6 7</w>
y alo</w>
wr ath</w>
war fare</w>
u ongozi</w>
t at
sched ule</w>
p engine</w>
out look</w>
omo ko</w>
mwana historia</w>
main ly</w>
l inapo
kufu fuliwa</w>
kik atili</w>
im en
id isha</w>
er ity</w>
end es
en sure</w>
b ought</w>
ali acha</w>
Vis iwa</w>
M ill
wa halifu</w>
us e
stre am</w>
regard less</w>
om ing</w>
mo ther’s</w>
m ka
ku okoka</w>
in qu
ifu ata</w>
hughuli sha</w>
gr am
ek s</w>
ati e</w>
ali ties</w>
ali fu</w>
akat aa</w>
Wana o
N inyi</w>
Msi chana</w>
MA T
Ku toa</w>
An y</w>
ze ituni</w>
transf usion</w>
sw isi</w>
sett led</w>
sec tion</w>
ri ziki</w>
qu e
n amba</w>
mat awi</w>
i er</w>
hu onwa</w>
ho jiwa</w>
flo wer</w>
d ea</w>
ac le</w>
W EN
Glo be</w>
At lan
wak ap
ur al</w>
unavyo weza</w>
um wa</w>
tup u</w>
tit le</w>
scrip ture</w>
s m
rou te</w>
obe ying</w>
mis sed</w>
ma shambulizi</w>
kuz ingatia</w>
kuwa mo</w>
kunge kuwa</w>
it ikio</w>
in ches</w>
i olojia</w>
exec uted</w>
dis p
b le
appro aching</w>
anal y
aliye kufa</w>
Pil ato</w>
No tice</w>
A m</w>
8 8</w>
wam el
vir g
u aje</w>
tum ikie</w>
tuli o
teen age</w>
ri er</w>
lazim ishwa</w>
in cen
hu su
ha il
glo be</w>
gawany ika</w>
ed onia</w>
compas sionate</w>
c ars</w>
ap s</w>
Pro t
Mf umo</w>
L angu
K az
wen da</w>
wame kufa</w>
ur ges</w>
pres er
p u
kup onya</w>
haya kuwa</w>
fa idi</w>
eng ’
educ ational</w>
crim in
ad ai</w>
Georg ia</w>
Concer ning</w>
C ain</w>
Ba al</w>
Ali andika</w>
ush ing</w>
um ed</w>
terr or
surpris ing</w>
stat us</w>
satis fy</w>
r ab
or ’s</w>
n inaweza</w>
human kind</w>
ch on
b od
announ ced</w>
R wanda</w>
MA R
Hawa ii</w>
Ba ali</w>
sent ence</w>
ris h</w>
ok sijeni</w>
mit azamo</w>
mab omu</w>
immedi ate</w>
hung ry</w>
e hemu</w>
crim inal</w>
afu ata</w>
ad mit</w>
W alipo
N E
F i
D am
9 8</w>
9 6</w>
7 8</w>
up building</w>
un known</w>
u husiwa</w>
shamb ulio</w>
sh ana</w>
ox y
ki theokrasi</w>
k on
ig no
hay aj
g al</w>
fir st
figur ative</w>
Gosp els</w>
wat as
u malizio</w>
sh ine</w>
sak afu</w>
ro ws</w>
pro verb</w>
pro te
pou red</w>
ong amano</w>
mwang alifu</w>
map ambo</w>
echo ka</w>
dep th</w>
bisho p</w>
b att
al m</w>
Ki elelezo</w>
Christend om’s</w>
y p
weak nesses</w>
wali toa</w>
ver sion</w>
ut as
usio faa</w>
tre m
temp ted</w>
sus tain</w>
strong er</w>
signific ance</w>
si wezi</w>
s car
rewar ding</w>
reg is
pursu ing</w>
po is
pe ers</w>
pati ently</w>
ng azi</w>
mad uka</w>
er ce</w>
cho ices</w>
at as
W ala</w>
Mi ezi</w>
K al
HA T</w>
D aktari</w>
ut akao
u d</w>
tun acho
se kond
sekond ari</w>
kuz u
in am
gof ya</w>
b iwa</w>
b ase</w>
at afanya</w>
Waf any
W HAT</w>
R ef
P ub
1 10</w>
ush ind
und ua</w>
tend ea</w>
tal ked</w>
str ict</w>
s amehe</w>
magn ific
j as
chap ishaji</w>
add ressed</w>
Wam isri</w>
Mo m</w>
M if
F ed
Ali ye</w>
z ana</w>
wali kubali</w>
vi jiji</w>
t ea</w>
sha ji</w>
rejo icing</w>
public ly</w>
mato leo</w>
iliyo tolewa</w>
head ed</w>
favor ite</w>
doub le</w>
cru el</w>
calam ity</w>
z is
separ ated</w>
o ko</w>
ku eleweka</w>
kis hawishi</w>
immor tal</w>
hospit ality</w>
fit ting</w>
c au
a x
Mkat oliki</w>
K en
H uku</w>
ulio fuata</w>
s ending</w>
rewar ded</w>
par k</w>
m guu</w>
kup ungua</w>
if undisha</w>
exam ination</w>
et wa</w>
ess els</w>
c ue</w>
an im
ac k
At l
w on</w>
vit umbuizo</w>
ti lia</w>
some what</w>
refre shing</w>
practic ed</w>
p elekwa</w>
le an</w>
kufun ika</w>
fund ishaji</w>
el iness</w>
beli ever</w>
as y</w>
Zecha riah</w>
U we
T ak
Religi ous</w>
O ver
Fin land</w>
1 30</w>
un uzi</w>
mab ara</w>
kutu fanya</w>
ku zoea</w>
ikir iwa</w>
e ba</w>
cul tures</w>
consider able</w>
Whi ch</w>
W ere</w>
Ty nd
Septu ag
J ord
G om
yaliyo andikwa</w>
ser p
p hoto</w>
or al</w>
n est</w>
life ’s</w>
gl ass</w>
f ab
cont empl
bore sha</w>
av ana</w>
acc used</w>
Pra yer</w>
Mean while</w>
L e</w>
Ki roho</w>
Jo el</w>
H adi</w>
C ur
AN G
14 5</w>
ww w.
wakit umia</w>
v ements</w>
troub led</w>
tow ns</w>
simil arly</w>
r ene
pl ed</w>
m ult
lim its</w>
l ect</w>
l ds</w>
ha ja</w>
dam aged</w>
arri ve</w>
ame kufa</w>
al l
Spir itual</w>
S tor
Pas sover</w>
M awa
Lo t</w>
Ki asi</w>
Ephes us</w>
ya ona</w>
wany iko</w>
uti on
un ataka</w>
u zee</w>
tech ni
symbo lic</w>
staf f</w>
spec tac
ri ch
pum zi</w>
proce eded</w>
onyes h
ly mp
kuf ungua</w>
ho ji</w>
ex change</w>
c up</w>
ab ili</w>
Evid ently</w>
9 1</w>
194 6</w>
zim ep
wali kataa</w>
wa oko
obe yed</w>
listen ers</w>
iz ing</w>
ho pes</w>
fin ed</w>
f ro
even th</w>
et y’s</w>
estab lish
end ao</w>
effec tively</w>
be ars</w>
Tam aa</w>
Septuag int</w>
L ast</w>
Kic hapo</w>
A bo
A P
1, 500</w>
’ ll</w>
week ly</w>
u majimaji</w>
prec ed
p angwa</w>
kum a</w>
inher it</w>
ind ano</w>
im pris
ign or
hand ed</w>
g usa</w>
extra ordinary</w>
clo ck</w>
arri val</w>
araj io</w>
ali vyo</w>
Wor ship</w>
Th ings</w>
C or</w>
A gain</w>
A cha</w>
A H
5 ,
z wi</w>
ungu zwa</w>
um ek
trag edy</w>
resol ved</w>
rememb ered</w>
re semb
og elea</w>
o sa</w>
mar ika</w>
man ne</w>
lime kuwa</w>
kil o
imm une</w>
ham isha</w>
be ast</w>
zin at
ut apata</w>
ship ped</w>
mk opo</w>
ma onyo</w>
kupum zika</w>
ku kawa</w>
j aza</w>
impris oned</w>
hu ta
hu athiri</w>
foo lish</w>
charac ter</w>
ap ar
ang ulizi</w>
ang ilio</w>
ac hia</w>
Uwe zo</w>
S hauri</w>
N ita
Mwand ishi</w>
M ol
KU T
K E
Hu u</w>
ushir ikiano</w>
tu ko</w>
t esti
o po
mr aba</w>
im proved</w>
ho ped</w>
gro ws</w>
go ld
f righ
def ense</w>
U huru</w>
R ight</w>
Mari amu</w>
L D</w>
H as
Fo od</w>
B an
A si
str ange</w>
ny ororo</w>
nj o
l ling</w>
cro ps</w>
attrac tive</w>
ana endelea</w>
aliye ishi</w>
ad umu</w>
acqu ire</w>
U swisi</w>
M zee</w>
I wapo</w>
9 2</w>
200 6</w>
prosp erity</w>
kuji husisha</w>
ku gundua</w>
kikab ila</w>
isiyo faa</w>
col lap
ali tangaza</w>
V ati
U jumbe</w>
Lear ning</w>
D O</w>
wrong doing</w>
tiv ity</w>
tes timony</w>
she ba</w>
sel ec
remind s</w>
re me</w>
ques tion
mn ara</w>
lili ripoti</w>
lic it</w>
kuka za</w>
intro duc
fal ling</w>
ali sha</w>
PAG E</w>
M y
H ong</w>
Gali laya</w>
Franc is
Caes ar</w>
9 9</w>
vi c</w>
oxy gen</w>
ny uki</w>
n isi
memor ies</w>
mbi u</w>
lim b</w>
kuj aza</w>
ku cha</w>
ik itisha</w>
ex tinc
d ating</w>
cof fee</w>
awa ida</w>
Mb ona</w>
Am ri</w>
Al bert</w>
yak awa</w>
weak ness</w>
wa fundisha</w>
us ad
u diwa</w>
sha ped</w>
re mind</w>
onyes hi</w>
m shang
l em
f led</w>
af siriwa</w>
acc idents</w>
Sam ar
De partment</w>
De ad</w>
yoo sha</w>
wid o
wanat umia</w>
waj ali</w>
v azi</w>
uz aji</w>
up ana</w>
u chaguzi</w>
ris ks</w>
poli tics</w>
ob vious</w>
o mb
ma dai</w>
m kiwa</w>
kuf ariji</w>
ku faulu</w>
ku chapisha</w>
kit ovu</w>
ist ant</w>
ip eleka</w>
happ ening</w>
ad ding</w>
K wani</w>
K or</w>
Jo s
Commit tee</w>
Centr al</w>
194 4</w>
ut ap
teen ager</w>
sherehe kea</w>
oppos ers</w>
of a</w>
mak taba</w>
kuto fautisha</w>
ki unabii</w>
hu ja</w>
esti mate</w>
deep er</w>
concep t</w>
ang es
Y ale</w>
K on
7 1</w>
z ungu
yali vyo
wat er
u tu
sup posed</w>
sim ulia</w>
s wal
prog res
pos itions</w>
mach ine</w>
m ke
ku ume</w>
increas es</w>
in t
il hali</w>
him isha</w>
gawany wa</w>
exc iting</w>
ex haus
conven i
ch ina</w>
bre aking</w>
app lication</w>
acquain ted</w>
WA K
Sib eria</w>
Pal est
Ma andishi</w>
Lev iticus</w>
Id ara</w>
B l
Af ter
wa hitaji</w>
u wa
nik awa</w>
mo lec
me chan
mali zika</w>
ki oo</w>
k or
je alousy</w>
ili onekana</w>
ic hukua</w>
i itwayo</w>
hu dai</w>
hazi wezi</w>
comm ented</w>
ass es</w>
Solom on’s</w>
Samar it
S ear
His tor
Bo li
20 12</w>
. m</w>
prot ini</w>
ol dest</w>
ng’ ambo</w>
maju mba</w>
le kuli</w>
ku vi
ki cho
j id
inc lin
for bid
end less</w>
des irable</w>
bet ra
avyo kuwa</w>
Ye ar</w>
Wana po
Pol y
P ope</w>
KU WA</w>
ur uga</w>
stan tin
sp l
por tra
nor mally</w>
mater i
ma cy</w>
kuwa penda</w>
kuk eti</w>
haya wezi</w>
fura hie</w>
exper im
end ana</w>
dram atic</w>
comm end
Wali o
R el
Ku jua</w>
Jord an</w>
Col le
Ag ainst</w>
Abo ve</w>
zek ia</w>
us omaji</w>
un afiki</w>
uli anza</w>
mw ongo</w>
mb uga</w>
map igano</w>
lat ter</w>
ji hisi</w>
ilip ino</w>
he wani</w>
fif th</w>
exten sive</w>
e ke</w>
comb ined</w>
ali fundisha</w>
af ikiria</w>
W all</w>
T ra
P ress</w>
Mo jawapo</w>
He zekia</w>
F er
Esa u</w>
D or
D ep
A ny
yaf a
wa cha</w>
v ain</w>
thor oughly</w>
sen ses</w>
ro ots</w>
ro of</w>
recog n
re place</w>
mo tives</w>
man j
inten s
infec tion</w>
el op
dom estic</w>
dis fellow
crow ds</w>
bahar ia</w>
V if
V an
T ro
Sup reme</w>
Mili ma</w>
Jos é</w>
Den mark</w>
8 9</w>
194 8</w>
wam em
v essels</w>
test anti</w>
sacrif icing</w>
ro testanti</w>
ric ul
recre ation</w>
pres ents</w>
particip ate</w>
og ope</w>
o th
min ute</w>
karib ie</w>
f ought</w>
des ert</w>
an iwa</w>
ab aki</w>
Wap rotestanti</w>
T ex
Re ading</w>
Lou is</w>
K ituo</w>
Div ine</w>
witn essed</w>
ur ge</w>
ungod ly</w>
un uliwa</w>
tr ou
toler ance</w>
super st
sar afu</w>
nad hiri</w>
mean time</w>
m cho
kip ya</w>
k w
in ts</w>
hung er</w>
he kaya</w>
favor able</w>
fam ine</w>
expec tations</w>
di an</w>
b idi</w>
ali ti</w>
He zeki
wat azamaji</w>
up enda</w>
un righteous</w>
ter min
s us</w>
re alm</w>
p endwa</w>
lif est
ku tuliza</w>
ku ifanya</w>
ku angalia</w>
hi o</w>
gene tic</w>
de adly</w>
an ni
ali st</w>
U ajemi</w>
S iri</w>
C am
B id
war ds</w>
s on
re v
or ities</w>
o ked</w>
mti hani</w>
mo b
larg ely</w>
kup ima</w>
ki zuizi</w>
ik ip
hu fanyiza</w>
hat una</w>
des ired</w>
app lies</w>
an yo</w>
Scot land</w>
Ma elezo</w>
H ana</w>
wat ch
ut y</w>
um ar
uele waji</w>
star ting</w>
recomm ended</w>
nim epata</w>
ma haba</w>
lili vyo
ku ongozwa</w>
ke zi</w>
k aliwa</w>
hib itiwa</w>
hat uj
experi encing</w>
es ome</w>
deal t</w>
bl ind
at ambua</w>
akam wambia</w>
Vir g
Kim ataifa</w>
195 1</w>
’ ve</w>
rar ely</w>
pas sage</w>
ms ongo</w>
m chochea</w>
loc ked</w>
lo red</w>
itaw ishe</w>
illustr ated</w>
ev un
cha weza</w>
avo red</w>
a weze</w>
C z
As ili
we aring</w>
v yanzo</w>
tu taf
tr ation</w>
pre fer</w>
ma kumi</w>
ki fu
k ne
hau wezi</w>
comp anies</w>
cla y</w>
W el
W E</w>
Uko sefu</w>
S I
Mad aktari</w>
Ku bwa</w>
K ile</w>
Do c
Asili mia</w>
trus ting</w>
om ed</w>
m ib
lov akia</w>
kup elekwa</w>
it awa
ha le</w>
expres sing</w>
emer gency</w>
dis h</w>
bre ast</w>
ali ki
a y
Mal achi</w>
F ac
vol c
r ib
o red</w>
lo t
kuwa hi</w>
ku la
inspir ing</w>
hu tafuta</w>
hu fanywa</w>
eng er</w>
discus sing</w>
cl oud</w>
c ement</w>
bran ches</w>
ar gu
agog i</w>
U na</w>
S ever
N inapo
A T</w>
wana hisi</w>
ufikir io</w>
trem end
tre asures</w>
propag anda</w>
manu fac
m jini</w>
l oud</w>
ku unganisha</w>
ho p
fu el</w>
er evu</w>
det ail</w>
ar asa</w>
ambuli sho</w>
afflic ted</w>
T ri
T ou
Ind ones
Dun iani</w>
Ang el
we althy</w>
respond ing</w>
pl ague</w>
p ill
origin ally</w>
nye usi</w>
mo des
kut am
kus itawi</w>
iz we</w>
ing ness</w>
il inganishwa</w>
hor ses</w>
h ange
en ’s</w>
c ried</w>
bur ied</w>
Per u</w>
O cean</w>
K ong</w>
A void</w>
wana endelea</w>
trag ic</w>
ter ns</w>
sp ishi</w>
remo te</w>
r d</w>
m ess
liki zo</w>
kit amaduni</w>
ic y
go ods</w>
et es</w>
cre ating</w>
class es</w>
am uliwa</w>
ak ajibu</w>
Tr ust</w>
R ul
Pic tures</w>
Mazo ezi</w>
Mach o</w>
Ar gent
Ar c
wan acho
waand ikaji</w>
up set</w>
ud hika</w>
te kin
te es</w>
shtak i</w>
s cat
parti al</w>
ng ur
j ang
huku e</w>
festiv al</w>
de pri
choo sing</w>
atu ambia</w>
ag izwa</w>
Columb ia</w>
B en</w>
An n</w>
vill ages</w>
ungu kiwa</w>
u mashuhuri</w>
tekin olojia</w>
re view</w>
privileg ed</w>
plan ning</w>
ki ch
ing i
he m</w>
ende e</w>
convers ations</w>
co sts</w>
ban ned</w>
ar ted</w>
Pr ague</w>
Nili hisi</w>
N uru</w>
Med ic
Cer tain
8 1</w>
195 3</w>
1 1
wa sema</w>
vis ababishi</w>
up per</w>
under stand
u ze</w>
shtak iwa</w>
shind ana</w>
re ap</w>
pos it
mi elekeo</w>
kun ufaika</w>
kili mo</w>
ge uzwa</w>
fer tili
etern ity</w>
earthqu akes</w>
ar abu</w>
Y u
T ry</w>
T ab
Gali lee</w>
Fa ith
B ali</w>
A bel</w>
3 0,000</w>
200 7</w>
198 3</w>
wat unza</w>
ume wahi</w>
tong ues</w>
sof t</w>
op enly</w>
no ise</w>
kut un
kut endewa</w>
ind ul
hu kubali</w>
fe wer</w>
f ra
dra ws</w>
b ut
ad ri</w>
Z i
Thr oughout</w>
R io</w>
N av
M e</w>
K I
J eho
His ia</w>
Americ ans</w>
19 35</w>
á n</w>
strong ly</w>
seem ingly</w>
n yote</w>
me als</w>
kab oni</w>
indic ation</w>
gold en</w>
go ats</w>
gener ations</w>
es tion</w>
chem chemi</w>
bib i</w>
athiri je</w>
affec ts</w>
af ika</w>
acc us
L ilikuwa</w>
Car ol
B inti</w>
Ale ks
7 7</w>
197 5</w>
x ing</w>
t ance</w>
qu o
mer ch
main tained</w>
linalo faa</w>
lif t</w>
let ting</w>
husi anishwa</w>
fan ia</w>
exper t</w>
distrib uted</w>
conduc ting</w>
celebr ation</w>
app ing</w>
any ing</w>
adv anced</w>
S awa</w>
L inda</w>
Kus anyiko</w>
D eli
ti ble</w>
pe l</w>
on ekani</w>
k ikiwa</w>
ivun o</w>
declar ing</w>
connec ted</w>
circum c
an uka</w>
ac com
Wana weza</w>
Pil ate</w>
E con
Certain ly</w>
uf uliwa</w>
to ols</w>
st on</w>
st ar</w>
sab uri</w>
ro se</w>
map afu</w>
ku itikia</w>
ku elekeza</w>
initi al</w>
hali maanishi</w>
ex act</w>
el elezi</w>
cir cul
au ka</w>
attemp ts</w>
ard ed</w>
Yo h</w>
Vati can</w>
Se fania</w>
Jud ea</w>
G O
C as
zim es
w ipe</w>
vi zazi</w>
sti r
s eventh</w>
rend ering</w>
ran ean</w>
pro hib
p uka</w>
organiz ations</w>
ol oni</w>
magnific ent</w>
m shi
fore ign
flo od</w>
dif fer</w>
defin itely</w>
dec ade</w>
avo ided</w>
an aj
amo unts</w>
alipo wa
al ehe</w>
Mi chezo</w>
Econ om
C E</w>
C A</w>
Ab sal
z one</w>
ub s</w>
u tume</w>
tr ies</w>
stat ements</w>
sle eping</w>
sho t</w>
prot est
pre y</w>
pe t</w>
objec tive</w>
o v
min or</w>
maju kumu</w>
kam ani</w>
kad iria</w>
hur umia</w>
f ran
cul tural</w>
burud ani</w>
amb ari</w>
ali maanisha</w>
aj o</w>
Wat er</w>
Soci ety’s</w>
Pro gramu</w>
Nd ani</w>
Ku ji
Ho tuba</w>
Her ode</w>
H U
Francis co</w>
we igh</w>
wan akabili</w>
wa shed</w>
w. org</w>
vis ivyo</w>
vi ziwi</w>
ut ely</w>
uk ari</w>
tend ing</w>
sp reading</w>
shughuli ka</w>
reflec ts</w>
mat ope</w>
let wa</w>
kuji weka</w>
ki fupi</w>
j w.org</w>
inayo fanya</w>
f la
eph ani
destin ation</w>
con taining</w>
ato fautiana</w>
Z ephani
Po s
J O
I T</w>
Hu yo</w>
B ang
Answ ers</w>
zin avyo
y apata</w>
wap akwa</w>
up umbavu</w>
um ishonari</w>
sawa sawa</w>
rap id</w>
por ts</w>
plan ted</w>
nili ona</w>
mour ning</w>
ki vuli</w>
jit enga</w>
ina eleza</w>
ho li
hi de</w>
er i</w>
do z
d ir
bur n</w>
aul u</w>
and ’s</w>
accomp anying</w>
U E</w>
Sab ato</w>
M beg
M E</w>
M A</w>
Lo s</w>
Gu in
Bu il
Aar on</w>
zina onyesha</w>
uni versity</w>
tes eka</w>
pregn ancy</w>
ord ingly</w>
mus cles</w>
mshang ao</w>
kabid hi</w>
encoun ter</w>
en trusted</w>
dar aja</w>
bo w</w>
appe aling</w>
Sec re
P E
B or
B E</w>
Al b
t iki</w>
re r</w>
prospec ts</w>
omo ka</w>
ob serving</w>
kund e</w>
isiyo weza</w>
hu tokana</w>
destruc tive</w>
al le
aki zungumza</w>
She pher
Mbeg u</w>
waj ifunze</w>
unao onyesha</w>
uc hu
protest anti</w>
ondo ke</w>
nit awa
natur ally</w>
mt enda</w>
kut endwa</w>
kumw eleza</w>
inayo onyesha</w>
ig iza</w>
hu elekea</w>
enor mous</w>
ele e</w>
ati i</w>
ali anzisha</w>
ad okeza</w>
a b</w>
Z in
W azo</w>
S en
Ne ed</w>
Mar afiki</w>
Gab ri
Con tro
wali jaribu</w>
vye o</w>
u one</w>
tun ataka</w>
to s</w>
ten ance</w>
st y
spo t</w>
res er
per mitted</w>
mp enda</w>
lac king</w>
kun isaidia</w>
kuchu kiza</w>
k oni</w>
il etea</w>
ic als</w>
grand parents</w>
g er
ep id
en ligh
des pair</w>
az ame</w>
aliwa himiza</w>
adu fu</w>
Y eho
Stu dies</w>
New s
K now</w>
J us
H ati</w>
y be</w>
y alin
wali wa</w>
trans ferred</w>
str ike</w>
re conc
po l
occup ied</w>
mif ugo</w>
ligh tly</w>
kut atusaidia</w>
ho st
d hana</w>
c ode</w>
ato lewa</w>
ali zed</w>
S k
M ir
Kus oma</w>
Ili yo
Ak ili</w>
wali pewa</w>
ucho vu</w>
tr ust
recogn ition</w>
pa y
ow ner</w>
oub tedly</w>
op s</w>
mu ujiza</w>
kili shi</w>
jud icial</w>
it ikiaje</w>
in eo</w>
exec ution</w>
eng anishwa</w>
emplo ye
ele k
am epata</w>
T umia</w>
T hail
N ye
Mwan afunzi</w>
J aribu</w>
B uku</w>
B lood</w>
zinazo faa</w>
uli ka</w>
ub atili</w>
t ineja</w>
sp an</w>
s mile</w>
re jelea</w>
ph en
out set</w>
mb ie</w>
marri ages</w>
majer aha</w>
kid s</w>
he dhi</w>
friend ships</w>
f illing</w>
emb rac
dri ver</w>
continu ing</w>
bl an
any aswa</w>
ali amini</w>
V ER</w>
S wit
S wali</w>
O thodoksi</w>
Lam b</w>
Ab eli</w>
198 4</w>
wind s</w>
ul oni</w>
su dden</w>
plan ned</w>
perfec tly</w>
pass engers</w>
ment ally</w>
ma kaburi</w>
kuf unua</w>
ku is
ku haribika</w>
k inaweza</w>
id o</w>
ghar imu</w>
ge uza</w>
ex er
con trad
c attle</w>
Than ks</w>
F anya</w>
194 2</w>
wali uawa</w>
w inda</w>
the ologi
repres ents</w>
protec tive</w>
mad eni</w>
ma shimo</w>
m ch
ku hangaikia</w>
ju kwa
iv al
it y’s</w>
hali joto</w>
farag ha</w>
et tes</w>
e ye
clou ds</w>
certain ty</w>
ata arifu</w>
af ford</w>
Vil evile</w>
S anduku</w>
Ne ther
Mu himu</w>
J enn
yen ye
ut en
uli yo
uli sha</w>
ul ated</w>
t one</w>
s ili
mid ogo</w>
lv d</w>
kuo gofya</w>
kip ande</w>
iti i</w>
ina kuwa</w>
ili wa
if ai</w>
hand ling</w>
fa ult</w>
e uri</w>
dro pped</w>
disco very</w>
clean ness</w>
ap asa</w>
angam ia</w>
am el
a aza</w>
Saf ari</w>
Nether lands</w>
Lili lo
L ar
Kno w
IS T
Dr ama</w>
Canad ian</w>
B lvd</w>
tun ajua</w>
pursu it</w>
manuscrip ts</w>
maha kamani</w>
kutu main
kuge uza</w>
fan tas
em peror</w>
eag erly</w>
c us</w>
Wis dom</w>
S ayansi</w>
Of isi</w>
Hear t</w>
Cre ation</w>
yaliyo tukia</w>
whe at</w>
wam en
the arted</w>
spec ific
se at</w>
regard ed</w>
obstac les</w>
o graphic</w>
mil ango</w>
mb er</w>
ma hubiri</w>
lifest yle</w>
kum tia</w>
h ou
devast ating</w>
b ra
alini ambia</w>
adoles c
ad ers</w>
V ik
Tynd ale</w>
Mw ishoni</w>
Columb us</w>
Ant on
wakili shi</w>
vig or
ten s</w>
safegu ard</w>
sa y
por tions</w>
mas sive</w>
kuwa ongoza</w>
kumw elekea</w>
k ambo</w>
is ivyo
hub a</w>
hu weka</w>
g ang</w>
fo ld</w>
f afanua</w>
educ ated</w>
do ers</w>
ch en</w>
T as
Kik atoliki</w>
After ward</w>
A sa</w>
will ingness</w>
v aa</w>
tremend ous</w>
sto ck</w>
sho p</w>
refuge es</w>
re pair</w>
per cep
nam ely</w>
ku ku</w>
ku kam
ku changia</w>
kit anda</w>
kilo gramu</w>
form erly</w>
fig ures</w>
es turi</w>
en ye
ele zea</w>
ed ition</w>
disco ver</w>
chron ic</w>
anxi eties</w>
Y anayo
We b</w>
Maf undisho</w>
M ur
Know ledge</w>
D E
Bud d
wood en</w>
wasi om
war nings</w>
wana kuwa</w>
walio zeeka</w>
val ley</w>
ti oned</w>
pri ze</w>
mor ally</w>
lad y</w>
kuo lewa</w>
ku kubaliwa</w>
ili pokuwa</w>
il ’s</w>
g res
err ors</w>
earn estly</w>
compar ison</w>
cler gy
b ima</w>
ap parent</w>
Z awa
Swit zer
R ights</w>
Mar gar
M bin
Gre en
D if
Coun cil</w>
9 4</w>
í a</w>
za r</w>
wali onyesha</w>
ung uliwa</w>
un expected</w>
t ant</w>
sp on
res cue</w>
kujit enga</w>
ko suko</w>
j ike</w>
investi g
ha yat
f unza</w>
et em
deter i
cut ting</w>
attrac ted</w>
T us
HO W</w>
Con f
Budd his
wind aji</w>
uj euri</w>
ub ini</w>
surviv ors</w>
shtu ko</w>
shtu a</w>
ma adamu</w>
loo se</w>
kik ombe</w>
ki makosa</w>
iwa n</w>
it ful</w>
hu patwa</w>
ho t
hekal uni</w>
gu ese</w>
doc ument</w>
b utter
as leep</w>
al u
Portu guese</w>
Per sian</w>
Mus li
Mad rid</w>
Ma hubiri</w>
En d</w>
B as
Ar t</w>
194 9</w>
16 th</w>
zisizo stahiliwa</w>
vi pofu</w>
tang uliza</w>
sincer ely</w>
reas oned</w>
mishi pa</w>
kumw ogopa</w>
kuche zea</w>
ku po
hutu kia</w>
himi zo</w>
ha ip
fi xed</w>
ex hib
er up
earthqu ake</w>
construc ted</w>
commun ities</w>
b one</w>
asi asa</w>
as ting</w>
aro se</w>
amin ika</w>
U G
Bar abara</w>
B Y</w>
was oma</w>
wal inda</w>
v yaweza</w>
ur ur
ucha wi</w>
si x
sha ba</w>
ro g
par ty</w>
overwhel ming</w>
niliyo kuwa</w>
lon ely</w>
lo b
ku heshimu</w>
ki ini</w>
f its</w>
es ter</w>
dis orders</w>
col on
ad just</w>
ab adili</w>
Zawa di</w>
Switzer land</w>
Na i
H ur
wali hudhuria</w>
uk is
shar p</w>
rebel li
lik ened</w>
la un
influ ences</w>
in dependence</w>
igno red</w>
has iriwa</w>
flo od
er ever</w>
du ties</w>
atta ched</w>
ass ume</w>
al ously</w>
ab etes</w>
Y on
Ta iwan</w>
S ta
Jud ge</w>
Ex am
Braz ili
19 20</w>
zili shi</w>
w imu</w>
um ini</w>
som ea</w>
should er</w>
rec ep
nili fanya</w>
man aged</w>
li zwa</w>
kum tumaini</w>
enthusi as
eho w</w>
defin ed</w>
da d</w>
b ’s</w>
ash es</w>
Wafany akazi</w>
S m
10 3</w>
virtu e</w>
uk ali</w>
te ar</w>
sur ve
sur ge
st em</w>
nutr ition</w>
n our
mind ed</w>
ma p</w>
kat aza</w>
d umisha</w>
conclud es</w>
chu pa</w>
b icy
at tain</w>
To day’s</w>
Mediter ranean</w>
Mbin u</w>
Kid ini</w>
Juda ism</w>
wang ali</w>
wame jifunza</w>
uv umbuzi</w>
tr ic
saf ely</w>
recomm end</w>
rac ial</w>
ong side</w>
o di</w>
mo lekuli</w>
mi ongozo</w>
mab ilioni</w>
m changamfu</w>
la ugh
kumb ukwa</w>
kuchu kuliwa</w>
ku ut
ka haba</w>
k ingi</w>
ito le
ili onyesha</w>
hu changia</w>
environ mental</w>
doub ts</w>
cr ying</w>
b ud
azungum zo</w>
ac tual</w>
ab usive</w>
M azungumzo</w>
M E
IN E</w>
Happ iness</w>
zili po
wame ona</w>
v ent</w>
v ary</w>
uham ishoni</w>
t ap
sug ar</w>
str angers</w>
p ir
ish ana</w>
instr ument</w>
inj ur
ha wangeweza</w>
gus wa</w>
fol lows</w>
every day</w>
car bon</w>
bar ani</w>
az aliwa</w>
alter native</w>
a idi</w>
Vi ongozi</w>
End elea</w>
Be ach</w>
AR I</w>
tu pa</w>
pri ority</w>
pos ali</w>
par ental</w>
p aka</w>
nili jifunza</w>
med itation</w>
maj ivuno</w>
lab or
kus ababu</w>
kikam ilifu</w>
hudhuri aji</w>
hat ut
frustr ation</w>
exp an
def end</w>
ag ricul
S am</w>
O hio</w>
Ma il</w>
H E
Flor ida</w>
z uka</w>
ung’ un
s and
respec ts</w>
pe er</w>
mp angilio</w>
ku athiriwa</w>
hu mw
hu fikiri</w>
fulf illing</w>
for mal</w>
fi cha</w>
ete zwa</w>
em por
e go</w>
d y
confir med</w>
changam sha</w>
ch u</w>
billi ons</w>
T ib
S ote</w>
S aa</w>
N Y</w>
Ma elfu</w>
In dex</w>
H ome</w>
Fran k</w>
Ar ab
wali cho
uz z
uta yari</w>
ust in</w>
una hisi</w>
un yofu</w>
uk ame</w>
tun apata</w>
s cro
regre t</w>
prophes ied</w>
proclaim ers</w>
prim e</w>
phen om
orodhes ha</w>
mav umbi</w>
m somi</w>
kuwa zoeza</w>
kut om
in ju
in amaanisha</w>
iliyo fanywa</w>
hil l</w>
fun uliwa</w>
fu atwa</w>
end eshwa</w>
cha i</w>
ang ered</w>
afan ikiwa</w>
U l
K anaani</w>
Joh ann
Ar th
198 2</w>
197 4</w>
tend aji</w>
se kunde</w>
pres sed</w>
prepar ation</w>
om ea</w>
nin avyo
mar adufu</w>
map ambano</w>
manif ested</w>
ma iti</w>
kuj itayarisha</w>
kufany iwa</w>
k n
j angwa</w>
he al</w>
ex tend</w>
ar o</w>
ali ze</w>
Vol ume</w>
U m
S uc
Pl an
Lik ely</w>
Jud e</w>
Ill ustr
E ver</w>
Argent ina</w>
Ana po
AL I</w>
yanayo husu</w>
uta ona</w>
ur iwa</w>
te ens</w>
t aji</w>
sh ingo</w>
pl at
mli puko</w>
kus imamia</w>
kum hofu</w>
kuj itiisha</w>
ku yas
ib lia</w>
hu tofautiana</w>
hang aa</w>
gain ing</w>
frequ ent</w>
ende kezwa</w>
dang anya</w>
c lear
bad ly</w>
ap h
ang ia</w>
ali onya</w>
ag ues</w>
addic tion</w>
Thail and</w>
Sab bath</w>
N ep
M et</w>
L ive</w>
Ki ongozi</w>
Inas emekana</w>
G l
C OR
Ac tually</w>
was n’t</w>
vul ner
veget ables</w>
v inaweza</w>
usad ikisho</w>
ta il</w>
serp ent</w>
s burg</w>
r ide</w>
lon eliness</w>
kuwa husu</w>
in av
in apaswa</w>
ign ific
ho ping</w>
hit i</w>
hap pi
h ated</w>
ep usha</w>
char ged</w>
bo mba</w>
anc es
ad isi</w>
ab road</w>
a endelee</w>
Po wer</w>
Mediter ania</w>
K r
Fre edom</w>
D I
Amo s</w>
Ali ye
0 0
who le
trans mitted</w>
ti re</w>
sal aba</w>
s ul
ro me</w>
res ide</w>
ox ide</w>
op ti
me ek</w>
kur a</w>
j itokeza</w>
hu fundisha</w>
des p
ang uliza</w>
an ne</w>
an asa</w>
Vi ew</w>
News week</w>
M I
Con sequently</w>
Bet ter</w>
195 5</w>
wen zako</w>
um il
umil ele</w>
od ia</w>
occasi onally</w>
mn yoofu</w>
ku kinza</w>
j aribiwa</w>
hus ababishwa</w>
hi haki</w>
em in
Sever al</w>
Pic ture</w>
Inaf undisha</w>
Har v
Go li
E sta</w>
Che mbe</w>
Boli via</w>
Barn ab
BIB LE</w>
Alexand er</w>
195 8</w>
uk as
ug e</w>
u karibishaji</w>
ter ’s</w>
st ery</w>
respec tful</w>
ra ibu</w>
n es
mo tive</w>
mat eka</w>
kup ona</w>
ku oa</w>
kid esturi</w>
ern acle</w>
elek tr
bus in
badili shwa</w>
amb atana</w>
alit enda</w>
Philip p
M roma</w>
Gent iles</w>
7 4</w>
19 38</w>
xim ately</w>
wh enever</w>
wa seja</w>
una pokuwa</w>
uli we</w>
s lo
per mit</w>
overwhel med</w>
oppres sion</w>
mat arajio</w>
map atano</w>
mag ugu</w>
m amba</w>
li qu
kun amaanisha</w>
kud hihirisha</w>
ingine ko</w>
impres sive</w>
at aa</w>
asu red</w>
amo si</w>
aid ika</w>
Wal es</w>
Vic toria</w>
O lymp
M eg
Kno wing</w>
Jum amosi</w>
Jud ges</w>
J uli
7 ,
1 st</w>
yam ep
win dow</w>
was h</w>
wanao weza</w>
wa simamizi</w>
wa komavu</w>
wa kif
v uti</w>
u kamili</w>
ta xes</w>
suppor ting</w>
ru husiwa</w>
rep ent</w>
remind ers</w>
r ent</w>
pe ak</w>
mo stly</w>
mab ishano</w>
life time</w>
l ’s</w>
huwa saidia</w>
has ia</w>
ha ll</w>
es thood</w>
deleg ates</w>
d enly</w>
cre ative</w>
be ar
angam izi</w>
an ani</w>
ad ala</w>
Tr ib
Sud denly</w>
Sear ch</w>
Ny ingi</w>
M uziki</w>
Jo b’s</w>
I ta
Gol den</w>
Barn aba</w>
Arth ur</w>
A sh
y an</w>
unao weza</w>
r ice</w>
ligh ted</w>
kurid hika</w>
ku lin
hes him
explain ing</w>
ev es</w>
e u
dis appointed</w>
dhi ha
crib ed</w>
bro ad
br ide</w>
ang ali</w>
al u</w>
al ongside</w>
al ada</w>
adjus tments</w>
Wa amuzi</w>
S od
Numb ers</w>
M ig
Hezeki ah</w>
Barnab as</w>
B R
10 4</w>
wag a</w>
v ing
unaj isi</w>
tu weze</w>
there by</w>
t ile</w>
set tle</w>
sa v
s ession</w>
ne li
kul alamika</w>
ku ambukiza</w>
kombo lewa</w>
k es</w>
it ishwa</w>
ili shwa</w>
hu ongeza</w>
hai wezekani</w>
en isaidia</w>
emphasi zed</w>
el ling</w>
el ines</w>
cr ushed</w>
con ve
com promise</w>
collec tion</w>
co operation</w>
co ol</w>
chem icals</w>
bre ath</w>
bi ological</w>
ar ekani</w>
amaz ed</w>
J I</w>
In sight</w>
Happ ily</w>
H ali
Dev elop
zip atazo</w>
vicha che</w>
ur iko</w>
tu a</w>
swe et</w>
sub mit</w>
st able</w>
sel ected</w>
rewar ds</w>
r us</w>
kuto elewana</w>
ko ho
it um
happ ily</w>
fish er
expos ure</w>
ex ile</w>
eas tern</w>
and ani</w>
Yu go
Wali o</w>
Vi ol
T S</w>
S is
yap asa</w>
thr illed</w>
strik ing</w>
si p
rob i</w>
po st</w>
nili mw
kumt unza</w>
kum shukuru</w>
ke ys</w>
k inge
it at
hu kabili</w>
hu chochea</w>
hard ships</w>
ha wishiwa</w>
ha ishangazi</w>
et aka</w>
c lin
b ag
ali ke</w>
Wasi o</w>
S iria</w>
O x
Is lands</w>
F eli
Cha lleng
Ch er
v el</w>
tu ji
specific ally</w>
sel ling</w>
po pe</w>
nye mbamba</w>
nav ig
n ipate</w>
lic ate</w>
kuf undishwa</w>
ki afya</w>
infan t</w>
imb aji</w>
heal ed</w>
ev i</w>
eng aging</w>
bro ad</w>
Nai robi</w>
Indones ia</w>
F ar</w>
Atlan tic</w>
weza cho</w>
up u</w>
t azamia</w>
sho ck</w>
sh ou
say ings</w>
re mbo</w>
pum ziko</w>
ord ani</w>
mat iti</w>
manj ano</w>
lu x
lita kuwa</w>
lev i</w>
kungo ja</w>
iliyo andikwa</w>
ham ed</w>
ha is
for gotten</w>
fo cus
dec re
d uty</w>
ari jiwa</w>
accur ately</w>
Yon athani</w>
Ne ither</w>
M engi</w>
Kwa mba</w>
I l
Ci vic</w>
C O</w>
waand amani</w>
um es</w>
st itution</w>
pri or</w>
log ist</w>
lin aripoti</w>
kuv ua</w>
instr uments</w>
in atia</w>
ha ugh
eng ana</w>
e ze</w>
d umu</w>
conqu ered</w>
command ment</w>
av i</w>
atis tics</w>
and ikisha</w>
WAT U</w>
O s
Ne bu
Mw ingereza</w>
M tawala</w>
Langu age</w>
E lders</w>
195 2</w>
vo c
veget ation</w>
sub stance</w>
re aches</w>
ms ituni</w>
kuf afanua</w>
ki u</w>
im men
hanga isha</w>
gent le</w>
expec tation</w>
et ly</w>
el evu</w>
detail ed</w>
continu ally</w>
cl ing</w>
ba hati</w>
b uk
as aidia</w>
ame he
Ep uka</w>
Bethle hem</w>
B us
195 7</w>
yaliyo onwa</w>
wa cha
sta hi</w>
s ina</w>
prev ail
physic ian</w>
on ja</w>
ne ed
mat urity</w>
mar ks</w>
m na</w>
kut ak
kis iri</w>
hu fuata</w>
es h</w>
bad ness</w>
as es</w>
ap enda</w>
V en
Ser mon</w>
Pro ph
Jud as</w>
A z
7 6</w>
0 .
ya wezekana</w>
vid io</w>
v ikiwa</w>
tab ernacle</w>
p ungua</w>
o vyo</w>
man age</w>
kujit egemea</w>
kuf adha
ir udi</w>
ind uzi</w>
il em
ika anza</w>
hu ongoza</w>
hib iwa</w>
fur n
anti cip
ana ona</w>
ali o</w>
ali kiri</w>
WH EN</w>
Rec ently</w>
P rac
L ight</w>
Han nah</w>
Faith ful</w>
Bec ome</w>
B onde</w>
8 7</w>
ze alously</w>
y azo</w>
wa hili</w>
vip ya</w>
urg ent</w>
um et
ufan anisho</w>
read er</w>
promo ted</w>
pres entation</w>
pl as
om unisti</w>
msu kosuko</w>
mat azamio</w>
ku kis
ku kasirika</w>
k en
inst it
ic ation</w>
fund s</w>
ele wi</w>
d ne
col um
al t
Z iwa</w>
Y an
W angu</w>
Thous ands</w>
T B</w>
Pro v</w>
L enye</w>
Guin ea</w>
F l
Eno ch</w>
ze wa</w>
wa sik
tre ating</w>
rest ra
promo tes</w>
pri esthood</w>
opini ons</w>
nili weza</w>
ne ema</w>
nd rome</w>
kuk esha</w>
hom oni</w>
gu o</w>
dis obedience</w>
dec line</w>
c ited</w>
a im</w>
Nin ev
Cana an
19 31</w>
y ard</w>
walip om
wali amua</w>
wa safiri</w>
wa ko
wa hisi</w>
umb awe</w>
u potovu</w>
tuf eni</w>
th ick</w>
t ends</w>
stu p
n ambari</w>
law lessness</w>
kup aswa</w>
j iko</w>
id ols</w>
co lored</w>
ch unga</w>
br ut
bo und
bit ter
ap or
P R
M UN
D an
An n
Amo si</w>
Ad am’s</w>
8 2</w>
195 6</w>
war n</w>
wali zo
wali ou
waj ane</w>
vol ume</w>
vit i</w>
vid ole</w>
vid e
tim ely</w>
taraj iwa</w>
t ted</w>
sk ill</w>
nik is
le l</w>
l ls</w>
hor n</w>
end uring</w>
b i</w>
anc ement</w>
amo yo</w>
acc ord</w>
ac es</w>
Y ordani</w>
Vi umbe</w>
U le</w>
T wapaswa</w>
Su n</w>
P an
J ua</w>
war m
wali fikiri</w>
wa wa</w>
ut ch</w>
trac ts</w>
su mbua</w>
slav ia</w>
qu es</w>
practic ing</w>
paragrap h</w>
mwen u</w>
movi es</w>
m shtuko</w>
kuz uru</w>
kut waa</w>
kumu ua</w>
inc ident</w>
hu jifunza</w>
el eta</w>
ak ani
af ikia</w>
Zephani ah</w>
TH E
Sim on</w>
O ri
N ASA</w>
M stari</w>
L an
Josep hus</w>
Her od</w>
G hana</w>
Dar win</w>
B y
Ali fanya</w>
8 ,000</w>
vis hawishi</w>
ulio wekwa</w>
uhali si</w>
tun azo
sur ing</w>
sim p
sha hidi</w>
ro piki</w>
o jo</w>
mk we</w>
lang oni</w>
kushi kilia</w>
iv unia</w>
hon esty</w>
hi kamana</w>
h ren
first born</w>
com posed</w>
co mbin
clean ing</w>
belong ings</w>
b ond
ame weka</w>
af isha</w>
Una o
Tex as</w>
Ro yal</w>
N jo
Jo si
Gali leo</w>
Fu ture</w>
E specially</w>
C amb
A Z
wame gundua</w>
vit o</w>
tou ching</w>
ter nal</w>
st am
s indano</w>
rest oration</w>
li kit
kupind ukia</w>
kum wa</w>
k et
jour n
in trig
imb wi</w>
hud umia</w>
hu kazia</w>
ha f
glor ify</w>
fun eral</w>
cont empor
b order</w>
an acho
ame hewa</w>
U amuzi</w>
The ocratic</w>
Nis an</w>
N isani</w>
Dha mbi</w>
C I
Ana ye
wor n</w>
we kewa</w>
wat ched</w>
wany ika</w>
wali hisi</w>
wal etea</w>
tunayo weza</w>
ti ed</w>
mit ting</w>
len yewe</w>
kur udishwa</w>
in dependent</w>
immor tality</w>
hel o</w>
fung uliwa</w>
ema la</w>
earn est</w>
cha ri
bor ne</w>
at ikani</w>
aliwa andikia</w>
ali omba</w>
S ura</w>
Ki theokrasi</w>
ISH A</w>
I si
Angel es</w>
AM B
wanaj itahidi</w>
walin i
wa ve</w>
ud hibiti</w>
ta yarishwa</w>
ri i</w>
regi ons</w>
rebelli ous</w>
pi ano</w>
ph r
p inga</w>
p igo</w>
nik am
mal engo</w>
linalo weza</w>
li ta</w>
kub urudisha</w>
ku kubalika</w>
ho le</w>
enjoy able</w>
deligh tful</w>
de gr
brid ge</w>
ba ha</w>
ab st
Z o
Yugo slavia</w>
IL I</w>
ys is</w>
yel low</w>
yafa ayo</w>
vulner able</w>
v uka</w>
th in</w>
t amu</w>
sa ving</w>
pas wi</w>
on ’t</w>
on er</w>
ni um</w>
mil len
lo aded</w>
ku isoma</w>
ku asi</w>
ku ang
ki e</w>
it wao</w>
ip iga</w>
ili fanywa</w>
h ers</w>
der eva</w>
crim es</w>
brother ly</w>
ana pokuwa</w>
an ing</w>
Mas ter</w>
H igh
ves sel</w>
vali d</w>
sil ence</w>
shtu ka</w>
receiv es</w>
po se
p unda</w>
p tion</w>
ou ter</w>
nyang avu</w>
kutu chochea</w>
kuto weza</w>
ko fia</w>
jer uhiwa</w>
j awa</w>
im s</w>
iliyo je</w>
har ass
f ever</w>
es h
enter ing</w>
el la</w>
cor por
consci enti
assemb lies</w>
ap ers</w>
Wais lamu</w>
T re
T atu</w>
S T</w>
Ha ishangazi</w>
Ar chae
z ers</w>
vehi cle</w>
ta hi</w>
t ele</w>
pro claimed</w>
pri orities</w>
or ful</w>
kuf icha</w>
it ung</w>
isi ve</w>
hind u</w>
hel per</w>
gover ning</w>
ek i</w>
do ws</w>
d imin
as on</w>
ant iki</w>
Ukra inia</w>
S ac
M kutano</w>
He b</w>
wez alo</w>
uti o</w>
ung ama</w>
spec tive</w>
sel y
libr ary</w>
kutu a</w>
koho li</w>
k ill
is tics</w>
inayo kaliwa</w>
if ying</w>
hup unguza</w>
fici ency</w>
believ es</w>
beg a</w>
ar aja</w>
ad or
Sal v
Phi list
Haz ina</w>
Bid ii</w>
8 ,
197 8</w>
yat ima</w>
yanayo husiana</w>
uny evu</w>
under ground</w>
succe eded</w>
por ojo</w>
peace able</w>
ombole zo</w>
mv uke</w>
mp endeza</w>
mis si
mad hehebu</w>
kusta himili</w>
kisi cho</w>
ifu atazo</w>
guaran tee</w>
do gs</w>
dec or
cultiv ating</w>
athe tic</w>
as idi</w>
apo logi
ak apo
adili ko</w>
Tham ani</w>
Satur day</w>
R ach
Pat ric
N at
Mal awi</w>
Ma endeleo</w>
M j
Hatu wezi</w>
B ara</w>
zungu kwa</w>
ur ban</w>
tak iwa</w>
t adha</w>
strugg ling</w>
soldi er</w>
recomm ends</w>
pro ving</w>
pal m</w>
or ofa</w>
offer ings</w>
mor ality</w>
mo tion</w>
mach ines</w>
ku faidika</w>
ku ambia</w>
ki we</w>
jud ged</w>
ina wa
has is</w>
ha kum
gar ments</w>
fail ing</w>
este em</w>
en tic
em ’s</w>
d ume</w>
b eho
av utiwa</w>
abor tion</w>
To m</w>
S mo
P op
O ut
N O
C hur
B lack</w>
197 9</w>
w ishes</w>
ut awa
us he</w>
us aidia</w>
ul aji</w>
u on
ti fication</w>
ter ies</w>
t les</w>
refre sh
n ira</w>
man n</w>
ma ambukizo</w>
long ed</w>
la yer</w>
kuwa ua</w>
kutu maini</w>
kujif urahisha</w>
ku rekebishwa</w>
inju red</w>
in surance</w>
ib ly</w>
g hasia</w>
ex isting</w>
d ata</w>
colle ge</w>
car ds</w>
ass ure</w>
ap ore</w>
Wil aya</w>
Vi et
Te acher</w>
T ele
Sus an</w>
Sm ith</w>
Pro vid
Nor way</w>
Lo oking</w>
Had ithi</w>
Even ing</w>
D A
C lose</w>
truc k</w>
to ol</w>
som ehow</w>
r ance</w>
min es</w>
ku hatarisha</w>
kit oto</w>
er ated</w>
b low</w>
as hamed</w>
am ev
V ib
V atikani</w>
Ukra ine</w>
Ki jerumani</w>
Jer sey</w>
Ethiop ia</w>
Eb r</w>
B iashara</w>
ushir ikina</w>
un alo
uli vyo</w>
ul ed</w>
tu l
ti r
tar get</w>
t our</w>
sent enced</w>
pro jects</w>
p our</w>
mfu ko</w>
lif ted</w>
gather ings</w>
con serv
c enters</w>
ati on’s</w>
as tahili</w>
ange fanya</w>
ak s</w>
ak an
V ER
Sod oma</w>
S um
No thing</w>
N ad
Kim ungu</w>
H ouse</w>
Fran k
1. 5</w>
walio jiweka</w>
wa shing</w>
w ol
res s
require ment</w>
reco very</w>
pos hughulika</w>
n inayo
mi xed</w>
me as
k ilo</w>
head ing</w>
ha kutaka</w>
fa ther
et eza</w>
dis tor
dig rii</w>
d ated</w>
ang ep
al ani</w>
Yo sia</w>
M limani</w>
Cana an</w>
A lif
200 ,000</w>
your s</w>
wav uvi</w>
wali weza</w>
wak ali</w>
wa ge</w>
v y</w>
ta uni</w>
t wen
sha me</w>
scat tered</w>
res ident</w>
promis ing</w>
nili amua</w>
ma umbo</w>
li est</w>
ist an</w>
iny ima</w>
ib ia</w>
distingu ish</w>
declar ation</w>
d hihirisha</w>
comfor ted</w>
cigar ette</w>
c auti
ba g</w>
apar tment</w>
ap ewa</w>
aku ki</w>
Z ili
World wide</w>
Sing apore</w>
Indi ans</w>
Hab akuki</w>
G ard
A ta
2, 500</w>
ul ing
uha s
the ast</w>
opti mis
nec k</w>
men tions</w>
loy ally</w>
li mes
kuwa chochea</w>
kumw onyesha</w>
kit andani</w>
k oma</w>
in ch</w>
hai maanishi</w>
fashi on</w>
exam ined</w>
do kando</w>
den y</w>
co ast
awa iting</w>
ar ikiwa</w>
ali wat
ab led</w>
W av
Un til</w>
Sci entific</w>
Mab adiliko</w>
Hab ak
God ly</w>
wezek ane</w>
wali gundua</w>
tun alo
s emi</w>
r ural</w>
quali fy</w>
p uzz
o es</w>
lin k</w>
kuti lia</w>
ku zeeka</w>
ki ungo</w>
hap aswi</w>
exerc ised</w>
cons ult</w>
ap om
ali mwa
ali lazimika</w>
ag undua</w>
acqu ired</w>
W enyeji</w>
St and
P ut</w>
Medic ine</w>
Ku hani</w>
Egypti ans</w>
Com pl
Brazili an</w>
Bethle hemu</w>
B ath</w>
Atl antiki</w>
wanao dai</w>
vil le</w>
umb ile</w>
trans formed</w>
temp er</w>
t endeka</w>
t azamiwa</w>
sl and
scrib es</w>
nili cho
neighbor hood</w>
mio yoni</w>
maz ishi</w>
map endekezo</w>
ma kaa</w>
li ked</w>
kuto tii</w>
kad iriwa</w>
inti mate</w>
ev il
el ess
e iro</w>
courage ously</w>
coun ted</w>
comp ul
blo s
bene ath</w>
araj iwa</w>
andam iza</w>
advis ed</w>
acc um
absol utely</w>
a hir
Mat ukio</w>
Jo y</w>
A D</w>
wana of
wa linzi</w>
vili ma</w>
und wa</w>
u ja</w>
tuna ona</w>
trust worthy</w>
threat ening</w>
surpris ingly</w>
sor row</w>
neutr ality</w>
modes ty</w>
l an</w>
ing e</w>
inaf undisha</w>
hes ha</w>
ge ukia</w>
f i</w>
end era</w>
end eni</w>
des erve</w>
chu kue</w>
ast iki</w>
ames ema</w>
aliyes ema</w>
alipo kea</w>
alipo anza</w>
ag hai</w>
advant ages</w>
ad hili</w>
W in
Ur eno</w>
Thir d</w>
Mat akatifu</w>
M wili</w>
Kut afuta</w>
Gu ar
ʹ a</w>
y ab
wali ji
wa ma</w>
ushind ani</w>
uj irani</w>
tu kis
ti ci
tab asamu</w>
sci entist</w>
s k</w>
pro vin
m linzi</w>
kuwa lea</w>
kut azam
kunj o</w>
kit ropiki</w>
kar i
il legal</w>
hisi amoyo</w>
exc essive</w>
end ar</w>
ear n</w>
doctr ines</w>
develop ments</w>
co vers</w>
ban ks</w>
appro ximately</w>
ali z
activ ely</w>
a endelea</w>
T ob
Re al</w>
I weni</w>
A br
198 1</w>
18 th</w>
1 60</w>
zim et
yam es
ut angulizi</w>
tri um
touris ts</w>
swe pt</w>
sha baha</w>
pl astiki</w>
or row</w>
nj ama</w>
motiv ate</w>
mo l
miracul ously</w>
mat i</w>
ma baharia</w>
kw ingineko</w>
inayo patikana</w>
hap ishwa</w>
fe ared</w>
ev alu
ar do</w>
alip endezwa</w>
ali onyeshaje</w>
Wam arekani</w>
Te aching</w>
T aking</w>
Ob viously</w>
Ning ependa</w>
Nili pata</w>
Mwana historia</w>
Mr adi</w>
M wang
Ki afrika</w>
IM ULI
G ib
Al aska</w>
wasio amini</w>
under stands</w>
unao itwa</w>
uj anja</w>
u ch</w>
tru th
temper ed</w>
te l</w>
refer ences</w>
pat terns</w>
p ity</w>
mo vements</w>
kij it
hat es</w>
ha yata
guid elines</w>
ere he</w>
em is
dis appointment</w>
d ressed</w>
attac ked</w>
amb i
ali i
MUN GU</w>
Karib uni</w>
Is hara</w>
G reg
worth while</w>
wanaop enda</w>
wanao tumia</w>
wak ili</w>
wa mp
ur able</w>
uhas ama</w>
u ality</w>
su bu
subu hi</w>
sta ying</w>
ma faa</w>
linalo tafsiriwa</w>
lili l
kun it
kinacho itwa</w>
hu eleza</w>
high light</w>
ha kimu</w>
g est</w>
deliber ately</w>
ck y</w>
any where</w>
alipo andika</w>
al ’s</w>
U fu
So dom</w>
S ir</w>
Mwis raeli</w>
Mag onjwa</w>
L ile</w>
Ele za</w>
C ris
A subuhi</w>
196 1</w>
0 8</w>
yaliyo fanywa</w>
ul es</w>
tuli pata</w>
st al
pro sely
ny uso</w>
kum sikiliza</w>
kis ukari</w>
kich wani</w>
inter ven
ic ity</w>
equ ival
emp hasis</w>
el em
cris y</w>
co oking</w>
as af
ar m
ana kumbuka</w>
U thibitisho</w>
P RO
Kib iblia</w>
Dis trict</w>
Any one</w>
z amu</w>
wido ws</w>
we pesi</w>
wa one</w>
thr illing</w>
spl end
s ki
qu ant
ou tr
oko ta</w>
nyang umi</w>
mbole za</w>
mach in
ma uti</w>
kit ambaa</w>
in king</w>
in atoa</w>
illustr ates</w>
des ol
celebr ate</w>
cau tion</w>
b age</w>
ak in
ak aj
Y ear
Waj er
U mati</w>
U kit
Nili taka</w>
Mar e
Mak ao</w>
M aliki</w>
Ku kabiliana</w>
D omin
C are</w>
wom an’s</w>
wang es
us it
ura ibu</w>
tup wa</w>
tr end</w>
t unza</w>
ste al</w>
sha dow</w>
s th
resear cher</w>
represent atives</w>
represent ative</w>
phr ase</w>
pat akatifu</w>
om wa</w>
ng api</w>
ne ys</w>
maf uriko</w>
li t</w>
kib ichi</w>
kat azwa</w>
ir ingo</w>
im migr
hut enda</w>
hab le</w>
ha idhuru</w>
gi es</w>
fun ulia</w>
fil m</w>
fa i</w>
ene zwa</w>
echa gua</w>
di abetes</w>
desper ate</w>
clo th</w>
ce ase</w>
Wajer umani</w>
Sel f</w>
L Y</w>
1 39</w>
wat am
wa wakilishi</w>
ut am
und ani</w>
ul evi</w>
st ressed</w>
st ab
photo s</w>
mi zo
mal kia</w>
li pa</w>
kup as
inj ili</w>
heshim ika</w>
eleph ants</w>
disfellow shipped</w>
d ered</w>
confron ted</w>
char ges</w>
al masi</w>
advert ising</w>
W OR
U tendaji</w>
J ew</w>
I’ ll</w>
Hat upaswi</w>
Glo bal</w>
C el
Br id
9 3</w>
yo ga</w>
unao zidi</w>
sug u</w>
sim uliwa</w>
sh we</w>
n u
mili ki</w>
if or
hesab iwa</w>
har ti</w>
go ssi
exam ining</w>
e aten</w>
contrib ution</w>
character istics</w>
ar rest</w>
Tun ajifunza</w>
Har uni</w>
Gen eva</w>
C L
B eg
19 33</w>
whe el</w>
u kim
to sha</w>
ta yarisha</w>
t t
res entment</w>
r udisha</w>
pre achers</w>
offic es</w>
ob aki</w>
o ana</w>
nili kutana</w>
ish u</w>
im uliwa</w>
iliyo po</w>
iliyo chapishwa</w>
he it</w>
hand isi</w>
d ance</w>
commit ment</w>
ain ’s</w>
V ene
T ukio</w>
Nam i</w>
Mwand ikaji</w>
JEHOV AH</w>
Gre eks</w>
Fa ida</w>
wafany abiashara</w>
w on’t</w>
vit amini</w>
ut akatifu</w>
ti an</w>
sho es</w>
s cor
pro ves</w>
o live</w>
nili jua</w>
mu uliza</w>
kutan oni</w>
kushamb ulia</w>
kam ata</w>
joy fully</w>
ilin isaidia</w>
fe ast</w>
f ungua</w>
endele eni</w>
cooper ate</w>
cen tered</w>
anga hewa</w>
UN A
U B
Th at’s</w>
Spe aking</w>
Rep or
Nor thern</w>
Ne ar</w>
John ’s</w>
In to</w>
I naweza</w>
yo ke</w>
wom b</w>
wana wa
walio hudhuria</w>
w ita</w>
vi kuu</w>
tro ops</w>
the y
su pre
sho pping</w>
s essions</w>
rap e</w>
pre vented</w>
pas sages</w>
negl ect</w>
n ight
mo japo</w>
it or
im prison
husi anisha</w>
ha kujua</w>
gar ment</w>
fi ery</w>
cru cial</w>
class mates</w>
circ le</w>
atu kumbusha</w>
appe aring</w>
al koholi</w>
aid iwa</w>
T en</w>
Philipp ines</w>
Par t</w>
Lis ten</w>
Lev ites</w>
K awaida</w>
G a
3 .
0 6</w>
transpor tation</w>
tas ks</w>
t all</w>
symboli zed</w>
stri ving</w>
shang ilia</w>
sever ely</w>
s cap
por i</w>
neutr al</w>
ma dawa</w>
m tak
kujif icha</w>
ka yo</w>
isivyo faa</w>
him isho</w>
high lighted</w>
h oney</w>
ex ce
e h</w>
diagno sed</w>
avun ja</w>
an ishe</w>
adv ancement</w>
Wor ds</w>
Wana zi</w>
Tuli pokuwa</w>
Pon ti
Math alani</w>
Eli hu</w>
EN T</w>
AL M</w>
0 9</w>
wat eja</w>
wali lazimika</w>
ug h</w>
u haraka</w>
th west</w>
ten sion</w>
tan e
t ine</w>
sol ved</w>
ro bo
ris t</w>
pe upe</w>
mv iringo</w>
leg ally</w>
kuwa zuia</w>
kuli piza</w>
id hisha</w>
hal mashauri</w>
fi res</w>
etr ag
equival ent</w>
dre ams</w>
dom s</w>
bir th
asi po
ab used</w>
Uni versal</w>
Ug anda</w>
Naz ar
F OR</w>
Cal vin</w>
As ili</w>
yon za</w>
watum ie</w>
wa kik
vac ation</w>
uv uvi</w>
ub ishi</w>
ta hadhari</w>
sh ea</w>
secre tary</w>
s amb
ro cks</w>
repro ach</w>
re pa
pl ess</w>
pass es</w>
p ambano</w>
opo tam
ny ikani</w>
ner v
mf ungwa</w>
kum zuia</w>
ku ogopesha</w>
ku elimisha</w>
ku aib
kijit abu</w>
ific ation</w>
ic h</w>
fu ko</w>
end or
em ed</w>
e able</w>
d uni</w>
c lif
belong ing</w>
ast on
arri ves</w>
ali gundua</w>
aggres sive</w>
acha gua</w>
ab asamu</w>
M do</w>
J im</w>
Educ ation</w>
wat angazaji</w>
v enti
transl ators</w>
pursu its</w>
p aths</w>
p ace</w>
or able</w>
mic ro
lic ated</w>
kes ho</w>
ik an
id ara</w>
fu kuza</w>
esti mates</w>
ere ji</w>
dilig ent</w>
d ’s</w>
conf usion</w>
associ ating</w>
alip ou
adv oc
UN G
R am
Ho fu</w>
Hi ro
Gr and
yanayo onyesha</w>
wan azo
vi vi
ut s</w>
po ol</w>
per spective</w>
per forming</w>
o tic</w>
no te
mwe mbamba</w>
med itating</w>
kuj engwa</w>
ku shindana</w>
iti isho</w>
ic hu
hul umiwa</w>
ha wange
gradu ates</w>
forbid den</w>
fe a
fa ir
exc it
d ua</w>
contamin ated</w>
com ed</w>
c s</w>
c limb</w>
big gest</w>
b endera</w>
at afuta</w>
ali chagua</w>
Ye yote</w>
U ny
S lo
R IS
Pe kee</w>
Mta alamu</w>
M and
Hum ans</w>
Hospit al</w>
Franc is</w>
D utch</w>
3, 500</w>
wen dea</w>
wame p
w l</w>
vehi cles</w>
ut ter</w>
una ona</w>
u andalizi</w>
tu wezayo</w>
trans gres
to ll</w>
sty les</w>
sn are</w>
sh ore</w>
purcha se</w>
pe ar
op aswa</w>
ma fupi</w>
kuto kuwamo</w>
kuji ona</w>
kud hoofisha</w>
ke en</w>
kan dokando</w>
issu ed</w>
ip s</w>
ime ongezeka</w>
hu na</w>
high lights</w>
favor ably</w>
e ji</w>
ar ti
ag o
adhi bu</w>
Ze itung</w>
Sel si
S uf
Na weza</w>
M lo</w>
Jo y
H aya</w>
D raw</w>
D .
Bo x</w>
A sian</w>
w iwa</w>
star ts</w>
simam ia</w>
shel ter</w>
sab uni</w>
s ingeweza</w>
publish er</w>
ple asures</w>
ould n’t</w>
mu huri</w>
m ing
kut abiri</w>
kus imam
kuli kuwako</w>
kucho chewa</w>
ing ojea</w>
hot eli</w>
hang ilia</w>
etem eka</w>
e yale</w>
car ries</w>
b lock</w>
ap endeza</w>
ang s</w>
amb ie</w>
am riwa</w>
ali zing</w>
ak afa</w>
afan anisha</w>
a hisi</w>
Se ed</w>
Po lish</w>
Jes hi</w>
Ap parently</w>
yal eyale</w>
y amaanisha</w>
wel comed</w>
wanat ambua</w>
wa ka</w>
volunte er</w>
un believing</w>
ufu o</w>
tu zo</w>
selfish ness</w>
ru ka</w>
pre d
pow ered</w>
mt ini</w>
mad ereva</w>
kum fuata</w>
ito e</w>
ili tumiwa</w>
hut ambua</w>
hur tful</w>
hu u
hab it
g anda</w>
d hani</w>
d al
cat astro
bor e</w>
attemp ted</w>
at anisha</w>
app et
amba za</w>
absol ute</w>
Uli kuwa</w>
To a</w>
Pu erto</w>
Mes opotam
Kus ema</w>
Fr id
Contin ue</w>
z zar</w>
yam et
volk eno</w>
un wise</w>
tum es
tra p</w>
ti ous</w>
threat s</w>
tas ari</w>
moun tain
in fer
ik ika</w>
hypo crisy</w>
hiv es</w>
hi ma</w>
for man
fi erce</w>
dro ve</w>
cons ul
commend ation</w>
charac ters</w>
avo iding</w>
at af
associ ations</w>
Z ambia</w>
W ad
U ng
U aminifu</w>
Selsi asi</w>
On es
M oney</w>
Fa hren
wato lea</w>
wam o</w>
waliob atizwa</w>
wa ache</w>
w d</w>
vers ary</w>
uk oma</w>
t ness</w>
survi ving</w>
st rip
scrip tural</w>
s alia</w>
pic s</w>
one theless</w>
mater ially</w>
mak ampuni</w>
kup anua</w>
kuchu kia</w>
ku onyeshwa</w>
ku ambukizwa</w>
ki enyeji</w>
jas ho</w>
h tasari</w>
fru itful</w>
f f
du ara</w>
ab leness</w>
M chungaji</w>
M T
E li</w>
D em
Commun ist</w>
Cen tury</w>
197 2</w>
196 5</w>
wil dlife</w>
wa za</w>
wa ende</w>
utak avyo
ur gency</w>
um in
reflec ting</w>
oper ations</w>
kuli fanya</w>
king doms</w>
ikit egemea</w>
ig e
hu thamini</w>
hu kosa</w>
hi kilia</w>
gu ards</w>
fac tory</w>
f ate</w>
f afanuliwa</w>
contin ent</w>
bac ks</w>
arg ument</w>
aki olojia</w>
W y
Val ley</w>
P esa</w>
O l
Ku j
Ke eping</w>
A habu</w>
yali anza</w>
wasi we</w>
w y</w>
v isi
uvi mbe</w>
u di
spir itism</w>
sis itiza</w>
ric s</w>
plac ing</w>
p lo
on ers</w>
ifun ika</w>
dis posed</w>
bo ats</w>
be aten</w>
achiev ed</w>
W abab
UR I</w>
P ote</w>
M B
Kup atana</w>
I ki
Fahren heit</w>
F ind</w>
wa baya</w>
usi we</w>
ulti mately</w>
th at’s</w>
t an</w>
sib lings</w>
school ing</w>
s op
s ki</w>
ru ins</w>
mus ical</w>
missi oned</w>
man agement</w>
m ume
leg itim
l uc
itole aji</w>
in fl
hazi kuwa</w>
har der</w>
gun s</w>
fortun ately</w>
foreign ers</w>
doc uments</w>
co v
anayet aka</w>
anaye fanya</w>
ali tiwa</w>
ali kusudia</w>
a yar
To o</w>
Samarit an</w>
In akadiriwa</w>
we upe</w>
um epata</w>
um en
uf unguo</w>
ud ugu</w>
t ingly</w>
sus pic
proced ure</w>
kumb atia</w>
ku k</w>
juli kani</w>
in apatikana</w>
g ia</w>
f ice</w>
ed ge</w>
der ived</w>
d ubu</w>
as ia</w>
ame wapa</w>
am ar
ali timiza</w>
ali batizwa</w>
a ende</w>
Wa ingereza</w>
V YO
U salama</w>
Si kukuu</w>
S how</w>
S av
Ki china</w>
Gen eral</w>
Contro l</w>
Alin i
AC H</w>
5 00,000</w>
wali tambua</w>
wa saf
vit atu</w>
vis ehemu</w>
uli m
u adui</w>
thor ough</w>
stro ke</w>
respon ds</w>
pro claim</w>
polic y</w>
ph ones</w>
on line</w>
mo tor
mi refu</w>
m mojawapo</w>
low ed</w>
lili fanya</w>
li s</w>
lat est</w>
kiny waji</w>
il y’s</w>
if ies</w>
huwa fanya</w>
husb and’s</w>
human ity</w>
gro ss</w>
gre edy</w>
gra y</w>
ef ly</w>
e igh
brea thing</w>
alimw omba</w>
aji unga</w>
adop t</w>
Y O</w>
Pro b
H akimu</w>
Fore ver</w>
E P
And r
Al ong</w>
y ato
wan an
urur isho</w>
tur ing</w>
tun nel</w>
tu kawa</w>
su it</w>
st an</w>
sor ry</w>
six th</w>
se ated</w>
s ili</w>
s igned</w>
o ti</w>
ny anja</w>
n ights</w>
mk ia</w>
loc ations</w>
kuli sha</w>
kuge uka</w>
ku hukumu</w>
ku gawanya</w>
kin s</w>
ita yar
fore most</w>
fil amu</w>
fan anishwa</w>
e b
arrang e</w>
ana onyesha</w>
an atoa</w>
ambar are</w>
U kat
Rach el</w>
M afuta</w>
Jer ome</w>
Hu kumu</w>
G huba</w>
D an</w>
19 22</w>
1 40</w>
za ha</w>
young sters</w>
watak apo
wa jukuu</w>
t wa</w>
si j
re d
que en</w>
prof essed</w>
org anis
o ks</w>
nur sing</w>
m seja</w>
kombo zi</w>
intel lec
im ea</w>
empl ary</w>
dri vers</w>
deteri or
buk ad
av en</w>
ali fikiri</w>
Ne bukad
Ki ma
Bab uloni</w>
z ifuatazo</w>
wat afsiri</w>
us ively</w>
tr ack</w>
pe d
nili hitaji</w>
m langoni</w>
ku ingilia</w>
k iki
inst itu
inat aja</w>
ili tia</w>
hu badilika</w>
happi er</w>
gr ant</w>
dri ven</w>
dis playing</w>
dam aging</w>
correc tly</w>
comput ers</w>
com missioned</w>
bl as
asi on</w>
angeli c</w>
Y E</w>
Poli si</w>
Ms ingi</w>
M et
Je uri</w>
G ra
Ch unguza</w>
197 6</w>
v umbi</w>
tox ic</w>
tal ents</w>
rel uc
r ud
pre val
p apo</w>
our ing</w>
lim et
ku angamiza</w>
jec ting</w>
it em</w>
hou se
evangeli zer</w>
distrib ution</w>
cultiv ated</w>
cro cod
crimin als</w>
cha guo</w>
bo mb
b and</w>
apost ate</w>
ame ahidi</w>
ad her
Tal mud</w>
Ser ving</w>
Pet er
Mar adhi</w>
Every thing</w>
Anton io</w>
z ika
wag es</w>
tre ach
s igh
paral lel</w>
lo hilo</w>
kwa yo</w>
kus hukuru</w>
kun ako
ku anzishwa</w>
ki mahaba</w>
intrig u
im it
huz uia</w>
hu timiza</w>
hawat aki</w>
har imu</w>
gener osity</w>
expen ses</w>
ex claimed</w>
etrag ram
es iya</w>
entr ance</w>
ema vyo</w>
dev ices</w>
cro wn</w>
critic ism</w>
col orful</w>
chur ch
cho res</w>
aka uliza</w>
a ha
V in
Sh erehe</w>
Pri est</w>
N dogo</w>
M semaji</w>
Ku hubiri</w>
Kin acho
Habak kuk</w>
F our</w>
2 .5</w>
197 3</w>
zing atia</w>
wat awa
tim amu</w>
shiniki zo</w>
s onga</w>
remar ks</w>
reg ards</w>
pra ised</w>
o mbwa</w>
mas harti</w>
la wama</w>
kut oroka</w>
kuru husiwa</w>
kum tukuza</w>
ku achiliwa</w>
ki wezacho</w>
k ’s</w>
jang wani</w>
iti e</w>
ili andikwa</w>
hutu ambia</w>
histor ians</w>
h ishwa</w>
go dd
f ies</w>
et ezi</w>
comb at</w>
ali sts</w>
alcoho lic</w>
af alsafa</w>
Rec all</w>
P ublic</w>
Mit ume</w>
M eli</w>
197 1</w>
196 3</w>
z y
wak asema</w>
und oubtedly</w>
shi kilia</w>
roman tic</w>
pic ked</w>
na m</w>
mb ovu</w>
kuit umia</w>
kuchang anua</w>
i ousness</w>
homo sex
himi zwa</w>
exp elled</w>
enge usha</w>
electr onic</w>
domin ated</w>
dis position</w>
dis abled</w>
bur d
at tract</w>
Was omi</w>
V id
Hospit ali</w>
E ric</w>
As huru</w>
Ap preci
wa mer
valu ed</w>
ul ating</w>
uki za</w>
stup id</w>
str ife</w>
sem in
prison er</w>
medic ation</w>
ku ni</w>
ku ingiza</w>
ku azimia</w>
kit engenezo</w>
immen se</w>
heav ily</w>
hami aji</w>
gu ests</w>
fund ishe</w>
fi chwa</w>
f iwa</w>
expec ts</w>
dem anding</w>
compre hen
cho che
arg ue</w>
ann ually</w>
ana itwa</w>
ali rudi</w>
V ul
Sur vi
Si wezi</w>
Psal ms</w>
Prin ce</w>
H if
G ar
20 13</w>
196 2</w>
yi eld</w>
y apaswa</w>
w if
w ers</w>
v ua</w>
ug avi</w>
tor ious</w>
s eli</w>
over ly</w>
nili m
ng amia</w>
my stery</w>
mak ers</w>
kum wamini</w>
kuchi mba</w>
ku amsha</w>
kiny ongo</w>
kig umu</w>
j ew
ha st
foot note</w>
fer eji</w>
fany ika</w>
end aye</w>
cour ty
co s
aliye zaliwa</w>
ali u
accur acy</w>
a is
Uj ao</w>
St adium</w>
Salv ador</w>
Mb uga</w>
Let ter</w>
Le ban
Guar dian</w>
G iving</w>
D ie</w>
í n</w>
wat embelea</w>
wang em
vo w</w>
ut ek
ung ulia</w>
un scriptural</w>
u ongo</w>
sta ur
sk ill
re staur
re di
o do
nur se</w>
nik ifanya</w>
kum tolea</w>
kujik inga</w>
kuji onea</w>
kit chen</w>
ju maa</w>
ji p
im ek
hutu pa</w>
hi lohilo</w>
h uni
fer ences</w>
emb r
cor ner</w>
bu ying</w>
back grounds</w>
ati aji</w>
at atu
ali we</w>
a ud
Tr av
Ta hiti</w>
Suc c
K AMA</w>
I jumaa</w>
Gide oni</w>
F adhili</w>
Est onia</w>
Al f
yan as
wav utia</w>
waki p
w rec
v yako</w>
ur o</w>
un faithful</w>
ulti mate</w>
res ort</w>
po und</w>
mkat aba</w>
mat ch</w>
mad irisha</w>
la onyesha</w>
kul emea</w>
ku tuma</w>
ku inua</w>
kid n
hu tumu</w>
hu athiriwa</w>
gr ade</w>
ere he
emp athy</w>
dhiha ka</w>
comm emor
cha mbua</w>
be c</w>
ana andika</w>
ali kutana</w>
Yo bu</w>
WA S</w>
San ta</w>
S ime
Ox ford</w>
Jus tice</w>
HA VE</w>
H ub
Chi le</w>
Cap e</w>
B ad</w>
18 00</w>
vif ungo</w>
usio weza</w>
up ata</w>
un necessary</w>
un k</w>
tunam penda</w>
tab ly</w>
t ist</w>
s cal
organis ms</w>
mult itude</w>
mat umbawe</w>
mago ti</w>
litak alo
l ingana</w>
kufu atilia</w>
ka h</w>
j alada</w>
ij ayo</w>
hay ana</w>
hat aki</w>
for given</w>
fi mbo</w>
f ani</w>
expen se</w>
en on</w>
del ay</w>
cour tesy</w>
claim ing</w>
ch in
bicy cle</w>
ad mir
P la
O be
D ef
C at
196 7</w>
worth less</w>
wanap enda</w>
walio wekwa</w>
und ings</w>
th ’s</w>
run s</w>
ro oted</w>
ro lled</w>
patri arch</w>
p asa</w>
offic ers</w>
occur r
mwa kilishi</w>
mw ono</w>
mli o</w>
map o</w>
kub uni</w>
ku udhi</w>
ku hesabu</w>
ke p
jo int</w>
imprison ment</w>
igan aji</w>
ic ians</w>
i ew</w>
hu funua</w>
hu acha</w>
head ship</w>
g es
fl at</w>
correc tion</w>
contrib utions</w>
con vey</w>
col lect</w>
bur ial</w>
az i
as ing</w>
ap iga</w>
absor bed</w>
ab udiwa</w>
Wabab iloni</w>
To p</w>
Tele graph</w>
Shepher d</w>
Pho to
Nye kundu</w>
Mon t
M woko
M ip
L engo</w>
Ki j
Jerusal em’s</w>
J ane</w>
C amer
wa husu</w>
un ch</w>
uko mavu</w>
ug u
u ous</w>
t ishu</w>
sus tained</w>
stit utes</w>
rob o</w>
promo ting</w>
pra ising</w>
pl astic</w>
par ties</w>
pac ked</w>
p anapo
mw ing
kuzu iwa</w>
kuj aa</w>
j iri</w>
in uko</w>
in ely</w>
imag ination</w>
har ak
epid emic</w>
de par
con sol
cha ir</w>
ch ema</w>
Portu gal</w>
Nebu cha
M sam
L eg
Ha ku
zime kuwa</w>
ya cho</w>
y et
wap agani</w>
walivyo kuwa</w>
wali kabili</w>
wali furahia</w>
wali enda</w>
vit ambaa</w>
um wag
thre w</w>
t ill</w>
t azamio</w>
oug ua</w>
mu k
mom ents</w>
ma umbile</w>
m kulima</w>
ju ana</w>
inspir ation</w>
i apo</w>
hudhuri e</w>
haf ifu</w>
gen es</w>
exp and</w>
contrad ic
celebr ated</w>
azim ie</w>
ayar isho</w>
arg uments</w>
admon ished</w>
St an
R angi</w>
M Y</w>
Kir usi</w>
Hif adhi</w>
Hai kuwa</w>
Alb ania</w>
1, 200</w>
wati i</w>
wame tumia</w>
wali sha</w>
ut most</w>
u weza</w>
tu ary</w>
tran sport</w>
tom b</w>
sub jected</w>
su la</w>
scen es</w>
pr one</w>
p ine</w>
ning ependa</w>
mkat ili</w>
min i
mchang o</w>
mab abu</w>
kaz iwa</w>
k le</w>
imp ul
hous ing</w>
grand children</w>
ep a</w>
ende ze</w>
em y</w>
ec hu
di versity</w>
decep tion</w>
consis tent</w>
cigar ettes</w>
bro wn</w>
bac king</w>
b ands</w>
ati zaji</w>
ath i</w>
ano s</w>
ang ependa</w>
aliwa fundisha</w>
Wa afrika</w>
Soci al</w>
Ra habu</w>
Natur al</w>
Mas hirika</w>
M yan
Cy rus</w>
195 9</w>
0 1</w>
wor e</w>
walio fanya</w>
urug ika</w>
ur ugo</w>
ungu ze</w>
tumi e</w>
shu t</w>
shang aza</w>
ridic ule</w>
re actions</w>
on yoka</w>
ocr acy</w>
o ting</w>
nili tambua</w>
nik im
neighbor ing</w>
lo f
li ons</w>
kuwa heshimu</w>
kucho sha</w>
ku hofu</w>
inter rup
ing’ inia</w>
infec tions</w>
im mer
hu kaa</w>
hu haribu</w>
exerc ises</w>
en ia</w>
distur bed</w>
distinc t</w>
dece ived</w>
conf used</w>
com pos
cli mb
ch ongwa</w>
cerem ony</w>
at ukia</w>
alipo teza</w>
ali furahia</w>
ali ahidi</w>
U hakika</w>
Tun ajua</w>
TO LD</w>
Nili ona</w>
M au
M ars</w>
L ef
Kib inadamu</w>
Gre ater</w>
4 0,000</w>
1 15</w>
wanaf urahia</w>
wan ting</w>
walivyo fanya</w>
stead y</w>
spectac ular</w>
ser a</w>
por ted</w>
oper ate</w>
ongo ing</w>
nas ibu</w>
mo od</w>
mi ale</w>
mag enge</w>
list s</w>
kuv utiwa</w>
kuti biwa</w>
kumw ua</w>
kik osi</w>
judg ing</w>
j es
ili endelea</w>
hu epuka</w>
hi ana</w>
hawa ja
g enge</w>
do er</w>
dis appeared</w>
concentr ate</w>
compar able</w>
cha in</w>
ch anya</w>
arc hit
ar u</w>
akad iria</w>
aka eleza</w>
ag ents</w>
adul ter
Wag eni</w>
U nge
There after</w>
Rul er</w>
Que bec</w>
H ad</w>
G etting</w>
ER S</w>
AD A</w>
yi el
x ia</w>
wata ishi</w>
wana kubali</w>
waki ishi</w>
wa cho</w>
vit a
ung s</w>
tu kat
techni ques</w>
t ress</w>
sh ell</w>
rac es</w>
protec ts</w>
ow ners</w>
n ip
mur der
mp ate</w>
m zo
m ity</w>
kus adikisha</w>
kuka wia</w>
kuf uru</w>
ki che
kan e</w>
k ao</w>
ist ent</w>
ing oni</w>
ig aji</w>
hes itate</w>
haugh ty</w>
fam ily’s</w>
er als</w>
enjoy ment</w>
enh ance</w>
ef ficient</w>
disas tr
di am
d ancing</w>
counsel ed</w>
cont entment</w>
consid ers</w>
comp on
bre eding</w>
bo a</w>
ak ano</w>
ak afanya</w>
ac ad
UM B
Trib une</w>
R ab
Kim esiya</w>
KAT I</w>
K re
Jan eiro</w>
Ge ographic</w>
F ew</w>
Ex per
Comm on</w>
Chu mvi</w>
Bul g
A qu
15 ,000</w>
we eds</w>
wali acha</w>
us ers</w>
territ ories</w>
t engwa</w>
t ambarare</w>
sto red</w>
ro d
purcha sed</w>
poli tici
pain s</w>
o la</w>
n atives</w>
mus cle</w>
mi x
m mishonari</w>
li ver</w>
kuwa ziwa</w>
ku ip
inter nal</w>
imp lies</w>
ignor ance</w>
i cho</w>
hu husisha</w>
ha una</w>
gl adly</w>
g uliwa</w>
fi re
er udi</w>
enthusias m</w>
dri ed</w>
devast ated</w>
den ied</w>
countr y
ch elewa</w>
ang azia</w>
a ikolojia</w>
Waj apani</w>
W ol
Vyo vyote</w>
V ip
R d</w>
Moun tain</w>
Mis sion
Mak anisa</w>
M r</w>
H ans</w>
Fri end</w>
F AN
yanayo patikana</w>
wh erever</w>
wa hudhuriaji</w>
vers y</w>
u kut
tar aja</w>
stumb le</w>
s ence</w>
quar ter</w>
op pose</w>
ombole za</w>
o kea</w>
nim em
ma them
las ted</w>
ku hitimu</w>
ku andikwa</w>
jus tified</w>
ji ulize</w>
je alous</w>
icho chea</w>
heart warming</w>
hatu kuwa</w>
ha si</w>
grand mother</w>
festiv als</w>
eg g</w>
disastr ous</w>
chang any
break s</w>
an di</w>
alimp enda</w>
Y us
Whi te</w>
T afuta</w>
O U
N ature</w>
Ma kubwa</w>
M ali</w>
J ef
Inas ikitisha</w>
F red</w>
E C
Austr ali
3 00,000</w>
weng ineo</w>
us ik
surro undings</w>
sec ond
re ci
pul l</w>
pr e</w>
philosop hi
mo b</w>
m emorial</w>
li si
kun ufaisha</w>
ku onyeshaje</w>
ku okolewa</w>
id ential</w>
concl usions</w>
cho ta</w>
be ach</w>
b ever
at aja</w>
alipo ona</w>
ali e</w>
af uni</w>
Viet nam</w>
Thessalon ica</w>
Se eing</w>
N ob
Mb atizaji</w>
M tukufu</w>
Ju an</w>
I ren
Fa thers</w>
Dis ease</w>
Bet ween</w>
An ne</w>
A ma</w>
weigh ed</w>
wang ependa</w>
w esha</w>
vil eo</w>
vide os</w>
ur s</w>
tu kim
tim id
ste aling</w>
st ating</w>
ru tuba</w>
r on</w>
p eng
onek an
mi zuri</w>
kuf isha</w>
ku sherehekea</w>
ku lazimishwa</w>
ka za</w>
ili fanya</w>
ik ane</w>
if ikiri</w>
i wi</w>
exc use</w>
ex emplary</w>
de fil
d hibiti</w>
cro p</w>
cop per</w>
con venti
collec ted</w>
changam oto</w>
changam ana</w>
ba a</w>
angaz e</w>
ana ishi</w>
aliki ana</w>
ali penda</w>
Th er
ON D
Nili jifunza</w>
N ile</w>
N ILI
Mus ic</w>
Le ads</w>
K om
K ing
Josi ah</w>
Ing e
Gr adu
Des crib
Chris top
Ben in</w>
2 30</w>
18 0</w>
z ingeweza</w>
yanayo sababishwa</w>
wang api</w>
ungu u</w>
tic es</w>
surge on</w>
shi eld</w>
she ep
s ita
por omoko</w>
nit am
muk tadha</w>
m shauri</w>
kuwa okoa</w>
ku ogelea</w>
judg ments</w>
isi we</w>
initi ally</w>
ing en
hamb uliwa</w>
ha uku
g ment</w>
f locks</w>
er able</w>
e kwa</w>
da y
co ins</w>
cleans ed</w>
ang’ anya</w>
ances tors</w>
ali dai</w>
ON S</w>
Nebucha dne
Msam aria</w>
Mg iriki</w>
Maz ingira</w>
Mam laka</w>
M ish
Ed ward</w>
Centr e</w>
Ang li
A ges</w>
ziliz of
z he
yan ap
wanao stahili</w>
waj ib
uv umba</w>
un like</w>
umili e</w>
tume kuwa</w>
tom orrow</w>
tar akimu</w>
s lovakia</w>
ro ll</w>
pul led</w>
promp ted</w>
prin t</w>
pos al</w>
popul arity</w>
per forman
p ongezi</w>
ony aji</w>
nerv ous</w>
li taf
li an</w>
land scap
kuv una</w>
j ac
hus afiri</w>
hom eland</w>
fer ent</w>
extinc tion</w>
en ous</w>
cus to
awa it</w>
apost asy</w>
T etragram
Pl ato</w>
Mil ton</w>
Mesopotam ia</w>
M faransa</w>
M erc
Kut afakari</w>
Hi cho</w>
Ful ani</w>
10 5</w>
win dows</w>
um em
ub ar
suf fers</w>
repor tedly</w>
re mb
photo grap
par as
n ice</w>
miga wanyiko</w>
mb u</w>
king ’s</w>
ina endelea</w>
im proper</w>
hon estly</w>
hit il
hawa kujua</w>
gal ax
far mer</w>
emb race</w>
el li
declar es</w>
deb ate</w>
chuki zo</w>
book let</w>
autom ob
appet ite</w>
am ue</w>
ali zungumzia</w>
ali amuru</w>
af afanua</w>
Vene zu
Under stand
T anz
Ph ys
Ninev eh</w>
Myan mar</w>
Kit u</w>
Hek alu</w>
Frid ay</w>
Fran z</w>
Em peror</w>
Com p
zili vyo
we usi</w>
watum ikia</w>
w izi</w>
vi jia</w>
tor n</w>
ter rif
sm ell</w>
sa il
remind er</w>
ra is</w>
pote ze</w>
net work</w>
n ical</w>
mis sive</w>
mi iba</w>
m ented</w>
limp iki</w>
le g</w>
kind ani</w>
ith amini</w>
inf lic
ilivyo tajwa</w>
ili ongezeka</w>
ifa idi</w>
hazi j
haku maanishi</w>
et ary</w>
ear liest</w>
divin ely</w>
atu red</w>
ali furahi</w>
ak itoa</w>
accomp any</w>
Y as
W alin
U su
T em
R en
O limpiki</w>
Mi kutano</w>
J IN
Ger man
G il
F ive</w>
El fu</w>
Ap pro
Al most</w>
A naweza</w>
196 6</w>
zilizo tolewa</w>
weap on</w>
vo ices</w>
u wasiliano</w>
temp tations</w>
sol utions</w>
reve aling</w>
ref using</w>
p ao</w>
mwa si</w>
mke we</w>
mfu asi</w>
mab amba</w>
ma lish
kut ajwa</w>
kup ika</w>
ki pofu</w>
ji husisha</w>
j aribio</w>
inayo fanywa</w>
im itating</w>
ifany ia</w>
hospit als</w>
he ated</w>
hang aza</w>
ha kuwa
enge ance</w>
en slav
dhi haki</w>
consum ption</w>
con fined</w>
ali ongeza</w>
Wafili sti</w>
Viol ence</w>
Un apaswa</w>
Sa uti</w>
S ain
Ro se</w>
M iri
J ack</w>
Bro thers</w>
Br an
And es</w>
zinazop atikana</w>
volk ano</w>
up we</w>
uon evu</w>
ume enea</w>
uli fanywa</w>
temper atures</w>
stead fast</w>
stand point</w>
sin ner</w>
s q</w>
re l</w>
re bel</w>
ra ys</w>
ob viously</w>
mo squ
mash etani</w>
ma ke
ma ajabu</w>
m po
le mavu</w>
kujip atia</w>
kuf urahi</w>
kid ole</w>
ir wa</w>
imb ab
if ikiria</w>
hil ls</w>
es ia</w>
ende zwi</w>
anap endezwa</w>
an ta</w>
aliye batizwa</w>
aka endelea</w>
V I</w>
Sy ria</w>
Scot t</w>
Nili furahia</w>
N inaweza</w>
Hel en</w>
F ree</w>
D om
C ir
y ards</w>
ut ambulisho</w>
unayo weza</w>
uk ingo</w>
u juu</w>
sy ndrome</w>
smo kers</w>
rob es</w>
rich ly</w>
ren ess</w>
r ant</w>
over sight</w>
org ans</w>
off ense</w>
ngur uwe</w>
kuz idi</w>
kir afiki</w>
ki olezo</w>
j itayarisha</w>
ishi o</w>
inge faa</w>
g am
fic ations</w>
en yo</w>
emp enda</w>
dis plays</w>
con firm</w>
co m</w>
challeng ed</w>
ch est</w>
bur st</w>
awa reness</w>
avyo weza</w>
assemb led</w>
ali patwa</w>
a i
__ __
Z imbab
Yus ufu</w>
V ery</w>
U to
Ny inyi</w>
Min or</w>
Map enzi</w>
J UL
Dani el’s</w>
D own</w>
Al an</w>
1, 600</w>
zungum zie</w>
zinazo onyesha</w>
yan asema</w>
y angeweza</w>
warm th</w>
un afikiri</w>
tes ting</w>
t ungeweza</w>
ro d</w>
quis ite</w>
pe per
p on</w>
o ’s</w>
ne edy</w>
mi isho</w>
lili tukia</w>
kus hawishi</w>
kun is
kab iliwa</w>
ju ujuu</w>
in y</w>
in jini</w>
if ia</w>
identif ies</w>
ib uka</w>
glor ified</w>
frustr ated</w>
fat al</w>
escap ed</w>
eny i</w>
direc tions</w>
c ured</w>
c ity’s</w>
bur n
an uzi</w>
ali kabili</w>
ab sence</w>
a z</w>
Wak anaani</w>
Understand ably</w>
T IM
P S</w>
195 4</w>
17 th</w>
yan atia</w>
wan ane</w>
wa jue</w>
viny waji</w>
uti e</w>
uki chwa</w>
tu lia</w>
to ck</w>
stu ck</w>
sto ma
sha res</w>
se d
sanc tified</w>
r af
perfec tions</w>
perce ive</w>
mi kutanoni</w>
kutazam isha</w>
ku vu</w>
itu maini</w>
in sula</w>
identif ying</w>
ib ati</w>
i osity</w>
hu ongezeka</w>
hon es
hand led</w>
g or
fre ed</w>
fle x
fail s</w>
en ’t</w>
el ly</w>
dem anded</w>
cur ious</w>
conqu est</w>
cap tivity</w>
b our
b om
ati gue</w>
at eg
agog ue</w>
ach ana</w>
Was omaji</w>
Waf uasi</w>
W IT
Th esalonike</w>
T H</w>
Mak asisi</w>
Kum i</w>
J I
Au thor
zitak azo
ze ka</w>
wali toka</w>
wa we
ver ies</w>
ur ika</w>
una endelea</w>
un ning</w>
u fundishaji</w>
sign als</w>
plain s</w>
p uf
no body</w>
mwen yeji</w>
msisim uko</w>
mn ururisho</w>
ma gic</w>
m ire</w>
log ists</w>
ing redi
i weni</w>
hones thearted</w>
hi hisha</w>
heal thful</w>
fikir iwa</w>
end angered</w>
e b</w>
dis rup
curr ently</w>
condem n</w>
co al</w>
ap u</w>
ang azwa</w>
adv ances</w>
ab iolojia</w>
Z ote</w>
U D
Stand ard</w>
Some thing</w>
Nina wi</w>
Mare kebisho</w>
Man u
M oto</w>
Kim usa</w>
K er
J arida</w>
Da ys</w>
Chi c
Bap ti
B ased</w>
An th
y apat
work place</w>
wato e</w>
wat un
wanaom penda</w>
wanad ai</w>
wakit afuta</w>
wa pole</w>
utun zi</w>
uk ik
res istant</w>
res istance</w>
ref rain</w>
po t</w>
ou l</w>
one wa</w>
ok s
movi e</w>
mago fu</w>
li kat
kuwa shukuru</w>
kumwa cha</w>
iz uia</w>
it er</w>
ili tolewa</w>
hu shindwa</w>
hor iz
he ars</w>
fer ing</w>
fea thers</w>
f igo</w>
eigh th</w>
di c</w>
commit tee</w>
br illi
arri ving</w>
ali itwa</w>
Yo eli</w>
S ri</w>
S IMULI
Pro blems</w>
L ikiwa</w>
E F
D habihu</w>
w indo</w>
vy uma</w>
v ine</w>
un o</w>
un azo
shepher ding</w>
practic ally</w>
philosop her</w>
part ners</w>
out cry</w>
or ra
or ph
no ble</w>
nime jifunza</w>
nili enda</w>
my ster
motiv ation</w>
mo ld</w>
mis ery</w>
li wa</w>
li ma
kuto jali</w>
ku be
instruc t</w>
institu tions</w>
inclin ation</w>
inayo kuja</w>
ib ility</w>
fas ter</w>
en na</w>
electr ic</w>
do g
dist ressed</w>
def en
cop ing</w>
cher ish</w>
c ra
anayet ajwa</w>
air craft</w>
af unga</w>
Us emi</w>
U halifu</w>
T elev
S top</w>
P ay</w>
F L</w>
Aug us
An go
Abr amu</w>
z itakuwa</w>
wasi hi</w>
war ri
wakili shwa</w>
wa umini</w>
wa hitimu</w>
w ing
ut ando</w>
us oni</w>
ure mbo</w>
un afanya</w>
um izwa</w>
rest ing</w>
kungo jea</w>
ind if
il inganisha</w>
iali zed</w>
ha ita
gossi p</w>
en thr
electr icity</w>
ear ing</w>
dr ought</w>
cont ents</w>
c ia</w>
atim ia</w>
at ua</w>
as ani</w>
ang usha</w>
ad el
accom mod
Ya ani</w>
U hitaji</w>
Tanz ania</w>
T u</w>
T A
Mar ie</w>
Kat ikati</w>
H y
G ul
G ari</w>
F UN
Ben jam
Bel gi
BE ACH</w>
AN S</w>
zhe im
wan ufaisha</w>
wali vyo</w>
wa sim
un ting</w>
uli fanya</w>
uku hani</w>
uchu mba</w>
u endelee</w>
tir irika</w>
stumb ling</w>
sho cked</w>
sacrif iced</w>
qu est</w>
prec ise</w>
potenti ally</w>
poin ting</w>
p up
p eleka</w>
p amb
on ous</w>
ni e</w>
nd ama</w>
mwan asayansi</w>
mak er</w>
m somaji</w>
loc ate</w>
kutat anisha</w>
kut ambuliwa</w>
ku onya</w>
kit endo</w>
ka uka</w>
is lamu</w>
iri ye</w>
im perfections</w>
ik isa</w>
i wezayo</w>
i on
hospit able</w>
employe es</w>
dev ice</w>
adoles cent</w>
ad er</w>
Zimbab we</w>
To gether</w>
Rebe ka</w>
Re v</w>
Ny umbani</w>
Ku chunguza</w>
Hind u</w>
Fili po</w>
Al zheim
zili tumiwa</w>
wanaf ikiri</w>
u uaji</w>
stoma ch</w>
pre acher</w>
note worthy</w>
mix ture</w>
mis led</w>
m cha
kuondo lea</w>
ku kufanya</w>
ku hitaji</w>
ke ze</w>
j ifunze</w>
ith ibit
iliyo ko</w>
ig ning</w>
hu hudia</w>
fear ful</w>
farag hani</w>
egeme zwa</w>
e z</w>
destro ying</w>
dang any
d ates</w>
c ent
be es</w>
as hi
ap ita</w>
ak atoa</w>
ach unguza</w>
a ache</w>
Virg inia</w>
U fu</w>
M iti</w>
En viron
wat aj
wang et
volun tary</w>
un selfish</w>
un believers</w>
ulu thi</w>
th uluthi</w>
tegem eka</w>
t ently</w>
sol ar</w>
ro ad
re lev
prog ressed</w>
preced ented</w>
pl agu
p har
p anya</w>
nd iko</w>
mu tual</w>
mor als</w>
l ingeweza</w>
kut awa
kum tafuta</w>
kuch elewa</w>
ku shtua</w>
kicho cheo</w>
ir ithi</w>
in timid
ign s</w>
hor r
hon ored</w>
hat uku
ep uk
enge ushwa</w>
embrac ed</w>
dis course</w>
de pos
d haniwa</w>
c af
bound aries</w>
ap anda</w>
am ulia</w>
aki jifunza</w>
achu kia</w>
You ths</w>
W ise</w>
Nili furahi</w>
Mag dal
M siba</w>
Ku husiana</w>
Kip indi</w>
KUT UM
Co ok</w>
Antio ch</w>
z apo</w>
wat umia</w>
wali on
wali jifunza</w>
wa shind
wa ited</w>
vic ious</w>
tu fikirie</w>
rib an</w>
refresh ment</w>
radi ation</w>
protec ting</w>
p alipo</w>
op ens</w>
o we</w>
o e</w>
n anga</w>
mu zi</w>
mon d</w>
mko a</w>
min ent</w>
maha kimu</w>
lin as
legitim ate</w>
lead ership</w>
l est</w>
kuwa fariji</w>
ku umba</w>
ku in
kicha a</w>
itas ita</w>
introduc tion</w>
ill nesses</w>
id er</w>
hi ding</w>
gi ji</w>
g ates</w>
el f</w>
dram atically</w>
consequ ence</w>
con trac
ch ment</w>
be asts</w>
assa ult</w>
ali jitahidi</w>
akit afuta</w>
ain ed</w>
Vul gate</w>
Tun apata</w>
Secre t</w>
Sa y
Pas aka</w>
P ET
O h</w>
Nime kuwa</w>
Mif ano</w>
Mas s</w>
Maj uma</w>
Kar l</w>
D hidi</w>
Ba y</w>
Antio kia</w>
ya wezayo</w>
wali batizwa</w>
w ouldn’t</w>
v alia</w>
ut tered</w>
us is
ungu zi</w>
ume fanya</w>
tuna onyesha</w>
tu wa
tend encies</w>
sp ared</w>
sikili ze</w>
p it</w>
nili lo
n ifanye</w>
le af</w>
kung’ aa</w>
je zea</w>
it ilia</w>
househo lder</w>
her itage</w>
hard ship</w>
es eke</w>
det ec
cl ar
cha ste</w>
cap tive</w>
amer ika</w>
alim tuma</w>
acc ess
Wach ina</w>
Wa hispania</w>
U A</w>
Rev iew</w>
L en
Ha iti</w>
Gent ile</w>
Fur iko</w>
ó n</w>
yali vyo</w>
wanavyo weza</w>
wame acha</w>
walio tiwa</w>
vo y
un ted</w>
tuna pokuwa</w>
tun afanya</w>
tuli ona</w>
tu main
tic ated</w>
thawab ishwa</w>
tegeme zo</w>
sad ness</w>
s che</w>
p itia</w>
p es
mw ituni</w>
ma fumbo</w>
lin ing</w>
lililo andikwa</w>
kuy afanya</w>
ku saidiwa</w>
ko se
ki cho</w>
kal enda</w>
ju hudi</w>
is n’t</w>
fe atured</w>
ev ed</w>
equ ally</w>
econom y</w>
dis pen
cour ts</w>
con form</w>
cal endar</w>
ali watia</w>
Ya weza</w>
Y ef
Usu ally</w>
Str eng
Sanhedr in</w>
Ro ck</w>
Rebe kah</w>
P ati
P T
C lin
AD H
196 9</w>
worshi ped</w>
wataf ufuliwa</w>
wasili ani</w>
vi elezi</w>
uz ani</w>
up atia</w>
tun zaji</w>
tuli anza</w>
t sun
ste el</w>
s no
res erved</w>
regul ations</w>
poto shwa</w>
per ish</w>
observ ation</w>
moder ate</w>
mb ona</w>
mash ini</w>
l as</w>
j ik
incen se</w>
imag ined</w>
hu sha</w>
find ings</w>
expan sion</w>
excl usive</w>
et t</w>
elimin ated</w>
dist ressing</w>
cou pon</w>
convin ce</w>
conscienti ous</w>
br igh
aj is
add er</w>
a ·
N early</w>
Mas sac
Ma adili</w>
M su
M WAN
E un
wa kin
un c
un atu
ul ous</w>
uj itiisho</w>
u av
st ages</w>
s killed</w>
ro b</w>
rail way</w>
ra ins</w>
pal ace</w>
p ush</w>
ones elf</w>
n els</w>
mu htasari</w>
mp iga</w>
mk ondo</w>
man ip
kuwat embelea</w>
kusu mbua</w>
kuku nj
ku igiza</w>
ku dha
kik omo</w>
hu tumika</w>
govern or</w>
excit ement</w>
esti al</w>
er ad
en su
employ er</w>
emb e
dis trac
det ect</w>
dar ubini</w>
d ukani</w>
d u</w>
cr yst
cor n</w>
consum ed</w>
compet ition</w>
as hukuru</w>
ar ua</w>
al led</w>
ak si</w>
Z enye</w>
U C
T han</w>
Protest ants</w>
Prot ec
N afsi</w>
Jo e</w>
ILI VYO
Fri ends</w>
CO VER</w>
196 8</w>
yat ia</w>
yaliyo mo</w>
umar idadi</w>
ud ed</w>
u tive</w>
str anger</w>
short ages</w>
rememb ering</w>
prote in</w>
perce ived</w>
o ce
mwen zangu</w>
mwe usi</w>
mb ora</w>
make up</w>
ma hindi</w>
m tulivu</w>
m salaba</w>
li lif
kuto kufa</w>
kam era</w>
inten tions</w>
indic ating</w>
id able</w>
hy dro
hali wezi</w>
er ness</w>
[...]
