, 779808
. 765726
na 539966
ya 508453
wa 353747
kwa 254325
katika 159748
“ 155207
” 151381
: 134351
kwamba 124257
la 111949
? 103490
za 101555
ni 91609
kuwa 82539
Mungu 82173
Yehova 78786
— 69764
Kwa 66986
- 63741
watu 62196
sana 55731
hiyo 52121
hivyo 49422
cha 48663
kama 47889
zaidi 47007
au 45881
hivi 45027
Biblia 44078
wakati 44015
yake 41001
Yesu 40930
wake 40084
ili 38984
kwenye 35914
hilo 35228
nini 34588
sababu 34021
mambo 33858
; 33126
wenye 31818
fulani 30737
kweli 30444
mtu 30393
‘ 30171
’ 30132
! 29970
juu 29408
) 29159
( 29101
vya 28901
huo 28154
yenye 28022
kufanya 27724
kazi 27387
tu 27373
Hata 27092
ambayo 26685
pia 26241
wao 25933
Ni 25604
kuhusu 25215
miaka 25060
mmoja 24888
kutoka 24596
moja 24466
ambao 24380
nyingi 24322
gani 24043
njia 23883
jambo 23719
1 23633
yao 23033
kila 22915
wengine 22494
Je 21991
Katika 21956
hayo 21142
alikuwa 20856
wengi 20845
hata 20828
hali 20792
siku 20656
Lakini 20588
pamoja 20444
jinsi 20347
moyo 19367
wote 19257
mara 19225
hu@@ 18703
si 18472
Mashahidi 18417
mwenye 18354
lakini 18336
watoto 18035
yetu 17996
wali@@ 17115
wa@@ 16841
mwaka 16812
ku@@ 16467
Wakristo 16111
habari 16097
ali@@ 16027
wale 15963
2 15572
ndani 15531
maisha 15428
kwanza 15154
[ 15046
] 15033
yangu 14765
muda 14724
yote 14618
sehemu 14436
huko 14299
wetu 14270
familia 14143
Paulo 14080
ulimwengu 13970
huenda 13804
ikiwa 13584
nguvu 13400
kubwa 13330
huyo 13144
hizo 13119
ambaye 13075
vile 13039
hao 12976
baada 12961
wako 12934
karibu 12916
nchi 12752
bila 12701
3 12665
ajili 12429
Kristo 12369
nyingine 12330
upendo 12322
mfano 12179
imani 12087
wanadamu 12031
kiroho 12031
kati 12020
walikuwa 11889
kupata 11853
ili@@ 11852
yeye 11805
roho 11786
kabisa 11768
yako 11745
Ufalme 11537
wangu 11449
kawaida 11410
maneno 11300
4 11211
M@@ 11197
sasa 11065
tena 11048
mengi 10950
chini 10853
kutumia 10825
Ku@@ 10561
maana 10523
hadi 10505
5 10502
mahali 10498
naye 10137
kuna 10077
zao 10074
u@@ 10065
ha@@ 10064
/ 10004
nyumba 9787
alisema 9777
15 9736
maji 9721
8 9673
uli@@ 9663
U@@ 9533
6 9524
ndugu 9408
lazima 9390
Na 9325
wazazi 9291
zake 9275
kuliko 9119
muhimu 9116
shaka 9067
mwa 8989
12 8966
umri 8938
Watu 8934
m@@ 8907
ilikuwa 8794
10 8776
wala 8770
zenye 8732
tu@@ 8698
leo 8657
nao 8632
Hivyo 8599
tofauti 8567
mwingine 8528
kitabu 8512
a 8500
nili@@ 8443
akiwa 8414
vitu 8386
hasa 8329
11 8280
ndoa 8265
hii 8238
mwisho 8222
ambazo 8217
mbalimbali 8172
Baada 8135
lake 8111
kujifunza 8110
dunia 8072
karne 8037
Wakati 7983
jina 7930
ana 7814
Ikiwa 7813
bali 7812
wazi 7807
7 7780
wame@@ 7771
ambalo 7766
mkubwa 7764
kupitia 7759
kabla 7720
matatizo 7714
Neno 7677
huu 7648
Ingawa 7644
dhambi 7635
kusema 7627
lenye 7623
zote 7564
pekee 7528
9 7446
maoni 7380
kiasi 7371
uhai 7367
ile 7318
mwenyewe 7313
Kikristo 7295
kuona 7265
akili 7230
walio@@ 7227
amani 7227
furaha 7217
wana 7215
nyumbani 7179
hekima 7144
14 7141
mtoto 7138
kutaniko 7102
bora 7088
vizuri 7057
duniani 7041
kifo 7036
13 7016
wanao@@ 7006
chakula 7001
haki 6998
iliyo@@ 6968
mimi 6966
20 6942
aina 6937
walio 6896
sifa 6831
dini 6801
kum@@ 6795
a@@ 6795
eneo 6779
Baba 6775
baadaye 6774
lili@@ 6761
sisi 6757
damu 6737
Huenda 6723
Kama 6673
ame@@ 6651
mpya 6638
yale 6622
je 6621
hicho 6576
kutoa 6575
kuwa@@ 6566
uwezo 6536
at@@ 6527
wanafunzi 6505
ambapo 6482
ona 6457
Pia 6427
bado 6425
yali@@ 6395
ulimwenguni 6393
tumaini 6371
nzuri 6362
Ali@@ 6318
kutokana 6314
ak@@ 6309
hili 6304
16 6280
hatua 6278
17 6273
zetu 6251
an@@ 6205
nyakati 6203
wakiwa 6202
Bila 6189
hatari 6186
lugha 6167
pa 6161
sheria 6149
T@@ 6107
wewe 6080
kitu 6076
Shetani 6074
K@@ 6066
kutia 6008
milele 6004
kuishi 5991
gazeti 5964
wenyewe 5945
kuu 5932
vita 5914
kujua 5913
Yohana 5904
makala 5888
22 5872
hawa@@ 5865
njema 5792
kamwe 5777
ki@@ 5766
tuli@@ 5718
tayari 5705
kadhaa 5700
18 5652
vijana 5643
kwenda 5632
neno 5627
mbele 5620
mama 5607
Nili@@ 5603
mwili 5602
inayo@@ 5577
msaada 5574
mke 5570
aliye@@ 5544
kale 5542
kuhubiri 5537
Daudi 5517
jua 5500
i@@ 5491
mbali 5487
matokeo 5469
Kisha 5439
Petro 5433
wanaweza 5397
hisia 5382
zili@@ 5360
mafuta 5342
kuonyesha 5320
hakika 5309
ma@@ 5306
baba 5293
bidii 5283
The 5276
19 5276
upande 5271
kadiri 5237
jiji 5210
S@@ 5205
wazee 5198
Zaburi 5198
kuli@@ 5188
mbinguni 5174
wana@@ 5164
fanya 5146
it@@ 5146
waki@@ 5141
A@@ 5130
Israeli 5128
uhusiano 5123
mkono 5109
hapo 5095
kidogo 5093
huduma 5089
Mathayo 5082
Ili 5072
Hilo 5060
yaliyo@@ 5059
Yeye 5057
unaweza 5054
mbili 5044
hakuna 5029
yule 5024
msingi 5006
asilimia 4994
kidini 4992
wanawake 4990
ibada 4988
Marekani 4976
wat@@ 4972
asema 4960
tamaa 4945
ime@@ 4867
NW 4863
shangwe 4851
yoyote 4848
N@@ 4842
un@@ 4839
wawili 4826
kuendelea 4824
ugonjwa 4822
mbaya 4786
jamii 4780
saa 4779
huku 4752
in@@ 4743
sala 4743
anasema 4738
baadhi 4724
24 4711
tatizo 4704
b 4703
rahisi 4700
lilikuwa 4695
ut@@ 4686
Wayahudi 4686
am@@ 4674
nchini 4673
kusudi 4658
21 4654
Maandiko 4644
Zaidi 4641
alipo@@ 4637
ndiye 4627
ule 4616
mapema 4612
dawa 4610
iliyo 4594
kimwili 4583
we 4569
ik@@ 4566
mamlaka 4546
afya 4521
ambavyo 4518
onyesha 4516
iwe 4477
yanayo@@ 4471
wanyama 4456
namna 4451
nani 4447
pote 4444
o 4439
Mara 4424
wanaume 4422
utumishi 4421
Mfalme 4416
li@@ 4413
yeyote 4390
ambacho 4383
mrefu 4371
ndege 4368
kufa 4368
kanuni 4343
kusoma 4335
haya 4332
hitaji 4330
ndiyo 4318
Badala 4313
mengine 4295
yaani 4289
z@@ 4287
serikali 4279
mwanamke 4277
mwingi 4273
P@@ 4271
New 4267
badala 4265
p@@ 4251
as@@ 4248
fadhili 4247
eni 4244
ulikuwa 4243
ua 4242
Waisraeli 4240
y@@ 4234
karibuni 4232
ingawa 4229
Mkristo 4218
kulingana 4215
ujao 4209
mfumo 4208
enda 4206
Jambo 4186
sauti 4171
kufikia 4158
mzuri 4157
Mtu 4155
thamani 4151
huwa 4148
takatifu 4139
Mwana 4121
pesa 4119
endelea 4117
ishi 4116
rangi 4116
yaliyo 4110
aliandika 4108
tatu 4104
mwanadamu 4103
zamani 4093
kichwa 4092
zilizo@@ 4085
i 4080
ana@@ 4073
aliye 4069
kwake 4068
dada 4046
haraka 4034
anaweza 4034
aki@@ 4021
of 4017
ukurasa 4014
Musa 3983
ina 3983
anaye@@ 3976
* 3975
chake 3971
Isaya 3971
mikutano 3966
Bwana 3965
dhidi 3960
Sasa 3953
ujuzi 3939
mume 3936
kuto@@ 3932
ulio@@ 3928
mingi 3917
e 3914
ia 3909
tunaweza 3907
Kila 3905
maishani 3891
ajabu 3888
Mimi 3883
mkuu 3881
wanapo@@ 3879
Wali@@ 3875
ani 3871
ini 3871
waweza 3854
kielelezo 3845
ndivyo 3833
aliyekuwa 3828
• 3820
25 3815
uhakika 3810
maswali 3797
mataifa 3789
L@@ 3787
ume@@ 3780
makao 3758
wowote 3753
watumishi 3739
kula 3733
zinazo@@ 3732
kupita 3730
ndio 3730
H@@ 3726
is@@ 3711
Kulingana 3707
Siku 3706
chenye 3702
idadi 3695
halisi 3693
shule 3691
mtume 3690
basi 3685
Basi 3685
kile 3684
j@@ 3677
aji 3675
maeneo 3675
waliokuwa 3673
unao@@ 3671
vibaya 3668
shauri 3667
macho 3662
Mambo 3652
mabaya 3648
kisha 3641
ujumbe 3628
30 3621
wan@@ 3607
miongoni 3597
kuja 3589
ya@@ 3583
ika 3578
wasio 3573
Yerusalemu 3571
kuelekea 3566
rafiki 3563
weza 3562
milioni 3547
□ 3546
makubwa 3543
nilikuwa 3541
mpaka 3540
nami 3539
nje 3536
k@@ 3533
hizi 3528
23 3510
isha 3506
o@@ 3500
Wa@@ 3495
t@@ 3495
jitihada 3457
nayo 3455
mazuri 3453
yenu 3450
kuwasaidia 3440
tangu 3433
asili 3421
Kuna 3420
us@@ 3414
BWANA 3408
matendo 3401
D@@ 3398
usiku 3363
kutu@@ 3354
uhitaji 3351
B@@ 3341
marafiki 3335
mwana 3332
safi 3329
n@@ 3326
lililo@@ 3324
kibinadamu 3323
iliyopita 3320
vigumu 3319
gari 3310
anza 3306
taifa 3294
mapenzi 3293
kun@@ 3288
mafundisho 3265
mwanamume 3262
Wakorintho 3258
unga 3254
tumia 3252
acha 3249
uhuru 3246
kusaidia 3225
kikundi 3220
kili@@ 3216
kipindi 3208
Muumba 3202
una@@ 3200
kana 3197
ulio 3196
hufanya 3194
faida 3190
waaminifu 3188
J@@ 3183
um@@ 3182
kufuata 3181
sura 3175
unabii 3169
moto 3168
weka 3166
kijana 3162
utendaji 3160
kosa 3158
​ 3157
Ulaya 3152
kumi 3151
vitabu 3146
kuacha 3142
Y@@ 3137
zawadi 3132
mfupi 3127
alipokuwa 3126
Sheria 3122
jaribu 3121
Leo 3118
awe 3118
inasema 3115
ngumu 3114
kutokeza 3113
washiriki 3107
Ulimwengu 3105
hisi 3095
sikuzote 3092
Afrika 3090
uadilifu 3086
Tuli@@ 3077
linalo@@ 3072
ita 3063
kuelewa 3063
ahadi 3054
Luka 3053
mtazamo 3051
sawa 3048
nafsi 3046
ina@@ 3043
kilicho@@ 3042
kubali 3040
Kitabu 3029
yaweza 3028
vi@@ 3027
Baadaye 3027
kutimiza 3026
barua 3019
I@@ 3019
lolote 3017
kibinafsi 3017
Timotheo 3010
mfalme 3010
Ufunuo 3007
Wengine 3006
wak@@ 2994
W.K 2991
yame@@ 2989
moyoni 2966
28 2966
Ki@@ 2965
uaminifu 2954
kulikuwa 2945
hukumu 2937
oni 2931
A 2931
lime@@ 2925
Wao 2924
alivyo@@ 2921
zime@@ 2918
nime@@ 2913
yalikuwa 2913
pata 2911
lile 2910
Hiyo 2909
Uingereza 2908
anapo@@ 2901
ukosefu 2897
dhabihu 2896
ngono 2886
mali 2885
Yakobo 2881
Ndugu 2867
baraka 2864
hai 2862
onekana 2861
nik@@ 2858
pili 2855
sita 2854
W@@ 2847
picha 2846
l@@ 2842
G@@ 2841
Z@@ 2839
Nyakati 2834
amini 2833
zako 2832
kondoo 2832
una 2829
yat@@ 2821
kinacho@@ 2821
wawe 2818
kuepuka 2818
Soma 2817
mwenzi 2809
Matendo 2808
ap@@ 2808
kuwapo 2803
inaweza 2802
Tunaweza 2795
Hakuna 2793
hofu 2784
uk@@ 2779
uzito 2777
heshima 2772
biashara 2768
peke 2751
V@@ 2744
u 2743
alim@@ 2742
utawala 2736
Adamu 2735
ongoza 2735
zangu 2734
walipo@@ 2732
kutafuta 2713
Kigiriki 2711
miezi 2704
malaika 2698
amri 2697
Abrahamu 2696
mno 2690
wafuasi 2689
kutosha 2689
fikira 2688
kwao 2686
Ndiyo 2686
ufalme 2682
ishara 2659
uki@@ 2658
awali 2647
zilizo 2645
waziwazi 2644
▪ 2643
uwongo 2643
ka 2639
ange@@ 2638
al@@ 2632
husema 2631
s@@ 2626
kutenda 2617
ao 2616
kanisa 2616
Watoto 2615
labda 2615
ndogo 2612
kut@@ 2608
mwenendo 2607
Nini 2603
mwaminifu 2600
tuna@@ 2595
vyenye 2589
letu 2587
unapo@@ 2586
chochote 2584
Ona 2583
historia 2582
Kwanza 2578
sahihi 2573
kupendeza 2571
maendeleo 2571
maumivu 2570
magonjwa 2569
kufikiri 2560
nafasi 2560
ukawaida 2559
maadili 2557
ata@@ 2555
af@@ 2554
jeuri 2552
kali 2551
viwango 2550
kwetu 2541
eleza 2537
fikiria 2534
yan@@ 2533
lililo 2532
hat@@ 2528
funzo 2527
wi 2526
aliwa@@ 2524
tabia 2523
uamuzi 2520
hapa 2520
mji 2519
kamili 2518
mi@@ 2516
anga 2513
fedha 2504
ar@@ 2500
kimungu 2500
mahitaji 2498
vyote 2496
mchanga 2491
jibu 2487
R@@ 2487
E@@ 2487
uangalifu 2487
mdogo 2486
Waroma 2484
ama 2484
zile 2482
hasira 2480
kutambua 2478
kuchukua 2475
chembe 2474
ikia 2473
kup@@ 2465
29 2465
wazo 2463
wakfu 2461
kumbuka 2458
kuzungumza 2456
Mtume 2455
Unaweza 2452
Shahidi 2450
katikati 2448
ambako 2445
26 2442
Naam 2441
nuru 2432
muziki 2431
vili@@ 2431
vilevile 2427
elimu 2425
tukiwa 2421
mawazo 2417
haku@@ 2417
F@@ 2412
Ayubu 2412
kufikiria 2412
Mnara 2409
Wazazi 2403
barabara 2402
Mwanzo 2398
safari 2397
andiko 2397
kushiriki 2396
kumtumikia 2391
elewa 2387
mwongozo 2384
tunapo@@ 2379
kilometa 2378
tun@@ 2371
akasema 2370
alifanya 2368
pindi 2366
kumhusu 2365
isiyo 2365
kimoja 2365
uchunguzi 2363
ukiwa 2361
ing@@ 2360
aka@@ 2356
40 2356
kuz@@ 2352
joto 2352
hewa 2348
uwe 2344
viumbe 2343
f@@ 2340
mwezi 2331
the 2327
Si 2327
Mlinzi 2317
tunapaswa 2316
mabadiliko 2315
Fikiria 2314
bahari 2313
kiwango 2312
kuanza 2312
Isitoshe 2311
mazoezi 2305
kukubali 2301
b@@ 2297
e@@ 2296
juma 2295
nikiwa 2292
mzee 2292
Wale 2291
tume@@ 2291
vingi 2290
wenzi 2284
Vita 2282
hus@@ 2279
wange@@ 2277
Wengi 2275
toa 2275
Roma 2271
rasmi 2270
huwa@@ 2270
mateso 2267
Maneno 2264
aj@@ 2264
binadamu 2263
hotuba 2261
27 2259
tokea 2258
en@@ 2253
vinavyo@@ 2253
ji@@ 2252
hali@@ 2250
Kutoka 2249
maelfu 2243
si@@ 2243
Miaka 2240
kuchunguza 2239
Ujerumani 2239
Waebrania 2236
zi@@ 2235
mazungumzo 2232
makosa 2232
kujenga 2231
O@@ 2228
ishwa 2228
vifaa 2227
kus@@ 2226
mb@@ 2226
Mama 2225
iki@@ 2224
ninyi 2222
v@@ 2216
hekalu 2212
apo 2212
waovu 2206
huru 2204
maandishi 2204
omba 2198
lin@@ 2189
Wan@@ 2188
ni@@ 2187
g@@ 2186
Hali 2185
hutumia 2184
on@@ 2183
kudumisha 2181
kundi 2181
swali 2180
Mithali 2176
Gazeti 2176
uka 2170
wata@@ 2170
mazingira 2168
zin@@ 2166
saba 2162
ukweli 2162
up@@ 2162
33 2156
kina 2151
yak@@ 2148
hakuwa 2146
Kanisa 2143
mema 2143
nusu 2143
Baadhi 2139
mioyo 2137
matunda 2136
vilivyo@@ 2135
kuzuia 2132
ali 2132
tuna 2130
kuingia 2130
ang@@ 2128
chunguza 2125
binti 2124
anda 2123
uliza 2121
imara 2121
mwendo 2119
Kazi 2119
uzima 2115
kuhudhuria 2115
zoea 2114
50 2111
31 2108
zilikuwa 2108
chache 2103
mti 2094
usi@@ 2093
sanamu 2089
iko 2087
mamilioni 2082
wafanyakazi 2081
lao 2076
urahisi 2075
C@@ 2074
ikawa 2074
utukufu 2074
mimea 2074
pendeleo 2070
nne 2068
WA 2068
ofisi 2064
w@@ 2061
simu 2059
kuweka 2058
ch@@ 2058
kin@@ 2056
wanapaswa 2053
nyuma 2052
matukio 2047
yana@@ 2045
usio 2045
Njia 2038
im@@ 2037
uthibitisho 2034
kunywa 2031
Jumba 2029
shughuli 2026
toka 2025
kusali 2024
taka 2024
waka@@ 2023
Ibilisi 2013
mgonjwa 2011
akam@@ 2010
Jinsi 2009
hai@@ 2008
ripoti 2007
fuata 2006
Kiebrania 2006
ko 2001
kuj@@ 1998
zi 1995
maamuzi 1995
ung@@ 1990
mitume 1989
mgawo 1989
Vivyo 1987
Vijana 1986
d@@ 1984
York 1984
enzi 1979
mawili 1977
Sisi 1974
Kwenye 1971
nabii 1971
id@@ 1969
K.W.K 1968
akina 1965
wasiwasi 1962
usalama 1959
kurudi 1955
maskini 1955
miti 1954
daraka 1954
jeshi 1952
Ma@@ 1946
Amkeni 1945
magumu 1944
kikamili 1943
ongezeka 1939
tuki@@ 1938
Mwaka 1933
miwili 1933
hiki 1933
Wenye 1932
uta@@ 1931
Makala 1931
mnamo 1929
mojawapo 1928
and 1925
kupunguza 1921
yanaweza 1921
ushahidi 1919
utu 1919
mikono 1918
angeweza 1917
mwanzoni 1916
mw@@ 1916
urafiki 1915
ab@@ 1914
tawi 1914
kupatana 1914
ghafula 1913
jifunza 1911
watiwa 1911
kimbingu 1906
kutusaidia 1901
hesabu 1898
awa@@ 1898
kukosa 1898
Kuwa 1897
tafsiri 1896
adili 1896
hatimaye 1894
kaskazini 1892
uvutano 1887
kufundisha 1885
kulevya 1884
ane 1883
mt@@ 1883
meta 1881
32 1881
magari 1879
nasi 1874
kudumu 1873
mavazi 1871
mzima 1870
sote 1870
ufufuo 1870
az@@ 1869
ingia 1866
hamu 1863
dola 1862
ad@@ 1861
Misri 1860
kisasa 1860
haribu 1860
hatia 1859
onyeshwa 1852
Hu@@ 1847
aweza 1846
O 1846
pokea 1845
kunaweza 1840
wagonjwa 1840
zwa 1837
elekea 1837
Australia 1836
18@@ 1834
lako 1834
tengenezo 1833
ujasiri 1832
hutu@@ 1826
huonyesha 1826
kuvutia 1823
linasema 1820
alitoa 1819
Ufaransa 1819
waamini 1818
ano 1813
kupiga 1813
Yuda 1813
vingine 1810
salama 1807
asi 1806
huruma 1806
to@@ 1805
kuhusiana 1804
meli 1804
aka 1804
Alikuwa 1803
alionyesha 1803
samaki 1802
uovu 1800
madhara 1799
kukabiliana 1798
kutembea 1797
mawe 1794
shuleni 1794
wageni 1793
kutumiwa 1792
ukoo 1792
Danieli 1788
kisiasa 1787
hususa 1782
umbo 1782
mafanikio 1781
Muda 1781
vikundi 1775
itwa 1774
ilivyo 1769
zaburi 1767
makutaniko 1764
eti 1763
Amerika 1763
iliyokuwa 1763
mvua 1760
maelezo 1760
Kweli 1760
faa 1756
ko@@ 1756
aje 1754
televisheni 1753
Noa 1753
ip@@ 1749
kusikia 1747
busara 1746
Hawa 1745
ujumla 1744
nia 1743
wasi@@ 1743
ir@@ 1740
kwangu 1739
lina@@ 1738
pewa 1736
miguu 1734
wap@@ 1733
msiba 1733
Habari 1732
kushinda 1731
cheo 1730
desturi 1729
zina@@ 1729
iga 1729
Kati 1723
Akiwa 1723
kuandika 1722
daktari 1720
yasiyo 1720
tuwe 1718
wenu 1716
inge@@ 1713
avyo 1712
chanzo 1709
Familia 1707
uso 1705
kui@@ 1704
silaha 1704
baridi 1702
onya 1701
Hatimaye 1698
Tangu 1694
aa 1693
ardhi 1691
mzazi 1685
ag@@ 1684
h@@ 1683
wafu 1683
ari 1683
Maisha 1681
ishe 1680
rehema 1679
Kufikia 1679
cha@@ 1676
upya 1674
on 1673
michezo 1673
dhamiri 1673
ki 1672
mtumwa 1671
uharibifu 1671
umati 1670
urefu 1670
wasaidia 1668
kit@@ 1668
aliyo@@ 1666
Kusini 1666
zo 1665
tum@@ 1664
unyenyekevu 1664
Upendo 1663
nyota 1662
wachache 1661
maradhi 1659
wachanga 1656
fundisha 1656
makini 1655
wapi 1650
vichapo 1650
oma 1648
mwelekeo 1643
asubuhi 1641
mwovu 1640
la@@ 1638
husisha 1637
Acheni 1636
kusini 1635
Wat@@ 1634
daima 1634
Methali 1634
YA 1633
mpango 1633
paradiso 1633
Wewe 1632
yo 1630
kando 1629
kujaribu 1629
chukua 1629
Ha@@ 1628
heshimu 1627
visa 1627
unge@@ 1627
twaweza 1626
nzima 1624
langu 1624
hawa 1624
wekwa 1622
programu 1622
uko 1621
huj@@ 1620
if@@ 1620
kuf@@ 1619
mazoea 1619
Kuhusu 1617
mbinu 1615
Mashariki 1614
fursa 1613
An@@ 1613
amua 1611
upesi 1610
kubadili 1610
Kabla 1607
35 1607
kuondoa 1606
Yeremia 1605
kwaweza 1603
ib@@ 1599
Un@@ 1599
er@@ 1597
Mnamo 1596
tumikia 1596
viongozi 1596
Shirika 1593
uhalifu 1593
gerezani 1592
Sulemani 1592
msimamo 1587
ita@@ 1586
mkazo 1586
nidhamu 1584
zit@@ 1582
majaribu 1581
Mkuu 1579
kuzaliwa 1578
in 1578
kusitawisha 1578
mkutano 1577
kik@@ 1577
Roho 1577
alitumia 1576
mimba 1572
vyombo 1571
manufaa 1570
kutii 1566
ngozi 1566
wenzake 1563
lasema 1562
utaratibu 1561
nin@@ 1560
husu 1558
ke 1557
mp@@ 1556
mwa@@ 1556
aja 1554
wam@@ 1554
nyinginezo 1553
kufurahia 1552
kikubwa 1550
msichana 1550
julikana 1549
Kus@@ 1545
ze 1544
kua 1544
urithi 1536
magazeti 1535
kuvumilia 1534
kushirikiana 1533
kuji@@ 1532
kwani 1531
sherehe 1530
athiri 1530
watatu 1530
polisi 1529
Ili@@ 1529
huzuni 1528
matibabu 1526
zidi 1524
kutazama 1523
wingi 1522
husika 1520
mbwa 1520
niki@@ 1519
oa 1519
kuleta 1518
nit@@ 1518
kambi 1517
mbingu 1515
sema 1512
34 1512
tulikuwa 1512
mifano 1510
ila 1508
akawa 1508
unaofaa 1508
waabudu 1507
nakala 1507
hati 1507
Betheli 1506
il@@ 1506
nawe 1505
tukio 1499
Labda 1499
kusababisha 1499
itia 1498
madogo 1497
kihisia 1496
Nilikuwa 1496
isiyo@@ 1496
siri 1495
Mwenye 1494
udongo 1493
kilikuwa 1491
alianza 1490
Uchunguzi 1489
andika 1486
r@@ 1486
thamini 1485
kompyuta 1483
kuu@@ 1483
to 1482
tano 1480
Maria 1478
hawana 1477
vin@@ 1475
Yosefu 1472
ongeza 1470
hutoa 1469
kuamini 1468
afanya 1468
subira 1468
hawawezi 1467
walivyo@@ 1467
Kiingereza 1463
Bahari 1462
inapo@@ 1459
agano 1458
aliona 1457
saidia 1456
njaa 1455
kupokea 1453
hawakuwa 1452
․ 1452
ye 1451
hitajiwa 1451
In@@ 1450
ustadi 1449
nguo 1448
Tun@@ 1448
Au 1447
Babiloni 1446
Imani 1445
kukumbuka 1443
Linganisha 1443
Mataifa 1442
anavyo@@ 1442
chumba 1440
37 1438
kutengeneza 1438
I 1438
tunahitaji 1436
2@@ 1436
kuhisi 1436
kusikiliza 1435
ifanya 1433
Ukristo 1432
mbegu 1429
wema 1428
mitatu 1428
hi@@ 1425
kikuu 1422
kingono 1420
kuwapa 1419
uumbaji 1419
tokeza 1418
Wote 1414
kusafiri 1414
badilika 1413
mwanzo 1412
Andiko 1410
gharama 1410
wafanya 1409
Tunapo@@ 1408
matumizi 1407
kabili 1404
karibia 1404
ike 1403
apata 1401
kuwako 1401
UKIMWI 1400
mradi 1398
Baraza 1398
kuongezeka 1397
milima 1397
hup@@ 1397
dhahabu 1395
painia 1394
kuanzia 1394
fungu 1392
maagizo 1391
em@@ 1390
tiwa 1390
iwa 1390
jipya 1389
asi@@ 1389
ndilo 1388
fundisho 1386
yasema 1385
shukrani 1385
baharini 1385
bustani 1385
et@@ 1385
Bible 1384
po@@ 1382
ongozwa 1382
dhiki 1381
jirani 1380
alijua 1378
asiye 1376
angalau 1376
kukaa 1376
toleo 1375
acheni 1374
nina@@ 1373
Alisema 1369
and@@ 1368
kumsaidia 1365
mwanafunzi 1365
wasio@@ 1364
kibali 1363
kwako 1363
wajibu 1363
ta@@ 1361
jingine 1361
kutumikia 1361
kueleza 1360
Japani 1360
masimulizi 1359
wanavyo@@ 1359
nilipo@@ 1359
miradi 1357
Marko 1357
zik@@ 1357
Kufanya 1357
mchana 1357
vyakula 1356
John 1355
ujenzi 1354
mashuhuri 1353
itakuwa 1352
kim@@ 1352
kutana 1351
sikia 1350
nyinyi 1350
ta 1349
Kanada 1349
av@@ 1349
kulia 1348
alia 1347
Waefeso 1347
100 1347
kusanyiko 1346
kupenda 1346
ndipo 1345
Pili 1344
kujitahidi 1344
kuomba 1344
ondoa 1343
ati 1343
wahubiri 1339
usawaziko 1339
ema 1338
shirika 1337
alipata 1336
Was@@ 1335
70 1335
inga 1335
kwa@@ 1335
penda 1335
ukubwa 1334
wokovu 1331
Kimaandiko 1331
hubiri 1330
kub@@ 1329
aye 1327
majiji 1326
Jumuiya 1326
kijamii 1326
zinaweza 1326
Samweli 1325
ie 1323
kuta 1321
zungumza 1321
mwalimu 1319
alimwambia 1318
Chuo 1318
ufahamu 1317
India 1317
60 1317
thibitisha 1317
zuri 1316
utafiti 1316
wayo 1315
wanasayansi 1315
kikweli 1315
mwake 1315
kuwasiliana 1313
maarufu 1313
hutokeza 1312
madaktari 1312
adui 1307
om@@ 1307
laripoti 1306
mshikamanifu 1306
fika 1306
kataa 1305
nilipokuwa 1304
sha 1304
jitahidi 1304
ondoka 1304
hifadhi 1303
majira 1303
fidia 1302
enea 1301
uliopita 1301
bidhaa 1301
dakika 1300
Si@@ 1300
wanahitaji 1299
akisema 1298
zungumzia 1298
jioni 1298
majuzi 1297
kiadili 1296
Wana@@ 1294
ungua 1293
kukusaidia 1291
kulala 1291
ilia 1289
Shule 1288
sigareti 1287
kucheza 1287
shwa 1286
mtumishi 1284
es@@ 1284
ilipo@@ 1283
ushirika 1281
uliwa 1281
wazima 1281
makuu 1280
umbali 1279
kuongoza 1278
kufaa 1278
twa@@ 1276
Magharibi 1275
akilini 1273
kuchagua 1273
asa 1273
Sauli 1273
Sehemu 1272
ur@@ 1271
kike 1270
ek@@ 1270
Society 1268
Paradiso 1267
kiuchumi 1267
lit@@ 1266
Vi@@ 1266
us 1264
kununua 1264
onyo 1263
kisiwa 1263
hawezi 1262
kingine 1260
alama 1260
wanas@@ 1259
idi 1258
mfululizo 1258
kuharibu 1255
3@@ 1255
ub@@ 1255
upole 1255
ig@@ 1254
utakuwa 1253
mashariki 1251
mstari 1251
umoja 1251
Wanafunzi 1250
Ilikuwa 1250
haribiwa 1248
atu@@ 1247
hum@@ 1247
kansa 1246
Sababu 1245
ja 1244
usemi 1243
Kikuu 1242
kutokea 1242
kudhibiti 1242
Karibu 1242
KU@@ 1242
kilicho 1242
moshi 1240
ambia 1240
farasi 1239
vit@@ 1239
kukata 1239
kituo 1236
amu 1236
wamekuwa 1234
Dini 1234
angaza 1233
giza 1233
alip@@ 1232
mat@@ 1231
na@@ 1230
tukia 1230
aliwaambia 1230
Mar@@ 1229
tumiwa 1228
kuwat@@ 1228
MA@@ 1227
uwezekano 1227
Katoliki 1226
hana 1226
majibu 1226
umia 1225
iti 1224
Ijapokuwa 1223
mnyama 1221
wanat@@ 1221
or@@ 1220
Wak@@ 1220
tegemea 1219
ud@@ 1219
anayeitwa 1218
mwao 1218
huyu 1218
majuma 1218
walimu 1217
kodi 1216
poteza 1216
kubatizwa 1216
walifanya 1215
po 1215
Urusi 1215
usha 1215
kuongezea 1214
kuonekana 1214
paswa 1214
kisa 1214
de 1214
anat@@ 1213
makasisi 1213
alitaka 1212
upasuaji 1212
raia 1211
Namna 1210
huona 1210
fahamu 1209
Huo 1208
bandia 1208
el@@ 1208
lina 1206
zisizo 1203
Kum@@ 1202
yayo 1201
ea 1200
Huko 1200
Tunapaswa 1199
ilivyo@@ 1199
uchungu 1198
mkamilifu 1198
Tuna@@ 1197
Brazili 1194
kutafakari 1191
wapa 1191
majeshi 1188
Hispania 1185
kuvuta 1185
kutiwa 1185
usingizi 1185
inavyo@@ 1183
maua 1182
anataka 1182
mashauri 1180
mipango 1180
tembelea 1180
ubongo 1180
yasiyo@@ 1179
majina 1179
Tofauti 1175
wang@@ 1175
udhaifu 1175
iwapo 1173
mipaka 1173
miungu 1173
chuma 1170
fu@@ 1170
mlango 1169
divai 1169
kulinda 1169
iliyofuata 1169
unua 1168
maridadi 1167
amekuwa 1167
machache 1165
mshiriki 1165
kufunga 1161
Mexico 1161
an 1161
uj@@ 1161
yas@@ 1160
umuhimu 1160
aji@@ 1159
ayo 1158
walianza 1158
timiza 1157
simulizi 1157
ulinzi 1156
Kumbuka 1156
kujali 1155
wakit@@ 1154
ababisha 1153
ubinafsi 1153
laweza 1152
wakawa 1152
nazo 1151
Mat@@ 1151
alieleza 1150
kufanywa 1150
ny@@ 1149
vema 1149
mungu 1147
wafalme 1146
humo 1146
anam@@ 1146
alin@@ 1146
London 1145
hazi@@ 1145
sayansi 1143
mn@@ 1143
kuboresha 1142
mapainia 1142
– 1142
mbao 1141
kushughulikia 1141
tolewa 1140
himiza 1139
lingine 1139
yuko 1139
ongezeko 1139
ambamo 1138
● 1138
er 1137
kitiba 1137
hut@@ 1136
wakat@@ 1136
hutumiwa 1134
kimataifa 1133
tia 1133
ambua 1133
tii 1131
magharibi 1131
hupata 1130
y 1130
kotekote 1129
majengo 1129
uasi 1129
hitajika 1129
kuamua 1128
wangeweza 1128
ubaguzi 1127
wadogo 1126
awa 1126
uni 1126
zipi 1125
watakuwa 1124
arusi 1124
onwa 1124
Ana@@ 1124
haya@@ 1123
kazini 1122
Kiyahudi 1122
fikia 1121
watumwa 1120
unavyo@@ 1120
Kuu 1119
was@@ 1119
mamia 1118
kutanikoni 1115
Kupitia 1114
stadi 1114
kaa 1113
t 1113
eta 1113
hazina 1112
vivyo 1112
maandiko 1112
hatu@@ 1112
di 1112
ata 1111
Mwishowe 1110
linaweza 1110
1914 1110
wenzao 1110
kuwafundisha 1109
Kadiri 1109
walipokuwa 1108
wanaoishi 1107
hau@@ 1107
polepole 1106
faraja 1106
Mhubiri 1105
yo@@ 1104
nalo 1104
kuua 1103
anapaswa 1103
okoa 1102
zenu 1102
hiari 1102
makali 1102
kwelikweli 1101
we@@ 1101
wakamilifu 1100
tokeo 1100
mapya 1099
inaonyesha 1098
kumpa 1098
zaweza 1098
kukataa 1097
kumwona 1097
ala 1095
wezesha 1094
masomo 1092
World 1091
kasoro 1090
kip@@ 1090
Kup@@ 1090
chuki 1089
shamba 1088
madaraka 1087
fanywa 1087
utajiri 1087
Wazee 1087
msimamizi 1087
La 1086
kutunza 1085
le@@ 1084
binafsi 1084
atawa@@ 1082
ai 1082
wataalamu 1082
uf@@ 1081
upepo 1081
huohuo 1081
k 1080
kujibu 1080
Desemba 1079
wanasema 1079
athiriwa 1079
kurasa 1078
wafanye 1077
thabiti 1076
alitu@@ 1076
Italia 1074
wazia 1074
machoni 1074
wames@@ 1073
mzunguko 1072
kutaka 1072
vipande 1072
stahili 1072
enga 1071
Mi@@ 1071
eli 1071
anguka 1071
vyao 1071
kuta@@ 1071
chagua 1070
kumpenda 1070
yana 1070
Usi@@ 1069
wapaswa 1069
elfu 1068
imarisha 1068
Aprili 1067
ro@@ 1067
mahangaiko 1066
kuhakikisha 1066
vime@@ 1066
taabu 1064
Nchi 1064
Septemba 1064
hawat@@ 1063
Jina 1063
io 1063
Asia 1061
ipa 1061
chumvi 1059
umba 1059
uka@@ 1057
kumbusha 1057
ul@@ 1056
wenyeji 1056
amb@@ 1055
mpendwa 1055
kinasema 1054
nyama 1053
Nilipokuwa 1053
baki 1053
usi 1053
anzisha 1052
haikuwa 1052
Eliya 1052
kis@@ 1051
askari 1050
sinema 1048
Kut@@ 1048
lia 1046
mashirika 1046
Uwe 1045
kukazia 1045
kuondoka 1044
wadudu 1044
alikufa 1044
zina 1044
Yote 1043
Juu 1043
akat@@ 1043
op@@ 1042
tut@@ 1042
umeme 1042
mwangalizi 1041
inayofaa 1040
ima 1039
licha 1039
makusudi 1038
kisheria 1038
vilivyo 1038
mkusanyiko 1037
machozi 1037
wapate 1036
kuk@@ 1036
ingekuwa 1036
Yenye 1035
wamishonari 1035
Una@@ 1034
Mto 1034
kutumika 1033
Mwanamke 1033
kuku@@ 1032
yaliyokuwa 1032
Kaskazini 1029
bei 1029
kiume 1028
kemikali 1027
ukuzi 1027
tendo 1026
tazama 1026
hun@@ 1026
kutegemea 1026
kufuatia 1026
atia 1025
kuongeza 1025
Moyo 1025
kurekebisha 1024
Ripoti 1024
Times 1023
wanam@@ 1023
ende 1023
Watch 1022
kime@@ 1022
80 1021
sababisha 1021
makanisa 1021
hudhuria 1020
Tower 1019
Hivi 1019
viungo 1019
yam@@ 1018
Tukiwa 1018
yaelekea 1017
nim@@ 1017
Wafilipi 1017
ma 1017
kupatikana 1016
Serikali 1016
Ulimwenguni 1016
Wakatoliki 1016
ue 1014
kiburi 1013
michache 1013
chochea 1012
andikwa 1012
yawe 1012
amem@@ 1011
apaswa 1011
bilioni 1011
hospitali 1011
Januari 1011
wakazi 1010
Gileadi 1010
Agosti 1010
ti@@ 1009
kijiji 1008
nina 1008
kasi 1008
sikiliza 1008
iri 1007
iki 1007
Umoja 1006
kifedha 1006
Halafu 1005
wanap@@ 1004
kipekee 1004
Tazama 1003
ziara 1003
mvulana 1003
zuia 1003
mitano 1003
mwenzake 1002
lote 1002
36 1001
sanduku 1001
Alipo@@ 1001
dai 1001
dalili 1000
alo 1000
kiti 1000
azamia 999
ungwa 999
tiba 998
walim@@ 998
jinsia 998
Dakt 998
aki 997
akim@@ 997
kupatwa 997
kupanda 996
jali 996
mkali 995
kuni@@ 993
umma 993
maziwa 993
waje 993
lililokuwa 991
endesha 990
inat@@ 990
atoa 989
Nime@@ 989
tuk@@ 989
angani 988
sh@@ 987
aliendelea 986
Mei 985
mtakatifu 985
kimakusudi 985
rekodi 985
Kumbukumbu 985
dogo 984
waliyo@@ 984
Unapo@@ 984
kumfanya 984
Oktoba 983
msamaha 983
hadithi 982
barabarani 982
onga 981
iv@@ 981
aza 981
U 981
marufuku 981
ono 981
mafunzo 980
tusi@@ 980
kiakili 980
ii 979
uuza 979
Mwanzoni 978
ogopa 976
changia 976
kib@@ 976
husiana 974
uliokuwa 973
15@@ 973
Ee 973
uthamini 973
mkate 971
Aki@@ 971
ms@@ 970
kesi 970
Bado 970
mba 970
Yule 970
one 969
ahidi 968
apo@@ 968
wapatao 967
Sikuzote 966
majani 966
patikana 966
asiye@@ 965
ou@@ 964
wamet@@ 963
kusikitisha 963
ani@@ 963
tisa 962
sumu 961
hika 959
Chini 959
kuteseka 958
Afya 956
ye@@ 955
makuhani 955
Ugiriki 954
misiba 954
Anasema 954
ubatizo 953
kume@@ 952
mashua 952
walisema 951
usahihi 951
malipo 950
45 950
ondolewa 950
wenzetu 949
kupoteza 949
ele@@ 948
uliofanywa 948
kupendezwa 947
90 947
chombo 947
mtunga 947
yanaonyesha 945
wasichana 945
kani 945
waadilifu 943
vyake 943
tuchunguze 943
imekuwa 942
azo 941
ti 941
nzito 941
kelele 940
epuka 940
dhaifu 938
mashamba 937
ish@@ 936
kuvunja 936
kuiga 935
kusanya 935
zia 934
Machi 934
jengo 933
ev@@ 933
vifo 933
Yoshua 932
Picha 932
uma 932
E 931
4@@ 931
unaonyesha 929
Maoni 929
mia 928
Julai 928
shambani 927
kutangaza 927
ep@@ 927
kigeni 926
staha 926
Licha 926
38 926
Nikiwa 924
wakuu 923
waume 922
vyovyote 921
en 921
fanikiwa 921
tunavyo@@ 921
punde 920
kupigana 920
kuendeleza 920
kisayansi 918
upinzani 918
vidogo 918
kumjua 918
Al@@ 917
mk@@ 917
akit@@ 917
mwishowe 917
haz@@ 916
mto 916
ruhusu 915
shauku 915
Ezekieli 915
kuzaa 914
utamaduni 914
yenyewe 913
uvumilivu 913
zaliwa 912
umu 912
baya 911
Na@@ 911
mwishoni 911
tarehe 911
endwa 911
yanayofaa 910
badili 910
pita 910
misitu 909
kuweza 909
kukua 909
pwani 908
usio@@ 908
Gani 907
kuanzisha 907
th@@ 906
Mbali 906
soma 905
ji 905
NA 904
ato@@ 904
Hii 903
wafungwa 903
likiwa 903
ziada 903
wanne 902
washikamanifu 902
kule 902
atakuwa 902
hatuwezi 901
muungano 901
tumika 901
zim@@ 899
wivu 898
afuta 897
fanyia 897
Matokeo 896
andaa 896
itikia 896
kileo 894
utimizo 894
tuka@@ 893
kushindwa 893
Krismasi 893
ho@@ 892
kushughulika 891
C 891
au@@ 891
kuwazia 890
suala 890
Juni 890
Wakiwa 889
mlima 889
maliza 888
watia 888
ongea 887
ulia 887
ilip@@ 887
ate 886
waj@@ 886
Nilipo@@ 885
anas@@ 885
kuchochea 885
wapenda 885
Torati 884
Mlima 884
leta 884
taja 884
kufika 883
Nina@@ 883
Wakolosai 883
itikadi 883
walip@@ 882
meno 882
mishonari 882
kuimarisha 882
ushauri 881
wastani 881
tenda 880
kat@@ 880
bure 880
maadui 879
Twaweza 879
orodha 879
mingine 879
ara 879
jengwa 879
wona 878
Mpya 878
Nina 877
Nin@@ 877
1990 877
Alipokuwa 876
umaskini 876
pokuwa 875
onea 875
kauli 874
ungependa 874
z 873
Wake 873
isipokuwa 873
nishati 873
kupanga 873
Mmoja 872
barafu 872
Ar@@ 872
Ukumbusho 872
wapya 872
kusudiwa 872
woga 871
aswa 871
Mkubwa 871
afanye 870
kuandaa 870
nanyi 870
ng’ombe 869
iba 869
as 868
walin@@ 867
nyimbo 867
tumbo 866
hiriki 866
kud@@ 865
alikubali 865
ilivyokuwa 865
chao 864
waliwa@@ 864
ungu 864
uzazi 864
kisasi 863
wanaamini 863
ito@@ 862
eg@@ 862
Sala 861
ingeweza 861
pupa 861
uzi 861
sayari 861
maanisha 860
IA 860
kijeshi 860
kidunia 856
aeleza 856
utulivu 855
usafi 854
vis@@ 854
nika@@ 854
any@@ 853
gumu 853
Lazima 853
fanyizwa 853
yaonekana 852
Wagalatia 852
mahakama 852
elekeza 852
le 851
cho 850
kinywa 850
kubaki 850
kushangaza 850
imu 849
mashine 849
ndefu 849
isaidia 849
Tatizo 848
tuta@@ 848
aksidenti 848
kinyume 848
risasi 848
kuit@@ 847
Mw@@ 847
anzishwa 847
kimbele 847
darasa 846
walipata 845
timizwa 845
44 845
ukia 844
matajiri 843
viwili 843
walitumia 843
azama 843
etea 842
wapendwa 842
kampuni 841
Naye 841
n 840
nilianza 839
so@@ 839
Amani 839
hatupaswi 839
mwetu 838
uzoefu 838
16@@ 837
awala 837
aidia 836
anajua 836
vipindi 836
kufanikiwa 835
mtindo 835
ed@@ 835
talaka 835
nita@@ 834
jumba 834
ushindi 833
mzigo 833
eleka 833
taa 832
ndoto 831
vu 831
mlo 830
wanayo@@ 830
mo@@ 829
Intaneti 829
mtaalamu 829
mwitu 829
mwandishi 828
sivyo 828
kuongea 828
huji@@ 827
Ina@@ 827
aibu 827
imama 827
egemea 826
kuv@@ 826
lisilo 826
Maji 826
maono 824
alipom@@ 823
6@@ 823
thawabu 823
tafuta 822
unayo@@ 822
ajibu 821
kumbukumbu 820
ujitoaji 819
bara 819
zikiwa 819
kiasili 818
kuhifadhi 818
jijini 818
mwadilifu 818
hangaiko 817
vik@@ 816
Wanadamu 816
mbuzi 815
maj@@ 814
kulipa 814
kihalisi 814
linamaanisha 812
tokana 812
unyoofu 812
kizazi 812
maonyesho 811
Wanawake 811
faulu 811
aliposema 810
matatu 810
kubaliwa 809
utak@@ 809
Uhai 809
angekuwa 809
nyekundu 809
kuokoa 808
end@@ 807
Dunia 807
ke@@ 807
Novemba 807
badiliko 806
mbio 806
jaa 806
nilivyo@@ 806
kiongozi 805
Hayo 804
tunayo@@ 804
kuzi@@ 804
ikiliza 803
niliyo@@ 803
zunguka 803
Wafalme 803
kata 802
Mfano 802
kupewa 802
kuthibitisha 802
eleweka 801
upa 801
mwan@@ 801
pole 801
Injili 800
tufanye 800
amba 799
ham@@ 799
Wako 799
42 798
mtawala 797
United 797
amefanya 797
·@@ 797
re@@ 796
matakwa 796
kuruhusu 795
pembe 795
uza 795
za@@ 795
igwa 795
unapaswa 795
kutawala 795
hasara 794
haj@@ 793
nywele 793
thibitika 792
minne 792
fu 792
ambiwa 792
kubaliana 791
map@@ 791
somo 791
200 790
kushuka 790
ac@@ 790
iz@@ 789
alio@@ 788
5@@ 788
Unabii 788
kurudia 787
kifungo 786
Februari 786
chasema 786
Masihi 785
ukaribu 785
atam@@ 785
kumaliza 784
kote 784
ishia 784
kufahamu 783
esha 782
wezekana 781
karatasi 781
halali 781
hadharani 781
iana 780
ulipo@@ 780
kuzungumzia 780
mistari 780
uwanja 780
kazia 779
Sana 778
jiwe 778
kuwepo 777
unat@@ 777
furahia 777
makabila 777
hindwa 777
kamari 777
wakilisha 776
ij@@ 776
sha@@ 776
huonekana 775
ames@@ 775
kubadilika 774
inayofuata 774
kam@@ 773
wanafanya 773
chu@@ 772
liki@@ 772
nyoka 772
eleze 772
mwilini 771
kushika 771
nis@@ 771
zozote 771
che@@ 771
maovu 770
hani 770
azimia 769
s 768
uta 768
of@@ 768
Uli@@ 767
alikuja 767
kwenu 767
ukatili 766
Huduma 766
kukutana 765
akawa@@ 765
twapaswa 765
gundua 763
mandhari 763
kuwatia 763
Mume 763
manabii 763
wazao 763
ifu 762
Kanuni 762
vunjika 762
jicho 762
Hebu 762
ninge@@ 761
achwa 761
nane 761
shinda 761
kuthamini 760
go@@ 760
mishipani 760
vituo 760
huhisi 760
wakubwa 760
mwema 759
ug@@ 759
miili 759
Mwanamume 758
kuwe 758
linge@@ 758
ongo 757
anayo@@ 756
ajwa 756
mchezo 756
J 756
hud@@ 756
17@@ 756
mawasiliano 755
makundi 755
Dada 755
Kis@@ 755
azia 753
watawala 753
uasherati 752
karamu 751
jenga 751
kusisimua 751
ZA 750
ainabinadamu 750
shi@@ 749
anawa@@ 748
waambia 747
adhabu 747
upainia 747
iruhusu 747
kabila 746
ombi 746
atwa 746
Profesa 746
Linaloongoza 746
ikie 746
Walikuwa 745
wanaom@@ 745
Enzi 745
mahusiano 745
mabaki 745
unza 744
ika@@ 744
Ndege 744
huishi 743
Hawa@@ 743
kutazamia 742
wakis@@ 741
Jumapili 741
virusi 740
ukuu 740
Tuna 740
zito 740
haribika 739
elezwa 739
ifaavyo 738
wakaaji 738
kwisha 738
mik@@ 737
unganisha 737
manyoya 737
mifupa 737
mazito 737
kustaajabisha 736
broshua 736
Yako 736
achukua 736
es 735
visiwa 735
anayeweza 735
mageuzi 734
sigara 734
wal@@ 734
kilimwengu 734
funga 733
kiumbe 733
kutegemeza 733
kudhuru 733
Mwezi 732
China 732
mapendeleo 731
mak@@ 731
States 731
Ndipo 731
imba 730
wangekuwa 730
kij@@ 730
jumla 730
Tumaini 729
kujiua 729
huendelea 729
aliyem@@ 729
Tafsiri 728
kitia 728
kosea 728
majirani 728
watakatifu 728
tulipo@@ 728
mab@@ 728
ha 728
huanza 727
Mtoto 727
uleule 727
zuru 727
kuya@@ 725
ind@@ 725
aliwapa 724
kuhuzunisha 724
kinga 724
umes@@ 723
65 723
ufaao 723
theluji 723
hamia 723
kutakuwa 723
od@@ 722
changu 721
1993 721
maarifa 721
shukuru 721
fahari 721
Idadi 721
ukarimu 720
tambua 720
Uki@@ 720
husababisha 720
kupuuza 720
alij@@ 719
wezi 719
humaanisha 719
kifalme 718
kuendesha 718
kifani 718
tajiri 717
2000 716
uz@@ 716
wimbo 715
akaanza 715
mzito 715
gereza 715
wekea 714
ae 714
WA@@ 714
chukia 713
Jiji 713
kufanyiza 713
wavulana 713
Ny@@ 712
S 712
ulionyesha 712
tup@@ 712
kuwekwa 712
alitaja 712
39 711
vunja 710
7@@ 710
umb@@ 710
angwa 710
nyanya 709
hila 709
lengo 709
waangalizi 708
Kusudi 708
ale 708
miujiza 707
mashambani 707
bunduki 707
da 707
inas@@ 707
wilaya 706
sa@@ 706
ka@@ 706
ling@@ 706
letea 706
Hatua 706
walipaswa 705
wany@@ 704
ungu@@ 704
kuvunjika 704
okoka 704
alitambua 703
walioishi 703
Walawi 702
wasikilizaji 702
Pindi 701
beba 701
vizuizi 701
aitwaye 701
kina@@ 701
marekebisho 701
kifaa 701
mkononi 701
Yaelekea 700
ijapokuwa 700
baraza 700
zaa 700
M 700
vif@@ 700
kumwabudu 699
kielezi 699
igana 699
wamefanya 699
mbe 699
Maana 699
Matatizo 699
mwangu 698
hakikishia 698
mli@@ 698
ramani 698
Mas@@ 698
be@@ 698
kupinga 698
jamaa 697
yakiwa 697
mikubwa 697
kibiashara 697
mchungaji 697
Muungano 696
umekuwa 696
mhudumu 695
ilin@@ 695
Mesiya 695
simba 694
kuna@@ 694
hi 694
huz@@ 693
yange@@ 693
potea 693
tata 692
43 691
li 691
waona 691
Furaha 690
itu@@ 690
kusimama 690
mu@@ 690
yasiyofaa 689
ongezea 689
inaonekana 689
waliokufa 689
pake 688
1992 688
unge 688
Encyclopedia 688
kutatua 687
pe 687
wapo 687
vy@@ 687
Warumi 687
nadharia 686
msitu 686
l 686
te@@ 686
mis@@ 686
fa@@ 685
Mad@@ 685
son 685
bo@@ 685
uo 684
Wanaume 684
pat@@ 684
isho 683
Mke 683
© 683
Hapo 682
Mahakama 682
1995 682
kasisi 681
tusaidia 681
upendezi 680
ajua 680
jumuiya 680
Majumba 679
uv@@ 679
wonyesho 678
kujiuliza 678
Utatu 677
umika 677
kuwafanya 677
herufi 677
hawaj@@ 677
misuli 677
41 676
uradhi 676
hama 675
afiri 675
wanaop@@ 675
maofisa 675
kumpendeza 675
dansi 674
womba 674
Asanteni 674
500 674
wapata 674
jionea 674
kizuri 673
kutaja 673
mizigo 673
Inaonekana 673
kukabili 673
ipenda 672
wezaje 672
taarifa 672
kumwambia 672
is 672
atokea 671
alini@@ 671
ajifunza 670
wambia 670
bwana 670
dhahiri 670
anap@@ 669
kutokuwa 669
300 669
hait@@ 669
mit@@ 669
Twa@@ 669
ulimi 668
milki 668
anahitaji 668
Nyumba 668
waliona 668
takataka 668
atat@@ 667
utii 667
Mahali 667
akas@@ 667
al 666
pande 666
ipata 666
Har 666
Mafarisayo 666
weke 665
kinachoweza 665
Kuto@@ 665
mwaliko 665
ubaya 665
kumw@@ 665
mawimbi 665
kuy@@ 664
kutayarisha 664
uzao 664
kukomesha 663
kuuawa 663
upate 663
apatwa 662
raha 662
lo@@ 662
tembea 662
ukuta 661
Sifa 661
kuzunguka 661
kar@@ 661
kuwaambia 660
uchangamfu 660
Ro@@ 660
Hili 660
Mab@@ 660
iliwa 659
amuru 659
apate 659
Mp@@ 658
kufurahisha 658
vikali 658
kueneza 658
inap@@ 658
c@@ 658
engwa 657
uti 657
makusanyiko 657
angalia 657
Wap@@ 657
waliom@@ 657
umaana 657
umiwa 656
eza 656
kuwaje 656
.@@ 656
tokezwa 656
se@@ 655
ilianza 655
unap@@ 655
waonyesha 655
vyo 654
shi 654
Watchtower 654
haiwezi 653
miamba 653
Ndivyo 653
inafaa 653
hatarisha 653
mashindano 653
ungekuwa 653
ahau 652
shindwa 652
Re@@ 652
aliyes@@ 652
falsafa 652
Mag@@ 652
ach@@ 652
wamepata 651
alihitaji 651
paa 651
chi@@ 650
Agano 650
kuny@@ 650
panga 650
1994 649
andalia 649
cho@@ 649
ziwe 648
suluhisho 648
ic@@ 647
hujaribu 647
athari 647
Map@@ 647
alit@@ 647
kadi 647
mapokeo 647
Vitu 646
julisha 646
kiangazi 646
isi@@ 646
Kupata 646
tuendelee 646
zo@@ 646
mkataa 645
tunda 645
kumtii 645
keti 645
umiza 644
Maswali 644
atikana 644
pop@@ 644
vichwa 643
mwako 643
unganishwa 643
kia 643
liwe 642
unas@@ 642
utumwa 642
Wanasayansi 642
chuo 642
g 642
Magedoni 642
KATIKA 642
Kit@@ 641
hakukuwa 641
atakaye@@ 641
mikononi 641
uto@@ 640
chungu 640
popote 640
mazao 640
eng@@ 640
Kijana 640
hakikisha 640
kilichokuwa 640
utia 640
wanajua 640
kusamehe 640
8@@ 639
upanga 639
huamini 639
papa 638
huf@@ 638
kujiunga 638
avu 638
acho@@ 638
sahili 638
walikufa 638
kutisha 637
akis@@ 637
Kulikuwa 637
alitabiri 637
el 637
kumwomba 637
Edeni 637
isivyo 637
uny@@ 636
ikwa 636
unahitaji 636
2,000 636
kilomita 636
anaeleza 636
ataka 636
kutarajia 635
ine 635
anwani 635
ukawa 635
Isaka 635
mayai 635
elea 634
kirefu 634
Kutaniko 634
kuathiri 634
hufurahia 634
kimuujiza 634
afadhali 634
aliishi 633
patwa 633
kumtegemea 632
shika 632
mfanya 632
fanana 632
atokeza 632
Nik@@ 632
kimo 631
uzuri 631
ndicho 631
walo 631
azimio 631
kuuliza 630
tani 630
tengenezwa 630
wasili 630
Wathesalonike 629
endeleza 629
kuridhisha 629
ghadhabu 628
ulize 628
Tuki@@ 628
Ndoa 628
ugua 628
kuunga 627
uke 627
Aina 627
kutegemeka 626
cheza 626
JE 626
ri@@ 626
babu 626
Ruthu 625
ifaayo 625
atak@@ 625
Jitihada 624
gesi 624
penye 623
wahudumu 623
kuhani 623
kuza 623
pe@@ 623
hospitalini 623
kavu 622
wakifanya 622
aliyet@@ 622
ileile 622
watafiti 621
wanataka 621
ubora 620
olewa 620
amet@@ 620
lita@@ 620
h 620
kamilifu 619
wanaf@@ 619
ena 619
1997 619
utumizi 619
husaidia 619
che 619
sukuma 619
ukombozi 619
adabu 619
akazia 619
kuenea 618
watenda 618
uelewevu 618
Nguvu 618
malezi 618
piga 617
karibisha 617
CH@@ 617
ako@@ 616
ilisema 616
chetu 616
tuma 616
Farao 616
Hekima 616
kujidhibiti 615
wanaofanya 615
miji 615
lilipo@@ 615
zilizokuwa 615
walihitaji 614
yanayoweza 614
ingiza 614
mifumo 614
masuala 614
chi 614
Haki 614
kuonwa 613
Mwa@@ 613
huka 613
chapishwa 613
waasi 613
huku@@ 612
dhoruba 612
kukiwa 612
utimilifu 612
Kik@@ 612
watakao@@ 612
lilisema 612
upweke 611
alikwa 611
akwa 610
D 609
avyo@@ 609
Kilatini 609
linat@@ 609
mshahara 609
izi 609
itawisha 608
itakayo@@ 608
KWA 608
abiri 608
48 608
kichapo 607
ingana 607
wakam@@ 606
udumuo 606
utegemezo 605
amehe 605
kuki@@ 604
kutembelea 604
hutusaidia 604
lini 604
lo 603
Yaonekana 603
zoeza 603
Kujifunza 603
ibu 603
aliy@@ 603
ushuhuda 603
Kondoo 603
ongo@@ 603
James 602
ishwe 602
vutia 602
City 602
sikuwa 602
pos@@ 602
rudia 601
hukumiwa 601
T 601
arudi 600
wakas@@ 600
mapendezi 600
Myahudi 600
Mapema 600
kubalika 600
navyo 600
tumwa 599
ofisa 599
Mo@@ 599
kutolewa 599
kubeba 599
Mwalimu 599
ushikamanifu 599
fasihi 599
Wagiriki 598
aliji@@ 598
kuumiza 598
mjane 597
redio 597
kushoto 597
amewa@@ 597
Milele 596
hirikiana 596
Chanzo 596
ol@@ 595
kumsifu 595
Solomoni 594
jia 594
vilikuwa 593
tolea 593
amep@@ 593
Kim@@ 593
huleta 593
hawajui 593
Ugonjwa 593
di@@ 592
Hakika 592
udi 592
sababishwa 592
uzinzi 592
ziwa 591
kutafsiri 590
msi@@ 590
Simulizi 590
kipimo 590
mweupe 590
endeza 590
wanaishi 590
mag@@ 589
Nao 589
shirikiana 589
apatikana 589
Milki 589
Hasa 589
yatakayo@@ 589
yap@@ 588
ef@@ 588
atoka 588
alika 588
zisizo@@ 587
inayoweza 587
alikataa 586
wazuri 585
nyasi 585
mito 585
Bora 585
David 585
waandishi 585
atiwa 585
bakteria 584
1991 584
yata@@ 584
kif@@ 584
kul@@ 584
hutaka 583
Har@@ 583
endekeza 583
azwa 583
alimpa 583
kutokamilika 583
yafuatayo 582
Nani 582
furahisha 582
waf@@ 582
alivyosema 581
Tena 581
unam@@ 581
wachungaji 581
umbwa 581
ajaribu 581
arajia 580
kumwiga 580
hatarini 580
wasomi 580
yaki@@ 579
hoja 579
mdomo 579
Wataalamu 579
shiriki 579
Mt 579
aliweza 579
fikiri 578
isi 578
kadhalika 578
ungeweza 578
iny@@ 577
upungufu 577
mzaliwa 577
hiyohiyo 577
waliop@@ 577
iwezekanavyo 577
itoa 577
B 576
nilipata 576
kuwaonyesha 576
hutokea 576
ora 575
mnyanyaso 575
IN@@ 575
Ahadi 575
Yona 574
lika@@ 574
akifanya 574
1999 574
inawezekana 574
55 573
ujana 573
9@@ 572
ukit@@ 571
onge 571
baiskeli 571
madhabahu 571
wakim@@ 570
hay@@ 570
Kifo 570
ushwa 570
Up@@ 569
ga 569
fanyiza 569
embea 569
hangaikia 569
1996 569
awezaye 568
kuimba 568
linaonyesha 568
pas@@ 568
kiwa 567
aliweka 567
kuabudu 567
Punde 567
kuitwa 567
anatu@@ 567
mgumu 567
kea 567
Ume@@ 567
ikiria 567
man 566
ania 566
amen@@ 566
waji@@ 565
kumb@@ 565
utunzaji 565
wanyenyekevu 565
imes@@ 565
starehe 565
afu 565
kitaifa 564
ratiba 564
ning@@ 564
Watafiti 564
aliamua 563
aleta 563
tuliyo@@ 562
masilahi 562
kimya 562
nacho 562
Mtunga 562
video 562
kumbwa 562
agiza 562
wato@@ 561
ache 561
hutia 561
UKURASA 561
kanisani 561
vuta 561
Sara 560
ninapo@@ 560
zing@@ 560
akap@@ 560
nyuzi 559
te 559
hupenda 559
mfadhaiko 559
tafrija 559
ufaisha 559
migawo 559
kipagani 558
jit@@ 558
walikuja 558
tukit@@ 558
ito 558
alivyofanya 557
meza 557
ok@@ 557
fupi 557
kifua 556
ige 556
tunao@@ 556
kukimbia 556
imet@@ 555
Rafiki 555
kuhamia 554
chapa 554
sit@@ 554
ome 554
mf@@ 554
Mak@@ 554
ufisadi 554
vielelezo 553
ifanye 553
inda 553
Mwisho 552
tunam@@ 552
mfanyakazi 552
Malaika 552
mmea 552
walitaka 552
harufu 552
kihistoria 551
R 551
Waweza 551
pasipo 551
onaje 551
yanat@@ 551
Ho@@ 551
aliyetajwa 551
inayoitwa 551
mapato 550
46 550
bariki 550
ende@@ 550
tawala 549
hutegemea 549
Mika 549
Kuishi 549
ulivyo@@ 549
Ko@@ 549
AN@@ 549
anayeishi 549
é@@ 549
zwe 548
kuharibiwa 548
waweze 548
ufanisi 548
’@@ 548
andikia 547
Hatari 546
mauaji 546
afanana 546
uchafuzi 546
man@@ 545
laini 545
Wam@@ 544
NYIMBO 544
Mweza 544
Ime@@ 544
yu 544
Ile 544
Wanyama 544
msaidia 544
Ya@@ 544
asali 543
kisababishi 543
ombe 543
iona 543
akosa 542
1998 542
unguka 542
tunas@@ 542
ladha 542
alipaswa 542
tung@@ 542
aliyeitwa 541
kuuza 541
angem@@ 541
mchanganyiko 541
ite 541
wakulima 541
kulinganishwa 541
ʹ@@ 541
Nabii 541
waliishi 540
m 540
pombe 540
Ibada 540
matumaini 540
haij@@ 540
Pamoja 540
alijifunza 539
mwandikaji 539
Sovieti 539
Ut@@ 539
alihisi 539
itawi 539
To@@ 539
Mamilioni 538
Tayari 538
kukusanya 538
kujitolea 538
Funzo 537
unguza 537
kutosheleza 537
kujidhabihu 537
ungi 537
tam@@ 536
1@@ 536
profesa 536
kutetea 536
likawa 536
fungwa 536
ponografia 536
wakaanza 535
matangazo 535
pendeza 535
tangaza 535
Chakula 535
tembo 534
eneza 533
huhitaji 533
fundishwa 533
mashahidi 532
vib@@ 532
hangeweza 532
Ame@@ 532
lea 532
ge@@ 532
mashtaka 532
Tunahitaji 531
hamishwa 531
ze@@ 531
ondolea 531
Kutokana 530
kumkaribia 530
uchumi 530
mz@@ 530
neva 530
mhubiri 529
reli 529
akiba 529
alimu 529
fanyiwa 529
alicho@@ 529
upendeleo 529
1,000 529
pepo 529
weze 528
mwangaza 528
kid@@ 527
aliyokuwa 527
zinazoweza 527
andamana 527
majini 526
hufa 526
kupambana 526
Yake 526
ukamilifu 526
Kif@@ 526
afanywa 525
imep@@ 525
ubu 525
nguzo 524
madokezo 524
UM@@ 524
hujitahidi 524
ra@@ 523
sa 523
shu@@ 523
siasa 522
vitendo 522
waendelee 522
mavuno 522
Papa 522
Kutumia 522
patana 522
uliopo 522
wajumbe 522
lenu 522
nilihisi 521
kufu@@ 521
ziki@@ 521
ne 520
mgeni 520
kuwaona 520
Kitaifa 520
Ukweli 520
enge 520
Miongoni 520
ba@@ 520
jema 519
vyumba 519
adi 519
Msaada 519
ongezwa 519
huwezi 519
hodari 519
andaliwa 519
Nehemia 518
kustahili 518
kutimizwa 518
AM@@ 518
mikazo 518
kas@@ 517
Kuwa@@ 517
kukuza 517
uje 517
watendea 517
r 517
kutubu 517
ony@@ 517
Po@@ 516
urahia 516
har@@ 516
kitulizo 516
maliki 516
Paul 516
sanaa 516
lamaanisha 516
usafiri 516
tumbaku 515
hata@@ 515
ongoze 515
upeo 514
Korintho 514
watano 514
Hesabu 514
msaidizi 514
William 514
tuone 514
tunaishi 514
Gospeli 514
Vipi 514
ustahimilivu 513
uhusu 513
hiwa 513
Halmashauri 513
ungana 513
shambulia 513
kumaanisha 512
huzunika 512
atumia 512
rekebisha 511
ardhini 511
Watumishi 511
tabiri 511
wajua 511
pana 511
sukari 511
huandaa 511
Kuanzia 511
Nazi 510
me@@ 510
utoaji 510
zaji 510
hawaku@@ 509
Pentekoste 509
st@@ 509
mabawa 508
viatu 508
Man@@ 508
abudu 507
ifuatayo 507
Tito 507
kuvaa 507
ru@@ 507
abiria 506
umef@@ 506
wanajeshi 506
anisha 506
Msi@@ 505
duka 505
michango 505
hifadhiwa 505
Hitler 505
angamiza 505
ukumbusho 504
Ch@@ 504
Ebu 504
linda 504
Kisiwa 504
Eneo 504
alizaliwa 504
nafuu 503
Ujuzi 503
batizwa 503
tunavyoweza 503
tarajia 503
wanaotaka 503
Jamhuri 502
Robert 502
kijani 501
dharau 501
udanganyifu 501
ZI 501
lishe 501
Am@@ 501
hula 501
chafu 501
apokuwa 501
Huuliza 500
AS@@ 500
Bo@@ 500
ute 500
walitu@@ 500
itumia 500
akip@@ 500
pua 500
Taasisi 500
Paris 500
tabaka 499
mwamini 499
viini 499
jiweka 499
uthabiti 499
anayet@@ 498
Wab@@ 498
Dawa 498
akaandika 498
kuvuka 498
deni 498
mar@@ 497
Njema 497
mizizi 497
icho@@ 497
jimbo 497
wanyoofu 497
nyeupe 497
waliendelea 497
Internet 497
ufu@@ 496
afikiri 496
nafaka 496
Utawala 495
alijibu 495
kutibu 495
Tulikuwa 495
Cha@@ 495
ngano 495
vikubwa 495
masikio 495
L 494
kusemwa 494
muundo 494
ugumu 494
anayes@@ 493
mj@@ 493
tupate 493
niaba 493
dharura 493
wakisema 493
kupigwa 493
se 493
sahau 493
kusafisha 492
jue 492
Tume@@ 492
kusanyika 492
kujizuia 492
kurudisha 492
Tu@@ 492
alazimika 492
zinapo@@ 492
akitumia 492
wasomaji 492
yatakuwa 492
yanapo@@ 491
75 491
madini 491
wapinzani 491
panda 491
alisali 490
Nit@@ 490
marefu 490
Tafadhali 490
udia 489
niwe 489
lim@@ 489
Zab 489
maombi 488
mboga 488
mtego 488
kumekuwa 488
os 488
kupeleka 488
tus@@ 488
á@@ 488
echukua 488
Tunawezaje 488
Wenzi 488
Hapana 488
47 487
wenzangu 487
upatano 487
zilizopita 487
hitimu 487
kusuluhisha 487
ere@@ 487
mwelekezo 487
LA 487
akiwa@@ 486
zima 486
2001 486
Historia 486
evu 486
ne@@ 486
Lugha 486
zita@@ 486
inatu@@ 486
Version 485
tahili 485
ishaje 485
Ukiwa 485
ametu@@ 485
vina 485
Ab@@ 485
Nchini 484
izo 484
emwa 483
aandika 483
she 483
yanavyo@@ 483
eli@@ 483
zungumziwa 483
ju@@ 483
kutekeleza 483
utaf@@ 482
Ajili 482
jarida 482
ra 482
Mwan@@ 482
1989 482
onyeshe 482
alivyokuwa 482
inaelekea 482
benki 482
sentimeta 482
shida 482
Kikundi 482
kil@@ 482
Brooklyn 482
Wal@@ 481
Loti 481
he@@ 481
fananisha 481
wisha 481
Sh@@ 481
Utumishi 480
Kale 480
nimekuwa 480
Co@@ 480
Elimu 480
msemaji 480
ee 480
achiliwa 479
kusahau 479
hawata@@ 479
vitani 479
miongo 479
mpira 479
kuwatunza 479
Takatifu 479
ghali 479
waangalifu 479
Sosaiti 479
hughulikia 478
kuwaeleza 478
400 478
Kaisari 478
Usiku 478
acho 478
tisho 478
Endeleeni 477
3,000 477
vyetu 477
sta@@ 477
kuajiriwa 477
utotoni 477
Jibu 477
1950 477
Kifaransa 476
Kinyume 476
buniwa 476
magurudumu 476
adiki 476
Kaini 476
ain@@ 476
Inayo@@ 475
Uholanzi 475
hawapaswi 475
alienda 475
watiifu 474
iza 474
kamba 474
atakapo@@ 474
ambana 474
abadilika 474
kilele 474
tafakari 474
Kihispania 474
watat@@ 474
maandalizi 474
kufanyia 474
halikuwa 473
Karne 473
Wana 473
Jioni 473
alichukua 472
safiri 472
bandari 472
indwa 472
mna@@ 472
endea 471
chochewa 471
tangulia 471
tetemeko 471
tajwa 471
zinaz@@ 471
hub@@ 470
Taifa 470
tegemeza 470
bu 469
Wahindi 469
Yetu 469
alikazia 469
afunua 469
aliuliza 469
tamaduni 468
amka 468
Barua 468
machafu 468
kuwahubiria 468
Kun@@ 468
tangazo 468
inua 468
king@@ 468
ishaji 468
uli 468
wakimbizi 467
zeeka 467
ajitahidi 467
kan@@ 467
anayem@@ 467
kimbia 466
wataka 466
chukuliwa 466
mitindo 466
viwanda 466
anafanya 466
zinge@@ 465
ufafanuzi 465
watalii 465
vipi 465
tubu 465
mki@@ 465
HA@@ 465
shughulikia 465
ambaa 465
Hapa 464
kuruka 464
ugomvi 464
vip@@ 464
havi@@ 463
kutupa 462
mv@@ 462
Washiriki 462
◆ 462
kujitoa 462
sikukuu 462
afanua 461
barikiwa 461
Lazaro 461
kutanguliza 461
ndizo 461
kudai 461
uchafu 461
bonde 461
Poland 461
AT@@ 461
toweka 461
alipokufa 460
okolewa 460
yaonyesha 460
Utafiti 460
kusudia 460
kampeni 459
Jamii 459
hapana 459
huwapa 459
tafadhali 459
Car@@ 459
endezwa 459
azi 459
funikwa 459
ira 459
kuanguka 459
ambulisha 459
Tract 458
umie 458
akiri 458
iliyotangulia 458
kupumua 458
waa 458
uhakikisho 457
Hizo 457
milimani 457
abu 457
lala 457
kur@@ 457
kilio 457
izwa 457
amp@@ 457
Nilianza 457
Hao 456
Ireland 456
Jifunze 456
Upesi 456
iyo 456
buni 455
Le@@ 455
kumba 455
matineja 455
aliwa 455
haina 455
jukumu 455
alasiri 455
eo 455
liko 454
naam 454
Ni@@ 454
isim@@ 454
kiwanda 454
kutoweka 454
Wazia 454
funua 454
waishi 454
huitwa 453
wanaj@@ 453
oko@@ 453
wanapokuwa 453
engeneza 453
azungumzia 453
watak@@ 453
IS@@ 453
komboa 452
katwa 452
alipewa 451
Wetu 451
H 451
maalumu 451
onekane 451
Amb@@ 451
mta@@ 451
haramu 451
wasiliana 451
kuwatendea 451
nyara 450
Akina 450
kuogopa 450
jitoa 450
Tut@@ 450
Her@@ 450
kusonga 449
Hatu@@ 449
ene 449
unajua 448
kupendwa 448
George 448
Uta@@ 448
hupatikana 448
safu 448
Mtazamo 448
kusanywa 448
akaa 448
Masimulizi 448
saidie 448
wachochea 448
vyema 447
Mtakatifu 447
ufupi 447
vina@@ 447
watapata 447
nimes@@ 447
walijua 446
Jipya 446
Uhusiano 446
pigano 446
linalomaanisha 446
kaburi 446
kutukia 446
Kichwa 446
chako 446
ango 446
Baraka 446
c 446
kuwalinda 446
njiani 445
wahi 445
halafu 445
Iwe 445
mshuko 445
hur@@ 445
ikiri 445
misaada 445
sifu 444
afurahia 444
kujit@@ 444
Damu 444
safina 444
chaguliwa 444
ieni 444
utambuzi 444
ati@@ 443
tai 443
kufungwa 443
Elisha 443
aga 443
linavyo@@ 443
ulizwa 443
wawezesha 442
Pasifiki 442
hutoka 442
Ber@@ 442
zoezwa 442
ingi 442
lingekuwa 442
usawa 442
matetemeko 442
Tokeo 442
wapiga 442
zisizofaa 441
P 441
tulipokuwa 441
kulipia 441
harakati 441
esi 441
endi 441
mita 441
trakti 441
Efeso 440
alijaribu 440
Br@@ 440
kujulikana 440
kulea 440
Wame@@ 440
matakatifu 440
ubuni 439
akumbuka 439
kuiba 439
Vitabu 439
shutumu 439
kuyat@@ 439
tutakuwa 439
Charles 439
Yudea 438
kuhama 438
lis@@ 438
kutamani 438
anatumia 438
kitakacho@@ 438
kujilinda 438
ncha 438
kugusa 438
kuondolewa 438
Kib@@ 438
mwito 438
wad@@ 437
yalipo@@ 437
kushangilia 437
Mu@@ 437
NI 437
mwepesi 437
takwa 437
waliamini 437
mwamba 437
hap@@ 436
BIBLIA 436
shindano 436
pigwa 436
alilo@@ 436
midomo 436
usimamizi 436
ruhusa 436
wanaona 436
watawa 436
ambukizwa 436
homa 436
Malaki 436
azidi 436
mawingu 436
ngome 435
Zamani 435
Gharika 435
AF@@ 435
kung@@ 435
Sha@@ 435
ANI 435
askofu 435
evanjeli 435
ukat@@ 435
kahawa 435
kukat@@ 434
und@@ 434
atimizwa 434
zilizop@@ 434
Ambayo 433
wamini 433
Zekaria 433
Shangwe 433
yem@@ 433
imepita 433
mgongo 433
Yangu 433
shimo 433
Kiroma 432
Kenya 432
nilitaka 432
wawa@@ 432
akik@@ 432
14@@ 432
kilichochapishwa 432
huchukua 432
nikaanza 432
66 432
uru 432
pale 432
vumilia 432
visivyo@@ 432
Journal 432
ingie 432
ng@@ 431
Inaelekea 431
mnyenyekevu 431
kulinganisha 431
Bar@@ 431
kisicho@@ 431
yamekuwa 430
2002 430
michoro 430
Be@@ 430
Majibu 430
Ms@@ 429
minane 429
iti@@ 429
nyuklia 429
majaribio 429
kushikamana 429
ajulikana 429
uawa 428
wanapata 428
taf@@ 428
ri 428
haukuwa 428
Moja 428
anay@@ 428
machapisho 428
hauj@@ 428
tunge@@ 428
mikusanyiko 427
mkurugenzi 427
kuch@@ 427
Kar@@ 427
Mwanadamu 427
ath@@ 426
alizungumza 426
twahitaji 426
kumheshimu 426
Aliwa@@ 426
uji@@ 426
ILI@@ 425
eseka 425
asiri 425
kug@@ 425
St@@ 425
yaf@@ 424
ovu 424
ufanye 424
ningeweza 424
American 424
unacho@@ 424
alimw@@ 423
pengine 423
YEHOVA 423
linapo@@ 423
uongozi 423
mwanahistoria 423
aliacha 423
oro 423
kufufuliwa 423
Visiwa 423
1970 423
kikatili 423
yalo 423
kuokoka 422
Wanao@@ 422
ondo@@ 422
Msichana 422
laumu 422
Kutoa 422
Ninyi 422
wahalifu 422
ongwa 421
alili@@ 421
hang@@ 421
namba 421
Inc 421
riziki 421
anya 421
ui 421
haki@@ 421
matawi 421
umbua 421
huonwa 421
unavyoweza 420
mashambulizi 420
Pilato 420
itikio 420
wakap@@ 420
aliyekufa 420
kungekuwa 420
kuzingatia 420
Mfumo 419
lik@@ 419
gawanyika 419
150 419
Aliandika 418
tangazwa 418
tunat@@ 418
faidi 418
hayakuwa 418
kuponya 418
wag@@ 418
wamekufa 418
tabiriwa 417
kuliwa 417
ninaweza 417
lewa 417
angali@@ 417
Baali 417
adai 417
afuata 416
oksijeni 416
pa@@ 416
Walipo@@ 416
d 416
Ana 416
mabomu 416
thibitishwa 416
mitazamo 416
thi 416
hayaj@@ 415
Hat@@ 415
AL@@ 415
patia 415
tukuza 415
kitheokrasi 415
embelea 415
hal@@ 415
mwangalifu 414
wav@@ 414
Kielelezo 414
mapambo 414
watas@@ 414
umalizio 414
sakafu 414
sitawi 414
chote 414
timia 414
maduka 413
onyeshaje 413
by 413
zip@@ 413
walitoa 413
ngazi 413
Daktari 413
siwezi 413
Wala 413
Miezi 413
usiofaa 413
atafanya 412
California 412
sekondari 412
Yo@@ 412
utakao@@ 412
ter@@ 411
ande 411
war@@ 411
olojia 411
uri 411
AR@@ 411
Wamisri 411
Aliye 411
K 410
vijiji 410
walikubali 410
angu 410
ilie 410
iliyotolewa 410
matoleo 410
Waf@@ 410
atas@@ 410
Mkatoliki 409
lisilo@@ 409
kueleweka 409
imwa 409
US@@ 409
Huku 409
atie 409
ikit@@ 409
kishawishi 409
ungo 409
zana 408
mguu 408
kupungua 408
Michael 408
umo 408
uliofuata 408
wataf@@ 407
eshwa 407
vitumbuizo 407
UM 407
tilia 407
kufunika 407
kuzoea 406
UN@@ 406
imiza 406
kutufanya 406
ton 405
Kiroho 405
tulivyo@@ 405
Hadi 405
yaliyoandikwa 405
mabara 405
hema 405
5,000 404
zis@@ 404
wakitumia 404
Korea 404
gunduliwa 404
amekufa 404
Kiasi 404
andwa 403
wavyo 403
unataka 403
uzee 403
kufungua 403
uku@@ 403
potoka 403
pumzi 403
yaona 403
ot@@ 402
me 402
51 402
do@@ 402
walikataa 402
apa 402
Tamaa 402
Kichapo 402
kunge@@ 402
zimep@@ 402
amw@@ 401
fufuliwa 401
ufaika 401
je@@ 401
alivyo 401
Acha 401
utakapo@@ 401
umajimaji 401
manne 400
gusa 400
marika 400
ake 400
EN@@ 400
limekuwa 400
jaza 399
Huu 399
Uwezo 399
bar@@ 399
Shauri 399
lat@@ 399
1945 399
maonyo 399
kupumzika 399
semwa 399
isoma 399
ANA 399
kukawa 399
huta@@ 399
huathiri 399
utapata 399
Mwandishi 399
achia 399
opata 399
mkopo 399
mraba 398
F 398
Nita@@ 398
Translation 398
tuko 398
ushirikiano 398
ipo 398
El@@ 398
Uhuru 398
eni@@ 398
Mariamu 398
nyororo 397
Uswisi 397
aliyeishi 397
pendezwa 397
adumu 397
anaendelea 397
Iwapo 397
Mzee 397
mbo 397
alitangaza 396
kikabila 396
Ujumbe 396
naweza 396
kugundua 396
ajiriwa 396
isiyofaa 396
iria 396
utwa 396
kujihusisha 396
Kam@@ 396
atusaidia 396
mnara 395
liliripoti 395
kukaza 395
or 395
Galilaya 395
waz@@ 395
ada 394
Amri 394
nyuki 394
mbiu 394
1960 394
Mn@@ 394
Mbona 394
nisi@@ 394
kujaza 394
kucha 394
1980 394
ele 393
yakawa 393
itisha 393
wafundisha 393
onywa 393
onyeshi 393
kufariji 392
ipeleka 392
Kwani 392
upana 392
kitovu 392
achilia 392
uchaguzi 392
madai 392
Kor 392
yon@@ 392
wanatumia 392
mkiwa 392
kufaulu 392
vazi 392
kuchapisha 392
anges@@ 391
kiunabii 391
dokeza 391
52 391
huja 391
maktaba 391
v 391
rekodiwa 391
Ji@@ 391
kutofautisha 391
sho 390
huv@@ 390
ivu 390
Maandishi 390
kuume 390
wafu@@ 390
ilhali 390
Idara 390
hadhari 389
ilionekana 389
haziwezi 389
iitwayo 389
kioo 389
hudai 389
uwa@@ 389
ichukua 389
hari 389
ley 389
nikawa 389
wahitaji 389
ini@@ 388
72 388
ababishwa 388
kuvi@@ 388
ng’ambo 388
azam@@ 388
Wanapo@@ 388
majumba 388
protini 388
hayawezi 387
inuka 387
Walio@@ 387
Kujua 387
kuwapenda 387
kuketi 387
2,@@ 387
mbuga 386
ulianza 386
unafiki 386
ec@@ 386
mas@@ 386
Mary 386
mapigano 386
usomaji 386
afikiria 386
kuka@@ 386
Hezekia 386
alifundisha 386
toba 386
jihisi 386
144,000 386
mwongo 386
hewani 386
Mojawapo 386
agizo 386
hauri 385
Milima 385
Moscow 385
linganisha 385
afakari 385
wacha 385
do 384
wamem@@ 384
Kituo 384
Waprotestanti 384
abaki 384
kee 384
ukuliwa 384
wabudu 383
kipya 383
ela 383
nadhiri 383
sarafu 383
hekaya 383
achi@@ 383
Book 382
watazamaji 382
kuifanya 382
kuangalia 382
1919 382
National 382
kutuliza 382
St 382
pendwa 382
gu@@ 382
Uajemi 382
upe 381
upo 381
hatuna 381
Maelezo 381
kizuizi 381
kupima 381
mtihani 381
hufanyiza 381
huli@@ 381
uelewaji 380
endeka 380
hatuj@@ 380
kuongozwa 380
Kimataifa 380
atambua 380
Hana 380
Lili@@ 380
kezi 380
akamwambia 380
lilivyo@@ 380
nimepata 380
afaa 379
chaweza 379
elekezwa 379
msongo 379
changa 379
kab@@ 379
rejezea 379
aweze 379
Ukosefu 378
Siri 378
Kubwa 378
udishwa 378
Asilimia 378
Mb@@ 378
makumi 378
Madaktari 378
hauwezi 378
vyanzo 378
kupelekwa 377
akata 377
endewa 377
International 377
ing’@@ 377
itawa@@ 377
ifun@@ 377
Kile 377
hutafuta 376
Russell 376
kuwahi 376
Ninapo@@ 376
hufanywa 376
tunap@@ 376
Mal@@ 376
ame 376
mg@@ 375
Photo 375
kuunganisha 375
2003 375
Duniani 375
wanahisi 375
ufikirio 375
jo@@ 375
Se@@ 375
mjini 375
Kili@@ 374
unaop@@ 374
amia 374
kusitawi 374
tamani 374
Sa@@ 374
nyeusi 374
chunguze 374
hange@@ 374
kitamaduni 373
wanaendelea 373
azungumza 373
zinazop@@ 373
U.S 373
Mazoezi 373
akajibu 373
spishi 373
kupa 373
likizo 373
anget@@ 373
uliop@@ 373
waandikaji 372
atuambia 372
jis@@ 372
zayo 372
agizwa 372
shtaki 372
kujip@@ 372
Macho 372
ako 372
anisho 372
Yale 371
Nuru 371
LI@@ 371
Di@@ 371
tekinolojia 371
umashuhuri 371
Nilihisi 371
shtakiwa 370
kunufaika 370
usa 370
wasema 370
kaji 370
mielekeo 370
visababishi 370
uc@@ 370
kilimo 370
uaji 370
kutendewa 369
watunza 369
umewahi 369
Hisia 369
hukubali 369
bibi 368
Lilikuwa 368
faidika 368
kaboni 368
athirije 368
chemchemi 368
amaanisha 368
Ad@@ 368
nyote 368
had@@ 368
afika 368
x 367
600 367
Kusanyiko 367
husianishwa 367
linalofaa 367
kikiwa 366
tutak@@ 366
49 366
onekani 366
Sawa 366
Wanaweza 366
Martha 366
mapafu 365
okeza 365
iaje 365
Sefania 365
kuitikia 365
Yoh 365
halimaanishi 365
shuka 365
aruhusu 365
umbuliwa 365
jiunga 365
kuelekeza 365
Maj@@ 365
saburi 365
alizo@@ 364
walit@@ 364
alipowa@@ 364
umisha 364
Michezo 364
ambuliwa 364
vizazi 364
hurumia 363
hisije 363
Herode 363
majukumu 363
utume 363
Ndani 363
alimaanisha 363
burudani 363
Programu 363
Mis@@ 363
Kuji@@ 363
Hotuba 363
La@@ 362
kujiweka 362
wanakabili 362
ulie 362
chunguzwa 362
letwa 362
visivyo 362
kump@@ 362
matope 362
kifupi 362
viziwi 362
kumwa@@ 362
atofautiana 362
inayofanya 362
Huyo 362
ori 362
ufundi 362
elekwa 362
jitenga 361
niliona 361
56 361
alimt@@ 361
ar 361
yapata 361
inaeleza 361
kivuli 361
atokana 361
upumbavu 361
sawasawa 361
Binti 361
zinavyo@@ 361
Una 361
huzunisha 361
auka 361
geuka 361
umishonari 361
wapakwa 361
daraja 360
atumaini 360
kabidhi 360
mshangao 360
zinaonyesha 360
Fa@@ 359
Mbegu 359
isiyoweza 359
akizungumza 359
kiri 359
ufa@@ 359
vim@@ 359
posoma 359
hutokana 359
inayoonyesha 358
Marafiki 358
nitawa@@ 358
huelekea 358
Wazo 358
ING@@ 358
atii 358
Mt@@ 358
adokeza 358
unaoonyesha 358
kumweleza 358
alianzisha 358
wamev@@ 358
Bali 358
atimiza 358
mtenda 358
Sabato 358
wajifunze 358
arib@@ 358
kutendwa 358
kuchukiza 357
aliwahimiza 357
Kip@@ 357
inaf@@ 357
vyeo 357
heshimiwa 357
sihi 357
mpenda 357
walijaribu 357
Ak@@ 357
azame 357
iletea 357
Hati 357
uone 357
ingilia 357
kunisaidia 357
ikir@@ 357
tunataka 357
Iliyo@@ 356
kutatusaidia 356
54 356
yalin@@ 356
dhana 356
atolewa 356
Akili 356
de@@ 356
imo 356
mifugo 356
Kusoma 356
Jaribu 355
Kil@@ 355
Sweden 355
Tumia 355
uchovu 355
vig@@ 355
amepata 355
jana 355
walipewa 355
muujiza 355
uki 355
eme 355
IT@@ 355
Mwanafunzi 355
potosha 355
tafsiriwa 355
udhi 355
Buku 354
hedhi 354
majeraha 354
esa 354
aliamini 354
tineja 354
rejelea 354
zinazofaa 354
Othodoksi 354
akabili 354
shawishi 354
hudumu 354
ubatili 354
Swali 354
Abeli 354
Fanya 353
geuza 353
kuis@@ 353
ishi@@ 353
kuharibika 353
thawabisha 353
kufunua 353
makaburi 353
kinaweza 353
Peter 353
utat@@ 353
kuhangaikia 352
mashimo 352
halijoto 352
Sanduku 352
waliuawa 352
Vilevile 352
madeni 352
faragha 352
Britannica 352
sal@@ 352
Muhimu 352
lilin@@ 351
kipande 351
inakuwa 351
KI@@ 351
uliyo@@ 351
mbie 351
midogo 351
iliwa@@ 351
Lo@@ 351
kuogofya 351
nikit@@ 351
yaka@@ 351
mahakamani 350
ong@@ 350
kugeuza 350
ob@@ 350
itii 350
Sayansi 350
é 350
Ofisi 350
tunajua 350
wamen@@ 349
thaminiwa 349
mad@@ 349
yaliyotukia 349
mahubiri 349
Mwishoni 349
aliniambia 349
atus@@ 349
kumtia 349
igo 349
alimp@@ 349
hubiria 349
milango 349
Vit@@ 349
fanye 349
kuwaongoza 348
fafanua 348
x@@ 348
1988 348
Kikatoliki 348
kambo 348
alis@@ 348
huweka 348
kumwelekea 348
upi 347
elezea 347
kilogramu 347
vaa 347
kitanda 347
Mafundisho 347
unaj@@ 347
zaje 347
kuku 347
Yanayo@@ 347
kuchangia 347
ilinda 346
wanakuwa 346
ilipokuwa 346
kuolewa 346
min@@ 346
yai 346
bima 346
ingwa 346
no@@ 346
waliozeeka 346
kukubaliwa 346
G 346
sikio 346
mme@@ 345
History 345
War@@ 345
eka 345
kujitenga 345
funza 345
kuo@@ 345
hayat@@ 345
jike 345
walionyesha 345
Ba@@ 345
hekaluni 344
San 344
emekana 344
kikombe 344
ingizwa 344
ujeuri 344
hupatwa 344
tas@@ 344
maadamu 344
tak@@ 344
ambuli@@ 344
Mahubiri 344
kimakosa 344
fuatia 343
himizo 343
p 343
Barabara 343
vipofu 343
anzia 343
kumwogopa 343
tanguliza 343
hutukia 343
afsiri 343
funika 343
zisizostahiliwa 343
mishipa 343
Mon@@ 343
kuchezea 343
mbua 342
emea 342
vyaweza 342
niliyokuwa 342
kiini 342
kuheshimu 342
3,@@ 342
shaba 342
abadili 342
Zawadi 342
walinda 342
uchawi 342
Mit@@ 342
eria 341
ang’@@ 341
walihudhuria 341
ikiwe 341
Waj@@ 341
Kuli@@ 340
somea 340
pi@@ 340
kumtumaini 340
Wafanyakazi 340
nilifanya 340
Ed@@ 340
chupa 339
Mbinu 339
hitaj@@ 339
kataza 339
Kidini 339
Tulipo@@ 339
ukali 339
mny@@ 339
2004 339
mwabudu 339
119 339
mchangamfu 338
wamejifunza 338
molekuli 338
egemeza 338
ilionyesha 338
En@@ 338
kuchukuliwa 338
jeni 338
uvumbuzi 338
huchangia 338
kingi 338
miongozo 338
undo 338
Mazungumzo 338
yar@@ 338
mabilioni 338
anishwa 337
Viongozi 337
zu@@ 337
icha@@ 337
azaliwa 337
barani 337
wameona 337
he 337
zilipo@@ 337
Endelea 337
hawangeweza 337
uhamishoni 337
paka 336
kusababu 336
majivuno 336
nilijifunza 336
tukufu 336
kikamilifu 336
Safari 336
tupa 336
jo 336
Saa 335
adili@@ 335
hukua 335
ilisha 335
Sote 335
wangali 335
mpangilio 335
hufikiri 335
Par@@ 335
zuka 335
ES@@ 335
ficha 335
Maelfu 335
Li@@ 335
humw@@ 335
kuathiriwa 335
El 335
ALI@@ 335
inamaanisha 334
iliyofanywa 334
walicho@@ 334
kutom@@ 334
unahisi 334
kuwazoeza 334
ura@@ 334
afanikiwa 334
orodhesha 334
funuliwa 334
unyofu 334
utayari 334
endeshwa 334
fuatwa 334
tr@@ 334
mavumbi 334
Kanaani 334
ukame 334
msomi 334
tunapata 334
chai 334
maradufu 333
Anapo@@ 333
eswa 333
mapambano 333
anishi 333
sekunde 333
kufanyiwa 333
jangwa 333
maiti 333
ninavyo@@ 333
nilio@@ 333
IM@@ 333
kujitayarisha 333
alionya 332
Ng@@ 332
onelea 332
Kiongozi 332
kujitiisha 332
hutofautiana 332
yanayohusu 332
kumhofu 332
UK@@ 332
ikisha 332
Per@@ 332
kasirika 332
kuyas@@ 332
kusimamia 332
10@@ 332
shingo 332
chang@@ 332
Inasemekana 332
utaona 332
kujis@@ 332
taji 332
mlipuko 332
kuwahusu 331
vinaweza 331
utas@@ 331
uku 331
Mediterania 331
aendelee 331
inapaswa 331
usadikisho 331
afany@@ 330
anguliza 330
alo@@ 330
anasa 330
tulio@@ 330
hufundisha 330
yasi@@ 330
furahi 330
wogopa 330
tunacho@@ 330
kamilika 330
mnyoofu 329
umilele 329
omesha 329
irisha 329
inam@@ 329
kukinza 329
dhuru 329
Inafundisha 329
Chembe 329
wenzako 329
jaribiwa 329
Esta 329
husababishwa 329
alitenda 328
ukaribishaji 328
kidesturi 328
mateka 328
ambatana 328
kupona 328
kabiliana 328
Mroma 328
kuoa 328
badilishwa 328
aze 328
ba 328
Dictionary 327
anywa 327
kudhihirisha 327
53 327
akataa 327
Jumamosi 327
kunamaanisha 327
mapatano 327
magugu 327
unapokuwa 327
uliwe 327
ikaje 327
matarajio 327
ifiwa 327
waseja 327
wasimamizi 326
imarishwa 326
hughulika 326
mabishano 326
83 326
ukamili 326
Barnaba 326
afurahi 326
zeni 326
Muziki 326
wakomavu 326
10,000 326
UT@@ 326
Ne@@ 326
wanaoweza 326
huwasaidia 326
Nyingi 326
yamep@@ 326
unaoweza 325
Waamuzi 325
hubiriwa 325
kuridhika 325
su@@ 324
um 324
tuweze 324
zika 324
kuambukiza 324
ewa 324
huongeza 324
haiwezekani 324
unajisi 324
sali 324
kulalamika 324
atu 324
kutoelewana 323
vichache 323
hinda 323
mamba 323
mpa 323
Walio 323
Tim 323
zipatazo 323
afan@@ 323
tua 323
haishangazi 322
Lin@@ 322
fua 322
etaka 322
yapasa 322
nilimw@@ 322
huchochea 322
kinge@@ 322
Kig@@ 322
kumshukuru 322
hukabili 322
kumt@@ 322
kumtunza 322
vyo@@ 322
Siria 322
Wasio 322
ifundisha 321
nipate 321
kiafya 321
tuji@@ 321
igia 321
san@@ 321
kufundishwa 321
nyembamba 321
f 321
elewe 321
tazamia 320
Naomi 320
fariji 320
pumziko 320
Kwamba 320
haja 320
News 320
matiti 320
mam@@ 320
iliyoandikwa 320
ize 320
manjano 320
kungoja 320
Mengi 320
litakuwa 320
Yonathani 320
isitiza 320
atiza 320
Mwingereza 319
ON@@ 319
inatia 319
Met 319
kuvua 319
Bill 319
linaripoti 319
1930 319
dumu 319
ingo 319
WATU 319
Mtawala 319
waandamani 319
andikisha 319
husu@@ 319
kiu 318
wani 318
hamb@@ 318
kufafanua 318
eleke@@ 318
hangaisha 318
Ger@@ 318
irika 318
W 318
msituni 318
bahati 318
Epuka 318
asaidia 318
soko 318
yaliyoonwa 317
onia 317
karib@@ 317
Henry 317
HU@@ 317
hufuata 317
mna 317
stahi 317
apenda 317
kisiri 317
amek@@ 317
vid@@ 317
da@@ 316
irudi 316
angamizwa 316
Austria 316
kujitegemea 316
yawezekana 316
umep@@ 316
anaona 316
huongoza 316
apat@@ 316
vidio 316
Akit@@ 316
Bonde 316
alikiri 316
wo@@ 316
vikiwa 316
ikaanza 316
pungua 316
Ezra 315
Lenye 315
yazo 315
kuko@@ 315
Wangu 315
umet@@ 315
kukasirika 315
vipya 315
hoji 315
Ziwa 315
matazamio 315
ufananisho 315
kusu@@ 315
msukosuko 315
samehe 314
asili@@ 314
neema 314
Richard 314
kukesha 314
wasik@@ 314
aripoti 314
homoni 314
sina 314
Encyclopædia 314
niliweza 314
hiri 314
wasafiri 313
waliamua 313
DNA 313
lif@@ 313
tufeni 313
upotovu 313
walipom@@ 313
eshi 313
umikia 313
chunga 313
Amosi 313
nambari 313
wahisi 313
kura 313
Ule 312
tarajiwa 312
uuzwa 312
wajane 312
AB@@ 312
nikis@@ 312
Yordani 312
vidole 312
kumbuke 312
zeituni 312
iri@@ 312
walizo@@ 312
Twapaswa 312
onge@@ 312
Viumbe 312
sumbua 311
walifikiri 311
hujifunza 311
kuzuru 311
eleta 311
afikia 311
Toronto 311
mshtuko 311
Alifanya 311
mwenu 311
1940 311
kumuua 311
kutwaa 311
upat@@ 311
Mstari 311
100,000 310
viti 310
nd@@ 310
ilika 310
mkwe 310
Uj@@ 310
vishawishi 310
kushikilia 310
Jua 310
uhalisi 310
tunazo@@ 310
Unao@@ 310
uliowekwa 310
120 310
fany@@ 310
ameweka 310
hikamana 310
afisha 310
Bal@@ 309
lazimisha 309
por@@ 309
hudumia 309
aliyen@@ 309
vito 309
Nisani 309
Us@@ 309
hukazia 309
likit@@ 309
ER@@ 309
apatana 309
Dhambi 309
sindano 309
abi 309
ikani 309
Anaye@@ 309
wamegundua 309
anacho@@ 309
Uamuzi 309
kupindukia 309
abab@@ 308
mali@@ 308
kurudishwa 308
par@@ 308
Ka@@ 308
lenyewe 308
walihisi 308
Kitheokrasi 308
tunayoweza 308
Scriptures 308
wekewa 308
waletea 308
aliomba 308
aliwaandikia 308
helo 308
Joseph 308
funguliwa 308
akaribia 308
Kur@@ 308
afu@@ 308
KUWA 308
tayarishwa 307
pigo 307
wanajitahidi 307
kukubalika 307
linaloweza 307
emp@@ 307
udhibiti 307
pinga 307
kuburudisha 307
japo 307
pi 307
nikam@@ 307
61 307
pangwa 307
walini@@ 307
malengo 307
Thomas 306
aribia 306
kuasi 306
anapokuwa 306
dereva 306
ipiga 306
undishwa 306
yafaayo 306
ILI 306
kuisoma 306
tamu 306
afsiriwa 306
chap@@ 306
elezi 306
vuka 306
ilifanywa 306
kutuchochea 305
jawa 305
Ta@@ 305
punda 305
jeruhiwa 305
nyangavu 305
Tatu 305
iliyoje 305
onda 305
shtuka 305
Waislamu 305
kutoweza 305
zinat@@ 305
Sura 305
Haishangazi 305
Ukrainia 304
tele 304
kofia 304
Mkutano 304
kuzwa 304
lita 304
INI 304
kuficha 304
unuliwa 303
azo@@ 303
Bidii 303
Kat@@ 303
kutua 303
Hazina 303
inayokaliwa 303
ulin@@ 303
hupunguza 303
mvuke 302
ete@@ 302
Maendeleo 302
ikis@@ 302
asidi 302
Mj@@ 302
Bara 302
OR@@ 302
Hus@@ 302
jiuliza 302
kustahimili 302
Hatuwezi 302
oza 302
uzwa 302
kisicho 302
porojo 302
ikishwa 302
wenda 302
Thamani 302
madhehebu 302
hir@@ 302
yanayohusiana 302
itat@@ 301
kufaidika 301
lip@@ 301
avutiwa 301
ifan@@ 301
pelekwa 301
kiwe 301
ifuata 301
kuambia 301
takiwa 301
afun@@ 301
orofa 301
zungukwa 301
dume 301
ikaji 301
saidiaje 301
hakum@@ 301
simama 300
theolojia 300
nira 300
unda 300
tofautiana 300
kutumaini 300
ipi 300
go 300
Wilaya 300
Hadithi 300
ghasia 300
kujifurahisha 300
utawa@@ 300
maambukizo 300
yes@@ 300
kuwaua 300
kurekebishwa 300
boresha 300
ulaji 300
inawa@@ 299
Ebr 299
eki 299
Vatikani 299
kitoto 299
anganya 299
6,000 299
fa 299
kuhatarisha 299
emewa 299
wororo 299
amev@@ 299
uliziwa 299
Biashara 299
Kijerumani 299
wingu 299
eme@@ 298
akan@@ 298
eba 298
angefanya 298
ikio 298
mfuko 298
Washington 298
ulivyo 298
eny@@ 298
astahili 298
walimw@@ 298
aku@@ 298
tumikie 298
Kimungu 298
ushirikina 298
unalo@@ 298
19@@ 297
ato 297
EM@@ 297
Yosia 297
imia 297
ninayo@@ 297
poshughulika 297
Sodoma 297
waliojiweka 297
digrii 297
imamia 297
Mlimani 297
emi 297
hakutaka 297
angep@@ 297
tauni 296
dhihirisha 296
Habakuki 296
niliamua 296
wavuvi 296
mpata 296
ikana 296
maumbo 296
waliweza 296
abili 296
apewa 296
mchochea 296
osa 296
wakali 296
Alif@@ 295
Mabadiliko 295
ajiuliza 295
koma 295
haimaanishi 295
ifu@@ 295
aliwat@@ 295
kimbilio 295
limes@@ 295
kumwonyesha 295
kitandani 295
WHO 295
iaji 295
kuwachochea 295
Mik@@ 294
hapaswi 294
Kuhani 294
kuzeeka 294
alilazimika 294
agundua 294
kiungo 294
4,@@ 294
Bethlehemu 294
tunalo@@ 294
waligundua 294
Wenyeji 294
Atlantiki 294
kutilia 294
kutotii 293
Sydney 293
Gu@@ 293
wanacho@@ 293
mioyoni 293
mazishi 293
ge 293
tendeka 293
akia 293
kucha@@ 293
kadiriwa 293
yaj@@ 293
nilicho@@ 293
Matukio 293
mapendekezo 293
makaa 293
uch@@ 293
aidie 293
wanaodai 293
undisha 293
vilima 292
Kutafuta 292
uvi 292
alipokea 292
aliyesema 292
wanaof@@ 292
tunaona 292
apom@@ 292
Matakatifu 292
Mwili 292
akab@@ 292
inafundisha 292
ʹ 292
amesema 292
inde 292
Ureno 292
geukia 292
undwa 292
walinzi 292
alipoanza 292
tukis@@ 291
aliki 291
aendelea 291
tabasamu 291
Ham@@ 291
Iweni 291
iriwa 291
ujirani 291
mlinzi 291
ajiri 291
shambulio 291
IK@@ 291
kitropiki 291
atana 291
kuwalea 291
kunjo 291
ushindani 291
waliji@@ 291
ishiwa 290
you@@ 290
Mwanahistoria 290
SH@@ 290
oni@@ 290
Mradi 290
yames@@ 290
aliti 290
jitolea 290
mabaharia 290
kilo 290
zimet@@ 290
alionyeshaje 290
utangulizi 290
njama 290
alipendezwa 290
Nilipata 290
Kiafrika 290
inayopatikana 290
Jo@@ 290
Rom 290
Wamarekani 290
shabaha 290
Ningependa 290
mka@@ 290
kwingineko 290
plastiki 290
Time 289
aba 289
ujanja 289
wasioamini 289
mu 289
posema 289
MUNGU 289
Ishara 289
wali 289
lazimika 289
utaji 289
unaoitwa 289
Karibuni 289
wanaopenda 288
kunit@@ 288
Eleza 288
kinachoitwa 288
mafaa 288
hueleza 288
ama@@ 288
Mwisraeli 288
Lile 288
tar@@ 288
linalotafsiriwa 288
wanad@@ 288
Magonjwa 288
wanaotumia 288
Cor@@ 288
uhasama 288
Asubuhi 288
alipoandika 288
hakimu 288
Ata@@ 288
nyuso 287
anakumbuka 287
Kibiblia 287
kumsikiliza 287
tulipata 287
Uthibitisho 287
kisukari 287
omb@@ 287
kimbilia 287
kichwani 287
semi 287
yaliyofanywa 287
AK@@ 287
malaria 287
Star 287
Umati 286
nyangumi 286
kujik@@ 286
Nigeria 286
Ukit@@ 286
taratibu 286
tuj@@ 286
falme 286
kitambaa 286
Makao 286
wepesi 286
zamu 286
waone 286
Kukabiliana 286
Nilitaka 286
okota 286
Maliki 286
hul@@ 286
akin@@ 286
tutaf@@ 286
wezavyo 286
et 286
inatoa 286
mauti 286
tunza 285
ash@@ 285
hutenda 285
mafuriko 285
land 285
ngapi 285
Wajerumani 285
echagua 285
tupwa 285
wanges@@ 285
unguzwa 285
funulia 285
uraibu 285
PO@@ 285
katazwa 285
haidhuru 285
patakatifu 285
enezwa 285
kibichi 285
watam@@ 284
wawakilishi 284
Utendaji 284
ulevi 284
undani 284
kupas@@ 284
Hatupaswi 284
malkia 284
imen@@ 284
lipa 284
almasi 284
injili 284
oro@@ 284
umwa 283
shwe 283
unaozidi 283
endelee 283
miliki 283
95 283
udisha 283
sugu 283
amuliwa 283
hesabiwa 283
Tunajifunza 283
Haruni 283
As@@ 282
utam@@ 282
Nami 282
Mwandikaji 282
rudisha 282
obaki 282
ambo 282
ziko 282
Tukio 282
ukim@@ 282
iliyochapishwa 282
Faida 282
nilikutana 282
tayarisha 282
oko 282
iliyopo 282
bidi 281
utakatifu 281
it 281
angahewa 281
vitamini 281
itokeza 281
endo 281
ete 281
mo 281
ilinisaidia 281
fungua 281
Inaweza 281
hariri 281
wafanyabiashara 281
kushambulia 281
nilijua 281
endeleeni 281
alkoholi 280
qu@@ 280
chewa 280
Ste@@ 280
aidiwa 280
AMB@@ 280
husianisha 280
Mc@@ 280
waliohudhuria 280
vikuu 280
Daniel 280
Kawaida 280
hakujua 280
UNA@@ 280
gramu 280
wanawa@@ 280
tosha 280
mojapo 280
wita 280
japokuwa 280
atukumbusha 280
pori 279
usit@@ 279
akif@@ 279
Mathalani 279
shangilia 279
Tulipokuwa 279
indo 279
madawa 279
isivyofaa 279
1939 279
avunja 279
ibiwa 279
Wanazi 279
hoofisha 279
jif@@ 279
anishe 279
kujificha 279
mtak@@ 279
Sinai 279
wateja 278
Mor@@ 278
uharaka 278
zimes@@ 278
kuwazuia 278
peupe 278
Waz@@ 278
idhisha 278
halmashauri 278
sik@@ 278
kulipiza 278
mviringo 278
inganisha 278
Asili 278
UR@@ 278
walilazimika 278
Mdo 277
wakik@@ 277
achagua 277
ubishi 277
DA 277
pambano 277
kuchu@@ 277
mig@@ 277
kuogopesha 277
Tr@@ 277
tahadhari 277
duni 277
kuelimisha 277
kijitabu 277
uvuvi 277
kamatwa 277
aligundua 277
pot@@ 277
mfungwa 277
watumie 277
nyikani 277
kumzuia 277
afanuliwa 277
himili 276
ilo 276
watangazaji 276
Hofu 276
thibit@@ 276
alipou@@ 276
ard 276
ashi 276
idara 276
He@@ 276
kesho 276
dua 275
ume 275
Kul@@ 275
yanayoonyesha 275
Mtaalamu 275
bendera 275
Pekee 275
kushindana 275
kujengwa 275
hawange@@ 275
Yeyote 275
hulumiwa 275
atafuta 275
wanazo@@ 275
alichagua 275
mwembamba 275
ja@@ 274
ota 274
mafupi 274
kandokando 274
tuwezayo 274
anika 274
Haya 274
akaj@@ 274
kujiona 274
Mlo 274
20@@ 274
wamep@@ 274
oto 274
imeongezeka 274
kutokuwamo 274
uandalizi 274
Naweza 274
kudhoofisha 274
unaona 274
Jeshi 273
amriwa 273
hangilia 273
ingojea 273
afananisha 273
akafa 273
ahisi 273
ambie 273
wapat@@ 273
sabuni 273
singeweza 273
kulikuwako 273
muhuri 273
simamia 273
huna 273
ikan@@ 273
hoteli 273
kutabiri 273
mer@@ 273
ulika 273
kuchochewa 273
isheni 273
chungu@@ 273
ilitumiwa 272
Toa 272
huu@@ 272
mtini 272
waka 272
ariji 272
Ulikuwa 272
ganda 272
yamaanisha 272
ufuo 272
yaleyale 272
wanatambua 272
madereva 272
62 272
Kusema 272
tuzo 272
itoe 272
Me@@ 272
hutambua 272
kumfuata 272
tumes@@ 271
AI@@ 271
At@@ 271
ikika 271
Hai@@ 271
mif@@ 271
yamet@@ 271
endao 271
dhani 271
tan@@ 271
Uaminifu 271
Sim@@ 271
Selsiasi 271
ataf@@ 271
volkeno 271
vun@@ 271
kucho@@ 271
makampuni 270
duara 270
kuambukizwa 270
wamo 270
kuchukia 270
tengeneza 270
waliobatizwa 270
kienyeji 270
kuonyeshwa 270
epata 270
85 270
emb@@ 270
waache 270
Mchungaji 270
jasho 270
kupanua 270
watolea 270
uha@@ 270
ukoma 270
700 269
ikitegemea 269
hikilia 269
waende 269
gi@@ 269
anaje 269
fafanuliwa 269
utakavyo@@ 269
gawanywa 269
timi@@ 269
hukosa 269
Pesa 269
& 269
kulifanya 269
huthamini 269
Ahabu 269
waza 269
Hosea 269
ifunika 268
Kuj@@ 268
idhika 268
og@@ 268
Tar@@ 268
wasiwe 268
uvimbe 268
yalianza 268
TH@@ 268
ong’@@ 268
Kupatana 268
jam@@ 268
Pote 268
ell 267
anayefanya 267
pon@@ 267
onyesh@@ 267
alikusudia 267
Alin@@ 267
yor@@ 267
anayetaka 267
Inakadiriwa 267
usiwe 267
alitiwa 267
hazikuwa 267
wabaya 267
English 267
kiny@@ 267
be 267
salia 267
amewapa 266
inapatikana 266
Waingereza 266
Usalama 266
weupe 266
kumbatia 266
udugu 266
alibatizwa 266
Kichina 266
ife 266
7,000 266
aliz@@ 266
aende 266
Sikukuu 266
dubu 266
hughuli@@ 266
umepata 266
ufunguo 266
alitimiza 266
alimwomba 265
simulia 265
kinywaji 265
ajiunga 265
mmojawapo 265
alamika 265
mirefu 265
walitambua 265
Zealand 265
tang@@ 265
huwafanya 265
uadui 265
apasa 265
vitatu 265
Hakimu 265
lilifanya 265
komaa 265
visehemu 265
imulia 264
It@@ 264
Hukumu 264
ULI@@ 264
HI@@ 264
anaonyesha 264
hihirisha 264
anatoa 264
sili 264
kugawanya 264
Ghuba 264
Mafuta 264
tukawa 264
mkia 264
fananishwa 264
Lake 264
ithi 264
kulisha 264
kulima 264
filamu 264
kuhukumu 264
kugeuka 264
nyanja 264
kundu 263
wajukuu 263
ezi 263
mseja 263
tumb@@ 263
anua 263
UNG@@ 263
ondoke 263
alifikiri 263
Babuloni 263
watakapo@@ 263
nilihitaji 262
at 262
inataja 262
shangaa 262
Ung@@ 262
yato@@ 262
Polisi 262
badili@@ 262
oka 262
mlangoni 262
zifuatazo 262
kuingilia 262
urudisha 262
amsha 262
watafsiri 262
Jeuri 262
ilitia 262
kiki@@ 262
Msingi 262
hubadilika 262
Chunguza 262
puka 262
Maradhi 261
papo 261
73 261
anaj@@ 261
chaguo 261
anal@@ 261
umili@@ 261
ameahidi 261
Kid@@ 261
sij@@ 261
Min@@ 261
58 261
kuangamiza 261
YO 261
tek@@ 261
vumbi 261
wen@@ 261
itiisha 261
hawataki 260
ino 260
wajali 260
kushukuru 260
kwayo 260
Msemaji 260
hutimiza 260
kunako@@ 260
zika@@ 260
Sherehe 260
oti 260
itayarisha 260
1,@@ 260
Wag@@ 260
Kuhubiri 260
Ndogo 260
akauliza 260
huzuia 260
Kinacho@@ 260
yarisha 260
ulim@@ 260
kuanzishwa 260
kimahaba 260
era 260
timamu 259
ombwa 259
masharti 259
ikili@@ 259
kuachiliwa 259
watawa@@ 259
kuruhusiwa 259
jangwani 259
rudi 259
iliandikwa 259
68 259
atizwa 259
watum@@ 259
ogope 259
Meli 259
kumtukuza 259
endele@@ 259
zingatia 259
shinikizo 259
hutuambia 259
anis@@ 259
lawama 259
kiwezacho 259
hishwa 259
kutoroka 259
Mitume 259
itie 259
00 258
himizwa 258
Hospitali 258
wakasema 258
kuchanganua 258
Ashuru 258
The@@ 258
fuo 258
mbovu 258
shikilia 258
Wasomi 258
kuitumia 258
angamia 258
fichwa 257
wamer@@ 257
Siwezi 257
ter 257
anaitwa 257
Scientist 257
urahi 257
choche@@ 257
hukuru 257
yalivyo@@ 257
alirudi 257
kuingiza 257
kuazimia 257
fundishe 257
kitengenezo 257
fiwa 257
jawahi 257
geuzwa 257
yapaswa 256
endaye 256
Testament 256
ngamia 256
fanyika 256
Ujao 256
tendea 256
nilim@@ 256
kinyongo 256
kuchimba 256
aliyezaliwa 256
kuni 256
uti@@ 256
kuamsha 256
ugavi 256
aliu@@ 256
kumwamini 256
mwen@@ 256
kigumu 256
Uv@@ 256
Mbuga 256
anz@@ 256
watembelea 255
wangem@@ 255
hilohilo 255
huni@@ 255
Fadhili 255
ungulia 255
Daily 255
nikifanya 255
hutupa 255
kujikinga 255
Mk@@ 255
Gideoni 255
kujionea 255
fan@@ 255
kumtolea 255
atatu@@ 255
fumbo 255
imek@@ 255
KAMA 255
Ijumaa 255
uongo 255
AZ@@ 255
chambua 254
adikisha 254
wavutia 254
huathiriwa 254
anaandika 254
kulemea 254
vyako 254
kuinua 254
laonyesha 254
dhihaka 254
4,000 254
kutuma 254
ifany@@ 254
for 254
hutumu 254
songa 254
mkataba 254
madirisha 254
asha 254
fo@@ 254
yanas@@ 254
Yobu 254
wepo 254
wakip@@ 254
alikutana 254
sin@@ 253
Rutherford 253
litakalo@@ 253
jalada 253
vil@@ 253
magoti 253
tunampenda 253
hataki 253
fimbo 253
matumbawe 253
usioweza 253
ijayo 253
achu@@ 253
vifungo 253
kufuatilia 253
Pet 253
hara 253
kubuni 252
waliowekwa 252
omo 252
pasa 252
huacha 252
Lengo 252
Wababiloni 252
MB@@ 252
57 252
kuudhi 252
waliof@@ 252
mwakilishi 252
hufunua 252
kuhesabu 252
hayana 252
chapisha 252
mwono 252
mlio 252
wanapenda 252
acha@@ 252
haba 252
mapo 252
enganishwa 252
Nyekundu 252
ange 252
wahusu 251
ukis@@ 251
64 251
WAK@@ 251
chema 251
robo 251
tishu 251
kujaa 251
Nim@@ 251
2005 251
ukomavu 251
kuzuiwa 251
Hifadhi 250
maumbile 250
walivyokuwa 250
aya 250
ler 250
ner 250
Rangi 250
wapagani 250
hudhurie 250
walikabili 250
Haikuwa 250
Kirusi 250
mkulima 250
yacho 250
vitambaa 250
ziliz@@ 250
hafifu 250
walienda 250
tazamio 250
ura 250
anyaswa 250
walifurahia 250
zimekuwa 250
mkatili 249
Waafrika 249
mababu 249
uweza 249
aliwafundisha 249
ningependa 249
Mashirika 249
mchango 249
endeze 249
wametumia 249
Rahabu 249
oga 249
seli 249
omu 249
Da@@ 249
kaziwa 249
Hawaii 249
Berlin 249
angependa 249
King 248
ing’inia 248
kuchosha 248
huharibu 248
hukaa 248
guswa 248
waliofanya 248
Kibinadamu 248
Uhakika 248
alipoteza 248
Tunajua 248
nilitambua 248
Niliona 248
danganya 248
kuwaheshimu 248
63 248
aliahidi 248
kuhofu 248
unguze 248
kie 248
fura@@ 248
jwa 248
atukia 248
nikim@@ 248
800 248
shangaza 248
chongwa 248
alifurahia 248
kutibiwa 247
miale 247
kikosi 247
sera 247
walivyofanya 247
chanya 247
magenge 247
kuvutiwa 247
genge 247
nasibu 247
huepuka 247
wanafurahia 247
Wageni 247
re 247
utu@@ 247
Unge@@ 247
iliendelea 247
akaeleza 247
kumwua 247
Kin@@ 247
hawaja@@ 247
vij@@ 247
YO@@ 246
vita@@ 246
kusadikisha 246
Chumvi 246
69 246
wili 246
endekezwa 246
kufuru 246
í@@ 246
1985 246
Kimesiya 246
wacho 246
tukat@@ 246
uhakikishia 246
kukawia 246
wanakubali 246
kao 246
wataishi 246
elezo 246
angam@@ 246
mpate 246
akafanya 246
Ang@@ 246
jitokeza 246
wakiishi 246
kuwaziwa 245
kuip@@ 245
Knorr 245
chelewa 245
ababu 245
huhusisha 245
tengwa 245
Makanisa 245
tambarare 245
ivyo 245
Vyovyote 245
hauna 245
mmishonari 245
hangaa 245
Wajapani 245
waliacha 245
iapo 245
zisi@@ 245
erudi 245
mch@@ 245
angazia 245
hatukuwa 244
omboleza 244
Vip@@ 244
kuandikwa 244
ichochea 244
okea 244
alimpenda 244
jiulize 244
yanayopatikana 244
amin@@ 244
wanda 244
Tafuta 244
kuhitimu 244
Inasikitisha 244
nimem@@ 244
wahudhuriaji 244
uko@@ 244
Herald 244
hojiwa 244
Makubwa 244
HIV 244
undu 244
ho 244
hasi 244
waliwa 244
uwe@@ 244
die 244
taraja 244
kuonyeshaje 243
posali 243
We@@ 243
Eli@@ 243
ataja 243
kunufaisha 243
Mbatizaji 243
alipoona 243
kuokolewa 243
pl@@ 243
wengineo 243
Mtukufu 243
kusherehekea 242
dhibiti 242
wangependa 242
anaishi 242
azamiwa 242
ifikiri 242
kufisha 242
iwi 242
kulazimishwa 242
tukim@@ 242
Ama 242
azi@@ 242
onekan@@ 242
Nilijifunza 242
rutuba 242
Ge@@ 242
ikane 242
vileo 242
alikiana 242
aminiwa 242
1986 242
alipenda 242
kuwas@@ 242
ilifanya 242
kaza 242
mizuri 242
lisi@@ 242
changamoto 242
lewe 241
Msamaria 241
Gi@@ 241
Mgiriki 241
dumisha 241
Samaria 241
yanayosababishwa 241
zingeweza 241
ang’anya 241
nitam@@ 241
mshauri 241
isiwe 241
kuwaokoa 241
Mamlaka 241
wangapi 241
kuogelea 241
sita@@ 241
hambuliwa 241
Linda 241
Mazingira 241
itas@@ 241
kita@@ 241
alidai 241
muktadha 241
hauku@@ 241
wanaostahili 240
gl@@ 240
Kutafakari 240
enisaidia 240
97 240
84 240
enganisha 240
tumekuwa 240
aminika 240
tarakimu 240
Mfaransa 240
pongezi 240
uvumba 240
yanap@@ 240
karibie 240
his@@ 240
ago 240
Hicho 240
kuvuna 240
ongezi 240
husafiri 240
umek@@ 240
zilizof@@ 240
hawakujua 239
migawanyiko 239
teseka 239
hia 239
agua 239
Hekalu 239
Kitu 239
inaendelea 239
vutiwa 239
alizungumzia 239
aliamuru 239
w 239
afafanua 239
umem@@ 239
TO@@ 239
amue 239
chukizo 239
hakumaanishi 238
akitoa 238
So@@ 238
endezi 238
Fulani 238
Olimpiki 238
ilivyotajwa 238
ithamini 238
wizi 238
Anaweza 238
mbu 238
est@@ 238
res@@ 238
vijia 238
hazij@@ 238
tumi@@ 238
miiba 238
Elfu 238
Mikutano 238
zee 238
chan@@ 238
iliongezeka 238
weusi 238
co 238
poteze 238
zilivyo@@ 238
alifurahi 238
kindani 238
rais 237
ataarifu 237
hakuwa@@ 237
uia 237
mfuasi 237
aliongeza 237
jaribio 237
linal@@ 237
mkewe 237
engenezwa 237
inayofanywa 237
kutajwa 237
pao 237
Wafilisti 237
IB@@ 237
Georgia 237
Unapaswa 237
jihusisha 237
kupika 237
mwasi 237
ifanyia 237
ukas@@ 237
mabamba 237
zilizotolewa 237
uwasiliano 237
kipofu 237
Sauti 237
dhihaki 237
1943 237
Mark 237
kidole 236
indi 236
uonevu 236
maajabu 236
Ninaweza 236
mako@@ 236
umeenea 236
volkano 236
zinazopatikana 236
ulifanywa 236
mashetani 236
ahidiwa 236
ushi 236
Rwanda 236
Nilifurahia 236
kujipatia 236
malizika 236
kufurahi 236
akaendelea 236
aliyebatizwa 236
Catholic 236
anapendezwa 236
ifikiria 236
No@@ 235
kirafiki 235
Yusufu 235
Mapenzi 235
kutam@@ 235
unayoweza 235
utambulisho 235
ukingo 235
1987 235
ingefaa 235
Nyinyi 235
jitayarisha 235
alipatwa 235
avyoweza 235
kuzidi 235
kiolezo 235
uni@@ 235
nguruwe 235
yanasema 234
kunis@@ 234
tungeweza 234
injini 234
ent@@ 234
Qu@@ 234
haji 234
miisho 234
zie 234
kushawishi 234
yangeweza 234
waji 234
Wakanaani 234
lilitukia 234
chem@@ 234
kabiliwa 234
kane 234
IR@@ 234
unafikiri 234
ifia 234
ibuka 234
alikabili 234
zinazoonyesha 234
ukichwa 233
kuvu 233
huongezeka 233
utie 233
Wata@@ 233
kutazamisha 233
yanatia 233
mikutanoni 233
vinywaji 233
tulia 233
Uk@@ 233
adha@@ 233
wajue 233
Courtesy 233
wanane 233
las@@ 233
ependa 233
Kumi 233
angali 233
wia 233
Wafuasi 233
let@@ 233
zea 233
itumaini 233
N 233
2011 233
sur@@ 233
Makasisi 233
Thesalonike 233
ruhusiwa 233
Wasomaji 233
co@@ 232
zitakazo@@ 232
msisimuko 232
mwenyeji 232
walitoka 232
Martin 232
tie 232
20,000 232
Kimusa 232
Luther 232
iliki 232
kubali@@ 232
alif@@ 232
Marekebisho 232
unaendelea 232
angazwa 232
Ninawi 232
iweni 232
Jarida 232
fikiriwa 232
ufundishaji 232
Zote 232
Tab@@ 232
mnururisho 232
1918 232
likat@@ 231
Yoeli 231
watoe 231
Jean 231
Moto 231
Con@@ 231
hushindwa 231
kuwashukuru 231
Likiwa 231
fun@@ 231
izuia 231
aliitwa 231
wapole 231
iliana 231
magofu 231
refu 231
wakitafuta 231
utunzi 231
Pennsylvania 231
kumwacha 231
Dhabihu 231
wanaompenda 231
ilitolewa 231
am 231
figo 231
86 231
ukik@@ 231
wanadai 231
vya@@ 231
onewa 231
are@@ 230
windo 230
59 230
hib@@ 230
ambue 230
nilienda 230
kutojali 230
vyuma 230
ZO 230
fufua 230
ku 230
anze 230
Abramu 230
Uhalifu 230
unazo@@ 230
umilia 230
nimejifunza 230
udhika 230
anayetajwa 230
afunga 230
hatut@@ 230
inayokuja 230
ALI 230
Usemi 230
angia 230
angaz@@ 230
angusha 229
waumini 229
Yaani 229
usoni 229
abisha 229
ilinganisha 229
unafanya 229
urembo 229
zitakuwa 229
Uhitaji 229
lango 229
wakilishwa 229
wahitimu 229
tat@@ 229
Katikati 229
atimia 229
utando 229
one@@ 229
utap@@ 229
kungojea 229
Or@@ 228
Kuchunguza 228
kutambuliwa 228
uendelee 228
Mel@@ 228
iwezayo 228
ndama 228
porudi 228
amana 228
kauka 228
walivyo 228
ukuhani 228
kutatanisha 228
Filipo 228
ikisa 228
enyi 228
tiririka 228
msomaji 228
Nyumbani 228
Tu 228
Tokyo 228
Rebeka 228
Ser@@ 228
wasim@@ 228
peleka 228
kitendo 228
kuonya 228
Gari 228
JI 228
uchumba 228
mwanasayansi 228
ulifanya 228
uuaji 227
iliyoko 227
zilitumiwa 227
huhudia 227
wanafikiri 227
atua 227
Science 227
Za@@ 227
kuhitaji 227
mcha@@ 227
kukufanya 227
kuondolea 227
faraghani 227
Life 227
Ufu 227
aache 227
keze 227
Kipindi 226
WAN@@ 226
Miti 226
apanda 226
tegemeka 226
kichocheo 226
lingeweza 226
Kuhusiana 226
Nilifurahi 226
panya 226
kuchelewa 226
kahaba 226
akijifunza 226
wataj@@ 226
Mac@@ 226
dhaniwa 226
wanget@@ 226
mon@@ 226
shambulizi 226
kushtua 226
kuti@@ 226
ET@@ 226
kutawa@@ 226
kumtafuta 226
ndiko 226
hatuku@@ 226
Msiba 226
thuluthi 226
palipo 225
watumia 225
Pasaka 225
607 225
kuin@@ 225
Tunapata 225
tufikirie 225
50,000 225
Majuma 225
mahakimu 225
kuumba 225
Antiokia 225
kichaa 225
mkoa 225
1947 225
ipat@@ 225
akitafuta 225
De@@ 225
alijitahidi 225
nanga 225
walijifunza 225
Nimekuwa 225
walion@@ 225
enye@@ 225
Dhidi 225
uu 225
kuwafariji 225
Mifano 225
omea 225
maz@@ 225
JI@@ 225
zapo 225
washind@@ 225
kupo@@ 225
shughulika 225
nililo@@ 224
itilia 224
tuwa@@ 224
tunaonyesha 224
ANG@@ 224
valia 224
yawezayo 224
kung’aa 224
walibatizwa 224
usis@@ 224
Wachina 224
tur@@ 224
nifanye 224
Wahispania 224
alimtuma 224
sikilize 224
kaz@@ 224
apita 224
Karen 224
jea 224
hangaika 224
umefanya 224
kuang@@ 224
Furiko 224
wameacha 223
tunapokuwa 223
tumain@@ 223
kusaidiwa 223
yalivyo 223
aliwatia 223
mwituni 223
pitia 223
juhudi 223
tuliona 223
Yaweza 223
thawabishwa 223
mafumbo 223
wanavyoweza 223
Denmark 223
fund@@ 223
kalenda 223
echoka 223
isha@@ 223
tunafanya 223
kicho 223
kuyafanya 223
tegemezo 223
waliotiwa 223
kusany@@ 223
lililoandikwa 223
sim@@ 222
Maadili 222
mbona 222
1941 222
watafufuliwa 222
Siberia 222
atibu 222
potoshwa 222
vielezi 222
tulianza 222
she@@ 222
uzani 222
upatia 222
Y 222
MWAN@@ 222
arua 221
Zenye 221
wakin@@ 221
mpiga 221
kuigiza 221
kikomo 221
hini 221
mkondo 221
kuwatembelea 221
hutumika 221
mes@@ 221
jiko 221
os@@ 221
haje 221
dukani 221
ilinganishwa 221
kusumbua 221
Nafsi 221
unatu@@ 221
muhtasari 221
ujitiisho 221
darubini 221
jik@@ 221
tab@@ 220
bi@@ 220
haliwezi 220
maa 220
Kuliko 220
kamera 220
msalaba 220
mweusi 220
mashini 220
ategemea 220
mahindi 220
kutokufa 220
asafiriye 220
hamisha 220
ADA 220
yaliyomo 220
mwenzangu 220
mtulivu 220
yatia 220
Mwenendo 220
ataa 220
lilif@@ 220
gawanya 220
umaridadi 220
alivyohisi 220
lori 219
lipwa 219
Vifaa 219
tuliza 219
shir@@ 219
uguzi 219
kuwasili 219
karibishwa 219
mkosaji 219
ch 219
Vyombo 219
kuugua 219
alivutiwa 219
kukoma 219
kujitetea 219
husi@@ 219
akani@@ 219
evunjika 219
wamp@@ 219
NY@@ 219
hua 219
mizabibu 219
Athene 219
MA 218
Fundisho 218
kukusudia 218
Nairobi 218
South 218
kuwakomboa 218
Ramani 218
kukusanyika 218
hoofika 218
haisemi 218
waziri 218
mlimani 218
Post 218
komesha 218
lulu 218
iliyowekwa 218
Sanhedrini 218
akubali 218
mengineyo 218
mapotovu 218
zoe@@ 218
mvurugo 218
itolea 218
yaliyotajwa 218
kiota 218
uele@@ 218
ilio 218
vitoto 218
wawindaji 218
kuheshimika 217
kupitisha 217
Yao 217
kulin@@ 217
kimapenzi 217
Filipi 217
teknolojia 217
ette 217
mikate 217
ongamano 217
kumalizia 217
6,@@ 217
zio 217
Vis@@ 217
lami 217
eng’@@ 217
Anataka 217
ungukiwa 217
hu 217
Ajabu 217
ry 217
baina 217
warithi 217
ukuma 216
unguliwa 216
maongezi 216
jeshini 216
kuadhimisha 216
maziko 216
humfanya 216
Amazon 216
uge@@ 216
Angalia 216
Nilijua 216
litak@@ 216
zinazositawi 216
Wafu 216
ishwi 216
wanaotajwa 216
jui 216
mjumbe 216
orudi 216
mwambia 216
Msomi 216
kumbukwa 216
posafiri 216
Yeftha 216
wanaonyesha 216
Mwanangu 215
kr@@ 215
kujiwekea 215
Jiulize 215
main@@ 215
anayen@@ 215
kuthawabisha 215
akatoa 215
zilianza 215
darasani 215
kinachofaa 215
alisafiri 215
mabomba 215
hibiti 215
Ushirika 215
ugu 215
akib@@ 215
pig@@ 215
2008 215
hab@@ 215
wanasiasa 215
zinazotumiwa 215
AH@@ 215
pen@@ 215
yalionyesha 215
iliyoonyeshwa 215
yangekuwa 215
Ir@@ 215
V 215
FU 215
mashaka 215
kuzoeza 215
kuzorota 215
maskani 215
fikir@@ 215
alielewa 215
werevu 215
imejaa 215
São 215
maaskofu 215
Israel 215
walishindwa 215
ari@@ 214
lililoongozwa 214
anyasa 214
cheka 214
yoosha 214
Tiba 214
mwajiri 214
useja 214
Pr@@ 214
atoe 214
afa 214
ulifunua 214
Mimea 214
Mchoro 214
jani 214
gavana 214
alam@@ 214
Yas@@ 214
MAT@@ 214
api 214
Unawezaje 214
vilivyokuwa 214
zungumze 214
akatifu 213
tutapata 213
chanua 213
ilitabiri 213
mpotovu 213
fanyi 213
Matumizi 213
unasema 213
linas@@ 213
Finland 213
keo 213
mkomavu 213
twasoma 213
Mbele 213
malizia 213
hakik@@ 213
taarifu 213
ZA@@ 213
kabidhiwa 213
Tabia 213
Vik@@ 213
huwekwa 213
viny@@ 213
kinachoonyesha 213
akapata 213
yupo 212
Uzima 212
win@@ 212
waliozaliwa 212
ers 212
aketi 212
walilo@@ 212
aliwaonya 212
kuchi@@ 212
inaitwa 212
Unyenyekevu 212
kuonea 212
umaini 212
aliyenukuliwa 212
kuteswa 212
eri 212
lililom@@ 212
Mz@@ 212
kutolea 212
aria 212
kuliko@@ 212
afe 212
uliotolewa 212
Malkia 212
kuwap@@ 212
kuuzwa 212
kishetani 212
kaje 212
Museum 212
weleza 212
kujiingiza 211
zuiwa 211
ajali 211
alipo 211
Nyingine 211
Mali 211
kupainia 211
kunja 211
mapigo 211
78 211
,@@ 211
huruhusu 211
shughuli@@ 211
apendezwa 211
ambukizo 211
Bur@@ 211
watafurahia 211
Scotland 211
wafuate 211
yabisi 211
afaulu 211
67 211
matano 211
wiga 211
ubaridi 211
zewa 211
andam@@ 211
itishwa 211
kubariki 211
Mzazi 211
yanapatikana 211
vunjwa 211
yeyuka 211
wasafirio 210
iwa@@ 210
Sikuwa 210
kudhoofika 210
matayarisho 210
mwenzako 210
Waume 210
tulifanya 210
ushi@@ 210
miwa 210
kusafirisha 210
Makedonia 210
250 210
Nazareti 210
ebu 210
mwanas@@ 210
kujiendesha 210
kawa@@ 210
shikwa 210
urahisha 210
chonjo 210
Chu@@ 210
chanjo 210
Mti 210
91 210
uvutaji 210
tufe 210
hatujui 210
anuka 210
jukwaa 210
KUTUMIWA 209
kufikiriwa 209
tuepuke 209
endana 209
Wimbo 209
wanaoamini 209
doa 209
waliyokuwa 209
omeshwa 209
zuie 209
washirika 209
alii@@ 209
ikolojia 209
iliyotumiwa 209
Utaf@@ 209
Kundi 209
zilizopo 209
mpole 209
chimba 209
Medical 209
shambuliwa 209
wakiwa@@ 209
wachezaji 209
mpweke 209
sinagogi 209
alehe 209
Enoko 208
yanapaswa 208
Mawazo 208
shangazwa 208
wanal@@ 208
kutenga 208
kom@@ 208
hakuweza 208
alimwa@@ 208
kupuuzwa 208
drama 208
buluu 208
unaopatikana 208
waliandika 208
isimua 208
Esau 208
aliumba 208
etwa 208
udu 208
Mji 208
mifuko 208
yapi 208
ustaarabu 208
Kutakuwa 207
vipepeo 207
Kisa 207
ikapo 207
sambamba 207
98 207
linatu@@ 207
Mkusanyiko 207
kiitwacho 207
laana 207
chachu 207
tunasoma 207
inayotokana 207
nadra 207
minara 207
ufuatiaji 207
vipimo 207
athibit@@ 207
sheba 207
itak@@ 207
Ubelgiji 207
abika 207
IWA 207
Peru 207
Dhamiri 207
anataja 207
ang’ana 207
ulipokuwa 207
niwa@@ 207
afahamu 207
sem@@ 207
Inafaa 206
umu@@ 206
UA 206
Is@@ 206
unyevu 206
Chi@@ 206
mzabibu 206
gia 206
Darwin 206
angewa@@ 206
wameanza 206
yaliyompata 206
mtafiti 206
Enyi 206
yanayohusika 206
Globe 206
avutia 206
Babu 206
kuchora 206
akana 206
linalopatana 206
vyangu 206
2006 206
atakavyo@@ 206
alitamani 206
ivunia 206
tumeona 206
ndimi 206
ELI 206
huto@@ 206
igusa 206
ikilize 205
Urafiki 205
ilit@@ 205
Kimasihi 205
Alijua 205
fuliwa 205
habu 205
undikwa 205
wanaoitwa 205
aliyeandika 205
shuhudia 205
Vikundi 205
him@@ 205
wima 205
shind@@ 205
ipatayo 205
ondoe 205
kadiria 205
kuielewa 205
uweze 205
oloni 204
yawa@@ 204
mpendeza 204
avyokuwa 204
anahisi 204
ufuoni 204
niko 204
aribiwa 204
linaloitwa 204
chon@@ 204
tendwa 204
usipo@@ 204
kamusi 204
96 204
koo 204
Nayo 204
walidai 204
arajiwa 204
use 204
radhi 204
tabibu 204
bia 204
anne 204
uhusiwa 204
tiki 204
pikipiki 204
watendaji 204
2009 204
ine@@ 204
huingia 204
niweze 204
rekebishwa 204
aid@@ 204
lilianza 204
lee 204
saidiwa 204
ipoti 204
jela 204
Nilimw@@ 204
fr@@ 203
msukumo 203
handisi 203
hufurahi 203
Huyu 203
Bustani 203
inayotumiwa 203
Aka@@ 203
Makuu 203
meupe 203
kuchapishwa 203
1946 203
kijia 203
mwandamani 203
fai 203
Stefano 203
walirudi 203
atumiwa 203
twaona 203
kumpata 203
kumfundisha 203
Sanamu 203
jasiri 203
Tengenezo 203
enya 203
Tyndale 203
Le 203
Binadamu 203
fujo 203
shaji 202
vyon@@ 202
Samaki 202
tunapokabili 202
kuhangaika 202
wangep@@ 202
ariki 202
hujaa 202
chukiza 202
uvutio 202
wamw@@ 202
avunjika 202
ly 202
migodi 202
tini 202
atizwe 202
poli@@ 202
Lililoahidiwa 202
Ilin@@ 202
hayawani 202
ishika 202
ica 202
Mpaka 202
wakijaribu 202
kiserikali 202
ivun@@ 202
mal@@ 202
abatizwa 202
uwezavyo 202
asim@@ 202
yaliandikwa 202
kuchoma 202
age@@ 202
Jimbo 202
tupu 202
tazamiwa 202
milo 201
inia 201
mfereji 201
Gr@@ 201
Magari 201
tunawezaje 201
wasiom@@ 201
alii 201
msisimko 201
waliol@@ 201
kipenyo 201
kukunjwa 201
ofisini 201
1944 201
ando 201
Mpango 201
Hungaria 201
vir@@ 201
rauliwa 201
Albert 201
mkahawa 201
inayotegemea 201
sukumwa 201
haa 201
umaarufu 201
uchungaji 200
gawiwa 200
bisha 200
akawaambia 200
sio 200
Isa 200
azuia 200
njozi 200
Ufufuo 200
Wamishonari 200
ukungu 200
12@@ 200
kupotosha 200
jificha 200
Walimu 200
takwimu 200
msimu 200
ikas@@ 200
Maf@@ 200
umzika 200
99 200
euzi 200
orodheshwa 200
Maumivu 200
Hal@@ 200
jikoni 200
uitwao 200
Mwokozi 200
lad@@ 200
uliojaa 200
ulinda 200
sheleza 200
kuwezesha 199
kuheshimiwa 199
piza 199
fung@@ 199
wamel@@ 199
ene@@ 199
taki 199
anan@@ 199
wataendelea 199
embe@@ 199
Ukifanya 199
IKA 199
aliuawa 199
echa@@ 199
salamu 199
Por@@ 199
kidugu 199
kikab@@ 199
elewi 199
wakawa@@ 199
hawakuweza 199
anayo 199
kulaumiwa 199
walichukua 199
lilimaanisha 199
kutupwa 199
unue 199
tumboni 199
Badiliko 199
umen@@ 199
aliimba 199
linaloonyesha 199
imp@@ 199
ukajiuliza 199
asimulia 199
Kupitwa 199
egemee 198
udadisi 198
atomu 198
kon@@ 198
amer@@ 198
145 198
kaburini 198
kung’@@ 198
hupokea 198
2012 198
tutachunguza 198
kukosea 198
Wafaransa 198
IRI 198
wajitoleaji 198
zungumzwa 198
vyuo 198
iliyoitwa 198
kusita 198
linalop@@ 198
ifariji 198
timu 198
ilim@@ 198
huamua 198
tamasha 198
embe 198
akijaribu 198
asiyeamini 198
kuchoka 197
JINSI 197
ilishwa 197
Yaliyo@@ 197
anao@@ 197
Boazi 197
kutakusaidia 197
arijiwa 197
Hong 197
Askofu 197
lilelile 197
kisima 197
uhodari 197
tuf@@ 197
niliendelea 197
fuko 197
mel@@ 197
wafany@@ 197
umbu@@ 197
kujulisha 197
ustahili 197
arijika 197
kusa@@ 197
vipawa 197
msongamano 197
ufaikaje 197
uliotangulia 197
Ange@@ 197
Aleksanda 197
angalie 197
ikiriwa 197
kuwekea 197
keni 197
zinazoendelea 197
akiishi 197
imarika 197
kufa@@ 197
92 197
nip@@ 197
aone 197
matusi 197
wasamehe 197
age 197
masika 197
Waki@@ 197
zabibu 197
ovyoovyo 196
zitak@@ 196
nam@@ 196
ondo 196
ote 196
ucheshi 196
Mtumwa 196
van@@ 196
Hagai 196
Hi@@ 196
kuut@@ 196
kutun@@ 196
nyanda 196
Alim@@ 196
Kiprotestanti 196
hofia 196
kilima 196
kivita 196
Tunasoma 196
Elizabeth 196
Tukifanya 196
walikutana 196
kuumbwa 196
itazama 196
alithamini 196
tungwa 196
ole 196
malisho 196
Sayuni 196
kuletea 196
.5 196
wanapofanya 196
jawa@@ 196
Mta@@ 196
utakuja 195
atoweka 195
aidika 195
Yeho@@ 195
Silaha 195
zungum@@ 195
asipo@@ 195
changam@@ 195
gurudumu 195
Ing@@ 195
José 195
ega 195
sho@@ 195
dirisha 195
AP@@ 195
zinatia 195
Wil@@ 195
achochewa 195
Mhariri 195
ó@@ 195
kufua 195
mwanangu 195
IBU 195
anastahili 195
fadhaika 195
Mbwa 195
Misa 195
mcho@@ 195
aro@@ 195
Lu@@ 195
Matibabu 195
Asa 195
Weka 195
DOKEZO 195
walisafiri 195
itegemeza 195
2010 195
wele 195
waliofunga 195
uchapishaji 194
tukifanya 194
Mvua 194
chora 194
mashairi 194
ingoja 194
magereza 194
fukuzwa 194
lin 194
utumwani 194
vijito 194
89 194
1948 194
71 194
akapo@@ 194
hukataa 194
kor@@ 194
ufan@@ 194
jib@@ 194
kukombolewa 194
Kir@@ 194
aaza 194
gaji 194
takriban 194
inasemekana 194
mbeleni 194
wasit@@ 194
Ter@@ 194
Kampuni 194
2007 194
ameketi 194
kusimulia 193
egeme@@ 193
nj@@ 193
yaliyopita 193
maporomoko 193
wanahistoria 193
irishwa 193
temb@@ 193
egemei 193
kusik@@ 193
arifu 193
anaahidi 193
hurejezea 193
Yeriko 193
ulitokea 193
bega 193
Mli@@ 193
alozi 193
mweneza 193
Nataka 193
des@@ 193
nilifikiri 193
mtungaji 193
alipanga 193
kutunga 193
Yehu 193
ulioahidiwa 192
Manase 192
waeleza 192
tulif@@ 192
pote@@ 192
ukumbi 192
huua 192
lifaalo 192
yoofu 192
mapango 192
utiwa 192
kutokezwa 192
kuif@@ 192
Pe@@ 192
amejifunza 192
Nilifikiri 192
ARI 192
DI 192
UNI 192
mrembo 192
Zinazo@@ 192
asiyeonekana 192
bomu 192
ogopesha 192
Nat@@ 192
walipoteza 192
ikisho 192
tufanya 192
zikawa 192
engana 191
utoto 191
kutengenezwa 191
Kong 191
aliongoza 191
Mkazo 191
arejelea 191
mifereji 191
kutak@@ 191
0@@ 191
Kaz@@ 191
Rio 191
chokaa 191
mapito 191
wasi 191
hui@@ 191
asit@@ 191
tusiwe 191
yafaa 191
th 191
waokokaji 191
nilizo@@ 191
fundi 191
ipate 191
Unahitaji 191
kuwaelekea 191
echapishwa 191
tari 191
weko 191
iko@@ 191
Nis@@ 191
ibwa 191
kupaka 191
unawa@@ 191
rid@@ 191
maangamizi 191
mtukufu 190
ys@@ 190
kue 190
mabonde 190
wakosaji 190
hushiriki 190
itum@@ 190
kika@@ 190
Church 190
1951 190
Louis 190
kujiepusha 190
zingirwa 190
Pa@@ 190
enge@@ 190
nyepesi 190
dr@@ 190
nimet@@ 190
apendekeza 190
Ann 190
usim@@ 190
Ubatizo 190
Kor@@ 190
Abigaili 190
yanamaanisha 190
kijuujuu 190
emo 190
upu 190
wapasa 190
Drama 190
pate 190
Char@@ 190
yaliyon@@ 190
tunathamini 190
Ongezeko 190
angojea 189
waya 189
anzi 189
endee 189
Tukit@@ 189
Maeneo 189
Tawi 189
hurutisha 189
kuiona 189
mwororo 189
kukimbilia 189
mtia 189
kitamathali 189
ay 189
kanda 189
ingi@@ 189
esho 189
Ben 189
chui 189
waku@@ 189
Desturi 189
Nilifanya 189
hutaja 189
wakahisi 189
mapinduzi 189
ameona 189
najua 189
walili@@ 189
for@@ 189
chozi 189
suf@@ 189
nilipewa 188
Kula 188
wuliza 188
mchoro 188
Prague 188
Andrew 188
apokea 188
tutam@@ 188
Mkono 188
ill@@ 188
masanduku 188
wanajifunza 188
hutolewa 188
hadhi 188
walipokea 188
tezi 188
Sikiliza 188
kushambuliwa 188
VI@@ 188
akiolojia 188
popita 188
kuzitumia 188
posta 188
alie 188
mabwana 188
has@@ 188
iliyon@@ 188
hakutakuwa 188
oana 188
kunatia 188
akaja 188
tunapom@@ 188
mbamba 188
mchochota 188
nyayo 188
Bw 187
1953 187
ametumia 187
kifikiria 187
ulemavu 187
Mer@@ 187
Mjerumani 187
ksi 187
hawafanyi 187
vikosi 187
kujinyima 187
maombolezo 187
korongo 187
angepata 187
yarishwa 187
wasali 187
—⁠ 187
Inawezekana 187
Sal@@ 187
alionekana 187
kuvun@@ 187
ikaonekana 187
amel@@ 187
kilekile 187
pan@@ 187
1,500 187
Ukurasa 187
,000,000 187
CHA 187
Report 187
kahawia 187
hakusema 187
kihususa 187
ONI 187
Japan 187
1975 187
wapelelezi 187
Mif@@ 186
hutaarifu 186
sam@@ 186
vic@@ 186
lililotukia 186
5,@@ 186
Japo 186
Pro@@ 186
kuhusika 186
ga@@ 186
110 186
ekeleza 186
udhuru 186
kuteketezwa 186
andisha 186
kunipa 186
asiwe 186
án 186
AD@@ 186
unakuwa 186
kujifungua 186
ulivu 186
wangepata 186
Anna 186
Mwen@@ 186
vicha@@ 186
alimwona 186
ham 185
piano 185
kutuongoza 185
anaelewa 185
kubadilisha 185
kipupwe 185
azaa 185
Ub@@ 185
aliruhusu 185
Nor@@ 185
ninajua 185
lojia 185
Zili@@ 185
Moabu 185
unamna 185
mafungu 185
ten@@ 185
mpumbavu 185
no 185
embelee 185
mwizi 185
tom@@ 185
zilizoandikwa 185
Uf@@ 185
wonyesha 185
umiwe 185
ukie 185
masha@@ 185
1983 185
mili@@ 185
waliomo 185
ungali 185
kulipwa 185
wi@@ 185
kudanganya 185
manane 185
adala 185
Kuonyesha 184
ikiane 184
Ninajua 184
wakib@@ 184
mhalifu 184
ajihisi 184
Wakazi 184
sid@@ 184
malango 184
ipe 184
teza 184
1935 184
1984 184
sikujua 184
matembezi 184
umeonyesha 184
aliyewekwa 184
mdudu 184
wanastahili 184
haja@@ 184
hambulia 184
aliagiza 184
husikiliza 184
emu 184
hangaishwa 184
wamejaribu 184
endelewa 184
mioto 184
kamata 184
Palestina 184
ufany@@ 184
lililon@@ 184
huwat@@ 184
jingi 184
Dar@@ 183
zinazohusu 183
130 183
Zake 183
lelewa 183
kupatanisha 183
ukutani 183
Ke@@ 183
akid@@ 183
ingine 183
Kutembea 183
enti 183
ilichukua 183
talanta 183
afisa 183
hek@@ 183
waepuke 183
chorwa 183
ogo 183
ungia 183
Hor@@ 183
ca 183
alifunua 183
pepe 183
kiapo 183
uuliza 183
huri@@ 182
zilizowekwa 182
Mamia 182
Huwezi 182
hung@@ 182
hikwa 182
kutofanya 182
yoa 182
majivu 182
wataka@@ 182
arikiwa 182
kuvuruga 182
ashinda 182
msifu 182
wahamiaji 182
azie 182
hupiga 182
wafaa 182
Samsoni 182
winda 182
Kasisi 182
yaliyoongozwa 182
ndiwe 182
jibiwa 182
anapenda 182
hakikishiwa 182
Koreshi 182
Los 182
kunapokuwa 182
kukubaliana 182
Indonesia 182
unajimu 182
kuwajulisha 182
X@@ 182
chapwa 182
Wav@@ 182
aliyofanya 182
IL@@ 182
Sila 182
utimamu 182
Kukiwa 181
lilitokea 181
wahasiriwa 181
Kufuata 181
marashi 181
aripotiwa 181
Kamusi 181
yafany@@ 181
Manabii 181
alitaarifu 181
akaenda 181
Absalomu 181
linaloongoza 181
EL@@ 181
fukuza 181
ilitoa 181
burg 181
linapatikana 181
wanaou@@ 181
kupaa 181
wahubiria 181
matofali 181
abiashara 181
pota 181
kilipo@@ 181
gharika 181
walitiwa 181
atan@@ 181
ore 181
kumpiga 181
aliyosema 181
Rekodi 181
layo 181
mfuatano 181
Bolivia 181
sokoni 181
mnaweza 180
uluhisha 180
chaeleza 180
kukam@@ 180
Mtumishi 180
unategemea 180
tunakuwa 180
umeona 180
kuangamizwa 180
unulia 180
punguza 180
okidi 180
nzi 180
Hakukuwa 180
akaona 180
ufasaha 180
shujaa 180
kualika 180
British 180
kufanyizwa 180
Norway 180
anapokufa 180
ukitumia 180
kumpinga 180
Go@@ 180
Francisco 180
Wapi 180
lilionyesha 180
milipuko 180
mbia 180
Nabali 180
NINI 180
ichu@@ 180
shina 180
inategemea 180
virefu 180
ero 180
ose 180
vinginevyo 180
unaokuja 180
huvutiwa 180
tunapofanya 180
tuwezavyo 180
st 180
kumtembelea 180
ningekuwa 179
ikam@@ 179
zinazodai 179
SI@@ 179
mitego 179
1942 179
imeandikwa 179
walifurahi 179
hufikiria 179
Toleo 179
Mna@@ 179
jikuta 179
MT@@ 179
keb@@ 179
ninat@@ 179
wanawe 179
mumewe 179
huonyeshwa 179
uria 179
alisikia 179
mweneo 179
Kiswahili 179
Manufaa 179
aniwa 179
binamu 179
ujifunze 179
Konstantino 179
ELE@@ 179
San@@ 179
Ina 179
marejezo 179
kupendelea 179
kusumbuliwa 179
30,000 179
hudhurio 179
Mvulana 179
Nilizaliwa 179
changanua 179
iliyofanya 179
vinavyoweza 178
kitakachotusaidia 178
kilichotukia 178
wameazimia 178
endapo 178
Mv@@ 178
angany@@ 178
hidi 178
mwanafalsafa 178
oli 178
mashujaa 178
fanyaje 178
elelezi 178
Far@@ 178
inayotoka 178
tunayofanya 178
hupendelea 178
zambarau 178
kihisiamoyo 178
itahidi 178
ujiza 178
kunyoosha 178
sadaka 178
liza 178
inazidi 178
ts 178
ukahisi 178
aliokuwa 178
kuhifadhiwa 178
wafikiri 178
rudiwa 178
said@@ 178
kupendana 178
tukas@@ 178
mbuliwa 178
nikas@@ 178
walij@@ 178
Suluhisho 178
pom@@ 178
Majengo 178
kuwafikia 178
zama 178
And@@ 178
Lo 178
ikat@@ 178
Kal@@ 178
inj@@ 178
kumletea 177
alio 177
washauri 177
shangazi 177
Warusi 177
adhibu 177
sikuweza 177
Madrid 177
Nafikiri 177
kula@@ 177
walikusanyika 177
yanatu@@ 177
waliohojiwa 177
amehewa 177
burudisha 177
lazimishwa 177
hania 177
Yafanyayo 177
anyaga 177
pango 177
Asafu 177
Baruku 177
ilikuja 177
sisim@@ 177
nimefanya 177
ishwaje 177
Pi@@ 177
anifu 177
kipumbavu 176
uno 176
mahekalu 176
wanawezaje 176
Wanam@@ 176
laeleza 176
Wagonjwa 176
Ze@@ 176
wanaomtumikia 176
warudi 176
Andika 176
utiaji 176
94 176
1920 176
WAT@@ 176
pamba 176
Jitahidi 176
sing@@ 176
mwanam@@ 176
inahusisha 176
alimwita 176
hutengenezwa 176
analo@@ 176
81 176
LE@@ 176
Kuendelea 176
osi 176
hanga@@ 176
Nilim@@ 176
Wachungaji 176
kigezo 176
Mwana@@ 176
muuaji 176
Sil@@ 176
maanani 176
tendewa 176
Unafikiri 176
il 175
alimwuliza 175
yaliyotolewa 175
Alieleza 175
lor@@ 175
Ninafurahi 175
Kiwango 175
sisimuka 175
ujue 175
Mtungaji 175
77 175
isimuka 175
Nebukadneza 175
imeenea 175
kuvalia 175
kutojua 175
shikamana 175
opaswa 175
akifikiria 175
andaji 175
kusawazisha 175
Street 175
huzungumza 175
jipi 175
walishangaa 175
lisilofaa 175
wez@@ 175
yesha 175
ilipata 175
nondo 175
niende 175
aliyewa@@ 175
yatu@@ 175
JA 175
gwa 175
wanatheolojia 175
pataje 175
kuwany@@ 175
Taiwan 175
Jerusalem 175
Itakuwa 175
itazungumzia 175
Su@@ 175
endezwe 175
ukam@@ 175
wakili 175
aswi 175
bamba 175
Waandishi 175
KA 174
1982 174
wanaougua 174
poke@@ 174
mzaha 174
Thailand 174
kwamaanisha 174
ford 174
Press 174
wakaona 174
palikuwa 174
Matunda 174
Msumbiji 174
kuchangamsha 174
zilizotumiwa 174
lisha 174
MAISHA 174
ic 174
1949 174
Adui 174
vinne 174
Shi@@ 174
Philip 174
ivutia 174
heri 174
Najua 174
watengenezaji 174
vua 174
walitenda 174
limet@@ 174
chuki@@ 174
tujifunze 174
anye 174
heshimi@@ 174
alishangaa 174
Argentina 174
Alianza 174
nilifurahia 174
hupendezwa 173
komea 173
changamfu 173
kukana 173
ivyo@@ 173
Wales 173
Hel@@ 173
KUT@@ 173
ith@@ 173
kinywani 173
Linalo@@ 173
wanafalsafa 173
tor@@ 173
yanayotegemea 173
Kilicho@@ 173
kukatwa 173
ametoa 173
kutunzwa 173
palipo@@ 173
ungama 173
Nyota 173
wavutaji 173
shahidi 173
sea 173
bikira 173
waga 173
ripotiwa 173
kukit@@ 173
andikishwa 173
Florida 173
hukumbuka 173
asiyeweza 173
wab@@ 173
wanyofu 172
Usik@@ 172
tutas@@ 172
kilichoandikwa 172
hauta@@ 172
wakaj@@ 172
wagwa 172
methali 172
kutupatia 172
Bel@@ 172
ucho@@ 172
103 172
iya 172
ber@@ 172
hawap@@ 172
kukamatwa 172
atatimiza 172
kutafsiriwa 172
adhama 172
mbizi 172
onee 172
omi 172
2.@@ 172
hunisaidia 172
ninas@@ 172
waliotaka 172
wasiotii 172
Lis@@ 172
chukue 171
Wawa@@ 171
aliporudi 171
kuwajali 171
hutamani 171
MO@@ 171
chezea 171
Nyanya 171
kuwaandalia 171
Ag@@ 171
kumcha 171
dha@@ 171
kwe 171
izia 171
Upande 171
kunahusisha 171
Waamerika 171
Wanas@@ 171
harimu 171
utafanya 171
hawishiwa 171
fi@@ 171
wanaosafiri 171
elazimika 171
kibiolojia 171
wamepoteza 171
zaonyesha 171
Library 171
safisha 171
mdundo 171
rufani 171
Galileo 171
RE@@ 171
Tus@@ 171
inakadiriwa 171
kengele 171
Ya 171
Walipokuwa 171
inazungumzia 171
kumbushwa 171
ukaji 171
mahema 171
Gomora 171
kataliwa 171
waliodai 171
Mwa 171
inafanya 171
honi 171
Kiarabu 171
per@@ 171
misingi 170
uliof@@ 170
wastadi 170
Calvin 170
kung’amua 170
wamesema 170
amaz@@ 170
ifa@@ 170
Kupita 170
kuwinda 170
kimazingira 170
ai@@ 170
chati 170
Mau@@ 170
gharimu 170
watu@@ 170
kifuani 170
osha 170
viki@@ 170
lililofanywa 170
kufadhaisha 170
Uturuki 170
waamuzi 170
Uumbaji 170
Urithi 170
Njoo 170
alishindwa 170
fuka 170
hishe 170
Hewa 170
mip@@ 170
akionyesha 170
egemeka 170
alitoka 170
kaka 170
isiyostahiliwa 170
tujitahidi 170
Nzuri 170
eno 170
Sam 170
kimaadili 170
ph@@ 170
zinazofanya 170
kipawa 169
lililoko 169
andamiza 169
kumu@@ 169
mkarimu 169
ongezewa 169
Em@@ 169
kujichunguza 169
waliweka 169
Hut@@ 169
ondolewe 169
balehe 169
tuzungumzie 169
ichwa 169
teni 169
1974 169
kutimia 169
hena 169
ungaji 169
kinguvu 169
changanya 169
the@@ 169
inavyoonyeshwa 169
alipopata 169
zenyewe 169
inuliwa 169
etezi 169
wasanii 169
elee 169
walipoanza 169
kuwakaribisha 169
kuru@@ 169
nitak@@ 169
wakubali 169
Upasuaji 169
Laiti 169
angef@@ 169
Ra@@ 169
Majaribu 168
mitishamba 168
imiliki 168
waelewe 168
ais@@ 168
Ufahamu 168
meusi 168
elezaji 168
ubao 168
kuwasha 168
ingem@@ 168
wauguzi 168
adhibiwa 168
Maua 168
amalizia 168
Ekuado 168
niliacha 168
Uharibifu 168
Mwo@@ 168
vidonda 168
yaendelea 168
tembelewa 168
afa@@ 168
Wafungwa 168
Dalili 168
madarasa 168
Efe 168
kuvit@@ 168
waruhusu 168
angamizwe 168
vilele 168
lisilotazamiwa 168
linapaswa 168
ninam@@ 168
halina 168
kukaribia 168
inayotajwa 168
endelezwa 168
aliwap@@ 168
Farasi 167
kimb@@ 167
wameshindwa 167
toroka 167
makimbilio 167
anja 167
kuhukumiwa 167
1955 167
unatia 167
ajirisha 167
hurut@@ 167
mi 167
tunayojifunza 167
kukamilisha 167
wanaokufa 167
ras@@ 167
zavyo 167
tutumie 167
waridi 167
kilisha 167
oroka 167
wape 167
Msimamizi 167
alinipa 167
kimbelembele 167
kuwaruhusu 167
ero@@ 167
azimika 167
akabatizwa 167
alifafanua 167
MI@@ 167
wanav@@ 167
ah 167
wamepewa 167
kuutumia 167
Ur@@ 167
ishinda 167
mahususi 167
Inapo@@ 167
huchagua 167
uuzi 167
Er@@ 167
wameonyesha 167
rekebisho 167
handaki 167
liwezalo 167
Ukatoliki 167
Naamani 166
Arthur 166
uwasiliani 166
adhimisha 166
walika 166
mir@@ 166
endeshaji 166
wasiokamilika 166
hutuwezesha 166
jeraha 166
Ug@@ 166
tunaz@@ 166
ninahisi 166
buibui 166
ametupatia 166
halij@@ 166
Filipino 166
wanajaribu 166
ijua 166
mav@@ 166
makombora 166
unaye@@ 166
Religion 166
tulivyo 166
Hakikisha 166
waliochaguliwa 166
aliyefufuliwa 166
aliyepata 166
Ohio 166
Sar@@ 166
omwa 166
ro 166
simuliwa 166
wanaohitaji 166
usu 166
kuamka 166
ifahamu 166
theluthi 166
kusha@@ 166
Luc@@ 166
mge@@ 166
Fo@@ 166
urugika 166
Ben@@ 166
kutufundisha 166
marejeo 166
Waangalizi 166
kuufanya 166
asababisha 166
shairi 166
alimalizia 166
manukato 166
atende 166
zilezile 166
Ning@@ 166
Health 166
kukwa@@ 166
mwanga 166
ikirie 166
ikip@@ 166
hemu 165
kuachilia 165
anakubali 165
1958 165
malaya 165
tunajifunza 165
juaje 165
maabara 165
Today 165
apiga 165
onyes@@ 165
wanaji@@ 165
mpasuaji 165
choma 165
From 165
irudia 165
ENI 165
kezwa 165
mayatima 165
Newsweek 165
hawako 165
ZABURI 165
husoma 165
Athens 165
Alitaka 165
kijivu 165
fas@@ 165
Juma 165
Ole 165
asirika 165
shingoni 165
ataondoa 165
aliingia 165
74 165
kuniambia 165
zifaazo 165
Aliye@@ 165
ishie 165
afiki 165
ilitu@@ 165
Kuona 165
wanaowa@@ 165
ude 165
Nimes@@ 165
ameazimia 165
semekana 165
Patakatifu 165
anapata 165
atapata 165
Nidhamu 164
Usiwe 164
Mbingu 164
mchache 164
atosha 164
alilelewa 164
inayoongezeka 164
huvutia 164
kuwapata 164
kuwaka 164
yakit@@ 164
aongeza 164
Goliathi 164
aongezea 164
Sp@@ 164
inyenyekeza 164
mipya 164
Do@@ 164
Frank 164
kuzit@@ 164
wasis@@ 164
Maofisa 164
Cho@@ 164
Wokovu 164
Hasira 164
Utamaduni 164
kuungana 164
Mateso 164
inganishwa 164
kufikiwa 164
Mwongozo 164
zorota 164
utibabu 164
Mwingine 164
Wahubiri 164
alitumikia 164
tuonyeshe 164
bes@@ 164
uswa 164
mtawa 164
ngo@@ 164
katakata 164
wanatafuta 164
1938 164
Mach@@ 164
zwi 164
ithibati 164
mwenyekiti 163
lililopuliziwa 163
utumie 163
walikosa 163
tumet@@ 163
chama 163
miwani 163
kulindwa 163
kusifu 163
walishiriki 163
angaze 163
mtiifu 163
Mikaeli 163
kewa 163
kaushwa 163
alipendekeza 163
Madhara 163
achi 163
kujitia 163
akakubali 163
endavyo 163
mbuni 163
kutwa 163
asahau 163
yooka 163
ukubali 163
tibu 163
kubadilishwa 163
kuandamana 163
esere 163
Nasi 163
Tak@@ 163
mgongoni 163
NASA 163
Mwangalizi 163
haifai 163
Nilivutiwa 163
wanatumikia 163
huendeleza 163
ay@@ 163
walivutiwa 163
ametoka 163
achukue 163
YESU 163
wasili@@ 163
kuteleza 163
hirika 163
anawapenda 163
walipatwa 163
kujionyesha 163
zinazom@@ 163
Septuagint 163
onyesho 163
ushawishi 163
Kikomunisti 163
achochea 163
zizi 163
iva 163
mzo@@ 163
aib@@ 163
kukupa 163
alivumilia 163
13@@ 162
tahi 162
nzige 162
uchi 162
ambulishwa 162
waliobaki 162
aliwe 162
ataka@@ 162
kujipenda 162
Ye@@ 162
aikolojia 162
Jumatatu 162
machi@@ 162
wapumbavu 162
kumwuliza 162
kingeweza 162
ulioje 162
mshiko 162
WAKATI 162
upata 162
Halisi 162
Ethiopia 162
Sch@@ 162
hawahitaji 162
utapiamlo 162
harib@@ 162
mwinuko 162
kusifiwa 162
propaganda 162
kicho@@ 162
Kas@@ 162
mwanawe 162
Inamaanisha 162
anapom@@ 162
ing 162
SI 162
Wizara 162
wanathamini 162
Tuta@@ 162
fautisha 162
mbo@@ 162
kuwashawishi 162
kulemewa 162
maafa 162
njiwa 162
yaliyotokea 162
mfu 162
simbamarara 162
Christian 162
waru@@ 162
Yezebeli 162
07 161
kuchambua 161
Mus@@ 161
Zin@@ 161
kabiliane 161
mnayo@@ 161
hubaki 161
mabwawa 161
Del@@ 161
sitawisha 161
akimbia 161
kujid@@ 161
arejezea 161
Waabudu 161
ilianzishwa 161
wategemea 161
Nathan 161
ukiza 161
Tam@@ 161
alisoma 161
mwadhimisho 161
opo 161
inapokuwa 161
mfupa 161
Mail 161
bab@@ 161
104 161
Uganda 161
lar@@ 161
aro 161
inaongezeka 161
unakaribia 161
Tovuti 161
hakut@@ 161
ishind@@ 161
changamsha 161
wangef@@ 161
Fungu 161
mwe@@ 161
kuigwa 161
Vibaya 161
Mistari 161
ufunuo 161
litaf@@ 161
Vin@@ 161
unges@@ 161
kuzu@@ 161
waliouawa 161
usik@@ 161
waeneza 161
onapo 160
Inapendeza 160
ahi@@ 160
aha@@ 160
kumuuliza 160
vichaka 160
tuseme 160
76 160
1957 160
wanaotafuta 160
Askari 160
wapiganaji 160
kukutania 160
kambini 160
mafua 160
hitilaf@@ 160
ruka 160
fur@@ 160
alifikiria 160
Maz@@ 160
mwenzetu 160
nas@@ 160
tumepata 160
viwanja 160
kapo 160
uteni 160
kuosha 160
koloni 160
achukuliwa 160
ian 160
van 160
moni 160
ulipata 160
Columbus 160
kuzoezwa 160
Tro@@ 160
akaf@@ 160
mr@@ 160
tarumbeta 160
Ujenzi 160
1952 160
hawakutaka 160
mbaji 160
wakif@@ 160
kuchunguzwa 160
Wach@@ 160
choka 160
umekaribia 160
Majiji 160
Ver@@ 160
kujihisi 160
kustahi 160
shtaka 160
ongeze 159
sp@@ 159
ogelea 159
ugaidi 159
jibini 159
iliyotengenezwa 159
kisu 159
ameonyesha 159
Ghana 159
ilaumu 159
alipiga 159
kuvuja 159
yanategemea 159
wanak@@ 159
88 159
dhi@@ 159
kliniki 159
ing’amua 159
upwa 159
hawaoni 159
Wasichana 159
ilifu 159
wanan@@ 159
wauzaji 159
mbolea 159
majimbo 159
endaje 159
mkusanyo 159
wanya 159
mikahawa 159
itawishe 159
zinazoitwa 159
epushe 159
anyag@@ 159
ime 159
ifura@@ 159
ulionekana 159
Mipango 159
wawezao 159
Filemoni 159
vamia 159
yumba 159
Hakuwa 159
Aliwaambia 159
Ash@@ 159
kukadiria 158
Alini@@ 158
aguzi 158
are 158
Suala 158
ey 158
openda 158
unia 158
fahali 158
Mgonjwa 158
arekeb@@ 158
anakuwa 158
md@@ 158
ci@@ 158
Val@@ 158
shana 158
wameji@@ 158
TA@@ 158
mabinti 158
Guinea 158
unget@@ 158
aishi 158
Mlango 158
ibadili 158
puuza 158
vijidudu 158
MAMBO 158
tal@@ 158
wakarimu 158
amesimama 158
hapisha 158
aliyefanya 158
ö@@ 158
rushwa 158
kuwategemeza 158
kipepeo 158
Yan@@ 158
juli@@ 158
School 158
kurejezea 158
zingira 158
Yugoslavia 158
haut@@ 158
tegeme@@ 158
lilim@@ 158
Nakumbuka 158
adhaniwa 157
kuepukwa 157
changanywa 157
isikia 157
haniwa 157
tete 157
uangalizi 157
mate 157
husali 157
kushusha 157
aha 157
fasiri 157
kutor@@ 157
ubiri 157
Uvutano 157
olezo 157
umilie 157
Band@@ 157
bluu 157
Mg@@ 157
kuwasilisha 157
kupaaza 157
wanunuzi 157
linalosema 157
iwaje 157
unaotegemea 157
wamekuja 157
Malawi 157
kielimu 157
Alionyesha 157
shupavu 157
kujiamulia 157
1956 157
ivunja 157
Faraja 157
rau 157
AMA 157
kuchuma 157
kuwatumikia 157
Kudumisha 157
ILIVYOSIMULIWA 157
Vid@@ 157
nyukilia 157
Yat@@ 157
KA@@ 157
zaye 157
87 157
kusta@@ 157
iliyop@@ 157
Joshua 157
Ua 157
kumweka 157
mfu@@ 157
1931 157
simamishwa 157
julikani 157
sikutaka 157
tibiwa 157
mithali 157
Mil@@ 157
iliyoorodheshwa 156
yafanya 156
kupanuka 156
waliitikia 156
mizozo 156
yl@@ 156
ore@@ 156
waimbaji 156
wanaz@@ 156
wanaod@@ 156
Angalau 156
Limesimuliwa 156
Kuweka 156
enerali 156
Kansa 156
isherehe@@ 156
endes@@ 156
YE 156
wezekane 156
ANO 156
Mazoea 156
dham@@ 156
ushia 156
Pet@@ 156
matabaka 156
RO@@ 156
reje@@ 156
fedhe@@ 156
chafua 156
tusali 156
mwend@@ 156
Smith 156
kumiliki 156
watakaa 156
Mkataba 156
zito@@ 156
eteza 156
ainisha 156
yanayotu@@ 156
azungumziwa 156
ataendelea 156
abasamu 156
ilinde 156
liliwa@@ 156
visima 156
walijitahidi 156
Tuseme 156
Iliyo 156
Susan 156
lilianzishwa 155
watuma 155
chunguzi 155
Tunat@@ 155
ongoni 155
walevi 155
halihewa 155
ngumi 155
waajiri 155
kutambulisha 155
inatusaidia 155
viazi 155
kuzalisha 155
Utaratibu 155
rubani 155
kutulia 155
Alaska 155
msemo 155
twat@@ 155
wafariji 155
utengenezaji 155
ingep@@ 155
sahani 155
kumtendea 155
jeli 155
nyavu 155
Angeles 155
atumie 155
akisoma 155
kubalehe 155
hisa 155
ron@@ 155
chana 155
aw@@ 155
unjaji 155
wanamtumikia 155
kuwavutia 155
onja 155
ugoni 155
Usim@@ 155
tho@@ 155
huzaa 155
berg 155
Maamuzi 155
alithibitisha 155
linatia 155
kingo 155
opa 155
vibanda 155
Cal@@ 155
bangi 155
tutaona 155
tungependa 155
ulisha 154
Yehoshafati 154
edumu 154
choo 154
aliposikia 154
Nathani 154
itakapo@@ 154
niliposoma 154
kir@@ 154
kuzidisha 154
ilihitaji 154
God 154
roki 154
watii 154
sisimua 154
madaraja 154
Um@@ 154
asiweze 154
makelele 154
Mf@@ 154
mitihani 154
kupungukiwa 154
naf@@ 154
elekezea 154
wawezavyo 154
Aktiki 154
Azimio 154
wavu 154
kizwa 154
aliandaa 154
Bab@@ 154
kutengwa 154
kuwasikiliza 154
UL@@ 154
Texas 154
Enoki 154
saha@@ 154
amo 154
nilipokea 154
endane 154
ü@@ 154
sisitiza 154
indua 154
walihamia 154
wafikie 154
tekeleza 154
holanzi 154
mishale 154
wito 154
walioitwa 154
yal@@ 154
Union 154
ulizia 154
wasioweza 154
inayoongoza 154
azim@@ 154
wataweza 153
KO@@ 153
Hali@@ 153
amo@@ 153
andishwa 153
safishwa 153
aliyev@@ 153
uziki 153
hoi 153
enye 153
aidiaje 153
kad@@ 153
Raheli 153
ilioni 153
itikiaje 153
7,@@ 153
huvuta 153
wanaozungumza 153
yamkini 153
lima@@ 153
tukaanza 153
lika 153
engeusha 153
mkojo 153
zid@@ 153
lishwa 153
ISHI 153
kumalizika 153
ikilinganishwa 153
kinaonyesha 153
umi 153
hangaza 153
Fr@@ 153
amelala 153
Ninataka 153
Kornelio 153
Nilishangaa 153
Tuk@@ 153
dia 153
vimep@@ 153
uyoga 153
mchuzi 153
Singapore 153
ungem@@ 153
Eli 153
1979 153
ulioko 153
akaamua 153
sad@@ 153
kulitumia 153
bal@@ 153
etemeka 153
tiliwa 153
zilizotengenezwa 153
risi 152
sentensi 152
akazi 152
nyika 152
kuwatolea 152
Maktaba 152
kucheka 152
que 152
Majina 152
hie 152
Hangaiko 152
sokwe 152
yalifanywa 152
hazit@@ 152
hihirishwa 152
uliwa@@ 152
jiweza 152
kitenzi 152
jid@@ 152
Kuelekea 152
sakafuni 152
nataka 152
alihudhuria 152
inahitaji 152
vijiti 152
1978 152
anawezaje 152
uling@@ 152
tulivyoona 152
ukumb@@ 152
Ghafula 152
Zisi@@ 152
Maono 152
milia 152
Utukufu 152
yalitumiwa 152
Wajumbe 152
tisha 152
mib@@ 152
gr@@ 152
ageuka 152
mann 152
Apolo 152
vimelea 152
hudokeza 152
vilipo@@ 152
unaishi 152
kinaeleza 152
kufiny@@ 152
linam@@ 152
tuliweza 152
Nawa@@ 152
niliwa@@ 152
Mbuni 152
anathamini 152
Kumtumikia 152
humsaidia 152
Ziara 151
Majeshi 151
vikolezo 151
Col@@ 151
kusiko@@ 151
angulia 151
tukahitaji 151
tunatambua 151
Gharama 151
anayestahili 151
82 151
jazwa 151
mwag@@ 151
tw@@ 151
Latini 151
ukahitaji 151
likis@@ 151
kumwaga 151
alitafuta 151
Tom 151
ven@@ 151
hesabika 151
Ib@@ 151
kinyama 151
Mbalimbali 151
enu 151
ugunduzi 151
Elihu 151
wachapishaji 151
yajua 151
kinza 151
kuwaacha 151
gizani 151
wamewa@@ 151
adhi@@ 151
Ushindi 151
mabuku 151
walijenga 151
pu 151
waand@@ 151
kuoga 151
aliwashauri 151
Victoria 151
ngao 151
kushawishiwa 151
majonzi 151
Zoea 151
den 151
azima 151
husishi 151
anaji 151
waliou@@ 151
Andrea 151
kifamilia 150
aulu 150
hujenga 150
visi@@ 150
Simoni 150
choraji 150
Mwelekeo 150
arudia 150
kushuhudia 150
Ofisa 150
makofi 150
italiano 150
TE 150
Wazungu 150
Mikusanyiko 150
Asema 150
kand@@ 150
anisaidie 150
yanayotajwa 150
Mandhari 150
wanaopendezwa 150
anatumikia 150
Kabisa 150
Kushinda 150
matukano 150
izaji 150
unaosababishwa 150
aibika 150
watairithi 150
Ngono 150
Pal@@ 150
Zile 150
unaotolewa 150
Association 150
eleke 150
emia 150
isti 150
unapatikana 150
Had@@ 150
tuazimie 150
Walin@@ 150
hutokezwa 150
wamekubali 150
shea 150
walifika 150
zilizofuata 150
hayatakuwapo 150
kutumainika 150
pak@@ 150
wafurahie 150
vika@@ 150
kinabii 150
itim@@ 150
chukizwa 150
inayotolewa 150
mzao 150
Kudhibiti 150
etani 149
ifurahisha 149
ulizo 149
alihubiri 149
II 149
Ita@@ 149
sherehekea 149
ashi@@ 149
Aliendelea 149
inavyosema 149
ikiza 149
epuke 149
ashiria 149
wanapendezwa 149
yanayofanywa 149
kugharimia 149
sk@@ 149
zilin@@ 149
kusisitiza 149
kujihadhari 149
kumfikia 149
uuze 149
Lililo@@ 149
julishwa 149
Kamwe 149
900 149
Epaf@@ 149
hakitakuwapo 149
wanaomwogopa 149
vuli 149
Sam@@ 149
eshaji 149
Bath 149
yaliyopotoka 149
Gen@@ 149
anguke 149
kusambaza 149
kumruhusu 149
masoko 149
kujifanya 149
wasipo@@ 149
ong 149
faut@@ 149
Sina 149
dioksidi 149
haiku@@ 149
kuhubiriwa 149
kuep@@ 149
lilipokuwa 149
ameandaa 149
ME@@ 149
ekari 149
kututia 149
uwezao 149
ikii 149
mtakuwa 149
sil@@ 149
alishwa 149
ziwezazo 149
furiko 149
babake 149
msafara 149
fungulia 149
Jerome 149
wezekanaje 149
kusahihisha 149
teka 148
Magumu 148
Kora 148
Mnyama 148
amepewa 148
liitwalo 148
Kumpenda 148
mchafu 148
Taja 148
inatuambia 148
alisimama 148
Mfululizo 148
Mafanikio 148
yalibadilika 148
huo@@ 148
Mgawo 148
kunakuwa 148
Tunas@@ 148
wakatili 148
Mwenzi 148
Misiba 148
petu 148
ville 148
wimbi 148
kufuatwa 148
imefanya 148
tunzwa 148
Jan@@ 148
Ninat@@ 148
sili@@ 148
makubaliano 148
padri 148
ikiwezekana 148
malori 148
upofu 148
wanajulikana 148
jiona 148
wanamuziki 148
ajuaye 148
shuku 148
waamuru 148
akijua 148
lingana 148
Karibea 148
Wadudu 148
Jersey 148
inavyoweza 148
Kalebu 148
araka 148
Kufuatia 148
ikubali 148
Mpaji 148
fre@@ 148
kilichomsaidia 148
Ukomunisti 148
hufikia 148
kuadhibiwa 148
pasi 148
kutat@@ 148
umwagaji 148
mnapo@@ 147
Sikujua 147
ifurahia 147
Aleksandria 147
kuwaweka 147
shawishiwa 147
vivu 147
aliko@@ 147
Wenyewe 147
lenzi 147
Tunafurahi 147
kuonja 147
araj@@ 147
kuchanganya 147
uzalishaji 147
itu 147
Ukim@@ 147
yanathibitisha 147
wangefanya 147
zeri 147
alibadili 147
waliingia 147
tukip@@ 147
mwerevu 147
aliyeahidiwa 147
mboleza 147
hwa 147
kinyesi 147
Baridi 147
Kud@@ 147
hupoteza 147
abiolojia 147
tulipewa 147
wati@@ 147
wanufaisha 147
akihubiri 147
rundo 147
Kap@@ 147
viwe 147
79 147
kufugwa 147
aliwaamuru 147
kuwaangamiza 147
vikumbusho 147
avun@@ 147
astronomia 147
kodiwa 147
mil@@ 147
kuvumbua 147
idisha 147
Str@@ 147
Hizi 147
unamaanisha 146
kuwaomba 146
Vituo 146
aliongezea 146
Safi 146
twajua 146
wishwa 146
SE@@ 146
idhini 146
Mam@@ 146
wanaol@@ 146
hehebu 146
aluma 146
yanayowa@@ 146
Haidhuru 146
alimuuliza 146
ondwa 146
chezi 146
watayarisha 146
zinazofanana 146
kuunganishwa 146
1981 146
panapofaa 146
inayozidi 146
ä@@ 146
bak@@ 146
200,000 146
undika 146
uaguzi 146
Ufilipino 146
abudiwa 146
ufu 146
huthibitisha 146
kubuniwa 146
kukiri 146
kwe@@ 146
echo@@ 146
kumtazama 146
tuishi 146
kuvunjwa 146
ard@@ 146
watende 146
kuwamo 146
rithi 146
alichochewa 146
ingali 146
Kan@@ 146
Nanyi 146
anampenda 146
ununuzi 146
ella 146
mnavyo@@ 145
pengo 145
ml@@ 145
ameanza 145
08 145
0.@@ 145
ajit@@ 145
Nenda 145
alingana 145
wasiomwogopa 145
kumlea 145
vitisho 145
wanaoongoza 145
ola 145
embee 145
hulazimika 145
mitaani 145
mwendea 145
icha 145
migumu 145
mchang@@ 145
angavu 145
bi 145
Chuki 145
1961 145
tunajitahidi 145
ond@@ 145
pitishwa 145
azimishwa 145
afute 145
mweza 145
lazwa 145
huwatia 145
makazi 145
usa@@ 145
kumshawishi 145
Viwango 145
halita@@ 145
tik@@ 145
auawe 145
waonekana 145
abiriwa 145
akizungumzia 145
unaonekana 145
mjukuu 145
usaidia 145
hudhihirisha 144
Ru@@ 144
Jihadhari 144
chague 144
imar@@ 144
seremala 144
Cheki 144
iminika 144
chawa 144
wameuawa 144
uwezayo 144
ere 144
Waarabu 144
amisha 144
pun@@ 144
kinavyo@@ 144
haita@@ 144
uaje 144
tetea 144
Ok@@ 144
kujin@@ 144
petroli 144
mraibu 144
ENO 144
1.@@ 144
Zambia 144
son@@ 144
Mur@@ 144
oe 144
car@@ 144
esia 144
Heri 144
kunusa 144
mpenzi 144
igeuza 144
ikitika 144
wajenzi 144
ambi 144
lilionekana 144
madoa 144
oja 144
keki 144
amehe@@ 144
Mawe 144
Mkaribie 144
aamini 144
nitakuwa 144
Nilitambua 144
ikwe 144
endeleo 144
kuwaonya 144
kushi@@ 144
AG@@ 144
akayo@@ 144
yatendeke 144
Kijapani 144
merikebu 144
zinazofuata 144
kuaib@@ 144
tulivu 143
kupenya 143
sharti 143
MU@@ 143
HABARI 143
egemezwa 143
wakaja 143
akoma 143
lilitumiwa 143
mbi@@ 143
wanadarasa 143
Insight 143
ifuat@@ 143
porini 143
hurudi 143
alichokuwa 143
Kuacha 143
Jengo 143
mkat@@ 143
ulinganifu 143
waanze 143
matumbo 143
engo 143
sk 143
ENDA 143
ajifunze 143
Kesi 143
mnofu 143
walianzisha 143
8,@@ 143
pum@@ 143
kutenganisha 143
wanatamani 143
uangam@@ 143
1933 143
kwingi 143
alikumbuka 143
anayepaswa 143
gundi 143
kusimamisha 143
chezo 143
sikili@@ 143
Alipata 143
Onyesha 143
Maonyesho 143
koti 143
wanga 143
kubadilishana 143
ilipoanza 143
pokeo 143
Twahitaji 143
ameta 143
ufuliwa 143
Uvumilivu 143
thubutu 143
husishwa 142
lapaswa 142
yaeleza 142
jukwaani 142
tunaendelea 142
dol@@ 142
mwanzilishi 142
ingatia 142
ving@@ 142
wanajimu 142
isa 142
unene 142
Saf@@ 142
Tuf@@ 142
kuwawezesha 142
ipitayo 142
Anat@@ 142
Pen@@ 142
Mawasiliano 142
inayosema 142
eshe 142
alala 142
alijenga 142
Ukuzi 142
adikishwa 142
kujistahi 142
andi 142
ope 142
turuhusu 142
wanatoa 142
tambulisha 142
wapanda 142
Uwongo 142
miguuni 142
KUNA 142
kuudhika 142
taajabisha 142
kishindo 142
kuutafuta 142
hakuj@@ 142
ungamano 142
Wall 142
Shukrani 142
inayofanana 142
ambat@@ 142
tusis@@ 142
yapat@@ 142
ukulima 142
ninacho@@ 142
umizwa 142
hubeba 142
ida 142
Akitumia 142
Kuwapo 142
kimes@@ 141
alizia 141
walipiga 141
daiwa 141
chomwa 141
undugu 141
Cheo 141
alifuata 141
Nas@@ 141
DO@@ 141
abariki 141
hadharisha 141
elewesha 141
eketeza 141
Naf@@ 141
ipotiwa 141
tekwa 141
umejaa 141
alionelea 141
kibaya 141
inapohusu 141
alipomwambia 141
mtiwa 141
mapadri 141
ushika 141
Chama 141
Pl@@ 141
ilitokeza 141
tulio 141
tundu 141
yanayotokana 141
men@@ 141
huchunguza 141
mibaya 141
Usit@@ 141
alijiunga 141
Young 141
U.S.A 141
humt@@ 141
kuandalia 141
kuuf@@ 141
EMA 141
utaweza 141
kuunda 141
lizwa 141
Asante 141
iacha 141
waha@@ 141
Jim 141
ans@@ 141
Magazeti 141
huwawezesha 141
Francis 141
Nyoka 141
wafikirie 141
anatujali 141
zinazohusiana 141
IO 141
mjadala 141
budi 141
kicha@@ 141
ukifanya 141
kabili@@ 141
wanaopata 141
watoa 141
mabe@@ 141
epusha 141
Niliamua 141
sikika 141
udiwa 141
iliyojaa 141
poin@@ 141
kuachwa 141
wasiweze 141
Kireno 141
Kwa@@ 141
ozoni 141
ushe 141
Ngozi 141
kudhibitiwa 140
Wema 140
lish@@ 140
aliyetu@@ 140
kuwalisha 140
kuwan@@ 140
MW@@ 140
wendea 140
Alitumia 140
utabiri 140
walipelekwa 140
hawaamini 140
walifuata 140
potezwa 140
umewa@@ 140
walipoona 140
watakufa 140
awahi 140
3.@@ 140
elekeo 140
hazip@@ 140
aliazimia 140
akasi 140
mafundi 140
yenye@@ 140
hujiuliza 140
iharibu 140
ris@@ 140
wakapata 140
vidimbwi 140
abali 140
Ilionekana 140
walionekana 140
Uwanja 140
nyati 140
139 140
kumwokoa 140
kalori 140
wis@@ 140
igaji 140
kujipatanisha 140
Niki@@ 140
kufanana 140
Plato 140
chezaji 140
ilivyotabiriwa 140
hawakupata 140
lililojengwa 140
Wahindu 140
ire 140
NILI@@ 140
endelevu 140
ambulisho 140
inge 140
tarajio 140
kujihusu 140
kuwakilisha 140
viota 140
kutan@@ 140
aliondoka 140
va 139
watafanya 139
ann@@ 139
kutamanika 139
▫ 139
kiko 139
uddha 139
Nawe 139
kuwafufua 139
akaongeza 139
1965 139
kuup@@ 139
Ul@@ 139
Mzuri 139
kukas@@ 139
sen 139
anayejua 139
hisabati 139
ulu 139
mvi 139
rasi 139
00,000 139
lito@@ 139
Anaeleza 139
yameandikwa 139
waliotajwa 139
inan@@ 139
hukutana 139
tuliamua 139
ambazwa 139
zilivyo 139
Kuzuia 139
umishwa 139
Mwanzilishi 139
Nika@@ 139
hatuhitaji 139
kunasa 139
kupingana 139
kuridhiana 139
ungam@@ 139
hupita 139
Taarifa 139
masalio 139
anzapo 139
kukataliwa 139
Ujasiri 139
tumejifunza 139
8,000 139
upenda 139
jifunze 139
hayata@@ 139
mshindi 139
nilisali 139
hakufanya 139
afirisha 139
kasa 139
mitaa 139
Utak@@ 139
kuomboleza 139
kumpeleka 139
kuyaf@@ 139
tulilo@@ 139
str@@ 138
kufuatana 138
yatak@@ 138
Zeitung 138
vo@@ 138
uona 138
09 138
wo 138
akaacha 138
kuvutwa 138
udi@@ 138
ithiwa 138
chumbani 138
Ulio@@ 138
aliongozwa 138
ibadili@@ 138
wametambua 138
iwezekane 138
alimweleza 138
anayesafiri 138
nyutu 138
walipendezwa 138
akadiria 138
1972 138
avuna 138
waendelea 138
huchochewa 138
vioo 138
nimep@@ 138
kibanda 138
walielewa 138
akau@@ 138
ambukiza 138
nikijifunza 138
Kr@@ 138
Wanasema 138
mtamu 138
hahitaji 138
utar@@ 138
Kiny@@ 138
kadha 138
majembe 138
Wamaya 138
wanafuata 138
hufanyizwa 138
kuuona 138
fizikia 138
WE@@ 138
Bunge 138
pamb@@ 138
nikawa@@ 138
vurugu 138
2013 137
kumjibu 137
poto@@ 137
kufunuliwa 137
mpinzani 137
Kusaidia 137
Sin@@ 137
ant@@ 137
kuingizwa 137
chafuliwa 137
She@@ 137
mgawanyiko 137
halifu 137
linafaa 137
ary 137
Tahiti 137
ninataka 137
Feli@@ 137
wakila 137
iliyor@@ 137
Mwendo 137
alibaki 137
endezwi 137
kuumwa 137
waonyeshe 137
poshuka 137
kolesteroli 137
alisha 137
Wanat@@ 137
laonekana 137
hupungua 137
Can@@ 137
utineja 137
uzia 137
linganishwa 137
mekundu 137
vutwa 137
nyuzinyuzi 137
yalifanya 137
subiri 137
igiza 137
poromoka 137
zung@@ 137
ATA 137
Wanahitaji 137
huri 137
agani 137
Orodha 137
93 137
Puerto 137
unaom@@ 137
alivyoshughulika 137
Ushahidi 137
lazimu 137
kinapo@@ 137
du 137
uchambuzi 137
How 137
Beth@@ 137
res 137
onye@@ 137
yatima 137
Fedha 137
vinge@@ 136
Samuel 136
atakayesema 136
Chukua 136
viwandani 136
jidhabihu 136
odi 136
Daraka 136
hutiwa 136
akar@@ 136
Ikiwezekana 136
BA@@ 136
ad 136
kilichotokea 136
mpinga 136
Uovu 136
usitawi 136
Mwethiopia 136
ngurumo 136
kuwatafuta 136
hibu 136
wakan@@ 136
jifanya 136
3,500 136
Kifaa 136
walipanga 136
Hatujui 136
walijiunga 136
sufu 136
onyo@@ 136
hutufanya 136
Rais 136
Tanzania 136
WEZA 136
buku 136
ameruhusu 136
yanayotolewa 136
utaka@@ 136
irike 136
wezalo 136
madoido 136
kufuliza 136
inafanywa 136
alikata 136
unayem@@ 136
kugeuzwa 136
kaseti 136
wanaotamani 136
wakihubiri 136
aliwakumbusha 136
uende 136
Fu@@ 136
kulif@@ 136
yarishia 136
elimishwa 136
kisi@@ 136
angen@@ 136
Tume 136
ngoma 136
mlevi 135
umefika 135
Pasipo 135
muuliza 135
haip@@ 135
book 135
ionekane 135
watafurahi 135
ajabia 135
watafuta 135
msaid@@ 135
hawakupaswa 135
iano 135
uliom@@ 135
tegemezwa 135
SO@@ 135
uliye 135
Stephen 135
nikotini 135
wametoka 135
INE 135
anyi 135
hebu 135
Wasamaria 135
udie 135
anatambua 135
uwanda 135
hatarishwa 135
ck 135
Kitiba 135
Takwimu 135
wanafiki 135
waye 135
inama 135
yalionekana 135
kukisoma 135
walizungumza 135
kuchafua 135
nihisi 135
pingana 135
uchi@@ 135
aliambiwa 135
Chile 135
ung’un@@ 135
aseme 135
zinapaswa 135
Kuzaliwa 135
Kukosa 135
atuchochea 135
uze 135
tulijifunza 135
Televisheni 135
Kupenda 135
aliki@@ 135
choko@@ 135
kukusanywa 135
Mafun@@ 135
eke 135
Mihiri 135
twataka 135
wakae 135
Kuelewa 135
kuwasamehe 135
mjomba 135
inakuja 135
wakad@@ 135
utalii 135
ukaguzi 135
alivyoandika 135
idhi 134
waliokuja 134
Estonia 134
chenyewe 134
dis@@ 134
friji 134
Kulevya 134
yanayotukia 134
tutazungumzia 134
pokee 134
viko 134
hajui 134
Holy 134
Zako 134
ajis@@ 134
makadirio 134
Te@@ 134
zinap@@ 134
anajibu 134
alihakikisha 134
kitamu 134
elimisha 134
miendo 134
yet@@ 134
umande 134
udha 134
kijeuri 134
ISHA 134
Asi@@ 134
wazunguka 134
imamishwa 134
onyeshavyo 134
kumbuk@@ 134
adumisha 134
anayetu@@ 134
husitawi 134
Cas@@ 134
KAN@@ 134
urika 134
Salvador 134
Hud@@ 134
yamefanywa 134
ush@@ 134
mahututi 134
wakafanya 134
msanii 134
huwap@@ 134
Sivyo 134
06 134
anatamani 134
ushangilie 134
Heshima 134
lie 134
nikip@@ 134
ol 134
ens 134
kumwendea 134
Mapainia 134
Haiti 134
biolojia 134
Akila 133
hangaike 133
Angani 133
hima 133
wameamua 133
1.5 133
aliwaagiza 133
mezani 133
achili@@ 133
walioathiriwa 133
fer@@ 133
Makumbusho 133
adisi 133
Ruth 133
Udumuo 133
anavyoweza 133
inali 133
Muhula 133
Mid@@ 133
lak@@ 133
alimsaidia 133
kujishughulisha 133
milio 133
Tunapofanya 133
machungwa 133
alimtumia 133
huzunguka 133
andao 133
isikiliza 133
Antonio 133
wakitoa 133
hawapati 133
á 133
uja 133
fi 133
hupuuza 133
Zungumza 133
sahi@@ 133
kufun@@ 133
sar@@ 133
kugunduliwa 133
kuaibisha 133
uhisi 133
ekwa 133
aliyopewa 133
Unam@@ 133
kuipata 133
KUU 133
Jane 133
jipinda 133
kujisifu 133
wajibika 133
tin@@ 133
1976 133
Wanapaswa 133
wanalo@@ 133
sta 133
kuwapeleka 133
husianaje 133
wati 133
kuhisiwa 133
mishahara 133
kushangaa 133
Uadilifu 133
mdomoni 133
huliwa 133
vye@@ 133
anaamini 133
amewahi 133
wasihi 133
uzulu 133
ahitaji 133
watakaofufuliwa 133
utaendelea 133
yalivyokuwa 133
kihoro 132
inayotu@@ 132
dari 132
Painia 132
tume 132
ambazi 132
mkaaji 132
kumfufua 132
kumlinda 132
Iki@@ 132
atanisha 132
ang 132
anawajali 132
Columbia 132
jishughulisha 132
boa 132
anufaika 132
utafutaji 132
wamelala 132
tap@@ 132
É@@ 132
ser@@ 132
rekeb@@ 132
afaidika 132
ce 132
ONA 132
wanapoona 132
ajue 132
Makusanyiko 132
hauto@@ 132
mabikira 132
AY@@ 132
alimu@@ 132
KE@@ 132
uji 132
ice 132
alitia 132
itaendelea 132
1971 132
With 132
Wazushi 132
mafunjo 132
inatumiwa 132
karibishaji 132
Lidia 132
1922 132
kuhusisha 132
ker 132
radi 132
zinazotokana 132
waliotoka 132
kabilianaje 132
Mbaya 132
Ker@@ 132
aruhusiwa 132
Je@@ 132
upatanisho 132
nif@@ 132
alisikiliza 132
masinagogi 132
urushi 132
Cam@@ 132
okrasi 132
kutangazwa 132
kusukumwa 132
Han@@ 132
2,500 132
kusamehewa 132
sikitiko 132
ation 132
ndovu 132
Af@@ 132
muwe 132
kunga 132
Cla@@ 131
jumbe 131
mato@@ 131
ishirini 131
Sen@@ 131
tumbako 131
paaza 131
vi 131
wachu@@ 131
160 131
zikit@@ 131
izunguka 131
adhuru 131
atatumia 131
makusudio 131
Tunaishi 131
uiwa 131
yanam@@ 131
kupind@@ 131
kuamuru 131
1973 131
wapendao 131
tukumbuke 131
kijijini 131
hakuwezi 131
Kuhukumu 131
itakuja 131
matbaa 131
zikwa 131
akusaidie 131
mimin@@ 131
kure@@ 131
aliogopa 131
aliwasaidia 131
ban@@ 131
Pwani 131
kungeweza 131
aliwekwa 131
Mfikirie 131
sumaku 131
ukahaba 131
viuavijasumu 131
nilifurahi 131
FUN@@ 131
unaamini 131
setilaiti 131
mapipa 131
huwakilisha 131
watambue 131
ishio 131
amano 131
akaz@@ 131
ingira 131
ano@@ 131
wameambukizwa 131
kuponywa 131
kukaribisha 131
Nad@@ 131
angi 131
akifa 131
iliitwa 131
akampa 131
kitani 131
alikosa 131
nilitamani 131
mapumziko 131
chin@@ 131
Mahitaji 131
alikaa 131
Sunday 131
unazidi 131
yanapatana 131
kusukuma 131
kuwajua 131
lilivyo 131
ametupa 131
kusaid@@ 130
peper@@ 130
yajuli@@ 130
ikweta 130
kidimbwi 130
alimwandikia 130
kumny@@ 130
500,000 130
ut 130
yavyo 130
GU 130
inayohusu 130
nilipoanza 130
unaotokana 130
ikiswa 130
Aliona 130
umi@@ 130
wajinga 130
uchu@@ 130
ondosha 130
huitikia 130
Mavazi 130
Eric 130
1962 130
kurekodi 130
nasaba 130
matupu 130
Mesopotamia 130
kupigia 130
mye@@ 130
wajitahidi 130
ulioandikwa 130
1963 130
Kusali 130
YANGU 130
wasaidizi 130
ukwa 130
alipinga 130
ameni@@ 130
MAR@@ 130
Talmud 130
wach@@ 130
tulizo@@ 130
atusaidie 130
hutembea 130
amshwa 130
changanyiko 130
lig@@ 130
ikif@@ 130
Ukuta 130
Albania 130
Rumania 130
kombolewa 130
waongoza 130
lililofuata 130
kuungama 130
kupambanua 130
akabiliana 130
endayo 130
umiliana 130
onyoka 130
ishughulisha 130
chimbwa 130
wategemeza 129
elektroni 129
nilitumia 129
itendea 129
Kutambua 129
nilisoma 129
unaol@@ 129
kunung’unika 129
kio 129
Vietnam 129
Mwamuzi 129
kukomboa 129
mwanaye 129
kuwapongeza 129
Twasoma 129
zaana 129
muhula 129
br@@ 129
changamana 129
sikitikia 129
hupewa 129
Milton 129
Mwe@@ 129
è@@ 129
Miradi 129
lozi 129
iumba 129
ster 129
msafiri 129
West 129
yeyushwa 129
angekufa 129
watesa 129
onyaji 129
aonyesha 129
Mbinguni 129
HAR@@ 129
akamua 129
burudisho 129
mauzo 129
lilia 129
engwe 129
atap@@ 129
watun@@ 129
some 129
angazi 129
kiza 129
ise 129
ugu@@ 129
epukika 129
Uru 129
takikana 129
itembelea 129
leseni 129
Mashua 129
nta 129
kutu 129
puliziwa 129
ikaribia 129
Makuhani 129
kuchomwa 129
KAR@@ 129
Esia 129
wanaoji@@ 129
dhati 129
unaopungua 129
ivuta 129
Yosefo 129
INA 129
kuoza 129
kem@@ 129
Utakuwa 129
hirizi 129
Wakaaji 129
Inas@@ 129
idhibiti 129
kufunguliwa 129
utata 129
kuzima 129
Vib@@ 128
awanyika 128
kujibiwa 128
ukanda 128
kunaonyesha 128
miali 128
shati 128
vinapo@@ 128
pepeo 128
Ap@@ 128
Walifanya 128
hufafanua 128
mizunguko 128
Hol@@ 128
rembo 128
kurusha 128
sawazika 128
kutengana 128
Zaire 128
waliokomaa 128
nikisoma 128
hihaki 128
kumwita 128
stediamu 128
Nilijaribu 128
kuchekesha 128
okoe 128
KUS@@ 128
Ng’@@ 128
kuimarishwa 128
mkimb@@ 128
hisani 128
Tambua 128
Salama 128
ł@@ 128
Ubongo 128
1967 128
tulienda 128
itawishwa 128
aguliwa 128
haito@@ 128
Kad@@ 128
Dor@@ 128
usanii 128
Kosta 128
Rika 128
alijulikana 128
ín 128
eremani 128
kuiacha 128
noti 128
achukia 128
1800 128
asiasa 128
Chombo 128
kube@@ 128
hutazama 128
kish@@ 128
EF@@ 128
twende 128
Royal 128
Sarah 128
yaliyosemwa 128
marundo 128
lilifanywa 128
inafunua 128
kihukumu 128
majuto 128
ifaidi 128
Kolombia 128
mwekundu 128
ingiwa 128
taasisi 128
ziona 128
mpotevu 128
Alimwambia 127
ashind@@ 127
itumiwe 127
liwa 127
njugu 127
kadirio 127
usiozidi 127
akao@@ 127
kikao 127
mijini 127
Mwang@@ 127
kufadhaika 127
hulala 127
Msimamo 127
Talaka 127
iliyotajwa 127
umaji 127
ikiaje 127
hasha 127
koa 127
kifumbo 127
ly@@ 127
Dumisha 127
itahubiriwa 127
unatumia 127
akati 127
uruma 127
funzi 127
ilipatikana 127
fe@@ 127
sis@@ 127
mizungu 127
utumi@@ 127
changany@@ 127
ongamana 127
han@@ 127
Sali 127
ndizi 127
inapatana 127
huchukia 127
Mioyo 127
kamilishwa 127
kumfariji 127
alipokuja 127
huimarisha 127
mianzi 127
Liki@@ 127
kutofautiana 127
Ele@@ 127
Guardian 127
hihakiwa 127
gaidi 127
teswa 127
190@@ 127
Usawaziko 127
Kompyuta 127
naona 127
Waajemi 127
inges@@ 127
Wac@@ 127
elala 127
kuteka 127
bas@@ 127
fic@@ 127
uzeeni 127
aibisha 127
wakili@@ 127
tuliishi 127
washi@@ 127
Kaburi 127
kifuniko 127
ve 127
Gogu 127
ubani 127
nadhifu 127
Vizuri 126
itunza 126
umepita 126
Pata 126
AND@@ 126
uvumi 126
Andes 126
ushiriki 126
walimwona 126
mitambo 126
ucha@@ 126
wai@@ 126
makumbusho 126
kinachohitajiwa 126
mwezesha 126
matone 126
Arabia 126
Telegraph 126
makasia 126
Tutachunguza 126
echaguliwa 126
toe 126
wandikia 126
lipuka 126
kutusaidiaje 126
anti 126
Walisema 126
wapende 126
rembesha 126
tunakabili 126
unaohitajiwa 126
mto@@ 126
Rehema 126
zuizi 126
nimeona 126
hambulizi 126
ashiri 126
hutuchochea 126
amempa 126
waliopata 126
wanashule 126
malalamiko 126
kta 126
unzwa 126
Wanahistoria 126
igamba 126
Jehovah’s 126
mrithi 126
aksi 126
kutiana 126
zinapatikana 126
LO@@ 126
kusiwe 126
mavumbini 126
dhuluma 126
elewana 126
wekee 126
anatupenda 126
lililoonwa 126
dio 126
Ninakumbuka 126
walipa 126
gawia 126
stahimilivu 126
ithibit@@ 126
pro@@ 126
kuchapa 126
Makutaniko 126
kutakaswa 126
ace 126
im 126
ushupavu 126
ilo@@ 126
abadili@@ 126
kuwatumia 125
alipa 125
yapo 125
wachawi 125
Ndoto 125
ganzi 125
alifaulu 125
niji@@ 125
1959 125
ushuru 125
yanayofanana 125
kuwafanyia 125
alipofika 125
Itikio 125
fuatilia 125
watazama 125
ishang@@ 125
elekee 125
ass@@ 125
Alitu@@ 125
ongozwe 125
alisimulia 125
utakayo@@ 125
anzaje 125
hayapat@@ 125
Ju@@ 125
Janeiro 125
majimaji 125
akisali 125
Usiogope 125
wamesimama 125
chomoza 125
zazi 125
kuandikia 125
meka 125
yalitukia 125
ilini@@ 125
wakar@@ 125
ikaribisha 125
virutub@@ 125
Wahu@@ 125
ificha 125
Yah 125
Nilisoma 125
Lab@@ 125
Nitam@@ 125
kupimwa 125
induliwa 125
yanayofuata 125
hakup@@ 125
zeka 125
Kushiriki 125
mnene 125
echu@@ 125
ukaona 125
Mwenyewe 125
huwapata 125
Helen 125
Oxford 125
Kuongezea 125
Umaskini 125
kufany@@ 125
Quebec 125
Sab@@ 125
onana 125
kutulinda 124
aliwaumba 124
Akizungumza 124
igania 124
hupaswi 124
pangu 124
Reli 124
aliyezeeka 124
kukandamiza 124
udhalimu 124
ULIMWEN@@ 124
sungura 124
Tunajuaje 124
Ambao 124
tend@@ 124
utakapokuja 124
lilijengwa 124
dokezo 124
kijito 124
North 124
Creation 124
MAN@@ 124
tropiki 124
MATHAYO 124
ikaja 124
Usio 124
hujibu 124
fomu 124
Tribune 124
ulitolewa 124
UP@@ 124
State 124
anaongeza 124
ir 124
juzi 124
hichohicho 124
Fred 124
zazo 124
maksi 124
insha 124
maf@@ 124
Witnesses 124
Pontio 124
Flp 124
mashambulio 124
pete 124
Apo@@ 124
Ram@@ 124
tulisafiri 124
Kuwasaidia 124
kumlaumu 124
kichi 124
tulihamia 124
nahisi 124
kupe@@ 124
halo 124
Anne 124
zinazotolewa 124
Juli@@ 124
ishana 124
alipozaliwa 124
kujifunzia 124
mchezaji 124
huzaliwa 124
wanapom@@ 124
hung’@@ 124
upaji 124
wanatiwa 124
tunayopaswa 124
Lit@@ 124
yuleyule 124
Cro@@ 124
avumilia 124
Kudumu 124
Hul@@ 124
abibu 124
alituambia 124
Alimw@@ 124
atawapa 123
huondoa 123
huanguka 123
wakafa 123
wanashiriki 123
iita 123
ambaza 123
ogeza 123
asikia 123
Ingekuwa 123
engene@@ 123
kifu@@ 123
uuzaji 123
kicheko 123
blanketi 123
makinda 123
hayuko 123
kuyaona 123
waliowa@@ 123
kushughulikiwa 123
wanapop@@ 123
ifuate 123
kudhabihu 123
ogop@@ 123
kuwaletea 123
lapasa 123
í 123
Onyo 123
pendelea 123
mus@@ 123
tegemee 123
ongozi 123
ahirisha 123
kufarijiwa 123
yafu@@ 123
Mwamba 123
Usiruhusu 123
atakayo@@ 123
niliji@@ 123
Alikubali 123
okrasia 123
mujibu 123
lemavu 123
echukuliwa 123
kukomaa 123
Hans 123
Bi@@ 123
kutuzuia 123
kukokotwa 123
haria 123
Wamas@@ 123
umbayumba 123
tabenakulo 123
kusameheana 123
tunafurahia 123
iweka 123
walitia 123
kumbe 122
inayojulikana 122
hawapendi 122
ichukue 122
Juan 122
Kingdom 122
Tendo 122
ikiendelea 122
pende 122
vijitabu 122
Ari@@ 122
aboresha 122
ilihusisha 122
ezo 122
tovuti 122
kutukuza 122
tulipokea 122
Benin 122
Listra 122
kona 122
alfabeti 122
nikapata 122
nilipaswa 122
Kon@@ 122
Bro@@ 122
Wad@@ 122
mtupu 122
jifungua 122
nukuu 122
kap@@ 122
bafu 122
husishe 122
shahawa 122
zidisha 122
rasilimali 122
ISH@@ 122
mtiririko 122
igaje 122
mwingilio 122
andike 122
imepungua 122
jip@@ 122
uliendelea 122
wanakufa 122
Fulizeni 122
kutakuwako 122
ampu 122
Geographic 122
magamba 122
alishiriki 122
ts@@ 122
asilia 122
RISTO 122
kilichofanya 122
40,000 122
teria 122
kukumbukwa 122
Jam@@ 122
wawezayo 122
MWAKA 122
Ondo@@ 122
akitaka 122
yempenda 122
walikaa 122
wasilisha 122
kikawa 122
kuoana 122
ick 122
Index 122
Hawat@@ 122
theokrasi 122
Im@@ 122
via 122
id 122
ikadi 122
Edward 122
ingewezekana 122
kusihi 122
tambuliwa 122
tutakavyoona 122
niligundua 122
kujieleza 121
mlikuwa 121
kutang@@ 121
SIKU 121
aliv@@ 121
vitunguu 121
hupendekeza 121
oruka 121
kugawanywa 121
yanayotumiwa 121
kukengeushwa 121
yoo@@ 121
UME 121
ISI 121
hogo 121
kutabasamu 121
iliyozoezwa 121
Fre@@ 121
umbuizo 121
minyoo 121
,0@@ 121
wanaotumikia 121
kuonyeshana 121
endeni 121
Kutii 121
kuyatumia 121
Agripa 121
mtaala 121
wamtumikie 121
masi 121
hala 121
Nilisali 121
malizwa 121
nat@@ 121
waandikia 121
gua 121
zilizoendelea 121
wanaoteseka 121
erithi 121
His@@ 121
italia 121
inget@@ 121
wanaokubali 121
kosekana 121
wachukue 121
igizaji 121
alinisaidia 121
Lililo 121
kule@@ 121
maasi 121
adhim@@ 121
tumefanya 121
wazie 121
wamehamia 121
HO@@ 121
Watiwa 121
zilizotajwa 121
kombe 121
ty 121
kuzaji 121
itibari 121
wango@@ 121
nilibatizwa 121
Shang@@ 121
iruka 121
Jiwe 121
Nikodemo 121
kuifuata 121
stesheni 121
kuwalazimisha 121
alipofanya 121
Baharini 121
unguo 121
imina 121
wamewahi 121
Waazteki 121
105 121
Somo 121
Gilead 121
walipinga 120
kiita 120
ushind@@ 120
SA@@ 120
kibofu 120
bur@@ 120
tes 120
nilihudhuria 120
uruga 120
ilitokea 120
itatusaidia 120
mtendaji 120
uchunguze 120
Hau@@ 120
Saiprasi 120
Myanmar 120
anaanza 120
ongano 120
2.5 120
yosha 120
ameacha 120
Wapendwa 120
akini@@ 120
ajiliwa 120
Art 120
wanaofuata 120
tuku@@ 120
ikimbia 120
Venice 120
mlezi 120
tumw@@ 120
kujifanyia 120
ueni 120
115 120
Simeoni 120
Ardhi 120
mahaba 120
harakisha 120
1966 120
kuagiza 120
walionwa 120
usimulizi 120
Kwake 120
badilisha 120
fanicha 120
zinazohusika 120
Riko 120
kitakatifu 120
linaeleza 120
afundisha 120
zinazotajwa 120
huwezesha 120
matundu 120
huweza 120
angiwa 120
so 120
usip@@ 120
imb@@ 120
anajaribu 120
kutetemeka 120
unawezaje 120
300,000 120
sijui 120
shelezwa 120
mshind@@ 120
kezea 120
hulipa 120
itayarishe 120
wanatumaini 119
fup@@ 119
ikifanya 119
inaahidi 119
unapata 119
nyaya 119
walitamani 119
matabiri 119
anguzi 119
zilizofanywa 119
rapu 119
hawajali 119
huonya 119
wathamini 119
litu@@ 119
nilivyokuwa 119
umeongezeka 119
yanakuwa 119
jas@@ 119
med@@ 119
idili 119
ninao@@ 119
jiv@@ 119
Dhahabu 119
ogea 119
utatuzi 119
Joe 119
ski 119
kubaliwe 119
kukisia 119
miv@@ 119
kisiwani 119
Hum@@ 119
karipio 119
zoeze 119
HIVI 119
Msitu 119
UG@@ 119
hesabia 119
tufani 119
ubini 119
wanaosema 119
watimize 119
kiviwanda 119
Nne 119
kushikwa 119
Rose 119
Babeli 119
AMANI 119
kitambo 119
pokewa 119
yanayohitajiwa 119
matabibu 119
wanaojitahidi 119
anavyohisi 119
hulumu 119
tutaendelea 119
aanisha 119
fuatana 119
ent 119
kuad@@ 119
bor@@ 119
ibisha 119
vivi 119
kokwa 119
kusomwa 119
alimsihi 119
elle 119
alipotoa 119
maandamano 119
mahojiano 119
Franz 119
kulazimisha 119
alikamatwa 119
kujeruhiwa 119
angekuja 119
KW@@ 119
140 119
tunahisi 119
pali@@ 119
ren 119
ilisi 118
mjinga 118
aliyekomaa 118
ait@@ 118
ulitumiwa 118
anaposema 118
Ubaguzi 118
ifanywe 118
ubuj@@ 118
kupooza 118
achana 118
kutoshea 118
well 118
lisil@@ 118
Msikiaji 118
iririka 118
wanaanza 118
1954 118
BR@@ 118
Ulio 118
Wachunguzi 118
utahitaji 118
ubwana 118
ovyo 118
kiv@@ 118
Zimbabwe 118
aruka 118
Center 118
anakuja 118
shang@@ 118
umua 118
mizito 118
kuponyoka 118
Mwaminifu 118
University 118
kawa 118
kuwaelimisha 118
asihi 118
alifungua 118
isemavyo 118
ikafaa 118
Kutumikia 118
viboko 118
inatuhakikishia 118
saruji 118
ABU 118
machinjo 118
elekezo 118
shtua 118
Matangazo 118
waliko@@ 118
Antaktika 118
suto 118
akachukua 118
kutane 118
aonya 118
mshi@@ 118
shamb@@ 118
nimek@@ 118
alilinganisha 118
MAREKANI 118
nie 118
Yak 118
Alan 118
matamu 118
usta@@ 118
vijijini 118
hunufaika 118
kumtoa 118
akitu@@ 118
ure@@ 118
ulitokeza 118
wamepokea 118
arida 117
Anajua 117
yasiyoweza 117
changanyikiwa 117
kwaza 117
asheria 117
shinikizwa 117
Kufikiria 117
kuijua 117
Krete 117
itoka 117
pazuri 117
kumchochea 117
Uongozao 117
milenia 117
del 117
popo 117
madaha 117
mchwa 117
Miujiza 117
igane 117
kusitasita 117
Tum@@ 117
ilivyosimuliwa 117
wakil@@ 117
hakupata 117
kei 117
miundo 117
ungamo 117
huwachochea 117
ongofu 117
sky 117
tuzunguka 117
asis@@ 117
sherehe@@ 117
ney 117
fautianaje 117
Venezuela 117
waathiri 117
KO 117
humwezesha 117
waliopewa 117
landi 117
kumfurahisha 117
wakionyesha 117
Wanabetheli 117
eseke 117
imuliwa 117
adha 117
Uzao 117
inzia 117
beri 117
1,200 117
gen 117
Pole 117
aliupenda 117
tumiaje 117
kosi 117
ingu 117
wini 117
omvi 117
safirisha 117
unaofanywa 117
utomvu 117
anuliwa 117
Mishonari 117
undua 117
ilimaanisha 117
kutekelezwa 117
yaliyotumiwa 117
washindi 117
yey@@ 117
imepigwa 117
bu@@ 117
anayependa 117
linapatana 116
Kisasa 116
tukitumia 116
kuota 116
kisigino 116
iliingia 116
kupasha 116
yamebadilika 116
imam@@ 116
Wakulima 116
Your 116
hawajapata 116
Sid@@ 116
kop@@ 116
hatup@@ 116
alikasirika 116
bat@@ 116
kumfanyia 116
vilivyomo 116
IKI 116
mwendes@@ 116
Marie 116
alinda 116
atimize 116
hapa@@ 116
bomba 116
imizo 116
aliyejiweka 116
wau@@ 116
wafahamu 116
Msiwe 116
angukia 116
hihir@@ 116
Joto 116
Lanka 116
yanayojulikana 116
kusubiri 116
1900 116
furika 116
sumbuliwa 116
ase 116
Tangazo 116
wametiwa 116
wazuia 116
Kuta@@ 116
zilionyesha 116
ST@@ 116
akijiji 116
Vichapo 116
Mno 116
msherehekeo 116
safirishwa 116
kubishana 116
ishani 116
misukosuko 116
huny@@ 116
hawaelewi 116
alifika 116
washukuru 116
kiajabu 116
tumbili 116
afanyiza 116
kushuku 116
tulifurahia 116
Wastani 116
kunifanya 116
les 116
chia 116
litakaswe 116
Kukubali 116
mim@@ 116
ghala 116
Kodeksi 116
tutaweza 116
Kwenda 116
mich@@ 116
wanaob@@ 116
walichagua 116
mhariri 115
mizinga 115
izwe 115
kasuku 115
thibitishia 115
mabasi 115
kemea 115
ros@@ 115
kuwaalika 115
ISHO 115
ige@@ 115
cher 115
zilitolewa 115
Ufafanuzi 115
Usingizi 115
ondoshwa 115
’s 115
vinavyotegemea 115
yen@@ 115
kujipamba 115
Mabaki 115
linalom@@ 115
ujua 115
Dan 115
wanampenda 115
lataarifu 115
15,000 115
mfany@@ 115
ker@@ 115
itaj@@ 115
Maporomoko 115
enn@@ 115
wachi@@ 115
Sri 115
staafu 115
tuelewe 115
Kuvuta 115
inakaribia 115
bata 115
Newton 115
ogopi 115
aliyopata 115
kiliwa 115
pumu 115
alitokeza 115
juana 115
tuliyokuwa 115
alilia 115
kutatuliwa 115
Kizazi 115
kuachana 115
unavyohisi 115
majeruhi 115
hutii 115
zisha 115
sw 115
julishe 115
Hup@@ 115
mwandiko 115
atenda 115
isiyoonekana 115
ombolezo 115
kunguru 115
uache 115
linatokana 115
Mordekai 115
unaohusu 115
kusafishwa 115
Rob@@ 115
wanazidi 115
kustarehe 115
ayarisha 115
ME 115
pap@@ 115
230 115
wakijifunza 115
Changu 115
aliwapenda 115
Darasa 115
Inge@@ 115
all 115
bakuli 115
hangazwa 115
kupunguzwa 115
Madokezo 115
linaonekana 115
Bl@@ 115
ayarishwa 115
echi@@ 115
Jack 115
IKIWA 115
kujizoeza 115
Upepo 115
tusipo@@ 114
msu@@ 114
bebwa 114
alielekeza 114
washi 114
aliumbwa 114
wadhihaki 114
kezaji 114
Sijui 114
Karl 114
alisisitiza 114
alamu 114
Masha@@ 114
imarishe 114
mikopo 114
wasitawishe 114
King@@ 114
yatua 114
haramia 114
epe 114
asiyet@@ 114
itam@@ 114
maharagwe 114
yanaendelea 114
iliyomwagwa 114
saiklopedia 114
hutengeneza 114
Ly@@ 114
kinachofanya 114
Pictures 114
ek 114
ami 114
waraibu 114
ans 114
ongojea 114
oi 114
iniki@@ 114
umbufu 114
mtambo 114
met@@ 114
Gal@@ 114
niku@@ 114
kunakili 114
kudha@@ 114
kiziwi 114
Ulinzi 114
chokoleti 114
akad@@ 114
ishaniwa 114
fanyeni 114
oo 114
ulitia 114
tulihitaji 114
Giza 114
mzuia 114
walipenda 114
zani 114
jiografia 114
singe@@ 114
ufi 114
misongo 114
tawanyika 114
utiwe 114
tutambue 114
thiri 114
ansi 114
lilitokeza 114
mapana 114
awezavyo 114
ujanani 114
jamhuri 114
kudanganywa 114
ongezeke 114
kuwauliza 114
Unapokuwa 114
kuchan@@ 114
AMU 114
aonelea 114
ikawa@@ 114
lalo 114
kilisema 114
ikisika 114
timilifu 114
jiendesha 114
1,600 114
usiop@@ 114
umbu 114
teuliwa 114
alinukuu 114
Imara 113
ila@@ 113
remb@@ 113
sabato 113
Gabrieli 113
Box 113
msha@@ 113
walemavu 113
simamisha 113
pesi 113
bre@@ 113
kums@@ 113
nikitumia 113
Wareno 113
Ex@@ 113
pendekezo 113
afikiana 113
zilitia 113
zingekuwa 113
wavun@@ 113
nawaambia 113
Vil@@ 113
Mmarekani 113
dafu 113
twaishi 113
Kusafiri 113
unatamani 113
siki@@ 113
hamie 113
msononeko 113
Njoni 113
urugwa 113
kupitishwa 113
our@@ 113
apendeza 113
wanaoenda 113
echochewa 113
kamilisha 113
minyoofu 113
________ 113
hisiamoyo 113
Isiyo@@ 113
Yese 113
yn 113
nyani 113
unaotumiwa 113
anawapa 113
huhudhuria 113
Thawabu 113
omoa 113
empenda 113
kujishusha 113
abarikiwa 113
Kamp@@ 113
kuchangamana 113
wanaomtafuta 113
Tetragramatoni 113
umii 113
kuyap@@ 113
kuwatazama 113
changwa 113
hazito@@ 113
DA@@ 113
wageuzwa 113
Usis@@ 113
mawakili 113
VIT@@ 113
mtunzaji 113
her@@ 113
itakavyo@@ 113
teg@@ 113
Visa 113
tusit@@ 113
halingekuwa 113
UF@@ 113
kumngojea 113
kuambiwa 113
ence 113
Vielelezo 113
Nilipom@@ 113
awi 113
kikawaida 113
hujui 113
saidi 113
msikilizaji 113
kokote 113
hakit@@ 113
tus 113
ington 113
ett 112
peremende 112
Rom@@ 112
toshana 112
habihu 112
alihamia 112
Vulgate 112
imaji 112
ahamu 112
Angola 112
tan 112
mwanajeshi 112
waliozoezwa 112
Benki 112
Mr@@ 112
sheka 112
lisilop@@ 112
1969 112
Shuleni 112
fundo 112
motoni 112
lap@@ 112
zinas@@ 112
Yuko 112
kuletwa 112
usho 112
1968 112
uteng@@ 112
Thel@@ 112
Simu 112
kimalaika 112
yanayosemwa 112
Lik@@ 112
Ninashukuru 112
gombana 112
makahaba 112
Uislamu 112
Unajua 112
unahusisha 112
som@@ 112
onek@@ 112
kujib@@ 112
pigana 112
Wakomunisti 112
kumeza 112
itukuza 112
Harani 112
wamepatwa 112
asimama 112
huruka 112
WEWE 112
ingani 112
tawaliwa 112
hubadili 112
Kiislamu 112
yang@@ 112
Kris@@ 112
humpa 112
Majira 112
yarishaji 112
Ninahisi 112
Maskini 112
mtunza 112
Cook 112
Australian 112
wemo 112
anapop@@ 112
Daraja 112
anazo@@ 112
Maziwa 112
ía 112
idhinisha 112
ant 112
eksirei 112
itoke 112
itudo 112
Mashine 112
waliovunjika 112
hon@@ 112
haipaswi 112
mwandam@@ 111
Haz@@ 111
Anga 111
angetaka 111
zinazof@@ 111
Tulipofika 111
Watawala 111
potambua 111
aliyekuja 111
alituma 111
rudishia 111
wasiotaka 111
saumu 111
Dominika 111
Wavulana 111
Harvard 111
lov@@ 111
Ndiye 111
vilivyotengenezwa 111
ipendeza 111
konde 111
kusababishwa 111
KUTO@@ 111
yalitia 111
kuhara 111
uponyaji 111
ojea 111
baa 111
anani@@ 111
Atak@@ 111
kudokeza 111
afuatwa 111
eb@@ 111
kisehemu 111
Tor@@ 111
wamej@@ 111
Manyoya 111
Mashauri 111
Utajiri 111
Tumb@@ 111
ide 111
somwa 111
irikia 111
Kutenda 111
Sigareti 111
gonga 111
Zilizo@@ 111
kutek@@ 111
yanayowapata 111
nilipom@@ 111
Mont@@ 111
uvi@@ 111
yaliyowapata 111
ongozayo 111
Raia 111
AYA 111
kutumiaje 111
Christopher 111
haingekuwa 111
Kuvumilia 111
mer 111
kubadilikana 111
wakizungumza 111
Mwema 111
Ud@@ 111
nil@@ 111
kijiti 111
kufafanuliwa 111
erem@@ 111
Fran@@ 111
Kayafa 111
ichoma 111
umini 111
wamefikia 111
vuma 111
mwanatheolojia 111
tim@@ 111
Ukombozi 111
avi@@ 111
walitafuta 111
lis 111
ungep@@ 111
kupongezwa 111
akaunti 110
hisisha 110
zeo 110
watafute 110
etee 110
ungue 110
aanza 110
yanayofanya 110
wakienda 110
kuwapiga 110
usukaputi 110
Bre@@ 110
DE@@ 110
Tek@@ 110
inayoonekana 110
Kule 110
KILA 110
nilirudi 110
Mmea 110
Amoni 110
umeanza 110
alitii 110
batiza 110
ikizwa 110
wakwe 110
elementi 110
kujifaidi 110
pukizi 110
watap@@ 110
win 110
nazi 110
hayohayo 110
Justin 110
nilijaribu 110
amefungwa 110
Petersburg 110
kujiruzuku 110
haribiwe 110
ulivyokuwa 110
maalum 110
waliofiwa 110
nikaamua 110
wasemaji 110
ón 110
hujit@@ 110
Uni@@ 110
wanaelewa 110
uzaji 110
mabega 110
Msalaba 110
awape 110
anazungumza 110
elekwe 110
ela@@ 110
Sahara 110
kimekuwa 110
boreshwa 110
wasiokuwa 110
kauri 110
zif@@ 110
Ninge@@ 110
vyenu 110
Tob@@ 110
kuwabariki 110
juani 110
mayowe 110
mbawakawa 110
uriana 110
apor@@ 110
ipatia 110
kuripoti 110
lav@@ 110
ger 110
alimtolea 110
hawakuelewa 110
Os@@ 110
Uvumbuzi 110
esh@@ 110
Kucheza 110
ukufu 110
iro 110
Inasema 109
Len@@ 109
waliambiwa 109
wauaji 109
irudisha 109
Old 109
nyo@@ 109
wataona 109
walikamatwa 109
kuzwe 109
iga@@ 109
mwana@@ 109
Tunam@@ 109
amsaidie 109
Kuhifadhi 109
waliondoka 109
hakikishe 109
wanafurahi 109
hutegemeza 109
husha 109
kupendekeza 109
Sta@@ 109
ungef@@ 109
Jangwa 109
Yali@@ 109
leg@@ 109
amshukuru 109
Bikira 109
ons 109
angulizi 109
tufuate 109
ell@@ 109
Brian 109
ole@@ 109
jum@@ 109
ajenga 109
Bor@@ 109
sadikisha 109
kuchang@@ 109
anatuambia 109
Niliendelea 109
ibidi 109
igwe 109
keapo 109
zini 109
kamanda 109
uruju@@ 109
likana 109
anatajwa 109
din@@ 109
vipenzi 109
nyua 109
ibia 109
ajengwa 109
waliumbwa 109
✔ 109
ung’@@ 109
Vig@@ 109
Sandra 109
aliripoti 109
Barry 109
lifuatalo 109
likasema 109
Gavana 109
mpigo 109
uua 109
haijulikani 109
wanakadiria 109
wafe 109
han 109
aonyeshe 109
Rub@@ 109
laani 109
kabati 109
mzeituni 109
hutumikia 109
Ca@@ 109
kuwaandikia 109
ur 109
ashukuru 109
tos 109
ongana 109
ishawishi 109
Alikufa 109
Furahia 109
walisha 109
tes@@ 109
→ 109
alimtia 109
inyima 109
afananishwa 109
kupikia 109
patanisha 109
7.@@ 109
dhoofika 109
Tunashukuru 109
akamilika 109
kipi 109
ataleta 109
537 109
kig@@ 108
Pat@@ 108
afi 108
tangaz@@ 108
hisha 108
angoni 108
penginepo 108
ilipaswa 108
Kij@@ 108
cia 108
karipia 108
haitakuwa 108
fanikisha 108
Kupunguza 108
huuzwa 108
angushwa 108
Fidia 108
mwiba 108
utekwa 108
alimf@@ 108
mor@@ 108
unaitwa 108
itasita 108
vifaranga 108
kusaga 108
kunenepa 108
kuwawekea 108
kutumain@@ 108
nitakapo@@ 108
kujitambulisha 108
kinanda 108
inayokubalika 108
oumbwa 108
kulinisaidia 108
tel@@ 108
umari 108
shtu@@ 108
wamekusanyika 108
kutangulizwa 108
kusomea 108
Nakala 108
hiana 108
ikap@@ 108
yataf@@ 108
wakahitaji 108
Kibab@@ 108
ukaidi 108
kustaafu 108
ifuni 108
Bak@@ 108
Kutazama 108
Jonathan 108
sentimita 108
orwa 108
amishwa 108
ny 108
huelekeza 108
Aliniambia 108
hawam@@ 108
unaofuata 108
amezaliwa 108
ulion@@ 108
uvamizi 108
ulaghai 108
kuwahukumu 108
tulitumia 108
mahala 108
liliendelea 108
yeyusha 108
bajeti 108
Aliongeza 108
alipowaambia 108
mtoni 108
uto 108
wanaotoa 108
kufiwa 108
Kufundisha 108
Kab@@ 108
avuta 108
hakikuwa 108
iliyoahidiwa 108
Sayari 108
tsunami 108
tulicho@@ 108
wachambuzi 108
fuga 108
Anthony 108
Farisayo 108
kuthaminiwa 107
chezwa 107
pilipili 107
Inatia 107
lafaa 107
kutazamiwa 107
Yenu 107
mkoba 107
Yasi@@ 107
atakuja 107
kutungwa 107
nilikubali 107
Akis@@ 107
mwe 107
Tiro 107
mchele 107
maza 107
1937 107
vimet@@ 107
yanayotokea 107
kufyonza 107
Ninamshukuru 107
ikataa 107
patwe 107
husta@@ 107
ndevu 107
D.C 107
usifanye 107
wakabili 107
aliandikia 107
AN 107
Kolosai 107
wahusika 107
mataraja 107
imbo 107
atuwezesha 107
ubi 107
adilika 107
INA@@ 107
aliniuliza 107
wachunguzi 107
elektroniki 107
yamejaa 107
fag@@ 107
kupotea 107
Nimejifunza 107
kuondosha 107
Uzito 107
kifahari 107
tukuzwa 107
aona 107
hayap@@ 107
ninafanya 107
wamuru 107
zano 107
wajib@@ 107
nilijiunga 107
ninalo@@ 107
kuwadhuru 107
elezeka 107
andikiwa 107
kuuz@@ 107
iweze 107
kumtambua 107
yemjua 107
kudhamiria 107
makamilifu 107
Sir 107
jino 107
isadi 107
ekabili 107
pinda 107
Sinema 107
haoni 107
jitu 107
zalo 107
ampendeza 107
akieleza 107
photo 107
pembeni 107
Bulgaria 107
Misitu 107
ungwe 107
waheshimu 107
ifunza 107
ukaanza 107
Utu 107
alimika 107
sikiwa 107
wateseke 107
Gra@@ 106
hamika 106
Prisila 106
walifunga 106
unzi 106
tusitawishe 106
kuthibitishwa 106
yanayosababisha 106
MIAKA 106
Uasi 106
hakikishwa 106
watakavyo@@ 106
WALI@@ 106
kunjwa 106
shwari 106
ninakumbuka 106
ulip@@ 106
aliwaonyesha 106
der 106
est 106
kindugu 106
wakitembea 106
kumsikia 106
wezapo 106
hin@@ 106
waigaji 106
inisha 106
Anania 106
ikeni 106
itwa@@ 106
ulafi 106
WAS@@ 106
Vy@@ 106
hor@@ 106
iliwekwa 106
lililoje 106
Tulifanya 106
wagoni 106
Maadamu 106
mwindaji 106
Ushirikiano 106
kunyamaza 106
Wa 106
ishike 106
aminiana 106
irie 106
niliye@@ 106
vuna 106
kujaribiwa 106
uvum@@ 106
ez 106
tee 106
tudumishe 106
using@@ 106
kafeini 106
lisilowezekana 106
kisingizio 106
Upinzani 106
anapofanya 106
hatutaki 106
akiliwa 106
uliongezeka 106
eti@@ 106
unguzi 106
Virginia 106
mte@@ 106
kuchoko@@ 106
inike 106
Chenye 106
kumwang@@ 106
asia 106
Tuwe 106
husikia 106
Scott 106
ionyeshwavyo 106
uliofanyiwa 106
akija 106
IC@@ 106
wameweza 106
hayaf@@ 106
Gal 106
anisaidia 106
Utimizo 106
iwayo 106
Cy@@ 106
kuabudiwa 106
Inafurahisha 106
akil@@ 106
hau 106
buu 106
roboti 106
wakaamua 106
Hai 106
kilichowekwa 106
waoko@@ 106
nilipelekwa 106
ukawa@@ 106
X 106
utekaji 106
kuwaimarisha 105
Th@@ 105
ziliandikwa 105
engeushwa 105
inayolingana 105
haviwezi 105
waokolewe 105
tokwa 105
ufurahie 105
ese 105
Geneva 105
zinaonekana 105
eruhusu 105
akienda 105
Barbara 105
kuihusu 105
Bon@@ 105
wapweke 105
afunuliwa 105
huboresha 105
Kol 105
maponyo 105
Gestapo 105
Wakimbizi 105
kutengenezea 105
ENG@@ 105
kengeusha 105
wananchi 105
aliwas@@ 105
misionari 105
kulimaanisha 105
kiwambo 105
eng’enya 105
ondolee 105
mnono 105
keza 105
Wakfu 105
Alps 105
WE 105
weni 105
viwavi 105
waingie 105
pipa 105
ingamizi 105
ikisema 105
hiv@@ 105
wanaokabili 105
milimeta 105
wakafikiri 105
misumari 105
ilipita 105
ninaona 105
ing’in@@ 105
walioshuka 105
vichezeo 105
Wapiga 105
tunafurahi 105
unaof@@ 105
Hen@@ 105
ilizidi 105
alims@@ 105
UMB@@ 105
hamjui 105
Chapa 105
wanavyofanya 105
ray 105
walikula 105
kurahisisha 105
kunaswa 105
hakuacha 105
haingeweza 105
magendo 105
Tulifurahi 105
Kupiga 105
panapo@@ 105
Lar@@ 105
MNAMO 105
tairi 105
Mikono 105
ajibiwa 105
wanaotembea 105
vikumbusha 105
far@@ 105
atio 105
fia 105
udumifu 105
ajwi 105
huzidi 105
pofusha 105
utegeme@@ 105
ameji@@ 105
kimbunga 105
madukani 105
ONG@@ 105
itishia 105
yatoa 105
kuzama 105
kuhuzunika 105
Zetu 105
alifikia 105
Wo@@ 105
gund@@ 105
Panos 105
magaidi 105
latia 104
watek@@ 104
tunatamani 104
kiamsha 104
ajuli@@ 104
Ay@@ 104
kitakuwa 104
Ndio 104
kufuga 104
alifungwa 104
utukuzo 104
mana 104
kunyanyaswa 104
farakano 104
yaliyofuata 104
Che@@ 104
umbuzi 104
sti 104
havit@@ 104
alirejezea 104
kushutumu 104
karani 104
Lako 104
kisoma 104
mrija 104
kigugumizi 104
zil@@ 104
chinjwa 104
Mazuri 104
hakungekuwa 104
kota 104
finy@@ 104
EP@@ 104
wastahili 104
ase@@ 104
Mshauri 104
Upat@@ 104
Mike 104
itaf@@ 104
wakusany@@ 104
iliyosema 104
kujif@@ 104
utaleta 104
waseme 104
alimwonyesha 104
uhakikishio 104
wanaohusika 104
www.@@ 104
orojo 104
kujivunia 104
ndogondogo 104
kikiki 104
abiso 104
hori 104
Tunda 104
kutafuna 104
HISTORIA 104
Mtindo 104
KUFANYA 104
huwaona 104
waliitwa 104
Meksiko 104
ustralia 104
nilivutiwa 104
huuliza 104
atilia 104
Brown 104
iweje 104
UZI 104
Utii 104
Rec@@ 104
isumbua 104
alifunga 104
iriwe 104
amiwa 104
usaf@@ 104
peperushwa 104
ukapo 104
waliod@@ 104
dosari 104
izini 104
zilizom@@ 104
Madagaska 104
ilitoka 103
utakaa 103
Shar@@ 103
kontinenti 103
kwama 103
azamie 103
alfajiri 103
imetumiwa 103
eseko 103
kujamiiana 103
Lloyd 103
alitembea 103
Kizio 103
Kukumbuka 103
mafarakano 103
des 103
watambua 103
Moshi 103
ks 103
uand@@ 103
yalitokea 103
9,@@ 103
kuaminika 103
wanakosa 103
chwa 103
achiwa 103
Santa 103
angetumia 103
Pas@@ 103
Utapata 103
UKU@@ 103
inayotumika 103
ukandamizaji 103
wand@@ 103
linatoa 103
angeli@@ 103
Joel 103
halalisha 103
unuzi 103
du@@ 103
ang’amua 103
kujivuna 103
1977 103
kugharimu 103
umio 103
Masadukayo 103
Mkat@@ 103
toto 103
inathibitisha 103
mikuki 103
avyon@@ 103
kilishi 103
ile@@ 103
kukinga 103
itakavyokuwa 103
Sel@@ 103
wamefungwa 103
uhusi@@ 103
ametumikia 103
wanaogopa 103
Tony 103
utangazaji 103
Nam@@ 103
matamshi 103
fichika 103
inaonya 103
vikusanyiko 103
udhiwa 103
twaa 103
kutiliwa 103
walipop@@ 103
walipofika 103
rejezewa 103
waon@@ 103
kijuu 103
Uchafuzi 103
wanaoshiriki 103
alipelekwa 103
Mchanga 103
jee 103
zisizop@@ 103
Ferdinand 103
kutenganishwa 103
RI@@ 103
tor 103
Tulipata 103
Skandinavia 103
ukimya 103
Wakili 103
imem@@ 103
waliitikiaje 103
linalofanya 103
.com 103
unapom@@ 103
Kusitawisha 103
kimabavu 103
ashiriki 103
ameshuka 103
uzoelevu 103
kuita 103
Italiki 103
Maishani 103
akiv@@ 103
kufura@@ 103
HA 103
Sanaa 103
inapop@@ 103
atachukua 102
Nje 102
aliyojifunza 102
asaji 102
kunitia 102
yanapotokea 102
lililotolewa 102
I.B.S.A 102
kuliwe 102
mitaro 102
Sita 102
Subira 102
kimet@@ 102
kujitawala 102
riba 102
Kut 102
ADI 102
hupinga 102
180 102
anapoona 102
tuka 102
itiishe 102
Wakanada 102
Maagizo 102
kubebea 102
Wamor@@ 102
kikuhani 102
anyo 102
wamt@@ 102
mwengu 102
unaanza 102
aghai 102
watende@@ 102
kukan@@ 102
yaliendelea 102
umivu 102
Chekoslovakia 102
yanayoonekana 102
song@@ 102
Nadharia 102
Nusu 102
Tetemeko 102
For@@ 102
kusafirishwa 102
isidi 102
Meno 102
hiriwa 102
Hamani 102
kurithi 102
kuwaza 102
elekezi 102
wanatazamia 102
kulewa 102
nililazimika 102
Tufanye 102
hawakufanya 102
eleki 102
ajisi 102
kuhimiza 102
Wahudumu 102
ung 102
yaliyopuliziwa 102
mkafanye 102
NILIZALIWA 102
ateri 102
ibariki 102
kuumia 102
waitwao 102
kimaandiko 102
elekeana 102
Johannesburg 102
ikim@@ 102
Umedi 102
hakuona 102
nimewahi 102
DI@@ 102
waliwekwa 102
kesha 102
atufanya 102
alifahamu 102
niliokuwa 102
yanafaa 102
hais@@ 102
tunamoishi 102
watunzaji 102
ombole@@ 102
kumbi 102
Ann@@ 102
Ubuni 102
1964 102
asukumwa 102
vikapu 102
kupum@@ 102
sifai 102
umwag@@ 102
Steve 101
kuwashinda 101
kulipuka 101
pewe 101
uliyemtuma 101
huzunishwa 101
wapendeza 101
Nilimwambia 101
wesha 101
cheti 101
ikab@@ 101
fin@@ 101
chu 101
Gary 101
kumwongoza 101
Alzheimer 101
husemwa 101
odumu 101
Kiburi 101
lava 101
vifaru 101
siagi 101
FA 101
yataarifu 101
amali@@ 101
kimo@@ 101
URI 101
minyororo 101
yanayoitwa 101
unapop@@ 101
Vol@@ 101
1513 101
sumb@@ 101
utio 101
amuriwa 101
afishwa 101
achunguza 101
ukin@@ 101
kuinuka 101
elezaje 101
ataishi 101
bundi 101
ful@@ 101
zusha 101
anatimiza 101
ithibitisha 101
kurudiwa 101
kuziba 101
zimewekwa 101
ichi 101
huvumilia 101
Simba 101
saf@@ 101
| 101
vumbuliwa 101
WENYE 101
ghafla 101
huvunja 101
niendelee 101
tea 101
ben@@ 101
Cape 101
Ufan@@ 101
Kuchagua 101
Ufundishaji 101
china 101
Wacha@@ 101
wamebatizwa 101
apoteza 101
zimetumiwa 101
ijaza 101
UB@@ 101
kuhofisha 101
kilichotangazwa 101
Christine 101
yaliyorekodiwa 101
inav@@ 101
watambulisha 101
onunua 101
bendi 101
kuponi 101
mtazamaji 101
alitembelea 101
wacheza 101
kigari 101
posimama 101
haipat@@ 101
Kongo 101
tukik@@ 101
ikoni 101
ageuzi 101
ambaz@@ 101
ujinga 101
ikwaa 101
ç@@ 101
ilisika 101
wea 101
usia 101
FAN@@ 101
Usiache 101
Carol 101
endeshe 101
Mfanyakazi 101
Njaa 101
kupangia 101
pooza 101
wamechukua 101
igawanya 101
Kaisaria 101
mwoko@@ 101
endelei 101
dayo@@ 101
chimbuliwa 101
uliotumiwa 100
hufanana 100
imamisha 100
huwavutia 100
adiriwa 100
Yeroboamu 100
auliza 100
kunena 100
mliyo@@ 100
upinde 100
nilialikwa 100
anaruhusu 100
rudishwa 100
vilivyotumiwa 100
Usimamizi 100
Kuzungumza 100
hayas@@ 100
ilibidi 100
awasaidie 100
Mdogo 100
hawajawahi 100
adhuhuri 100
wameishi 100
mkas@@ 100
hupitia 100
Tur@@ 100
ajikuta 100
tupata 100
kuche@@ 100
Dokezo 100
kara 100
kuwatesa 100
mpana 100
umbe 100
usome 100
uwiano 100
utatusaidia 100
Chicago 100
Potifa 100
hunifanya 100
nilimwambia 100
undamana 100
washa 100
Mme@@ 100
Lam@@ 100
inatumia 100
mgodi 100
Dis@@ 100
mtafsiri 100
vigae 100
jitiisha 100
jidhibiti 100
husuyo 100
Yaliyo 100
wanaokataa 100
alivyom@@ 100
niliwekwa 100
onobari 100
waliyopewa 100
amoja 100
ipas@@ 100
kutounga 100
stahili@@ 100
MASHAHIDI 100
utumbo 100
wanyang’anyi 100
wakabatizwa 100
huteseka 100
yamen@@ 100
kusaf@@ 100
huisha 100
Van 100
akirejezea 100
Bi 100
vre 100
unaz@@ 100
Jicho 100
azimie 100
akataka 100
waliokuwapo 100
Masomo 100
waweka 100
fungiwa 100
kusimamishwa 100
Jumla 100
urudisho 100
niache 100
tuache 100
maha@@ 100
waliposikia 100
vitano 100
ulitegemea 100
machweo 100
ilichapishwa 100
wakiendelea 100
litam@@ 100
Michelle 100
ther@@ 100
kujifikiria 100
alichunguza 100
hudumisha 100
low@@ 100
Kunywa 100
kanayo 99
127 99
lam@@ 99
hit@@ 99
47788 99
wamefaulu 99
adhihirisha 99
linalopatikana 99
kutetewa 99
anatawala 99
walifungwa 99
wanash@@ 99
kupangwa 99
hawapendezwi 99
ningem@@ 99
fikiwa 99
kuwaiga 99
ubujika 99
THE 99
ufanya 99
kombo@@ 99
mash@@ 99
Namibia 99
ius 99
kunapaswa 99
Win@@ 99
wanatu@@ 99
Tunataka 99
anayetoa 99
hayato@@ 99
ijani 99
Nimepata 99
Gregory 99
yanaonekana 99
wanaotambua 99
orea 99
Mwand@@ 99
matengenezo 99
wanaoendelea 99
Alhamisi 99
hawang@@ 99
harau 99
wapita 99
Harold 99
songamana 99
Augus@@ 99
aliitikiaje 99
agu@@ 99
Com@@ 99
Mile@@ 99
huogopa 99
Vienna 99
kung’oa 99
hutukumbusha 99
lazim@@ 99
alishinda 99
angewezaje 99
waliuliza 99
ukiendelea 99
kusaha@@ 99
Kutimiza 99
mila 99
andalizi 99
yanayou@@ 99
alopaswa 99
vyoo 99
kuwajibika 99
bastola 99
rika 99
umefanywa 99
kustarehesha 99
puto 99
kuitia 99
lilipata 99
146 99
hulinda 99
tunayopata 99
iliyotiwa 99
watajua 99
wanene 99
inakazia 99
igan@@ 99
walisimama 99
finyanga 99
wameweka 99
VU 99
katibu 99
helikopta 98
linaitwa 98
utekwani 98
jeusi 98
mtumbwi 98
Children 98
Usomaji 98
Nero 98
endeleaje 98
alidokeza 98
kupatia 98
safarini 98
itiri 98
tukaz@@ 98
Bibi 98
erehe@@ 98
usurika 98
alimjibu 98
tt@@ 98
atatoa 98
ombea 98
ifanikiwe 98
ponya 98
ver 98
alidumisha 98
anachukia 98
Kug@@ 98
kujapokuwa 98
lilitoa 98
Hatarini 98
ilazimisha 98
kujiumiza 98
tumem@@ 98
ifund@@ 98
maanishi 98
Damasko 98
Vancouver 98
Kobe 98
watatawala 98
Mhispania 98
KAT@@ 98
alifufuliwa 98
sumbufu 98
huvunjika 98
inavyoonyesha 98
ampe 98
Lingekuwa 98
Moyoni 98
aliliambia 98
Gar@@ 98
zinazohitajiwa 98
wametoa 98
waliogopa 98
alipozungumza 98
ibeba 98
sip@@ 98
wasiofaa 98
Broshua 98
Chagua 98
anayejali 98
tutende 98
0,000 98
Clar@@ 98
itambua 98
anajitahidi 98
kuangaza 98
mkuki 98
tuli 98
ulienea 98
Makosa 98
mani 98
mbi 98
ija 98
Kisababishi 98
hupanga 98
haup@@ 98
krimu 98
unikwa 98
hauriwa 98
aliwaita 98
Nia 98
ishamb@@ 98
Barafu 98
aliyenituma 98
funzwa 98
Alitoa 98
kilivyo@@ 98
wazungu 98
fuzi 98
Shakespeare 98
akani 98
msiwe 98
Wawili 98
unathamini 98
indaje 98
Kurudi 98
Muundo 98
Alijifunza 98
tufurahie 98
133 98
Jirani 98
yoweza 98
Kambodia 98
kuwaumiza 98
watokea 98
Gamalieli 98
iliyomfanya 98
ala@@ 98
yanayompendeza 98
akasirika 97
watendee 97
ajaa 97
kisia 97
epuk@@ 97
Cr@@ 97
◯ 97
akaongezea 97
SS 97
pomboo 97
hututia 97
Mzima 97
iane 97
ogofyo 97
Vili@@ 97
onekanayo 97
yatawa@@ 97
ituma 97
lilinisaidia 97
kasirisha 97
ot 97
alilokuwa 97
atim@@ 97
tosheleza 97
Fikira 97
Mabaya 97
watumaini 97
wavumbuzi 97
kuzuri 97
wamaanisha 97
Kumekuwa 97
kumsamehe 97
kumkamata 97
amba@@ 97
konokono 97
Tunapokuwa 97
RIKA 97
ANIA 97
itume 97
fizi 97
Dennis 97
tozwa 97
kisanduku 97
mnyofu 97
yamo 97
hangaikie 97
wanaenda 97
Mimba 97
ilivyoonyeshwa 97
Isiyo 97
amiza 97
vinavyofaa 97
yanavyoweza 97
yatumia 97
shayiri 97
Maangamizi 97
itio 97
kuahirisha 97
gue 97
kufunza 97
Niliacha 97
www.jw.org 97
apas@@ 97
Sheoli 97
kuwaadhibu 97
yaliyojaa 97
katishwa 97
Ista 97
bishana 97
inajibu 97
yong’aa 97
anavyosema 97
sifongo 97
imeanza 97
ulizo@@ 97
umeg@@ 97
UMEWAHI 97
yofu 97
tulirudi 97
wadhifa 97
lisiloweza 97
ufaike 97
Huru 97
kujiv@@ 97
Ontario 97
anafurahi 97
iliyobaki 97
350 97
val@@ 97
kujitafutia 97
Woga 97
Ukat@@ 97
kutamka 97
mjeuri 97
kinachosababisha 97
Mengine 96
Carlos 96
iani 96
tamkia 96
fini 96
eleg@@ 96
akitumikia 96
ukataji 96
wakidai 96
hucheza 96
hutazamia 96
meneja 96
EZA 96
Tertullian 96
Sitawisha 96
Hiki 96
atembea 96
hutangaza 96
wari 96
wavamizi 96
alijulisha 96
wasaidie 96
alibariki 96
Sand@@ 96
tenga 96
Efra@@ 96
alileta 96
kumeng’enya 96
mwamuzi 96
ov@@ 96
kufund@@ 96
aliwasihi 96
haribia 96
kutosheka 96
zilijengwa 96
wazika 96
hutubia 96
inahusiana 96
L’@@ 96
alimtegemea 96
kutendea 96
Sijawahi 96
endekezo 96
Michoro 96
watumiaji 96
Wenu 96
limefanya 96
waliporudi 96
inayoendelea 96
wezayo 96
way 96
ulipofika 96
pafaapo 96
kizima 96
Alex 96
ishaye 96
mwanana 96
wakaacha 96
Monde 96
Ti@@ 96
pu@@ 96
hushirikiana 96
kumbusho 96
kaharabu 96
kunatusaidia 96
tujue 96
kidhabihu 96
hatuta@@ 96
mkaribishaji 96
ndoo 96
Johnson 96
Nililelewa 96
Panga 96
Nguzo 96
zembe 96
zwaje 96
anakiri 96
anyiza 96
utupu 96
Lawi 96
wanateseka 96
ufaishaje 96
Huruma 96
Lev@@ 96
Umuhimu 96
haipasi 96
faid@@ 96
mbano 96
uzwe 96
inaposema 96
Nilipoanza 96
Hun@@ 96
makamo 96
Ustadi 96
waliosema 96
eva 96
kulazimika 96
arudishwa 96
anajali 96
lilini@@ 96
Nahisi 96
Kwako 96
hoofishwa 96
kuwasaidiaje 96
HIL@@ 96
dhibitiwa 96
unyevunyevu 96
amechoka 96
walisikia 96
Tukim@@ 96
niliyojifunza 96
wakid@@ 96
waigizaji 96
ije 96
Uwezekano 96
umpende 96
Jumatano 95
uro 95
tahimili 95
0 95
amesikia 95
Yak@@ 95
wazinzi 95
kimyakimya 95
kutoboa 95
agusa 95
idia 95
echochea 95
yoga 95
Ulimi 95
ainia 95
alijionea 95
Kina 95
joka 95
wajit@@ 95
linatumiwa 95
itakayokuwa 95
Tembo 95
jozi 95
danganywa 95
waliojitolea 95
jeruhi 95
inayopita 95
kimapokeo 95
Kitovu 95
vunj@@ 95
kugawa 95
ingapopo 95
Inafariji 95
Fanyeni 95
uletea 95
ADAMU 95
engeuka 95
kukariri 95
mtangazaji 95
mtendea 95
maganda 95
itafuta 95
galaksi 95
alimweka 95
unakaa 95
waondoke 95
huzun@@ 95
hairi 95
Aliongezea 95
Mkombozi 95
kuwahimiza 95
akahitaji 95
Wanataka 95
People 95
WANA@@ 95
kuwatii 95
yr@@ 95
zipat@@ 95
yle 95
wanahubiri 95
1936 95
oraji 95
azuka 95
tungekuwa 95
lilisababisha 95
Debora 95
tunaj@@ 95
wind@@ 95
wamechoka 95
Den@@ 95
huhifadhi 95
Gl@@ 95
wamezoea 95
enee 95
mwangavu 95
kitekinolojia 95
kurefusha 95
linaloonekana 95
uepuke 95
sen@@ 95
Twajua 95
KIT@@ 95
paswi 95
mfinyanzi 95
mid@@ 95
enenda 95
wafanyao 95
onye 95
zikip@@ 95
wakauliza 95
himo 95
usafirishaji 95
anda@@ 95
kuwafukuza 95
kuwavuta 95
mishaji 95
wae 95
vyura 95
nenda 95
hutembelea 95
hamna 95
hapendi 95
unifu 95
Kilikuwa 95
opera 95
walitii 95
huzungumzia 95
Mshuko 95
anganywa 95
garimoshi 95
mru@@ 95
afikirie 95
hushia 95
zek@@ 95
shindana 95
RI 95
oke 95
simamiwa 95
fadhaisha 95
walizaliwa 95
Ponografia 95
kujaje 95
kumsihi 95
hugeuka 95
sababishia 95
baharia 95
wanakataa 95
wanaotu@@ 95
idhike 94
kiufundi 94
YAK@@ 94
ungwana 94
miz@@ 94
wanaohudhuria 94
mtajo 94
glasi 94
waliomba 94
amwa@@ 94
egem@@ 94
zurura 94
ichukia 94
Fiji 94
yanahusu 94
ninapaswa 94
Budapest 94
hiwe 94
kunyuny@@ 94
tohara 94
rich 94
kilin@@ 94
aliwauliza 94
omeka 94
yanayotofautiana 94
mjamzito 94
anafurahia 94
Inat@@ 94
kisilika 94
mizani 94
hushuka 94
vitamu 94
ezwa 94
ver@@ 94
hesha 94
uchongezi 94
lifti 94
trela 94
hawakubali 94
alitupa 94
aliyetaka 94
Dom@@ 94
alipomwona 94
kuelezwa 94
Ot@@ 94
kundini 94
kuchukiwa 94
huhakikisha 94
upatao 94
Standard 94
yanayoendelea 94
kujitegemeza 94
kuitunza 94
walibaki 94
atis@@ 94
All 94
Miz@@ 94
nilipenda 94
huahidi 94
hol@@ 94
Az@@ 94
hakukusudia 94
Mfadhaiko 94
kuchoche@@ 94
maye 94
kuzuka 94
hudhuriwa 94
Nilipofika 94
inayohitajiwa 94
miadi 94
waliooana 94
Adrian 94
Kujenga 94
nilishangaa 94
iliyopangwa 94
treni 94
zinatumiwa 94
ametimiza 94
erson 94
Wau@@ 94
kuelekezwa 94
jitambulisha 94
kuwaharibu 94
Waashuru 94
hoof@@ 94
yatakayotukia 94
illa 94
Isi@@ 94
kunyenyekea 94
odia 94
betri 94
umbaza 94
uandishi 94
4.@@ 94
tungali 94
wazi@@ 94
Margaret 94
ilikazia 94
Taabu 94
Alice 94
ifundishe 94
aliza 94
unahitajiwa 94
U.S.News 94
ushaji 94
atatusaidia 94
Tho@@ 94
Busara 94
walihubiri 94
Rasi 94
HNWW 94
ang’aa 94
Mash@@ 94
changanuzi 94
Kumbe 94
Anglikana 94
staajabisha 94
bir@@ 94
torati 94
atakayekuwa 94
ametabiri 94
kwalo 94
andar@@ 93
tulikutana 93
org@@ 93
Mwanasayansi 93
umbukiza 93
Meli@@ 93
Machozi 93
ikaliwe 93
Mte@@ 93
Kambi 93
usukani 93
wapeleka 93
wasaliti 93
kilichoko 93
vijiumbe 93
wanatimiza 93
wanaoonyesha 93
125 93
alifanikiwa 93
dom@@ 93
wakitumikia 93
ess@@ 93
con@@ 93
kumkubali 93
Upole 93
uchukua 93
senti 93
Origen 93
nilijiuliza 93
endwe 93
WALI 93
zilifanya 93
zilizoorodheshwa 93
huonyeshaje 93
tunayokabili 93
Ri@@ 93
Nile 93
jiwekea 93
Mip@@ 93
Haiwezekani 93
walivyoitwa 93
uchokozi 93
tunaposali 93
lemewa 93
Majaribio 93
atau@@ 93
faini 93
Massachusetts 93
histi 93
kujilisha 93
Tal@@ 93
etemeko 93
ekwisha 93
Kumwogopa 93
Sun 93
akitenda 93
Nilihitaji 93
tahiriwa 93
Halloween 93
evunja 93
ukataka 93
Mtafiti 93
ibe 93
alihangaikia 93
Nilipendezwa 93
walioambukizwa 93
shinde 93
ester 93
wanja 93
niliyekuwa 93
yanayom@@ 93
tutakavyo@@ 93
unywaji 93
danganyifu 93
waliny@@ 93
lisema@@ 93
lilikuja 93
vitanda 93
kunukuu 93
potovu 93
vyou@@ 93
Shughuli 93
imefanywa 93
akupe 93
alisaidia 93
kumponya 93
inahitajiwa 93
Dun@@ 93
ingalikuwa 93
kuangamia 93
marumaru 93
pemb@@ 93
alivyoeleza 93
itokea 93
Mishnah 93
Patrick 93
kumn@@ 93
Esther 93
Akieleza 93
TV 93
etewa 93
AV@@ 93
kuteremka 93
JAR@@ 93
○ 93
tahili@@ 93
unathibitisha 93
Mki@@ 93
thawabishaji 93
Nitawa@@ 93
usumbufu 93
vunjia 93
waliruhusiwa 93
kutembelewa 93
Les@@ 92
ikionyesha 92
waliookoka 92
mvunjiko 92
metali 92
mhasiriwa 92
unaoendelea 92
wekwe 92
wika 92
zinzi 92
Kuandika 92
kutumainiwa 92
mshale 92
Uria 92
inti 92
ipinga 92
ID@@ 92
alimfufua 92
aliyetoa 92
huchapishwa 92
sadiki 92
watie 92
lililoitwa 92
Kuepuka 92
Mlip@@ 92
Viziwi 92
kunat@@ 92
Kutunza 92
BAD@@ 92
lij@@ 92
rekebishe 92
mwacha 92
aratasi 92
asome 92
athiriwaje 92
wakitazama 92
ilisti 92
Usafi 92
iganaji 92
kusikili@@ 92
unan@@ 92
zisizoweza 92
miny@@ 92
wamejitahidi 92
inasikitisha 92
Mwenyezi 92
fira 92
suti 92
akawapa 92
AID@@ 92
Chati 92
Tafakari 92
wasema@@ 92
Uangalifu 92
makavu 92
nikaacha 92
HUSU 92
kilichoitwa 92
ajeshi 92
ninahitaji 92
akaniambia 92
mtaa 92
Utoaji 92
wabadili 92
Athari 92
akiongoza 92
1925 92
kalip@@ 92
ach 92
diski 92
yahitaji 92
kitunguu 92
wameli@@ 92
Nendeni 92
mgo@@ 92
azungum@@ 92
Wakuu 92
imin@@ 92
mijeledi 92
anguliwa 92
bin@@ 92
uba 92
inayokaribia 92
aliitikia 92
unayojifunza 92
kuhamishwa 92
aca 92
yangali 92
tuhisi 92
mwang@@ 92
mwingineo 92
Cl@@ 92
Il@@ 92
indano 92
kufukuzwa 92
haupaswi 92
Ufunguo 92
mvumbuzi 92
5.@@ 92
mfanyabiashara 92
ambwa 92
katiza 92
hami 92
hakupendezwa 92
Wasi@@ 92
initete 92
kupe 92
idimia 92
hudhuriaji 92
Mito 92
uliaji 92
aliteseka 92
kawia 92
hihirisho 92
akiomba 92
tutafanya 92
Queensland 92
wek@@ 92
kuhamisha 92
chor@@ 92
Stadi 92
Chem@@ 92
kuushinda 92
ulikuja 92
kuzungum@@ 92
Kilimo 92
aliwahakikishia 92
lilo 92
kunj@@ 92
marabi 92
chovu 91
wanaojaribu 91
aptisti 91
vingeweza 91
yupi 91
mpatanishi 91
Yawezekana 91
Mwebrania 91
kupaswa 91
andamizwa 91
apunguza 91
walikata 91
pendekeza 91
vimes@@ 91
kufukuza 91
1928 91
aanze 91
Kubadili 91
Sipa 91
wapenzi 91
atakufa 91
MAS@@ 91
mikali 91
Fal 91
Watumwa 91
awaye 91
Nd@@ 91
ado@@ 91
1,0@@ 91
Mshu@@ 91
walileta 91
Miguu 91
kasirishwa 91
chosha 91
kupamba 91
hushughulikia 91
ishikilia 91
utano 91
hupanda 91
kutuonyesha 91
unakumbuka 91
Clin@@ 91
linalotumiwa 91
madhubuti 91
Vyakula 91
iziwa 91
Arizona 91
uhaba 91
hukum@@ 91
mikebe 91
ria 91
fahamiana 91
hakuruhusu 91
kuchaguliwa 91
kutanika 91
haimo 91
yasiyotazamiwa 91
utakaso 91
mic@@ 91
waliokoka 91
afuni 91
elele 91
kutokwa 91
kutafanya 91
yaliyopo 91
Tunaonyesha 91
Gre@@ 91
pok@@ 91
kujasiria 91
André 91
wevu 91
Alama 91
walisaidia 91
Human 91
omolewa 91
ilifikia 91
vipingamizi 91
tutii 91
Mwad@@ 91
Sem@@ 91
Miungu 91
Kemikali 91
yatimizwe 91
avyor@@ 91
jizuia 91
End@@ 91
tendaje 91
wakipiga 91
tamaniwa 91
tuwezesha 91
ikteta 91
afizikia 91
kimep@@ 91
Nepal 91
Polandi 91
wauliza 91
sab@@ 91
wanayofanya 91
ambano 91
Sij@@ 91
Uso 91
uliopangwa 91
ak 91
endeleapo 91
turudi 91
kubaliani 91
Kutembelea 91
ahauliwa 91
Michango 91
lalamika 91
25,000 91
tunayohitaji 91
kuupata 91
ump@@ 91
Tai 91
Walipaswa 91
Iskariote 91
Mtegemee 90
vinavyotumiwa 90
tanuru 90
hidrojeni 90
wanaokula 90
ametenda 90
Kutia 90
isifu 90
Tutazungumzia 90
unaokaribia 90
adhaika 90
wokoa 90
Kwetu 90
wanariadha 90
anatuhakikishia 90
linalotajwa 90
pambwa 90
Independent 90
Christianity 90
urug@@ 90
wanapatikana 90
kuwakumbusha 90
apungua 90
tusim@@ 90
azamii 90
muuguzi 90
kiuka 90
Scientific 90
yanafanya 90
yaliyoko 90
kuamuliwa 90
kukaripia 90
ulisema 90
shanga 90
terem@@ 90
tukiishi 90
Kuwasiliana 90
Yafuatayo 90
q@@ 90
Mtumaini 90
oshe@@ 90
gar@@ 90
Hubble 90
ajabishwa 90
mizio 90
MARA 90
kufuta 90
mbichi 90
Lebanoni 90
linalof@@ 90
uloni 90
mwona 90
Mes@@ 90
mrudisho 90
Elisab@@ 90
watetezi 90
waliabudu 90
Bu@@ 90
Waziri 90
janga 90
amalizika 90
Uz@@ 90
ilisaidia 90
mwani 90
Pedro 90
Wafund@@ 90
Hiro@@ 90
ichag@@ 90
Kuba 90
kusuluhishwa 90
ongee 90
yanazidi 90
Earth 90
ambuki@@ 90
Uchu@@ 90
haija@@ 90
Pap@@ 90
ATI@@ 90
ilisababisha 90
ilinibidi 90
wanatia 90
Yamkini 90
Economist 90
sija@@ 90
hughulikiwa 90
azungumze 90
hanga 90
kuelea 90
masuluhisho 90
finyanzi 90
ikosi 90
Kiitalia 90
yakis@@ 90
mago@@ 90
mfukoni 90
kuchonga 90
wafanikiwe 90
mteja 90
hujali 90
kudharau 90
Kushindwa 90
Tulianza 90
ifunga 90
ondeka 90
jembamba 90
itende 90
kujitokeza 90
zimejaa 90
wahimiza 90
aonekane 90
anavyotu@@ 90
ngojea 90
chuoni 90
Wapo@@ 90
Wastadi 90
wanaomwabudu 90
afanuzi 90
gre@@ 90
Yana@@ 90
hindana 90
tukapata 90
walifundisha 90
ubadili@@ 90
itajawa 90
shalisti 90
kilichotumiwa 90
inahusu 90
kidato 90
UN 90
wanalazimika 90
rej@@ 89
Wajibu 89
ishwayo 89
mainia 89
Tasmania 89
alizokuwa 89
kuti 89
ang’anyi 89
yav@@ 89
asipate 89
Ninam@@ 89
chukiwa 89
kuporomoka 89
eleweki 89
Divai 89
kupingwa 89
uliotokea 89
kingekuwa 89
Port 89
mlio@@ 89
Vic@@ 89
itokayo 89
Review 89
kumtuma 89
ald 89
mij@@ 89
ameamua 89
AD 89
kozi 89
Hekaya 89
any 89
asta 89
huk@@ 89
Jason 89
alivyotabiri 89
uhamisho 89
agharimu 89
wakaenda 89
Ono 89
haitoshi 89
akisafiri 89
inuko 89
aliita 89
Aris@@ 89
pakwa 89
kuiweka 89
yapatayo 89
Tib@@ 89
Waam@@ 89
madha@@ 89
Taf@@ 89
106 89
Papua 89
chavuo 89
adhimisho 89
itakusaidia 89
kutarajiwa 89
nitafanya 89
husonga 89
Don 89
alinitia 89
wafan@@ 89
umepungua 89
sel@@ 89
ilionwa 89
kole@@ 89
julikan@@ 89
vilio 89
mamake 89
wakijua 89
hufyonza 89
mwon@@ 89
imetokeza 89
zungu@@ 89
iligunduliwa 89
kiraia 89
akaonyesha 89
ikayo 89
hufunika 89
inayom@@ 89
haid@@ 89
udum@@ 89
kukuambia 89
wanab@@ 89
pasi@@ 89
wataharibiwa 89
tuliokuwa 89
lililotokea 89
eule 89
mvutaji 89
ageuzwa 89
Niliguswa 89
Shamba 89
kifafa 89
eth@@ 89
hutuhakikishia 89
ningali 89
unayopaswa 89
Kom@@ 89
Mlawi 89
ondole@@ 89
ivi 89
ilieleza 89
wazwa 89
hifadhia 89
zaha 89
hutupatia 89
tusik@@ 89
anayejulikana 89
Jones 89
Asiye 89
Studies 89
Tukis@@ 89
gamba 89
adilifu 89
ungefanya 89
FUNZO 89
pweza 89
kipindupindu 88
Mnyanyaso 88
wamelazimika 88
akitazama 88
kikam@@ 88
Mshikamanifu 88
onom@@ 88
Visababishi 88
lilimfanya 88
isio 88
ZAIDI 88
akifundisha 88
ilifaa 88
mand@@ 88
Imes@@ 88
Buddha 88
mkeye 88
tofautisha 88
futi 88
Umma 88
idiani 88
kidonda 88
lilitolewa 88
abishwa 88
zal@@ 88
zinazotegemea 88
Es@@ 88
anaji@@ 88
Great 88
kond@@ 88
zuiliwa 88
400,000 88
Milan 88
mon 88
kugonga 88
mahoji 88
vyenyewe 88
yachunguza 88
ides 88
achuo 88
kalisi 88
mume@@ 88
courtesy 88
shomoro 88
anakabili 88
Walinzi 88
hawaji@@ 88
kuchem@@ 88
wamwabudu 88
Nyimbo 88
mvin@@ 88
anguko 88
akitembea 88
mwamuru 88
Nyama 88
anishwe 88
kwenyewe 88
Tunaona 88
tulifika 88
huenea 88
alishauri 88
Van@@ 88
kuepukaje 88
vinu 88
hatawa@@ 88
kutup@@ 88
Katiba 88
Jewish 88
IS 88
kito 88
likaripoti 88
ifanyiza 88
mwimbaji 88
akimb@@ 88
liliitwa 88
Imekuwa 88
Makab@@ 88
TO 88
nijifunze 88
simam@@ 88
ajisiwa 88
endeana 88
ang’anywa 88
irud@@ 88
60,000 88
apewe 88
ert 88
Watafsiri 88
hawatambui 88
ulizeni 88
Kufikiri 88
Kish@@ 88
vifupi 88
Humo 88
dokezwa 88
nak@@ 88
oletwa 88
ulitokana 88
angoja 88
Letter 88
fahamisha 88
ings 88
EA 88
Ufu@@ 88
tunayosoma 88
haielekei 88
yan 88
isemayo 88
Megido 88
hawatakuwa 88
Huzuni 88
tuthamini 88
alipobatizwa 88
ifunze 88
alitazama 88
mtoaji 88
haradali 88
wabaki 88
pie 88
Hatukuwa 88
siyo 88
kanwa 88
zae 88
hatungeweza 88
Kihindu 88
weshwa 88
Cap@@ 87
zinazopita 87
halipaswi 87
ungiwa 87
futwa 87
wajiunge 87
linalon@@ 87
Nyangumi 87
wametu@@ 87
nyufa 87
utatu 87
eteaji 87
afanuaje 87
unaotajwa 87
ā@@ 87
IKO 87
chakaa 87
lilinifanya 87
ukif@@ 87
walezi 87
ido 87
kudhihaki 87
tufan@@ 87
MTU 87
Zungum@@ 87
ram@@ 87
Nilitumia 87
Kumhusu 87
ambi@@ 87
em 87
ekelezwa 87
teksi 87
Vif@@ 87
igapiga 87
hukue 87
wanachama 87
kumuumiza 87
Nilibatizwa 87
itawis@@ 87
apendwa 87
mdanganyifu 87
many@@ 87
Amaz@@ 87
ariadha 87
uchapaji 87
nafikiri 87
Alber@@ 87
tamb@@ 87
rekebishaji 87
zoefu 87
aku 87
guu 87
ifikia 87
ukashangaa 87
wanako@@ 87
uska 87
zinafanya 87
uviwa 87
Mwekundu 87
ufuatao 87
kotwa 87
taafu 87
rodito 87
waharibifu 87
kutegeme@@ 87
ujuli@@ 87
Sarafu 87
Hisi 87
tulilazimika 87
nolojia 87
anaf@@ 87
ubariki 87
Way@@ 87
tenganisha 87
tand@@ 87
mach@@ 87
mahari 87
lang@@ 87
tulifurahi 87
tutemb@@ 87
Saba 87
zisiz@@ 87
wameendelea 87
atanga 87
uanana 87
112 87
Nya 87
AJI 87
limetafsiriwa 87
Catherine 87
yamefanya 87
Ndi@@ 87
ilivyoripotiwa 87
vikwazo 87
Lolote 87
itwayo 87
Onesimo 87
ñ@@ 87
JIA 87
kukuhusu 87
Mpende 87
cher@@ 87
Age 87
hakupaswa 87
Kamerun 87
Tulifurahia 87
fueli 87
Hag@@ 87
mmekuwa 87
mata 87
kuumizwa 87
kushona 87
Kidogo 87
mishi@@ 87
Nob@@ 87
engenezea 87
ongaji 87
ilimfanya 87
Singeweza 87
wanaozaliwa 87
kunifundisha 87
lililojaa 87
iliyojengwa 87
Uungu 87
Ahazi 87
eriti 87
Sierra 87
Tuliishi 87
anc@@ 87
Masuala 87
omo@@ 87
iliyotokea 87
Tou@@ 87
wataja 87
yakaanza 87
Simon 87
ava 87
Usifanye 86
Wen@@ 86
angaliweza 86
Waovu 86
unayotaka 86
inayosababishwa 86
koni 86
patie 86
kiliandikwa 86
ren@@ 86
Kulia 86
huke 86
ys 86
sabab@@ 86
ninafurahia 86
furahii 86
mpwa 86
oleta 86
ifai 86
zapasa 86
lililotumiwa 86
vilitumiwa 86
sch@@ 86
pendekezwa 86
Mababa 86
kuzo@@ 86
alimwagiza 86
zimeshindwa 86
hangekuwa 86
alirudia 86
apand@@ 86
kufu 86
timizwaje 86
Matthew 86
akipata 86
yanatusaidia 86
ery 86
upas@@ 86
demokrasi 86
idhuli 86
tulitaka 86
Tahadhari 86
twapata 86
Kung@@ 86
ukasema 86
Wanaamini 86
aliyel@@ 86
Medicine 86
Nikaragua 86
atori 86
Pakistan 86
Des@@ 86
hazipat@@ 86
kulegeza 86
amefufuliwa 86
niliyopata 86
ouzwa 86
pou@@ 86
afua 86
wazo@@ 86
faidike 86
hupelekwa 86
izid@@ 86
kujadiliana 86
kifaacho 86
tunavyopaswa 86
mizoga 86
Wamongo@@ 86
miundu 86
AL 86
kutuhusu 86
wanapendekeza 86
kielektroni 86
Ninas@@ 86
anamwambia 86
unatoka 86
haitaji 86
Panama 86
Krusedi 86
alilalamika 86
hadhar@@ 86
Cat@@ 86
dee 86
inafsi 86
lililofanya 86
Images 86
kutapika 86
kikapu 86
kinu 86
yatupasa 86
Kotekote 86
Jessica 86
kuhubiria 86
Kasoro 86
walikuwapo 86
lilieleza 86
walipokuja 86
huhangaikia 86
wapas@@ 86
nyongeza 86
potazama 86
walior@@ 86
miteremko 86
utakubali 86
wadumishe 86
Yajapokuwa 86
kikumbusha 86
Miriamu 86
liliharibiwa 86
rio 86
idhinishwa 86
aliyoona 86
wajeuri 86
upanuzi 86
huongezea 86
Wapinzani 86
Tarehe 86
mnyororo 86
jiita 86
iambia 86
kufunikwa 86
mond 86
ZE@@ 86
alipoenda 86
kuchukuli@@ 86
Bil@@ 86
hayapaswi 86
Mwe 86
Uhispania 86
Marco 86
wakisafiri 86
wanaongoza 85
utheri 85
sekana 85
anaonekana 85
mwanabiolojia 85
asemavyo 85
Carolina 85
anatenda 85
nimeazimia 85
Utunzaji 85
usaidizi 85
diamu 85
apelekwa 85
Majani 85
kunawa 85
Jan 85
kuwafikiria 85
tegwa 85
vuruga 85
450 85
chonga 85
Jenny 85
waliteswa 85
tunapofikiria 85
kifuko 85
shauriwa 85
kupataje 85
kuik@@ 85
izwaje 85
6.@@ 85
elekei 85
Kuchukua 85
katiba 85
yumo 85
madhumuni 85
ichua 85
akilia 85
kifaru 85
lililotafsiriwa 85
kuarifu 85
Sus@@ 85
anganyo 85
imefunikwa 85
hamiana 85
haitakuwapo 85
ON 85
huita 85
jiingiza 85
uzid@@ 85
wasiliane 85
Hatuna 85
achapishwa 85
mzizi 85
Kina@@ 85
athini 85
Soko 85
ereji 85
tutimize 85
tupatia 85
wakifikiri 85
walieleza 85
Awali 85
jang@@ 85
pako 85
Utumizi 85
walitumwa 85
bl@@ 85
Gayo 85
yalim@@ 85
zapaswa 85
hunywa 85
mvumo 85
wazushi 85
Fin@@ 85
kalamu 85
igi 85
imbia 85
Kuutazama 85
ill 85
aliyetoka 85
Patterson 85
kukatisha 85
Kui@@ 85
Waandikaji 85
kuapa 85
azoea 85
Mapinduzi 85
Bra@@ 85
emsaidia 85
ukosi 85
Angalieni 85
Anam@@ 85
walithamini 85
j 85
ayo@@ 85
aliwaruhusu 85
kirasmi 85
Byzantium 85
kutuambia 85
nye@@ 85
1932 85
Wivu 85
halipat@@ 85
tunatumia 85
kumchukua 85
Upungufu 85
Wafanya 85
ilieni 85
kuchangany@@ 85
bul@@ 85
fanyie 85
zimia 85
zilifanywa 85
linaendelea 85
waliokubali 85
kujir@@ 85
imungu 85
wil@@ 85
tasa 85
MAKALA 85
kuus@@ 85
uzuku 85
OSTI 85
likizoni 85
watakuja 85
kuhimili 85
hupeleka 85
kustahiwa 85
Udongo 85
dhulumu 84
ical 84
urud@@ 84
yakip@@ 84
endezayo 84
Niliporudi 84
ingize 84
vin 84
anio 84
Nilijiuliza 84
utegemeza 84
kumenisaidia 84
akili@@ 84
Umbo 84
dimbwi 84
Maharamia 84
Kuteseka 84
tha 84
waliohusika 84
Waamoni 84
ast@@ 84
amepokea 84
mapambazuko 84
ufikirie 84
wait@@ 84
alichapisha 84
alikimbia 84
chafya 84
kutegemezwa 84
Chungu 84
ashindwa 84
weha 84
IMA 84
akahisi 84
hakuelewa 84
wanatenda 84
lifany@@ 84
kiunzi 84
kuchanga 84
fuat@@ 84
kodeksi 84
kich@@ 84
kutumwa 84
angua 84
Kiaramu 84
Lee 84
Sera 84
Beat@@ 84
Tekinolojia 84
wanapopata 84
maelekeo 84
kutuletea 84
mibaraka 84
akielekea 84
kitaalamu 84
dhalimu 84
unja 84
stein 84
Du@@ 84
Uele@@ 84
Aliyekuwa 84
Ikawa 84
jengea 84
nikaona 84
ifanyi 84
anakusudia 84
lem@@ 84
mshipi 84
wacha@@ 84
mwavuli 84
aliko 84
Kulinda 84
Ainabinadamu 84
kuwadanganya 84
ulijitokeza 84
kinachomaanishwa 84
ilimbidi 84
anayesema 84
yalipokuwa 84
tuliendelea 84
kimsingi 84
piramidi 84
Kulea 84
oulizwa 84
wavi 84
idhuru 84
Lou@@ 84
walipigwa 84
mlegevu 84
mfikirie 84
wamevumilia 84
wachangamfu 84
wanapokabili 84
alimhimiza 84
wamewekwa 84
Guatemala 84
zopata 84
END@@ 84
kikemikali 84
Rat@@ 84
yaripoti 84
isipo@@ 84
VYA 84
nauli 84
akini 84
Wasio@@ 84
kumkumbuka 84
tutakayo@@ 84
hatar@@ 84
Nu@@ 84
Upeo 84
Hindi 84
ifanyie 84
mikataba 84
PE@@ 84
lahaja 84
chongoka 84
Hatut@@ 84
turi 84
Inashangaza 84
vairasi 84
karuka 84
yamekwisha 84
dar@@ 84
makutano 84
unafaa 84
KATI 84
kishairi 84
mpunga 84
Wowote 84
Slovenia 84
puuze 83
yl 83
kisaikolojia 83
alivyoonyesha 83
ikiapo 83
bwa 83
Wasiwasi 83
kinachoendelea 83
vizito 83
akipiga 83
yaliyosawazika 83
Usin@@ 83
Ren@@ 83
wamefundishwa 83
upili 83
Mba@@ 83
NCHINI 83
sarufi 83
itoaji 83
Fil@@ 83
Gutenberg 83
walinisaidia 83
yafunua 83
mzoga 83
Ukubwa 83
aandike 83
kivivi 83
uwazi 83
Mshiriki 83
Uto@@ 83
ZO@@ 83
kufanyaje 83
ambizi 83
asisi 83
Jackson 83
wakihudhuria 83
uumba 83
aliambia 83
walis@@ 83
anyabuku 83
WENG@@ 83
An 83
agunduliwa 83
wangeendelea 83
aliponi@@ 83
Alipom@@ 83
wanayoweza 83
Usisahau 83
olo@@ 83
shangilie 83
Nebukadreza 83
walisikiliza 83
adaiwa 83
boreka 83
wasiop@@ 83
Mic@@ 83
kilianza 83
unguko 83
utazama 83
pasipo@@ 83
silika 83
teremka 83
tegem@@ 83
ajimu 83
takasa 83
aliolewa 83
vikombe 83
kangaruu 83
hodha 83
Umri 83
kumes@@ 83
Nilienda 83
Kukataa 83
anaz@@ 83
tuvumilie 83
Ep@@ 83
ichuku@@ 83
UNESCO 83
ilienea 83
jw.org 83
kirusi 83
elim@@ 83
kijinsia 83
atae 83
Yahweh 83
zisizoonekana 83
wanahangaikia 83
hihisha 83
116 83
urudumu 83
alitendaje 83
It 83
alionwa 83
imer@@ 83
alimbariki 83
matanga 83
Mkoa 83
kutumb@@ 83
amepoteza 83
Chuma 83
kazwa 83
kayo 83
Mbao 83
Henschel 83
lali 83
yanahitaji 83
YOHANA 83
povu 83
gilasi 83
upishi 83
hawakubaliani 83
Alipoulizwa 83
ukapata 83
Kwe@@ 83
linafanya 83
uie 83
Wainka 83
yaz@@ 83
kilichomchochea 83
aliwaeleza 83
kumwezesha 83
ushinde 83
angehitaji 83
bawa 83
Mfunzi 83
tain@@ 83
idharau 83
enepa 83
ico 83
mnao@@ 83
unze 83
razili 83
itumie 82
my@@ 82
Bruce 82
wawatendee 82
akaomba 82
kujiheshimu 82
Dav@@ 82
harusi 82
huvaa 82
kuponda 82
NCHI 82
Ehudi 82
wua 82
Jr 82
Ushuhuda 82
wood 82
tunapoendelea 82
usimamisha 82
utasimama 82
ilitokana 82
zikis@@ 82
kifan@@ 82
pora 82
husimulia 82
wamevaa 82
wazito 82
bishano 82
Cur@@ 82
kosewa 82
Kimbunga 82
atavuna 82
kupatanishwa 82
Lea 82
alituwekea 82
walitangaza 82
Kazia 82
Tim@@ 82
Barr 82
ulaya 82
matangi 82
KUP@@ 82
kutishwa 82
unapofanya 82
IG@@ 82
Mfu@@ 82
unaoonekana 82
Kim 82
kuangaliwa 82
hind@@ 82
ate@@ 82
ukuza 82
humletea 82
Pupa 82
tunachohitaji 82
zilizotangulia 82
inger 82
Nimrodi 82
Aksidenti 82
sul@@ 82
ante 82
Mkarib@@ 82
wanaotenda 82
tuliyo 82
kuyak@@ 82
gus@@ 82
ulioenea 82
Nilipenda 82
imbwa 82
zib@@ 82
iliyorekodiwa 82
yasikia 82
umikie 82
auke 82
tanga 82
awanywa 82
9,000 82
hukusanya 82
148 82
siki 82
yn@@ 82
wapewe 82
Nimeona 82
Udhaifu 82
uruhusu 82
inavyokuwa 82
Danube 82
ulianzishwa 82
imizwa 82
kuvurugika 82
eridhika 82
photos 82
walaghai 82
aliwawekea 82
JAMBO 82
kuondo@@ 82
fikisha 82
abo@@ 82
Mkurugenzi 82
kuharakisha 82
wakicheza 82
ado 82
tuchochea 82
pengi 82
vipodozi 82
iwavyo 82
att@@ 82
unaf@@ 82
Pierre 82
akimu 82
kumlazimisha 82
kumbatiana 82
ninafurahi 82
Waamini 82
poa 82
Aliyepata 82
kaheka 82
wanaacha 82
Pigano 82
kubisha 82
makerubi 82
Jennifer 82
thodoksi 82
hafai 82
kutaga 82
sia 82
Shilo 82
samawati 82
wafisadi 82
hatawaacha 82
hawakuamini 82
akacho@@ 82
kirabi 82
Joan 82
unganika 82
vipat@@ 82
umbavu 82
Montreal 82
walipuuza 82
ed 82
kunahitaji 82
Misuli 82
FIK@@ 82
atatenda 82
zinazofanywa 82
engano 82
Artemi 82
un 82
Will 82
upit@@ 82
Waaminifu 82
usikate 82
iao 82
Hil@@ 82
linahusiana 82
sikuelewa 82
Nyeusi 82
Wanajua 82
some@@ 82
Tulijifunza 82
ifikirie 82
wanashindwa 82
wameketi 82
Virusi 82
chavua 82
alimwongoza 81
walimpa 81
wasiotubu 81
walikimbia 81
afalsafa 81
kujitunza 81
athiriwe 81
inamisha 81
anayefaa 81
zilizositawi 81
hamta@@ 81
mado@@ 81
Mwanaye 81
miche 81
anajifunza 81
tumie 81
Moldova 81
Nabothi 81
yonza 81
wen 81
pep@@ 81
Augustine 81
nitrojeni 81
huwasiliana 81
Ombi 81
umbulika 81
kuvamia 81
kusanyia 81
wakifa 81
dor@@ 81
De 81
1923 81
mabichi 81
teketezwa 81
Kwangu 81
Jose@@ 81
watumikia 81
mng’ao 81
ros 81
tangi 81
linatusaidia 81
ataweza 81
hakuhitaji 81
eleleza 81
Bosnia 81
kasirikia 81
kuwanufaisha 81
imewekwa 81
Taze 81
uchoyo 81
ck@@ 81
unaposoma 81
meya 81
aporudi 81
uwindaji 81
kiakiolojia 81
umzike 81
uliochapishwa 81
mlivyo@@ 81
Kipo@@ 81
kuganda 81
wanaelekea 81
washir@@ 81
amekuja 81
Q@@ 81
Uprotestanti 81
Wachanga 81
akaji@@ 81
thel@@ 81
alitumika 81
linalofuata 81
mstahimilivu 81
Usafiri 81
alilofanya 81
utau@@ 81
kuwapendeza 81
aliyejulikana 81
walikazia 81
adhibiti 81
Nov@@ 81
Green@@ 81
Yudasi 81
ism 81
kidem@@ 81
zitawa@@ 81
kuge@@ 81
zilizomo 81
wakitumaini 81
nilipoona 81
lilitia 81
ongwe 81
ulijua 81
ú@@ 81
Ever@@ 81
ingoni 81
itegemea 81
uzalendo 81
Waa@@ 81
imepata 81
alivyou@@ 81
Afadhali 81
192 81
Hawana 81
yatakavyokuwa 81
vitabia 81
atakomesha 81
alihisije 81
Sita@@ 81
pigia 81
hujua 81
kishirikina 81
Margar@@ 81
Nyuki 81
kunju@@ 81
mala 81
anac@@ 81
Ikitegemea 81
Servetus 81
agia 81
alwa 81
fani 81
wasiojua 81
bit@@ 81
biki 81
yorithi 81
emo@@ 81
inaanza 81
ilikimo 81
igu 81
kutuimarisha 81
akaribishwa 81
Maur@@ 81
roatia 81
Tuzo 81
ilgrimu 81
Isaac 81
Mrefu 81
bwawa 81
aliketi 80
Alexander 80
iliyopuliziwa 80
inachukua 80
najisi 80
unoni 80
unakabili 80
wanac@@ 80
myeupe 80
waasherati 80
kiharusi 80
hams@@ 80
akiona 80
Bob 80
aliiumba 80
kumtegemeza 80
Kukabili 80
1929 80
akiendelea 80
walitazamia 80
wapinga 80
waliotumia 80
kufutwa 80
kukaliwa 80
angeendelea 80
Ingawaje 80
Matineja 80
shahada 80
ifafanua 80
uanze 80
Kum 80
bandarini 80
Upya 80
Wilson 80
ghuba 80
iendelee 80
huiona 80
afanulia 80
wanachukua 80
waliot@@ 80
uend@@ 80
tukuze 80
wakab@@ 80
von 80
ugawany@@ 80
Max 80
Kiumbe 80
nahodha 80
keaje 80
wanaochunguza 80
kunyonyesha 80
inayotoa 80
ipatikanayo 80
alitumwa 80
tit@@ 80
Wapaswa 80
Nic@@ 80
New@@ 80
Jum@@ 80
penya 80
kunyakua 80
ibi 80
alijitolea 80
Mfanyi 80
huripoti 80
TUK@@ 80
urudishwa 80
ijulikanayo 80
nipo 80
Hawakuwa 80
cr@@ 80
umeazimia 80
kusikiwa 80
Anaongeza 80
Publications 80
Tarso 80
kunyonya 80
piganwa 80
wakaf@@ 80
utumia 80
Gereza 80
achishwa 80
ANA@@ 80
hawatumii 80
kokeini 80
walijitolea 80
Msis@@ 80
raf@@ 80
Yezreeli 80
wamekata 80
ema@@ 80
Mol@@ 80
POKUWA 80
vinavyopatikana 80
kuwaita 80
uunga 80
Kla@@ 80
wakiteseka 80
col@@ 80
linalohusu 80
Njooni 80
Alasiri 80
ENDO 80
Fun@@ 80
pandwa 80
avajo 80
odhibitiwa 80
insulini 80
tamka 80
kuzis@@ 80
wamekabili 80
machafuko 80
huhubiri 80
krifa 80
Aristotle 80
kichefuchefu 80
kinat@@ 80
orota 80
kumet@@ 80
Uthamini 80
inajulikana 80
hugharimu 80
Mashindano 80
tupo 80
limen@@ 80
aliya@@ 80
kununuliwa 80
akamtoa 80
uliwi 80
Hakutakuwa 80
kuwaponya 80
ziit@@ 80
mishumaa 80
himu 80
mnajua 80
taya 80
kasirani 80
Akim@@ 80
ilipi@@ 80
Stanley 80
alitawala 80
Lina 80
hawawa@@ 80
ningepata 80
Mch@@ 80
Majirani 79
uhandisi 79
anaongezea 79
awezayo 79
vilabu 79
unahusu 79
aliyechaguliwa 79
waliopendezwa 79
ushwe 79
tukiendelea 79
laiki 79
Ban@@ 79
Watazamaji 79
kunam@@ 79
wanaonekana 79
Mavuno 79
aon@@ 79
anayetembea 79
haliwezekani 79
tunapoona 79
inatokana 79
ming@@ 79
kutumbukia 79
Watalii 79
inayozunguka 79
azimu 79
ogoro 79
Kando 79
kandamizwa 79
itayarishia 79
huungana 79
uruki 79
walitengeneza 79
Gil@@ 79
amwita 79
kujirekebisha 79
mswaki 79
Waadilifu 79
Hasara 79
Yame@@ 79
WAZ@@ 79
watakaokuwa 79
iloni 79
hamis@@ 79
kunyesha 79
vitak@@ 79
litafanikiwa 79
hutusaidiaje 79
ghorofa 79
nione 79
zushwa 79
akajaribu 79
uluh@@ 79
Lini 79
mipira 79
enezaji 79
kushind@@ 79
Wasimamizi 79
Vinavyo@@ 79
wakaao 79
Ush@@ 79
Dario 79
waua 79
walichochewa 79
engelenge 79
Wakaldayo 79
matata 79
wanachotaka 79
yafa@@ 79
Maadui 79
imebadilika 79
akua 79
mko@@ 79
nendeni 79
sikupata 79
eruhusiwa 79
kumwoa 79
afanyaye 79
Fuata 79
Sitaki 79
hawashiriki 79
mm@@ 79
kupigania 79
Jaracz 79
wakose 79
kuhar@@ 79
kanzu 79
wanatoka 79
Bat@@ 79
amasi 79
moza 79
kujazwa 79
Vifo 79
bihi 79
inaonyeshwa 79
kuniona 79
kukagua 79
mtengenezaji 79
wavuta 79
wanakubaliana 79
Mtengenezaji 79
adri 79
waweke 79
Mawimbi 79
vyepesi 79
Walakini 79
Nyuma 79
Mhindi 79
France 79
hitilafu 79
iangaze 79
usiwa@@ 79
aridhika 79
nikitafuta 79
niwezavyo 79
Dereva 79
Cambridge 79
jomba 79
zinazozidi 79
ujoto 79
awazwa 79
tukubali 79
ist@@ 79
tunaposoma 79
hihi 79
Milenia 79
ifaa 79
Yapata 79
Kihindi 79
nikiishi 79
Kaa 79
huongozwa 79
walisali 79
anayemwamini 79
magogo 79
waliripoti 79
hakuto@@ 79
Die 79
mikondo 79
Kiuchumi 79
fauti@@ 79
Mema 79
pambana 79
pit@@ 79
busu 79
Mprotestanti 79
Dhiki 79
8.@@ 79
Today’s 79
filimbi 79
FAL@@ 79
Sit@@ 79
atambue 79
Rh 79
ujaribu 79
hafanyi 79
Kihuduma 79
alisihi 79
Ushauri 79
bun@@ 79
dira 79
bagua 79
kuwapelekea 79
Namshukuru 79
Walipata 79
Md@@ 79
atahakikisha 79
hujihisi 79
hiris@@ 79
olo 78
ami@@ 78
ants 78
ée 78
UNICEF 78
Kof@@ 78
ameli@@ 78
kuha@@ 78
1917 78
Kimb@@ 78
watim@@ 78
Carthage 78
ui@@ 78
abia 78
White 78
mom@@ 78
Sur@@ 78
Walter 78
rik@@ 78
OTO 78
iy@@ 78
alin 78
masa@@ 78
Ja@@ 78
mala@@ 78
mile@@ 78
NIM@@ 78
Don@@ 78
urur@@ 78
ANGU 78
yoo 78
Ol@@ 78
atili 78
Rome 78
can 78
likweli 78
30@@ 78
LUK@@ 78
Jacques 78
Tiber@@ 78
fantas@@ 78
102 77
sie 77
Shu@@ 77
ereva 77
alig@@ 77
eremka 77
tin 77
etr@@ 77
und 77
yer 77
KI 77
out@@ 77
kaliwa 77
Pre@@ 77
Pit@@ 77
Rod@@ 77
Ig@@ 77
omoka 77
fadhaiko 77
Einstein 77
imbaji 77
Sisera 77
Men@@ 77
dang@@ 77
nyingine@@ 77
Chris 77
hesab@@ 77
Polyglot 77
ca@@ 77
safa 77
ric@@ 77
sto@@ 77
00@@ 77
ghar@@ 77
aribishwa 77
chun@@ 77
alb@@ 77
lilil@@ 76
Stockholm 76
Bas@@ 76
Septu@@ 76
hindu 76
horuba 76
ougua 76
himi@@ 76
YA@@ 76
Elie@@ 76
Pu@@ 76
England 76
andikaji 76
pwa 76
anna 76
ES 76
maanishwa 76
ten 76
Sho@@ 76
uluhishwa 76
hiti 76
polio 76
anie 76
irithi 76
field 76
Manuel 76
oba 76
hoto 76
alme 76
Reho@@ 76
micha@@ 76
hil@@ 76
fadha@@ 76
kana@@ 76
ushinda 76
ADHD 76
BO 75
Zo@@ 75
SD 75
Orthodo@@ 75
WAR@@ 75
Belize 75
ün@@ 75
Auschwitz 75
Jacob 75
ukari 75
Zi@@ 75
NE 75
diwa 75
atl 75
1870 75
Res@@ 75
Bid@@ 75
kusi@@ 75
sla@@ 75
ikira 75
Ga@@ 75
ʼ@@ 75
Ted 75
aribu 75
ikina 75
hamiaji 75
kumwa 75
kutaf@@ 75
weki 75
elevu 75
Gol@@ 75
Eunike 75
manu@@ 75
amed@@ 75
fundishaji 74
saidizi 74
Gethsemane 74
Carmen 74
ikiana 74
kl@@ 74
onyesha@@ 74
Hom@@ 74
zikia 74
AP 74
Iren@@ 74
1500 74
ade 74
PET@@ 74
Á@@ 74
isani 74
HE@@ 74
My@@ 74
pag@@ 74
Greek 74
fuate 74
bule 74
Benjamin 74
Armenia 74
Pol@@ 74
MAG@@ 74
ER 74
Va@@ 74
Point 74
adhi 74
amizi 74
Ngu@@ 74
urura 74
tis@@ 74
shiniki@@ 74
ingizio 74
engea 74
ufuku 74
arajio 74
zy@@ 74
estra 74
Volk@@ 74
tengene@@ 74
Top 74
Boston 74
ARA 74
Ac@@ 74
kins 74
CD 74
hifa 74
los 74
pal@@ 74
pofu 74
Century 73
Tas@@ 73
kuzi 73
yab@@ 73
hr@@ 73
Bir@@ 73
Nahu@@ 73
Kepler 73
olog@@ 73
Herbert 73
yoka 73
wiwa 73
AKA 73
Bulletin 73
exic@@ 73
koma@@ 73
ISA 73
ok 73
INTH@@ 73
Family 73
❑ 73
EMB@@ 73
hawishi 73
Child 73
ingine@@ 73
wawe@@ 73
asuaji 73
Liberia 73
Swahili 73
Mormon 73
aidi 73
Guide 73
Wis@@ 73
Institute 73
Süddeutsche 72
Roberto 72
ampuni 72
umilivu 72
alada 72
ilyn 72
toria 72
Diane 72
ungano 72
tre@@ 72
kushu@@ 72
hemoglob@@ 72
wee 72
SIMULI@@ 72
euro 72
West@@ 72
mvun@@ 72
shikamanifu 72
ick@@ 72
Wafany@@ 72
ision@@ 72
fotostock 72
Mars 72
ahir@@ 72
etem@@ 72
Sak@@ 72
Jor@@ 72
esh 72
ALA 72
ukap@@ 72
Biblical 72
Calcutta 72
ais 72
hn 72
hifu 72
1934 72
udha@@ 72
ikanayo 72
ris 72
Claire 72
kura@@ 71
wit@@ 71
Man 71
dhiha@@ 71
Rachel 71
bap@@ 71
mwandikia 71
Colorado 71
Bund@@ 71
Cleveland 71
hili@@ 71
azamio 71
Mari@@ 71
Kre@@ 71
NA@@ 71
lu@@ 71
kush@@ 71
amoishi 71
imi 71
hiko 71
hindi 71
KGB 71
Dr@@ 71
chea 71
ei 71
TI 71
chur@@ 71
Rho@@ 71
Gro@@ 71
Sc@@ 71
107 71
Adolf 71
ung’unika 71
arehe 71
pa·rou·siʹa 71
LE 71
kupat@@ 71
Loida 71
Photo@@ 71
er’s 71
Leone 71
____ 71
chemi 71
113 71
Jen@@ 71
esheni 71
itole@@ 71
tuv@@ 71
Phillips 70
101 70
ADH@@ 70
ografia 70
aranga 70
Cul@@ 70
dif@@ 70
uze@@ 70
ujali 70
Dha@@ 70
insia 70
isri 70
fif@@ 70
ier 70
raibu 70
ustin 70
1879 70
etu 70
aul@@ 70
1927 70
Theodore 70
uda 70
kuepuk@@ 70
areti 70
illi@@ 70
Livingstone 70
Ale@@ 70
Mart@@ 70
afutia 70
Collection 70
waliob@@ 70
Sing@@ 70
ushang@@ 70
od 70
Michigan 70
inzani 70
12,000 70
Haku@@ 70
Antwerp 70
mti@@ 69
ilig@@ 69
gen@@ 69
oresha 69
Pres@@ 69
Magazine 69
BAB@@ 69
apani 69
bo 69
Lisa 69
Cop@@ 69
Greenland 69
Rab@@ 69
meth@@ 69
Stu@@ 69
Research 69
FAM@@ 69
MP@@ 69
amulia 69
DH@@ 69
Slovakia 69
jiwa 69
Williams 69
jika 69
Au@@ 69
uro@@ 69
atur@@ 69
260 69
uzo@@ 69
kani@@ 69
wawa 69
itoleaji 69
Fl@@ 69
isivyo@@ 69
Ptolemy 69
170 69
arani 68
hasiriwa 68
inc@@ 68
hel@@ 68
samb@@ 68
zede@@ 68
Ralph 68
118 68
Morning 68
Mbo@@ 68
Doris 68
JO@@ 68
Bombay 68
weje 68
ima@@ 68
Jesus 68
oth@@ 68
hem@@ 68
zop@@ 68
estro@@ 68
sikit@@ 68
Golden 68
Der@@ 68
ê@@ 68
don@@ 68
avana 68
ich 68
Bangladesh 68
Copyright 68
Tham@@ 68
Tom@@ 68
Rich@@ 68
Cher@@ 68
etezwa 68
Dover 67
ance 67
Rol@@ 67
Lat@@ 67
sey 67
Jef@@ 67
ins 67
amaha 67
pond@@ 67
alamiko 67
USA 67
bury 67
Theresa 67
Bris@@ 67
ous@@ 67
hug@@ 67
heshimika 67
hami@@ 67
SHI@@ 67
Sig@@ 67
Harry 67
retina 67
epo 67
evun@@ 67
Fernando 67
iname 67
lot@@ 67
ion@@ 67
horn 67
pet@@ 67
rija 67
Dani@@ 67
adiliana 67
Schroeder 67
Mississippi 67
dy 67
boamu 67
hump@@ 67
spres@@ 67
ë 67
ofu 67
Service 67
Nicholas 66
obo 66
2014 66
Thames 66
tz 66
rud@@ 66
Get 66
tro@@ 66
wongo 66
onyeshana 66
BE@@ 66
Hay@@ 66
sson 66
Lib@@ 66
ambar@@ 66
amino 66
1,900 66
kariri 66
Shirley 66
uhi 66
80,000 66
ations 66
ks@@ 66
Ellen 66
essa 66
Kiev 66
gha@@ 66
Ahasu@@ 66
inadamu 66
chapishaji 66
udio 66
ins@@ 66
wanyika 66
ingen@@ 66
Kol@@ 66
000 66
wasiliano 66
1.2 66
rea 66
chumb@@ 66
11,000 66
Ucha@@ 66
asaf@@ 66
isia 66
Bahamas 66
Ken@@ 66
Whiston 66
nad@@ 66
Island 66
Bero@@ 66
Fer@@ 66
Dal@@ 66
ky 66
María 66
Iceland 65
Dan@@ 65
let 65
Nab@@ 65
ulizi 65
America 65
Words 65
ky@@ 65
Spr@@ 65
agi 65
erezani 65
ḥ@@ 65
aburi 65
anwa 65
Reg@@ 65
itayar@@ 65
alini 65
him 65
soda 65
Barcelona 65
athi 65
Asahi 65
Pir@@ 65
lepole 65
ust@@ 65
EN 65
111 65
mke@@ 65
Mich@@ 65
O’@@ 65
Sicily 65
Steven 65
kevu 65
Thi@@ 65
Mig@@ 65
sherehekeo 65
plas@@ 65
anduku 65
600,000 65
memb@@ 65
Constantinople 65
Fur@@ 65
zungumzie 65
ILIVYO@@ 64
Chernobyl 64
hibitiwa 64
sak@@ 64
Belsha@@ 64
saiti 64
Here 64
YE@@ 64
Asiaweek 64
lab@@ 64
ars 64
Wells 64
Cel@@ 64
sif@@ 64
ion 64
THE@@ 64
uju@@ 64
hes@@ 64
jawapo 64
Laur@@ 64
arasa 64
Waka@@ 64
semin@@ 64
Rosa 64
angilio 64
kushang@@ 64
kw@@ 64
hero@@ 64
ufikir@@ 64
ambui 64
god@@ 64
Cyril 64
ong’aa 64
Kuny@@ 64
oksidi 64
Nav@@ 64
uon@@ 64
kal@@ 64
amaza 64
thawab@@ 64
rap@@ 64
wakilishi 64
hea 64
Josephus 64
Luis 64
Bec@@ 64
ng’@@ 64
Nancy 64
Wi@@ 64
ʹa 64
Johannes 63
itiwa 63
oripotiwa 63
Geor@@ 63
Did 63
Lau@@ 63
Louise 63
stero@@ 63
timize 63
Uny@@ 63
Chur@@ 63
jezea 63
undi 63
mol@@ 63
ord@@ 63
Pan@@ 63
Burundi 63
hen@@ 63
Rober@@ 63
len@@ 63
Weekly 63
Reuters 63
MCS 63
Sum@@ 63
Malta 63
240 63
msa@@ 63
Getty 63
elo 63
Tir@@ 63
ajuaje 63
Paul@@ 63
Ves@@ 63
hiro 63
Pius 63
karimu 63
grafia 63
Sophia 63
Illinois 63
ille 63
ran@@ 63
aux 63
Fe@@ 63
Bala@@ 63
Maha@@ 63
Stock 63
1910 63
147 63
Eva 63
une 63
wishi 62
TR@@ 62
Anti@@ 62
Amy 62
cio 62
Victor 62
can@@ 62
tone 62
Sy@@ 62
539 62
à 62
Anita 62
hike 62
kin 62
Nature 62
hisiwa 62
tul@@ 62
PI 62
angazaji 62
Has@@ 62
oti@@ 62
Ris@@ 62
wezek@@ 62
anii 62
Trans@@ 62
1924 62
Fes@@ 62
Spi@@ 62
Hab@@ 62
OR 62
fisha 62
és 62
Tan@@ 62
Solomon 62
aifa 62
Pav@@ 62
Santiago 62
Estienne 62
Ve@@ 62
dale 62
weta 62
bon@@ 62
chag@@ 62
320 62
anikiwa 62
mwagwa 62
ty@@ 62
Cameron 62
astr@@ 62
gosp@@ 62
Ant@@ 62
vivi@@ 62
fat@@ 61
Theological 61
asu@@ 61
pac@@ 61
Honduras 61
40@@ 61
ghu@@ 61
sikiaji 61
Maimon@@ 61
gofya 61
UND@@ 61
Sk@@ 61
kukis@@ 61
adirio 61
hakunge@@ 61
Laod@@ 61
erna@@ 61
Hod@@ 61
fol@@ 61
Missouri 61
uata 61
Lak@@ 61
amilifu 61
ukut@@ 61
dir@@ 61
Antônio 61
Dy@@ 61
dhi 61
laz@@ 61
Ah 61
asub@@ 61
Alfred 61
ziki 61
ufa 61
wezacho 61
DS 61
Sheba 61
alishaji 61
Morris 61
ms 61
[...]
