, 802650
. 772513
the 685699
of 424882
to 422520
and 323657
a 259576
in 256366
that 188468
“ 171372
” 167435
is 143909
: 129994
for 112423
? 104060
was 91294
with 89450
I 87609
be 85817
— 84566
as 82930
The 82351
- 80434
are 78073
his 78032
not 76552
you 75083
​ 73493
it 71705
on 70548
have 70197
we 68508
by 61060
he 60043
will 58919
from 57199
their 54917
or 53060
Jehovah 52898
God 51081
they 50410
this 46875
can 46327
who 46243
our 43365
were 43209
at 42587
an 41837
Bible 41260
Jesus 40364
one 40129
us 39908
had 39781
all 38314
In 36502
your 36165
what 36041
do 34905
has 34472
’ 33902
them 33598
people 33361
my 32694
about 31905
What 30652
when 29758
time 29539
; 29153
would 29100
him 28303
but 28073
Jehovah’s 27900
may 27787
) 27561
( 27513
God’s 27306
! 27289
more 25946
life 25231
some 24750
so 24410
me 24062
1 23462
been 23140
did 23077
It 22652
also 22567
many 21943
out 21727
those 21692
How 21485
such 21398
her 21286
He 20487
up 20260
A 20167
there 19705
than 19578
other 19281
‘ 19165
no 18892
Witnesses 18531
how 18035
which 17880
years 17800
if 17790
into 17753
But 17540
even 17491
way 17211
these 16996
said 16961
We 16958
help 16955
good 16790
work 16646
This 16404
world 16138
could 15755
When 15599
] 15547
[ 15546
its 15467
should 15412
2 15232
day 15230
only 15226
things 15128
They 15078
says 14703
does 14692
man 14692
make 14676
first 14675
children 14501
love 14396
she 14340
Christian 13953
because 13478
For 13477
made 13122
If 13112
As 12980
over 12969
like 12963
being 12724
earth 12713
family 12676
others 12590
3 12536
Paul 12169
then 12135
Christians 11923
need 11757
just 11560
well 11545
Kingdom 11448
see 11188
4 11174
You 11140
must 11099
example 11087
Why 11010
two 10941
now 10935
new 10632
after 10578
5 10462
faith 10462
know 10458
take 10456
Christ 10366
most 10361
spirit 10348
un@@ 10228
any 10197
before 10195
much 10102
And 10006
come 9941
very 9922
become 9880
parents 9857
own 9708
15 9689
men 9644
through 9590
6 9484
year 9480
8 9374
true 9242
spiritual 9228
death 9215
/ 9188
congregation 9054
where 8983
times 8951
another 8939
words 8916
found 8894
heart 8812
10 8747
One 8728
12 8670
ones 8614
use 8576
able 8366
used 8272
each 8249
book 8207
give 8183
great 8174
That 8106
name 8106
young 8079
11 8079
So 8049
human 8020
study 8007
home 7967
long 7940
es 7865
might 7830
7 7820
s 7815
part 7744
find 7739
say 7733
Some 7727
However 7711
feel 7686
in@@ 7670
often 7613
get 7611
person 7524
S@@ 7513
truth 7446
To 7420
called 7419
same 7371
9 7339
John 7303
never 7158
against 7123
today 7118
every 7063
too 7055
end 7035
At 6978
14 6948
There 6905
back 6895
though 6865
13 6816
keep 6791
old 6772
After 6771
go 6745
am 6715
down 6708
place 6685
ed 6668
re@@ 6665
under 6614
became 6596
Do 6581
read 6577
three 6571
came 6558
during 6533
still 6527
means 6503
Word 6459
brothers 6443
put 6425
right 6419
ing 6415
days 6403
century 6401
wrote 6396
himself 6355
20 6347
why 6274
among 6261
water 6221
ers 6212
want 6148
live 6146
’s 6137
apostle 6133
22 6060
away 6053
er 6020
later 6017
began 6010
17 6006
important 6003
upon 5985
however 5938
New 5927
16 5912
course 5911
learn 5895
without 5892
b 5860
Is 5797
My 5790
age 5771
show 5761
word 5747
article 5728
while 5714
told 5709
between 5661
view 5642
worship 5607
living 5581
By 5577
On 5569
themselves 5558
hope 5537
wife 5514
Many 5512
set 5477
With 5473
given 5466
C@@ 5449
s@@ 5444
fact 5401
power 5400
18 5377
mind 5362
Then 5361
let 5349
Israel 5340
both 5333
number 5304
news 5300
Peter 5283
house 5218
religious 5211
little 5187
few 5184
ts 5164
food 5157
David 5121
blood 5074
making 5071
Matthew 5070
always 5065
child 5050
service 5023
She 5018
gave 5011
faithful 4998
peace 4997
Father 4979
took 4974
serve 4942
ate 4922
ministry 4917
doing 4879
dis@@ 4877
really 4869
Yet 4867
full 4861
Psalm 4859
city 4847
holy 4825
problems 4809
ways 4800
These 4794
knowledge 4790
mother 4772
preaching 4754
women 4738
son 4721
19 4701
asked 4700
hand 4699
known 4689
something 4688
off 4682
having 4677
24 4661
His 4646
father 4638
order 4627
Our 4615
since 4598
humans 4589
think 4582
D@@ 4580
percent 4567
ation 4547
result 4544
Even 4544
T@@ 4506
21 4482
together 4455
look 4429
high 4427
left 4422
c@@ 4417
Satan 4409
p@@ 4408
reason 4394
ated 4376
Yes 4372
school 4370
care 4369
g@@ 4359
lives 4350
F@@ 4346
last 4340
Scriptures 4330
future 4322
t 4307
better 4298
ting 4292
land 4289
different 4287
King 4256
loving 4251
y 4249
again 4246
All 4238
personal 4231
experience 4227
marriage 4225
ever 4220
woman 4218
king 4202
less 4201
o@@ 4198
From 4167
No 4156
whom 4150
system 4147
toward 4140
around 4140
small 4126
thought 4126
United 4120
disciples 4107
body 4104
en@@ 4098
felt 4089
* 4085
World 4053
G@@ 4051
learned 4046
P@@ 4041
t@@ 4025
needed 4024
d@@ 4009
m 4007
B@@ 4000
health 3993
religion 3991
possible 3984
early 3978
far 3972
cannot 3964
done 3956
25 3954
face 3953
helped 3946
consider 3943
friends 3938
bring 3937
best 3934
light 3918
led 3907
l@@ 3902
husband 3899
believe 3896
fellow 3885
hard 3881
went 3864
b@@ 3853
servants 3846
joy 3842
30 3836
r@@ 3819
along 3812
• 3810
Your 3807
L@@ 3781
until 3778
self 3760
Isaiah 3759
A@@ 3746
purpose 3736
fear 3735
happy 3733
Thus 3729
matter 3721
following 3720
ating 3715
meetings 3712
war 3707
states 3704
especially 3703
ancient 3694
questions 3693
million 3691
cause 3691
four 3673
Although 3664
R@@ 3662
Let 3648
money 3644
language 3633
sin 3630
Son 3620
prayer 3617
next 3614
Proverbs 3613
eyes 3613
nations 3602
close 3592
law 3592
someone 3584
including 3573
Since 3569
Because 3568
Moses 3536
large 3528
Jerusalem 3527
certain 3526
continue 3524
Greek 3520
yourself 3516
going 3505
According 3502
support 3498
bad 3492
E@@ 3485
mankind 3483
enjoy 3477
wisdom 3467
present 3466
soon 3448
23 3447
case 3421
understand 3420
M@@ 3419
situation 3418
teaching 3399
members 3398
share 3392
thus 3388
relationship 3386
yet 3381
heaven 3376
point 3375
al 3365
H@@ 3363
free 3349
problem 3328
received 3308
brought 3299
died 3297
elders 3295
try 3283
fine 3278
Of 3277
difficult 3276
saying 3274
change 3273
control 3272
real 3271
counsel 3265
reading 3261
sense 3253
saw 3253
e@@ 3249
talk 3248
ask 3247
While 3242
taken 3241
e 3241
feelings 3236
kind 3235
attention 3204
al@@ 3203
heavenly 3202
States 3198
Corinthians 3198
wicked 3170
□ 3167
needs 3166
er@@ 3159
brother 3158
whole 3157
giving 3155
thing 3154
turn 3147
answer 3146
nor 3145
magazine 3135
seen 3135
avoid 3132
speak 3128
dead 3128
makes 3123
Who 3122
likely 3115
message 3113
special 3091
page 3086
n@@ 3081
group 3076
countries 3075
baptized 3066
ted 3063
form 3061
moved 3058
righteous 3053
question 3046
according 3034
night 3034
sure 3031
desire 3025
mean 3019
Now 3019
simply 3015
information 3014
Israelites 3012
Jews 3008
Revelation 2999
N@@ 2996
provide 2985
once 2982
Those 2976
C.E 2971
respect 2969
co@@ 2966
28 2962
wrong 2962
f@@ 2960
anointed 2959
wanted 2959
Luke 2958
Timothy 2956
Can 2945
taking 2940
Creator 2938
country 2930
using 2914
suffering 2913
act 2909
Watchtower 2901
ourselves 2894
reports 2893
ro@@ 2888
involved 2887
wise 2883
lead 2882
During 2882
Are 2881
Such 2879
nothing 2878
ten 2877
past 2873
strong 2869
serving 2866
ago 2864
feet 2862
account 2861
knew 2852
near 2849
five 2847
receive 2838
history 2830
comes 2829
Acts 2828
Not 2824
ent 2818
sent 2806
months 2804
second 2801
Read 2797
whether 2796
miles 2794
here 2783
An 2782
already 2780
thinking 2775
similar 2768
taught 2768
follow 2758
church 2754
benefit 2751
public 2750
local 2747
st@@ 2737
coming 2737
v@@ 2735
area 2727
on@@ 2724
started 2720
Today 2718
common 2708
heard 2705
works 2702
based 2700
married 2695
Does 2687
Romans 2674
longer 2672
within 2661
lost 2655
physical 2649
principles 2648
ations 2644
im@@ 2639
ly 2633
Their 2631
material 2628
nation 2628
interest 2627
k 2627
false 2603
O@@ 2602
Catholic 2595
clear 2592
attitude 2588
y@@ 2585
Be 2578
ter 2577
conduct 2575
evidence 2575
sp@@ 2574
government 2572
born 2568
Lord 2568
Consider 2561
James 2559
rather 2546
tell 2542
Law 2541
leave 2523
trust 2523
alone 2521
die 2512
temple 2511
People 2506
gives 2503
matters 2500
W@@ 2498
serious 2494
p 2492
shows 2483
ac@@ 2478
showed 2474
▪ 2473
perhaps 2472
fully 2470
report 2470
stand 2466
head 2465
teach 2464
several 2460
mentioned 2459
truly 2457
remain 2455
certainly 2453
side 2449
ability 2444
Job 2443
kindness 2441
40 2441
26 2440
perfect 2440
held 2440
return 2433
km 2433
at@@ 2431
divine 2428
an@@ 2427
disease 2420
explains 2418
w@@ 2414
See 2407
sons 2407
followers 2406
lived 2406
natural 2406
Roman 2395
th@@ 2393
soul 2391
got 2391
29 2390
individuals 2387
above 2382
kept 2380
Hebrew 2376
written 2368
meaning 2368
modern 2365
Rather 2365
itself 2365
over@@ 2361
ad@@ 2359
friend 2355
explained 2353
In@@ 2351
prophet 2349
loved 2348
Witness 2348
six 2346
therefore 2345
provided 2345
enough 2342
greater 2342
pray 2340
hours 2337
ings 2332
Adam 2330
deep 2324
continued 2322
named 2320
organization 2318
rule 2315
Jewish 2311
Genesis 2296
half 2294
kingdom 2293
almost 2286
anyone 2281
THE 2279
lands 2275
ar@@ 2271
righteousness 2269
authority 2266
en 2265
everlasting 2265
effort 2262
thousands 2261
older 2259
resurrection 2257
millions 2253
anything 2252
sacrifice 2250
le 2247
Africa 2246
seem 2245
happiness 2242
27 2238
ex@@ 2237
call 2236
ine 2234
effect 2231
pain 2228
Most 2225
Abraham 2224
Indeed 2216
hands 2214
ates 2211
don’t 2211
sheep 2211
efforts 2210
con@@ 2210
Life 2208
K@@ 2207
or@@ 2206
Re@@ 2204
animals 2203
visit 2200
issue 2199
open 2193
strength 2190
spiritually 2188
further 2188
least 2183
period 2179
working 2171
understanding 2170
activity 2168
accept 2166
stated 2166
families 2160
qualities 2160
various 2158
move 2157
powerful 2151
easy 2149
apostles 2145
inspired 2143
freedom 2137
violence 2134
everything 2130
ic 2129
Will 2128
50 2125
i@@ 2125
regarding 2121
red 2119
prophecy 2117
speaking 2117
V@@ 2116
True 2115
sisters 2113
hold 2110
33 2110
le@@ 2106
meeting 2099
rest 2099
31 2098
circumstances 2095
pioneer 2092
promise 2091
field 2084
m@@ 2073
described 2071
tion 2071
available 2071
Another 2071
de@@ 2070
ous 2070
sister 2070
Like 2068
hear 2067
considered 2065
served 2064
books 2064
youths 2063
slave 2057
doubt 2054
value 2054
whose 2053
congregations 2052
pages 2046
bo@@ 2045
allow 2043
Paul’s 2042
events 2040
ling 2040
ons 2039
remember 2039
sea 2036
letter 2035
Awake 2030
forever 2028
ant 2026
parts 2024
poor 2021
Hall 2019
O 2019
single 2018
role 2018
comfort 2016
proved 2011
students 2009
Church 2005
it@@ 2004
York 2003
May 2002
spoke 2001
usually 2000
li@@ 1997
source 1996
birth 1996
position 1990
Hebrews 1984
prove 1982
ch@@ 1981
is@@ 1981
places 1981
published 1981
hearts 1980
helps 1979
g 1978
opportunity 1974
a@@ 1973
Instead 1971
shall 1967
heavens 1965
tried 1964
B.C.E 1960
sexual 1960
centuries 1959
decision 1955
worldwide 1954
pre@@ 1950
I@@ 1947
ab@@ 1946
influence 1945
Hence 1942
Europe 1935
Still 1935
32 1935
gift 1935
es@@ 1934
est 1933
E 1932
actually 1929
reach 1926
walk 1926
newspaper 1925
takes 1923
confidence 1915
offer 1914
mo@@ 1914
seems 1912
activities 1912
areas 1910
Bible’s 1907
witness 1904
caused 1904
Just 1904
building 1903
First 1902
accepted 1900
promises 1900
myself 1900
job 1896
created 1895
el 1892
carry 1892
former 1886
getting 1879
wonderful 1878
state 1878
standards 1877
line 1877
ar 1877
class 1877
force 1873
k@@ 1873
moral 1873
18@@ 1872
learning 1871
di@@ 1870
world’s 1870
vital 1868
turned 1866
Devil 1863
articles 1862
grow 1861
Solomon 1861
sometimes 1860
medical 1860
tic 1859
regular 1859
tree 1855
ag@@ 1853
Christ’s 1851
branch 1846
forth 1845
changes 1844
short 1843
daily 1840
advice 1838
throughout 1837
po@@ 1836
tr@@ 1836
instance 1834
decided 1832
eat 1830
als 1828
n 1828
judgment 1827
War 1826
prayers 1825
ks 1822
seek 1822
stop 1822
start 1822
meet 1820
apply 1817
met 1815
rich 1814
tions 1814
morning 1813
glory 1810
entire 1805
clearly 1804
action 1803
air 1803
blessing 1803
o 1802
pro@@ 1802
clean 1801
experienced 1796
no@@ 1793
Daniel 1792
complete 1790
per 1788
everyone 1788
pressure 1788
car@@ 1785
education 1784
privilege 1781
Did 1781
recent 1780
honor 1778
listen 1777
seven 1776
subject 1775
door 1772
week 1770
exercise 1769
deal 1767
earlier 1767
political 1766
anger 1766
Later 1766
cases 1763
ap@@ 1762
social 1761
office 1760
as@@ 1759
English 1758
music 1758
godly 1755
happened 1753
results 1752
teachings 1749
added 1748
ir@@ 1746
reported 1742
willing 1741
concern 1739
beautiful 1738
answers 1737
Joseph 1733
laws 1732
per@@ 1731
offered 1730
convention 1726
J@@ 1725
maintain 1720
ground 1720
ity 1720
develop 1719
behind 1719
l 1717
sound 1715
changed 1715
recorded 1713
practice 1713
daughter 1711
South 1711
direction 1709
appreciation 1708
thoughts 1708
el@@ 1706
am@@ 1705
else 1705
training 1704
S 1701
par@@ 1699
stay 1698
Before 1697
include 1696
2@@ 1696
indeed 1695
built 1694
responsibility 1693
prison 1692
be@@ 1690
returned 1687
examples 1686
․ 1686
et@@ 1685
creation 1685
appreciate 1683
blessings 1675
ic@@ 1674
flesh 1674
sun 1674
wonder 1674
American 1673
ans 1672
suffer 1670
promised 1669
gain 1668
angels 1667
les 1662
necessary 1661
one’s 1661
build 1659
reasons 1659
Have 1658
quickly 1658
35 1657
to@@ 1657
either 1656
couple 1655
noted 1655
destruction 1655
determined 1654
fire 1654
About 1651
program 1651
mate 1647
lack 1644
ti@@ 1642
harmony 1642
Scriptural 1642
More 1641
ma@@ 1640
regularly 1639
appointed 1635
practical 1633
addition 1632
conditions 1631
shown 1628
loyal 1627
major 1626
chapter 1622
raised 1621
ors 1620
u@@ 1620
looking 1619
Nevertheless 1617
produce 1617
regard 1614
languages 1613
attend 1612
please 1610
believers 1610
ence 1610
Though 1608
foretold 1608
ve 1606
literature 1605
helping 1604
allowed 1599
protect 1595
out@@ 1595
qu@@ 1594
h@@ 1593
Germany 1593
sins 1593
pay 1591
becoming 1589
proper 1589
treatment 1588
decisions 1587
encouraged 1586
developed 1585
conscience 1583
Society 1582
preach 1582
Mary 1582
ies 1582
girl 1579
mental 1578
parent 1578
feeling 1577
interested 1575
beginning 1574
realize 1574
mis@@ 1574
sex 1574
sign 1573
Great 1572
fish 1571
related 1571
positive 1569
neither 1568
risk 1568
Moreover 1565
quality 1563
notes 1561
Therefore 1560
arrived 1559
ransom 1558
Others 1557
occasion 1557
basis 1557
for@@ 1556
ho@@ 1555
paradise 1555
precious 1554
enjoyed 1554
nearly 1551
spent 1551
species 1550
lot 1550
ul@@ 1550
imitate 1549
nature 1548
speech 1546
fall 1545
acts 1543
baptism 1541
increase 1541
praise 1540
Mark 1536
actions 1535
ally 1535
population 1534
ying 1533
leaders 1532
condition 1530
se 1530
record 1529
test 1528
Bethel 1525
studying 1525
Egypt 1523
town 1523
third 1523
beyond 1521
worked 1521
groups 1521
3@@ 1520
followed 1519
trying 1518
Ex@@ 1516
outside 1515
month 1512
studies 1511
ters 1510
killed 1510
earthly 1510
simple 1508
Con@@ 1508
missionary 1508
crowd 1506
Mar@@ 1504
eventually 1503
greatest 1503
ready 1503
filled 1500
34 1497
provides 1495
homes 1494
Perhaps 1494
challenge 1494
society 1492
draw 1491
th 1489
room 1487
se@@ 1486
respond 1484
Satan’s 1482
emotional 1480
Would 1480
knows 1476
beliefs 1474
Keep 1473
60 1473
covenant 1471
tells 1470
ist 1469
individual 1464
100 1463
elder 1462
d 1459
wants 1458
h 1458
ance 1457
workers 1456
priests 1455
invited 1454
choose 1454
hour 1454
Eve 1453
idea 1453
Each 1453
original 1452
ri@@ 1452
member 1450
Jeremiah 1450
fl@@ 1449
integrity 1449
Compare 1448
quite 1447
success 1446
res@@ 1444
completely 1443
Soon 1442
car 1442
37 1440
walking 1440
cope 1439
cut 1439
business 1434
fulfillment 1432
trees 1430
om@@ 1429
ty 1429
France 1429
cities 1428
begin 1426
evil 1425
growing 1424
ch 1423
Spanish 1422
youth 1420
write 1419
traveling 1417
Brother 1414
de 1414
keeping 1413
University 1413
ses 1412
ed@@ 1410
sleep 1410
term 1410
revealed 1404
Babylon 1403
justice 1402
key 1402
Or 1401
seemed 1400
affect 1399
cr@@ 1399
$ 1399
security 1399
assignment 1398
Al@@ 1398
II 1397
so@@ 1397
70 1394
Where 1392
Samuel 1391
personality 1390
express 1390
salvation 1389
ering 1389
voice 1389
behavior 1387
active 1387
showing 1385
low 1384
drugs 1384
expect 1382
play 1382
presence 1381
ness 1381
observed 1380
j@@ 1379
although 1379
established 1377
benefits 1370
birds 1368
French 1367
calls 1367
Despite 1367
ism 1367
U.S 1366
weeks 1363
bear 1363
id@@ 1362
Love 1360
general 1359
happen 1358
seeking 1358
discipline 1357
prepared 1356
lo@@ 1356
expression 1356
spread 1355
fruit 1355
finally 1354
protection 1354
um 1353
scientists 1351
op@@ 1349
teacher 1349
stress 1349
psalmist 1349
abuse 1346
Christianity 1346
ship 1344
ur@@ 1343
Un@@ 1343
standing 1342
D 1341
spend 1341
warning 1341
text 1341
Young 1340
popular 1339
man’s 1339
alive 1339
accurate 1339
guidance 1338
authorities 1338
big 1337
prayed 1336
front 1334
final 1333
appropriate 1332
C 1332
eye 1332
produced 1331
firm 1331
em@@ 1327
fulfilled 1327
te@@ 1327
interests 1327
progress 1327
causes 1326
choice 1325
eating 1325
ator 1323
Center 1323
Rome 1321
Ephesians 1321
loss 1317
ens 1317
deeply 1316
us@@ 1315
inter@@ 1314
relief 1313
ep@@ 1310
servant 1310
I’m 1309
German 1309
believed 1307
whatever 1306
courage 1305
immediately 1304
suffered 1302
ants 1301
Children 1301
Holy 1298
explain 1297
missionaries 1297
expressed 1296
sick 1292
goal 1291
forms 1291
series 1289
obey 1288
Watch 1288
favor 1288
passed 1288
T 1287
assigned 1286
end@@ 1285
Messiah 1283
process 1281
easily 1281
encouragement 1280
under@@ 1279
Also 1279
particularly 1278
realized 1278
included 1277
Times 1276
Noah 1276
required 1275
knowing 1274
white 1274
adds 1270
unity 1270
blessed 1269
lies 1269
late 1269
endure 1268
forward 1268
police 1267
Paradise 1266
sacred 1266
normal 1265
Ar@@ 1264
sing 1263
encourage 1262
vision 1262
animal 1261
ary 1261
meant 1261
Australia 1259
ian 1259
baby 1257
research 1255
tribulation 1254
inside 1254
trials 1252
AIDS 1252
Tower 1251
appear 1251
boy 1251
Similarly 1249
destroyed 1249
contact 1248
discovered 1248
ha@@ 1248
reached 1246
il@@ 1246
up@@ 1246
carefully 1245
type 1244
road 1243
School 1243
responsible 1243
step 1242
bl@@ 1242
steps 1242
faced 1240
fight 1240
Japan 1240
mouth 1238
military 1238
ahead 1237
persons 1237
claim 1235
doctor 1234
danger 1234
recently 1233
African 1232
goes 1232
teachers 1231
tu@@ 1229
ing@@ 1228
aware 1228
Once 1225
affected 1225
ter@@ 1224
continues 1224
ages 1224
universe 1224
existence 1223
points 1223
eight 1220
enemies 1218
Dr 1218
dangerous 1216
visited 1216
hundreds 1215
instead 1212
priest 1212
patient 1211
across 1210
ill 1209
imperfect 1207
mon@@ 1207
approach 1206
viewed 1205
wives 1205
carried 1204
dedicated 1204
global 1204
z@@ 1204
energy 1203
effective 1202
despite 1202
island 1202
oil 1202
crime 1202
Only 1199
concerned 1199
international 1199
increased 1199
St 1199
attended 1197
declared 1196
mar@@ 1195
Co@@ 1194
opened 1193
prevent 1193
sub@@ 1191
importance 1191
experiences 1189
pe@@ 1189
basic 1189
unique 1187
brings 1182
Over 1180
ment 1180
break 1180
Well 1179
England 1179
Clearly 1178
Its 1177
reflect 1176
limited 1175
ked 1175
ice 1175
probably 1175
thousand 1174
environment 1174
uses 1174
amount 1173
display 1172
gold 1172
dedication 1171
tive 1169
science 1169
humble 1168
involves 1167
bed 1167
genuine 1166
ful 1166
effects 1164
Y@@ 1164
growth 1158
seed 1156
watch 1156
translation 1154
zed 1153
becomes 1152
Finally 1152
ves 1151
warm 1150
ists 1150
recognize 1149
Other 1149
kings 1148
ents 1148
av@@ 1148
desires 1148
writing 1148
sh@@ 1147
looked 1147
attack 1147
placed 1146
America 1146
consequences 1146
spoken 1145
writer 1144
Judah 1143
sight 1143
pl@@ 1142
cover 1142
creatures 1142
contrast 1140
closer 1140
belief 1140
publications 1140
i 1137
elderly 1134
Pro@@ 1133
heavy 1133
race 1131
seeing 1131
hospital 1130
main 1129
4@@ 1129
RE@@ 1129
story 1127
answered 1127
European 1126
command 1126
ver@@ 1126
z 1124
he@@ 1124
strengthen 1124
lose 1124
mountain 1123
mercy 1123
affection 1123
economic 1122
household 1122
search 1122
persecution 1122
Should 1120
drug 1119
gone 1118
ered 1118
reasonable 1118
alcohol 1118
includes 1118
ins 1118
violent 1117
cl@@ 1113
Memorial 1113
principle 1113
U@@ 1113
Among 1113
evening 1112
ingly 1112
victims 1111
chosen 1111
wide 1110
er’s 1109
devotion 1108
pass 1108
1914 1106
do@@ 1106
br@@ 1106
event 1103
particular 1103
u 1103
ite 1102
overseer 1101
lie 1100
run 1100
note 1099
rain 1098
agree 1097
factors 1097
worth 1097
refused 1096
practices 1096
April 1095
treat 1095
Y 1095
brain 1094
Saul 1094
village 1093
os 1093
ls 1092
cost 1090
ps 1090
waters 1090
doctors 1090
remained 1090
Canada 1088
● 1088
cha@@ 1087
plant 1087
80 1086
ative 1085
rec@@ 1085
higher 1085
minister 1084
cells 1084
negative 1083
failed 1082
examine 1082
man@@ 1081
requires 1081
Here 1081
ia 1080
Gilead 1080
ds 1080
plants 1078
forget 1077
National 1077
conclusion 1076
leading 1076
goals 1074
c 1074
warned 1073
India 1073
Two 1072
ec@@ 1072
truths 1072
court 1071
Mexico 1071
publishers 1070
manner 1070
hearing 1070
appeared 1069
picture 1069
date 1069
Good 1068
behalf 1068
greatly 1067
drink 1066
Christendom 1065
attending 1065
drinking 1065
sed 1064
pure 1062
ry 1062
center 1060
September 1060
stone 1059
sort 1059
expected 1058
loyalty 1058
occur 1058
didn’t 1058
angel 1057
due 1057
talking 1057
x 1057
average 1056
we@@ 1056
pioneers 1055
ches 1054
remains 1054
religions 1054
Remember 1053
weight 1051
Z@@ 1049
grew 1048
London 1047
billion 1047
Mount 1047
successful 1047
communication 1046
Ask 1045
community 1045
observe 1045
formed 1044
army 1044
aged 1042
appears 1042
relatives 1042
yourselves 1041
tongue 1041
IN 1041
ines 1040
sacrifices 1040
illness 1040
association 1039
reality 1039
improve 1038
asking 1037
save 1037
te 1037
specific 1037
urged 1035
size 1034
resurrected 1034
developing 1034
flock 1034
December 1033
Sea 1033
sa@@ 1033
Was 1033
opposition 1032
copy 1032
id 1031
response 1031
Ecclesiastes 1029
appearance 1028
presented 1028
sharing 1027
image 1027
safe 1027
ge@@ 1026
convinced 1024
train 1024
valuable 1024
measure 1024
tears 1024
putting 1023
decades 1023
quoted 1023
describes 1022
wa@@ 1022
Sometimes 1021
imagine 1021
hi@@ 1020
arrangement 1020
divorce 1020
skin 1019
August 1017
Her 1017
ious 1016
focus 1015
gifts 1013
level 1013
indicate 1012
churches 1012
values 1011
Philippians 1010
merely 1009
ets 1009
kill 1009
cultivate 1008
15@@ 1008
els 1008
illustration 1008
magazines 1007
accounts 1007
wine 1006
cancer 1004
surface 1004
foreign 1004
top 1004
rate 1001
fell 1001
forces 1000
com@@ 998
Health 998
hundred 997
situations 996
rejoice 995
ze 995
6@@ 994
direct 993
comments 993
wars 993
wild 993
ously 992
36 991
har@@ 991
British 990
challenges 990
January 989
Without 988
minutes 987
designed 987
verse 987
treated 986
July 986
overcome 986
Ad@@ 985
forest 985
contains 984
cur@@ 984
City 983
exist 983
45 983
enter 983
girls 982
Time 980
discuss 979
address 978
travel 978
Dis@@ 978
bread 978
la@@ 978
huge 978
M 978
Nations 977
company 974
younger 974
gods 974
It’s 973
ical 971
survive 971
Parents 970
personally 970
organized 970
Family 970
Joshua 969
estimated 968
Through 966
purposes 966
fail 966
ars 966
ically 965
listening 965
October 963
severe 963
foot 962
poverty 962
advantage 962
Furthermore 961
discussion 961
healthy 961
ery 960
ending 960
Mo@@ 960
March 960
total 960
guard 959
associated 957
State 956
ended 956
x@@ 955
guide 955
Under 955
drawn 954
pleasure 954
grateful 954
ends 953
battle 952
diseases 952
extent 952
caring 952
generation 951
Spain 951
200 950
issues 950
June 950
encouraging 948
judge 948
su@@ 947
obedient 946
humility 946
chi@@ 945
depression 945
impressed 944
letters 944
reveal 944
L 943
beauty 943
damage 943
ob@@ 941
lesson 940
paper 940
U.S.A 940
forgive 940
region 939
Bo@@ 939
delight 939
rise 939
Ro@@ 938
garden 937
Being 937
sincere 936
Look 936
statement 936
box 935
helpful 935
mere 935
busy 935
eternal 934
acceptable 934
gl@@ 934
ou@@ 933
5@@ 933
referred 933
saved 932
camp 932
ish 931
student 931
careful 930
obedience 929
financial 929
anxiety 928
studied 926
Really 926
Take 925
r 925
90 925
male 923
cor@@ 923
Every 922
TV 922
facts 921
legal 921
Mother 921
ws 920
East 919
understood 919
w 918
scientific 917
powers 917
ys 917
national 917
ut@@ 917
ra@@ 917
territory 916
ent@@ 914
construction 913
bringing 913
surely 913
Make 913
minds 911
variety 911
prepare 911
300 911
trained 910
wait 910
Jacob 910
setting 908
bar@@ 908
buy 908
38 908
secular 908
prophecies 907
Exodus 907
7@@ 907
adults 907
moving 906
secret 906
forced 906
vast 906
writes 905
Asia 904
list 903
sha@@ 903
inhabitants 901
leaving 901
color 901
um@@ 899
ently 899
fo@@ 899
fill 899
ge 898
y’s 897
cold 897
conversation 896
patience 896
endurance 896
wealth 895
views 893
telling 890
gr@@ 890
translated 890
critical 889
pas@@ 889
applied 889
a’s 888
ol@@ 887
Book 886
harm 886
preached 885
forgiveness 885
patients 885
evident 885
aid 884
earth’s 884
god 884
correct 884
fore@@ 883
sovereignty 883
famous 882
si@@ 882
leaves 879
essential 879
str@@ 878
escape 878
North 878
governments 876
concluded 876
44 876
seriously 875
black 875
mature 875
friendship 875
occurred 875
ev@@ 875
ass@@ 873
fast 873
cell 872
offering 871
development 871
ah 871
highly 870
lay 869
neighbors 868
recognized 868
paid 868
Deuteronomy 868
easier 868
wind 867
released 866
ments 866
names 866
hurt 864
wood 864
mountains 863
Colossians 863
concerning 863
Qu@@ 863
style 861
Brazil 861
consideration 860
cre@@ 860
responded 860
directly 859
sur@@ 858
neighbor 858
prospect 858
compassion 857
De@@ 857
houses 857
shepherd 857
16@@ 856
nearby 856
reward 856
ne@@ 856
ig@@ 855
confident 855
Both 855
Body 854
site 854
computer 853
smoking 853
waiting 852
wish 851
joined 851
International 851
covered 850
evidently 849
indicates 849
offspring 849
Biblical 848
Car@@ 848
table 848
Elijah 848
et 847
prophets 847
teaches 847
television 846
grown 846
bodies 845
commanded 845
Lo@@ 844
High 843
causing 843
emotions 842
ators 842
Galatians 841
Faith 841
promote 841
difference 841
ess 841
David’s 841
committed 840
official 840
request 839
researchers 839
ites 838
slaves 838
responsibilities 838
boys 838
che@@ 837
demons 836
disciple 836
ideas 836
stopped 836
worshipers 834
od@@ 834
capital 834
entered 833
subjects 833
chief 832
trouble 832
supply 832
Italy 829
darkness 828
meal 828
culture 827
instruction 827
Christmas 827
bearing 826
potential 825
St@@ 825
Internet 824
Per@@ 824
carrying 822
sit 821
her@@ 821
Latin 821
Ho@@ 821
8@@ 821
hot 820
located 820
circuit 820
·@@ 820
ely 819
unable 819
inc@@ 819
satisfaction 818
tor 818
impossible 818
non@@ 817
enemy 816
fulfill 816
worse 815
dec@@ 815
majority 815
beneficial 814
stars 814
pointed 814
war@@ 813
likewise 813
En@@ 813
largest 813
balanced 813
accomplish 813
refers 812
pursue 811
providing 811
Par@@ 811
increasing 811
1990 809
art 808
superior 808
copies 808
J 808
Day 807
join 807
destroy 806
overseers 804
soldiers 804
Having 804
est@@ 804
shared 803
discussed 803
ding 802
conclude 802
ms 802
nine 802
ise 801
zeal 801
create 801
February 800
approval 799
entitled 799
north 799
factor 797
constantly 797
it’s 797
ched 797
dealing 796
solution 795
trial 795
Sunday 795
ning 795
chose 795
ned 795
soil 794
pi@@ 794
decide 794
perform 794
Le@@ 793
rock 793
female 793
discreet 793
closely 792
wing 791
Earth 791
lying 790
November 790
e’s 788
42 788
R 787
distress 787
gathered 787
ES 786
immorality 785
tly 785
skills 785
f 784
ality 784
react 783
17@@ 783
ING 782
pattern 782
entertainment 782
river 782
contrary 781
surprise 781
cry 781
moment 780
directed 780
send 780
blind 780
res 779
ably 779
yes 779
immoral 777
Gospel 777
demonstrate 777
An@@ 776
habits 775
Res@@ 775
products 775
invitation 774
reveals 774
praying 774
ils 772
manifest 771
assured 771
generally 770
adult 769
complex 769
strive 769
identify 769
compared 768
Ezekiel 768
performed 767
We@@ 767
IN@@ 766
slow 766
constant 766
aspects 766
aside 766
raise 764
Land 764
receiving 763
husbands 763
struggle 763
atmosphere 763
riches 762
caught 762
remarkable 762
details 762
afraid 762
tics 761
outstanding 761
hair 760
sought 759
Com@@ 759
rights 759
rules 759
West 759
Could 758
journey 758
identified 758
lower 757
leads 756
arms 755
connection 755
describe 754
thank 754
hatred 754
threat 754
peoples 753
significant 753
H 753
distance 752
Britain 752
500 751
ministers 751
9@@ 751
fe@@ 751
trip 750
conflict 750
Imagine 750
ruler 749
conventions 749
fit 749
expressions 748
require 748
below 748
background 748
ping 748
handle 747
AN@@ 747
65 747
joyful 747
ships 746
dark 746
me@@ 746
apparently 746
Governing 746
Never 746
determine 745
today’s 745
and@@ 744
opening 743
daughters 743
rejected 743
feels 743
Thank 743
Happy 742
Ab@@ 742
granted 741
ON 741
tiny 740
calling 740
lasting 739
sal@@ 739
person’s 739
clothing 738
und@@ 738
River 736
speaks 736
numbers 735
non 735
ang@@ 734
street 734
ill@@ 734
ded 734
master 734
indicated 733
terms 733
tor@@ 733
tic@@ 733
Work 733
mat@@ 733
vo@@ 732
tend 732
dry 731
ics 731
balance 731
experts 730
min@@ 730
ED 729
turning 729
finding 728
visitors 728
opportunities 728
contribute 728
successfully 727
recalls 726
fruitage 726
wall 726
space 726
ities 725
ture 725
ton 724
claimed 724
witnessing 724
Testament 723
pride 722
chance 722
ure 722
sinful 721
Western 720
planet 720
mothers 719
officials 719
resist 719
wed 718
united 718
exactly 718
ud@@ 718
ching 718
sickness 718
comp@@ 718
useful 717
attendance 717
reference 717
surprised 717
tors 716
survey 716
Often 716
Russia 715
stood 715
agreed 715
1993 714
honest 714
touched 713
Regarding 713
pagan 713
assistance 713
ad 713
insight 712
ged 712
can@@ 712
resulted 712
bird 712
notice 711
claims 711
na@@ 711
numerous 710
ler 710
hate 710
ears 710
bre@@ 710
bul@@ 709
additional 709
ta@@ 708
Kings 708
delivered 708
phone 707
trade 707
Note 707
task 707
broken 706
2000 705
ane 704
services 704
Help 704
relates 703
gets 703
conducted 703
song 702
ma 702
deliver 701
heat 701
safety 700
lines 700
zealous 700
col@@ 700
39 699
replied 698
iting 698
News 697
failure 697
symptoms 695
sho@@ 695
middle 695
hand@@ 695
separate 695
disaster 695
Whether 695
hu@@ 695
apart 695
ste@@ 694
Po@@ 694
vi@@ 694
victim 694
au@@ 694
Encyclopedia 694
ving 693
traditional 693
northern 693
played 693
2,000 692
Soviet 692
physically 692
ark 692
scholars 691
ER 691
herself 691
EN@@ 691
For@@ 691
arranged 691
touch 690
ten@@ 690
Peace 690
marvelous 689
ight 689
inner 689
dangers 688
couples 688
tobacco 688
the@@ 688
fearing 688
traveled 688
child’s 688
uc@@ 687
goodness 687
bless 687
il 686
ought 686
tering 686
private 686
properly 685
peaceful 685
appreciated 685
content 685
acting 685
store 684
proof 684
sword 684
55 684
Has 684
Russian 683
mighty 683
release 683
ians 683
clergy 683
43 682
ited 682
© 682
History 681
Convention 681
Eventually 681
ner 680
Greece 679
harvest 679
Man 679
zing 679
Go 678
keeps 678
ina 678
harmful 677
.@@ 677
signs 676
suicide 676
K 675
Br@@ 675
tons 675
mer@@ 674
visiting 674
loves 674
Whatever 674
verses 674
Be@@ 673
sees 673
Translation 673
1995 673
W 673
can’t 672
price 672
1992 672
union 672
la 672
Ruth 671
walls 670
applying 670
none 670
ward 670
contain 670
sion 669
assembly 669
happens 669
methods 669
20th 669
ening 668
medicine 667
brochure 667
summer 667
primary 667
beloved 667
exposed 667
cap@@ 666
iled 666
satisfying 666
Isaac 666
ats 666
begins 664
finished 663
angry 662
remaining 662
walked 662
doctrine 662
He@@ 662
lessons 661
mark 661
temptation 661
st 661
400 660
Man@@ 660
worshippers 660
items 660
piece 660
belong 660
acted 660
illustrate 659
ci@@ 659
involve 659
ns 658
Israelite 658
faithfully 658
green 657
Think 657
41 656
ement 656
degree 656
Japanese 656
succeed 656
gradually 656
printed 655
occasions 655
ah’s 655
design 655
fer@@ 655
flowers 655
relationships 655
credit 654
hardly 654
reaching 654
abundance 654
strengthened 654
milk 653
wear 653
Surely 653
Pharisees 653
des@@ 652
clothes 652
exists 652
suddenly 651
Sadly 651
prophetic 651
smoke 651
sold 650
kindly 650
length 650
oned 650
Israel’s 650
attacks 650
suggests 650
games 650
conscious 649
weapons 649
obtain 649
Come 648
offers 648
difficulties 647
China 647
silver 647
rep@@ 647
freely 647
companions 646
suggestions 646
commandments 645
laid 645
tender 645
dr@@ 645
market 645
surgery 645
thanks 645
Human 644
serves 644
removed 644
ging 644
glorious 643
Tr@@ 643
ven@@ 643
Likewise 643
listened 643
Coliseum 643
excellent 642
opposite 642
Version 641
1994 640
allows 640
armies 640
president 639
To@@ 639
refer 639
mention 639
ours 639
charge 639
considering 638
fields 638
Says 638
AL@@ 638
ped 638
Students 637
worthy 637
diet 637
gu@@ 637
remove 636
pleased 636
familiar 636
dust 636
rendered 636
refuge 635
CH@@ 635
inhabited 635
lovers 634
project 634
ana 634
Professor 634
technology 634
resources 634
observes 633
interesting 633
advance 633
assist 632
abandoned 632
Early 632
winter 631
LI@@ 631
throne 631
é@@ 631
ces 630
mistakes 630
possibly 630
TO 629
holding 629
1@@ 629
wedding 628
memory 628
Se@@ 628
Ministry 628
rulers 628
eng@@ 628
straight 627
abundant 627
add 626
historian 626
literally 626
Di@@ 626
Court 626
intense 625
Mosaic 625
images 625
writings 625
floor 625
Armageddon 625
passing 624
pres@@ 624
cross 624
treasure 623
qualified 622
cares 622
row 622
firmly 622
secure 622
Har@@ 621
running 621
plan 621
team 621
instructions 621
south 620
dealings 620
super@@ 619
ened 619
scene 619
sad 619
cho@@ 618
feed 618
weak 618
on’s 618
sports 618
reminded 618
extreme 616
ER@@ 616
ub@@ 616
rely 615
customs 615
introduced 615
completed 615
frequently 615
fil@@ 615
engage 615
Thessalonians 614
spec@@ 614
struck 614
scriptures 614
tered 613
cal@@ 613
provisions 613
affairs 612
unusual 612
habit 612
Th@@ 611
marry 611
reaction 610
noticed 610
wickedness 610
undeserved 610
mass 610
involving 609
director 609
ran 609
season 608
Chinese 608
fed 608
miracles 607
district 607
Trinity 607
plans 607
heartfelt 607
lic@@ 607
shepherds 607
Eden 607
dear 606
Jo@@ 606
resolve 606
emb@@ 605
range 605
quit 605
islands 605
sl@@ 605
labor 605
widely 604
accomplished 604
deeds 604
ade 604
Ac@@ 603
writers 603
evolution 602
taste 602
determination 602
& 602
privileges 601
warns 601
Learn 601
threatened 600
ties 600
boat 600
looks 599
Cor@@ 599
foundation 599
mine 599
Besides 599
reduce 599
scale 598
weather 598
Us 598
stake 598
I’ve 598
Matt 598
N 598
1997 597
professor 597
systems 597
pieces 597
relatively 597
As@@ 597
location 596
fighting 596
path 596
ck@@ 595
changing 595
ta 595
abilities 595
wondered 595
48 595
Im@@ 595
playing 594
ible 594
ishing 594
concerns 594
pictures 594
schools 594
relations 594
mild 594
Religion 593
invisible 593
requirements 593
ali@@ 593
sky 593
ances 592
Within 592
aging 592
ard 591
people’s 591
Don’t 591
anxious 591
upright 591
movement 591
re 591
arrested 591
attitudes 590
Upon 590
P 590
restored 590
mankind’s 590
influenced 590
southern 590
ES@@ 590
stick 590
reject 590
production 589
stones 588
Out 588
ests 588
mel@@ 588
larger 587
accident 587
facing 587
trans@@ 587
fa@@ 586
painful 586
dignity 586
burden 586
1991 586
tro@@ 586
– 586
career 586
model 585
nuclear 585
sc@@ 585
quick 585
acc@@ 585
origin 585
No@@ 584
rulership 584
puts 584
communicate 584
dwell 583
inal 583
publication 583
Get 583
aspect 583
audience 583
board 583
1,000 583
visits 582
ear@@ 582
dream 582
sen@@ 581
mildness 581
standard 581
buildings 580
eager 580
Mat@@ 580
selfish 580
TH@@ 580
ile 580
tradition 579
represent 579
shed 579
types 579
hor@@ 579
approached 578
OF 578
Spirit 578
dress 578
Brooklyn 577
med 577
root 577
Str@@ 577
Almighty 576
Further 576
impact 576
theme 576
pounds 576
Death 575
principal 575
listed 575
establish 575
clo@@ 575
Organization 575
iron 575
tribes 574
Union 574
replaced 574
relative 573
suggested 572
aries 572
spirituality 572
if@@ 572
resulting 572
bound 571
broke 571
comforting 571
songs 571
injustice 570
operation 570
grief 570
ʹ@@ 570
reflected 570
demonstrated 570
mor@@ 570
imp@@ 570
wilderness 569
heads 569
ruin 569
figure 569
drive 569
speed 568
ne 568
spite 568
prominent 568
Assembly 568
refuse 568
kers 568
readers 568
eness 567
render 567
souls 567
spouse 567
readily 566
wn 566
reputation 565
ized 565
repeatedly 565
compare 565
routine 565
win 565
ute 565
19th 564
fr@@ 564
Italian 564
holds 564
Truth 564
watching 564
allowing 563
paying 563
extremely 563
contained 563
method 562
Halls 562
Mon@@ 562
Catholics 562
cent 562
suggest 562
Second 562
bas@@ 561
permanent 561
ition 561
provision 561
Indian 561
coast 561
fornication 561
Shortly 561
75 561
citizens 561
atic 561
Teach 561
burning 560
OR@@ 560
welcome 559
pleasant 559
programs 559
dra@@ 559
feature 558
1999 558
af@@ 558
fan@@ 558
bond 557
ru@@ 557
ph@@ 557
ths 557
ke 556
concentration 556
ni@@ 556
divided 556
ue 556
Sarah 555
UN 555
era 555
Ne@@ 555
innocent 555
dying 555
infected 555
fourth 554
den@@ 554
ban@@ 554
property 554
ide 554
reasoning 554
everywhere 554
sions 554
chapters 553
healing 553
por@@ 553
corruption 553
pollution 553
prisoners 552
tests 552
1996 552
stories 551
pen@@ 551
associate 551
Michael 551
char@@ 551
motivated 551
t’s 551
ati@@ 551
ved 550
gathering 550
ef@@ 550
deaths 550
Ma@@ 550
count 550
rebellion 549
ach 549
sitting 549
witnesses 549
twice 549
streets 549
previous 549
satisfied 549
Gu@@ 548
Pre@@ 548
industry 548
46 548
employment 548
native 548
brief 548
empty 548
guilty 548
moon 548
arise 548
visible 548
attempt 547
temporary 547
companion 547
solid 547
Dad 547
SONGS 546
rightly 546
Lord’s 546
forests 545
reads 545
features 545
tical 545
royal 544
reliable 544
press 544
B 544
ences 544
Nazi 543
sets 543
except 543
AR@@ 543
fun 543
ads 543
admits 543
equal 543
adopted 542
declare 542
marked 542
tes 542
ser@@ 542
ational 541
depressed 541
afterward 541
opinion 541
Service 540
asks 540
dies 540
isolated 540
error 540
widespread 539
protected 539
survived 539
limit 539
ip@@ 539
scholar 539
mates 538
discernment 538
radio 538
gen@@ 537
ba@@ 537
tropical 536
Give 536
seeds 536
terrible 536
traffic 536
theory 535
differences 535
ming 535
Ps 535
current 534
Des@@ 534
ethnic 534
levels 534
Following 533
ordered 533
kinds 533
thereafter 533
ric@@ 533
appeal 533
ce@@ 533
worker 532
losing 532
access 532
chemical 532
worldly 532
traits 531
Ch@@ 531
ak 531
indefinite 530
Old 530
camps 530
dwelling 530
fresh 530
grand 529
midst 529
gratitude 529
sake 529
burned 528
ids 528
extended 528
bi@@ 527
sive 527
journal 527
insects 527
post@@ 527
driving 527
video 527
heed 527
cy@@ 526
ug@@ 526
sufficient 526
adultery 526
Bal@@ 525
1998 525
punishment 525
media 525
commission 525
unless 525
admitted 525
newly 525
stage 525
Three 525
speaker 525
childhood 524
fly 524
tur@@ 524
distant 524
fathers 524
spending 524
wisely 523
roads 523
pressures 523
turns 523
Her@@ 523
sn@@ 523
obtained 523
inv@@ 522
spirits 522
ily 521
Eastern 521
leader 521
depends 521
victory 521
gained 521
enjoying 521
yed 521
custom 521
Empire 521
our@@ 521
IC@@ 520
Nor@@ 520
primarily 520
represented 520
salt 519
moves 519
3,000 518
viewpoint 518
ides 518
calm 518
historical 517
AL 517
stayed 517
cm 517
amazing 517
deaf 517
widow 517
focused 516
mile 516
cer@@ 516
fi@@ 516
mid 516
down@@ 516
remnant 516
nor@@ 515
creature 515
RO@@ 515
AS 515
exercising 514
teen 514
Messianic 514
elements 514
possessions 514
approved 514
shape 513
meat 512
disasters 512
author 512
climate 512
discern 512
recall 511
central 511
onto 511
sto@@ 511
fishing 511
blame 511
fulness 511
disorder 510
producing 510
wholesome 510
Flood 510
altar 510
civil 510
fin@@ 509
load 509
amb@@ 509
Noah’s 509
glad 509
residents 509
explanation 509
sinned 509
capable 508
you’re 508
commonly 508
ard@@ 508
otherwise 508
Abraham’s 508
raising 507
mas@@ 507
product 507
check 507
doesn’t 507
literal 507
modest 506
subjection 506
telephone 505
go@@ 505
demand 505
Sovereign 505
fleshly 505
displayed 504
ath@@ 504
ust 504
ruling 504
don@@ 504
ban 504
object 504
na 503
William 503
YOU 503
encourages 503
El@@ 503
storm 503
wings 502
endured 502
previously 502
feeding 502
Granted 502
hit 502
flight 502
gro@@ 502
ker 502
anymore 502
metal 501
ck 501
annual 501
ignore 501
fruits 500
falls 500
sources 500
inheritance 500
killing 500
á@@ 500
Orthodox 500
existed 499
sec@@ 499
talks 499
jobs 498
supplies 498
meaningful 498
courageous 498
ize 497
sensitive 497
torture 497
assignments 497
enable 497
Rec@@ 497
invite 496
referring 496
Institute 496
possess 495
F 495
rivers 495
Titus 495
beat 495
willingly 495
crisis 495
tax 495
600 494
grave 494
Long 494
capacity 494
da@@ 494
Paris 494
Protestant 494
Pentecost 494
supported 494
ills 493
Little 493
1989 493
surrounded 493
texts 493
Him 493
ished 492
Robert 492
inclined 492
difficulty 492
condemned 492
hat@@ 492
Much 492
Jonah 491
pat@@ 491
emotionally 491
Peter’s 491
lin@@ 491
bu@@ 491
station 490
kg 490
possibility 490
begotten 489
Interestingly 489
ified 489
ver 489
Promised 489
highest 489
ear 489
brotherhood 488
fears 488
hidden 488
parable 488
preparing 488
stands 488
afternoon 488
intended 487
14@@ 487
air@@ 487
materials 487
acknowledged 487
expensive 487
objects 486
reduced 486
accompanied 486
greed 486
tically 486
gas 486
waste 486
finds 486
spring 486
flee 485
contributed 485
Republic 485
theocratic 485
card 485
blue 485
Pl@@ 485
devoted 484
translations 484
proud 484
drawing 484
Millions 484
harsh 484
alert 483
sin@@ 483
fundamental 483
tribe 483
Science 483
ately 483
eggs 483
descendants 483
Chronicles 482
Op@@ 482
cared 482
obligation 482
logical 482
virtually 482
welfare 482
preserve 482
hell 481
symbol 481
tures 481
friendly 481
singing 480
47 480
temperature 480
headquarters 480
slavery 479
Sh@@ 479
arrangements 479
hur@@ 479
reign 478
Dec@@ 478
150 478
acy 478
pr@@ 478
att@@ 478
endeavor 477
farm 477
Micah 477
2001 477
meditate 477
guided 477
iti@@ 477
mail 477
commit 476
Cal@@ 476
sand 476
Next 476
ministerial 476
IS@@ 476
thrown 476
Or@@ 475
square 475
Doing 475
equipment 475
conflicts 475
sides 475
Everyone 475
Tract 474
throw 474
sol@@ 474
professional 474
ren@@ 474
produces 474
teeth 474
Scientists 474
Go@@ 474
Truly 474
east 474
Father’s 474
pornography 474
ea 473
messages 473
slowly 473
challenging 473
assures 472
UR@@ 472
corrupt 472
faces 471
officer 471
quiet 471
belongs 471
pregnant 471
Medical 471
printing 470
umb@@ 470
degrees 470
accepting 470
colors 470
Bibles 470
pioneering 470
CO@@ 470
prejudice 469
ify 469
AT@@ 469
repentant 469
description 469
babies 469
ot@@ 469
Red 469
grasp 468
guilt 468
debt 468
murder 467
merciful 467
repentance 467
necessarily 467
Egyptian 467
Ser@@ 467
survival 467
enabled 467
fallen 467
instructed 467
cen@@ 467
acknowledge 467
Mor@@ 466
bro@@ 466
ili@@ 466
informed 466
missing 466
structure 466
Please 466
whereas 466
totally 465
Pacific 465
ant@@ 465
AC@@ 465
Bar@@ 465
armed 465
farmers 465
tired 465
ack 465
depend 464
fre@@ 464
cont@@ 464
ind@@ 464
returning 464
foods 464
philosophy 464
HIV 464
deliverance 464
Corinth 463
repeated 463
bright 463
Women 462
mus@@ 462
bs 462
eliminate 462
drew 462
der 462
10@@ 462
Up 462
grain 462
traditions 462
solve 462
sinners 461
Grand 461
begun 461
AN 461
maintaining 461
miraculous 461
commercial 461
pick 461
Living 461
sexually 460
anti@@ 460
ination 460
cast 460
injury 460
awake 459
Researchers 459
Ste@@ 459
alism 459
income 459
worry 459
periods 459
Journal 459
ested 459
é 459
X@@ 459
outcome 459
virus 458
associates 458
conf@@ 458
tendency 458
teenagers 457
records 457
Sp@@ 457
bal@@ 457
1950 457
So@@ 456
unclean 456
Way 456
dollars 456
limitations 456
wer 456
Additionally 456
ce 456
preceding 456
sell 456
linked 455
believing 455
Lazarus 455
discouraged 455
Island 455
bones 455
sounds 455
equipped 455
gather 455
campaign 454
ocean 454
ON@@ 454
v 454
doors 454
agreement 453
lab@@ 453
ins@@ 453
game 452
ideal 452
ari@@ 452
ology 452
persecuted 452
EL@@ 452
IS 452
flying 451
Is@@ 451
Pharaoh 451
illustrations 451
gambling 451
Australian 451
inherited 450
Nehemiah 450
ster 450
measures 450
snow 450
ore 450
rapidly 450
increasingly 450
que 449
gi@@ 449
suitable 448
covering 448
cure 448
atory 448
extra 448
Study 448
searching 448
Source 448
volunteers 447
sang 447
humbly 447
dog 446
California 446
thr@@ 446
eting 446
George 445
Ap@@ 445
Using 445
fat 445
surrounding 445
vin@@ 445
plenty 445
ace 445
sw@@ 445
respected 445
universal 445
smaller 444
commands 444
impression 444
rare 444
ran@@ 444
sat 444
Making 443
ut 443
shortly 443
opposed 443
grass 443
yo@@ 443
drop 443
finish 442
pe 442
squ@@ 442
identity 442
conviction 442
tho@@ 441
5,000 441
Hel@@ 441
engaged 441
Ber@@ 441
tested 441
Congregation 441
ur 441
2,@@ 441
ani@@ 441
Charles 441
explo@@ 440
idolatry 440
restore 440
bank 440
bottom 440
fascinating 440
Questions 440
inst@@ 439
itions 439
partner 439
forgiving 439
Me@@ 439
ided 439
ges 438
Use 438
ards 438
G 438
waves 438
trusted 438
strengthening 438
elsewhere 438
thankful 438
relate 437
couldn’t 437
port 437
bacteria 437
Scripture 437
ny 437
occurs 437
initiative 436
Unlike 436
children’s 436
lovingly 436
father’s 436
The@@ 436
Ave 436
context 435
ast 435
zation 435
ak@@ 435
flow 435
faithfulness 435
pa@@ 435
imperfection 435
iv@@ 435
sorts 434
bus 434
benefited 434
cat@@ 434
comment 434
mistake 433
typical 433
tional 433
catch 433
assurance 433
ire 433
achieve 433
silent 433
pan@@ 433
ell 432
reply 432
function 432
esses 432
vers@@ 432
Years 432
horse 432
worst 432
intelligent 432
Arena 432
tle 431
admonition 431
discussions 431
ys@@ 430
Men 430
generous 430
portion 430
uni@@ 430
spe@@ 430
rage 430
exp@@ 430
sites 429
Babylonian 429
ruled 429
abandon 429
tent 429
ale 428
profound 428
entirely 428
preserved 428
cas@@ 428
Inc 428
rav@@ 428
miracle 428
Fear 428
AND 427
countless 427
an’s 427
legs 427
rising 426
possession 426
demands 426
enables 426
facilities 426
empire 426
narrow 426
abo@@ 425
founded 425
head@@ 425
ners 425
height 425
ber@@ 425
judges 425
closed 424
delighted 424
2002 424
bitter 424
host 424
transfusions 424
Middle 424
66 424
mb@@ 424
sun@@ 424
warfare 423
fac@@ 423
ine@@ 423
bought 423
At@@ 423
ca@@ 423
ly@@ 423
schedule 423
outlook 423
round 423
ensure 423
wrath 423
mainly 423
Hope 422
Any 422
pul@@ 422
mother’s 422
regardless 422
ir 422
ial 421
Ob@@ 421
section 421
settled 421
Fe@@ 421
ley 421
Notice 420
scripture 420
obeying 420
ty@@ 420
approaching 420
hy@@ 420
inches 420
executed 420
transfusion 420
WHO 420
ory 420
route 420
Photo 419
compassionate 419
title 419
ow@@ 419
ash 419
teenage 419
star@@ 419
IL@@ 419
Association 419
lowly 419
urges 418
perfection 418
eg@@ 418
cars 418
educational 418
permission 418
work@@ 417
surprising 417
satisfy 417
announced 417
Cain 417
ular 417
humankind 417
status 417
marital 416
Back 416
criminal 416
Wor@@ 416
admit 416
ib@@ 416
mission 416
hungry 416
Mis@@ 416
immediate 416
Concerning 415
ris@@ 415
figurative 415
Modern 415
upbuilding 415
unknown 415
pleasing 415
sentence 415
sign@@ 414
poured 414
proverb 414
Name 414
depth 414
Christendom’s 414
ther@@ 414
significance 413
tri@@ 413
giant 413
pursuing 413
peers 413
rewarding 413
IT@@ 413
patiently 413
choices 413
weaknesses 413
stronger 413
jo@@ 413
reg@@ 413
Ireland 413
LO@@ 413
tempted 413
sustain 413
base 412
ref@@ 412
plain 412
globe 412
tel@@ 411
addressed 411
dness 411
talked 411
WHAT 411
Mom 411
ishes 411
tively 410
publicly 410
pur@@ 410
leg@@ 410
favorite 410
Marriage 410
cruel 410
double 410
Gospels 410
calamity 410
rejoicing 410
immortal 409
ky 409
hospitality 409
pose 409
fitting 409
oc@@ 409
separated 409
Am 409
istic 408
UN@@ 408
examination 408
headed 408
sending 408
with@@ 408
rewarded 408
Child 408
somewhat 407
practiced 407
refreshing 407
pain@@ 407
ands 406
mil@@ 406
park 406
cultures 406
met@@ 406
considerable 406
Baal 406
version 405
ulation 405
Were 405
life’s 405
vic@@ 405
ra 405
accused 405
ve@@ 405
ST@@ 405
rac@@ 405
Poland 405
Meanwhile 405
Ephesus 404
rooms 404
ental 404
damaged 404
similarly 404
troubled 404
Fo@@ 404
limits 404
lights 404
arrive 404
towns 404
lips 404
bor@@ 404
Col@@ 403
Passover 403
hear@@ 403
symbolic 403
glass 403
Lot 403
Evidently 403
proceeded 403
oral 402
Prayer 402
exchange 402
effectively 402
ame 402
Spiritual 402
bears 402
listeners 402
cup 402
hopes 402
Which 401
weekly 401
arrival 401
comfortable 401
inherit 401
Zechariah 401
ki@@ 401
extraordinary 401
remembered 400
immune 400
51 400
flower 400
handed 400
resolved 400
beast 400
tragedy 400
Worship 399
Again 399
foolish 399
character 399
unds 399
imprisoned 399
hoped 398
grows 398
improved 398
unt 398
lion 397
strange 397
ades 397
defense 397
Daily 397
Research 397
acquire 397
crops 397
attractive 397
antly 396
ised 396
Things 396
staff 396
Cor 396
Do@@ 396
prosperity 396
lers 395
el’s 395
rid 395
PAGE 395
testimony 395
wrongdoing 395
falling 395
reminds 395
oxygen 394
tion@@ 394
won 394
memories 394
Ancient 394
1970 394
dating 394
coffee 394
ell@@ 393
weakness 393
remind 393
Over@@ 393
fled 393
Museum 393
shaped 393
em 393
accidents 393
Right 393
72 392
tim@@ 392
adding 392
obvious 392
app@@ 392
risks 392
politics 392
happening 392
AS@@ 391
deeper 391
teenager 391
bit 391
opposers 391
west 391
concept 390
Leviticus 390
positions 390
breaking 390
application 390
increases 390
Pres@@ 390
acquainted 390
supposed 390
exciting 390
swe@@ 390
Solomon’s 389
commented 389
144,000 389
jealousy 389
eli@@ 389
endless 388
desirable 388
oldest 388
vis@@ 388
52 387
Committee 387
Learning 387
dramatic 387
eds 387
normally 387
1945 386
ements 386
machine 386
latter 386
og@@ 386
combined 386
water@@ 386
extensive 386
Last 385
thoroughly 385
replace 385
Above 385
infection 385
crowds 385
pic@@ 385
roof 385
ading 385
Char@@ 385
fifth 385
domestic 385
senses 385
motives 385
rap@@ 384
participate 384
sacrificing 384
ologist 384
recreation 384
fought 384
vessels 384
roots 384
presents 384
minute 384
witnessed 383
famine 383
Caesar 383
ungodly 383
expectations 383
Religious 383
eding 383
favorable 383
meantime 383
hunger 383
unrighteous 382
equ@@ 382
realm 382
desert 382
deadly 382
exc@@ 382
tw@@ 381
desired 381
applies 381
largely 381
productive 381
genetic 381
urge 381
pair 381
starting 380
recommended 380
Bre@@ 380
dealt 380
experiencing 380
Park 379
cycle 379
illustrated 379
rarely 379
passage 378
companies 378
wearing 378
prefer 378
cond@@ 378
Pope 378
enting 378
land@@ 378
Ed@@ 378
cy 378
trusting 377
expressing 377
Reading 377
49 377
emergency 377
breast 377
Malachi 377
lar@@ 377
2003 376
discussing 376
ble 376
branches 376
inspiring 376
Ta@@ 376
tual 376
V 376
cloud 375
fuel 375
treasures 375
loud 375
afflicted 375
Jonathan 375
Cro@@ 375
Central 374
horses 374
buried 374
Philip 374
originally 374
wealthy 374
cried 374
Avoid 374
plague 373
spar@@ 373
detail 373
goods 373
tragic 373
miss 373
of@@ 373
realistic 373
classes 373
sel@@ 373
creating 373
sy@@ 372
om 372
ze@@ 372
oring 372
Food 372
choosing 372
upset 372
tation 372
remote 372
Esther 372
festival 372
US@@ 372
conversations 371
villages 371
planning 371
ign@@ 371
banned 371
costs 371
review 371
privileged 371
Supreme 371
eternity 370
Dead 370
Try 370
reap 370
upper 370
earthquakes 370
tongues 369
openly 369
Hitler 369
3,@@ 369
1919 369
noise 369
draws 369
iously 369
fewer 369
low@@ 369
Throughout 369
700 368
meals 368
tain 368
grand@@ 368
seemingly 368
forming 368
ket 368
generations 368
affects 368
Ocean 368
strongly 368
celebration 367
expert 367
sup@@ 367
maintained 367
goats 367
soft 367
distributed 367
uting 367
Galilee 367
conducting 367
letting 367
advanced 367
ordinary 366
Certainly 366
des 366
declaring 366
connected 366
10,000 366
vain 366
initial 365
attempts 365
Pilate 365
Judea 365
lift 365
Americans 365
viewing 365
asts 365
exact 365
rendering 364
Year 364
avoided 364
decade 364
seventh 364
Ze@@ 364
flood 364
iness 364
amounts 364
magnificent 364
eless 364
zo@@ 364
differ 364
aring 364
tools 364
wipe 364
Je@@ 363
objective 363
sleeping 363
all@@ 363
prey 363
cultural 363
organizations 363
statements 363
reflects 362
Thomas 362
shot 362
54 362
Elisha 362
Society’s 362
washed 362
spreading 362
containing 362
apping 362
weigh 362
minor 362
planted 361
mourning 361
Department 361
ple@@ 361
accompanying 361
tre@@ 361
Athens 361
hide 361
destination 361
rapid 360
encounter 360
ord@@ 360
Mas@@ 360
ette 360
entrusted 360
muscles 360
AM@@ 360
add@@ 360
ease 360
pregnancy 360
university 360
Mal@@ 360
ase 359
appealing 359
golden 359
dem@@ 359
tries 359
cher 359
destructive 359
IT 359
◆ 359
ol 359
12@@ 359
observing 359
prospects 359
Trust 358
wr@@ 358
Bur@@ 358
% 358
dy 358
1960 358
naturally 358
enormous 358
da 358
Encyclopædia 358
La@@ 357
Moscow 357
comm@@ 357
controlled 357
eration 357
spot 357
lacking 357
tar@@ 357
despair 357
grandparents 357
° 357
permitted 357
ball 357
56 356
amp@@ 356
tened 356
transferred 356
mal@@ 356
den 356
Dictionary 355
owner 355
yl@@ 355
tin@@ 355
alized 355
aking 355
strike 355
execution 355
recognition 355
pos@@ 355
judicial 354
smile 354
continuing 354
bow 354
oning 354
marriages 354
driver 354
le’s 354
itive 354
outset 354
filling 354
friendships 354
Britannica 354
ha 354
kids 354
Thanks 353
planned 353
passengers 353
mentally 353
perfectly 353
code 353
cattle 353
hab@@ 353
sudden 353
enti@@ 353
Me 353
winds 353
protective 352
tless 352
clouds 352
clay 352
anim@@ 352
eling 352
represents 352
1980 352
fault 351
aff@@ 351
Blvd 351
discovery 351
soci@@ 351
handling 351
dropped 351
Divine 351
ist@@ 350
manuscripts 350
pursuit 350
eagerly 350
bur@@ 350
rates 350
Need 350
Abel 350
span 349
lifestyle 349
regarded 349
onal 349
seat 349
obstacles 349
devastating 349
ong@@ 348
Jordan 348
Netherlands 348
safeguard 348
massive 348
uring 348
rose 348
Lamb 348
Afterward 348
educated 348
anxieties 347
1988 347
tremendous 347
willingness 347
lets 347
repair 347
formerly 347
ie 347
namely 347
discover 347
im 347
CA 347
apparent 346
errors 346
warnings 346
morally 346
Cha@@ 346
wooden 346
tens 346
figures 346
prize 346
off@@ 346
quar@@ 346
earnestly 346
shop 346
edition 346
loc@@ 345
refugees 345
rescue 345
Ger@@ 345
attracted 345
ined 345
star 345
afford 345
unexpected 345
wheat 345
Sa@@ 345
rid@@ 345
valley 345
comparison 345
cutting 345
HOW 344
survivors 344
loose 344
fold 344
document 344
San 344
Portuguese 344
plane 344
MA@@ 344
asleep 344
chronic 343
communities 343
Against 343
arose 343
reasoned 343
Tur@@ 343
ll@@ 343
sincerely 343
asting 343
fixed 343
constructed 343
ams 342
Know 342
overwhelming 342
ese 342
lonely 342
earthquake 342
16th 342
disorders 342
adjust 342
Heart 342
party 342
lady 342
win@@ 342
Persian 342
ass 341
independence 341
attached 341
Age 341
influences 341
ignored 341
likened 341
Answers 341
duties 341
assume 341
She@@ 340
defined 340
sharp 340
bone 340
ick@@ 340
shoulder 340
US 339
concludes 339
tear 339
minded 339
ising 339
virtue 339
Pe@@ 339
attain 339
recommend 338
managed 338
ented 338
safely 338
grounds 338
racial 338
environmental 338
ka 338
actual 338
abusive 338
doubts 338
scre@@ 338
crying 337
Water 337
everyday 337
der@@ 337
instrument 337
Mediterranean 337
Pr@@ 337
alternative 337
ues 337
Sil@@ 337
ka@@ 337
follows 337
eful 337
strangers 337
Maria 337
ick 337
lake 337
priority 336
vary 336
meditation 336
frustration 336
120 336
Bill 336
Bel@@ 336
defend 336
Russell 336
sugar 336
BY 336
RI@@ 336
parental 336
peer 335
bel@@ 335
confirmed 335
ish@@ 335
fulfilling 335
ult 335
respects 335
billions 335
bishop 335
ring 335
LE@@ 335
53 334
zes 334
prime 334
proclaimers 334
Mil@@ 334
ot 334
prophesied 334
regret 334
aps 334
2004 334
119 334
00 333
pers 333
shine 333
Likely 333
Knowledge 333
manifested 333
extend 333
Ever 333
preparation 333
pal@@ 333
det@@ 333
heal 333
emperor 332
gaining 332
pressed 332
Actually 332
Cap@@ 332
Richard 332
badly 332
TI@@ 332
Li@@ 332
frequent 332
Sabbath 332
addiction 332
teens 332
ko@@ 332
Jude 331
hated 331
vegetables 331
Switzerland 331
wasn’t 331
men@@ 331
charged 331
abroad 331
ride 331
hoping 331
serpent 331
loneliness 331
ca 330
spo@@ 330
ums 330
tire 330
Consequently 330
burn 330
ung 330
dev@@ 330
carbon 330
Blood 330
meek 330
ual 330
reside 330
Council 330
transmitted 330
reli@@ 329
War@@ 329
Ter@@ 329
Te@@ 329
trac@@ 329
occasionally 329
cred@@ 329
End 329
gate 329
El 329
Hor@@ 329
Star 329
flo@@ 328
school@@ 328
Several 328
Gentiles 328
gre@@ 328
Happiness 328
motive 328
pho@@ 328
Aaron 328
itation 328
akes 327
map 327
oppression 327
Judges 327
Judge 327
permit 327
Knowing 327
whenever 327
mag@@ 327
arm 327
impressive 327
overwhelmed 327
wash 326
supporting 326
ome 326
peak 326
4,@@ 326
lifetime 326
window 326
eled 326
mostly 326
western 326
creative 326
repent 326
Suddenly 326
reminders 326
Job’s 326
taxes 326
delegates 326
ots 326
BIBLE 325
Numbers 325
alongside 325
Live 325
explaining 325
6,000 325
Hezekiah 325
adjustments 325
disappointed 325
therapy 325
19@@ 324
settle 324
bride 324
thereby 324
Happily 324
ros@@ 324
amazed 324
Barnabas 324
biological 324
cooperation 324
crushed 324
83 324
chemicals 324
emphasized 324
breath 324
compromise 324
Amos 324
cul@@ 324
nest 324
exposure 323
exile 323
Judaism 323
happily 323
awe 323
Cur@@ 323
La 323
cool 323
rewards 323
ech 323
submit 323
session 323
ide@@ 323
eastern 323
selected 323
striking 322
Better 322
Cr@@ 322
hardships 322
thrilled 322
Tim 322
stable 322
pope 321
specifically 321
collection 321
hall 321
sweet 321
IA 321
Coun@@ 321
selling 321
tract 321
lat@@ 321
infant 321
engaging 321
cli@@ 321
healed 321
View 321
stream 320
pit@@ 320
Deli@@ 320
tus 320
accurately 320
Lake 320
duty 320
broad 320
sayings 320
Neither 320
forgotten 320
100,000 319
cand@@ 319
tail 319
commandment 319
prior 319
ay 319
orders 319
tom@@ 319
20@@ 319
Volume 319
wor@@ 319
conquered 319
Civic 319
igh@@ 318
reaches 318
cling 318
sts 318
substance 318
continually 318
Vatican 318
gentle 318
instruments 318
expectation 318
detailed 318
vegetation 318
Cre@@ 317
bio@@ 317
shock 317
Judas 317
rent 317
sa 317
Ag@@ 317
badness 317
physician 317
Freedom 317
co 317
Sermon 317
maturity 317
blo@@ 316
manage 316
Recently 316
WHEN 316
far@@ 316
tabernacle 316
zealously 315
presentation 315
marks 315
promoted 315
hel@@ 315
reader 315
ast@@ 315
Prov 315
Canadian 315
Thousands 315
urgent 315
Can@@ 315
Elders 315
net 315
aming 314
disobedience 314
decline 314
priesthood 314
treating 314
cited 314
opinions 314
ining 314
Martha 314
Become 314
funds 314
promotes 314
Enoch 313
VI@@ 313
izing 313
lawlessness 313
Am@@ 313
Adam’s 313
colored 313
fair 313
idols 313
tured 313
accord 312
timely 312
Far 312
Eli@@ 312
warn 312
mi@@ 312
volume 312
enduring 312
ligh@@ 312
thick 312
Zephaniah 311
paragraph 311
skill 311
itude 311
movies 311
practicing 311
post 311
ster@@ 311
incident 311
aim 311
tower 311
honesty 310
belongings 310
Mc@@ 310
Faithful 310
cleaning 310
Herod 310
Bro@@ 310
composed 310
Especially 310
strict 310
tracts 310
firstborn 310
Dr@@ 310
restoration 309
border 309
Theocratic 309
Nisan 309
DNA 309
funeral 309
glorify 309
Islands 309
tan@@ 309
touching 309
tea 309
worn 308
independent 308
immortality 308
Wisdom 308
earnest 308
dad 308
Courtesy 308
tied 308
watched 308
inging 308
tal@@ 307
enjoyable 307
rebellious 307
Rights 307
Bethlehem 307
regions 307
estimate 307
employed 307
Home 307
lowing 307
delightful 307
crimes 306
prof@@ 306
Es@@ 306
hole 306
rel@@ 306
loaded 306
brotherly 306
plays 306
1930 306
tains 306
vulnerable 306
lean 306
sy 306
saving 306
borne 306
thin 306
’@@ 306
outer 305
valid 305
vessel 305
assemblies 305
ti 305
silence 305
receives 305
Power 305
entering 305
adequate 305
Heb 304
def@@ 304
95 304
Mag@@ 304
governing 304
priorities 304
vehicle 304
Cl@@ 304
proclaimed 304
LE 304
ʹ 304
ifying 303
believes 303
Master 303
Ha@@ 303
yellow 303
fare 303
underground 302
Joel 302
succeeded 302
peaceable 302
ous@@ 302
guarantee 302
Washington 302
Stephen 302
cultivating 302
Inter@@ 302
wave 302
ude 302
garments 301
helper 301
judged 301
dogs 301
morality 301
recommends 301
failing 301
machines 301
fever 301
au 301
proving 301
gar@@ 301
emp@@ 301
lied 301
dly 301
offerings 301
abortion 301
Atlantic 301
esteem 301
BE 300
struggling 300
eted 300
motion 300
soldier 300
injured 300
rice 300
Sy@@ 300
insurance 300
existing 300
Close 300
61 300
ik@@ 300
wishes 300
TR@@ 299
tool 299
ter’s 299
aces 299
Of@@ 299
ashamed 299
ok 299
tac@@ 299
somehow 299
Ver@@ 299
fic@@ 299
Picture 299
layer 299
cards 299
palm 299
posed 299
blow 299
od 298
ater 298
projects 298
truck 298
whi@@ 298
Looking 298
Nigeria 298
lifted 298
sand@@ 298
gatherings 298
sentenced 298
centers 298
Nothing 298
ive 298
target 298
photo 298
mer 298
mines 298
college 298
Web 298
bridge 297
alike 297
mixed 297
Future 297
library 297
ray 297
requirement 297
heading 297
vit@@ 297
recovery 297
washing 297
comforted 296
apartment 296
ency 296
Light 296
bag 296
Beach 296
Far@@ 296
scattered 296
cigarette 296
yours 296
vol@@ 296
Canaan 296
ives 296
shame 296
COR@@ 296
distinguish 296
declaration 296
ke@@ 295
awaiting 295
examined 295
frag@@ 295
mentions 295
loyally 295
oms 295
Godly 295
fashion 295
mud 295
deny 295
gs 295
rural 294
consult 294
resident 294
link 294
sid@@ 294
Until 294
neck 294
acquired 294
qualify 294
Egyptians 294
dated 294
exercised 294
Teacher 294
absolutely 293
beneath 293
temper 293
neighborhood 293
ment@@ 293
intimate 293
counted 293
advised 293
conce@@ 293
inch 293
7,000 293
transformed 293
Rom 293
liked 293
courageously 293
1940 293
scribes 293
vering 293
advantages 292
modesty 292
sorrow 292
73 292
deserve 292
fas@@ 292
trustworthy 292
Hannah 292
neutrality 292
surprisingly 292
yard 292
Put 292
threatening 292
developments 291
actively 291
cour@@ 291
18th 291
doctrines 291
excessive 291
pour 291
Brazilian 291
earn 291
Ko@@ 291
approximately 291
illegal 291
Saturday 291
scientist 291
Su@@ 291
Obviously 290
kets 290
Toronto 290
4,000 290
0@@ 290
feared 290
motivate 290
Search 290
tourists 290
tour 290
covers 290
miraculously 290
Henry 290
Indians 290
swept 290
az@@ 290
references 289
Sydney 289
1,@@ 289
shi@@ 289
Korea 289
dressed 289
int 289
patterns 289
movements 289
Taking 289
understands 289
dro@@ 289
pity 289
hates 289
aves 289
ake 289
attacked 289
guidelines 289
disappointment 289
tempered 289
800 289
tone 289
worthwhile 288
deliberately 288
TS 288
cal 288
highlight 288
sible 288
onic 288
pet@@ 288
staying 288
ney 288
Sodom 288
apo@@ 288
anywhere 288
ann@@ 287
Ezra 287
Gr@@ 287
Rom@@ 287
emphasis 287
Worldwide 287
taining 287
back@@ 287
Anyone 287
85 287
cooking 287
caution 286
MO@@ 286
celebrate 286
widows 286
District 286
illustrates 286
ables 286
Wal@@ 286
thrilling 286
my@@ 285
locked 285
Naomi 285
trend 285
representatives 285
phrase 285
representative 285
cease 285
woman’s 285
desperate 285
shadow 285
steal 285
ices 285
charges 284
disfellowshipped 284
stressed 284
researcher 284
wal@@ 284
confronted 284
elephants 284
advertising 284
eaten 283
examining 283
cloth 283
ere@@ 283
contribution 283
diabetes 283
I’ll 283
Gen@@ 283
arrest 283
characteristics 283
film 283
Out@@ 282
preachers 282
Nathan 282
stu@@ 282
Ke@@ 282
ga@@ 282
gun 282
bat@@ 282
stra@@ 282
owned 282
males 282
resentment 282
commitment 282
Da@@ 282
offices 282
NY 282
JEHOVAH 281
feast 281
ess@@ 281
ate@@ 281
shoes 281
cooperate 281
joyfully 281
Hol@@ 281
Lu@@ 281
That’s 281
gic 281
shr@@ 281
ender 281
dance 281
proves 281
manufac@@ 281
won’t 281
X 281
sou@@ 281
HO@@ 281
Language 281
centered 281
troops 280
fiery 280
crucial 280
neglect 280
prevented 280
Sho@@ 280
classmates 280
Levites 280
garment 280
passages 280
sessions 280
womb 280
shopping 280
Jew 280
Ir@@ 280
tasks 279
ora 279
Gi@@ 279
striving 279
advancement 279
transportation 279
olive 279
Scientist 279
ared 279
highlighted 279
symbolized 279
diagnosed 279
neutral 279
severely 279
appearing 278
Teaching 278
dreams 278
Greeks 278
wheel 278
abused 278
Ukraine 278
FOR 278
banks 278
equivalent 278
legally 278
esting 278
fires 278
logy 278
belonging 277
ple 277
Speaking 277
Philippines 277
Part 277
250 277
secretary 277
reproach 277
wind@@ 277
rocks 277
aggressive 277
arrives 277
VER@@ 277
passes 277
vacation 277
gies 276
Listen 276
tall 276
confusion 276
associating 276
TB 276
honey 276
obeyed 276
translators 276
xing 276
ologists 276
hal@@ 276
estimates 276
pursuits 276
Ten 276
Self 276
che 276
diligent 276
contaminated 275
ius 275
1939 275
Ty@@ 275
SE@@ 275
paths 275
climb 275
performing 275
shel@@ 275
Rel@@ 275
perspective 275
she@@ 275
graduates 275
cro@@ 275
biggest 275
pace 275
ene 275
missed 275
meditating 275
rape 274
HA@@ 274
snare 274
issued 274
keen 274
vehicles 274
highlights 274
urban 274
favorably 274
Humans 274
tension 274
purchase 274
Library 274
forbidden 274
Draw 274
stal@@ 274
sely 273
starts 273
mu@@ 273
trad@@ 273
Apparently 273
night@@ 273
Sweden 273
pleasures 273
Andrew 273
pun@@ 273
shelter 273
TO@@ 273
carries 273
Seed 273
í@@ 273
block 273
ugg@@ 273
styles 273
Real 273
ires 273
toll 273
boo@@ 273
publisher 273
welcomed 272
unbelieving 272
selfishness 272
hurtful 272
sis@@ 272
absolute 272
Continue 272
usual 272
attempted 272
ough@@ 272
volunteer 272
lished 271
ification 271
hit@@ 271
associations 271
hypocrisy 271
commendation 271
trap 271
apped 271
threats 271
drove 271
unwise 271
avoiding 271
Pet 271
fierce 271
materially 270
fruitful 270
lig@@ 270
ano@@ 270
ld 270
surviving 270
Third 270
Ba@@ 270
pac@@ 270
micro@@ 270
entary 270
hil@@ 269
urgency 269
argument 269
characters 269
rest@@ 269
kingdoms 269
continent 269
factory 269
62 269
ya 269
pha@@ 269
backs 269
operations 269
bore 269
reflecting 269
aling 269
Polish 269
Jud@@ 269
ased 269
wildlife 269
John’s 269
guards 269
Mus@@ 268
spiritism 268
Bas@@ 268
disposed 268
gener@@ 268
achieved 268
believer 268
beaten 268
boats 268
oners 268
ano 268
wards 268
Studies 268
foreigners 267
guns 267
ultimately 267
siblings 267
ena 267
management 267
musical 267
DO 267
Care 267
stor@@ 267
zer 267
schooling 267
that’s 267
harder 267
Samaritan 266
Keeping 266
procedure 266
derived 266
shar@@ 266
lows 266
documents 266
ruins 266
ko 266
ect 266
ST 266
circle 266
eas@@ 266
Into 266
wag@@ 266
Communist 266
IR@@ 266
ium 266
breathing 265
medi@@ 265
policy 265
Rep@@ 265
Asian 265
proclaim 265
husband’s 265
Mer@@ 265
edge 265
data 265
thorough 265
greedy 265
ifies 265
Along 265
Find 265
responds 265
arian 265
fate 265
Fahrenheit 265
humanity 265
phones 265
latest 265
gray 265
adopt 265
gross 265
graphy 265
esty 265
foremost 264
cks 264
locations 264
signed 264
sixth 264
seated 264
sorry 264
arrange 264
turing 264
online 264
ENT 264
ature 263
stroke 263
Forever 263
youngsters 263
occupied 263
drivers 263
Fa@@ 263
58 263
nursing 263
malaria 263
professed 263
grant 262
damaging 262
displaying 262
tunnel 262
track 262
happier 262
computers 262
dependent 262
commissioned 262
pled 262
driven 262
angelic 262
by@@ 262
correctly 262
pped 261
Everything 261
item 261
cultivated 261
BE@@ 261
inf@@ 261
usion 261
nights 261
apostate 261
toxic 261
Grand@@ 261
Show 261
suit 261
mal 261
wi@@ 261
conc@@ 261
Education 261
talents 261
house@@ 261
ron@@ 261
distribution 261
Serving 261
pri@@ 261
evangelizer 261
PRO@@ 261
van@@ 261
tary 261
criminals 261
eze 261
asses 260
generosity 260
Habakkuk 260
oration 260
ion 260
expenses 260
devices 260
oming 260
criticism 260
colorful 260
alities 260
chores 260
exclaimed 260
wages 260
ological 260
ara 260
Today’s 260
band 260
alcoholic 259
combat 259
regards 259
’S 259
fur@@ 259
historians 259
inno@@ 259
thro@@ 259
las@@ 259
ble@@ 259
Pictures 259
entrance 259
amed 259
Money 259
CI@@ 259
remarks 259
LY 259
praised 259
Too 259
attract 258
parallel 258
Priest 258
disabled 258
ail@@ 258
expelled 258
Min@@ 258
Golden 258
undoubtedly 258
liber@@ 258
electronic 258
picked 258
Appreci@@ 258
Recall 258
Lab@@ 258
romantic 258
EN 258
queen 258
dominated 258
stupid 257
yoke 257
lessly 257
valued 257
Ca@@ 257
demanding 257
ught 257
inqu@@ 257
indication 257
expects 257
step@@ 257
heavily 257
medication 257
immense 257
gang 257
crown 257
coun@@ 257
guests 257
annually 257
disposition 257
prisoner 257
strife 257
alists 257
prin@@ 257
Sub@@ 256
partial 256
alo@@ 256
68 256
eing 256
overly 256
64 256
Gre@@ 256
yield 256
Evening 256
argue 256
pow@@ 256
accuracy 256
Report 256
Valley 256
Four 255
tery 255
Northern 255
run@@ 255
Pri@@ 255
nurse 255
buying 255
fol@@ 255
Street 255
footnote 255
kitchen 255
unscriptural 255
corner 255
vow 255
plan@@ 254
2008 254
empathy 254
makers 254
ough 254
iving 254
Hospital 254
ultimate 254
HAVE 254
Dutch 254
backgrounds 254
resort 254
os@@ 254
Control 254
aches 254
mystery 254
unfaithful 254
WAS 254
multitude 253
Cla@@ 253
organisms 253
tably 253
ulate 253
Af@@ 253
ain@@ 253
pig@@ 253
unnecessary 253
nation@@ 253
ica 253
flies 253
forgiven 253
expense 253
delay 253
House 253
ility 253
Anna 253
claiming 253
mas 253
k’s 252
headship 252
contributions 252
Ra@@ 252
burial 252
runs 252
rooted 252
grap@@ 252
20,000 252
after@@ 252
match 252
ek 252
Joy 252
worthless 252
pel 252
sens@@ 252
officers 252
illing 252
absorbed 252
bra@@ 252
ll 252
bicycle 252
imprisonment 252
correction 252
convey 252
patriarch 252
collect 252
joint 252
epidemic 251
ya@@ 251
Austria 251
flat 251
imm@@ 251
1985 251
packed 251
del@@ 251
sustained 251
ben@@ 251
Cy@@ 251
ulated 251
parties 251
plastic 251
praising 251
imagination 251
dish 251
promoting 251
itable 251
Black 251
parad@@ 250
threw 250
till 250
arguments 250
vers 250
Cam@@ 250
moments 250
celebrated 250
drama 250
Pa@@ 250
inspiration 250
admonished 250
Jerusalem’s 250
EM@@ 250
pum@@ 250
.5 250
uous 250
circ@@ 250
expand 250
thy 250
Cho@@ 250
Sal@@ 250
erous 250
contradic@@ 250
sli@@ 250
patri@@ 250
Alexander 249
utmost 249
aver@@ 249
housing 249
consistent 249
grandchildren 249
prone 249
transport 249
Post 249
harmon@@ 249
deception 249
exec@@ 249
subjected 249
cigarettes 249
tomb 249
backing 249
Psalms 249
dar@@ 249
sil@@ 249
scenes 249
form@@ 249
shut 248
ries 248
consol@@ 248
ceremony 248
exercises 248
neighboring 248
utter 248
wore 248
reactions 248
disturbed 248
uted 248
infections 248
ament 248
sul@@ 248
Herald 248
TOLD 248
distinct 248
tian 248
diversity 248
confused 248
deceived 248
ridicule 248
agents 247
tie 247
adulter@@ 247
ongoing 247
chain 247
counter@@ 247
disappeared 247
du@@ 247
spectacular 247
wanting 247
concentrate 247
operate 247
pil@@ 247
steady 247
eld 247
judging 247
AD@@ 247
mood 247
Thereafter 247
ousness 247
lists 247
lions 247
2011 247
Had 247
Josephus 247
breeding 246
haughty 246
hesitate 246
,@@ 246
ven 246
owners 246
scr@@ 246
protects 246
considers 246
Global 246
enhance 246
formation 246
enjoyment 246
Pur@@ 246
Pra@@ 246
prop@@ 246
Ruler 246
Portugal 246
contentment 246
brown 246
Elizabeth 246
Justice 246
efficient 246
family’s 246
fro@@ 246
counseled 246
techniques 246
Sinai 246
territories 245
users 245
dam@@ 245
stored 245
internal 245
chan@@ 245
Getting 245
General 245
pains 245
ach@@ 245
muscle 245
dried 245
shell 245
6,@@ 245
enthusiasm 245
dancing 245
horn 245
ignorance 245
63 245
arc@@ 245
races 245
denied 245
devastated 245
purchased 245
pet 245
implies 245
nur@@ 245
2010 245
Rd 245
gladly 245
Mr 244
lasted 244
oppose 244
disastrous 244
stumble 244
grandmother 244
festivals 244
weeds 244
Giving 244
justified 244
wherever 244
heartwarming 244
err@@ 244
jealous 244
ger 244
breaks 244
egg 244
Wall 244
Near 244
cing 244
pull 243
log@@ 243
respectful 243
57 243
pond@@ 243
iding 243
mob 243
ied 243
quarter 243
Few 243
conclusions 243
ans@@ 243
Seeing 243
Shepherd 243
surroundings 243
memorial 243
fire@@ 242
Bad 242
Mel@@ 242
stating 242
excuse 242
crop 242
ashes 242
Josiah 242
ato@@ 242
Zealand 242
collected 242
Leads 242
pre 242
Fac@@ 242
Sur@@ 242
sim@@ 242
stealing 242
exemplary 242
videos 242
weighed 242
ancestors 241
MY 241
cleansed 241
bomb@@ 241
copper 241
Sup@@ 241
surgeon 241
flocks 241
heart@@ 241
NO@@ 241
ac 241
2009 241
initially 241
migr@@ 241
duc@@ 241
shield 241
judgments 241
lic 240
comb@@ 240
Columbia 240
apostasy 240
homeland 240
beach 240
unlike 240
print 240
popularity 240
tomorrow 240
essing 240
extinction 240
await 240
elev@@ 240
Sim@@ 240
Pennsylvania 240
vation 240
n’t 240
2005 240
pulled 240
prompted 240
Berlin 240
Kenya 239
ET@@ 239
embrace 239
DO@@ 239
analy@@ 239
honestly 239
improper 239
coins 239
suffers 239
Wil@@ 239
Conf@@ 239
windows 239
End@@ 239
ero@@ 239
declares 239
ware 239
reportedly 239
booklet 239
appetite 239
king’s 239
eter@@ 239
debate 239
ures 239
Septuagint 239
reminder 238
Val@@ 238
Greater 238
69 238
los@@ 238
Comm@@ 238
tra@@ 238
ong 238
network 238
author@@ 238
SO@@ 238
torn 238
sk@@ 238
smell 238
Almost 238
eth 238
earliest 238
Er@@ 238
ink 238
divinely 238
accompany 238
edly 238
cher@@ 238
1986 238
wan@@ 237
lo 237
ep 237
temptations 237
refusing 237
wil@@ 237
confined 237
1987 237
Amazon 237
weapon 237
sen 237
hospitals 237
imitating 237
high@@ 237
Friend 237
Cyrus 237
farmer 237
consumption 237
UL@@ 237
Pos@@ 237
voices 237
heated 237
revealing 237
Common 237
io 237
Friday 237
alist 237
solutions 237
Between 237
DE@@ 237
Paulo 237
temperatures 236
standpoint 236
obviously 236
sinner 236
ony 236
84 236
Mac@@ 236
Hon@@ 236
irr@@ 236
steadfast 236
nervous 236
ign 236
sla@@ 236
hills 236
sq 236
rays 236
alistic 235
offense 235
assembled 235
regis@@ 235
oversight 235
displays 235
burst 235
Sha@@ 235
confirm 235
yp@@ 235
day@@ 235
Sum@@ 235
awareness 235
richly 235
chest 235
organs 235
lac@@ 235
Emperor 235
Minor 235
rebel 235
kle 235
challenged 235
Daniel’s 235
Pla@@ 235
sum@@ 234
smokers 234
97 234
fatal 234
testing 234
city’s 234
fits 234
educ@@ 234
frustrated 234
ship@@ 234
warmth 234
17th 234
glorified 234
rain@@ 234
absence 234
Nineveh 234
gal@@ 234
needy 234
grade 234
Ind@@ 234
navig@@ 234
directions 234
1943 234
identifies 234
rub@@ 234
anc@@ 234
cured 234
escaped 234
Understandably 234
Very 233
Ru@@ 233
ress 233
captivity 233
fails 233
und 233
curious 233
Kar@@ 233
demanded 233
’ve 233
irs 233
ults 233
occup@@ 233
visions 233
freed 233
assa@@ 233
perceive 233
86 233
handled 233
conquest 233
stuck 233
identifying 233
sanctified 233
Gro@@ 233
roll 232
currently 232
Something 232
honesthearted 232
shore 232
spir@@ 232
plains 232
healthful 232
advances 232
ye 232
condemn 232
xes 232
logists 232
signals 232
coal 232
endangered 232
Five 232
igned 232
50,000 232
nobody 232
ai 232
glo@@ 231
movie 231
resistance 231
dol@@ 231
nice 231
committee 231
workplace 231
arriving 231
resistant 231
feathers 231
eighth 231
itional 231
refrain 231
sor@@ 231
tening 231
ram 231
Cas@@ 231
hears 231
l’s 231
arily 231
59 230
Pay 230
shepherding 230
wers 230
Samaria 230
philosopher 230
faster 230
pool 230
practically 230
Isa 230
definitely 230
FL 230
coping 230
utes 230
hes@@ 230
outcry 230
mold 230
ressing 230
TH 230
motivation 230
magic 230
appointment 230
en’s 230
instruct 230
noble 230
partners 230
distressed 230
inclination 230
misery 230
cherish 230
Thessalonica 230
aircraft 229
electric 229
cam@@ 229
BEACH 229
leg 229
electricity 229
jac@@ 229
institutions 229
resting 229
gossip 229
contents 229
earing 229
DI@@ 229
o’s 229
drought 229
thor@@ 229
psycho@@ 228
locate 228
brid@@ 228
ber 228
Martin 228
wo@@ 228
adolescent 228
sacrificed 228
potentially 228
nec@@ 228
imperfections 228
employees 228
flu@@ 228
pointing 228
hospitable 228
gy 228
shocked 228
device 228
precise 228
ful@@ 228
genes 228
Wo@@ 228
stumbling 228
mid@@ 228
Rev 228
stomach 227
noteworthy 227
Sen@@ 227
illed 227
mixture 227
Em@@ 227
hood 227
rows 227
’ll 227
misled 227
mes@@ 227
bees 227
elled 227
preacher 227
elec@@ 227
fearful 227
mol@@ 227
human@@ 227
tun@@ 227
Centre 227
dates 227
cra@@ 227
portions 227
progressed 226
destroying 226
honored 226
objec@@ 226
oper@@ 226
Mic@@ 226
voluntary 226
class@@ 226
yers 226
hum@@ 226
Disease 226
morals 226
unselfish 226
110 226
Ur@@ 226
Creation 226
boundaries 226
Youths 226
discourse 226
hill 226
unbelievers 226
avo@@ 226
dic 226
Bec@@ 226
Wise 226
mutual 226
rant 226
embraced 226
Syria 226
sle@@ 226
vicious 225
refreshment 225
NE@@ 225
gates 225
ener@@ 225
iling 225
pup@@ 225
waited 225
rod 225
cop@@ 225
ju@@ 225
dramatically 225
beasts 225
leadership 225
Tro@@ 225
consequence 225
illnesses 225
opens 225
sta@@ 225
ital 225
assault 225
OND@@ 225
hiding 225
Fr@@ 225
legitimate 225
protecting 225
radiation 225
solar 225
Problems 225
introduction 225
Art 224
Together 224
130 224
607 224
heritage 224
cked 224
householder 224
contr@@ 224
chaste 224
Simon 224
Jean 224
wouldn’t 224
esi@@ 224
hardship 224
Antioch 224
Ni@@ 224
tendencies 224
uttered 224
captive 224
spared 224
but@@ 224
nam@@ 224
sco@@ 224
li 224
UG@@ 224
grav@@ 224
São 224
ini@@ 224
sadness 223
Knorr 223
detec@@ 223
unted 223
dog@@ 223
Pi@@ 223
vine 223
Gentile 223
advis@@ 223
emer@@ 223
dece@@ 223
liness 223
isn’t 223
featured 223
Stop 223
enced 223
courts 223
equally 223
Usually 223
ured 223
Apo@@ 223
conform 223
ague 222
sis 222
convince 222
broad@@ 222
economy 222
quest 222
Nearly 222
Brothers 222
lin 222
1947 222
findings 222
tas@@ 222
owe 222
coupon 222
sed@@ 222
exclusive 222
steel 222
incense 222
liver 222
observation 222
regulations 222
vent 222
calendar 222
expansion 222
eliminated 222
conscientious 222
moderate 222
worshiped 222
perish 222
Universal 222
imagined 222
distressing 222
Violence 222
manip@@ 221
railway 221
Than 221
push 221
ensu@@ 221
sac@@ 221
detect 221
1941 221
skilled 221
excitement 221
sanc@@ 221
Protestants 221
oneself 221
employer 221
Vis@@ 221
consumed 221
Mass 221
governor 221
aw@@ 221
stages 221
rob 221
competition 221
wat@@ 220
indicating 220
nal 220
cou@@ 220
shortages 220
remembering 220
loo@@ 220
makeup 220
pot 220
Leg@@ 220
Cel@@ 220
uded 220
pit 220
perceived 220
Ahab 220
maker 220
rains 220
deb@@ 220
intentions 220
USED 219
reserved 219
formal 219
newborn 219
aving 219
jected 219
dic@@ 219
expose 219
differently 219
Music 219
smo@@ 219
marine 219
excited 219
bonds 219
committing 219
basically 219
measured 219
worried 219
Luc@@ 219
acknowledges 219
stranger 219
part@@ 219
Sun 219
renewed 219
cleanse 219
civilization 219
nic@@ 219
nearest 219
trapped 218
mirror 218
clar@@ 218
wake 218
altogether 218
revi@@ 218
Ref@@ 218
warmly 218
crowded 218
defeat 218
harbor 218
ision 218
fishermen 218
crush 218
Public 218
palace 218
offended 218
protein 218
publishing 218
thief 218
Tokyo 218
plying 218
garbage 218
contributes 218
sters 218
dioxide 218
fir@@ 218
toys 218
favored 218
Sanhedrin 218
1918 218
recover 217
sting 217
lungs 217
behold 217
restrictions 217
deserves 217
fer 217
asted 217
Someone 217
participation 217
worshiping 217
humor 217
alize 217
coral 217
grac@@ 217
responding 217
commended 217
instinc@@ 217
industrial 217
Stadium 217
insect 217
uncleanness 217
unprecedented 217
itu@@ 217
ond@@ 217
notion 217
Hosea 217
unlikely 217
door@@ 216
multi@@ 216
curiosity 216
investig@@ 216
Secret 216
describing 216
wit@@ 216
a.m 216
crew 216
zone 216
watch@@ 216
lofty 216
imitation 216
sowing 216
Chi@@ 216
PO@@ 216
boldly 216
ric 216
harmless 216
Sign 216
lot@@ 216
ERS 216
erated 216
besides 216
Always 216
Creator’s 216
discouragement 216
functions 216
envy 216
appealed 216
Rutherford 215
hostile 215
exhausted 215
distur@@ 215
thieves 215
quietly 215
rises 215
confidently 215
approaches 215
5,@@ 215
questioned 215
converted 215
profit 215
requested 215
lit@@ 215
dedicate 215
virgin 215
Isaiah’s 215
I’d 215
Purpose 215
infancy 215
delicate 215
schoolmates 215
Globe 215
let@@ 215
kin@@ 215
clock 215
shy 215
bing 215
1,500 215
tax@@ 214
ced 214
exemp@@ 214
shu@@ 214
walks 214
Everlasting 214
Tri@@ 214
Words 214
repeat 214
execute 214
nowhere 214
iles 214
None 214
Unfortunately 214
newspapers 214
Maker 214
ala 214
individually 214
ety 214
misleading 214
torment 214
tenth 214
Index 213
treatments 213
belonged 213
subtle 213
rush 213
pa 213
Pati@@ 213
aning 213
devote 213
flowing 213
Fathers 213
quarters 213
67 213
paint 213
keys 213
propaganda 213
kingship 213
teries 213
Ge@@ 213
onward 213
stability 213
eded 213
complaint 213
topic 212
lacked 212
anism 212
96 212
armor 212
portra@@ 212
Press 212
nose 212
injuries 212
hearted 212
enjoys 212
atives 212
unit 212
restricted 212
psalm 212
revol@@ 212
leaf 212
vivid 212
financially 212
ibly 212
synagogue 212
heirs 212
panic 211
purposed 211
respectfully 211
interpre@@ 211
radi@@ 211
stations 211
involvement 211
combination 211
Loving 211
infectious 211
sunlight 211
Regardless 211
Med@@ 211
stre@@ 211
Ly@@ 211
sole 211
stem 211
AI@@ 211
Fre@@ 211
Ann@@ 211
Fore@@ 211
elling 211
viol@@ 211
stam@@ 211
lessness 211
checked 211
fat@@ 211
gen 211
planets 211
cave 211
Zion 211
predicted 210
va 210
captured 210
Praise 210
lia 210
lif@@ 210
anced 210
reflection 210
ranks 210
hunting 210
revolution 210
argued 210
Nazareth 210
ply 210
Social 210
angle 210
aud@@ 210
Reign 210
Let’s 210
dominant 210
utions 210
illa 210
exert 210
som@@ 210
imposed 210
phenomenon 210
,000,000 210
tam@@ 210
Them 210
souled 210
bishops 210
Trans@@ 209
98 209
Free 209
emotion 209
fal@@ 209
photo@@ 209
inexperienced 209
Pal@@ 209
stat@@ 209
cheerful 209
My@@ 209
respecting 209
aters 209
Ages 209
pets 209
complicated 209
Nonetheless 209
conquer 209
ust@@ 209
ashed 209
recovered 209
Reg@@ 208
ki 208
ger@@ 208
holes 208
truthfulness 208
visitor 208
soli@@ 208
Philippi 208
dict@@ 208
corn 208
contacted 208
prob@@ 208
mut@@ 208
attributed 208
cons@@ 208
dig@@ 208
iz@@ 208
van 208
ert 208
structures 208
films 208
Incre@@ 208
Medicine 208
thrive 208
kes 208
poll@@ 208
neglected 208
vice 208
orderly 208
ri 208
Mountains 208
bigger 208
Dep@@ 208
gir@@ 207
ever@@ 207
storms 207
crossed 207
145 207
macy 207
Rebekah 207
fingers 207
submission 207
Based 207
BR@@ 207
forefathers 207
AP@@ 207
Whom 207
convenient 207
Whenever 207
screen 207
Karen 207
translate 207
hanging 207
controversy 207
wholeheartedly 207
wonders 207
Amaz@@ 207
Days 207
marvel 207
warming 207
adolescents 207
boldness 206
wife’s 206
somewhere 206
mp@@ 206
firsthand 206
intervention 206
prominence 206
societies 206
cell@@ 206
materialistic 206
uncertain 206
tissue 206
Gideon 206
nerve 206
ury 206
tip 206
ried 206
hellfire 206
bling 206
sus@@ 206
dum@@ 206
tombs 206
drinks 205
disappear 205
wid@@ 205
bills 205
Babylonians 205
pers@@ 205
hem@@ 205
78 205
lifting 205
Toward 205
need@@ 205
Scientific 205
ods 205
slightly 205
Nebuchadnezzar 205
representing 205
justify 205
dozens 205
riding 205
depend@@ 205
earned 205
underlying 205
punished 205
Meal 205
tal 205
certainty 205
supplication 204
Joseph’s 204
distinction 204
sufferers 204
AD 204
performance 204
Rahab 204
Cop@@ 204
ure@@ 204
Pray 204
mobile 204
sections 204
divorced 204
asi@@ 204
theologians 204
varieties 204
bondage 204
JULY 204
recalled 204
Friends 204
celestial 204
appreciative 204
lis@@ 204
farming 204
01 204
ham 203
disability 203
exhortation 203
varied 203
characterized 203
Accordingly 203
Understanding 203
itors 203
provoked 203
celebrations 203
blocks 203
ken 203
Mur@@ 203
Hungary 203
murdered 203
AF@@ 203
tations 203
clergymen 203
evangelizers 203
custody 202
ight@@ 202
cla@@ 202
adversity 202
val 202
laugh 202
assure 202
long@@ 202
ew 202
VE 202
med@@ 202
intellectual 202
relevant 202
diligently 202
slaughter 202
expresses 202
versions 202
drow@@ 202
aids 202
theories 202
gracious 202
excess 202
deser@@ 202
ruining 202
cler@@ 202
anguish 202
signal 202
Le 202
photos 202
interfere 202
exception 202
Training 202
Catholicism 201
Pat@@ 201
iring 201
break@@ 201
correc@@ 201
deceptive 201
remembers 201
Fi@@ 201
consistently 201
Finding 201
ancing 201
zi@@ 201
supplied 201
bags 201
Rule 201
permits 201
donated 201
Sch@@ 201
ras@@ 201
ro 201
drunk 201
separation 201
uli@@ 201
ja@@ 201
theater 201
day’s 201
thirst 201
Dev@@ 201
les@@ 200
amo@@ 200
hard@@ 200
proposed 200
geo@@ 200
ame@@ 200
1946 200
reasonably 200
Prince 200
Tell 200
divisions 200
physicians 200
sport 200
memor@@ 200
answering 200
Nazis 200
alien 200
sti@@ 200
aloud 200
Sol@@ 200
ison 200
exce@@ 200
sect 200
rel 200
designs 200
shoulders 200
92 200
kn@@ 200
permanently 200
logist 200
Fran@@ 200
deed 199
wounds 199
poses 199
strikes 199
SI@@ 199
Sus@@ 199
improvement 199
Earlier 199
je@@ 199
izes 199
surve@@ 199
len 199
convictions 199
ox@@ 199
ruined 199
estion 199
ff 199
Christian’s 199
syndrome 199
plate 199
ache 199
set@@ 199
fet@@ 199
Adv@@ 199
messengers 199
predic@@ 199
obligations 199
bus@@ 199
top@@ 199
utterance 199
fad@@ 199
tar 199
seal 199
seasons 199
Readers 199
lds 199
stores 198
rebelled 198
wel@@ 198
Eng@@ 198
Hong 198
thinks 198
flag 198
mit@@ 198
cautious 198
trains 198
body’s 198
Preaching 198
mitting 198
element 198
Pet@@ 198
bush 198
elevated 198
worms 198
searched 198
plagued 198
tolerance 198
abound 198
Hal@@ 198
revelation 198
Century 197
acks 197
passion 197
Six 197
sects 197
considerate 197
71 197
occult 197
insist 197
painting 197
ung@@ 197
Ph@@ 197
acid 197
Set 197
op 197
deserving 197
threaten 197
depri@@ 197
stro@@ 197
ician 197
via 197
positively 197
cel@@ 197
statistics 197
horns 197
tment 197
models 197
instituted 197
consists 196
petitions 196
supportive 196
decree 196
tolerate 196
dishes 196
HI@@ 196
Emp@@ 196
crossing 196
ath 196
exquisite 196
ye@@ 196
bottle 196
inmates 196
exalted 196
Luther 196
Mid@@ 196
mam@@ 196
agricultural 196
rab@@ 196
hs 196
pin@@ 196
pen 196
ó@@ 196
cod@@ 196
lam@@ 196
gamb@@ 196
drag@@ 196
privacy 196
lock 196
ounce 196
historic 196
sow 196
observance 196
goddess 196
AT 196
personnel 196
MAR@@ 196
design@@ 196
disobedient 196
ft 195
coastal 195
Leader 195
rests 195
ef 195
helpless 195
Suppose 195
pronounced 195
sne@@ 195
pushed 195
confessed 195
substances 195
fortune 195
ritual 195
lots 195
calf 195
proclaiming 195
pot@@ 195
fish@@ 195
tum@@ 195
81 195
99 195
adjusted 195
fame 195
unreasonable 195
blood@@ 195
reassuring 194
honorable 194
builds 194
consume 194
Cour@@ 194
ming@@ 194
where@@ 194
elephant 194
cries 194
Louis 194
calcul@@ 194
Finland 194
encountered 194
pursued 194
behave 194
colony 194
Natural 194
overlooked 194
Rock 194
DS 194
outlined 194
harassment 194
emphasize 194
mom 194
2.@@ 194
ham@@ 194
progressively 194
berg 194
sav@@ 194
bull 193
fu@@ 193
necessities 193
deli@@ 193
comforts 193
Del@@ 193
topics 193
accessible 193
rap 193
Rachel 193
gy@@ 193
77 193
select 193
province 193
exhorted 193
procedures 193
h’s 193
mom@@ 193
Win@@ 193
impart 193
Experts 193
females 193
undergo 193
Certain 193
Albert 193
briefly 193
91 193
semin@@ 193
atively 193
behavi@@ 193
zz@@ 193
Oh 193
fra@@ 193
neuro@@ 193
testify 193
adulthood 193
springs 193
oppressive 192
direc@@ 192
overlook 192
prospective 192
aked 192
rif@@ 192
temples 192
urable 192
controlling 192
Reas@@ 192
wage 192
agencies 192
mining 192
characteristic 192
Best 192
contributing 192
Down 192
hon@@ 192
regain 192
mation 192
WOR@@ 192
plus 192
volcanic 192
tis@@ 192
strengthens 192
trips 192
aped 192
bomb 192
cle@@ 192
emo@@ 192
interviewed 192
gn@@ 192
TER 191
lu@@ 191
unemployment 191
2012 191
ang 191
89 191
even@@ 191
1948 191
inferior 191
vengeance 191
instances 191
Provid@@ 191
1944 191
sticks 191
stressful 191
Centuries 191
budget 191
ain 191
smooth 191
21st 191
plight 191
notic@@ 191
2006 191
tot@@ 191
Sel@@ 191
30,000 191
stretched 191
humili@@ 191
corrected 191
infants 190
peace@@ 190
platform 190
any@@ 190
engine 190
fatigue 190
shocking 190
1951 190
depicted 190
José 190
comply 190
maybe 190
ap 190
fle@@ 190
shops 190
realities 190
fertile 190
sheer 190
Belgium 190
annihil@@ 190
San@@ 190
stadium 190
ump@@ 190
thin@@ 190
suppl@@ 190
secondary 190
rough 190
supreme 190
sh 190
Hear@@ 190
Bl@@ 190
gor@@ 189
dictionary 189
longing 189
agency 189
Wel@@ 189
ME@@ 189
operating 189
Under@@ 189
unjust 189
persistent 189
iry 189
politicians 189
CE 189
frame 189
country’s 189
Columbus 189
tide 189
aled 189
PS 189
fertili@@ 189
requests 189
overall 189
Bu@@ 189
ceased 189
al’s 189
originate 189
seconds 189
repay 189
MS 189
acceptance 189
sculp@@ 189
arded 189
whis@@ 189
stricken 189
landscape 189
Boaz 188
depending 188
beans 188
wel 188
trav@@ 188
ene@@ 188
Abram 188
ford 188
rated 188
unhappy 188
intent 188
ody 188
emic 188
Contin@@ 188
stresses 188
iter 188
sheba 188
Tor@@ 188
d’s 188
aned 188
condemns 188
venture 188
UC@@ 187
gently 187
Clo@@ 187
prevail 187
or’s 187
Blessed 187
Change 187
Government 187
ab 187
compar@@ 187
ent’s 187
foot@@ 187
boun@@ 187
households 187
Shi@@ 187
soap 187
Stress 187
situated 187
tum 187
Mountain 187
penalty 187
insisted 187
adapt 187
uphold 187
False 187
admire 187
rip@@ 187
measuring 187
obliged 187
wet 187
lamp 187
buc@@ 187
neighbor@@ 187
Jon@@ 187
num@@ 187
bles 186
bitterness 186
Hundreds 186
hi 186
complained 186
focusing 186
imminent 186
Meeting 186
mand@@ 186
gers 186
reasonableness 186
unmarried 186
qui@@ 186
Mary’s 186
prevalent 186
awesome 186
tted 186
persist 186
Bi@@ 186
Coping 186
Ones 186
qualifications 186
governmental 186
approve 186
grandfather 186
analysis 186
posing 186
supposedly 186
rever@@ 186
here@@ 186
chariot 186
Admittedly 186
arity 186
stock 186
rejection 186
auxiliary 186
improving 186
weaken 186
assisted 186
seas 186
secretly 185
QU@@ 185
predictions 185
mater@@ 185
1935 185
saints 185
sophisticated 185
ordin@@ 185
isolation 185
guides 185
reluctant 185
900 185
verbal 185
Simply 185
Sk@@ 185
liquid 185
Persia 185
cs 185
rene@@ 185
1983 185
Queen 185
apostates 185
occurrence 185
preferred 185
han 185
Security 185
trait 185
reck@@ 185
bir@@ 184
1953 184
Czech 184
jus@@ 184
za 184
organ 184
scor@@ 184
demon 184
habitat 184
Att@@ 184
deceased 184
planes 184
discoveries 184
tt@@ 184
kind@@ 184
pouring 184
sacrificial 184
seas@@ 184
raises 184
mage 184
New@@ 184
motor 184
PE@@ 184
ATION 184
bold 184
contract 184
markets 184
farther 184
complain 184
ato 184
regulating 184
lings 184
rearing 184
distinctive 184
Similar 184
fairly 184
o’clock 184
interpretation 184
troubles 184
ote 184
Silas 184
reducing 184
dawn 184
TX 184
merit 183
grieving 183
alization 183
tribal 183
lung 183
Prague 183
Pub@@ 183
Kong 183
payment 183
joys 183
Olympic 183
patient’s 183
Respon@@ 183
Youth 183
tric@@ 183
cleansing 183
Francisco 183
Na@@ 183
struggled 183
manners 183
nets 183
burg 183
recognizing 183
dispute 183
tense 183
fluid 183
circul@@ 183
ancy 183
enders 183
molecules 183
precisely 183
Sin@@ 183
truc@@ 183
summar@@ 183
streams 183
CLUE 183
donations 183
Explain 183
Hindu 183
fri@@ 183
Ben 183
intolerance 183
thanked 183
chairman 182
prosperous 182
pressing 182
holiness 182
atten@@ 182
persevere 182
fun@@ 182
prisons 182
occupation 182
youngest 182
lov@@ 182
faults 182
wool 182
absorb 182
arises 182
circulation 182
asc@@ 182
Ann 182
lowliness 182
courtyard 182
Mexican 182
Nature 182
Jericho 182
volcano 182
rejoiced 182
cking 182
ata 182
scores 182
án 182
dom@@ 182
MANY 182
bed@@ 182
news@@ 182
Mad@@ 182
Royal 182
lakes 182
option 182
repented 181
trib@@ 181
temporarily 181
enters 181
aj@@ 181
organize 181
magn@@ 181
bri@@ 181
seized 181
Immediately 181
stolen 181
analyze 181
Author 181
Trad@@ 181
Wa@@ 181
tending 181
Return 181
assumed 181
extending 181
ports 181
Insight 181
Sheol 181
ict 181
1975 181
acqu@@ 181
travelers 181
Rwanda 181
diverse 181
beings 181
undermine 181
Georgia 181
solved 181
opposing 181
Arabic 181
dominate 181
Britain’s 181
grip 181
Sir 181
ita 181
cu@@ 181
Office 181
THIS 181
tran@@ 181
lified 180
convincing 180
contemplate 180
umes 180
professionals 180
spare 180
advises 180
evangelizing 180
nurses 180
winning 180
seldom 180
amid 180
lan@@ 180
priestly 180
rebuild 180
jewelry 180
Hy@@ 180
invites 180
promptly 180
fertility 180
COVER 180
sentiments 180
PR@@ 180
peri@@ 180
swords 180
nails 180
shipping 180
prot@@ 180
chances 180
observers 180
oma 180
aqu@@ 180
disturbing 180
sanctuary 180
ü@@ 180
possessed 180
heav@@ 180
explosion 180
dle 179
homework 179
manuscript 179
etting 179
fond 179
populations 179
reverence 179
division 179
Philistines 179
Otherwise 179
affliction 179
authorized 179
attac@@ 179
Yo@@ 179
hid 179
Los 179
ov@@ 179
strain 179
numbered 179
trace 179
cin@@ 179
affor@@ 179
governed 179
new@@ 179
econom@@ 179
compelled 179
anic 179
aved 179
itated 179
removing 179
13@@ 178
SH@@ 178
perf@@ 178
likes 178
Bene@@ 178
Geneva 178
collapse 178
ela 178
materialism 178
supports 178
Rio 178
Reformation 178
prayerful 178
understandable 178
slo@@ 178
rig@@ 178
Pen@@ 178
hydr@@ 178
painted 178
Saul’s 178
Esau 178
inappropriate 178
throwing 178
spac@@ 178
merchants 178
conference 178
Ang@@ 178
strictly 178
Savior 178
registered 178
Top 178
affecting 178
fashioned 178
batt@@ 177
agement 177
prosp@@ 177
residence 177
hospit@@ 177
solely 177
finest 177
fying 177
lunch 177
throat 177
boxes 177
Rab@@ 177
bad@@ 177
they’re 177
ample 177
psychological 177
graduation 177
costly 177
presently 177
whoever 177
rejecting 177
Working 177
nar@@ 177
Die 177
intelligence 177
prosec@@ 177
minimize 177
sem@@ 177
swift 177
automatically 177
CON@@ 177
enabling 176
sooner 176
tionally 176
losses 176
kno@@ 176
keepers 176
Showing 176
weekend 176
rebu@@ 176
resurrect 176
refusal 176
weighing 176
curse 176
pping 176
placing 176
verb 176
indul@@ 176
resses 176
son’s 176
Han@@ 176
Tre@@ 176
Mars 176
earthling 176
impress 176
instructor 176
ier 176
graph 176
concealed 176
fect 176
decor@@ 176
intimacy 176
Nic@@ 176
oath 176
pon@@ 176
Commenting 176
goat 176
Victoria 176
acres 176
perceptive 176
carved 176
itary 176
comprehend 176
2007 176
unseen 176
Baptizer 176
maintenance 175
eagle 175
Big 175
Must 175
terrorism 175
partiality 175
tism 175
kills 175
Crime 175
pla@@ 175
regul@@ 175
Jes@@ 175
yer 175
exhaus@@ 175
poisonous 175
Mail 175
invented 175
fam@@ 175
termin@@ 175
wl 175
barrier 175
kis@@ 175
nutrition 175
masters 175
industr@@ 175
Muslims 175
tives 175
deprived 175
mistaken 175
fron@@ 175
dun@@ 175
domin@@ 175
cherished 174
Manasseh 174
ada 174
counts 174
portrayed 174
1942 174
hinder 174
coat 174
swit@@ 174
scar@@ 174
infl@@ 174
thrill 174
paragraphs 174
philosophers 174
7,@@ 174
marty@@ 174
Greatest 174
Sou@@ 174
eans 174
Mind 174
weeping 174
Blessings 174
directing 174
subsequent 174
breathe 174
ae 174
UT@@ 174
Elijah’s 174
cles 174
cook 174
prices 174
fraud 174
detestable 174
presenting 174
jump 174
Por@@ 174
electr@@ 173
elds 173
Branch 173
som 173
Haggai 173
lifesaving 173
ady 173
bits 173
Talk 173
heal@@ 173
Australia’s 173
slaughtered 173
embarrassed 173
Bay 173
fills 173
homosexuality 173
scrolls 173
translating 173
tight 173
shortage 173
realizing 173
you’ll 173
Fine 173
doub@@ 173
predators 173
uf@@ 173
participating 173
chron@@ 173
poison 172
evol@@ 172
Beli@@ 172
fies 172
5th 172
0.@@ 172
mic 172
erate 172
Aborig@@ 172
proteins 172
theft 172
motivates 172
birthday 172
Mir@@ 172
generously 172
artists 172
vir@@ 172
Commun@@ 172
belly 172
Thousand 172
tablets 172
nings 172
cab@@ 172
strategy 172
establishment 172
Constantine 172
suf@@ 172
safer 172
theology 172
8,000 172
Honor 172
inevitable 172
chem@@ 172
weakened 172
attributes 171
uch@@ 171
speciali@@ 171
anti 171
chast@@ 171
ather 171
emin@@ 171
genuinely 171
snake 171
frightening 171
Respect 171
Pas@@ 171
raw 171
Europeans 171
distribute 171
overnight 171
Frank 171
excav@@ 171
outright 171
mun@@ 171
endor@@ 171
beautifully 171
advoc@@ 171
ather@@ 171
pronoun@@ 171
highway 171
joining 171
integr@@ 171
relieve 171
dishonest 171
Prophecy 171
pel@@ 171
Nav@@ 171
cru@@ 171
rebels 171
hostility 171
Said 170
uncle 170
begged 170
ey 170
bid 170
inadequate 170
discrimination 170
adhere 170
Cyprus 170
channel 170
1984 170
94 170
adverse 170
Scotland 170
fur 170
dark@@ 170
cus@@ 170
Ohio 170
inity 170
outward 170
olo@@ 170
maps 170
inform 170
homosexual 170
designated 170
Coast 170
1949 170
spher@@ 170
homeless 170
pleases 170
intention 170
minimum 170
Gomorrah 170
graduated 170
titles 170
debts 170
butterflies 169
rituals 169
discourage 169
dow@@ 169
accountable 169
diameter 169
keenly 169
pack@@ 169
coin 169
insis@@ 169
mon 169
therap@@ 169
ama 169
bill 169
ling@@ 169
imply 169
syn@@ 169
quotes 169
introduce 169
Muslim 169
breakdown 169
drops 169
lamented 169
Eternal 169
promising 169
nut 169
enly 169
cav@@ 169
Found 169
centr@@ 169
15th 169
sticking 169
sque@@ 169
Sports 169
roles 169
red@@ 169
attraction 169
Macedonia 169
07 168
reform 168
engineering 168
iced 168
Baptist 168
wing@@ 168
abstain 168
knees 168
accusations 168
comfor@@ 168
spoil 168
anda 168
greatness 168
inviting 168
Ethiopian 168
violate 168
masses 168
Siberia 168
County 168
Doctors 168
imag@@ 168
Letter 168
processes 168
103 168
options 168
swallow 168
partially 168
evangeli@@ 168
appoint 168
motor@@ 168
pretty 168
airport 168
fec@@ 168
midnight 168
launched 168
iment 168
Irish 168
Cond@@ 168
locally 168
xed 168
Orig@@ 168
Hawaii 168
profession 168
Head 168
azing 168
indigenous 168
giver 168
thanksgiving 167
brilliant 167
oceans 167
definite 167
Madrid 167
AY@@ 167
impl@@ 167
forsake 167
tled 167
sufferer 167
Cat@@ 167
lim@@ 167
Conventions 167
Def@@ 167
shade 167
competent 167
tough 167
aper 167
lovely 167
vel@@ 167
Personal 167
eable 167
tible 167
administration 167
agrees 167
parks 167
disposal 167
herd 167
artificial 167
regime 167
Peru 167
preserving 167
PAGES 167
collapsed 167
ONE 167
majestic 167
p.m 167
Eph 167
sailed 167
comparable 167
fy 167
bi 167
righ@@ 167
twisted 167
lover 167
refugee 167
ises 167
flavor 167
cooked 167
unpleasant 167
gardens 167
shif@@ 167
Ash@@ 167
Comfort 167
ino 166
Ban@@ 166
invaluable 166
relieved 166
rup@@ 166
GO@@ 166
influential 166
injustices 166
ona 166
Writing 166
vali@@ 166
alizing 166
nel 166
march 166
acles 166
sus 166
Assyria 166
wished 166
Canaanites 166
plot 166
champ@@ 166
aching 166
White 166
establishing 166
relaxed 166
Asaph 166
holiday 166
liar 166
indign@@ 166
tful 166
intensity 166
Taiwan 166
tenderly 166
nail 166
aro@@ 166
spots 166
Sam 166
impres@@ 166
Place 166
bar 166
reacted 165
Holocaust 165
beverages 165
1.5 165
essence 165
Children’s 165
distracted 165
mur@@ 165
wheels 165
itor 165
1920 165
instantly 165
luxur@@ 165
HE@@ 165
prescribed 165
1974 165
ference 165
keeper 165
Arctic 165
Ful@@ 165
Korean 165
Newsweek 165
courtesy 165
hun@@ 165
deceive 165
Building 165
Smoking 165
closest 165
secrets 165
unwanted 165
Palestine 165
petition 165
blamed 165
Pap@@ 165
wells 165
compatible 165
tural 165
customers 164
defines 164
1958 164
vul@@ 164
Suffering 164
beli@@ 164
malnutrition 164
lish 164
suppose 164
tory 164
pap@@ 164
tness 164
pical 164
secre@@ 164
ailing 164
Mozambique 164
Ali@@ 164
Assyrian 164
ugh@@ 164
expanded 164
Maybe 164
betrayed 164
diamond 164
104 164
prostitution 164
ö@@ 164
decisive 164
Tou@@ 164
greeting 164
emblems 164
significantly 164
pillars 164
Special 164
conversion 164
Gen 164
lou@@ 164
2,500 164
trigger 164
Sec@@ 164
1938 164
Slav@@ 164
ESS 164
Anointed 164
vib@@ 164
sealed 163
fla@@ 163
1955 163
correspond@@ 163
sof@@ 163
boring 163
stretch 163
suggestion 163
Jacob’s 163
pays 163
aded 163
bet@@ 163
Survi@@ 163
substitute 163
Cle@@ 163
pollen 163
Man’s 163
deciding 163
grams 163
74 163
atu@@ 163
jail 163
beating 163
ication 163
Florida 163
Maya 163
destined 163
Drug 163
bac@@ 163
Made 163
child@@ 163
FOR@@ 163
PT@@ 163
spies 163
frustrating 162
temp@@ 162
itism 162
rushed 162
ING@@ 162
resemble 162
everybody 162
ivory 162
ana@@ 162
reliance 162
unborn 162
1.@@ 162
barely 162
82 162
dom 162
retain 162
influ@@ 162
Vic@@ 162
millennium 162
mountainous 162
chooses 162
Walking 162
band@@ 162
disgusting 162
flour 162
eral 162
automobile 162
halt 162
quake 162
Denmark 162
sum 162
itic 162
progressive 162
archaeologists 162
concrete 162
Festival 162
enn@@ 162
medicines 162
Baruch 162
almighty 162
produc@@ 162
falsely 162
polluted 162
Gold 162
lined 162
near@@ 162
tooth 162
contemporaries 162
ential 162
cardi@@ 162
returns 162
play@@ 161
shift 161
flat@@ 161
misuse 161
fig 161
burdens 161
Tra@@ 161
Games 161
WE 161
desperately 161
Growing 161
manager 161
closing 161
Fund 161
Role 161
wound 161
spices 161
Geor@@ 161
draf@@ 161
anno@@ 161
Box 161
cool@@ 161
princes 161
tin 161
Ecuador 161
confess 161
reser@@ 161
disputes 161
Imitate 161
PSALM 161
intercourse 161
ts@@ 161
exploit 161
Caleb 161
Drama 161
properties 161
awaited 161
len@@ 161
lame 161
ner@@ 161
Maintain 161
rist 161
definition 161
accustomed 161
dignified 161
hili@@ 161
EP@@ 161
Arthur 160
percentage 160
ex 160
1982 160
Rus@@ 160
liance 160
erian 160
fiction 160
restric@@ 160
bol@@ 160
tended 160
entre@@ 160
160 160
bab@@ 160
cord 160
sequ@@ 160
weaker 160
oni@@ 160
lord 160
World’s 160
corpor@@ 160
8,@@ 160
messenger 160
Follow 160
countryside 160
cep@@ 160
symbols 160
Abigail 160
emphasizes 160
players 160
prayerfully 160
marrying 160
ski@@ 160
hurled 160
pack 160
terror 160
swimming 160
array 160
ation@@ 160
strip@@ 160
commend 160
drif@@ 160
cash 160
priceless 160
MON@@ 160
Dar@@ 159
laying 159
onian 159
inscription 159
Example 159
employers 159
beside 159
besto@@ 159
eter 159
obstacle 159
blesses 159
ini 159
rampant 159
88 159
tolerant 159
layers 159
Div@@ 159
Tam@@ 159
treacherous 159
personalities 159
satanic 159
precautions 159
gul@@ 159
tends 159
1952 159
Gar@@ 159
museum 159
ele@@ 159
bars 159
ordinate 159
hip@@ 159
hang 159
87 159
convert 159
expecting 159
And@@ 159
Argentina 159
supernatural 159
puzz@@ 159
ella 159
Pil@@ 158
consuming 158
ume 158
unrepentant 158
anniversary 158
Thailand 158
Anti@@ 158
accel@@ 158
1957 158
main@@ 158
Moab 158
livestock 158
astrologers 158
inj@@ 158
appointments 158
stirring 158
sigh@@ 158
Whoever 158
clus@@ 158
OK 158
mons 158
sends 158
creates 158
prolif@@ 158
there’s 158
presiding 158
gun@@ 158
ush@@ 158
Mod@@ 158
Speak 158
adap@@ 158
Salvation 158
Full 158
entation 158
Cornelius 158
Jah 158
successor 158
partake 158
val@@ 158
though@@ 158
deals 158
grooming 158
truthful 158
tents 158
colleagues 158
disregard 158
struc@@ 158
sing@@ 158
gravity 158
carn@@ 158
fix 158
upbringing 158
mortal 158
predict 158
consisted 158
hor 158
distances 157
flourish 157
Lib@@ 157
lawyer 157
corresponding 157
76 157
iah 157
glob@@ 157
adly 157
glor@@ 157
unle@@ 157
interview 157
Caribbean 157
unaware 157
fights 157
congreg@@ 157
Guinea 157
Samson 157
deepen 157
graphic 157
lesser 157
core 157
Devil’s 157
Vol@@ 157
scroll 157
fran@@ 157
doubtless 157
accordingly 157
graphi@@ 157
Jan@@ 157
rad@@ 157
yielding 157
components 157
sale 157
Sam@@ 157
distorted 157
fab@@ 157
TE@@ 157
myth 157
folk 157
cream 157
Christlike 157
1931 157
shining 157
Watching 157
incidence 157
hepatitis 157
LONG 157
Gra@@ 156
renowned 156
rescued 156
bee 156
timi@@ 156
define 156
ject 156
avail 156
intervene 156
occurring 156
Vir@@ 156
sales 156
ush 156
doubled 156
inclinations 156
lem@@ 156
Seek 156
technique 156
grim 156
lamb 156
preservation 156
ord 156
1956 156
bleeding 156
thi@@ 156
borders 156
Texas 156
department 156
modif@@ 156
Choose 156
electrical 156
Giver 156
superstition 156
complexity 156
bit@@ 156
Alexandria 155
pillar 155
Ren@@ 155
tification 155
Challenge 155
tuberculosis 155
wheelchair 155
prohibited 155
tan 155
follower 155
Hearer 155
mill 155
intr@@ 155
concepts 155
clif@@ 155
tant 155
Cancer 155
hence 155
reproof 155
attachment 155
exclusively 155
mistak@@ 155
interrog@@ 155
Sex 155
atically 155
JEHOVAH’S 155
ouse 155
useless 155
flows 155
naked 155
luxury 155
oriented 155
sively 155
utter@@ 155
gene@@ 155
doc@@ 155
decay 155
sear@@ 155
Visit 155
Stories 155
Hand 155
brother’s 155
sown 155
What’s 155
Up@@ 155
plac@@ 155
soundness 154
rank 154
eho@@ 154
longed 154
cub@@ 154
Wales 154
foolishness 154
rot@@ 154
schemes 154
aks 154
Mol@@ 154
Buddhist 154
hol@@ 154
Every@@ 154
ignorant 154
weep 154
diagnosis 154
extends 154
unforeseen 154
investigate 154
exhorts 154
appreciates 154
scheduled 154
selective 154
Jeremiah’s 154
lis 154
astrology 154
Helping 154
discerning 154
pou@@ 154
vigorous 154
turmoil 154
murder@@ 154
ens@@ 154
thirds 154
formidable 154
aph@@ 154
mers 154
prec@@ 154
Sto@@ 153
purity 153
matic 153
psalms 153
killer 153
ights 153
traumatic 153
occasional 153
urs 153
otic 153
disloyal 153
pilot 153
rebuilt 153
gases 153
originated 153
mysterious 153
circumcision 153
interior 153
bridges 153
perfec@@ 153
fs 153
flexible 153
hob@@ 153
eb@@ 153
Angeles 153
purple 153
fragments 153
Cape 153
proselytes 153
Asa 153
THAT 153
Lin@@ 153
Costa 153
Pharaoh’s 153
pound 153
sincerity 153
ither 153
Romania 153
wis@@ 153
hypocritical 153
Era 153
adoption 153
rigid 153
escal@@ 153
Depression 153
scholar@@ 152
tang@@ 152
instant 152
rival 152
tually 152
person@@ 152
submissive 152
confidential 152
sheeplike 152
shir@@ 152
Mi@@ 152
beer 152
ete 152
fellowship 152
impe@@ 152
ranging 152
tourist 152
grud@@ 152
dread 152
idity 152
Ghana 152
immigrants 152
undergoing 152
specialist 152
intensely 152
longtime 152
AB@@ 152
shells 152
paralyzed 152
announcement 152
Serve 152
spokesman 152
companionship 152
nutrients 152
hotel 152
Nation 152
gum 152
scrip@@ 152
Angels 152
counter 152
furniture 152
Ram@@ 152
seeks 152
wa 152
decreed 152
utor 152
deep@@ 152
inge 152
unded 152
tingly 152
discipl@@ 151
sage 151
tom 151
lect 151
negoti@@ 151
ignoring 151
persuaded 151
stimulate 151
Evangeli@@ 151
ere 151
Santa 151
fascinated 151
Face 151
simil@@ 151
symposium 151
punish 151
Acc@@ 151
ibility 151
learns 151
contend 151
esti@@ 151
Reflecting 151
PET@@ 151
pictured 151
1978 151
200,000 151
di 151
virgins 151
divide 151
snakes 151
archaeological 151
antibiotics 151
Americas 151
essentially 151
ingredients 151
pes 151
elaborate 151
customary 151
Jersey 151
rites 151
sailors 151
casual 151
iny 151
Walk 151
labor@@ 151
recommend@@ 151
addresses 151
lightly 151
delicious 151
Jehu 151
conceal 151
bub@@ 151
exceptional 150
Judgment 150
tru@@ 150
breakfast 150
builders 150
hardworking 150
relating 150
sch@@ 150
leisure 150
shouting 150
aining 150
aut@@ 150
malicious 150
proportion 150
towers 150
athe@@ 150
Small 150
revel@@ 150
govern 150
ored 150
Tom 150
weak@@ 150
bury 150
counselor 150
beaches 150
alienated 150
asing 150
origin@@ 150
remembrance 150
Lev@@ 150
tele@@ 150
fibers 150
boast 150
Information 150
burnt 150
defeated 150
Histor@@ 150
theastern 150
tier 150
maneu@@ 150
Veterans 150
blameless 150
lowed 150
Dan 149
led@@ 149
loses 149
sors 149
Wrong 149
shortcomings 149
brutal 149
camera 149
Super@@ 149
League 149
moisture 149
High@@ 149
photograph 149
efs 149
specially 149
encyclopedia 149
obesity 149
prevents 149
tit@@ 149
lap@@ 149
rubber 149
laughter 149
Chief 149
ickness 149
vitamin 149
kit@@ 149
enthusiastic 149
upward 149
compet@@ 149
Nile 149
rob@@ 149
dinner 149
medium 149
Humility 149
Native 149
ustr@@ 149
administered 149
conservation 149
Behind 149
realization 149
grace 149
acute 149
bereaved 149
terrorist 149
Yugoslavia 149
implied 149
mortality 149
wrapped 149
transform 149
impul@@ 149
ulating 149
installed 149
Unless 149
Page 149
compl@@ 148
listens 148
awaits 148
less@@ 148
rum@@ 148
math 148
ageous 148
SOME 148
refresh 148
undis@@ 148
Stay 148
cruelty 148
visual 148
merc@@ 148
termed 148
sue 148
incredible 148
00,000 148
plates 148
communicated 148
fied 148
ski 148
ä@@ 148
agers 148
shrewd 148
sk 148
NASA 148
weighty 148
foretell 148
sounded 148
Compar@@ 148
vals 148
dense 148
destiny 148
separ@@ 148
mann 148
senior 148
rying 148
incite 148
Believe 148
There’s 148
ativity 148
particles 148
spor@@ 148
lighting 148
1979 148
igning 148
reporting 148
snow@@ 148
Bolivia 148
initi@@ 148
worshipped 148
hosts 148
publish 148
declined 148
Africans 147
menstru@@ 147
thir@@ 147
unite 147
unfair 147
fleeing 147
clubs 147
potent 147
Den@@ 147
smallest 147
illicit 147
Monday 147
ethical 147
Palm 147
Development 147
tend@@ 147
Epaph@@ 147
descended 147
wondering 147
businesses 147
psychiat@@ 147
confirms 147
finger 147
crib@@ 147
resol@@ 147
philosophies 147
Soci@@ 147
ARE 147
screaming 147
demonstrates 147
tow@@ 147
trucks 147
giv@@ 147
oppressed 147
itate 147
uncertainty 147
sunset 147
ENT@@ 147
adv@@ 147
III 147
lethal 147
tis 147
93 147
Canaanite 147
counsels 147
archs 147
yearn 147
Jezebel 147
resemb@@ 146
org@@ 146
restraint 146
strip 146
rance 146
sufferings 146
Problem 146
youthful 146
chat 146
mir@@ 146
ilation 146
Yearbook 146
anes@@ 146
Churches 146
leather 146
evaluate 146
Sin 146
tox@@ 146
Ezekiel’s 146
fortunate 146
art@@ 146
laz@@ 146
smel@@ 146
ashing 146
Imp@@ 146
achievements 146
IM@@ 146
hai 146
ike 146
Members 146
Lam@@ 146
experim@@ 146
law@@ 146
Gal@@ 146
recipi@@ 146
omy 146
fellowman 146
Tyndale 146
worth@@ 146
estate 146
ero 146
figuratively 146
safegu@@ 146
cats 146
Fight 146
you’ve 146
wrongdoer 146
lest 146
stepped 146
travels 146
completion 146
Gulf 146
Yourself 146
06 146
79 146
stimul@@ 146
breed 146
prolonged 146
Philemon 146
leprosy 146
desiring 146
exhib@@ 145
voyage 145
questioning 145
grass@@ 145
Happ@@ 145
accomplishment 145
quantities 145
criticized 145
urred 145
foretells 145
Naturally 145
uncomfortable 145
Viewpoint 145
kable 145
removal 145
Families 145
refin@@ 145
perished 145
bombs 145
mathem@@ 145
cholesterol 145
mad 145
Malawi 145
Bath 145
1981 145
officially 145
accommodations 145
interpreted 145
nuts 145
dig 145
ville 145
ergy 145
139 145
deleg@@ 145
responsive 145
Islam 145
hygiene 145
JESUS 145
agu@@ 145
uba 145
expanding 145
san@@ 145
wood@@ 145
develops 145
victorious 145
teams 145
erup@@ 145
dismissed 145
ozone 145
140 145
listener 145
ira 145
Exercise 145
ceremonies 144
evalu@@ 144
erial 144
remarked 144
flames 144
atical 144
dri@@ 144
flag@@ 144
distributing 144
essly 144
unrighteousness 144
bent 144
depended 144
arts 144
afflic@@ 144
stim@@ 144
hir@@ 144
ples 144
ession 144
beg@@ 144
Bor@@ 144
achievement 144
idelity 144
GOD 144
Communication 144
cluded 144
College 144
pressured 144
eth@@ 144
Mankind 144
anyway 144
Smith 144
entry 144
pleaded 144
incorpor@@ 144
orange 144
func@@ 144
ordeal 144
Stu@@ 144
ially 144
meters 144
crafts@@ 144
tos 144
confession 144
ularly 144
outworking 144
hom@@ 144
Terr@@ 144
leness 144
heeding 144
Susan 144
frozen 143
split 143
ushes 143
obtaining 143
biologist 143
restaurant 143
phase 143
concluding 143
sphere 143
08 143
popul@@ 143
horizon 143
whale 143
butterfly 143
kidn@@ 143
conception 143
intimid@@ 143
floods 143
ok@@ 143
Absalom 143
retali@@ 143
rear 143
Add@@ 143
Che@@ 143
nit@@ 143
delivery 143
Husbands 143
worm 143
knocked 143
relax 143
Plan@@ 143
read@@ 143
1961 143
discerned 143
ife 143
aping 143
sanctification 143
tex@@ 143
Syrian 143
Singapore 143
disrup@@ 143
inactive 143
port@@ 143
remedy 143
cleaned 143
tes@@ 143
minority 143
slept 143
blinded 143
theologian 143
MA 143
ERS@@ 143
itudes 142
fung@@ 142
seats 142
chus 142
pine 142
itionally 142
Gabriel 142
Commandments 142
rein@@ 142
crocodile 142
contin@@ 142
prevention 142
coupled 142
Temple 142
inser@@ 142
chart 142
dozen 142
contrac@@ 142
Song 142
comment@@ 142
kling 142
planting 142
mammals 142
,0@@ 142
Person 142
crip@@ 142
Sar@@ 142
observations 142
Cross 142
liqu@@ 142
counting 142
Dom@@ 142
Ja@@ 142
Benjamin 142
construc@@ 142
wrongdoers 142
captives 142
ba 142
tified 142
stirred 142
cial 142
fel@@ 142
Jephthah 142
cas 142
worsen@@ 142
accomplishing 142
bra 142
Palace 142
cuts 142
calamities 142
Space 141
Save 141
stabili@@ 141
engineers 141
Referring 141
ila 141
spect 141
Highlights 141
ean 141
THO@@ 141
incidents 141
interrup@@ 141
09 141
instruc@@ 141
ONS 141
depos@@ 141
shapes 141
ij@@ 141
lav@@ 141
Applying 141
photographs 141
mes 141
etary 141
commander 141
spends 141
Say 141
yle 141
deities 141
hib@@ 141
battles 141
harvesting 141
plagues 141
Mont@@ 141
ascended 141
vari@@ 141
tab@@ 141
ulous 141
illi@@ 141
lad@@ 141
conveyed 141
yards 141
Beth@@ 141
astronomers 141
Tar@@ 141
admir@@ 141
woven 140
distor@@ 140
hometown 140
Jehoshaphat 140
treats 140
Thinking 140
medieval 140
timber 140
observer 140
surveyed 140
cheese 140
ballo@@ 140
tou@@ 140
180 140
Hom@@ 140
conceived 140
pollin@@ 140
2.5 140
3.@@ 140
è@@ 140
apologize 140
nicotine 140
shouted 140
Mu@@ 140
blossom 140
accomplishments 140
migration 140
th’s 140
cramped 140
Anglican 140
colon@@ 140
embarrassment 140
religiously 140
dynamic 140
1933 140
conver@@ 140
thers 140
moth 140
bell 140
EC@@ 140
Inquisition 140
aren’t 140
sick@@ 140
holidays 140
rang@@ 140
Bat@@ 140
rings 140
rented 140
yan 140
proc@@ 140
crit@@ 140
institution 140
cle 140
headline 140
indic@@ 140
alarm 140
dire 140
parall@@ 140
Si@@ 140
Sexual 140
Dem@@ 140
appropriately 140
chec@@ 140
inking 140
idol 140
alleg@@ 139
onia 139
aller@@ 139
tracks 139
undo 139
quantity 139
Answer 139
cem@@ 139
vows 139
unbeliever 139
bark 139
Changes 139
tactics 139
Bank 139
empowered 139
climax 139
inder 139
thorn 139
din@@ 139
Influ@@ 139
ga 139
supervision 139
berries 139
3,500 139
Indonesia 139
shallow 139
orous 139
grat@@ 139
eyewitnesses 139
mislead 139
parasites 139
council 139
phi@@ 139
Galileo 139
tube 139
forcing 139
unacceptable 139
Rev@@ 139
paintings 139
volumes 139
abst@@ 139
Hop@@ 139
frequency 139
cian 139
slopes 139
Spe@@ 139
fired 139
baptis@@ 139
mond 139
Fif@@ 139
un 139
TRY 139
ire@@ 139
club 138
nationalism 138
dus@@ 138
reserve 138
repet@@ 138
lish@@ 138
contemporary 138
vered 138
ek@@ 138
rocky 138
elementary 138
acquiring 138
dy@@ 138
alternatives 138
penned 138
Canada’s 138
ald 138
devout 138
ift 138
magnetic 138
specialized 138
Africa’s 138
ech@@ 138
lining 138
greeted 138
perv@@ 138
eria 138
academic 138
intensive 138
ALL 138
are@@ 138
SE 138
Cold 138
formers 138
mali@@ 138
Different 138
stairs 138
executive 138
rod@@ 138
disagree 138
explanations 138
multiple 138
demonstration 138
Standard 138
Dra@@ 138
consciousness 138
unrealistic 138
IANS 138
rolling 138
enlightenment 138
lit 138
liter@@ 138
intently 138
rer 138
Fin@@ 138
capture 138
Strong 138
alling 138
lec@@ 138
Tab@@ 138
enslaved 138
prophesy 138
tak@@ 138
singleness 138
wy 138
remo@@ 138
JUNE 138
IF 138
Naaman 137
Prepar@@ 137
solving 137
excels 137
horrible 137
hop@@ 137
JO@@ 137
passenger 137
Nig@@ 137
foregoing 137
cence 137
creations 137
Arab@@ 137
glimpse 137
Evidence 137
brush 137
envel@@ 137
steam 137
iousness 137
obscene 137
ladder 137
Ethiopia 137
EL 137
Gri@@ 137
book@@ 137
exposing 137
AG@@ 137
clergyman 137
gallons 137
lure 137
Deluge 137
divination 137
verted 137
itus 137
devi@@ 137
adjustment 137
receptive 137
discusses 137
suspected 137
inaug@@ 137
continuous 137
peaks 137
barren 137
praises 137
ticism 137
mechanical 137
Commission 137
ode 137
transformation 137
agriculture 137
despised 137
preventing 137
nment 137
befall 137
erfully 137
Less 137
archi@@ 137
Action 137
ren 137
Loyalty 137
omin@@ 136
SP@@ 136
Dre@@ 136
Ka@@ 136
Zeitung 136
fortify 136
addressing 136
asserted 136
honoring 136
Vik@@ 136
frightened 136
500,000 136
Efforts 136
stir 136
unning 136
anian 136
olog@@ 136
accommodate 136
intriguing 136
Bul@@ 136
sug@@ 136
timing 136
resurrec@@ 136
ached 136
conventional 136
Jim 136
host@@ 136
bum@@ 136
conduc@@ 136
tiger 136
Glory 136
IV 136
overweight 136
Phil 136
fortified 136
restoring 136
contracted 136
conquering 136
poles 136
Rob@@ 136
Streng@@ 136
scope 136
cies 136
siege 136
polar 136
Lives 136
shop@@ 136
Poverty 136
store@@ 136
watchful 136
comparing 136
skillful 136
god@@ 136
terrain 135
technical 135
prim@@ 135
lob@@ 135
dirty 135
toilet 135
stand@@ 135
orial 135
aggression 135
Kindness 135
lyrics 135
Alaska 135
critics 135
poet 135
Review 135
futile 135
lifelong 135
Hitler’s 135
generated 135
puzzled 135
Turkey 135
interviews 135
crash 135
lls 135
explicit 135
TER@@ 135
converts 135
hind@@ 135
Cir@@ 135
watches 135
represent@@ 135
nership 135
itioned 135
buffalo 135
splendid 135
cousin 135
facial 135
Wars 135
persuade 135
kidney 135
guiding 135
blindness 135
defil@@ 135
accoun@@ 135
defen@@ 135
lik@@ 135
repro@@ 135
Puerto 135
cosme@@ 135
purcha@@ 135
asive 135
villagers 135
shattered 135
fatherless 135
transported 135
tained 135
Guide 135
thful 135
divor@@ 135
renders 135
proce@@ 135
Japan’s 135
extinct 135
God@@ 135
Vo@@ 135
reverse 135
restrained 135
bloodshed 135
unnoticed 134
ories 134
cleanness 134
floating 134
utili@@ 134
Brazil’s 134
indefinitely 134
calmly 134
ram@@ 134
stumbled 134
ind 134
ems 134
prosely@@ 134
ash@@ 134
optimism 134
ith 134
ée 134
Gir@@ 134
determining 134
grains 134
impaled 134
imitators 134
bak@@ 134
swa@@ 134
eks 134
premature 134
Hu@@ 134
ff@@ 134
uk@@ 134
Sib@@ 134
Bab@@ 134
weary 134
stops 134
magnitude 134
Francis 134
cultiv@@ 134
ired 134
Verse 134
advancing 134
Pol@@ 134
Wildlife 134
journalist 134
fear@@ 134
alter 134
volunteered 134
scarce 134
furn@@ 134
horrif@@ 134
urging 134
gian 134
ret@@ 134
toler@@ 134
constitute 134
trauma 134
nia 134
focuses 134
courses 134
essors 134
climbing 134
Shar@@ 133
strate@@ 133
logically 133
pag@@ 133
vels 133
greet 133
Rejoice 133
immigr@@ 133
sums 133
posts 133
powered 133
unworthy 133
shaken 133
Green@@ 133
worries 133
autumn 133
clinic 133
Fru@@ 133
controls 133
Fol@@ 133
za@@ 133
son@@ 133
nourished 133
bon@@ 133
ose 133
list@@ 133
exerts 133
caves 133
sted 133
gle@@ 133
Heav@@ 133
respec@@ 133
Significantly 133
tress 133
employ 133
Cope 133
external 133
Apollos 133
scen@@ 133
Gradually 133
attribute 133
1,200 133
arthritis 133
splendor 133
worshipping 133
Germans 133
gap 133
Guard 133
mix 133
speakers 133
ution 133
loan 133
Nor 133
respiratory 133
optimistic 133
atrocities 132
Unique 132
proceed 132
Air 132
Kor@@ 132
cycles 132
massac@@ 132
handful 132
generate 132
Goliath 132
umin@@ 132
escap@@ 132
usive 132
storage 132
exiled 132
iali@@ 132
Minis@@ 132
ims 132
trunk 132
legends 132
triumph 132
ry@@ 132
Gift 132
aroused 132
uit 132
scales 132
Clin@@ 132
Apart 132
yn@@ 132
ix 132
1972 132
complaining 132
ued 132
Heritage 132
Hi@@ 132
tile 132
1922 132
forgives 132
wonderfully 132
biology 132
addicted 132
ax@@ 132
withstand 132
outbreak 132
MAN 132
sustaining 132
LIFE 132
weekends 132
transgression 132
boards 132
possibilities 132
ler@@ 132
ester 132
communicating 132
ripe 132
assistant 132
undue 132
ron 132
sink 132
cip@@ 132
Designer 132
convic@@ 132
hang@@ 132
unting 131
Discipline 131
alarming 131
exploitation 131
hypo@@ 131
inflicted 131
relied 131
commemor@@ 131
warriors 131
offensive 131
plainly 131
1965 131
tioned 131
character@@ 131
commanding 131
Cul@@ 131
coconut 131
abiding 131
cement 131
experiment 131
short@@ 131
proclamation 131
sion@@ 131
15,000 131
Teen@@ 131
thrust 131
chang@@ 131
poisoning 131
wiped 131
figured 131
cult 131
enrolled 131
limit@@ 131
profitable 131
unemployed 131
competitive 131
refined 131
Talmud 131
robo@@ 131
silk 131
oppos@@ 131
road@@ 131
ł@@ 131
OL@@ 131
merchant 131
miserable 131
player 131
vanity 131
interven@@ 131
ket@@ 131
Beg@@ 131
Around 131
ave 131
Road 131
summoned 131
retired 131
unwilling 131
Beginning 131
monthly 131
invaded 131
1st 131
sympathetic 131
260 131
emerged 131
assets 130
Ear@@ 130
authors 130
VER 130
OR 130
fiber 130
cat 130
bear@@ 130
blem@@ 130
oked 130
considerably 130
scheme 130
diat@@ 130
liberation 130
swim 130
commerci@@ 130
altitude 130
populated 130
aze 130
complications 130
inger 130
á 130
plat@@ 130
tragedies 130
courtship 130
industrialized 130
Itali@@ 130
una 130
udi@@ 130
superiority 130
Korah 130
bare 130
smugg@@ 130
collecting 130
Scott 130
dollar 130
uns 130
nationality 130
accepts 130
enthroned 130
gangs 130
relation 130
theirs 130
galaxies 130
Baptism 130
Millennium 130
Tom@@ 130
Bra@@ 130
strongest 130
slip@@ 130
ilit@@ 129
pep@@ 129
ika 129
oting 129
unexpectedly 129
glasses 129
Carolina 129
mite 129
sailing 129
assisting 129
athletes 129
logic 129
1973 129
tedly 129
nate 129
burdensome 129
steadily 129
Inside 129
flir@@ 129
JOHN 129
currency 129
plain@@ 129
incentive 129
stit@@ 129
fundament@@ 129
astonishing 129
enmity 129
brigh@@ 129
1963 129
w’s 129
hearers 129
uz@@ 129
compos@@ 129
Missionary 129
ders 129
itted 129
requiring 129
ime 129
ained 129
Ur 129
illumin@@ 129
terrified 129
1976 129
Guardian 129
Az@@ 129
varying 129
190@@ 129
lip@@ 129
Naz@@ 129
lowest 129
than@@ 129
ori 129
Don@@ 129
Lar@@ 129
attendant 129
rend@@ 129
hopeless 129
emy 129
profess 129
dismiss 129
Oxford 129
hazardous 128
translator 128
tiv@@ 128
pounded 128
asser@@ 128
meets 128
THER 128
▫ 128
investigation 128
toy 128
assuming 128
verb@@ 128
Mental 128
terr@@ 128
prevailing 128
loads 128
Hen@@ 128
clothe 128
fragile 128
King@@ 128
uding 128
Eric 128
Antonio 128
acies 128
embrac@@ 128
links 128
astr@@ 128
embr@@ 128
cleared 128
clean@@ 128
115 128
invention 128
artist 128
RES@@ 128
EX@@ 128
Tu@@ 128
camp@@ 128
agent 128
supervis@@ 128
iver 128
intest@@ 128
spon@@ 128
Left 128
dial@@ 128
dict 128
Elihu 128
trends 128
violated 128
FROM 128
Long@@ 128
descent 128
Environment 128
facility 128
participants 128
tables 128
Sts 128
CITY 128
trading 128
leng@@ 128
Swe@@ 127
whales 127
advant@@ 127
Kno@@ 127
Heights 127
fif@@ 127
cargo 127
hers 127
beds 127
necessity 127
straw 127
mable 127
encing 127
stronghold 127
Lakes 127
investment 127
Sand@@ 127
inculcate 127
Write 127
entertain 127
hung 127
mul@@ 127
echo@@ 127
wounded 127
pushing 127
flew 127
’d 127
sheet 127
una@@ 127
likelihood 127
Animals 127
Whose 127
Zambia 127
1962 127
Nabal 127
Z 127
tips 127
poin@@ 127
indifference 127
delivering 127
telescope 127
Deep 127
ailments 127
compromising 127
1971 127
sobering 127
women’s 127
admonishes 127
picking 127
ornam@@ 127
flash 127
system@@ 127
ld@@ 127
mili@@ 127
Uz@@ 127
jection 127
sail 127
copes 127
guess 127
Rico 127
pocket 127
ín 127
Beware 127
tempting 127
observ@@ 127
devo@@ 127
chamber 127
230 127
dew 127
despise 127
ordained 127
Sleep 127
Aquila 126
decorated 126
impaired 126
Tal@@ 126
shout 126
lism 126
bru@@ 126
guar@@ 126
ponder 126
Telegraph 126
UST 126
anne 126
disco@@ 126
Damascus 126
occupy 126
peacefully 126
calculated 126
Maur@@ 126
dispen@@ 126
adolescence 126
Lydia 126
40,000 126
ENCE 126
Important 126
Dor@@ 126
unconscious 126
Linda 126
user 126
Secre@@ 126
Describe 126
Federal 126
You’re 126
spotted 126
1800 126
founding 126
sentences 126
monitor 126
oes 126
primitive 126
Moab@@ 126
TION 126
trig@@ 126
dug 126
div@@ 126
tainable 126
idental 126
disobeyed 126
Birds 126
shares 126
swel@@ 126
oner 126
ao 126
Cher@@ 126
Alcohol 125
Est@@ 125
feeds 125
Ple@@ 125
uts 125
dian 125
iko 125
aler@@ 125
ninth 125
succumb 125
betra@@ 125
intake 125
helmet 125
forec@@ 125
profan@@ 125
blows 125
lation 125
consent 125
Met@@ 125
knife 125
Complete 125
master@@ 125
Needed 125
bes 125
employee 125
Declaration 125
dependence 125
po 125
mented 125
instill 125
bread@@ 125
tration 125
underwater 125
odds 125
orphans 125
rail@@ 125
Precious 125
pearl 125
Reve@@ 125
pop@@ 125
dearly 125
settlers 125
resisted 125
denotes 125
1967 125
engineer 125
home@@ 125
license 125
hy 125
debris 125
Poor 125
Easter 125
ina@@ 125
admired 125
wolves 125
drank 125
Wat@@ 125
relying 125
tern 125
stic@@ 125
Fail@@ 125
Sacrif@@ 125
AK@@ 125
seals 125
dimen@@ 125
grandson 125
dirt 125
Nep@@ 125
airplane 124
celebrating 124
1959 124
unduly 124
Prison 124
participated 124
displeasing 124
Ari@@ 124
Dominican 124
rained 124
perpe@@ 124
Saint 124
ration 124
minerals 124
cents 124
shark 124
revolt 124
ken@@ 124
narr@@ 124
Fortunately 124
itarian 124
lur@@ 124
figs 124
cely 124
cum@@ 124
tap@@ 124
Past 124
descendant 124
virtuous 124
barriers 124
Geographic 124
deserved 124
robbed 124
ected 124
columns 124
neur@@ 124
depres@@ 124
Pontius 124
parting 124
criticize 124
extingu@@ 124
detr@@ 124
thirsty 124
am’s 124
Discus@@ 124
deliberate 124
imb@@ 124
Ef@@ 124
Turn 124
prompt 124
guaranteed 124
IL 124
audi@@ 124
icide 124
parent’s 124
ground@@ 124
PL@@ 124
300,000 124
cris@@ 124
kidneys 124
depths 123
overwhel@@ 123
withdraw 123
blasphem@@ 123
stretching 123
We’re 123
hall@@ 123
graduate 123
nav@@ 123
12th 123
ni 123
northwest 123
jur@@ 123
bite 123
affections 123
erly 123
upro@@ 123
archae@@ 123
symbolize 123
ager 123
demonic 123
robes 123
calcium 123
eni@@ 123
horror 123
boyfriend 123
Reports 123
jungle 123
Forest 123
lar 123
nesses 123
atis@@ 123
commemorate 123
tos@@ 123
Rich 123
belt 123
catastrophe 123
inding 123
construct 123
literacy 123
kled 123
Swedish 123
Demo@@ 123
Effec@@ 123
eats 123
memorable 123
ural 123
lecture 123
Changing 123
re’s 123
edness 123
Divorce 123
Air@@ 123
exal@@ 123
forgave 123
intrigued 123
kat@@ 123
elle 123
turb@@ 123
oted 123
essions 123
mills 123
fraction 123
reco@@ 123
Single 123
obediently 123
tourism 123
Gali@@ 123
calculate 123
revolution@@ 122
piano 122
newfound 122
triumph@@ 122
recru@@ 122
bal 122
drunkenness 122
voc@@ 122
excep@@ 122
arch@@ 122
fresh@@ 122
hormone 122
rier 122
distinguished 122
insec@@ 122
there@@ 122
ado 122
entic@@ 122
attentive 122
Lystra 122
imper@@ 122
ito@@ 122
THE@@ 122
Prayers 122
ack@@ 122
MATTHEW 122
germs 122
momentous 122
Crus@@ 122
que@@ 122
ope 122
herbs 122
Various 122
dor@@ 122
Ti@@ 122
questionable 122
Seven 122
grades 122
cc@@ 122
apple 122
Fl@@ 122
Ot@@ 122
shor@@ 122
ugu@@ 122
directs 122
Salvador 122
Tribune 122
woods 122
Given 122
sinning 122
inten@@ 122
pesticides 122
induced 122
appeals 122
synagogues 122
devour 122
Hans 122
disobey 122
wholehearted 122
estro@@ 122
drift 122
endeavored 122
eve 122
surrender 122
KE 122
corrupted 122
lovable 122
350 122
Os@@ 122
procession 122
Codex 122
grieve 122
blan@@ 122
Quebec 122
deer 122
Jack 122
units 122
contemplating 122
onymous 122
grapes 122
covetousness 122
Trav@@ 121
Sacred 121
anded 121
Juan 121
thriving 121
efully 121
Rul@@ 121
rolled 121
shoot 121
liances 121
Stand 121
Safety 121
cia 121
oth@@ 121
Stor@@ 121
í 121
aci@@ 121
haven’t 121
MAN@@ 121
gas@@ 121
Evolution 121
starvation 121
Spec@@ 121
seriousness 121
Scho@@ 121
const@@ 121
lash@@ 121
organism 121
chi 121
Janeiro 121
Images 121
Ri@@ 121
2nd 121
net@@ 121
Agrippa 121
perple@@ 121
rela@@ 121
adoptive 121
transfiguration 121
interpret 121
spr@@ 121
ez 121
Crisis 121
Organi@@ 121
proportions 121
impelled 121
satellite 121
settling 121
Changed 121
Estonia 121
rang 121
desolation 121
Tetragrammaton 121
cratic 121
Virginia 121
tuous 121
erful 121
worshiper 121
Vi@@ 121
dishonesty 121
craving 121
brochures 121
tires 121
identally 121
risen 121
enter@@ 121
Smo@@ 121
vom@@ 121
ape 121
tain@@ 121
Authority 121
1,600 121
babe 121
revil@@ 121
wept 121
age@@ 121
ONT 121
sun’s 121
2013 120
citizen 120
eradicate 120
advert@@ 120
Map 120
awa@@ 120
legis@@ 120
pastor 120
dwellers 120
heel 120
Drugs 120
extensively 120
Neg@@ 120
Protect 120
resumed 120
invasion 120
denial 120
40@@ 120
appar@@ 120
Men@@ 120
rib@@ 120
Emo@@ 120
alter@@ 120
Loved 120
ighty 120
bullying 120
sprout 120
Norway 120
Benin 120
administer 120
realistically 120
succumb@@ 120
prevailed 120
Fred 120
continu@@ 120
routes 120
suspicion 120
dd@@ 120
reduces 120
ort 120
entr@@ 120
Jesse 120
Enjoy 120
Foundation 120
jud@@ 120
gras@@ 120
key@@ 120
partly 120
provoking 120
Child@@ 120
reconciled 120
icians 120
hen@@ 120
Tho@@ 120
notable 120
Was@@ 120
tice 120
erected 120
Jas 120
Albania 120
origins 120
exploited 120
Ga@@ 120
Franz 120
sic 120
textbook 120
explore 120
corro@@ 120
Initially 119
Crit@@ 119
fici@@ 119
disciplined 119
scared 119
hives 119
evacu@@ 119
environ@@ 119
Ham@@ 119
erals 119
prohib@@ 119
AST 119
dif@@ 119
activ@@ 119
Myanmar 119
WEST 119
finance 119
copy@@ 119
del 119
Repor@@ 119
harlot 119
ras 119
Spr@@ 119
ister 119
Samaritans 119
astro@@ 119
igh 119
ago@@ 119
banquet 119
olds 119
ito 119
Jane 119
Deborah 119
pling 119
workmates 119
other’s 119
Chile 119
joyous 119
TON 119
limb 119
lightning 119
aul@@ 119
vicinity 119
rightful 119
Generally 119
concentr@@ 119
gent@@ 119
composite 119
flood@@ 119
juice 119
skillfully 119
year@@ 119
surfaces 119
Anne 119
ener 119
nourishment 119
13th 119
Edward 119
onable 119
hormones 119
fossil 119
anas 119
anchor 119
LAND 119
105 119
ench 119
London’s 118
noting 118
elly 118
dishon@@ 118
sleep@@ 118
Tahiti 118
Lebanon 118
SS 118
camels 118
promiscu@@ 118
exotic 118
eye@@ 118
card@@ 118
crushing 118
instit@@ 118
alis@@ 118
Attention 118
visi@@ 118
Ben@@ 118
mailing 118
Southern 118
Dif@@ 118
aspir@@ 118
idly 118
combine 118
atile 118
arius 118
Might 118
Czechoslovakia 118
persec@@ 118
reassured 118
infir@@ 118
Publications 118
calories 118
Rose 118
lighter 118
manifestation 118
gene 118
Economic 118
intact 118
landing 118
angers 118
tram@@ 118
1966 118
bath 118
Mongo@@ 118
reunited 118
Hur@@ 118
Educational 118
digging 118
biblical 118
condemnation 118
shooting 118
superstitious 118
onary 118
targets 118
aca 118
arians 118
woke 118
harvested 118
forgot 118
bored 118
Levite 118
resisting 118
adi@@ 118
greenhouse 118
eu@@ 118
ugly 118
glut@@ 117
Ways 117
chu@@ 117
scourge 117
thouse 117
fitted 117
cleanliness 117
VA 117
bitterly 117
flic@@ 117
pipes 117
Crete 117
quoting 117
extracted 117
Lat@@ 117
reconciliation 117
Success 117
blown 117
disown 117
oul 117
efficiency 117
concer@@ 117
milli@@ 117
Appro@@ 117
cos@@ 117
spic@@ 117
depart 117
dead@@ 117
Writ@@ 117
bron@@ 117
wasted 117
sian 117
emplo@@ 117
harmonize 117
mity 117
Uganda 117
complaints 117
ele 117
GI@@ 117
retirement 117
steep 117
tability 117
cocaine 117
uch 117
informative 117
Kir@@ 117
labeled 117
vigorously 117
Protection 117
vigilant 117
raped 117
skep@@ 117
Eli 117
Business 117
depic@@ 117
Alan 117
ego@@ 117
doomed 117
Nicodemus 117
seize 117
baby’s 117
organizing 117
Juli@@ 117
custom@@ 116
editor 116
Challenges 116
embryo 116
temper@@ 116
ped@@ 116
sal 116
farms 116
noon 116
PALM 116
flu 116
greetings 116
fug@@ 116
Present 116
organizational 116
yearly 116
Caring 116
1954 116
repeating 116
endowed 116
tenderness 116
organic 116
colonies 116
bud@@ 116
ior 116
prestige 116
Sri 116
informal 116
extermin@@ 116
impartial 116
trailer 116
President 116
cans 116
inspec@@ 116
ferences 116
protest 116
shake 116
Mes@@ 116
trou@@ 116
caffeine 116
departure 116
touches 116
umed 116
idences 116
fantasy 116
essed 116
sided 116
minis@@ 116
lip 116
statues 116
Six@@ 116
ew@@ 116
Causes 116
oks 116
lawless 116
ity’s 116
intricate 116
suring 116
ressed 116
manslayer 116
slight 116
fit@@ 116
nation’s 116
profits 116
senseless 116
Already 116
encies 115
ult@@ 115
Friend@@ 115
Len@@ 115
Lutheran 115
shipped 115
Prin@@ 115
Hemisphere 115
anticipated 115
orbit 115
musicians 115
hyper@@ 115
psychologist 115
9,@@ 115
Alzheimer’s 115
wer@@ 115
celi@@ 115
educate 115
raging 115
outr@@ 115
ecological 115
captain 115
legend 115
Large 115
settlement 115
Relief 115
femin@@ 115
aptly 115
Ak@@ 115
vigor 115
unfamiliar 115
yr@@ 115
fee 115
collectors 115
scal@@ 115
awaken 115
ch’s 115
recording 115
strains 115
simp@@ 115
ss 115
onement 115
recy@@ 115
baptizing 115
uncommon 115
guest 115
You@@ 115
pharma@@ 115
bloodless 115
copied 115
theocracy 115
Practical 115
worshipper 115
outs 115
AH 115
falsehood 115
sci@@ 115
identification 115
jail@@ 115
shun 115
14th 115
in’s 115
prostitute 115
thank@@ 115
hating 115
Woe 115
disrespect 115
opera 115
bodily 115
impatient 115
flooded 115
fond@@ 115
summed 115
praiseworthy 115
Jerome 115
erring 115
Swiss 115
Support 115
swallowed 115
Priscilla 114
ols 114
monument 114
Kit@@ 114
yan@@ 114
allowan@@ 114
Vietnam 114
INE 114
Ath@@ 114
ver’s 114
cryst@@ 114
Mankind’s 114
hin@@ 114
resolution 114
operated 114
Older 114
approves 114
thedral 114
binding 114
Describing 114
mast@@ 114
Unity 114
Accep@@ 114
Considering 114
Shu@@ 114
thre@@ 114
Learned 114
land’s 114
hore 114
derive 114
q@@ 114
Mari@@ 114
robbers 114
foster 114
hero@@ 114
fabric 114
erless 114
chil@@ 114
consciences 114
Mother’s 114
enligh@@ 114
subur@@ 114
chris@@ 114
diminished 114
joints 114
bec@@ 114
wrec@@ 114
IG@@ 114
Rica 114
accord@@ 114
Ep@@ 114
Hum@@ 114
extremes 114
usi@@ 114
nant 114
spectacle 114
determines 114
chicken 114
untold 114
arbit@@ 114
compass 114
insignificant 114
reat@@ 114
Traveling 114
opponents 114
traffic@@ 114
failures 114
maximum 114
equip 114
moun@@ 114
fav@@ 114
lev@@ 114
Cook 114
physics 114
Sem@@ 114
contempt 114
plas@@ 114
ina’s 114
OH 114
ado@@ 114
afflict 114
Ark 114
achi@@ 114
thorns 114
superhuman 113
drunkar@@ 113
sympathy 113
succ@@ 113
apathy 113
Bir@@ 113
arouse 113
sex@@ 113
Vulgate 113
defec@@ 113
adequately 113
capit@@ 113
U 113
millenniums 113
engue 113
insul@@ 113
catching 113
wayward 113
rainfall 113
Marie 113
exam@@ 113
viruses 113
onds 113
dragged 113
chicks 113
aven@@ 113
don 113
D.C 113
staggering 113
rub 113
Aristotle 113
ón 113
incl@@ 113
prev@@ 113
convicted 113
gard@@ 113
ively 113
twelve 113
mask 113
tormented 113
colpor@@ 113
scand@@ 113
wling 113
CHRIS@@ 113
misunderstandings 113
bedroom 113
conten@@ 113
distractions 113
Lost 113
mounted 113
ITED 113
forbid@@ 113
swif@@ 113
molded 113
colli@@ 113
chewing 113
orch@@ 113
smoked 113
tz 113
fashi@@ 113
fing 113
Maj@@ 113
licit 113
automatic 113
Colombia 113
eving 113
Py@@ 113
Throw 113
atoms 112
Encour@@ 112
excessively 112
Bot@@ 112
sibling 112
nutritious 112
commonplace 112
classroom 112
Rol@@ 112
awkward 112
Books 112
Wisely 112
ethics 112
AIN 112
Tertullian 112
church’s 112
fervent 112
jeop@@ 112
requ@@ 112
mbs 112
cotton 112
backed 112
mys@@ 112
igns 112
persecute 112
disciplining 112
oxide 112
shorter 112
versary 112
ete@@ 112
Au@@ 112
hazards 112
unbaptized 112
confront 112
lication 112
yoked 112
steward 112
symboli@@ 112
Coming 112
Massachusetts 112
Fasc@@ 112
ern@@ 112
unding 112
pand@@ 112
apprehen@@ 112
Halloween 112
contamination 112
exer@@ 112
sustenance 112
corrup@@ 112
commits 112
savings 112
Point 112
favor@@ 112
Perfect 112
slip 112
bind 112
lawful 112
ups 112
kar@@ 112
eta 112
WHY 112
echo 112
thunder@@ 112
ç@@ 112
therhood 112
11th 112
ich 112
embarrassing 112
postp@@ 112
Police 112
aris@@ 112
reefs 112
SAN 112
artistic 112
presses 112
consisting 111
kidnapp@@ 111
pered 111
fortress 111
isions 111
advertis@@ 111
Andes 111
Karl 111
salute 111
aboard 111
thology 111
corners 111
lava 111
seeming 111
mel 111
seiz@@ 111
dep@@ 111
CAN 111
450 111
rot 111
Milton 111
instructors 111
1969 111
Gestapo 111
nerves 111
accusation 111
Trade 111
supporters 111
confir@@ 111
Satur@@ 111
Statistics 111
deepest 111
smar@@ 111
substantial 111
spell 111
ine’s 111
inti@@ 111
vitamins 111
entity 111
Chap@@ 111
inherent 111
seab@@ 111
Beyond 111
affair 111
valleys 111
bamboo 111
eleg@@ 111
ad’s 111
transfer 111
effectiveness 111
motivating 111
Satis@@ 111
molecular 111
sel 111
meter 111
cooperative 111
soccer 111
fantasies 111
enriched 111
connec@@ 111
Helen 111
Examples 111
marijuana 111
honey@@ 111
vel 111
ice@@ 111
unned 111
sheets 111
casting 111
perception 111
basin 111
int@@ 111
Bridge 111
indec@@ 111
Key 111
exalt 111
locking 111
mate’s 111
southwest 111
landed 111
Mississippi 111
federal 111
counterfeit 111
enrich 110
overcoming 110
ett 110
foundations 110
frustr@@ 110
diarrhea 110
container 110
tremble 110
mistreatment 110
compelling 110
Ill@@ 110
meas@@ 110
puffed 110
rout@@ 110
applause 110
premarital 110
deme@@ 110
Makes 110
confide 110
Cleveland 110
gli@@ 110
ickly 110
yearning 110
ambition 110
Mesopotamia 110
Zimbabwe 110
Scro@@ 110
Yor@@ 110
YOUR 110
Focus 110
submitting 110
diction 110
pipe 110
agreeable 110
ense 110
concentrated 110
crazy 110
tiness 110
Lif@@ 110
inhib@@ 110
commenting 110
arg@@ 110
had@@ 110
papyrus 110
separating 110
ongs 110
ump 110
fence 110
cures 110
restaurants 110
appe@@ 110
commerce 110
stripped 110
admiration 110
Physical 110
Clar@@ 110
Probably 110
elegant 110
tfully 110
experiments 110
hollow 110
consulted 110
paved 110
nie 110
ulin 110
idden 110
tting 110
intensified 110
AR 110
respective 110
processing 110
aths 110
ador@@ 110
7.@@ 110
Nat@@ 110
proceeds 110
hindered 110
risked 110
loom 110
erable 110
uits 110
withdrew 109
trivial 109
abdom@@ 109
preparations 109
aunt 109
alleviate 109
mountain@@ 109
complement 109
buses 109
Tak@@ 109
hunt 109
Tat@@ 109
prejudices 109
Pione@@ 109
coma 109
transf@@ 109
adversely 109
betray 109
Ex 109
Own 109
fasting 109
tact 109
inian 109
suspicious 109
mit 109
nevertheless 109
sanctify 109
emerge 109
tments 109
camel 109
Amb@@ 109
bin@@ 109
Brian 109
circumcised 109
bottles 109
lled 109
impending 109
Mam@@ 109
Nobody 109
graduating 109
hered@@ 109
1968 109
black@@ 109
expl@@ 109
Harv@@ 109
mainland 109
xim@@ 109
yn 109
Sab@@ 109
chocolate 109
agony 109
WS 109
www.@@ 109
unts 109
absent 109
nectar 109
ua 109
dub@@ 109
burns 109
Haran 109
expectancy 109
Phoen@@ 109
Share 109
recordings 109
eclipse 109
berry 109
vices 109
intend 109
Virgin 109
imagin@@ 109
dwel@@ 109
consulting 109
Trials 109
tops 109
solitary 109
Tac@@ 109
dest 109
Brown 109
psalmist’s 109
Caiaphas 109
cular 109
U.S.News 109
Mormon 109
nests 109
longest 109
Tru@@ 109
lays 109
idal 109
intens@@ 109
wh@@ 108
Integrity 108
angled 108
Cares 108
ABOUT 108
lash 108
channels 108
Seeking 108
Pure 108
Proper 108
lazy 108
stimulating 108
susceptible 108
Fer@@ 108
flow@@ 108
implications 108
whit@@ 108
Harvard 108
ysis 108
treasured 108
125 108
biting 108
Pain@@ 108
stretches 108
bend 108
stems 108
counteract 108
radical 108
atched 108
symp@@ 108
bathing 108
Safe 108
acknowledging 108
addictive 108
histor@@ 108
itous 108
Benefits 108
unction 108
celebr@@ 108
anna 108
Simeon 108
web 108
Calvin 108
transgressions 108
Going 108
campaigns 108
triggered 108
dining 108
Ku@@ 108
unwholesome 108
inged 108
discomfort 108
submitted 108
exerted 108
Sad 108
commendable 108
hardened 108
Christopher 108
vable 108
icons 108
gran@@ 108
monk 108
harv@@ 108
mission@@ 108
selection 108
elessness 108
00@@ 108
Story 108
oug@@ 108
hired 108
monkeys 108
sever@@ 108
Exc@@ 108
tactfully 108
persistence 108
mosquitoes 108
acad@@ 108
Rewar@@ 108
537 108
lingu@@ 107
theological 107
depl@@ 107
Luke’s 107
Messiah’s 107
11201 107
constell@@ 107
odes 107
jec@@ 107
heating 107
Evil 107
Port 107
defin@@ 107
Courage 107
assass@@ 107
parenting 107
Col 107
violation 107
benefiting 107
knowingly 107
iner 107
footsteps 107
foreshadowed 107
NO 107
sibly 107
Gradu@@ 107
endeavors 107
rics 107
ocr@@ 107
wolf 107
interrupted 107
cran@@ 107
goodwill 107
Possible 107
sor 107
Scripturally 107
doers 107
tat@@ 107
recognizes 107
rhino 107
flooding 107
column 107
Former 107
Shepher@@ 107
penetr@@ 107
headaches 107
ason 107
surgical 107
lasts 107
persever@@ 107
WIL@@ 107
Kr@@ 107
strengths 107
inflic@@ 107
bloom 107
Ded@@ 107
knee 107
approachable 107
we’re 107
bot@@ 107
plowshares 107
tastes 107
hydro@@ 107
pension 107
privately 107
Promis@@ 107
downhearted 107
radio@@ 107
finances 107
lucrative 107
communic@@ 107
multitudes 107
struggles 107
defilement 107
herds 107
Moral 107
folded 107
lifeless 107
Timothy’s 107
Hard 107
cubs 107
alous 107
Shap@@ 107
se’s 107
ambitious 107
mist 107
perseverance 107
prodigal 107
Judean 106
reassurance 106
Realizing 106
pean@@ 106
ia’s 106
mined 106
profoundly 106
lawyers 106
garlic 106
unc@@ 106
boost 106
repairs 106
cautions 106
erc@@ 106
1937 106
beg 106
Rem@@ 106
tortured 106
azed 106
regre@@ 106
arities 106
undesirable 106
esteemed 106
ith@@ 106
multiply 106
ile@@ 106
pearls 106
bands 106
Petersburg 106
phar@@ 106
vac@@ 106
Falls 106
sperm 106
sponsored 106
Abuse 106
IST@@ 106
conventi@@ 106
isolate 106
Corinthian 106
System 106
demonstrating 106
archy 106
immersion 106
sensed 106
✔ 106
traction 106
Millennial 106
upheld 106
esman 106
PAR@@ 106
irritating 106
heir 106
polis 106
Regular 106
matches 106
Euphrates 106
wido@@ 106
poss@@ 106
compete 106
fleet 106
birth@@ 106
trumpet 106
Lived 106
arti@@ 106
Resurrection 106
Gal 106
Club 106
hill@@ 106
Discer@@ 106
estone 106
sabbath 106
imed 106
Planet 106
pier@@ 106
rightness 106
laugh@@ 106
fool@@ 106
pestilences 106
AGE 106
overflow 106
Kind 106
pox 106
stric@@ 106
esome 106
Anthony 106
chers 105
hydrogen 105
fisher@@ 105
foc@@ 105
ministering 105
Phillips 105
vile 105
misconduct 105
confusing 105
microbes 105
dragon 105
ax 105
comprehension 105
unhealthy 105
nasty 105
reminding 105
urring 105
Dam@@ 105
vindication 105
Deaf 105
icing 105
flour@@ 105
licate 105
poorly 105
craf@@ 105
galaxy 105
antis@@ 105
Arch@@ 105
overse@@ 105
medications 105
documented 105
Bring 105
thwestern 105
Darwin 105
Putting 105
catastrophic 105
gra@@ 105
rivalry 105
mark@@ 105
gains 105
Feelings 105
turbulent 105
cow 105
illas 105
saves 105
smooth@@ 105
ura 105
overjoyed 105
accum@@ 105
wax 105
shrink 105
DIS@@ 105
enlightened 105
B.C 105
Humble 105
advocate 105
Navajo 105
natives 105
preferences 105
announce 105
tling 105
Value 105
sits 105
prince 105
abrup@@ 105
dilemma 105
Whereas 105
uncontrolled 105
redeem 105
traders 105
Sing@@ 105
pris@@ 105
Liter@@ 105
connections 105
classical 104
mayor 104
Test 104
converse 104
vin 104
Caesar’s 104
carpenter 104
til@@ 104
DAY 104
itioning 104
SD 104
risky 104
cows 104
lively 104
Nahu@@ 104
mim@@ 104
suppress 104
saturated 104
initiated 104
Fellow 104
wn@@ 104
preci@@ 104
practic@@ 104
blanket 104
delic@@ 104
arr@@ 104
Wr@@ 104
ATI@@ 104
tunnels 104
enlarged 104
Colossae 104
astronomy 104
oud 104
explorers 104
Athen@@ 104
lacks 104
civilians 104
tiles 104
crocodiles 104
powder 104
stays 104
erously 104
consumer 104
poll 104
Nin@@ 104
anticip@@ 104
Barry 104
smiling 104
mete@@ 104
fervently 104
Teachers 104
bath@@ 104
breakup 104
orph@@ 104
India’s 104
wrongly 104
pois@@ 104
ucle@@ 104
itious 104
infr@@ 104
Van 104
Battle 104
guarantees 104
drastic 104
nom@@ 104
proph@@ 104
Population 104
adopting 104
.com 104
mness 104
agon@@ 104
Cru@@ 104
pairs 104
kins 104
Pharisee 104
Equ@@ 104
Les@@ 103
ords 103
Log@@ 103
humbled 103
Instructor 103
cater@@ 103
conveys 103
counselors 103
achieving 103
Town 103
Buddhism 103
jet 103
eliminating 103
Allow 103
chy 103
oke 103
subdue 103
Desert 103
prog@@ 103
ographic 103
asp@@ 103
solemn 103
Ananias 103
Russians 103
devastation 103
cheap 103
flaws 103
scenario 103
pregn@@ 103
kup 103
Myth 103
scrib@@ 103
ancies 103
govern@@ 103
Army 103
Merc@@ 103
contempl@@ 103
skinned 103
EF@@ 103
agging 103
Diagram 103
idents 103
1900 103
thetic 103
Mike 103
lowers 103
reserves 103
abundantly 103
Maintaining 103
Rememb@@ 103
Brings 103
tissues 103
Heaven 103
heigh@@ 103
traveler 103
marg@@ 103
reception 103
contradict 103
Illustr@@ 103
Appe@@ 103
they@@ 103
tiring 103
emper@@ 103
ow 103
Nowadays 103
TIM@@ 103
replies 103
umental 103
edy 103
ther 103
inexpensive 103
Levi 103
rugged 103
containers 103
resent@@ 103
om’s 103
Nairobi 103
Miriam 103
Vital 103
ud 103
freeness 103
broadcast 103
blossoms 103
Det@@ 103
envious 103
ía 103
UNI@@ 103
0s 103
varies 103
Earth’s 103
inher@@ 103
Panos 103
slides 103
pilgrims 103
possesses 103
furnace 102
eship 102
icy 102
wart 102
gestures 102
egroom 102
laud 102
quali@@ 102
brand 102
WA@@ 102
freedoms 102
missions 102
crystal 102
Adoles@@ 102
sanitation 102
examines 102
extract 102
Alexand@@ 102
pam@@ 102
lod@@ 102
Hearing 102
sighted 102
ox 102
instig@@ 102
Express 102
shower 102
Joe 102
iden 102
CH 102
Identif@@ 102
uti@@ 102
saf@@ 102
enraged 102
grabbed 102
anointing 102
deficiency 102
leopard 102
exhibition 102
Cities 102
osity 102
ony@@ 102
Lanka 102
Frank@@ 102
skeptical 102
dio 102
amber 102
gri@@ 102
Sandra 102
elusive 102
seekers 102
Il@@ 102
bulls 102
Produc@@ 102
questionably 102
verance 102
reinforced 102
3rd 102
Bac@@ 102
Jour@@ 102
chemistry 102
tones 102
diminish 102
mouths 102
60,000 102
blind@@ 102
weighs 102
discrimin@@ 102
erxes 102
Peninsula 102
bursts 102
Thankfully 102
German@@ 102
shores 102
Ferdinand 102
adher@@ 102
Dun@@ 102
dup@@ 102
public@@ 102
traces 102
ail 102
esh 102
Kat@@ 102
decent 102
differs 102
debilitating 102
py 102
clever 102
who@@ 102
oro@@ 102
suspended 102
Neigh@@ 102
bloodstream 102
inds 102
ida 102
sweeping 102
Gambling 102
Ministerial 102
impose 102
cong@@ 101
doer 101
prehuman 101
ree 101
UM@@ 101
exagg@@ 101
cements 101
astronomer 101
nurture 101
Independent 101
manna 101
Born 101
northeast 101
ema 101
Bon@@ 101
frank 101
usage 101
aimed 101
empathetic 101
Build 101
inscribed 101
peculi@@ 101
ishable 101
his@@ 101
unwittingly 101
apology 101
differ@@ 101
Missionaries 101
skel@@ 101
Fire 101
Ib@@ 101
UB@@ 101
rotten 101
Sadducees 101
entrenched 101
gar 101
founder 101
bankrup@@ 101
tech@@ 101
lords 101
anybody 101
membership 101
gender 101
speeds 101
outdoors 101
witchcraft 101
brib@@ 101
stud@@ 101
ettes 101
needle 101
convers@@ 101
candidates 101
treach@@ 101
glance 101
economically 101
malig@@ 101
duce 101
evenings 101
POR@@ 101
trus@@ 101
Eth@@ 101
ays 101
Mordecai 101
ee 101
Sugg@@ 101
jumped 101
affection@@ 101
fib@@ 101
wander 101
disfellow@@ 101
Bed@@ 101
pronounce 101
atures 101
functioning 101
zers 101
ikes 101
pessim@@ 101
disagreements 101
Prevention 101
consumers 101
Philistine 101
Recent 101
tactful 101
restrict 101
another’s 101
democracy 101
Works 101
needing 101
compulsion 101
grieved 101
ules 101
compound 101
typically 101
ecting 100
persecuting 100
Suf@@ 100
beforehand 100
ridiculers 100
hat 100
attracts 100
Loyal 100
identical 100
Obedience 100
Bis@@ 100
Sc@@ 100
booklets 100
circles 100
wand@@ 100
departed 100
accumulated 100
contest 100
ola 100
ticide 100
paras@@ 100
ardi@@ 100
Eyes 100
Southeast 100
Ki 100
Fam@@ 100
odor 100
rede@@ 100
Justin 100
desolate 100
1,0@@ 100
assemble 100
recep@@ 100
1513 100
string 100
beware 100
Thursday 100
sland@@ 100
mm 100
Ing@@ 100
rats 100
hemoglobin 100
Phys@@ 100
ole 100
ington 100
operates 100
SON 100
period@@ 100
spra@@ 100
hoods 100
Plato 100
ares 100
Wid@@ 100
Ker@@ 100
chariots 100
chat@@ 100
vocabulary 100
0,000 100
haven 100
Hand@@ 100
uncovered 100
sma@@ 100
releasing 100
i’s 100
bene@@ 100
ID@@ 100
drums 100
Main 100
uke 100
impulses 100
ficient 100
eloqu@@ 100
castle 100
Hellen@@ 100
engul@@ 100
Recognizing 100
tresp@@ 100
islanders 100
mosquito 100
ishment 100
cribe 100
tread 100
accomp@@ 100
laments 100
kingly 100
rejo@@ 100
unjustly 100
Poli@@ 100
Lon@@ 100
ho 100
ʼ@@ 100
controversial 100
nutr@@ 100
transmission 100
shrim@@ 100
log 100
Caesarea 100
encoun@@ 100
asset 100
tail@@ 99
hail 99
emics 99
endeavoring 99
baths 99
twenty 99
suspect 99
gratification 99
atheists 99
laboratory 99
adversities 99
slide 99
mud@@ 99
vent@@ 99
genealo@@ 99
medicinal 99
script 99
indulgence 99
administrative 99
veneration 99
Origin 99
rat@@ 99
conflicting 99
expel 99
extremity 99
ali 99
mathematics 99
spired 99
rope 99
enthr@@ 99
winner 99
tap 99
responses 99
suggesting 99
6.@@ 99
alphabet 99
injurious 99
Vancouver 99
enzy@@ 99
printery 99
betrayal 99
dign@@ 99
force@@ 99
healthier 99
L’@@ 99
wire 99
mites 99
Meaning 99
unforgettable 99
PER@@ 99
Brid@@ 99
preference 99
editorial 99
roaring 99
degrading 99
kne@@ 99
ialized 99
Ken@@ 99
enslavement 99
honors 99
Moving 99
Dol@@ 99
circumstance 99
portray 99
ñ@@ 99
erupted 99
Vin@@ 99
roughly 99
heeded 99
commod@@ 99
sly 99
dividing 99
revenge 99
evolution@@ 99
146 99
Ol@@ 99
regrets 99
tribulations 99
Sister 99
puberty 99
Thi@@ 99
mies 99
Plan 99
Michelle 99
Pris@@ 99
greed@@ 99
combin@@ 99
politically 99
casts 99
Tree 99
eco@@ 99
evildoers 99
Ironically 99
Surgery 99
pole 99
trick@@ 98
mat 98
pred@@ 98
127 98
epid@@ 98
ht 98
persists 98
eun@@ 98
Jehoi@@ 98
rebuilding 98
0 98
mercies 98
inevitably 98
applic@@ 98
silently 98
vious 98
eves 98
plentiful 98
collec@@ 98
transforming 98
someone’s 98
affir@@ 98
ther’s 98
ain’s 98
Angola 98
Dri@@ 98
1610 98
reassure 98
announcing 98
Nab@@ 98
vand@@ 98
Volun@@ 98
scarlet 98
flashes 98
decrease 98
policemen 98
altered 98
cup@@ 98
pia 98
rous 98
Jason 98
Poti@@ 98
Prior 98
realizes 98
Provider 98
Expec@@ 98
vil@@ 98
reef 98
Av@@ 98
entist 98
evenly 98
borro@@ 98
policeman 98
provin@@ 98
illustr@@ 98
sprin@@ 98
unthinkable 98
Dennis 98
Van@@ 98
LES 98
networks 98
athy 98
affluent 98
serv@@ 98
mare 98
neg@@ 98
imit@@ 98
Cultural 98
simultaneously 98
ME 98
ede 98
eruption 98
vegetable 98
manifesting 98
vaccine 98
HISTORY 98
Johannesburg 98
Sun@@ 98
Genuine 98
Local 98
4.@@ 98
Hindus 98
Joyful 98
bund@@ 98
journeys 98
provid@@ 98
Communism 98
pec@@ 98
nical 98
Train 98
pitch 98
Deb@@ 98
caf@@ 98
convenience 98
aic 98
stead 98
NEW 98
disabilities 98
133 98
awar@@ 98
25,000 98
elessly 98
deforestation 98
cauti@@ 98
reput@@ 98
void 97
induc@@ 97
spiritistic 97
pyram@@ 97
uninten@@ 97
worrying 97
senti@@ 97
discour@@ 97
Undoubtedly 97
isons 97
mushrooms 97
escor@@ 97
distinc@@ 97
Hat@@ 97
Foreign 97
loaf 97
Species 97
Race 97
tanks 97
eldest 97
bloodguilt 97
showy 97
kul@@ 97
illion 97
ICE 97
400,000 97
blu@@ 97
dissolved 97
evapor@@ 97
Hind@@ 97
displaced 97
acquaintances 97
show@@ 97
| 97
payments 97
ruc@@ 97
hypocrites 97
revised 97
dull 97
soothing 97
ecosystems 97
bricks 97
tolerated 97
escaping 97
negl@@ 97
adapted 97
mad@@ 97
1977 97
luck 97
Righteousness 97
agre@@ 97
UTH 97
altars 97
racing 97
fearlessly 97
Gl@@ 97
pangs 97
Nam@@ 97
motorcycle 97
Tony 97
Wherever 97
libraries 97
reci@@ 97
arri@@ 97
believable 97
onlookers 97
basket 97
daunting 97
tremb@@ 97
Direc@@ 97
urg@@ 97
ller 97
unkind 97
obli@@ 97
shaking 97
domination 97
anticipation 97
checking 97
tles 97
progressing 97
Masore@@ 97
tec 97
score 97
uge 97
omed 97
factories 97
plasma 97
hunters 97
gospel 97
Care@@ 97
Mishnah 97
Values 97
adorned 97
poly@@ 97
Nobel 97
appointing 97
thoughtful 97
princip@@ 97
resear@@ 97
DA 97
Academy 97
enterpris@@ 97
Prophe@@ 97
Finnish 97
householders 97
traced 97
PHI@@ 97
Football 97
30@@ 97
sank 97
delights 97
restri@@ 97
fetus 97
spreads 97
Madagascar 97
locusts 96
journals 96
helicop@@ 96
mang@@ 96
ept 96
foreigner 96
pale 96
Oriental 96
regional 96
seduced 96
Touris@@ 96
Cou@@ 96
Gary 96
Victims 96
exultation 96
tuating 96
Barbara 96
chor@@ 96
thri@@ 96
Brit@@ 96
Endurance 96
Roma 96
drin@@ 96
orchids 96
obligated 96
warrior 96
yel@@ 96
Tim@@ 96
volcanoes 96
skies 96
catac@@ 96
cus 96
religi@@ 96
stri@@ 96
ation’s 96
gling 96
degr@@ 96
elite 96
meekness 96
Pit@@ 96
cunning 96
Apost@@ 96
ks@@ 96
inland 96
disapproval 96
chair 96
tumor 96
soup 96
invent@@ 96
prays 96
rounded 96
outline 96
WITNESSES 96
1925 96
Monde 96
slander 96
should@@ 96
synthetic 96
watered 96
exhibit 96
Edition 96
sures 96
barracks 96
attor@@ 96
botan@@ 96
blast 96
Moved 96
itis 96
crastin@@ 96
reincarnation 96
Facing 96
astounded 96
editions 96
zable 96
racism 96
astray 96
Any@@ 96
slander@@ 96
acking 96
indifferent 96
dreaming 96
battle@@ 96
Carol 96
turbed 96
chairs 96
raz@@ 96
decreas@@ 96
Photo@@ 96
Raising 96
thering 96
pleasurable 96
Events 96
manual 96
desk 96
Lesson 96
stopping 96
appreciatively 96
ris 96
compounds 96
quote 96
Steve 95
salmon 95
Wicked 95
fury 95
wre@@ 95
bearer 95
wich 95
singers 95
gaze 95
yeartext 95
descend 95
graceful 95
humiliation 95
myths 95
ationally 95
transmit 95
heavier 95
eton 95
Tears 95
Leah 95
craft 95
preser@@ 95
discretion 95
emig@@ 95
miniature 95
Rece@@ 95
hair@@ 95
adorn 95
suit@@ 95
Kobe 95
sib@@ 95
compulsive 95
wary 95
ulent 95
transition 95
ant’s 95
extr@@ 95
Hungarian 95
architecture 95
Venezuela 95
usions 95
Require 95
decides 95
Mrs 95
eyewitness 95
SER@@ 95
uro@@ 95
Q@@ 95
and’s 95
techno@@ 95
file 95
enticed 95
enh@@ 95
bush@@ 95
leap 95
eo 95
interc@@ 95
individual’s 95
Tun@@ 95
hug@@ 95
fan 95
voluntarily 95
boarding 95
sometime 95
preced@@ 95
prescription 95
blasph@@ 95
plant@@ 95
discarded 95
ja 95
stac@@ 95
chains 95
Tobacco 95
clinical 95
Person@@ 95
Needs 95
Listening 95
exiles 95
denominations 95
bugs 95
immersed 95
appearances 95
compensate 95
relaxation 95
mits 95
Ontario 95
papers 95
lder 95
bearable 95
dreamed 95
finger@@ 95
Act 95
bye 95
1964 95
feat 95
merits 95
sparrows 95
Constantinople 95
spouses 95
guarded 95
roadway 95
Fish 95
gru@@ 95
tightly 94
ripped 94
molecule 94
Persecution 94
Carlos 94
skir@@ 94
lear@@ 94
endures 94
polygam@@ 94
havoc 94
photograp@@ 94
murmuring 94
fade 94
refriger@@ 94
Practice 94
Tol@@ 94
glow 94
eyesight 94
year’s 94
tifying 94
onment 94
ually 94
unselfishly 94
richest 94
On@@ 94
bacy 94
museums 94
visualize 94
phono@@ 94
Nabo@@ 94
marched 94
enza 94
defending 94
defenses 94
murders 94
reproving 94
arguing 94
Chicago 94
divid@@ 94
overseas 94
half@@ 94
designer 94
clud@@ 94
stamp 94
Medi@@ 94
Benefit 94
1936 94
tank 94
heartache 94
trail 94
Technology 94
biologists 94
hairs 94
pills 94
entertained 94
Harold 94
Examin@@ 94
mentioning 94
Barak 94
Beauty 94
Treasure 94
alties 94
amic 94
halls 94
physi@@ 94
Successful 94
stuff 94
puf@@ 94
Meet 94
label 94
credited 94
relentless 94
barley 94
manufacturers 94
wrong@@ 94
managing 94
accounting 94
umber 94
Antarctica 94
www.jw.org 94
indulge 94
errone@@ 94
pruning 94
drives 94
publicity 94
indes@@ 94
clin@@ 94
behaved 94
Johnson 94
clearer 94
straigh@@ 94
ficial 94
Comp@@ 94
spice 94
Inj@@ 94
stren@@ 94
Prophets 94
cros@@ 94
ime@@ 94
Experience 94
technological 94
Cameroon 94
Assyrians 94
rabbinic 94
KING 94
Call 94
nigh@@ 94
welcoming 94
rude 94
wasting 94
Queensland 94
arid 94
Historian 94
UD@@ 94
Gog 94
incess@@ 94
doctor’s 94
lee 94
destroys 94
inspection 94
vineyards 94
charm 94
Tanzania 93
pleas@@ 93
beetle 93
indispensable 93
Servant 93
wet@@ 93
suits 93
BO@@ 93
Lloyd 93
noisy 93
mechanisms 93
sample 93
freezing 93
mind@@ 93
dolphins 93
Houston 93
manif@@ 93
superficial 93
births 93
selecting 93
en’t 93
advertise 93
summit 93
hope@@ 93
Augustine 93
ivers 93
genocide 93
meaningless 93
eagles 93
quis@@ 93
defect 93
extension 93
Has@@ 93
thyro@@ 93
Pain 93
kiss 93
tirel@@ 93
reservo@@ 93
towards 93
random 93
bowl 93
inflam@@ 93
regained 93
Ev@@ 93
shameful 93
tify 93
9,000 93
Prof@@ 93
readjust 93
vividly 93
Newton 93
superstitions 93
architec@@ 93
rum 93
evolutionary 93
ori@@ 93
fuels 93
dens@@ 93
erect 93
tranquillity 93
Orient 93
fearless 93
subscrib@@ 93
compiled 93
irritated 93
measure@@ 93
unar 93
processed 93
presentations 93
Article 93
respond@@ 93
Economist 93
29@@ 93
ker@@ 93
formula 93
erson 93
phenomena 93
headlines 93
lottery 93
moderation 93
eries 93
turer 93
Blessing 93
Congress 93
preoccupied 93
orthodo@@ 93
nu@@ 93
contenti@@ 93
utterly 93
asthma 93
Atonement 93
Stone 93
Kaz@@ 93
brightly 93
denounced 93
resor@@ 93
j 93
aggrav@@ 93
mechanism 93
groaning 93
liberated 93
inability 93
Eve’s 93
Pot@@ 93
Worth 93
ALI@@ 93
blocked 93
let’s 93
ANG@@ 93
Nassau 93
BEN@@ 93
Pressure 93
objectives 93
excuses 93
Bil@@ 93
lay@@ 93
scenery 93
eches 93
concert 93
purely 93
Accurate 92
gems 92
continents 92
ton@@ 92
neat 92
grapher 92
Cli@@ 92
handic@@ 92
FE@@ 92
enthusiastically 92
degradation 92
crack 92
imparts 92
disagreement 92
kin 92
web@@ 92
vacuum 92
Fal@@ 92
butter 92
oppres@@ 92
improvements 92
wild@@ 92
Persians 92
prestigious 92
constitutes 92
murderous 92
supp@@ 92
offender 92
angered 92
liberty 92
warmer 92
violently 92
monetary 92
omo@@ 92
ascen@@ 92
codex 92
50@@ 92
unlimited 92
bun@@ 92
Safegu@@ 92
viewpoints 92
whe@@ 92
Dark 92
ros 92
tempt 92
Starting 92
vacc@@ 92
poorer 92
clude 92
tol 92
Alber@@ 92
esia 92
Promo@@ 92
amazement 92
rabbis 92
swal@@ 92
Particularly 92
Troub@@ 92
seless 92
hec@@ 92
bouts 92
nap 92
blend 92
notorious 92
atom 92
Alex 92
resembles 92
pond 92
coinc@@ 92
partaking 92
defended 92
microscopic 92
Jehoash 92
replacing 92
cov@@ 92
monks 92
és 92
storing 92
nucleus 92
hardest 92
forfe@@ 92
integral 92
Risk 92
Hag@@ 92
11@@ 92
missiles 92
business@@ 92
culmin@@ 92
knocking 92
Grou@@ 92
regulate 92
lamps 92
Arab 92
girl’s 92
Willi@@ 92
QUE 92
Egyp@@ 92
Bulgaria 92
pink 92
classified 92
deteriorated 92
spears 92
obscure 92
delegate 91
Wednesday 91
Loc@@ 91
eping 91
Ran@@ 91
insecurity 91
tribute 91
squir@@ 91
statue 91
pagans 91
folding 91
themes 91
Affec@@ 91
atheist 91
finishing 91
athletic 91
Appropriately 91
dings 91
flourished 91
Magazine 91
Sipa 91
likeness 91
hastily 91
bats 91
remarkably 91
assign 91
Lead 91
eternally 91
THERE 91
tails 91
childbirth 91
Sharing 91
ATE 91
cosmo@@ 91
Ther@@ 91
elded 91
kl@@ 91
camped 91
Been 91
persisted 91
sights 91
pneumonia 91
crow@@ 91
churchgo@@ 91
106 91
ulted 91
dishonor 91
WITH 91
Red@@ 91
corruptible 91
composition 91
mixing 91
seduc@@ 91
reproductive 91
one@@ 91
doctrinal 91
distingu@@ 91
sensible 91
astic 91
Governor 91
climbed 91
careg@@ 91
nist 91
uj@@ 91
somebody 91
frigh@@ 91
las 91
compares 91
fort 91
Hab@@ 91
Young@@ 91
Grat@@ 91
demonstrations 91
OD 91
simplicity 91
lible 91
simplify 91
tent@@ 91
WO@@ 91
alleged 91
Kan@@ 91
ú@@ 91
semen 91
explorer 91
stipul@@ 91
Hate 91
lend 91
Law@@ 91
decreased 91
terminal 91
Margaret 91
leaf@@ 91
imitated 91
Pornography 91
obsessed 91
Eas@@ 91
survives 91
nly 91
beetles 91
confron@@ 91
defects 91
Line 91
allegiance 91
tel 91
weddings 91
rested 91
civilian 91
turtles 91
terror@@ 91
forty 91
Contributed 91
bothered 91
affirmed 91
Hard@@ 91
Joshua’s 91
Visitors 91
presumptu@@ 91
ani 90
widen 90
cable 90
jar 90
Message 90
WRIT@@ 90
suited 90
prohibition 90
solidly 90
chief@@ 90
enhanced 90
advertisements 90
deterior@@ 90
Ammon@@ 90
surro@@ 90
vert 90
mobili@@ 90
scars 90
tooth@@ 90
rin@@ 90
zones 90
De 90
boss 90
Illustrate 90
prudent 90
ementary 90
treaty 90
Contro@@ 90
Accept 90
Bear 90
Gregory 90
litter 90
confiscated 90
fastest 90
si 90
resorted 90
shipwreck 90
straight@@ 90
sundown 90
cheating 90
purposeful 90
cords 90
monuments 90
ances@@ 90
Popular 90
life@@ 90
Ultimately 90
unusually 90
licen@@ 90
insecure 90
opportune 90
policies 90
prais@@ 90
murmu@@ 90
discouraging 90
tech 90
ay@@ 90
Christine 90
LOR@@ 90
Remar@@ 90
Kris@@ 90
treas@@ 90
uncircumcised 90
frankly 90
sharp@@ 90
inat@@ 90
idance 90
Lou@@ 90
Blo@@ 90
toxic@@ 90
fair@@ 90
supre@@ 90
5.@@ 90
sels 90
nic 90
administr@@ 90
Patterson 90
ALE 90
gam@@ 90
pression 90
defra@@ 90
physicist 90
Alice 90
ange 90
consum@@ 90
marketplace 90
supervisor 90
assessment 90
lah 90
ambass@@ 90
borrowed 90
Aztecs 90
Haiti 90
eagerness 90
contro@@ 90
acquaintance 90
bor 90
Iscariot 90
Archives 89
Firm 89
nephew 89
Animal 89
persuasion 89
avail@@ 89
palms 89
Compl@@ 89
extor@@ 89
veness 89
lice 89
disrupt 89
spider 89
category 89
accus@@ 89
sheep@@ 89
substanti@@ 89
promotion 89
1928 89
sermon 89
Tyre 89
grammar 89
apers 89
businessman 89
nobles 89
É@@ 89
cite 89
wedlock 89
Below 89
slipped 89
threatens 89
leaven 89
trum 89
portable 89
applications 89
imperial 89
Experi@@ 89
gment 89
antity@@ 89
stero@@ 89
mistreated 89
ancho@@ 89
vations 89
Done 89
legacy 89
cross@@ 89
Austr@@ 89
ridiculed 89
civili@@ 89
xia 89
rash 89
sensitivity 89
isol@@ 89
crafty 89
Morning 89
sorcer@@ 89
detected 89
bras 89
Arizona 89
circum@@ 89
repaired 89
mourn 89
Don 89
Haman 89
Pear@@ 89
loy@@ 89
multiplied 89
crowned 89
chaos 89
abyss 89
Company 89
hesit@@ 89
Vienna 89
Lot’s 89
scan@@ 89
grievous 89
papal 89
Hiro@@ 89
reared 89
inspire 89
freshwater 89
shing 89
Hear 89
subway 89
Twenty 89
Instruc@@ 89
ias 89
Check 89
Tran@@ 89
fulf@@ 89
saddened 89
VI 89
Transl@@ 89
proclaimer 89
atta@@ 89
grow@@ 89
oak 89
horr@@ 89
apologized 89
gged 89
yrin@@ 89
chemotherapy 89
precision 89
balls 89
Tragedy 89
agonizing 89
dedic@@ 89
attrac@@ 89
Mothers 89
Average 89
unthankful 89
Protec@@ 89
acle 89
delayed 89
firstfruits 89
ib 89
tablet 89
Prac@@ 89
stove 89
practiti@@ 89
Jones 89
Sierra 89
Mom@@ 89
confinement 89
IMAGINE 89
12,000 89
abusively 89
assert 89
abstract 88
Lack 88
misunderstanding 88
cholera 88
Theological 88
introduc@@ 88
perme@@ 88
Tas@@ 88
divisive 88
evers 88
innermost 88
ais@@ 88
christ 88
Cultivate 88
commun@@ 88
provoke 88
Spiritually 88
completing 88
Budapest 88
lid 88
jects 88
Ul@@ 88
fats 88
accumulate 88
beat@@ 88
punctu@@ 88
variations 88
agg@@ 88
Meditating 88
Shem 88
pioneered 88
Kennedy 88
vowed 88
Gibe@@ 88
habit@@ 88
uration 88
lodging 88
repl@@ 88
astronomical 88
Comput@@ 88
Called 88
iful 88
toiling 88
canceled 88
Good@@ 88
cir@@ 88
testified 88
Papua 88
ects 88
abandoning 88
entable 88
upholding 88
poetry 88
prostitutes 88
bother 88
sweat 88
ause 88
romance 88
Kid@@ 88
disillusioned 88
dose 88
terribly 88
iller 88
brick 88
marking 88
caregivers 88
Contrary 88
oured 88
suicides 88
uneiform 88
invitations 88
jw.org 88
withdrawal 88
seaf@@ 88
descending 88
Perfec@@ 88
Community 88
laun@@ 88
horiz@@ 88
civilizations 88
attendants 88
component 88
polio 88
Feel 88
emissions 88
vocation 88
magnify 88
bodied 88
dishear@@ 88
emed 88
smoker 88
curing 88
ander 88
reverential 88
reviewing 88
⁠ 88
underwent 88
use@@ 88
thread 88
dimin@@ 88
devoting 88
S.@@ 88
cut@@ 88
mn@@ 88
Dist@@ 88
uniform 88
warmed 88
deported 88
stiff 88
awak@@ 88
ution@@ 88
ater@@ 88
Artemis 88
token 88
stub@@ 88
Parent 88
abusing 88
Megiddo 88
Treas@@ 88
ingo 88
bes@@ 88
vas@@ 88
communications 88
teenth 88
Open 88
sizes 88
achers 88
Clean 88
myri@@ 88
rode 88
Jer@@ 88
Tiber@@ 88
Versus 88
spontaneous 88
backward 88
wandering 87
Eat 87
Eunice 87
polite 87
INGS 87
carto@@ 87
seasoned 87
101 87
hous@@ 87
reinforce 87
Lis@@ 87
machinery 87
zy 87
Concern 87
excellence 87
Servants 87
harshly 87
swear 87
surround 87
tale 87
itative 87
expanse 87
livelihood 87
mean@@ 87
limbs 87
Developing 87
groom 87
Doubtless 87
tasty 87
exhort 87
girl@@ 87
Bird 87
Will@@ 87
mou@@ 87
stark 87
Occasionally 87
equator 87
arous@@ 87
lectures 87
strained 87
heights 87
Add 87
Alps 87
care@@ 87
Lee 87
facets 87
GEN@@ 87
ranges 87
lai 87
yielded 87
hurting 87
indications 87
usher 87
idential 87
Buil@@ 87
utu 87
nour@@ 87
plea 87
Are@@ 87
ziah 87
testifies 87
deity 87
bound@@ 87
PRIN@@ 87
pools 87
rowing 87
resili@@ 87
Proclaimers 87
widow@@ 87
canals 87
episode 87
cis@@ 87
duration 87
equality 87
logging 87
exult 87
junk 87
Some@@ 87
kish 87
André 87
Polynes@@ 87
elimin@@ 87
comprehensive 87
stubborn 87
ushing 87
passive 87
Program 87
vre 87
112 87
Chron 87
navigation 87
oste@@ 87
wrongs 87
Amid 87
gradual 87
strokes 87
offend 87
Kal@@ 87
dictat@@ 87
Quit 87
ovascular 87
ulations 87
severity 87
tance 87
Thirty 87
promp@@ 87
Fu@@ 87
tage 87
apostolic 87
proudly 87
VEL@@ 87
FIELD 87
has@@ 87
Wild 87
OUR 87
Belief 87
shedding 87
reconcile 87
yo 87
Emer@@ 86
Strength@@ 86
roofs 86
CL@@ 86
sewage 86
deal@@ 86
chlor@@ 86
Liaison 86
laborers 86
missive 86
neglig@@ 86
ATIONS 86
Pride 86
monastery 86
Rad@@ 86
dys@@ 86
Peop@@ 86
itely 86
weed 86
bil@@ 86
abuses 86
absorbing 86
Cris@@ 86
ress@@ 86
willfully 86
distraction 86
inary 86
melody 86
resume 86
digestive 86
tensions 86
gesture 86
Jose@@ 86
laundry 86
ingenious 86
entice 86
lush 86
arteries 86
amin@@ 86
ji@@ 86
mities 86
succe@@ 86
2483 86
stepping 86
Europe’s 86
Adver@@ 86
pornographic 86
Phi@@ 86
nick@@ 86
ph 86
Pan@@ 86
literary 86
Pollution 86
strayed 86
Forgive 86
Step 86
awakened 86
mob@@ 86
Sor@@ 86
Fulf@@ 86
dreadful 86
river@@ 86
sail@@ 86
vernacular 86
pub@@ 86
omet@@ 86
tories 86
riers 86
refuses 86
Pierre 86
Conference 86
football 86
reduction 86
beheld 86
marble 86
sarcas@@ 86
sounding 86
Mexic@@ 86
Talking 86
alig@@ 86
Der@@ 86
invaders 86
Matthew’s 86
ruth@@ 86
corpse 86
Nepal 86
admon@@ 86
rine 86
Trus@@ 86
depict 86
stere@@ 86
coordinator 86
juven@@ 86
.E 86
railroad 86
Bay@@ 86
WA 86
poli@@ 86
Ahaz 86
Prim@@ 86
cot@@ 86
auti@@ 86
deceit 86
unearthed 86
journe@@ 85
provoc@@ 85
launch 85
ions 85
prophetically 85
remedies 85
Obe@@ 85
presumptuous 85
wns 85
homosexuals 85
phoned 85
raft 85
potatoes 85
Cultiv@@ 85
metro@@ 85
Committees 85
faint 85
ledge 85
Jan 85
Nur@@ 85
skins 85
apar@@ 85
imported 85
succession 85
Viol@@ 85
Namibia 85
Credit 85
limestone 85
Buddhis@@ 85
deposits 85
Origen 85
descriptions 85
tention 85
prepares 85
ratio 85
ifully 85
watering 85
sturdy 85
Away 85
oporosis 85
persecutors 85
fore 85
ensn@@ 85
soft@@ 85
Aramaic 85
Counsel 85
Venice 85
Jezreel 85
distresses 85
Archae@@ 85
plo@@ 85
consec@@ 85
disrespectful 85
Pakistan 85
Gehenna 85
essay 85
erosion 85
numbering 85
seventy 85
contamin@@ 85
rainy 85
instructing 85
successive 85
Loss 85
toil 85
declining 85
Spo@@ 85
drastically 85
Govern@@ 85
urgently 85
cups 85
skirts 85
what’s 85
migrate 85
amy 85
nea 85
Surprisingly 85
Pedro 85
uce 85
thermal 85
parted 85
ANS 85
Religions 85
handsome 85
induce 85
logies 85
It@@ 85
Nov@@ 85
pockets 85
stern 85
consist 85
coastline 85
cherubs 85
clearing 85
breath@@ 85
licitly 85
angles 85
prejud@@ 85
collections 85
ases 85
Onesimus 85
country@@ 85
Congreg@@ 85
Worse 85
Shiloh 85
cameras 85
Paul@@ 85
casualties 85
terrifying 85
conn@@ 85
Revolution 85
cracy 85
unitedly 85
JER@@ 85
specified 85
Patrick 85
itness 85
Bol@@ 85
prophesying 85
bicy@@ 85
astounding 85
Associ@@ 85
programmed 85
outsid@@ 85
Doc@@ 85
mainstream 85
sibility 85
Cow 85
differing 85
conveni@@ 85
faithless 85
mocked 85
ames 85
arrows 85
STUDY 85
open@@ 85
someday 85
perpetr@@ 85
begging 85
cyc@@ 85
hip 84
jecting 84
avi@@ 84
yl 84
attempting 84
sunrise 84
Rain 84
Jeroboam 84
onom@@ 84
adjusting 84
phes 84
toral 84
Nero 84
Jr 84
southeast 84
concep@@ 84
stance 84
colonial 84
ny@@ 84
io@@ 84
mock 84
Individuals 84
zin@@ 84
stic 84
Jer 84
monarch 84
fool 84
Felix 84
colum@@ 84
Babylon’s 84
bies 84
Garden 84
stut@@ 84
idolatrous 84
sympath@@ 84
arrogant 84
startling 84
rud@@ 84
prediction 84
apost@@ 84
sam 84
confrontation 84
resource 84
IC 84
farm@@ 84
Hubble 84
Riches 84
transpl@@ 84
spear 84
penetrate 84
assing 84
Bio@@ 84
giants 84
plunge 84
jumping 84
compulsory 84
hopelessness 84
ints 84
asserts 84
Mess@@ 84
inning 84
stein 84
trail@@ 84
Fig@@ 84
ulsion 84
men’s 84
reas@@ 84
predictable 84
Eating 84
inally 84
import 84
magical 84
eline 84
Fed@@ 84
clothed 84
vacations 84
productivity 84
Leaving 84
alcoholism 84
Gaius 84
Anger 84
Sund@@ 84
prized 84
dropping 84
sealing 84
du 84
Studying 84
friction 84
Ever@@ 84
town@@ 84
accommod@@ 84
boiled 84
pronunciation 84
vanished 84
surgeons 84
ider 84
beho@@ 84
illiterate 84
fru@@ 84
underestimate 84
Lim@@ 84
Entertainment 84
dil@@ 84
zy@@ 84
Reaching 84
cooperating 84
ne’s 84
ercing 84
tigers 84
Diffic@@ 84
meager 84
depr@@ 84
readiness 84
depicting 84
subsequently 84
ableness 84
spect@@ 84
stocks 84
Start 84
failings 84
1932 84
fers 84
burn@@ 84
Icon@@ 84
Canad@@ 84
redemp@@ 84
warring 84
ulty 84
bod@@ 84
rewarder 84
breathtaking 84
170 84
Less@@ 83
Dan@@ 83
apples 83
ladies 83
bird’s 83
Dav@@ 83
nod 83
ffs 83
viewers 83
rider 83
refreshed 83
aggres@@ 83
ideals 83
Rac@@ 83
denying 83
diplo@@ 83
pp 83
hop 83
reshold 83
archang@@ 83
phin 83
fountains 83
arranging 83
side@@ 83
Peac@@ 83
Civil 83
therapies 83
dial 83
Arabia 83
sprou@@ 83
Sat@@ 83
ration@@ 83
phy 83
assess 83
Sud@@ 83
moder@@ 83
jections 83
deemed 83
willful 83
incapable 83
path@@ 83
mound 83
closeness 83
abortions 83
conquer@@ 83
festivities 83
valu@@ 83
fighters 83
tyran@@ 83
Political 83
inting 83
digital 83
Earth@@ 83
kil@@ 83
Sta@@ 83
myr@@ 83
fatherly 83
informally 83
engers 83
odd 83
thes 83
oun 83
readjus@@ 83
ms@@ 83
afore@@ 83
ECT 83
rou@@ 83
spid@@ 83
Babel 83
collector 83
fondness 83
whatsoever 83
kangaro@@ 83
deter@@ 83
Mean 83
samples 83
Protestantism 83
conscienti@@ 83
esday 83
deluge 83
ule 83
MAT@@ 83
hurts 83
terns 83
asper@@ 83
flowed 83
horse@@ 83
settings 83
contracting 83
Television 83
Anglo 83
rushing 83
struction 83
hazard 83
robbing 83
phrases 83
micros@@ 83
chickens 83
burdened 83
Jerry 83
damages 83
hast@@ 83
wardly 83
Parliament 83
remor@@ 83
friend’s 83
cere@@ 83
eased 83
overhead 83
intimidated 83
forbade 83
remark 83
Vill@@ 83
Alb@@ 83
eons 83
crooked 83
Salt 83
Godship 83
ais 83
Auditorium 83
EMB@@ 83
360 83
ostr@@ 83
aer@@ 83
estive 83
rs 83
ounces 83
beset 83
proverbs 83
los 83
ministered 83
Determined 83
congregation’s 83
Emb@@ 82
ward@@ 82
constituted 82
bee@@ 82
constitu@@ 82
deterioration 82
certificate 82
cancers 82
laughing 82
GE@@ 82
hammer 82
Ig@@ 82
reinstated 82
pounding 82
ā@@ 82
Olympics 82
Satanism 82
sexuality 82
conspir@@ 82
tailed 82
Fiji 82
ster’s 82
Tong@@ 82
Relation@@ 82
committees 82
auth@@ 82
AP 82
ceiling 82
Want 82
wen 82
Eld@@ 82
authentic@@ 82
crumb@@ 82
PEOPLE 82
esmen 82
ources 82
dispatched 82
Hus@@ 82
Pu@@ 82
objection 82
itution 82
minding 82
foo@@ 82
Spir@@ 82
hurry 82
meditated 82
midday 82
anore@@ 82
Chalde@@ 82
accuse 82
exaggerated 82
emorrha@@ 82
sung 82
song@@ 82
hasty 82
astonished 82
Solution 82
wrestling 82
Leave 82
Tutsi 82
tral 82
CT 82
148 82
rors 82
Student 82
ecclesias@@ 82
egar 82
Originator 82
SEE 82
agreements 82
Danish 82
repa@@ 82
Baby 82
iveness 82
Ele@@ 82
ancestor 82
atian 82
mascul@@ 82
compensation 82
professing 82
nun 82
tieth 82
antiquity 82
utensils 82
brutality 82
antibodies 82
demo@@ 82
schoolwork 82
philosophical 82
mightiness 82
owed 82
cassava 82
hen 82
UND@@ 82
pollutants 82
arsen@@ 82
introducing 82
unfaithfulness 82
manifestations 82
orable 82
domestics 82
chronology 82
ordering 82
UT 82
hug 82
Gamaliel 82
utive 82
currents 82
elding 82
inhabit 82
brut@@ 82
uniting 82
Slave 82
torr@@ 82
edings 82
minim@@ 82
ARTIC@@ 82
modestly 82
tlessly 82
Stock 82
faith@@ 82
poetic 82
stabbed 82
ava 82
inous 81
Zo@@ 81
Force 81
uniqu@@ 81
oe 81
expedition 81
lad 81
dered 81
Pioneer 81
Who@@ 81
tup 81
Rail@@ 81
traps 81
check@@ 81
avened 81
Universe 81
Hurricane 81
entic 81
Wol@@ 81
sey 81
Jackson 81
lengths 81
aments 81
ationed 81
devised 81
ived 81
plunder@@ 81
bribe 81
dist@@ 81
chambers 81
yness 81
counseling 81
Ephraim 81
stan@@ 81
YO@@ 81
plunged 81
laden 81
boiling 81
spirit’s 81
unnatural 81
unifor@@ 81
versities 81
tists 81
explosive 81
Meth@@ 81
fin 81
tise 81
ishi@@ 81
COM@@ 81
Beat@@ 81
Langu@@ 81
Taze 81
socially 81
cer 81
Warning 81
barrels 81
Services 81
talent 81
row@@ 81
floors 81
tape 81
aval@@ 81
interference 81
Rober@@ 81
ingredient 81
inion 81
grou@@ 81
CD 81
Weekly 81
Symp@@ 81
yester@@ 81
kilometers 81
satisfactory 81
lex@@ 81
PP@@ 81
essness 81
imaginary 81
Rho@@ 81
performs 81
hus@@ 81
illum@@ 81
Rise 81
Kis@@ 81
linen 81
relapse 81
aroma 81
roommate 81
embarked 81
Birth 81
pile 81
dwind@@ 81
tine 81
Class 81
pless 81
deteriorating 81
ulers 81
delinqu@@ 81
Contr@@ 81
settlements 81
industrious 81
sufficiently 81
zero 81
Year@@ 81
cakes 81
scienti@@ 81
YEAR 81
hua 81
Trinit@@ 81
Cover 81
COLUMB@@ 81
truthfully 81
mour@@ 81
pt 81
earth@@ 81
Adrian 81
commentary 81
Rh 81
Green 81
young@@ 81
subdu@@ 81
categories 81
inquired 81
ico 81
Archaeology 81
woe 81
Tw@@ 80
dwellings 80
fornicators 80
quitting 80
Dies 80
etor@@ 80
bruise 80
conve@@ 80
inely 80
scrutiny 80
Sound 80
diagno@@ 80
UNICEF 80
adherents 80
ees 80
asis 80
discreetly 80
von 80
m’s 80
Mak@@ 80
nitrogen 80
enforcement 80
uing 80
infinite 80
addicts 80
gardening 80
trek 80
Circle 80
Meetings 80
similarity 80
rhythm 80
pots 80
distract 80
Tib@@ 80
append@@ 80
ebr@@ 80
guil@@ 80
pottery 80
troublesome 80
surpassed 80
precedent 80
variably 80
righthearted 80
curb 80
reversed 80
Trees 80
boredom 80
Tarsus 80
furnished 80
Remain 80
PLE 80
incomparable 80
cof@@ 80
Du@@ 80
furious 80
granting 80
irrigation 80
menopause 80
Danube 80
metals 80
Num@@ 80
maledic@@ 80
UNESCO 80
wastes 80
Stat@@ 80
slog@@ 80
traviolet 80
emerging 80
robbery 80
Hades 80
exac@@ 80
Mili@@ 80
Islam@@ 80
misunderstood 80
Scand@@ 80
Cause 80
116 80
Wonderful 80
contrasts 80
tence 80
tainted 80
Hawaiian 80
Guatemala 80
Ven@@ 80
cryphal 80
synthesis 80
Rich@@ 80
comparatively 80
regim@@ 80
consisten@@ 80
coverage 80
Disaster 80
Montreal 80
Margar@@ 80
persuasive 80
Byzantine 80
GRE@@ 80
ESS@@ 80
Philadelphia 80
enforce 80
maturely 80
121 80
pe’s 80
ttle 80
overtake 80
sat@@ 80
doves 80
Complex 80
Gardens 80
FRANCISCO 80
aux 80
diam@@ 80
bacterial 80
kel 80
ande 80
irritation 80
frac@@ 80
8.@@ 80
veil 80
tides 80
surviv@@ 80
mustard 80
attained 80
separates 80
tivated 80
Congo 80
Doub@@ 80
sunshine 79
Subject 79
slav@@ 79
faculties 79
toes 79
Haz@@ 79
Off 79
infer@@ 79
debates 79
seawater 79
adder 79
icky 79
ingenuity 79
Mystery 79
reigning 79
Uriah 79
politan 79
undertaking 79
Eleph@@ 79
Feli@@ 79
Sons 79
Agency 79
archbishop 79
builder 79
soften 79
arena 79
meted 79
improves 79
bullet 79
Hill 79
ques@@ 79
Barr 79
adhering 79
poo@@ 79
maj@@ 79
aster 79
relics 79
hierarchy 79
1923 79
scrupulous 79
kid 79
alogue 79
Trag@@ 79
Samu@@ 79
Nim@@ 79
pes@@ 79
tial 79
educators 79
loaves 79
heresy 79
domain 79
father@@ 79
inscriptions 79
wording 79
copying 79
rail 79
harassed 79
eps 79
faculty 79
tallest 79
replacement 79
teurs 79
acids 79
Und@@ 79
planet’s 79
sius 79
overcame 79
sensation 79
minimal 79
Number 79
woes 79
surge 79
arch 79
purse 79
England’s 79
ania 79
purgatory 79
divin@@ 79
gad@@ 79
snares 79
ji 79
uter@@ 79
artis@@ 79
collective 79
lance 79
engr@@ 79
emptiness 79
Witnessing 79
killers 79
worthiness 79
Principles 79
flexibility 79
Jennifer 79
reporter 79
Eusebius 79
rehabilitation 79
brave 79
valueless 79
sty@@ 79
Cambridge 79
gifted 79
whol@@ 79
Masai 79
ationists 79
signing 79
boarded 79
Ve@@ 79
Sci@@ 79
releases 79
guarding 79
ultant 79
leop@@ 79
premis@@ 79
starving 79
futility 79
consider@@ 79
sheds 79
Schools 79
Facts 79
cults 79
ologi@@ 79
Eno@@ 79
bia 79
insults 79
Fle@@ 79
locks 79
avenge 79
ficiency 79
Beroea 79
ce’s 79
bathroom 79
supplications 79
exceed 79
train@@ 79
Post@@ 79
bid@@ 79
devil 78
Bruce 78
bever@@ 78
hr 78
Separ@@ 78
ells 78
canal 78
ashi@@ 78
six@@ 78
Bob 78
yos 78
1929 78
akers 78
Choice 78
eming 78
prehen@@ 78
Mau@@ 78
viously 78
Saved 78
shi 78
urt 78
rips 78
Nicaragua 78
conservative 78
punc@@ 78
oli@@ 78
lics 78
opo@@ 78
calypse 78
judg@@ 78
Ros@@ 78
Syn@@ 78
Scholars 78
beam 78
Yahweh 78
Author@@ 78
Danger 78
reques@@ 78
Clement 78
tees 78
Chem@@ 78
Chris 78
192 78
journ@@ 78
Collection 78
BS 78
wast@@ 78
Henschel 78
Marty@@ 78
aristo@@ 78
Confidence 78
voy@@ 78
Cambodia 78
1.2 78
Purit@@ 78
Servetus 78
ARY 78
Hemp@@ 78
BURG 78
FR@@ 78
mber 78
underneath 78
Jacques 78
tero@@ 78
suic@@ 78
peng@@ 78
essive 78
Wom@@ 78
linger 78
Late 78
beak 78
propag@@ 77
wick 77
Malta 77
hud 77
eradic@@ 77
Anxiety 77
warm@@ 77
hire 77
ian@@ 77
Wilson 77
Cust@@ 77
aeus 77
nes@@ 77
ANS@@ 77
Etrus@@ 77
tose 77
lem 77
sm 77
Epid@@ 77
ould@@ 77
atoes 77
pics 77
Half 77
Chur@@ 77
Sn@@ 77
iah’s 77
Jaracz 77
aver 77
vigor@@ 77
orities 77
CR@@ 77
Elisha@@ 77
dive 77
entists 77
Panama 77
ISAIAH 77
automob@@ 77
icip@@ 77
erie 77
Catherine 77
dome 77
Means 77
Mayo 77
Reho@@ 77
Requ@@ 77
carriage 77
anus 77
ari 77
oo 77
gens 77
ouring 77
igan@@ 77
Thor@@ 77
Mé@@ 77
Program@@ 77
Trib@@ 77
Braille 77
vian 77
Stanley 77
ADHD 77
Priv@@ 77
lima@@ 77
Waldenses 76
Stockholm 76
Tel@@ 76
RA@@ 76
har 76
orchid 76
Administration 76
Jenny 76
Chan@@ 76
1917 76
Ana 76
Milan 76
drun@@ 76
wash@@ 76
stead@@ 76
Gall@@ 76
rift 76
Wood@@ 76
scat@@ 76
Zoo 76
promo@@ 76
emis@@ 76
ece 76
ati 76
4th 76
Jab@@ 76
Privil@@ 76
West@@ 76
Gene@@ 76
nd@@ 76
forgiv@@ 76
cram@@ 76
zar@@ 76
Jessica 76
Explo@@ 76
oblig@@ 76
Victory 76
wra@@ 76
Tob@@ 76
pa·rou·siʹa 76
Lois 76
patho@@ 76
oved 76
EAR@@ 76
lishing 76
uel 76
reluc@@ 76
myster@@ 76
11,000 76
foun@@ 76
→ 76
Righte@@ 76
Ant@@ 76
disp@@ 76
LUK@@ 76
Wis@@ 76
ton’s 76
roof@@ 76
Marco 76
A.@@ 76
tivity 75
Bureau 75
Darwin’s 75
medic@@ 75
Ukra@@ 75
pir@@ 75
bay 75
Jef@@ 75
80,000 75
Eye 75
fig@@ 75
Max 75
Herbert 75
Elie@@ 75
ün@@ 75
Meli@@ 75
Auschwitz 75
humb@@ 75
Thr@@ 75
Chris@@ 75
ACH@@ 75
tranqu@@ 75
appro@@ 75
pestil@@ 75
pend@@ 75
Walter 75
Oil 75
onge 75
uff 75
absor@@ 75
Bangladesh 75
map@@ 75
ips 75
HT 75
ocratic 75
preval@@ 75
recre@@ 75
”@@ 75
Ninev@@ 75
eliness 75
Jor@@ 75
knowled@@ 75
Id@@ 75
Progress 75
refresh@@ 75
Hil@@ 75
Boston 75
mally 75
Tuv@@ 75
Expo 75
600,000 75
sali@@ 75
Eag@@ 75
His@@ 75
Gol@@ 75
Agriculture 75
Standing 75
Centers 75
athlet@@ 74
Gethsemane 74
adequ@@ 74
symbo@@ 74
Vari@@ 74
Astronom@@ 74
Investi@@ 74
atics 74
Kim 74
Bri@@ 74
Á@@ 74
Bulletin 74
Constitution 74
Jus@@ 74
serp@@ 74
Bethe@@ 74
cos 74
rella 74
griev@@ 74
tune 74
mar 74
pip@@ 74
zi 74
obs@@ 74
estra 74
Astro@@ 74
Ves@@ 74
Joan 74
dre@@ 74
Scottish 74
itful 74
Joyce 74
rev@@ 74
oline 74
tsunami 74
320 74
amaz@@ 74
1000 74
Ric@@ 74
ported 74
ricane 74
Healthy 74
ami 74
Fact 73
pover@@ 73
orang@@ 73
raid 73
flam@@ 73
posal 73
Model 73
slaugh@@ 73
Moldova 73
Belize 73
1,300 73
ferring 73
apologi@@ 73
big@@ 73
calam@@ 73
ceremon@@ 73
speak@@ 73
Bosnia 73
Sanc@@ 73
SUB@@ 73
Ama@@ 73
Occ@@ 73
Fun@@ 73
Concer@@ 73
Cardinal 73
Aqu@@ 73
haugh@@ 73
fotostock 73
Hung@@ 73
ore@@ 73
membrane 73
CAR@@ 73
et’s 73
fos@@ 73
O’@@ 73
LA@@ 73
Polyglot 73
yi@@ 73
phy@@ 73
Antarc@@ 73
Treatment 73
arm@@ 73
venue 73
clou@@ 73
Marine 73
Brain 73
compas@@ 73
DA@@ 73
condem@@ 73
Cen@@ 73
courty@@ 73
aki 73
Conservation 73
frequ@@ 73
ival 73
Josh 73
Glo@@ 72
raged 72
ilig@@ 72
102 72
Foot@@ 72
hr@@ 72
mach@@ 72
tha 72
sched@@ 72
Micha@@ 72
sad@@ 72
Iren@@ 72
Amale@@ 72
alled 72
Media 72
pra@@ 72
Poly@@ 72
Pho@@ 72
Environ@@ 72
Reli@@ 72
virtu@@ 72
WORLD 72
yen@@ 72
ond 72
teles@@ 72
albatross 72
argu@@ 72
Shall 72
ific@@ 72
atl 72
240 72
ku@@ 72
enor@@ 72
idolat@@ 72
uten@@ 72
Haw@@ 72
Ale@@ 72
gae 72
Adolf 72
achable 72
critic@@ 72
ulti@@ 72
han@@ 72
stery 72
220 72
citiz@@ 72
Dio@@ 72
Christi@@ 72
VIL@@ 72
1934 72
odi@@ 72
Nicol@@ 72
Wit@@ 72
TA@@ 71
pan 71
Carmen 71
Board 71
enda 71
onto@@ 71
thered 71
Christ@@ 71
Electr@@ 71
epis@@ 71
sam@@ 71
Steph@@ 71
UL 71
occ@@ 71
Background 71
IB@@ 71
Ralph 71
Bris@@ 71
Rod@@ 71
osis 71
cooper@@ 71
Augustus 71
anemia 71
cous@@ 71
fellow@@ 71
Surpris@@ 71
efly 71
INTH@@ 71
Festus 71
pos 71
ssi@@ 71
3.5 71
Artic@@ 71
wip@@ 71
Rub@@ 71
Survey 71
transpor@@ 71
enous 71
Manuel 71
Hun@@ 71
offen@@ 71
Mart@@ 71
Williams 71
UP@@ 71
unch 71
000 71
alit@@ 71
Americ@@ 71
Suc@@ 71
GA 71
vae 71
hn 71
singer 71
docum@@ 71
alpine 71
Slovenia 71
Rh@@ 70
wed@@ 70
gres@@ 70
Süddeutsche 70
igno@@ 70
Glor@@ 70
vie@@ 70
Ori@@ 70
Gil@@ 70
Treat@@ 70
hiv@@ 70
repres@@ 70
chment 70
Colorado 70
corp@@ 70
daugh@@ 70
braz@@ 70
Adri@@ 70
Epic@@ 70
135 70
1879 70
Butter@@ 70
aro 70
vide@@ 70
meth@@ 70
green@@ 70
1,900 70
Exam@@ 70
arding 70
q 70
KGB 70
wen@@ 70
Webster’s 70
fusion 70
itably 70
Shinto 70
marvel@@ 70
hotel@@ 70
mia 70
Lawrence 70
ops 70
dang@@ 70
AND@@ 70
ENG@@ 70
Historical 70
Copyright 70
Orange 70
small@@ 70
nin@@ 70
essor 70
decre@@ 70
wig 70
exper@@ 70
announ@@ 70
Disasters 70
Jup@@ 70
Diseases 69
enger 69
hia 69
issu@@ 69
utely 69
tude 69
Brethren 69
Dur@@ 69
Enjo@@ 69
Snow 69
machin@@ 69
26@@ 69
emphasi@@ 69
118 69
Copernicus 69
oth 69
Glass 69
mately 69
Cau@@ 69
happi@@ 69
mala@@ 69
Theodore 69
you@@ 69
prevail@@ 69
put@@ 69
resp@@ 69
oun@@ 69
Harry 69
wamp@@ 69
anding 69
Radio 69
Ten@@ 69
accep@@ 69
Australi@@ 69
pom@@ 69
dram@@ 69
ê@@ 69
hon 69
monas@@ 69
Price 69
leukemia 69
UE 69
Tig@@ 69
perpet@@ 69
AV@@ 69
yro@@ 69
Aar@@ 69
Mach@@ 69
Michigan 69
wd 69
reason@@ 69
alin 69
Defense 69
dilig@@ 69
Mala@@ 68
Dover 68
Bet@@ 68
rhyth@@ 68
infec@@ 68
Set@@ 68
quo@@ 68
asi 68
Wells 68
LS 68
Non@@ 68
nch@@ 68
1927 68
Recogni@@ 68
Nehem@@ 68
dipl@@ 68
lain 68
WE@@ 68
ezing 68
ITY 68
Teen 68
thood 68
Kil@@ 68
atmo@@ 68
aka 68
sig@@ 68
vine@@ 68
undam@@ 68
Bus@@ 68
sovere@@ 68
Shakespeare 68
inted 68
nes 68
Ted 68
Anal@@ 68
yon@@ 68
decib@@ 68
marri@@ 68
Yankee 68
leman 68
mush@@ 68
scrut@@ 67
erase 67
SA@@ 67
dow 67
Ephes@@ 67
psy@@ 67
sar@@ 67
anyon 67
lymp@@ 67
ḥ@@ 67
canoes 67
zede@@ 67
ption 67
Diane 67
Reserve 67
yst@@ 67
bage 67
lling 67
Wood 67
aw 67
umen@@ 67
obe@@ 67
dex 67
Bak@@ 67
Laod@@ 67
stitutes 67
ushed 67
toms 67
Method@@ 67
Asahi 67
expres@@ 67
haz@@ 67
Hospit@@ 67
licated 67
dal 67
Herodotus 67
antibio@@ 67
Dani@@ 67
Contrib@@ 67
Fit@@ 67
anac@@ 67
Pun@@ 67
View@@ 67
kill@@ 67
Antwerp 67
conserv@@ 67
raf@@ 67
oa 67
occurr@@ 67
aba 66
numb@@ 66
Whe@@ 66
Pic@@ 66
Thames 66
LD@@ 66
itting 66
elt 66
FAM@@ 66
selves 66
urus 66
ilyn 66
Lux@@ 66
Uni@@ 66
Let@@ 66
jug@@ 66
Mit@@ 66
Yel@@ 66
agno@@ 66
desp@@ 66
clam@@ 66
uv@@ 66
idable 66
roman@@ 66
Tan@@ 66
eclip@@ 66
Magn@@ 66
Bombay 66
pler 66
aston@@ 66
rary 66
essa 66
cil 66
Ahasu@@ 66
Syd@@ 66
05 66
sickle 66
Torah 66
command@@ 66
14,000 66
lored 66
Maps 66
Observatory 66
Shel@@ 66
sia 66
ALS 66
bon 66
kwa@@ 66
dela@@ 66
Olive 66
receiv@@ 66
Sophia 66
paraly@@ 66
etr@@ 66
Archaeological 66
toe 66
113 66
casu@@ 66
Medic@@ 66
look@@ 65
promin@@ 65
Ruth@@ 65
sie 65
Nicholas 65
isi@@ 65
MOR@@ 65
Senegal 65
cious 65
Roberto 65
2014 65
onomy 65
Lau@@ 65
transl@@ 65
text@@ 65
sadd@@ 65
Stra@@ 65
sson 65
Photos 65
vy 65
ai@@ 65
1.6 65
Reuters 65
1870 65
Ellen 65
Nation@@ 65
Kiev 65
ials 65
Tit@@ 65
Mand@@ 65
ar’s 65
Wes@@ 65
Kids 65
consequ@@ 65
107 65
RIC@@ 65
dows 65
Fernando 65
emor@@ 65
desol@@ 65
Zar@@ 65
CHANG@@ 65
uvi@@ 65
Nad@@ 65
Doctrine 65
remar@@ 65
wond@@ 65
nad@@ 65
bond@@ 65
Refugees 65
tenance 65
reds 65
earn@@ 65
Leone 65
Vit@@ 65
ë 65
instr@@ 65
Nancy 65
comprehen@@ 65
atia 65
reali@@ 65
Dal@@ 65
satelli@@ 65
Survival 65
uments 64
gency 64
bour 64
evil@@ 64
ecstasy 64
une 64
grati@@ 64
Sid@@ 64
establish@@ 64
zzar 64
à 64
ulu 64
alien@@ 64
Individ@@ 64
asy 64
odo@@ 64
ako 64
Wond@@ 64
Doris 64
program@@ 64
Armen@@ 64
fli@@ 64
famili@@ 64
Laur@@ 64
complain@@ 64
taneously 64
Shirley 64
teria 64
retina 64
Blue 64
Pav@@ 64
yat@@ 64
pin 64
Steven 64
DR@@ 64
ror 64
rul@@ 64
wan 64
stir@@ 64
Jephth@@ 64
vic 64
Bala@@ 64
AUS@@ 64
joy@@ 64
lier 64
ficiently 64
appreci@@ 64
Flav@@ 64
daz@@ 64
María 64
Johannes 63
Abra@@ 63
brilli@@ 63
Belsha@@ 63
fering 63
iana 63
Esti@@ 63
mode 63
CF@@ 63
schem@@ 63
Bib@@ 63
rey 63
romo@@ 63
ilia 63
impa@@ 63
Spi@@ 63
agan 63
Confu@@ 63
anor 63
Greenland 63
natur@@ 63
dar 63
Slovakia 63
hot@@ 63
trust@@ 63
111 63
Fish@@ 63
Zion’s 63
Getty 63
Resource 63
scour@@ 63
WH@@ 63
TE 63
tuary 63
else@@ 63
certain@@ 63
plung@@ 63
Nar@@ 63
Cover@@ 63
Pius 63
godd@@ 63
Illinois 63
sno@@ 63
LA 63
Schroeder 63
Phil@@ 63
ille 63
Wan@@ 63
attle 63
Calcutta 63
incen@@ 63
aker 63
1910 63
147 63
ourth 63
ʹa 63
ority 63
spokes@@ 62
cio 62
1,100 62
539 62
arrog@@ 62
unat@@ 62
Nel@@ 62
Lisa 62
mechan@@ 62
Maimon@@ 62
Asiaweek 62
Julius 62
nalia 62
Sicily 62
vio@@ 62
antan@@ 62
chester 62
Fro@@ 62
berg@@ 62
obsc@@ 62
elebr@@ 62
MCS 62
Missouri 62
peninsula 62
LD 62
anthropo@@ 62
Nutr@@ 62
Nazar@@ 62
bag@@ 62
aga 62
sas 62
smil@@ 62
Flor@@ 62
eval 62
cue 62
27@@ 62
Bahamas 62
boam 62
Morris 62
Luis 62
Cameron 62
Louisiana 62
Syndrome 62
Short 62
anat@@ 62
Rosa 62
sages 61
light@@ 61
Sear@@ 61
1,400 61
athetic 61
paral@@ 61
rian 61
Astr@@ 61
infan@@ 61
urely 61
olo 61
intellec@@ 61
03 61
canc@@ 61
Andre@@ 61
gotten 61
zar 61
1924 61
1,3@@ 61
Judith 61
Einstein 61
asa 61
forget@@ 61
Disco@@ 61
ah@@ 61
entations 61
mig@@ 61
beauti@@ 61
espec@@ 61
fluent 61
CD@@ 61
surg@@ 61
Liberia 61
onetheless 61
utr@@ 61
TA 61
neutr@@ 61
Alfred 61
lders 61
immen@@ 61
fores@@ 61
bapti@@ 61
Answ@@ 61
sili@@ 61
Gener@@ 61
EU 61
Saf@@ 61
arios 61
wadays 61
Sain@@ 60
◯ 60
Amy 60
mus 60
1926 60
affic 60
tre 60
Mean@@ 60
Gard@@ 60
uck@@ 60
percep@@ 60
infin@@ 60
stab@@ 60
Zaire 60
Alejandro 60
ui 60
gia 60
Tex@@ 60
Hay@@ 60
Uto@@ 60
13,@@ 60
simul@@ 60
chill 60
By@@ 60
Bern@@ 60
Har 60
ng@@ 60
Beer 60
erna@@ 60
1,800 60
Barcelona 60
icho@@ 60
neys 60
kan 60
Ner@@ 60
Zer@@ 60
Syl@@ 60
anima@@ 60
repent@@ 60
Jama@@ 60
CO 60
king@@ 60
empl@@ 60
surance 60
oni 60
Lagos 60
comput@@ 60
burgh 60
Josi@@ 60
complet@@ 60
ERE 60
recomm@@ 60
kana@@ 60
Tem@@ 60
alt@@ 60
hau@@ 60
Theology 60
Financial 60
incred@@ 60
Iraq 60
Pyr@@ 60
week@@ 60
clerosis 60
550 60
excus@@ 60
Main@@ 59
thly 59
clima@@ 59
Iceland 59
vesti@@ 59
understand@@ 59
jam@@ 59
eties 59
ugs 59
aband@@ 59
Lewis 59
Deter@@ 59
Expository 59
Jon 59
ota 59
selfishly 59
Fort 59
Kon@@ 59
uals 59
cho 59
wana 59
lica 59
tigh@@ 59
figh@@ 59
Toledo 59
adminis@@ 59
Wright 59
Swahili 59
amino 59
Amsterdam 59
anci@@ 59
tings 59
IO@@ 59
shire 59
oney 59
estic 59
cribed 59
archit@@ 59
Sit@@ 59
Som@@ 59
Tir@@ 59
hou@@ 59
Allen 59
Mul@@ 59
Repubblica 59
scar 59
Ya@@ 59
soo@@ 59
Kentucky 59
uty 59
Paragu@@ 59
Whiston 59
Ahi@@ 59
Tour 59
wrest@@ 59
70,000 59
Eva 59
wald 59
lead@@ 59
650 58
ii 58
Chernobyl 58
kie 58
Rou@@ 58
perce@@ 58
nis@@ 58
Gutenberg 58
Tasmania 58
etz@@ 58
Victor 58
Gran@@ 58
yana 58
mada 58
DES@@ 58
Allgemeine 58
Louise 58
Smi@@ 58
Bap@@ 58
Florence 58
Hezeki@@ 58
Kre@@ 58
jour@@ 58
kr@@ 58
rich@@ 58
.org 58
mic@@ 58
Maged@@ 58
emen 58
itiz@@ 58
18,000 58
rebel@@ 58
Sara 58
235 58
anga 58
Sav@@ 58
Ki@@ 58
Contemporary 58
Bero@@ 58
merch@@ 58
Santiago 58
Lov@@ 58
Stand@@ 58
fles@@ 58
attend@@ 58
friend@@ 58
extre@@ 58
Associated 58
Chron@@ 58
him@@ 58
manuel 58
Joh@@ 58
intel@@ 58
lins 58
iro 58
icity 58
Kenneth 58
KE@@ 58
pass@@ 58
erty 58
cket 58
concl@@ 58
Sarajevo 58
grims 57
Ishma@@ 57
Consid@@ 57
UMB@@ 57
xon 57
Quar@@ 57
Dou@@ 57
Sher@@ 57
illiter@@ 57
ku 57
Anita 57
ama@@ 57
iser 57
Frederick 57
chen 57
stitution 57
sman 57
eus 57
tag@@ 57
Grace 57
Lisbon 57
kim@@ 57
hly 57
prud@@ 57
eved 57
itorium 57
ridic@@ 57
zer@@ 57
DE 57
Colo@@ 57
aders 57
150,000 57
istent 57
INA 57
Gang@@ 57
suspec@@ 57
defe@@ 57
Kind@@ 57
capac@@ 57
boy@@ 57
ão 57
contemp@@ 57
coord@@ 57
Ross 57
Sloven@@ 57
Camb@@ 57
Elaine 57
excell@@ 57
May@@ 57
Civ@@ 57
estly 57
MI@@ 57
Kath@@ 57
Cer@@ 57
Barber 57
Julie 57
church@@ 57
Ky@@ 57
illment 57
Ed 57
Miguel 57
tt 56
Philo 56
Aeg@@ 56
stup@@ 56
cription 56
isting 56
uli 56
teur 56
ET 56
stly 56
Greg@@ 56
Psycho@@ 56
Dorothy 56
tu 56
Lithuania 56
04 56
carpen@@ 56
190 56
nib@@ 56
Land@@ 56
Côte 56
Bapti@@ 56
at’s 56
ques 56
utting 56
Pompeii 56
thedr@@ 56
politici@@ 56
Gloria 56
sils 56
thier 56
AMA 56
ilo@@ 56
eland 56
Od@@ 56
270 56
itual 56
isms 56
Marcus 56
Tynd@@ 56
Dig@@ 56
WAT@@ 56
room@@ 56
Kel@@ 56
ion@@ 56
136 56
Loida 56
candid@@ 56
ili 56
Water@@ 56
ED@@ 56
neigh@@ 56
Howard 56
rescu@@ 56
mot@@ 56
Bud@@ 56
justly 56
Shin@@ 56
Michel 56
Emily 56
liest 56
postolic 56
Mik@@ 55
sab@@ 55
Cec@@ 55
Israeli 55
Honduras 55
Lan@@ 55
Sis@@ 55
fund@@ 55
1,7@@ 55
YHWH 55
FA@@ 55
alie 55
crimin@@ 55
Babyl@@ 55
gence 55
tious 55
sday 55
a·@@ 55
gall@@ 55
tra 55
17,000 55
HEB@@ 55
bos 55
d’@@ 55
hu 55
Ec@@ 55
pill@@ 55
DD@@ 55
repe@@ 55
sburg 55
hl@@ 55
Melbourne 55
Macmillan 55
aza 55
Foto 55
Humb@@ 55
havi@@ 55
meek@@ 55
Antiquities 55
intellig@@ 55
Aristar@@ 55
coven@@ 55
alia 55
greg@@ 55
GU@@ 55
AZ@@ 55
Crystal 55
Encyclopaedia 55
Stam@@ 55
’re 55
hʹ 55
Sheba 55
fice 55
enched 55
erve 55
accur@@ 55
fornic@@ 55
cent@@ 55
Jen@@ 55
allo@@ 55
grab@@ 55
Sisera 55
a·gaʹpe 55
Ptolemy 55
endar 55
eases 55
250,000 54
gram@@ 54
yal 54
timony 54
hami@@ 54
oli 54
att 54
1500 54
rell 54
rus 54
Kathy 54
stances 54
gossi@@ 54
ANI@@ 54
nde@@ 54
wav@@ 54
ustin 54
2,0@@ 54
Wallkill 54
aphim 54
Ris@@ 54
il’s 54
Educ@@ 54
1916 54
Armenia 54
GE 54
excl@@ 54
1,2@@ 54
Yomiuri 54
exhor@@ 54
memb@@ 54
mund 54
ique 54
d’Ivoire 54
Black@@ 54
Indones@@ 54
Rid@@ 54
excit@@ 54
Livingstone 54
erce 54
sak@@ 54
iliation 54
ango 54
2015 54
Mari 54
bet 54
uno 54
Evelyn 54
Cyril 54
princi@@ 54
sent@@ 54
equip@@ 54
Teresa 54
blin@@ 54
Fel@@ 54
Kur@@ 54
Adams 54
Square 54
ership 54
ival@@ 54
alty 54
conqu@@ 54
1.3 54
Bou@@ 54
anz@@ 54
2.4 54
Online 54
tus@@ 53
Barn@@ 53
2,5@@ 53
omo 53
hud@@ 53
Patmo@@ 53
Norman 53
della 53
tenti@@ 53
saic 53
Watch@@ 53
# 53
anish 53
1.8 53
Juda@@ 53
END@@ 53
BER@@ 53
Storrs 53
buil@@ 53
uscrip@@ 53
Harp 53
Q 53
Erasmus 53
acas 53
750 53
jew@@ 53
nah 53
sap@@ 53
Cedar 53
rians 53
viv 53
onous 53
pie 53
eman 53
Mig@@ 53
fortunately 53
Mano@@ 53
Carthage 53
sionate 53
uma 53
thous@@ 53
Warsaw 53
vigil@@ 53
organiz@@ 53
avor 53
mly 53
irie 53
Pliny 53
petro@@ 53
dale 53
portun@@ 53
Claire 53
hap@@ 53
dam 53
1,4@@ 53
gau@@ 53
Cab@@ 53
polit@@ 52
invol@@ 52
imir 52
João 52
Pes@@ 52
thesis 52
pay@@ 52
shat@@ 52
Fir@@ 52
bo 52
crates 52
Ts@@ 52
iod@@ 52
Elsa 52
asili@@ 52
143 52
Gon@@ 52
peac@@ 52
consul@@ 52
Camp@@ 52
losop@@ 52
second@@ 52
asion 52
Beth 52
wic@@ 52
Sahara 52
Latvia 52
Fil@@ 52
Aris@@ 52
imin@@ 52
tices 52
tist 52
nish@@ 52
sth@@ 52
oce@@ 52
wak@@ 52
discer@@ 52
kably 52
Leon@@ 52
120@@ 52
Veja 52
Mich@@ 52
ilities 52
Ron 52
Philip@@ 52
addic@@ 52
isive 52
David@@ 52
dden 52
Nan@@ 52
Consumer 52
Digital 52
usad@@ 52
oro 52
rd 52
Lyn@@ 52
Sul@@ 52
PHOTO 52
Brun@@ 52
py@@ 52
Ella 52
ë@@ 52
inhab@@ 52
Janet 52
colle@@ 52
16,000 52
persu@@ 52
gos 52
ador 52
mo 52
ciples 52
Lett 52
1912 52
Obedi@@ 52
itha 52
exped@@ 52
Ado@@ 51
sit@@ 51
Ara@@ 51
Pis@@ 51
tire@@ 51
740 51
ú 51
lag@@ 51
Interpre@@ 51
Hippo@@ 51
USA 51
Gide@@ 51
offic@@ 51
Roger 51
destin@@ 51
Patricia 51
Ones@@ 51
weigh@@ 51
Kazakhstan 51
Kyrgyzstan 51
Innocent 51
WAR@@ 51
Va@@ 51
Ronald 51
ventions 51
Shimbun 51
versity 51
treat@@ 51
rels 51
dread@@ 51
Kh@@ 51
Antônio 51
BBC 51
devast@@ 51
wam@@ 51
ourish 51
Imperial 51
Ethiop@@ 51
athle@@ 51
Oregon 51
uled 51
PA 51
illes 51
Zephani@@ 51
alth 51
mall 51
euro 51
RI 51
Hebr@@ 51
Blan@@ 51
= 51
mak@@ 51
Abr@@ 51
tinc@@ 51
abor@@ 51
2,200 51
wad@@ 51
RSI 51
Via 51
yalty 50
Chad 50
wreck 50
Ay@@ 50
Thir@@ 50
mated 50
pursu@@ 50
Theresa 50
Eug@@ 50
Exper@@ 50
Archi@@ 50
Mecca 50
essee 50
kip@@ 50
1.4 50
1,9@@ 50
Sonia 50
Atlas 50
EST 50
tuli@@ 50
bel 50
ident 50
Ce@@ 50
Mario 50
zo 50
thropo@@ 50
Jeff 50
Vas@@ 50
enthusi@@ 50
Caroline 50
10,@@ 50
eters 50
Donald 50
Bernard 50
Penteco@@ 50
Ford 50
Indi@@ 50
Valent@@ 50
Al 50
Kore@@ 50
ugged 50
9.@@ 50
Zecha@@ 50
hind 50
landscap@@ 50
toil@@ 50
·ne@@ 50
Niño 50
Viet@@ 50
Taylor 50
anies 50
desper@@ 50
rad 50
umb 50
blossom@@ 50
reflec@@ 50
Arnold 50
collap@@ 50
Naples 50
24,000 50
Canberra 50
every@@ 50
Lind@@ 49
Galatia 49
rh@@ 49
assemb@@ 49
ña 49
Illustrated 49
kilom@@ 49
Noumair 49
90,000 49
nip@@ 49
Darwin@@ 49
amen@@ 49
Ray 49
Gem@@ 49
Alabama 49
welve 49
elder@@ 49
abetes 49
apa 49
endo 49
rote 49
onally 49
sable 49
tor’s 49
ria 49
Archive 49
Kevin 49
em’s 49
TIMO@@ 49
gus@@ 49
esity 49
Jam@@ 49
Todd 49
1905 49
formally 49
165 49
Figaro 49
Lor@@ 49
Kob@@ 49
Collec@@ 49
azy 49
dos 49
Bang@@ 49
resh 49
jer@@ 49
eira 49
HE 49
usts 49
falseho@@ 49
Dublin 49
Faith@@ 49
isha 49
eva 49
ouldn’t 49
Alex@@ 49
Fab@@ 49
Gordon 49
Io@@ 49
13,000 49
ege 49
Magdalene 49
Lima 49
Seoul 49
Hamburg 49
lor@@ 49
ambul@@ 49
Atlanta 49
aven 49
Titanic 49
fications 49
leys 49
Asi@@ 49
Sina@@ 49
emory 49
Observ@@ 49
Hit@@ 49
Boli@@ 49
lea 49
kes@@ 49
intrig@@ 49
Vil@@ 49
appoin@@ 49
Psychology 49
hem 48
relent@@ 48
Bag@@ 48
Vlad@@ 48
tem@@ 48
mpan@@ 48
Pasteur 48
ricul@@ 48
protec@@ 48
Vine’s 48
mberg 48
Tel 48
Miller 48
desc@@ 48
Irene 48
ashi 48
hl 48
Asa@@ 48
cha 48
FI@@ 48
Shor@@ 48
market@@ 48
unciation 48
Andreas 48
OP@@ 48
horm@@ 48
Bibli@@ 48
Iran 48
imming 48
Isa@@ 48
Nath@@ 48
ticides 48
AM 48
Alfonso 48
Imit@@ 48
Jas@@ 48
Wellness 48
Ign@@ 48
Nu@@ 48
Ian 48
note@@ 48
Geoffrey 48
enri@@ 48
burg@@ 48
IND@@ 48
Saskat@@ 48
Sovi@@ 48
Caucasus 48
delta 48
Laura 48
rewd 48
hai@@ 48
bis@@ 48
versal 48
Colos@@ 48
Hiroshima 48
accomplish@@ 48
Wi@@ 48
úl 48
Maz@@ 48
Americana 48
1,5@@ 48
angu@@ 48
ounced 48
Khan 48
ges@@ 48
enne 48
Ebed 48
aki@@ 48
rette 48
convin@@ 48
ridge 47
hygi@@ 47
onga 47
Reformed 47
ima 47
lan 47
responsib@@ 47
Hein@@ 47
crim@@ 47
Rejo@@ 47
pol@@ 47
tina 47
wif@@ 47
Indus 47
Lang@@ 47
Ju@@ 47
Consol@@ 47
Barzil@@ 47
eca 47
Stephanie 47
yar@@ 47
Gallup 47
bert 47
wal 47
tiveness 47
02 47
Sof@@ 47
00,000,000 47
Interlinear 47
1921 47
Newfoundland 47
tim 47
dispat@@ 47
Pole 47
Grant 47
magnific@@ 47
Munich 47
Nob@@ 47
luc@@ 47
Tracy 47
virg@@ 47
Pac@@ 47
Org@@ 47
Kam@@ 47
Leo 47
abys@@ 47
Leonardo 47
eri 47
Lansing 47
Cyclo@@ 47
alu@@ 47
850 47
ès 47
hung@@ 47
Allan 47
Kokkinakis 47
quet 47
lon@@ 47
Brasília 47
lili@@ 47
calyp@@ 47
ür@@ 47
122 47
zig 47
gion 47
Heil 47
Photography 47
Ricardo 47
Sv@@ 47
Ox@@ 47
pu@@ 47
Worldwatch 47
rival@@ 46
Pat 46
Jeremy 46
hamb@@ 46
eni 46
Sop@@ 46
Gor@@ 46
Sep@@ 46
ura@@ 46
ende@@ 46
ern 46
Samantha 46
1903 46
Gibraltar 46
Ken 46
NA 46
recal@@ 46
Hollywood 46
angs 46
Angela 46
alin@@ 46
Collegiate 46
Corn@@ 46
tia 46
35,000 46
istance 46
twen@@ 46
complex@@ 46
lighted 46
Refu@@ 46
ferv@@ 46
Socrates 46
Serbia 46
tici@@ 46
conven@@ 46
Signific@@ 46
chur@@ 46
Stan@@ 46
Isabel 46
Had@@ 46
wholes@@ 46
nak@@ 46
ulia 46
Gehazi 46
Ish@@ 46
Durant 46
Douglas 46
Judaica 46
abi 46
Gamb@@ 46
More@@ 46
Mainichi 46
ario 46
HU@@ 46
Davies 46
tib@@ 46
ów 46
FAO 46
ning@@ 46
surpris@@ 46
rie 46
relati@@ 46
orrow 46
Ryan 46
Pictorial 45
rick 45
tee 45
ste 45
fantas@@ 45
Kepler 45
Johann 45
Bangkok 45
Way@@ 45
happ@@ 45
Timor 45
ungod@@ 45
Istanbul 45
Religi@@ 45
scrup@@ 45
hale 45
ör@@ 45
twis@@ 45
essional 45
Katrina 45
aso@@ 45
commit@@ 45
entment 45
Burundi 45
graf@@ 45
Berkeley 45
nas@@ 45
lio 45
counterfe@@ 45
Tech@@ 45
shal@@ 45
Franç@@ 45
ois 45
Babylon@@ 45
identi@@ 45
Pop@@ 45
partic@@ 45
Lucaris 45
artic@@ 45
’t 45
én 45
Sue 45
Lem@@ 45
hund@@ 45
Lit@@ 45
iti 45
12,@@ 45
chun@@ 45
GO 45
Yuc@@ 45
cius 45
engeance 45
unci@@ 45
Ré@@ 45
ZE 45
Barr@@ 45
24@@ 45
1,700 45
Gaz@@ 45
141 45
Brazili@@ 45
var@@ 45
430 45
Robinson 45
Carl 45
elli 45
teen@@ 45
utors 45
Pentate@@ 45
anie 45
Chil@@ 45
114 45
256 44
Alexandra 44
Diotre@@ 44
Lil@@ 44
Ye@@ 44
mi 44
Erika 44
este@@ 44
Cairo 44
Ny@@ 44
diarr@@ 44
Parad@@ 44
mult@@ 44
Alcoho@@ 44
elop@@ 44
Wayne 44
hamp@@ 44
sured 44
gover@@ 44
onda 44
igar@@ 44
Zeal@@ 44
Pierce 44
Courier 44
oppon@@ 44
175 44
territ@@ 44
tumb@@ 44
disgus@@ 44
losis 44
sip@@ 44
Buen@@ 44
Stre@@ 44
Presse 44
Miami 44
M.@@ 44
tort@@ 44
Olga 44
ILI@@ 44
ank 44
sea@@ 44
Diego 44
Liver@@ 44
Adelaide 44
ouses 44
sm@@ 44
Anton@@ 44
Jew@@ 44
Wessel 44
limp@@ 44
catastro@@ 44
pedia 44
144 44
orful 44
phal 44
Guam 44
Wolfgang 44
landers 44
ument 44
Togo 44
Wic@@ 44
Brand@@ 44
esis 44
compat@@ 44
Nathana@@ 44
Andrea 44
cere 44
fortun@@ 44
123 44
invest@@ 44
Chronicle 44
asic 44
Fur@@ 44
Demet@@ 44
JAM@@ 43
hul@@ 43
Bucharest 43
Ugar@@ 43
Marx 43
Lyme 43
consci@@ 43
Estado 43
asil 43
Afghanistan 43
Magdalena 43
Mt 43
Frankfurter 43
Gilbert 43
Klein 43
All@@ 43
Lourdes 43
amar@@ 43
unge@@ 43
ingu@@ 43
Malaria 43
Osaka 43
Spiritu@@ 43
Der 43
mbo 43
Andr@@ 43
Makarios 43
Exerc@@ 43
mire 43
sher@@ 43
Ivan 43
Burma 43
Mumbai 43
demon@@ 43
Wed@@ 43
Kol@@ 43
Wall@@ 43
ometri@@ 43
Rotterdam 43
enge 43
acquain@@ 43
immer@@ 43
thwest 43
Turin 43
Sachsenhausen 43
lyn 43
1909 43
pically 43
bourg 43
Keith 43
Beijing 43
Que@@ 43
WI 43
bere@@ 43
Bulg@@ 43
Oli@@ 43
Opera 43
tig@@ 43
Helsinki 43
Nure@@ 43
Maclean’s 43
Petra 43
800,000 43
117 43
Orleans 43
·k@@ 43
Handbook 43
pful 42
Mercator 42
After@@ 42
Friedrich 42
Jac@@ 42
455 42
bean 42
hier@@ 42
egel 42
ér@@ 42
ANC@@ 42
syst@@ 42
Eb@@ 42
mab@@ 42
World@@ 42
fe 42
Somalia 42
phins 42
Baik@@ 42
kut@@ 42
Pam@@ 42
Harrison 42
alcoho@@ 42
sover 42
Guy 42
iga 42
legitim@@ 42
avier 42
Philipp@@ 42
Shang@@ 42
126 42
embar@@ 42
usal 42
Kla@@ 42
ido 42
ROM 42
Gorbachev 42
ferred 42
Seville 42
uto@@ 42
Betty 42
Ah 42
wicke@@ 42
Ö@@ 42
ileen 42
Kay 42
tored 42
Ernst 42
hau 42
Werner 42
Metro 42
País 42
cleans@@ 42
Eu@@ 42
sium 42
atore 42
Fri@@ 42
inculc@@ 42
Lefè@@ 42
kal@@ 42
Obad@@ 42
Estienne 42
kan@@ 42
agua 42
righte@@ 42
Maryland 42
Jimmy 42
fea@@ 42
prodig@@ 42
Vene@@ 42
orda@@ 42
pear@@ 42
SHI@@ 42
analo@@ 42
Rita 41
Lösch 41
Aud@@ 41
Napolé@@ 41
Mitch 41
ugh 41
bers 41
ʽ@@ 41
PA@@ 41
Vera 41
Carey 41
jung@@ 41
kad@@ 41
trum@@ 41
Vig@@ 41
❑ 41
Connecticut 41
Wycliffe 41
success@@ 41
Chu@@ 41
isted 41
Doug 41
lik 41
Video 41
ONG 41
acknowled@@ 41
ehow 41
uga 41
mbo@@ 41
Dic@@ 41
foreseen 41
1913 41
dul@@ 41
elli@@ 41
spectac@@ 41
Pir@@ 41
tter@@ 41
vity 41
Oc@@ 41
Gul@@ 41
tock 41
Roy 41
volunte@@ 41
1473 41
sper@@ 41
find@@ 41
Kad@@ 41
Sele@@ 41
Ruther@@ 41
aul 41
discre@@ 41
ende 41
veries 41
Ok@@ 41
UV 41
Rat@@ 41
orer 41
kup@@ 41
Import@@ 41
bard 41
Nicole 40
Arc@@ 40
Josu@@ 40
atro@@ 40
Argent@@ 40
Meg@@ 40
Masada 40
Than@@ 40
gal 40
Ravensbrück 40
Kelly 40
dir@@ 40
ancest@@ 40
reduc@@ 40
bedro@@ 40
relap@@ 40
Salam@@ 40
Marc 40
MP@@ 40
hostili@@ 40
Messi@@ 40
rhy@@ 40
Abe@@ 40
Bezal@@ 40
Comenius 40
recogni@@ 40
arly 40
1908 40
Absal@@ 40
Magellan 40
Leip@@ 40
akota 40
Marcel@@ 40
Eduardo 40
Almeida 40
engine@@ 40
tsun@@ 40
asha 40
orig@@ 40
Declar@@ 40
selec@@ 40
Fern@@ 40
ben 40
Kof@@ 40
mod@@ 40
teach@@ 40
Imag@@ 40
Oklahoma 40
Sarai 40
stantly 40
Ernest 40
Tele@@ 40
○ 40
eli 40
Fren@@ 40
Ephra@@ 40
Shun@@ 40
Corriere 40
test@@ 40
â@@ 40
kud@@ 40
Nik@@ 40
eventy 40
Ray@@ 40
Conserv@@ 40
idi 40
tracted 40
perman@@ 40
Penn@@ 40
elabor@@ 39
easi@@ 39
shepher@@ 39
aya 39
way@@ 39
audi 39
expec@@ 39
Stuart 39
minent 39
Concord@@ 39
fred 39
Zenob@@ 39
rece@@ 39
develop@@ 39
espread 39
Zam@@ 39
icial 39
jo 39
ishon@@ 39
Kin@@ 39
alu 39
ich@@ 39
Megan 39
Tischendorf 39
124 39
NAM@@ 39
Augus@@ 39
Anton 39
zations 39
Ebla 39
HIL@@ 39
ety’s 39
Trinidad 39
Neil 39
Craig 39
skin@@ 39
Assemb@@ 39
licity 39
eti 39
Ebola 39
feder@@ 39
kilo@@ 39
Joy@@ 39
uzz@@ 39
adul@@ 39
> 39
Wyndham 39
+ 39
avored 39
essenti@@ 39
Sik@@ 39
Hugo 39
ennial 38
Tasman@@ 38
quisite 38
Collegi@@ 38
Maputo 38
fa 38
isa 38
ô@@ 38
exic@@ 38
autom@@ 38
Kili@@ 38
Plantin 38
ando 38
DVD 38
kimchi 38
Abor@@ 38
↓ 38
scap@@ 38
ticated 38
Paula 38
CHO@@ 38
gondo@@ 38
satis@@ 38
anis@@ 38
Wash@@ 38
Fried@@ 38
uki 38
avia 38
Pharis@@ 38
ei 38
dowed 38
inavia 38
Cong@@ 38
Pad@@ 38
® 38
Bad@@ 38
Vine 38
gio 38
Pom@@ 38
lak@@ 38
Judy 38
hay@@ 38
sugg@@ 38
Belgi@@ 38
1700 38
ston 38
Sera 38
amba 38
Econom@@ 38
emia 38
mli@@ 38
nish 38
Markus 38
alousy 38
particip@@ 38
kid@@ 38
tamb@@ 38
Map@@ 38
foresha@@ 37
dyslexia 37
ckets 37
umatic 37
ONG@@ 37
Whi@@ 37
controversi@@ 37
pi 37
Johnny 37
Gabri@@ 37
Napo@@ 37
allevi@@ 37
nerv@@ 37
hut@@ 37
OUT 37
disillusi@@ 37
erved 37
custo@@ 37
inav@@ 37
Back@@ 37
hea 37
anxi@@ 37
dne@@ 37
criptions 37
č@@ 37
usta@@ 37
mbi@@ 37
suspic@@ 37
hus 37
Rud@@ 37
Cahokia 37
Mill@@ 37
lam 37
maf@@ 37
distrib@@ 37
Ano@@ 37
pher@@ 37
extra@@ 37
domes@@ 37
Kunihito 37
liament 37
awa 37
Maf@@ 37
utom@@ 37
thearted 37
eme 37
achiev@@ 37
scho@@ 37
atigue 36
Antio@@ 36
attrib@@ 36
Sex@@ 36
eb 36
anya 36
versy 36
Za@@ 36
Bran@@ 36
iter@@ 36
Mongolia 36
embarr@@ 36
Hip@@ 36
Magaz@@ 36
trem@@ 36
did@@ 36
Mombasa 36
emi 36
decep@@ 36
oking 36
hazi@@ 36
There@@ 36
itating 36
weap@@ 36
eno 36
ucha@@ 36
solem@@ 36
Indies 36
John@@ 36
amu 36
oon 36
insignific@@ 36
chae@@ 36
trium@@ 36
mitted 36
Nebuchadne@@ 36
ximately 36
performan@@ 36
uro 36
zal@@ 36
Polo 36
utch 36
asure 36
Kamp@@ 36
Sm@@ 36
iname 36
Manu@@ 36
libr@@ 36
tuna 36
placement 35
ACH 35
Buddha 35
leis@@ 35
omi@@ 35
them@@ 35
duced 35
yoga 35
Nina 35
liv@@ 35
gi 35
Kun@@ 35
Georg@@ 35
dish@@ 35
aris 35
soldi@@ 35
harsh@@ 35
sif@@ 35
semb@@ 35
hali@@ 35
Sig@@ 35
Anx@@ 35
isy 35
snak@@ 35
Wag@@ 35
respir@@ 35
Mun@@ 35
Domin@@ 35
figur@@ 35
arrang@@ 35
Habak@@ 35
kuk@@ 35
ann 35
elines 35
ifer 35
wheel@@ 35
Gab@@ 35
Agricul@@ 35
odia 35
abled 35
Hul@@ 35
lify 35
rison 35
esha 35
vey 35
puma 35
moment@@ 35
categ@@ 35
rehab@@ 35
repor@@ 35
opti@@ 35
£ 35
Isab@@ 35
soda 35
motiv@@ 35
Gama 35
eum 35
will@@ 35
atic@@ 35
missi@@ 35
depar@@ 35
compens@@ 34
Ana@@ 34
transgres@@ 34
hail@@ 34
sha 34
formative 34
eget@@ 34
wom@@ 34
found@@ 34
ART@@ 34
anza 34
Oper@@ 34
Franc@@ 34
nutri@@ 34
wilder@@ 34
sequently 34
Thessalon@@ 34
organi@@ 34
falo 34
agram 34
priv@@ 34
akar@@ 34
uters 34
Squ@@ 34
nat@@ 34
vill@@ 34
Commit@@ 34
D.@@ 34
Angel@@ 34
asia 34
Esa@@ 34
progres@@ 34
NE 34
Pers@@ 34
Initi@@ 34
eigh@@ 34
Nikol@@ 34
Jairo 34
Pon@@ 34
eti@@ 34
yrus 34
inator 34
eme@@ 34
sop@@ 34
rebelli@@ 34
vip@@ 34
uri 34
irrig@@ 34
inga 33
extrem@@ 33
travel@@ 33
appet@@ 33
ה@@ 33
pract@@ 33
turers 33
Jehov@@ 33
Mali 33
Refuge@@ 33
manj@@ 33
Adol@@ 33
lare 33
physic@@ 33
fined 33
Euro@@ 33
bis 33
odus 33
shaf@@ 33
Papa 33
refrig@@ 33
ema@@ 33
pect 33
af 33
Nebu@@ 33
hiro 33
atedly 33
lifest@@ 33
effec@@ 33
fail@@ 33
foolish@@ 33
urity 33
ongo@@ 33
inhabit@@ 33
restra@@ 33
ext 33
icals 33
genu@@ 33
IO 33
athan 33
househo@@ 33
vi 33
Thank@@ 33
itali@@ 33
wander@@ 33
itage 33
declar@@ 33
Jair@@ 33
tempor@@ 33
ondo@@ 33
pects 33
logi@@ 33
tionary 33
trag@@ 33
enon 32
hike 32
unk 32
ambi@@ 32
superi@@ 32
י@@ 32
ו@@ 32
harass@@ 32
Mama 32
zu@@ 32
vement 32
etic 32
opause 32
atu 32
Adminis@@ 32
uda 32
Sas@@ 32
ako@@ 32
dynam@@ 32
icy@@ 32
pora 32
Gom@@ 32
UF@@ 32
Ron@@ 32
wha@@ 32
Persec@@ 32
Goli@@ 32
rio 32
Connec@@ 32
venti@@ 32
igo 32
Dy@@ 32
ancement 32
gues 32
mittedly 32
iya 32
thia 32
reconc@@ 32
Twen@@ 32
Ez@@ 32
tir@@ 32
great@@ 32
ń@@ 32
je 32
Righ@@ 32
vina 32
Ped@@ 32
Prot@@ 32
eck 32
imon@@ 32
ves@@ 32
lel 32
rina 32
Nis@@ 32
intric@@ 32
institu@@ 32
evere 32
strik@@ 32
gery 32
inju@@ 32
orra@@ 31
asu@@ 31
expos@@ 31
habu 31
billi@@ 31
ה 31
Bru@@ 31
assign@@ 31
holi@@ 31
prophes@@ 31
hump@@ 31
eventh 31
posit@@ 31
necess@@ 31
carnation 31
orin@@ 31
phenom@@ 31
uming 31
wol@@ 31
was@@ 31
access@@ 31
Well@@ 31
chiat@@ 31
Rach@@ 31
stituted 31
thren 31
Evol@@ 31
prospec@@ 31
precau@@ 31
locaust 31
mbers 31
Develop@@ 31
NA@@ 31
upe 31
Salv@@ 31
❏ 31
amer@@ 31
ording 31
larg@@ 31
Slo@@ 31
Ci@@ 31
Rebe@@ 31
ritu@@ 31
vig@@ 31
doctr@@ 31
Cz@@ 31
rom 31
etes 30
telev@@ 30
sche 30
spit@@ 30
thritis 30
pread 30
leth@@ 30
Carth@@ 30
eleph@@ 30
ustry 30
kab@@ 30
Mek@@ 30
Palest@@ 30
maxim@@ 30
hek@@ 30
kir@@ 30
testi@@ 30
shou@@ 30
Naam@@ 30
aria 30
afa@@ 30
uality 30
Psy@@ 30
kuza 30
uru 30
Sac@@ 30
Frankfur@@ 30
fication 30
forestation 30
Agric@@ 30
adel@@ 30
Filipino 30
agues 30
covet@@ 30
Carol@@ 30
201 30
outh 30
pron@@ 30
Natur@@ 30
[...]
