<unk>
<pad>
<s>
</s>
,
.
u
a
the
i
sha
la
ve
to
:
of
yô
se
“
”
?
lu
and
er
mba
kwagh
in
ken
ér
ne
ga
that
man
na
)
(
—
ka
we
nan
is
nahan
kpa
or
yange
Yehova
Aôndo
shi
eren
-
for
his
ishima
un
cii
1
​
vea
Jehovah
you
be
on
he
;
’
with
m@@
una
ior
je
as
not
an
I
hen
was
shin
kpaa
will
ed
Yesu
are
it
akaa
have
us
tar
tom
A@@
m
Jesus
God
kaa
shighe
our
2
ma
t@@
u@@
s@@
wase
ing
iyol
e@@
The
a@@
M@@
A
i@@
I@@
kpishi
can
mi
an@@
c@@
doo
Ka
by
ngu
or@@
ci
from
3
‘
nyi
p@@
What
in@@
who
es
gba
za
what
their
l@@
S@@
re@@
fatyô
va
do
mimi
they
k@@
tese
4
T@@
b@@
Bibilo
ar@@
al
!
E@@
s
y@@
Nahan
5
all
er@@
God’s
at
6
ôr
ye
this
him
hemen
one
kera
d@@
r@@
en@@
Bible
nena
un@@
n@@
de
Er
H@@
lun
mbagenev
How
Jehovah’s
nenge
fa
g@@
her
them
e
U
ú
f@@
your
st@@
ia
h@@
time
wa
jighjigh
t
tesen
had
were
did
nana
people
15
7
K@@
hanma
In
12
9
10
8
al@@
Sha
about
N@@
zan
ly
kua
me
C@@
so
taver
ar
y
o@@
ers
ase
has
ver
when
11
ser
uma
môm
Aluer
mba@@
ugen
P@@
U@@
would
wan
Se
ur@@
Kpa
pasen
im@@
v@@
Yange
ation
jijingi
ent
á
L@@
ôron
gbenda
those
de@@
dedoo
hemba
aa
hingir
ate
may
Kwagh
as@@
14
b
13
ad@@
at@@
Mbakristu
kwase
inja
zua
it@@
en
am@@
gema
W@@
ac@@
soo
life
been
We
F@@
ki
ikyav
w@@
my
nger
but
pase
He
ku
civir
O@@
es@@
G@@
henen
•
Kristu
ya
how
’s
sh@@
con@@
17
le@@
B@@
16
ker
ab@@
o
hii
di@@
Paulu
nengen
se@@
li@@
ts
help
il@@
ke
out
ted
D@@
tseegh
be@@
ri@@
love
am
nen
]
[
good
kar
imôngo
gbe
Y@@
vough
tsô
should
some
ated
wer
also
vi@@
ak@@
di
Satan
R@@
more
seer
19
i̱
nav
ag@@
way
l
does
z@@
able
20
18
things
Paul
M
such
su@@
vesen
on@@
Christians
ayange
th@@
mb@@
vese
fan
aluer
Or@@
kposo
ayol
ian
up
te@@
Shi
ic@@
ican
spirit
Why
J@@
lumun
day
many
24
zwa
Christian
mo
make
work
ine
Tartor
It
ds
ful
lo@@
he@@
ti@@
if
Kingdom
res@@
for@@
ci@@
th
doon
said
When
inyom
agen
ua
anyom
V@@
21
other
ro@@
22
ment
no
egh
1@@
le
Shighe
mbara
faith
maa
av
v
per@@
gb@@
í
world
mban
el@@
iky@@
even
ter
hi@@
ish@@
kpen
do@@
need
pro@@
ap@@
others
could
dooshima
vev
hange
shon
spiritual
earth
wasen
than
est
mbu
come
hemban
there
ying
men
congregation
tiônnongo
19@@
tor
gh
tsung
ally
ting
ded
Christ
ng@@
ô@@
first
its
these
end
example
ex@@
E
must
msen
If
ah@@
sed
They
qu@@
For
iti
into
As
yer
me@@
a̱
Ter
pe@@
tsombor
This
You
ter@@
laa
23
mbi
wou
Yohane
ous
because
mlu
yase
pl@@
ance
/
ones
ze
we@@
igen
which
iyange
she
led
den
ations
due
ev
d
like
5@@
hide
tindi
ence
ieren
sp@@
being
Witnesses
wener
uumace
saan
anmgbianev
alaghga
ding
ch
aeren
heart
sa@@
But
kuma
ra@@
Mkaanem
Mateu
years
ho@@
made
yem
Lu
ge
k
know
words
si@@
ijiir
ning
see
king
Pasalmi
true
ol@@
vande
pri@@
fe@@
ity
25
um@@
28
tahav
Mbashiada
umbur
zuan
fe
take
ikyev
kwaghôron
hembe
aan
only
hiihii
wam
loho
no@@
Ken
takerada
par@@
ul@@
Re@@
Davidi
nôngo
give
ure
won
so@@
Na
hegen
ent@@
wang
ta
family
go@@
asev
ashighe
om@@
Ve
become
op@@
to@@
ha@@
over@@
vihi
ur
children
ne@@
profeti
ityough
then
over
well
ngeren
zum
ings
Mba
ough
Peteru
kpe
ling
veren
dondo
ary
vihin
mo@@
du@@
says
kôr
att@@
times
asema
nyian
j@@
ction
injaa
gadia
n
ver@@
mbam@@
po@@
keren
yan
ônov
gar
ijime
is@@
own
ob@@
ere
ngi
ves
mer
ir@@
before
kasev
ty
In@@
might
nga
lamen
TER
Word
truth
ons
30
ashe
6@@
ang@@
nôngon
David
ve@@
lu@@
ce
Z@@
ks
des@@
just
ess
now
ungwa
faithful
great
kure
oun@@
–
That
Ior
ating
pres@@
ates
rec@@
sion
kohol
mkaanem
after
ato
ny@@
ts@@
gban
John
ness
c
ru@@
tion
name
sea
keep
te
death
Luka
sing
kav
em
Un
bu@@
any
om
igbenda
ungwan
war@@
icivir
26
pre@@
tagher
dis@@
inc@@
very
kp@@
ai@@
today
show
ents
mbahenen
dondon
Ôr
use
karen
And
nongo
tr@@
27
apostle
ke@@
Mbaiserael
son
Kanyi
ite
man@@
Or
uhar
29
au@@
new
em@@
ah
ev@@
dugh
fully
through
brothers
wa@@
kwaghaôndo
ikyo
saa
kuran
kpôô
holy
ing@@
kaan
Israel
ou@@
most
word
Alaghga
end@@
bo
p
ch@@
id@@
Shin
To
against
another
study
iwasen
7@@
mbayev
imba
Do
ned
ministry
ta@@
iy@@
ear@@
Mba@@
serve
33
atô
tri@@
himself
cted
each
why
ep@@
ave
31
part
kwaghfan
r
ngohol
worship
Iserael
two
ity@@
*
ant
kwa@@
Read
much
comm@@
ik@@
though
mar@@
find
gh@@
less
news
gu@@
ving
inya
ica
learn
act
bo@@
ments
tôô
Peter
kwaghwan
disciples
cre@@
Nenge
go
atindi
sar
However
ited
wrote
Mose
ee
st
means
ls
upon
van
Doo
used
human
pine
Yes
wuese
mkurem
feel
course
young
mbamaren
view
read
where
zough
parents
war
preaching
imo
Yesaia
ther
ze@@
ked
found
ô
tsua
ently
long
mind
gi@@
Ity@@
ad
nyôr
mfe
servants
awashima
important
wor@@
Una
sur@@
nom
inyaregh
gbem
ways
ape
hope
isholibo
tly
S
ast
cts
say
ved
mase
bem
appro@@
8@@
right
Ruamabera
tile
gr@@
ct
person
kwaghbo
w
ain
ugh
place
perapera
ati@@
One
let
anointed
Timoteu
ve̱
mk@@
com@@
um
Be@@
af@@
ever
x
bee
av@@
ongo
Mbakorinte
Gba
agee
han@@
hiden
les
ses
get
rel@@
Ps
Wan
never
Father
service
Mat
wan@@
nagh
ma@@
power
ku@@
undu
age
ice
doing
ityom
g
ishigh
ser@@
gem
cho@@
Tor
tan
So
ourselves
loving
cu@@
als
O
wen
kaven
pu@@
book
tim
iv@@
Go@@
Psalm
any@@
ort@@
tema
32
ality
given
put
By
requ@@
ou
Ikyav
Adam
der@@
mayange
wise
days
mor@@
set
kwaghyan
str@@
shigh
ti
Pro@@
knowledge
jighilii
mcivir
too
icighan
same
iti@@
dly
ga@@
la@@
ase@@
fellow
legh
Moses
Mpase
ir
ityav
Th@@
nomso
yed
became
ther@@
kpoghuloo
ig@@
told
ay
under
want
fin@@
34
ityôkyaa
car@@
Mbayuda
zege@@
batisema
ged
ange
An@@
ande
mnenge
Mbaromanu
x@@
Akaa
De
Yobu
2@@
King
wife
At
mbatamen
har@@
among
Ne@@
After
kura
consider
nder
sure
ge@@
Mb@@
suur
vangertiôr
Solomon
sôron
der
Anzaakaa
every
Let
min@@
tra@@
Our
De@@
kwagh@@
self
tu@@
h
Scriptures
20@@
live
Ú
geman
co@@
Daniel
anmgbian
yom
tions
Israelites
ishimaverenkeghen
making
tre@@
whom
Se@@
tse@@
Aerenakaa
during
gave
van@@
His
ityakerada
tsuaa
mhen
palegh
9@@
marriage
ea
ajiir
ityesen
el
came
prayer
200@@
40
Son
shio
ikyar
35
tsu@@
et
out@@
ily
ron@@
Mbaheberu
und@@
away
ahar
venda
zenden
Zum
37
ol
Me
off@@
keghen
pos@@
down
pe
iyôngo
light
ini@@
ib@@
Some
Matthew
mhôônom
back
ess@@
personal
La
mon@@
kuren
As@@
vegher
mar
ôn@@
often
ished
Hanma
dness
ies
He@@
mbamzeyol
igh@@
counsel
land
kpuaa
ened
yam
Yerusalem
ember
kwa
keng
joy
tru@@
themselves
wua
living
nd@@
cor@@
sin@@
hendan
ement
soon
rep@@
reason
ative
mbacivir
u̱
ityar
stri@@
Yô
ry
peace
On
us@@
year
home
elders
mgbegha
toward
inter@@
Hii
ôm
Is
pur@@
ali@@
zed
humans
cl@@
Man
order
esen
ura
red
ities
ening
With
Mar@@
ask
,@@
har
began
heaven
Hen
house
gen
face
az@@
later
hand
00
always
mbamkombo
appe@@
kegh
felt
righteous
zende
wicked
iorov
ths
angev
ast@@
old
makeranta
Jerusalem
pr@@
iyua
ikyua
wanger
ile
There
kwar
aring
cr@@
agh
clo@@
relationship
expres@@
uwer
look
mough
coming
ans
still
our@@
dr@@
Kwagh@@
kundu
century
Ne
tsembelee
ward
the@@
purpose
aren
ously
ôô
Aberaham
fac@@
ese
ws
ined
Ab@@
timen
yar
aior
sin
sions
however
Orkristu
sen
yum
nan@@
ner
yilan
,000
apostoli
while
45
ort
heavenly
Li@@
ages
ake
Ishima
full
called
Mo
mis@@
point
jimin
wi@@
nations
Ashighe
ikyaa
ish
ic
three
yen
Cii
Ch@@
stan@@
giving
fact
iwanger
wn
Yoh
e̱r
took
without
yemen
ight
mbampin
bende
anger
temp@@
cal@@
ishi
aôndo
ty@@
meetings
usu
Yet
present
peeji
bring
ain@@
up@@
think
bl@@
future
close
Genese
tive
tartor
asorabo
ghun
serving
sc@@
cour@@
ate@@
together
Then
iv
egh@@
aven
kôron
something
orgen
reas@@
She
ical
akuraior
possible
fi@@
questions
pas@@
tsaha
Mbat@@
both
masejime
ingly
mzough
Isaiah
jim
sôr
experience
tim@@
ress
discus@@
iniongo
ters
share
̱
having
Samuel
teaching
Anmgbian
Con@@
fine
mil@@
ong
message
tsôron
gbashima
nam
don
EN
article
ship
Me@@
respon@@
needed
ld
continue
sons
emp@@
ms
umb@@
iji@@
shima
attitude
spe@@
benefit
inv@@
msaanyol
Apostoli
gra@@
ences
enev
Sh@@
kindness
wisdom
era
fear
ven@@
cian
angen
reve@@
done
result
iny@@
yol
wu@@
kind
Kor
een
eng@@
Tsô
mankind
husband
eyes
ref@@
app@@
Even
Many
really
thing
da
All
father
Y
ij@@
yi@@
ph@@
asked
tting
helped
Tindi
ces
comes
br@@
il
Al@@
ime
Tar
Tom
ondo
gar@@
heen
tain@@
atar
yo@@
trans@@
ians
ely
lam
bre@@
injakwagh
between
yila
ven
jo@@
Who
kape
ôôn
kô@@
slave
ian@@
New
encourag@@
enge
followers
prophe@@
desire
Mbagenev
sheep
maan
fru@@
Tim
kiriki
vers@@
From
speak
ef
ach
yaren
beg@@
stud@@
associ@@
Law
members
ared
No
gen@@
Per@@
ut@@
moved
ivese
wanakiriki
No@@
ung@@
38
36
Timothy
ov
fore@@
Yakobu
Luke
tsuan
prophet
iwuese
atô@@
care
ye@@
loved
shi@@
inclu@@
bad
H
Heela
iyol@@
lives
tempel
ngô
certain
enger
gro@@
AG@@
exc@@
ended
dang
age@@
system
tser
follow
if@@
So@@
woman
derianyom
lead
ngise
iember
kighir
Because
position
Jo@@
kanyi
Jijingi
mkur
receive
Mbam@@
Rom
Lo@@
understand
happy
Those
coun@@
kom
brother
righteousness
support
attention
best
uni@@
isharen
Yuda
hab@@
side
under@@
yôô
duen
ih@@
Heb
oo@@
thr@@
ran@@
N
conduct
ture
ifer
loo@@
Gbenda
learned
matter
avoid
T
d’s
ER@@
These
mgb@@
mi@@
dition
ak
W
decl@@
4@@
mbaapostoli
food
fir@@
Yeremia
3@@
ati
sive
ca
last
gre@@
nation
ah’s
sho@@
dist@@
pania
trust
til
mean
Ô@@
again
ten
ijir
pray
indic@@
olo@@
Acts
imi
respect
mbamhen
enjoy
awambe
ef@@
apostles
Ex@@
situation
account
dom
lish
Ho@@
tor@@
ôngo
Job
sacrifice
ip@@
ace
law
lead@@
ys
answer
kwaghpasen
pleas@@
wr@@
mother
ath
kingdom
amen
cau@@
ishember
yet
form
prove
washika
vie@@
gener@@
mbap@@
baptized
Un@@
sense
suffering
direc@@
zu@@
temple
low@@
went
D
mer@@
city
oli@@
cannot
ors
seen
nana̱
reali@@
pp@@
someone
mnger
saying
mpin
mlumun
wing
Mbaefese
ky@@
hard
list@@
10@@
ei@@
Abraham
ctive
Consider
remain
kange
individuals
pi@@
assi@@
char@@
dedic@@
you@@
little
Takerada
wh@@
sen@@
44
nee
tic@@
following
akaaôron
ind
39
samber
My
icighan@@
ign
Jews
kpilighyol
averen
false
thus
50
spiritually
prophecy
Your
believers
Nyian
tal@@
ende
imitate
Bo@@
turn
needs
AN@@
works
ack
vely
tamen
ligh@@
Mo@@
far
Christ’s
Ngeren
ough@@
instru@@
Kape
mat@@
erdoo
Of
bro@@
resurrection
uwegh
succ@@
Thus
sue
going
Lord
ana
num
ans@@
proc@@
Ru@@
number
left
ens
wo
enc@@
Revelation
Inja
different
—⁠
reading
Pet
women
ature
ele@@
mp@@
od
Iky@@
gives
pasalmi
cont@@
especially
nor
▪
child
known
mbadondon
icin
mber
everlasting
don@@
vighe
yourself
case
early
dec@@
ôn
aav
lic@@
ats@@
gomoti
Paul’s
received
died
religious
taking
ented
ately
je@@
des
cause
fil@@
ial
fa@@
few
saw
served
brought
question
strong
ishim@@
likely
perfect
42
conclu@@
knew
Satan’s
prayers
haa
0@@
stru@@
matters
atesen
feelings
ume
ck
gbar
ie@@
teach
ges
provide
Although
problems
James
qualities
gande
ring
Marku
concer@@
dep@@
body
advan@@
change
vindi
orumace
Devil
difficult
ach@@
better
akaawan
uya
off
usu@@
C.E
kil@@
kuman
ites
happ@@
ders
mbagen
sec@@
iting
enden
pati@@
Christ@@
mkombo
ut
invol@@
tar@@
wrong
asi@@
Aer
Proverbs
Corinthians
yima
thought
Romans
aver
language
loyal
SH@@
tice
tain
whole
Mimi
thinking
mini
1914
ôô@@
itu@@
ple
born
Such
idya
14@@
ached
affe@@
glory
chan@@
principles
duc@@
ron
appointed
ityendezwa
fese
ide
ikpelaior
shows
dy
ishen
wer@@
certainly
table
care@@
tion@@
ending
inj@@
makes
atôônanongo
ten@@
refu@@
ested
hem@@
St@@
wers
here
blessings
ani@@
married
ome
kon
ord@@
sel@@
ns
zayol
since
mtsera
0
supp@@
gbidyen
MB@@
witness
ber@@
real
sisters
bugh
civirigh
mbor
ang
Since
stand
until
sôn
similar
per
bran@@
ikp@@
doom
privilege
dyako
blood
ancient
ahan
paradi@@
Mesiya
kpee
mkav
whether
circumstances
Shi@@
ands
inspired
stor@@
taught
Lev@@
next
tsough
aid
Rather
avur
iyou
Com@@
tugh
zungwen
Does
ngee
tic
heard
tôvon
shami
199@@
ikyurior
Anz
rule
Iyoukura
great@@
hungur
divine
ka@@
gber
action
strength
loy@@
less@@
Are
page
ago
bel
KA
move
ivaa
tem@@
igbar
acc@@
iyev
endan
ster
prote@@
friends
Like
verse
ree
thers
Diabolo
clear
mkohol
exerci@@
Ar@@
low
anc@@
imp@@
foc@@
ihyom
Bar@@
plac@@
pue
turned
Maria
satis@@
occ@@
wel@@
hear@@
sight
im
naan
refer@@
arly
rul@@
promise
fied
ji@@
41
ine@@
utar
suen
dic@@
ishimataver
nyôron
ivur
using
yina
ire
mbatyomov
states
ered
regarding
Eren
ps
enen
Gen
mbat@@
sent
tsa
truly
tell
emb@@
try
night
torough
kpiligh
understanding
examples
expe@@
ôgh@@
ger
ibo
mbahemenev
Noa
Mic@@
high@@
consider@@
confidence
Gi@@
Na@@
shall
accept
provi@@
laim@@
atsan
deci@@
involved
poin@@
tu
ign@@
sub@@
integrity
along
Le@@
ub@@
organization
arri@@
ches
pa@@
aie
hon@@
Mpa
ago@@
dra@@
recogni@@
covenant
authority
Be
kporom
rit@@
illustr@@
ably
mngerem
dia
clean
maintain
yev
draw
Scriptural
Watchtower
bor@@
zamber
Ge@@
including
kaha
cha@@
provided
43
apera
enter@@
Gadia
YÔ
tur@@
ortamen
wat@@
cap@@
comfort
ars
awa@@
dem@@
mbe
Utor
eho@@
bur@@
vaa
ond
blessing
believe
material
mô
pt
valu@@
kur@@
moral
iin
ainge
preach
shiada
ep
While
vital
ember@@
keep@@
Wor@@
ick
ho
Can
Á
courage
NG@@
lies
ER
fre@@
mbatomov
pite
deep@@
effect
effe@@
ilon
contr@@
mentioned
dead
allow
ankar@@
fail@@
tation
gift
:⁠
ndor
taken
wed
meaning
remin@@
standing
Today
né
around
opportunity
nzughul
ai
hold
judgment
ound
ishe
her@@
Gre@@
therefore
wanted
remain@@
injar
sule
ability
Hebrews
ads
hearts
reason@@
ines
apply
deep
IN@@
mkpeyol
Kwaghôron
recorded
See
free
direction
enjo@@
cul@@
willing
Ma
ili@@
kpen@@
sister
comple@@
ityô
my@@
speaking
Wh@@
sible
ering
pa
agumaior
ick@@
heavens
beenyol
public@@
forever
World
powerful
posed
showed
zer
return
enti@@
Ga
nothing
interest
near
vangeli
nor@@
ental
disp@@
mbak@@
effort
mit@@
Nan
earthly
gain
godly
ific@@
On@@
member
evidence
happiness
high
wonderful
akav
pav
udi@@
destro@@
special
trave@@
nyoon
deal@@
60
ivande
deser@@
Mayange
R
ational
Awa@@
actions
writ@@
kenger
hur@@
kende
sely
sign@@
seem@@
’@@
sy@@
milli@@
kept
den@@
liter@@
lee
proved
tsengaôron
govern@@
Still
ici@@
unô
challeng@@
ory
yôugh@@
sting
Jeremiah
congregations
var
ext@@
bir@@
spoke
.@@
Is@@
gy
cop@@
value
ijende
respond
one@@
aled
Hemen
regard
neigh@@
greater
standards
mbau@@
ighe
tee
helps
ist
Saulu
Ser@@
lôh@@
past
efforts
fy
psalmist
est@@
based
religion
accep@@
Mark
yevese
mon
promises
ene
person@@
tend@@
Dedoo
70
foretold
col@@
ought
Hence
vo@@
cica
Instead
Bro@@
every@@
Mal@@
pinen
decisions
doubt
second
Not
conven@@
mbamsen
f
ii
iman
she@@
praise
group
umbe
listen
rend@@
tes
talk
hel@@
rejo@@
control
Een
yolough
beli@@
call
ada
ene@@
kôôm
angahar
Bib@@
kiel
obey
determined
iness
daugh@@
vis@@
ijô
comp@@
manif@@
leg@@
ill
itinekwagh
offer
tôndo
ende@@
ord
according
seek
cting
ink
ange@@
Ifa
aiegh
faith@@
sins
water
Indeed
teach@@
compl@@
tsegha
Kwase
Loho
tsema
PE@@
gbidye
tilen
kase
Judah
119
liam
honor
iveren
rely
awar@@
Now
aria
viol@@
walk
appreciation
illustration
remember
anyone
During
speci@@
Igipiti
reli@@
ilev
soul
Ng@@
field
written
iyenge
Will
cent@@
aged
small
Greek
prepar@@
serious
azende
Ju@@
gran@@
older
medit@@
angels
Dooshima
HO@@
unity
events
mee
nahana
ria
than@@
compani@@
hu@@
kin@@
Hebrew
mnder
salvation
ential
May
ste@@
allow@@
yôôn
experienced
promised
ransom
shir@@
luun
meeting
ust@@
rom
Grika
already
She@@
flesh
ado@@
long@@
school
Su@@
Ese@@
Ngu
arrange@@
Creator
Eliya
mirac@@
ilities
’t
righ@@
wants
iliam
once
yaven
gayô
asen
sember
sl@@
kpe@@
evid@@
acts
Paradi@@
dông
ount
Icighan
cri@@
spo@@
akuma
sô@@
Zege@@
wono
proper
within
ard
role
shinii
rai@@
uuma
enda
uta@@
trials
lear@@
money
prog@@
ified
cer@@
Wan@@
masetyô
tôôn
gir@@
Iyange
unde
enegh
kasua
head
physical
ruamabera
ched
health
ss
tern@@
reasons
tse
ins
val
Hegen
chapter
Au@@
lost
exist@@
yangen
lim@@
ication
ide@@
ki@@
myom
mbaihyomov
mag@@
nya
kor
information
complete
leave
are@@
Yosua
tôv
ties
People
instance
iengem
thoughts
sit
ource
atam
Des@@
deliver@@
ilii
sh
EN@@
eds
Therefore
strengthen
Mary
hor@@
tes@@
inher@@
ants
stated
deri
perhaps
thous@@
B.C.E
ill@@
gri@@
repres@@
Yosev
fulfillment
four
ong@@
vende
pic@@
lation
Tese
ighir
․
magaz@@
ater
Their
gn
forth
hear
mpase
ator
imb@@
mbakp@@
Amerika
unda
wasem
kôôsôô
48
appreciate
harmony
vendan
oned
jir
responsibility
aha
imperfect
guidance
conf@@
True
endur@@
vision
strength@@
conscience
pioneer
fetyô
pages
ail
precious
tually
sun@@
tures
atever
famili@@
happened
everything
por@@
fel@@
Keep
gbe@@
ôh@@
reje@@
continued
46
noov
bes
working
Eve
Umbur
concern
Did
Jac@@
Israel@@
Duteronomi
wal@@
lived
imit@@
Ro@@
waan
building
afatyô
Habak@@
le’s
activities
fill
decision
To@@
fulness
Lu@@
letter
ed@@
ban
indi@@
erem
re
lied
endure
pasenkwagh
mbaiorov
tswen
Vea
househo@@
umiliôn
cio
clearly
aki
Betel
ahumbe
Moreover
acted
zing
continu@@
servant
naagh
emo@@
ngô@@
Genesis
pan@@
subje@@
tem
Phar@@
fer@@
mission@@
crowd
feel@@
public
large
rest
mal@@
tribulation
Ieren
reach
anden
utya
mbamtaver
expression
Saul
rather
ikyo@@
mara
An
further
contribu@@
poss@@
uh@@
udubu
aving
Wou
meet
Yo@@
mbakur@@
Matt
pursu@@
wea
sted
Amo@@
enemies
comman@@
Jewish
mtim
discer@@
Ekesodu
ton@@
rich
gaa
ist@@
glor@@
yô@@
clean@@
mbah@@
guard
lands
ically
OR
assur@@
expl@@
anything
gher
OR@@
nyer
seed
Egypt
shed
cies
Love
Mbagalatia
ould
individu@@
elder
practic@@
tele@@
teachings
Fran@@
offered
reflect
mzeyol
baptism
aka@@
uri@@
couple
sacrifices
aph@@
First
sol@@
Mbakolose
A̱
Di@@
asaren
wuee
descri@@
ctions
friend
asange
showing
Ish@@
minist@@
Rus@@
fulfilled
commun@@
ina
Mor@@
THE
got
estab@@
hemban@@
kper@@
heart@@
ition
ther’s
affect
urity
medi@@
tsaase
semb@@
AN
accepted
destruction
AT@@
les@@
carry
influence
firm
ile@@
ônon
ook
perfe@@
hands
Just
myer
develop@@
fes@@
eness
L
47
soci@@
class
particul@@
lum
issue
dar@@
whose
Jud@@
taregh
ania
Fa@@
tseer
mea
blessed
TI@@
ious
outh
humble
sacred
inyam
arr@@
aff@@
build
tô@@
ples
mciem
upristi
Ano@@
humility
ends
ira
longer
success@@
kimbir
ES@@
Joseph
ired
poor
tan@@
Buter
aiev
adi
AR@@
tsegh
lier
son@@
helping
motiv@@
seeking
bel@@
prev@@
Fe@@
mate
zeal@@
explained
Pente@@
Mbahemenev
Have
line
training
Elisha
gbaa
provides
anev
sequ@@
identi@@
amba
evil
beau@@
GBER
simply
compas@@
ningir
mission
gather@@
parti@@
fele
oughout
Anyom
SONGS
tsan
wain
hol@@
knows
tells
United
repent@@
res
ayôôso
Ishim@@
Nen@@
anim@@
refle@@
Ad@@
ATSAM
sé
Kor@@
tin@@
shia
please
yiman
Ef
ame
ihy@@
hiin
promo@@
heal@@
worshippers
ise
bear
fig@@
activity
daily
just@@
timin
bac@@
sear@@
SE@@
occasion
icam
mercy
lan
tel@@
acher
gn@@
aching
Yon@@
Wam
aregh
sovereignty
atter@@
hông@@
adul@@
bri@@
nomso@@
scrip@@
boo@@
abo@@
65
mbaaferev
takes
Hi@@
regular
persecution
raised
asenkwagh
thre@@
warning
Anmgbianev
deal
koson
fu@@
sex@@
tains
ever@@
considered
interests
neg@@
advice
sor@@
ara
ency
ourage
En@@
itage
cultivate
ining
taveraa
voice
open
alone
imoshima
enter
creation
educ@@
Par@@
shepherd
held
Philipp@@
see@@
vor
y’s
ced
Iyol
Heberu
ffering
stat@@
entually
mem
some@@
mhii
explain@@
easy
bed
icial
é
55
jud@@
sugg@@
Ba@@
Kp@@
available
atindiakaa
wanye
alty
believ@@
won@@
produ@@
Mbafilipi
qual@@
indeed
erous
choose
formed
tseghan
described
C.S.@@
mbamlu
accoun@@
history
various
aim
fic
Sp@@
worldwide
respe@@
uro@@
Yakob
confid@@
ba
Jighjigh
Ny@@
pin
opp@@
se̱
Noah
akyaa
discreet
friend@@
prayed
walking
mist@@
challenge
desires
stay
derly
4,000
wue
ika
cir@@
else
tely
foo@@
mbaakaav
mci@@
ready
pose
regularly
scho@@
Uma
Similarly
behalf
18@@
compar@@
started
vic@@
thy
Bab@@
maren
obedi@@
vôso
worthy
necessary
defin@@
cuku
benef@@
super@@
Joshua
Roma
Han@@
ual
common
undun
gue
mbag@@
nyityô
priests
uityendezwa
sees
steps
atic
Ivur
Ephes@@
Mbak@@
force
ground
á@@
Jon@@
bab@@
gg@@
iniôngon
pare
ace@@
conc@@
fore
justice
According
deli@@
local
assignment
mighty
named
speech
sever@@
ishimaveren
conv@@
abaver
ger@@
Messiah
develop
Eng@@
kunya
Armag@@
KW@@
Bethel
iah
am’s
grow
ikyum@@
kwaghhenen
Mbamaren
ôghom
oub@@
ikyuryan
fan@@
positive
iwer
mur@@
Most
quality
da@@
sia
symb@@
haregh
wives
Stud@@
laws
origin@@
seven
Tru@@
prospe@@
hand@@
ships
results
mh@@
Maa
tful
entire
tom@@
fri@@
dre@@
kings
Babylon
comfor@@
ko@@
kar@@
demonstrate
devotion
start
illi@@
ost@@
fle@@
ek
itself
exp@@
non@@
Elijah
Though
survi@@
ihi
die
akeranta
ify
meas@@
esalonika
ures
avi@@
Ma@@
natur@@
tors
gbilin
wil@@
flock
Would
basis
period
examine
disciple
cie
ership
akaabo
modern
imag@@
publish@@
shown
mbamgbe
pristi
favor
z
atures
stood
pione@@
tou@@
disci@@
ching
loc@@
changes
teman
self@@
amba@@
accur@@
acqu@@
ght
uiky@@
med
ishimawan
imeen
command@@
knowing
David’s
ibanave
fall
eni
accomp@@
ihi@@
Saan
tiv@@
cia
Qu@@
subject
obedience
fankwagh
benefits
Ca@@
restor@@
practical
Po@@
stance
Ver
iyolough
ufoto
goo@@
waren
neither
Witness
worl@@
impres@@
ours
rumun
display
dooga
suffer
El@@
Sam@@
seem
gese
TH@@
personally
stop
faced
cru@@
mbananjighjigh
single
Nen
ditions
country
Iyou
icombor
oo
will@@
cam@@
YO@@
Orshiada
joy@@
ahead
protect
note
Tit@@
resurrected
lesson
gumor
bredi
expect
genu@@
experi@@
mgbegh@@
ob
ghen
aking
who@@
yomov
buil@@
Pas@@
Í
Jigh@@
xt
od@@
ices
lon@@
sev
oman
alegh
igh
proble@@
beh@@
prac@@
ja
ihii
Ze@@
zung@@
ful@@
gbil@@
import@@
Eli@@
ombo
ela
tsera
eren@@
cc@@
lit@@
jiir
princi@@
ires
iliôn
sou@@
Do@@
uter
help@@
differ@@
Mbah@@
hum@@
persecu@@
itude
S.@@
gl@@
ôkyaa
all@@
read@@
haps
fai@@
aagh
thor@@
langu@@
privile@@
Kwa@@
Je@@
learly
foto
apost@@
demonstr@@
sib@@
star@@
itness@@
SA@@
appreci@@
ests
lar@@
can@@
husb@@
uring
ôndo
ple@@
fav@@
form@@
É@@
omb@@
worshi@@
shepher@@
civi@@
follow@@
nom@@
Gb@@
ital
ith
prop@@
alon@@
ility
main@@
situ@@
Abr@@
pra@@
nam@@
eas@@
oung
mini@@
ques@@
fal@@
influ@@
exam@@
Pe@@
diti@@
·@@
eve
feti
spir@@
opport@@
ure@@
ffered
publ@@
ous@@
artic@@
responsib@@
mbai@@
tôv@@
mater@@
recei@@
é@@
sacrif@@
rans@@
akes
G
V
ow
cro@@
ôso
Messi@@
tro@@
mbur
ugh@@
endezwa
cy
mban@@
mean@@
ood
id
prai@@
ud@@
è@@
Ke@@
ffer@@
ù
ied
sal@@
chil@@
determin@@
vange@@
Wat@@
iri@@
sm@@
afer@@
obe@@
cou@@
ousness
ention
akiriki
lasting
dit@@
let@@
Jam@@
gba@@
pect
fam@@
Amer@@
Er@@
omi
author@@
F
div@@
The@@
memb@@
dubu
tsen@@
sion@@
à
wic@@
00@@
lic
devo@@
humb@@
earth@@
enem@@
occasi@@
tle
var@@
ust
ft
resul@@
jime
like@@
pon@@
Phili@@
alf
ohol
deter@@
orom
consi@@
sist@@
grou@@
sm
ears
consci@@
mee@@
è
stead
La@@
lay
doub@@
Cre@@
inf@@
ff@@
jigh@@
í@@
disc@@
fo@@
enced
regar@@
zaakaa
alu@@
nu@@
lood
umace
Baby@@
inted
diffic@@
ew
ken@@
sla@@
ation@@
main
gum@@
gover@@
uteron@@
ouse
ú@@
ôngon
guid@@
000
itnesses
akaa@@
judg@@
heav@@
alati@@
ph
ngerem
anci@@
ury
Mbai@@
whe@@
kpo@@
rist@@
priv@@
bu
engem
Peter@@
ʹ@@
organi@@
Mbaf@@
ala@@
stry
yes
kimb@@
GB@@
crip@@
Egy@@
religi@@
imin
omov
inspir@@
à@@
wen@@
mir@@
ingir
Aber@@
worshipp@@
exer@@
ail@@
irit
̱r
prob@@
uch
spiritu@@
aken
Eph@@
Mbag@@
rif@@
elee
ahav
knowled@@
ônnongo
itive
atyô
iligh
ose
yol@@
fol@@
wish
ass
cond
Acc@@
eld
pointed
wonder@@
verenkeghen
kombo
apti@@
Ici@@
chap@@
pi
ano@@
Apo@@
orinte
dren
wide
avo@@
adu@@
ghan@@
gha
umaior
ness@@
diff@@
sing@@
peri@@
sema
Ph@@
l’s
fur@@
ami
Pen@@
simil@@
with@@
Solom@@
vation
vur
inu@@
crow@@
circum@@
akerada
cultiv@@
sci@@
inci@@
Af@@
him@@
suff@@
nee@@
pray@@
esus
Ga@@
atisema
shin@@
phys@@
akwagh
righ
vice
uel
ince
ôônom
za@@
artor
Ts@@
story
C
Yes@@
⁠
/@@
J
ishimat@@
mes@@
gipiti
urior
hous@@
condu@@
assign@@
necess@@
augh@@
org@@
Gen@@
bs
enkwagh
Jose@@
nah@@
dy@@
encour@@
Mbar@@
tural
sage
resurrec@@
regul@@
an’s
K
perse@@
Corin@@
fulfil@@
abolo
P
zeyol
gy@@
saanyol
power@@
relation@@
wom@@
uryan
adi@@
loo
contro@@
tyô
Scrip@@
anu
zughul
hung@@
SO@@
greg@@
inform@@
Dani@@
rection
kristu
ông@@
oho@@
uman
rika
simp@@
pel
li
B
sto@@
organiz@@
Isai@@
nyo@@
Sat@@
Doo@@
led@@
ys@@
ilo
oti
salm
lustr@@
som
anyi
ù@@
ribu@@
kpu@@
Joh@@
thin@@
ombor
pin@@
ben@@
orov
Ther@@
angu@@
Sau@@
reg@@
jing@@
veraa
Pau@@
sua
Tho@@
risti
of@@
lock
kes@@
Elij@@
Bete@@
indi
som@@
ult
yuda
Jerem@@
atur@@
ighty
cum@@
bless@@
ü@@
ael
servan@@
ishima@@
tribu@@
ilipi
bas@@
velo@@
discre@@
marri@@
preci@@
bapti@@
iya
your@@
tainly
kno@@
sel
harmon@@
promis@@
ì@@
congreg@@
ji
tings
Mes@@
orig@@
ako
forts
been@@
nen@@
X@@
syst@@
omoti
olo
erusal@@
iriki
ng
Mat@@
olose
stances
Yehov@@
aker@@
mov
tau@@
eji
kyaa
usb@@
aferev
serael
destru@@
ima
□
ather
shika
ghul
Q@@
psal@@
j
fort
amabera
mbanan@@
cle@@
hyomov
rist
●
rage
æ@@
ually
though@@
fect
shua
psalmi@@
spee@@
deed
elaior
kun@@
isdom
ilen
recogn@@
©
doo@@
ó@@
vil
Bethe@@
wegh
Ô
gether
dern
tiôr
recor@@
Timo@@
○
Rom@@
$
Á@@
ḿ
ʹ
bet@@
yaa
jingi
vidu@@
sac@@
ghu@@
saan@@
anongo
yôôso
|
Consi@@
ok
Reve@@
̱@@
⇩
dwide
irst
uda
pub@@
yil@@
nec@@
tower
ã@@
alatia
◆
Apost@@
abo
evi@@
atindi@@
ôôn@@
urem
know@@
ö@@
mise
ijingi
imo@@
mase@@
ich
Z
Yohan@@
atis@@
step@@
tegrity
oli
kpeyol
menti@@
inekwagh
anave
Corinth@@
aham
peci@@
ì
tegr@@
ông
NGS
verbs
jigh
Watch@@
sôô
ilighyol
demon@@
Iyou@@
aia
vanger@@
Davi@@
selves
ither
Simil@@
ł@@
Matthe@@
anta
coven@@
asua
q
streng@@
ghan
◇
mbelee
anem
gbid@@
develo@@
ead
lment
ording
veren@@
gaôron
sovere@@
erenakaa
atters
orabo
mbaaka@@
them@@
Mbahe@@
₦
X
ween
vih@@
kôô@@
ghuloo
sem
akur@@
ä@@
lon
beru
rote
ianyom
avail@@
▸
wever
partic@@
Sol@@
Mbae@@
ç@@
mone@@
°
iligh@@
range@@
>
righte@@
B.@@
Ú@@
&
lesh
ʼ@@
%
❖
More@@
heaven@@
activ@@
Ḿ
ł
י@@
ë@@
_@@
ò@@
esis
ה
☞
ו@@
ה@@
resur@@
ignty
®
itness
obu
←
Ala@@
q@@
✔
→
ê@@
dards
ehov@@
€
­
ś@@
Hab@@
É
ä
C.@@
ø@@
å@@
reco@@
ATSA@@
ñ@@
orin@@
ę@@
ż@@
▾
ē
ē@@
ń@@
ā@@
omanu
;@@
−
Š@@
Í@@
È@@
Jehov@@
gip@@
̣@@
À@@
ǒ
ianev
Ù@@
amab@@
Ş@@
anmgb@@
ı@@
Ü@@
aase
:@@
=
ʼ
̀@@
ò
+
#
mun
ristu
Ekesod@@
ʽ@@
vere@@
ó
£
ą@@
­@@
Yak@@
uter@@
↓
▴
Yerem@@
efore
‛
atôôn@@
Ì
esalon@@
ń
ï@@
ý@@
ŕ
⁄
ů@@
chall@@
↑
č@@
erus@@
isholi@@
š@@
epher@@
ị
î@@
Ó@@
ö
_
ateu
