,
.
the
tó
a
to
of
ń
àwọn
tí
pé
“
”
and
ṣe
:
in
ní
máa
?
wọ́n
ni
-
sì
sí
that
jẹ́
ti
bá
ó
fi
kan
náà
lè
—
fún
láti
is
kí
rẹ̀
sọ
wọn
àti
Ọlọ́run
wà
nínú
ohun
for
Jèhófà
bí
s@@
t@@
wa
f@@
o
ed
kò
wá
rí
an
​
on
ing
his
d@@
I
ló
was
with
we
be
as
you
lọ
yìí
p@@
èèyàn
b@@
ì@@
it
kó
S@@
not
are
es
ò
in@@
The
mi
i@@
l@@
re@@
or
mú
i
m@@
s
Jehovah
g@@
have
í
á
he
nípa
r@@
c@@
ká
w@@
e@@
will
God
M@@
Ì@@
gbogbo
n@@
A@@
us
ọmọ
k@@
Àwọn
1
a@@
Ó
Bíbélì
T@@
by
t
tá
ara
ṣ@@
our
Jésù
’
from
ayé
à@@
;
R@@
ar@@
can
their
gbà
y@@
Jesus
en@@
al
nǹkan
iṣẹ́
O@@
gbé
ẹni
o@@
mo
nígbà
h@@
P@@
who
e
mọ́
fẹ́
Bible
E@@
!
L@@
y
at
H@@
bẹ́ẹ̀
they
B@@
un@@
)
(
ad@@
er
all
al@@
one
lé
ní@@
st@@
tún
ẹ
ọ̀rọ̀
er@@
tàbí
A
ac@@
di
or@@
pa
yóò
an@@
W@@
ation
lára
u@@
ọ̀@@
ers
j@@
what
this
yẹn
ẹ̀@@
gb@@
do
À@@
wo
your
were
òun
à
ò@@
Kí
kì
‘
had
K@@
rẹ
lọ́wọ́
lá@@
I@@
2
dá
F@@
ọdún
G@@
C@@
hàn
mọ̀
n
What
D@@
lórí
èdè
ti@@
N@@
at@@
ìwé
ate
pọ̀
him
In
people
mọ
á@@
ted
èyí
el@@
them
my
ts
yẹ
God’s
kọ́
3
é@@
about
m
gan
]
[
Àmọ́
J@@
has
’s
5
dà
Jehovah’s
ly
ab@@
when
time
es@@
ilẹ̀
pẹ̀lú
4
ọ@@
Kristẹni
would
me
am@@
inú
v@@
on@@
so
Nígbà
il@@
gba
un
Bí
it@@
as@@
ent
ag@@
th@@
ìgbà
may
is@@
è@@
ọ̀nà
tion
ur@@
lo
life
ra
dis@@
6
but
ẹ@@
jọ
did
bẹ̀rẹ̀
ẹ́@@
con@@
How
ọ́@@
ó@@
la
k
táwọn
jù
im@@
out
ri@@
ọ́
her
ìyẹn
irú
ú@@
sí@@
tr@@
those
d
é
more
ọkàn
ic@@
ì
8
ọ̀pọ̀
le@@
nítorí
op@@
ated
lọ́@@
l
He
sílẹ̀
ìwà
able
some
bó
dé
ilé
lo@@
ló@@
ol@@
7
ro@@
kọ
pro@@
th
ẹ̀mí
par@@
rere
ojú
also
9
wò
le
ẹ́
pàtàkì
how
b
many
má
sọ̀rọ̀
de@@
15
ds
jú
such
sp@@
ẹ̀
ap@@
help
àtàwọn
míì
Y@@
í@@
for@@
ting
àpẹẹrẹ
gbọ́
ve
been
tẹ̀
ú
It
ence
Ẹlẹ́rìí
oní@@
li@@
Ní
ọjọ́
We
lẹ́@@
ex@@
ìfẹ́
ter@@
good
lẹ̀
up
age
ìṣ@@
ance
ir@@
ec@@
yín
ún
jẹ
su@@
bíi
lẹ́yìn
pre@@
alá@@
lé@@
lò
us@@
day
u
ine
dùn
other
10
jáde
way
be@@
12
orílẹ̀
even
kú
qu@@
ibi
than
U@@
no
Ohun
mo@@
ally
if
ak@@
ọ
nú
work
mu
love
en
its
ity
11
ta
ment
Witnesses
there
ṣẹlẹ̀
nì
ṣeé
ul@@
ded
lójú
Báwo
se
Ìwé
Tó
Ẹ
Wọ́n
1@@
mí
man
14
kà
When
di@@
kí@@
se@@
orí
ary
things
àmọ́
Pọ́ọ̀lù
àkókò
kún
id@@
p
tí@@
should
ka
ar
torí
said
no@@
make
king
ter
could
does
làwọn
wọ́
ant
ful
gbọ́dọ̀
red
àt@@
/
ìr@@
ìjọ
àk@@
est
years
lí@@
ù@@
dí@@
fi@@
she
ju
13
de
ev@@
z@@
ch@@
into
ará
4@@
gẹ́gẹ́
ous
Christian
te
rí@@
others
ronú
Ṣ@@
dá@@
says
But
pl@@
Mo
which
ho@@
first
Bó
ci@@
Paul
pres@@
ìlú
fí@@
rò
om@@
Ọ@@
ńlá
kúrò
They
Kristi
world
kàn
over
padà
ra@@
lọ́kàn
tiẹ̀
these
mìíràn
ings
ràn
ning
For
jà
This
children
If
Á@@
jì
ations
báyìí
oun@@
sá@@
Christians
des@@
ìṣòro
ṣì
Ìjọba
need
ding
tọ́
òbí
•
Kò
túbọ̀
èrò
ty
per@@
àá@@
ẹ̀kọ́
ìgb@@
17
V@@
àwa
family
bi
only
me@@
ìdílé
lọ́nà
earth
Kingdom
títí
ob@@
tri@@
nífẹ̀ẹ́
Why
like
ọkùnrin
then
because
As
fara
dì
spirit
te@@
káwọn
come
ẹnì
ear@@
ther
Ọ̀rọ̀
ib@@
ite
mímọ́
16
co@@
Ṣé
example
nà
là
ay@@
ènìyàn
pri@@
ńṣe
made
ṣè@@
em@@
com@@
ìgbàgbọ́
ure
ń@@
faith
ver@@
Ò@@
ies
ying
19@@
nìyẹn
h
Nítorí
O
Ísírẹ́lì
ons
fáwọn
own
olù@@
You
cl@@
gr@@
5@@
tions
being
ha@@
comm@@
méjì
ou@@
ká@@
19
Ọ̀@@
18
kù
wàásù
mis@@
well
láàárín
kẹ́kọ̀ọ́
20
yàn
vi@@
pẹ́
ang@@
spiritual
take
ìgbésí
see
ni@@
end
ṣẹ́
must
ìd@@
ness
just
wé
pe@@
used
ten@@
know
times
nìkan
6@@
rọ̀
Christ
túmọ̀
òtítọ́
ely
já@@
ìdí
obìnrin
ah
ṣiṣẹ́
ks
tu@@
ọ̀kan
jọ́
congregation
ge
yí
Tí
ves
dára
si@@
dúró
ones
ess@@
bo@@
Ǹjẹ́
ǹ@@
ating
very
ce
tì
díẹ̀
án
Lá@@
sin
ati@@
yà
lẹ́nu
ìsìn
È@@
any
ìy@@
ẹ̀yìn
owó
sion
orúkọ
rìn
tilẹ̀
ṣà@@
S
to@@
èmi
g
der
tẹ̀mí
ep@@
tán
use
heart
ran
res@@
war@@
after
dec@@
true
tẹ́@@
ect
become
rin
man@@
most
ọ̀ràn
words
Mímọ́
car@@
parents
rec@@
el
yé
pe
als
ast@@
min@@
dáadáa
ọ̀
ipò
wọ̀nyí
ọ̀run
now
sìn
give
22
men
Ń
sínú
kó@@
ìp@@
níbẹ̀
gu@@
nìdí
N
Lẹ́yìn
before
pè
ish
fin@@
he@@
go@@
am
cre@@
sed
ess
x
death
c
àì@@
ill@@
24
Ẹ̀@@
cho@@
two
bá@@
bí@@
ètò
E
21
bà
ents
yè
oló@@
Èyí
fà
ìt@@
might
agbára
sin@@
án@@
lá
ad
new
In@@
gbé@@
tẹ́lẹ̀
That
àà@@
mọ́@@
where
ther@@
dájú
*
ọkọ
ked
kejì
ned
tó@@
ever
wọ̀n
ìmọ̀
kéèyàn
ne@@
w
tòótọ́
John
har@@
ru@@
much
And
ice
tly
Ṣe
ìwọ
ay
sh@@
ọwọ́
ṣẹ
láì@@
Th@@
so@@
omi
ìlànà
po@@
An@@
found
yá
go
ye
jí@@
ọ̀rẹ́
name
ba
ù
feel
Ch@@
sur@@
Ẹ@@
mar@@
7@@
tive
ìdá@@
ẹ̀dá
gi@@
another
bọ̀
and@@
ality
pinnu
each
úr@@
kẹ́@@
oúnjẹ
through
young
ìjọba
ogun
truth
Re@@
ited
we@@
jo@@
béèrè
person
yọ
inter@@
get
self
Word
sẹ̀
dé@@
ast
òfin
av@@
find
pp@@
Nínú
síbẹ̀
ìn@@
ory
níbi
gbọ́n
ws
enti@@
Sátánì
though
ùn@@
Dáfídì
vis@@
Mar@@
Í@@
Torí
2@@
der@@
ent@@
ìròyìn
ry
ch
pò
láwọn
wor@@
led
act
do@@
sàn
study
gun
et
Al@@
ach
pá
To
told
Ọ̀pọ̀
fa
However
ion
Be@@
great
part
One
ṣàlàyé
àp@@
ing@@
exp@@
kọ́kọ́
gbó@@
sún
ily
ai@@
um@@
ìw@@
ide
Do
ṣùgbọ́n
acc@@
gbàdúrà
fully
23
rárá
lì
ẹ̀rí
fac@@
bl@@
ic
human
David
book
wọ̀
serve
say
reg@@
run
ei@@
ọgbọ́n
read
ikú
ìbéèrè
keep
So
brothers
ẹ̀ṣẹ̀
ement
mọ@@
today
,000
ght
dó@@
lú
wù
ard
ates
25
hi@@
ga
right
dáa
mẹ́@@
ná
os@@
apostle
dre@@
ze
place
kankan
ún@@
tuntun
against
mú@@
less
aff@@
son
himself
òótọ́
end@@
ọba
home
ain
learn
pàápàá
ẹlẹ́@@
ref@@
Ní@@
year
kọjá
àní
lágbára
cen@@
same
ke@@
fúnra
rántí
00
ín
ali@@
word
▪
never
Gbogbo
les
òní
Máa
ps
Some
tíì
tic@@
ya
ia
Ọba
àǹfààní
ember
ọkọ̀
oo@@
àṣẹ
Ọmọ
often
nílò
ore
áà
x@@
over@@
yàtọ̀
lic@@
ved
ently
ple
why
ven@@
af@@
kọ̀wé
ected
form@@
show
long
rem@@
àr@@
sel@@
sáwọn
já
Síbẹ̀
aláì@@
àn@@
course
ìtàn
sábà
ìwàásù
wàá
àpọ́sítélì
important
r
means
Sí@@
ere
cont@@
ṣe@@
At
ẹgbẹ́
mí@@
ving
du@@
ìránṣẹ́
faithful
wí
too
gbẹ́
appro@@
ìn
yọ̀
wrote
è
aw@@
clo@@
téèyàn
gl@@
After
ìj@@
200@@
só@@
30
Í
emp@@
ké@@
ojú@@
ris@@
bàa
out@@
apá
zed
view
ran@@
ake
Jòhánù
tre@@
kú@@
ge@@
set
live
want
balẹ̀
wó
tá@@
ren@@
É@@
tru@@
worship
arákùnrin
ẹ̀sìn
ish@@
.@@
28
Tá
fa@@
ọlọ́@@
eré
bù
olóòótọ́
látinú
Lọ́@@
mind
ṣáájú
mer@@
sec@@
became
darí
bójú
ages
our@@
came
Israel
kùn
put
ministry
every
aya
the@@
àmì
ties
pas@@
dọ́@@
láyé
ron@@
sub@@
ig@@
ass@@
let
No@@
old
kọ̀ọ̀kan
má@@
gbádùn
Ló@@
wise
ọ̀dọ́
ors
Róòmù
Go@@
wife
Is
Pétérù
àrùn
encour@@
kọ́@@
bóyá
la@@
bẹ
Peter
kedere
Ìdí
jú@@
mẹ́ta
New
lọ́dún
ection
fe@@
wọ́@@
ished
days
ver
àdúrà
tiv@@
lóye
0
There
res
cour@@
Sáàmù
tọ̀@@
rán
gro@@
kọ@@
ut@@
expres@@
down
rọrùn
ase
àyà
yìn
back
od
hope
táa
news
land
inv@@
away
pí@@
Father
under
bà@@
ko
ẹnu
later
rel@@
Ká
èrè
ìhìn
tic
fojú
upon
dàgbà
Júù
aṣáájú
began
ans
dè
during
By
Con@@
still
tù
app@@
doing
Ṣùgbọ́n
tim@@
among
called
ss
direc@@
ens
sho@@
parí
sùn
Satan
àkọ́kọ́
ìyàwó
ways
ìjọsìn
knowledge
gh@@
bìnrin
sapá
ph@@
ects
ered
given
preaching
holy
sure
ened
fir@@
wí@@
óò
ants
Ẹni
tur@@
ayọ̀
bàbá
àjọṣe
ṣòro
bẹ̀rù
8@@
mù
ìyà
rú
cri@@
sórí
while
On
ìb@@
gave
coun@@
tẹ́
fore@@
òr@@
ọ̀r@@
bu@@
hùwà
three
púpọ̀
kẹ@@
uni@@
òdodo
however
ìf@@
vers@@
sọ́nà
power
tà
burú
Psalm
orí@@
bel@@
26
ial
ṣí@@
rà
199@@
Li@@
ìpàdé
disciples
Inú
marriage
Ilé
lát@@
living
wá@@
wáyé
Mósè
atten@@
service
With
Scriptures
ular
My
wọ
dly
pris@@
kun
Many
pur@@
gre@@
lẹ́kọ̀ọ́
ill
,@@
ture
She
century
Pro@@
felt
themselves
Bá
lọ́jọ́
pàdé
ìbá@@
fact
kù@@
sy@@
see@@
ship
Matthew
making
Our
bẹ̀
tẹ
àá
ìgbéyàwó
láé
re
cor@@
29
au@@
méjèèjì
eas@@
ist
Mátíù
alàgbà
31
ious
without
ist@@
mi@@
tà@@
ual
ough
27
sing
kẹ́
always
ọn
tì@@
loving
iah
His
father
rùn
da
gbí@@
early
òkè
láyọ̀
àpilẹ̀kọ
hon@@
conf@@
ative
consider
ments
ṣọ́
yọrí
took
lórílẹ̀
ẹsẹ
àlàáfíà
gbára
happ@@
peace
bo
ṣàkóso
òjíṣẹ́
gbè@@
3@@
kọ̀
Fi
ró
King
look
òye
both
tical
síwájú
ow@@
Ar@@
og@@
reas@@
bọ́
ust
Má@@
ṣíṣe
Láti
débi
yan
mil@@
33
stri@@
emb@@
ár@@
think
appreci@@
wn
lar@@
àárín
dáhùn
ṣù
àṣà
humans
od@@
order
àn
est@@
house
mother
nu
personal
ee@@
Irú
den
ré@@
asked
fellow
full
nílẹ̀
Kódà
something
bù@@
So@@
àìsàn
comple@@
child
kékeré
Then
wh@@
pu@@
ire
kọ̀@@
els
ters
lónìí
fo@@
whom
nípasẹ̀
side
hand
ef
jò
respon@@
por@@
face
ẹlòmíràn
thing
nìṣó
Yet
láàyè
ìkì
possible
iye
sẹ́@@
9@@
àgùntàn
really
pèsè
àg@@
ìpinnu
br@@
ìmọ̀ràn
jíròrò
ẹsẹ̀
servants
ble
burúkú
mọ̀@@
iwájú
ọ́n
Amẹ́ríkà
tain@@
reason
Òwe
Oní@@
fúnni
concer@@
mor@@
Yes
gbá@@
ask
gùn
Read
consid@@
àsọtẹ́lẹ̀
wal@@
off@@
rù
tò
ṣá@@
àjò
sẹ́yìn
ests
sig@@
ns
Sànmánì
between
inc@@
ser@@
Hébérù
àj@@
Ka
Ne@@
hù
ìyè
Even
yẹ̀
gbọ̀n
ences
ains
ously
Baba
láǹfààní
bò
rẹ́
loo@@
future
Jẹ́
igi
nment
ogún
kìíní
ìyá
together
Ni
prayer
point
prot@@
ths
pẹ@@
gí@@
ẹ́lì
wu
fied
ríà
woman
cro@@
wee@@
having
jẹ́@@
èr@@
gbàgbọ́
ud@@
Bákan
learned
àánú
Z@@
Nípa
Gẹ́gẹ́
mon@@
gbẹ́@@
tara
friends
tually
lọ́dọ̀
cul@@
nù
ward
ical
tting
ians
fọwọ́
Iṣẹ́
jinlẹ̀
ta@@
ọgọ́rùn
food
ṣẹ̀
Let
pátápátá
bre@@
repor@@
expl@@
tọ́@@
D
joy
helped
ef@@
san
il
ety
oṣù
jí
tẹ@@
ọ̀rúndún
ṣoṣo
toward
yí@@
Ìgbà
teach@@
perfect
Moses
experience
cy
ingly
religious
result
áwọn
outh
att@@
bó@@
ṣẹ̀ṣẹ̀
hard
ṣá
Ọ̀nà
little
20@@
questions
búburú
wing
À
happy
ìbí@@
aged
pos@@
Par@@
form
deli@@
Olù@@
dẹ́@@
city
T
purpose
ner
her@@
ani@@
ten
Lè
article
Mo@@
gar@@
No
loc@@
husband
bed
Kì
․
ṣí
relationship
Wo
few
spec@@
aráyé
ack
múra
chang@@
kítà
problems
nílé
mat@@
ature
ze@@
giving
meetings
All
sol@@
lábẹ́
onírúurú
all@@
pé@@
ility
cop@@
ìrètí
ke
àwòrán
known
care
kùnrin
194@@
From
lead@@
ain@@
Jerem@@
number
ces
under@@
Son
yá@@
dar@@
32
accep@@
bring
òróró
lim@@
best
kè
ọ́ọ̀@@
hear@@
died
St@@
ost
needed
low@@
close
fẹ́@@
someone
gbìyànjú
lóde
Aísáyà
yin
Ké@@
try
better
d’s
ẹrú
Ti@@
àgbà
discus@@
kọ́ni
Kí@@
lives
left
serving
àyè
déédéé
hum@@
sá
str@@
Èmi
òpin
Proverbs
ions
Un@@
again
hun
writ@@
cap@@
fic@@
pá@@
mọ́lẹ̀
kind
person@@
ké
dist@@
ibẹ̀
Bẹ́ẹ̀
yourself
ort
ained
These
comp@@
eli@@
lù
buil@@
50
served
gener@@
bi@@
descri@@
done
wicked
wisdom
assig@@
ir
Lo@@
moved
Per@@
tàn
ise
dìde
rul@@
Your
ẹ̀yà
Ẹ́@@
sọ́dọ̀
ong
sun
mò
matter
ọ̀tọ̀
ose
language
tal@@
mélòó
èyíkéyìí
sto@@
ṣé
ànímọ́
Ex@@
up@@
àgbègbè
different
ọmọdé
ìl@@
gover@@
nílùú
ọmọ@@
bé@@
heaven
Israelites
rú@@
áńgẹ́lì
ged
0@@
ind
light
present
aining
id
hold
share
ms
èyàn
bur@@
Ab@@
Jerúsálẹ́mù
Jerusalem
wádìí
dem@@
less@@
gún
nor@@
associ@@
following
counsel
òk@@
àlùfáà
sal@@
thy
rá@@
mà
water
bro@@
ẹ̀jẹ̀
lọ́rùn
retí
cer@@
ohunkóhun
understand
righteous
sè
adà
fru@@
sù
yed
ould
bad
last
tọ́jú
message
cha@@
continue
ani
rọ
Isaiah
odò
went
support
women
àpèjúwe
certain
eyes
exc@@
dition
using
ell@@
pleas@@
kókó
eful
gen@@
spe@@
school
milli@@
rep@@
fe
off
De@@
tètè
ately
aj@@
Ńṣe
Òfin
ses
going
mankind
lóòótọ́
àl@@
feelings
determin@@
believe
likely
ann@@
vic@@
35
hìn
transl@@
prin@@
ca@@
báwo
prac@@
kìlọ̀
vo@@
ìpẹ́
ined
anointed
body
ìkẹ́kọ̀ọ́
bẹ̀@@
cannot
gbò@@
ẹlòmíì
jọ@@
plac@@
Com@@
Arákùnrin
Ìṣe
ening
roo@@
thers
serv@@
ourselves
àlà
change
kíyè
ational
ìm@@
kàn@@
àdá@@
thought
fear
ave
supp@@
viol@@
Fí@@
desire
teaching
cou@@
states
f
ẹ̀ẹ́@@
ree
sinsìnyí
tes
Y
brother
enjoy
Jóòbù
rẹ́@@
lẹ́
Ìyẹn
Although
money
lógún
wọ@@
ipá
dic@@
ian
Because
ẹran
ace
ome
ẹ̀bùn
fy
40
situation
loy@@
kódà
az@@
reve@@
ste@@
shi@@
far
Ábúráhámù
answer
Kọ́ríńtì
ìlera
ans@@
rit@@
peri@@
ell
ines
’t
ed@@
R
cu@@
gbà@@
jẹ@@
heavenly
Mi
since
respect
rúkọ
As@@
sen@@
ath
baptized
ject
avoid
fífi
Lúùkù
Tímótì
col@@
ipa
head
sa@@
cr@@
37
bọ
received
Ká@@
ago
àrà
ẹgbẹ̀rún
gidi
ná@@
ancient
ọlá
dandan
Gb@@
soci@@
hor@@
star@@
Jud@@
speak
benefit
members
nor
Timothy
health
hab@@
ible
Má
reali@@
rais@@
Those
tọkọtaya
ọkàn@@
oko
mọ́ra
fine
concl@@
OR@@
gbàgbé
talk
ands
ood
reading
ond
ọmọlẹ́yìn
sense
ṣọ́ọ̀ṣì
elders
dom
tú
Ẹ̀kọ́
Fún
aṣọ
who@@
needs
lẹ́tà
ré
lówó
sọ@@
dep@@
lead
É
lic
Le@@
ilé@@
wòlíì
ach@@
ìrànlọ́wọ́
account
dìí
ced
dáàbò
Luke
nations
Ju@@
eng@@
saw
pẹ̀@@
àm@@
iness
En@@
dee@@
difficult
jọ́sìn
dín
rẹ@@
crip@@
learly
influ@@
Dí@@
bas@@
fẹ́ràn
ìrí@@
àtà
fò
Consider
ìbùkún
ẹnikẹ́ni
illustr@@
around
indic@@
born
seem@@
ears
cause
position
especially
ld
offer@@
knew
Wọn
hùn
níṣ@@
èso
34
law
attention
ulẹ̀
ọ̀dọ̀
prove
requi@@
thus
real
worl@@
beg@@
publ@@
pati@@
Olúwa
Wh@@
Who
turn
high
streng@@
answ@@
ering
produc@@
tice
Su@@
oòrùn
ìlérí
’@@
urch
case
fulfill@@
cal@@
Acts
pol@@
Lé@@
occ@@
ested
tan
òkú
yanjú
Ad@@
Ádámù
married
mẹ́rin
ìdájọ́
help@@
turned
arábìnrin
iná
oògùn
ìsì
Tí@@
ented
wanted
Thus
Ayé
Di@@
Gẹ̀ẹ́sì
ṣètò
Greek
sk@@
including
World
lóhùn
kéré
saying
system
thr@@
kẹ̀@@
next
principles
var@@
until
mean
ide@@
char@@
Àp@@
He@@
free
trust
iting
heav@@
mì
soon
èké
follow
wrong
James
pà@@
ick@@
kórìíra
Does
question
taking
thinking
receive
along
Já@@
Of
òkè@@
mọ̀ràn
kà@@
ably
kalẹ̀
ures
ental
brought
ọmọbìnrin
suffering
rin@@
fur@@
worshi@@
anger
sọ́@@
oned
rì
ident
yet
ọ́ra
benef@@
adi@@
tle
Yàtọ̀
attitude
earth@@
consci@@
kindness
dia
ùn
makes
Such
table
gá
tor
rèé
kẹyìn
conduct
ign
emo@@
kò@@
ping
dw@@
Can
ẹyẹ
ached
sókè
Since
succ@@
ass
ìjà
increas@@
dies
blood
provide
lands
ck
Jó@@
tion@@
ple@@
Jews
Kàkà
um
clear
Job
borí
tation
ges
nwò
òkun
nation
an’s
dead
Gíríìkì
tell@@
here
religion
ọ̀tá
night
Ìr@@
refl@@
kún@@
small
màá
ọ̀kẹ́
pín
arri@@
ound
che@@
kúṣe
moral
contr@@
tàwọn
eless
high@@
síbi
Are
poli@@
lò@@
tional
rely
san@@
ve@@
lẹ̀@@
ìran
let@@
taught
gra@@
mẹ́wàá
poss@@
followers
While
sílé
ẹgb@@
obedi@@
individuals
Law
ẹbọ
Corinthians
dín@@
orin
ularly
Á
guid@@
ẹ̀ẹ́
liter@@
don@@
Ẹlẹ́dàá
Abraham
doc@@
àti@@
beli@@
ty@@
bir@@
ìṣẹ̀lẹ̀
ability
ìgbà@@
tain
comman@@
sive
low
develop@@
prophet
kin@@
Ilẹ̀
sent
pray@@
ow
pray
war
den@@
ṣèlérí
fun@@
Adam
ually
gir@@
satis@@
teach
wọ̀nyẹn
ew@@
ora
Àpọ́sítélì
ring
strong
ak
group
àṣe@@
ger
tẹ́ńpìlì
Mà@@
st
taken
action
obe@@
ìí
ọmọkùnrin
seen
remain
tútù
sons
Bí@@
títọ́
hu@@
Watchtower
instruc@@
control
friend
whole
special
one@@
Ná@@
pípé
áyà
wọ̀n@@
ju@@
ṣègbọràn
pic@@
pan@@
dò
ẹẹ@@
yèsí
àgb@@
gives
lókun
z
pa@@
ut
ches
dípò
mission@@
àpéjọ
Be
nothing
whether
Èṣù
tered
wi@@
lọ́run
fá@@
dojú
tor@@
195@@
mọyì
tin@@
ṣèrìbọmi
Rather
ọrọ̀
àwùjọ
valu@@
Sólómọ́nì
dness
every@@
stu@@
reli@@
wit@@
involved
àw@@
mẹ́nu
vir@@
Sa@@
Romans
lies
occas@@
wa@@
adise
qualities
shar@@
matters
four
C.E
ẹ̀ka
Creator
responsib@@
ON@@
mentioned
kì@@
comes
pt
move
àbí
fẹ́rẹ̀ẹ́
atch
yọ̀@@
coming
illi@@
gọ́@@
àtún@@
kárí
On@@
incl@@
resul@@
IN@@
verse
sẹ
ga@@
dedic@@
àádọ́ta
Se@@
wonder@@
enjo@@
similar
identi@@
je
ìtẹ̀@@
ja
daugh@@
máà
works
conven@@
Ú
tẹ̀@@
physical
iled
appe@@
half
bọ́gbọ́n
márùn
spiritually
tọ̀
mọrírì
ah’s
Au@@
See
exerc@@
United
refer@@
listen@@
jud@@
yan@@
Ti
temple
Wor@@
you@@
heard
ude
Engl@@
àsọ@@
med
arrang@@
pi@@
lẹ́ẹ̀@@
loved
great@@
recogni@@
based
tell
ìdáhùn
stud@@
tẹ́wọ́
material
my@@
rọ́@@
invol@@
Ì
dr@@
fọkàn
ọ̀dọ́@@
tiwọn
fì
rìí
gbáyé
Is@@
vol@@
írí
Èdè
láà@@
méje
Íń@@
ọ̀hún
eff@@
bus@@
simply
ber@@
Ìṣípayá
wàhálà
ili@@
Jósẹ́fù
cam@@
yé@@
IN
ree@@
lákòókò
kíkún
nil@@
Orílẹ̀
AN@@
During
ive
ale
requ@@
tóun
dí
sl@@
míṣọ́nnárì
Revelation
mó@@
becom@@
onífẹ̀ẹ́
raise
page
inten@@
ǹfààní
látọ̀dọ̀
sm
ue
Joseph
mag@@
some@@
sílò
ìsọfúnni
hun@@
àkọsílẹ̀
ries
fl@@
mẹ́rìn@@
gó@@
According
everlasting
àb@@
pr@@
Bẹ́@@
kán@@
létí
claim@@
view@@
Far@@
Jos@@
once
fav@@
scho@@
jìnnà
hol@@
14@@
sisters
kòókò
local
Ìwọ
ful@@
May
resurrection
ource
ọ́ọ̀lù
interest
mánì
sing@@
ong@@
pers@@
òyìn
̣
dárí
Today
únibíni
shows
ọgbà
ough@@
Egy@@
GB@@
information
Not
tọ́ka
Tr@@
far@@
ọ̀sẹ̀
Níwọ̀n
wọlé
àádọ́@@
certainly
rest@@
Ú@@
stand
sacrifice
ism
Lord
ewu
mir@@
provid@@
tern@@
truly
báwọn
gg@@
Ìfẹ́
takes
ile@@
18@@
past
exam@@
Now
happiness
Íjíbítì
Kó@@
promise
dúpẹ́
Lát@@
ress
ìbálòpọ̀
úgb@@
aláṣẹ
Am@@
dùúgbò
false
ext
mee@@
strength
righteousness
Ger@@
bul@@
ìrò@@
work@@
àkó@@
qui@@
Mí@@
dy
sì@@
inspired
àfi@@
necess@@
àǹ@@
tipa
úróṣinṣin
ẹ̀rọ
ìtumọ̀
olórí
El@@
apostles
àṣ@@
ater
tures
neigh@@
n’t
minis@@
pin
àlàyé
temp@@
started
olùkọ́
mẹ́tà@@
posi@@
Gbọ̀ngàn
Bàbá
Me@@
large
gbó
ṣíà
circumstances
second
sun@@
lost
pẹ́@@
effort
Gre@@
trans@@
slave
Ser@@
tò@@
Sat@@
ṣiríṣi
àṣìṣe
sha@@
mp@@
ìpínlẹ̀
Ru@@
198@@
lived
ile
ìṣè@@
problem
pain
ẹranko
àgbàlagbà
judg@@
struc@@
ce@@
Jẹ́nẹ́sísì
alls
anim@@
rìn@@
boo@@
ign@@
evidence
tiwa
dínlógún
Hebrew
Ọ́@@
aging
lif@@
Genesis
are@@
ick
already
Ther@@
ders
leave
péré
serious
ògo
can@@
ìdí@@
kingdom
ord@@
ling
ẹ̀w@@
meaning
educ@@
olog@@
abo@@
sight
wid@@
ply
Éf@@
dù
yebíye
near
da@@
Láì@@
uses
Sh@@
àní@@
jókòó
includ@@
Solomon
gbá
advan@@
Ojú
ìtọ́ni
People
comfort
pọ@@
efforts
country
Lọ
Like
accept
according
Sim@@
Bá@@
common
ys
ol
standards
Devil
public
unity
ǹda
òde
thous@@
ẹ́ẹ̀tì
Ọdún
return
Jú@@
mẹ́fà
ins
understanding
gbẹ́kẹ̀
lélẹ̀
provided
ìrẹ̀lẹ̀
lu@@
baba
Alá@@
ever@@
sever@@
Rere
Lóòótọ́
fles@@
tóbi
Daniel
lear@@
10@@
ective
older
òp@@
ìgbé@@
allow
●
Afri@@
ìírí
named
sister
ìṣà
actions
Phili@@
THE
níwájú
anyone
Ó@@
Ge@@
kojú
ẹ̀yin
ech
òǹ@@
sex@@
ped
Ò
rule
magaz@@
àtijọ́
reason@@
duc@@
divine
clean
ided
earch
psal@@
kept
prop@@
ayed
197@@
pọ̀lọpọ̀
tivity
bú
káàkiri
ẹ̀yìn@@
àwọ̀
fetí
believers
ack@@
àbá@@
àrí@@
aving
arly
ìyanu
destro@@
úrò
sugg@@
showed
dó
óò@@
ọ̀gá
wúlò
cy@@
rather
challeng@@
feel@@
Párádísè
written
emor@@
Àwa
ought
kee@@
working
Ẹ̀mí
ital
ous@@
gift
proved
enem@@
sọ́kàn
ls
Bro@@
tries
60
chap@@
longer
nu@@
Mess@@
prayers
alábòójútó
Still
perhaps
Sámú@@
táá
effect
recor@@
held
míràn
fu@@
play
travel@@
mu@@
kiri
hom@@
offic@@
An
line
forever
public@@
ken
akẹ́kọ̀ọ́
posed
Bo@@
38
vered
Chris@@
dra@@
even@@
Will
ohùn
Nóà
appear@@
York
kúlùkù
pop@@
bínú
appointed
allow@@
aṣ@@
àìnípẹ̀kun
beau@@
Èèyàn
loyal
bran@@
Ta
assu@@
Mic@@
got
olú@@
godly
jọ̀@@
regarding
Gí@@
mit@@
Ìgb@@
stan@@
months
sùúrù
Òótọ́
speaking
gbo
history
ránṣẹ́
sacrific@@
ours
ements
Wa
áa
anything
Instead
fun
ẹ́gun
promises
Sep@@
doubt
ext@@
ities
ṣàyẹ̀wò
pọn
congregations
síra
Paul’s
itation
ǹjẹ́
Their
òṣìṣẹ́
deep
drin@@
imitate
die
greater
justice
Christ’s
willing
óòpù
gain
jáwọ́
AR@@
ount
origin@@
meeting
gidigidi
Eli@@
bẹ́
bọ̀wọ̀
yòókù
tirẹ̀
èwé
sìkò
sheep
prepar@@
powerful
tors
39
confidence
within
inf@@
bára
Ọjọ́
ṣègbéyàwó
gbangba
value
Jewish
Mary
grap@@
bor@@
Can@@
ffer
poin@@
imp@@
onímọ̀
head@@
read@@
há@@
opportunity
natur@@
Kó
jẹ̀mú
therefore
authority
ton@@
mà@@
Babyl@@
Òun
pioneer
hel@@
Mèsáyà
jàǹfààní
rest
medic@@
méjì@@
lásán
area
blessings
olódodo
heal@@
prophecy
new@@
continued
Qu@@
contribu@@
Eph@@
ẹrù
than@@
Indeed
ìwádìí
ongo
Pe@@
lied
wákàtí
decision
accompl@@
unic@@
tán@@
aled
ites
helps
mítà
aid
standing
àgọ́
rug@@
compani@@
yòówù
dè@@
promis@@
kára
remember
Lu@@
privilege
ye@@
irst
36
sions
demonstr@@
ilities
Èlí@@
ele@@
mù@@
ru
vely
Ọ̀kan
àṣàrò
spoke
success@@
ọgọ́@@
ery
Dec@@
ìtọ́jú
ìṣe@@
àgbàyanu
ìtara
sle@@
mọ́kàn@@
val
lier
ńlá@@
ground
ṣò@@
everything
ays
hur@@
fín@@
States
Àpẹẹrẹ
moder@@
ọ̀n
zing
apọ̀
experienced
care@@
sequ@@
ọtí
building
witness
àyíká
alone
ists
soul
eep
def@@
stated
believ@@
dán
níyànjú
fic
men@@
overse@@
bri@@
erous
Nǹkan
prof@@
Fa@@
medi@@
Witness
Jé@@
sáàmù
Hence
activities
advice
harmon@@
relati@@
blessing
Fe@@
Roman
yẹra
establ@@
H
explained
ord
Sam@@
Jo@@
tòsí
spo@@
lédè
aying
kòkòrò
decisions
Car@@
ànújẹ́
tọkàntọkàn
onítọ̀hún
anx@@
mílíọ̀nù
àjíǹde
hands
B.C.E
Bar@@
ṣèrànwọ́
apply
Bábílónì
thoughts
bes
won@@
Jákọ́bù
ró@@
iti@@
bú@@
àdánù
ìgboyà
issue
mate
ìrìn
gri@@
famil@@
proc@@
draw
múlẹ̀
I’@@
ligh@@
ook
Ẹ́
instance
percent
Jan@@
sim@@
Je@@
devo@@
organization
pages
leg@@
ÀWỌN
Hebrews
asp@@
ìtọ́@@
vital
ched
listen
role
dri@@
Lọ́dún
progre@@
examples
gọ̀
Dájúdájú
nì@@
òmìnira
Samuel
preci@@
ro
maintain
tou@@
gbẹ̀rún
bì@@
Hi@@
field
Did
seem
Catho@@
Ìṣọ́
ghty
hear
Eu@@
hearts
vision
ọ́njú
Bible’s
events
Éfà
hou@@
èé@@
shall
Ọ́
Rẹ
Co@@
onom@@
offer
rich
persecu@@
Mark
M
mọ̀wé
friend@@
shepher@@
ther’s
Ọ
Dáníẹ́lì
lójoojúmọ́
wú
practic@@
gẹ́@@
students
deal@@
stat@@
ìṣàkóso
stitu@@
tro@@
Scriptural
sán
foc@@
Pẹ̀@@
L
True
sti@@
integr@@
ẹ̀wọ̀n
Lára
tan@@
partic@@
deser@@
avail@@
èrò@@
discipl@@
kno@@
perf@@
call@@
Kọ́@@
bapti@@
wọ̀@@
alẹ̀
pàá
ff@@
tumọ̀
wà@@
sid@@
yẹ̀wò
log@@
ame
era
kan@@
resp@@
èé
èè@@
ade
bọ́@@
ìí@@
ètí
continu@@
sci@@
fill@@
ul
ọ̀l@@
esp@@
Bib@@
ep
pasẹ̀
cle@@
jẹ̀@@
fee@@
tem@@
atch@@
Ù
Ń@@
ìṣe
fam@@
t’s
chil@@
lis@@
va@@
ur
fore
úù@@
differ@@
vid@@
ẹ̀lẹ̀
devel@@
umb@@
deed
righ@@
ṣi
yọ@@
pione@@
ẹ́kọ̀ọ́
Dá@@
dev@@
prophe@@
aching
ìbọmi
ome@@
wájú
aking
ends
efore
ft
Mat@@
ríkà
rọ@@
langu@@
v
TH@@
ower
gbègbè
C
bless@@
evil
nei@@
jọsìn
òrò
wú@@
àtọ̀
jíǹde
ọràn
chall@@
organi@@
faith@@
resurrec@@
sac@@
know@@
ẹ̀r@@
dún
fin
stand@@
–
ará@@
Israel@@
stru@@
experi@@
lú@@
àkọ@@
follow@@
ánì
ames
tú@@
fún@@
iri
enly
nìí
mé@@
spir@@
jọba
ṣin
haps
tun
ready
lù@@
ath@@
ọ́n@@
sm@@
ńg@@
ith
ọ̀wọ̀
yì
ọk@@
ìrán@@
G
dù@@
Ph@@
div@@
rín
F
val@@
ustr@@
òó@@
ult
reat@@
W
bs
circ@@
nesses
hist@@
individ@@
gh
suffer@@
itate
your@@
ùjọ
Ará@@
main@@
yìn@@
V
ìpín@@
ọ́kọ́
J
Dav@@
òrùn
aláb@@
sou@@
pú@@
joojúmọ́
Christi@@
dọ́
ecu@@
dì@@
fẹ̀ẹ́
árá@@
will@@
yè@@
00@@
author@@
000
anci@@
búr@@
kòó@@
uring
itu@@
quali@@
youn@@
únjẹ
ese
sul@@
import@@
té@@
ayá
kọ́bù
òṣ@@
ṣinṣin
Sá@@
dúrà
jìn@@
sue
·@@
grou@@
Mos@@
sting
untun
ìyàn
thor@@
tak@@
Ù@@
respons@@
jútó
Jò@@
ards
avo@@
ques@@
árá
situ@@
ilẹ̀kọ
mater@@
dọ̀
sis@@
ness@@
recei@@
àkà
méj@@
selves
ples
kór@@
mìnira
phys@@
jọ́@@
The@@
ànlọ́wọ́
dren
àjọ@@
cent
pátá
Tim@@
To@@
disci@@
stead
she@@
ll
fù
mean@@
ànà
oyà
ẹ́g@@
priv@@
úgbò
doub@@
Tru@@
arr@@
□
privile@@
pow@@
U
conduc@@
Ac@@
júdájú
lasting
fol@@
appoin@@
anted
fel@@
husb@@
prob@@
Do@@
ín@@
K
lood
Jẹ́@@
ẹ́sí@@
gbọràn
ather
Gen@@
opport@@
lik@@
fai@@
religi@@
zation
àtàkì
È
lérí
gàn
dú@@
wis@@
ẹlẹ̀
onal
kẹ̀
òrán
ìnira
gbéyàwó
Joh@@
mìí@@
ájú
ọ́ọ̀ṣì
any@@
ousness
prophec@@
P
diffic@@
wic@@
Hé@@
rẹ̀ẹ́
knowled@@
tánì
ìíní
ʹ@@
B
eve
Jer@@
divid@@
ffic@@
bùn
apost@@
ew
àáfíà
ànwọ́
tural
contro@@
àyí@@
le’s
long@@
ẹ́ẹ̀@@
sír@@
wed
pose
nìyàn
akes
trav@@
àlù@@
hó@@
sìn@@
pè@@
©
àpé@@
isters
àbá
yes
cus@@
sion@@
ano@@
uch
yàwó
Ǹ@@
Cor@@
lùú
Gírí@@
compl@@
yẹ̀@@
ially
adv@@
enced
payá
mess@@
rúurú
wish
ich
ked@@
èyí@@
àgbà@@
spiritu@@
human@@
cc@@
regar@@
ys@@
kòó
Acc@@
jin@@
aught
jíṣẹ́
rit
apti@@
eld
augh@@
inst@@
numb@@
with@@
jus@@
ost@@
Abraha@@
líọ̀nù
spi@@
ilẹ̀@@
nam@@
Josep@@
ven
nee@@
tow@@
ü@@
relation@@
jẹ̀
whe@@
òlíì
Pé@@
árì
inform@@
ùntàn
titu@@
sáyà
h’s
àkì
Tho@@
Jèhó@@
jó@@
simil@@
Jeho@@
Bec@@
◆
ìṣẹ́
Sin@@
$
sla@@
La@@
exer@@
àìní@@
Mó@@
yẹ@@
fri@@
úró@@
mọkùnrin
àbò
ale@@
ọ̀n@@
Af@@
óró
attitu@@
X@@
greg@@
Scrip@@
angu@@
ìyànjú
wom@@
ṣèr@@
⁠
angba
circum@@
gy@@
org@@
orig@@
proph@@
esus
thin@@
evel@@
uel
ffer@@
Só@@
Corin@@
ńgẹ́lì
àkóso
ọ̀ngàn
gbè
fal@@
ètè
abl@@
ọ́dọ̀
oh@@
ã@@
dodo
led@@
èy@@
erful
hal@@
Solom@@
yì@@
síté@@
tẹ́ń@@
yl@@
Paul@@
lòpọ̀
àmù
Dani@@
æ@@
júwe
fáà
nec@@
rílẹ̀
termin@@
hù@@
certain@@
keré
Pa@@
àyé
júmọ́
pher@@
Olú@@
dúr@@
ben@@
marri@@
ṣo@@
ö@@
dou@@
Q@@
embers
of@@
port@@
Ábúrá@@
Yor@@
ògùn
Aí@@
flu@@
pẹ̀kun
Rom@@
tings
ọtaya
Ẹlẹ́@@
fíà
atis@@
ey
úkọ
nikẹ́ni
individu@@
ẹ́yìn
ainst
aba
yanu
forts
urú
atur@@
árádísè
ʹ
àpè@@
stances
decis@@
Psal@@
ñ@@
kọ̀ọ́
irc@@
tọ̀hún
Abra@@
jíǹ@@
ìsọ@@
àgbàl@@
òkòrò
ọt@@
|
újẹ́
—@@
idi
ỌN
fort
ÀW@@
tè
pù
ava@@
kẹ́ni
how@@
til
reng@@
though@@
Isai@@
ô@@
̀
Sol@@
ause
rán@@
ánù
inted
Sàn@@
Bab@@
tọkàn
óà
aim@@
ibí@@
contin@@
%
Gree@@
ìṣó
&
Jerus@@
ńtì
òójútó
tẹni
X
sù@@
tower
ogni@@
congreg@@
kóhun
hálà
till
kàtí
Kris@@
ṣir@@
◯
Ìṣí@@
them@@
usb@@
ou
úndún
ç@@
ìíra
àásù
°
ẹn
Jè@@
Creat@@
tury
lit@@
innu
tọkàn@@
ṣo
q
Watch@@
nrin
ẹẹrẹ
ä@@
ł@@
Wit@@
stem
Consid@@
ṣọ́nnárì
ira
níy@@
bélì
rong
andan
urrec@@
pub@@
him@@
ṣin@@
How@@
❑
pátá@@
ciples
anu
Timo@@
adáa
mọ́nì
ranko
ọmi
agbà
dàá
ween
✔
bec@@
>
spired
pìlì
tegr@@
idence
úrù
unkóhun
sel
verbs
○
Matthe@@
tíù
édé@@
ê@@
demon@@
-@@
tivities
menti@@
Z
ople
ìlì
ticle
j
ë@@
ording
ẹ́ẹ̀
_@@
sai@@
Corinth@@
:@@
pàá@@
àṣà@@
→
fice
rírì
❖
lónì
ë
úkú
⇩
níẹ́lì
lòó
❏
Ádá@@
ṣọ́n@@
č@@
q@@
▸
ǹkan
àkiri
yòó@@
#
ròrò
esis
ṣ
kìl@@
ʼ@@
sálẹ́@@
B.@@
Š@@
kéyìí
↓
méjèè@@
fàà@@
contri@@
ה@@
â@@
■
ה
/@@
Mè@@
ʽ@@
òro
ā@@
ו@@
י@@
ọ̀nù
Q
rote
pọ̀l@@
­
◇
espec@@
®
bet@@
₦
←
lùkù
ś@@
õ@@
↑
̀@@
⇨
àdé
nẹ́sí@@
ł
Cath@@
Òó@@
š@@
ø@@
édéé
=
ū@@
òlí@@
ī
mótì
̆@@
righte@@
―
digidi
alem
tọk@@
ß@@
ş@@
̩@@
ă@@
hún
ľ@@
Ž@@
\
ę@@
Ã@@
ä
C.@@
̣@@
ý
£
ỵ@@
נ@@
▾
ànjú
ׁ
ש@@
פ@@
ã
î@@
ě@@
‛
sìnyí
−
rom
_
Kọ́rí@@
ï@@
óòmù
ìbù@@
àwó
а@@
å@@
ö
☞
ż@@
toge@@
Ş@@
ß
в@@
ï
ẹlò@@
hámù
⁄@@
ž@@
ē
ẹ́gẹ́
€
΄
æ
Ü@@
ý@@
nárì
ḿ
Bábí@@
⇧
Î@@
н@@
и@@
р@@
ą@@
п@@
ū
å
ē@@
Å@@
Ö@@
Ç@@
@
joo@@
Ł@@
Ô@@
י
ʼ
μ@@
Sóló@@
ā
÷
ţ@@
ő@@
̇@@
proble@@
ọpọ̀
ı@@
Ḥ@@
sítélì
Jòh@@
únibí@@
fààní
Ṣ
̗@@
̆
Jerú@@
Hebre@@
‘@@
<
α
Amẹ́@@
⁠@@
Ż@@
Revel@@
▴
ť@@
Č@@
ŭ@@
ě
ùnrin
ṇ@@
Ṭ@@
д@@
⁄
ō
Ä@@
Å
™
ź
¡
ć
â
ǒ
ī@@
û
ü
ř@@
̧@@
+
Ê@@
і
ǒ@@
і@@
м@@
ḥ@@
Б@@
ж@@
ю
м
х@@
є@@
ǐ
ů@@
с@@
о
и
о@@
т@@
е@@
◀
ĭ
sálẹ́mù
Ĉ@@
Lúù@@
Íjí@@
̃@@
;@@
ẹ̀rún
Gẹ̀ẹ́@@
ùgbọ́n
ỵ
ṇ
­@@
íṣi
ş
ạ@@
œ@@
Ísír@@
Isra@@
̃
×
ô
ʺ
bítì
Pété@@
Jóò@@
