<unk>
<pad>
<s>
</s>
.
,
ke
the
to
of
oro
and
“
”
a
:
emi
in
?
ye
mme
Jehovah
enye
that
owo
nnyịn
—
mmọ
ama
n̄kpọ
nte
-
is
Abasi
ini
Jesus
ed
for
Bible
edi
ing
se
his
we
on
​
esie
ete
was
s@@
be
with
Ke
as
I
an
t@@
not
you
he
es
are
mi
s
in@@
ik@@
idem
The
at
it
’
S@@
b@@
have
will
us
God
ẹma
or
mbon
;
1
en@@
kiet
m@@
A@@
is@@
our
utom
anam
i@@
d@@
do
u@@
c@@
by
from
p@@
n@@
M@@
man
E@@
re@@
)
(
eke
kpukpru
can
ak@@
onyụn̄
‘
their
who
an@@
Mme
e@@
es@@
r@@
w@@
f@@
they
esịt
ndinam
ikọ
l@@
ndien
g@@
er
ar@@
ọnọ
T@@
m̀mê
!
N@@
one
id@@
em@@
what
y
H@@
im@@
all
ẹs@@
ek@@
Christian
al
Enye
k@@
uwem
B@@
iso
this
it@@
2
C@@
un@@
had
a@@
were
at@@
er@@
I@@
spirit
What
akpanikọ
i
or@@
L@@
ers
P@@
him
ed@@
y@@
n̄k@@
God’s
ọdọhọ
as@@
o@@
ly
ọn̄
Edi
v@@
t
ana
ẹk@@
ib@@
ation
et@@
3
your
ediwak
them
ekeme
Paul
usụn̄
ad@@
en
ata
isua
am@@
e
Nso
In
O@@
people
on@@
Jehovah’s
enyene
ikp@@
about
al@@
my
ab@@
el@@
ọk@@
Nte
R@@
ima
ụk
o
’s
5
would
has
when
ofụri
ac@@
ate
ent
did
4
am
F@@
D@@
time
U@@
ob@@
h@@
Christ
eti
st@@
ẹnyụn̄
ok@@
6
How
nditọ
W@@
ọn̄ọ
th@@
ti@@
tr@@
aban̄a
life
n̄wed
isọn̄
ted
G@@
ibuot
ts
edi@@
but
so
n̄ko
imọ
ọk
ido
ot
may
op@@
esop
me
ns@@
those
enen̄ede
us@@
eb@@
K@@
ẹnọ
ntak
mb@@
He
akpan
fi
nd@@
ẹkp@@
en̄wen
ọ
]
[
ẹb@@
b
mbufo
7
8
ur@@
ẹnam
kpa
15
afo
edide
ufọk
her
ntre
et
ex@@
il@@
ada
nnọ
ebe
od@@
out
eme
ri@@
em
Ẹ@@
9
ẹd@@
ot@@
ag@@
om@@
A
more
akpa
Israel
inyụn̄
nt@@
di@@
how
able
fo
aha
an̄a
ẹy@@
ererimbot
for@@
akam
an̄
some
12
help
tion
ated
We
ndusụk
dis@@
also
otu
de
ap@@
ay@@
itie
good
z@@
ịm
10
ey@@
ere
le
utọ
fi@@
gr@@
such
ol@@
love
11
Ndi
ndi@@
been
up
ak
other
owụt
inọ
mm@@
ekp@@
Ntiense
uwụtn̄kpọ
way
ade
ine
It
op
many
esi@@
ting
obio
work
usen
edieke
ch@@
os@@
te
eka
ess
con@@
n
ọhọ
odu
ef@@
John
ec@@
Didie
David
nnyụn̄
ic@@
ve
inyene
even
no
than
Nnyịn
should
day
things
anamde
Mmọ
eken
13
ede
qu@@
odudu
does
When
d
u
Satan
Edieke
Witnesses
apostle
ẹdi@@
J@@
14
if@@
if
n̄kp@@
there
si@@
nsio
said
est
ud@@
sia
ut@@
enyịn
ndis@@
ally
akde
make
ous
inam
edinam
could
its
ẹt@@
el
se@@
ary
ubọk
ment
•
1@@
ẹdi
oyom
others
idi@@
k
ekedi
ev@@
Obio
ọ@@
etịn̄
eyen
su@@
ho@@
idụt
Christians
udọn̄
om
n̄wan
ifiọk
/
Ubọn̄
ence
pl@@
first
ọkọdọhọ
years
Ntak
into
Kingdom
idiọk
didie
ity
mî@@
17
ndida
she
Se
They
ẹban̄a
l
ẹkeme
pr@@
mma
c
earth
ance
ekikere
end
16
ebiet
own
world
end@@
For
Emi
ul@@
th
ọfiọk
which
n̄w@@
Peter
ning
ent@@
mban̄a
This
res@@
these
Why
ọn̄ọde
Ndi@@
faith
men
ia
ubon
ness
need
sp@@
ndib@@
heaven
age
Ikọ
idaha
But
oy@@
ẹ@@
ndik@@
ations
iti@@
ub@@
aka
ndidi
le@@
ẹnyene
20
m
come
19@@
As
over
Ọ@@
mbụk
If
made
par@@
ekọn̄
19
ẹsi@@
ce
4@@
Mb@@
example
because
ow@@
ter@@
ededi
ukpono
V@@
akan
spiritual
N̄wed
ah
ful
family
18
ndọ
like
ẹda
anade
ci@@
per@@
ufọn
edu
ẹkes@@
Psalm
only
ant
re
ings
congregation
okụt
nditọete
aba
ukpepn̄kpọ
ra@@
tutu
mbuọtidem
children
must
says
ou@@
ure
akp@@
efen
ụt
ọde
eyo
and@@
mîk@@
kp@@
ndid@@
Owo
ukara
h
being
ndit@@
nso
car@@
ntem
iba
iy@@
vi@@
6@@
ara
mmimọ
E
ọyọhọ
erede
ons
edem
etie
see
j@@
ves
str@@
ikọt
ies
koro
ely
item
You
ny@@
then
pre@@
Matthew
ones
take
ekededi
usem
know
uk@@
enyịn̄
Ẹk@@
mbono
enyenede
ro@@
cl@@
heart
over@@
ọwọrọ
well
ise
af@@
ọfọn
words
ụhọde
comm@@
uyo
king
true
used
ẹked@@
man@@
lo@@
ọn̄de
ep
mbet
ẹte
an̄ade
idi
5@@
emede
ita
sh@@
ẹnamde
akwa
nnam
Moses
idịghe
give
pri@@
ha@@
ass@@
use
An@@
ai@@
inemesịt
24
ụn̄
rem@@
n̄kpa
ar
S
just
Y@@
ds
ek
ay
inamde
wọrọ
mfịna
now
any
an̄w@@
g
21
become
edik@@
in̄wan̄
esịm
ish
very
22
Do
death
ndinyene
cr@@
ati@@
ẹkek@@
ufan
ọd@@
before
ating
nti
ying
ua
fr@@
emem
war@@
nn@@
p
att@@
ukem
ty
gu@@
ọb@@
nsinsi
That
ear@@
dr@@
ese
idiọkn̄kpọ
iban̄a
gi@@
eset
br@@
li@@
after
Ch@@
truth
x
andi@@
ukeme
Es@@
esịn
ep@@
udia
mfịn
odude
Jerusalem
Word
ain
name
might
ill@@
two
read
00
most
new
we@@
ge
enti@@
ndi
uduak
an̄wam
ake
ikeme
idahaemi
And
an̄@@
mil@@
Mma
ei@@
mbemiso
ịme
hi@@
akanam
*
ifi@@
cho@@
ene
ndikpep
ndin̄wam
Ete
rec@@
ẹka
okụk
brothers
times
pe@@
kpọt
ika
ist@@
O
tions
7@@
otde
ekere
ir@@
another
ates
bl@@
ụhọ
ọsọn̄
where
okp@@
ndinọ
Is@@
great
ality
Isaiah
through
ited
edisana
oyomde
amde
baptism
uf@@
Mar@@
Rome
much
23
ode
aw@@
ori@@
ndikụt
ọp
act
ind@@
Ndien
r
ement
To
Ntre
Th@@
ịbe
sion
ter
ect
amade
ịn̄
ịne
dec@@
etịn̄de
each
parents
ọtọn̄ọ
ekemede
etop
study
Kpa
asi@@
ast
akanamde
found
ndifiọk
ekedide
though
find
ans
asan̄autom
keep
Hebrew
ubọn̄
person
ekpep
ẹm@@
ụ@@
25
ehe
mbụme
ude
N̄k@@
me@@
opde
ver@@
ẹnen̄ede
today
inter@@
ukwọrọikọ
faithful
part
self
ite
ida
Pr@@
ndikp@@
ndin@@
30
ght
serve
himself
ịn
ẹfiọk
ụm
However
ịmde
word
son
ọkpọsọn̄
Job
Oro
red
feel
usi@@
Mbon
Ak@@
ch
against
har@@
Abraham
essed
Al@@
young
ami
cre@@
ph@@
show
One
Luke
en̄e
learn
adi@@
ish@@
wor@@
ẹnyenede
Ndusụk
etiede
pres@@
,000
ors
ow
ved
ịn@@
ibet
ently
human
arade
ẹn@@
ẹsịn
right
uy@@
ered
ew@@
als
ndomokiet
tive
edit@@
tly
abade
ents
und@@
get
wak
enyọn̄
utọn̄
okop
ther
Edi@@
edis@@
Sia
ing@@
page
erọn̄
iban
say
ifịk
Timothy
Ab@@
why
ving
ọbọ
inem
eny@@
ne@@
n̄ka
go
2@@
ministry
ue
means
obufa
bo@@
ẹdude
book
So
Ek@@
of@@
fe@@
est@@
place
worship
wrote
N̄kpọ
Adam
ọy@@
ndise
oto
enịm
ever
Nd@@
ikpe
des@@
ikpọ
ụkde
Ẹma
fac@@
never
ekpri
28
nneme
Z@@
Jew
ifụre
Ik@@
course
tie
enem
ẹkeb@@
temple
ẹdu
important
old
app@@
Ediwak
ori
Greek
obo
urua
home
ikpehe
En@@
same
ang@@
became
long
At
After
en̄ede
news
Father
led
came
ong@@
holy
adade
la@@
ze
preaching
view
ọm@@
n̄kan̄
mmọn̄
wife
unana
Utom
Ed@@
com@@
ked
do@@
imekeme
ember
N
ọnọde
omo
less
iny@@
let
upon
gh@@
ukpep
ẹdọhọ
osụk
lic@@
nyụn̄
ned
ndika
set
Mm@@
idomo
put
ily
comp@@
ear
fully
ịmede
zed
idotenyịn
ikpọn̄
out@@
too
ks
disciples
year
ished
ufọkn̄wed
in̄w@@
go@@
inen̄ede
uak
idụhe
edid@@
eri@@
Joseph
ịp
Some
gl@@
mind
hope
ntọn̄ọ
nditịn̄
our@@
Scriptures
told
min@@
aran
service
Re@@
udọn̄ọ
knowledge
eti@@
ways
days
ces
By
od
doing
co@@
ekem
abi@@
ọdọhọde
want
often
utịt
St@@
In@@
Eyen
ual
given
ry
sub@@
um@@
every
fin@@
ard
live
ov@@
contr@@
later
ọkke
under
angel
ọniọn̄
gave
ụp
les
ọfiọn̄
New
fiọk
nnennen
akpatre
began
ọkp@@
among
ages
ther@@
8@@
ory
power
back
ebuana
ea
ịk
bi@@
ọn
Afo
Solomon
ụn̄ọde
obot
uw@@
26
ndidu
ikemeke
ọs@@
ver
pro@@
There
away
mis@@
Im@@
ọn̄@@
down
mîdịghe
during
Ini
uko
de@@
Edidem
27
29
ẹdade
ach@@
ndịk
ẹkemede
land
an̄wan
emde
His
ẹf@@
loving
te@@
ikere
be@@
rel@@
ad
ist
Ar@@
ice
an̄wan̄a
ịghe
Kot
esinam
T
.@@
ẹw@@
idemesie
ikan̄
nsan̄a
As@@
Is
servants
ris@@
akabade
On
20@@
33
James
200@@
ibuotikọ
King
der
ụtde
utịp
yak
ea@@
called
century
Ntem
tu@@
making
Read
ship
ding
ewet
mbọm
ide
ewe
ments
Our
Kpukpru
ebi@@
31
ono
Genesis
Ekem
ẹdide
ọkde
eal@@
fo@@
Devil
felt
still
iere
tre@@
ell@@
ened
ekese
ifet
three
orụk
ord@@
peace
mar@@
however
Con@@
tic@@
gn@@
ourselves
ah@@
eto
etieti
fellow
mi@@
ọhọde
living
all@@
ọsọn̄ọ
Okposụkedi
sec@@
akke
Idem
pur@@
reg@@
With
took
ime
themselves
eli@@
consider
sin@@
ndutịm
n̄kpọ@@
while
ple
inv@@
ekerede
Ad@@
full
whom
Ata
house
3@@
9@@
un̄wam
humans
She
ọt
order
thr@@
utịbe
ition
ug@@
ande
iet
always
ck
kaban̄a
Tr@@
ibat
ening
40
ikie
wh@@
ndiwụt
,@@
bel@@
ẹnịm
rit@@
mbak
rep@@
ough
obode
cont@@
dem@@
ayanam
unam
ta@@
personal
ann@@
asked
fact
idatesịt
wọrọde
ẹyomde
prayer
father
ẹyom
vers@@
Yes
My
ded
ọdọn̄
asan̄a
ound@@
uwa
prov@@
okot
sy@@
ular
0@@
inịm
sel@@
look
Daniel
marriage
ende
ubi@@
eri
Egypt
nọ
ẹket@@
iw@@
rev@@
nda
Let
ali@@
joy
sur@@
Then
ath
eketịn̄de
ukp@@
N̄@@
enen̄erede
ests
hand
da
N̄ke
both
ẹwụt
face
reason
ask
Many
deli@@
ẹkụt
early
Sh@@
enọ
ụre
without
ọwọrọde
jec@@
ai
Yet
ously
ove
perfect
ess@@
M
ịbede
possible
uc@@
eyen@@
Samuel
n̄kan
afanikọn̄
appro@@
ended
Ọbọn̄
sin
ọri
no@@
Son
tical
x@@
wise
enowo
ences
ndinen̄ede
mf@@
something
Eve
think
meetings
uana
ref@@
Noah
ey
atde
mbon@@
emp@@
Israelites
aban̄ade
ekpere
learned
point
purpose
inyeneke
ndikere
Mary
ẹkenamde
toward
ative
future
ndif@@
esik@@
Ob@@
giving
happy
Ekeme
eg@@
ụn̄@@
together
uyen
ef
ndikop
iah
helped
ẹkop
Un@@
Bethel
edib@@
mbiowo
ụk@@
D
wicked
ture
akamba
afiak
husband
ands
emb@@
really
enyịme
mother
edidem
anointed
ced
Jeremiah
ọtọn̄ọde
bring
Messiah
res
inamke
Utu
mankind
Uf@@
ma
encourag@@
50
tim@@
woman
unen
serving
ekpepde
etịm
ekewet
distr@@
idiọk@@
righteous
counsel
having
enede
desi@@
Even
Per@@
ban̄a
Corinth
ibu@@
ndidi@@
Akpa
vis@@
pos@@
wisdom
edinen
ọrọ
ọdi@@
ward
ẹtịn̄de
por@@
expl@@
ingly
omke
ore
questions
lead@@
adan̄a
n̄kpri
Id@@
ọt@@
No
ven@@
Jud@@
Akp@@
itieutom
Babylon
relationship
gre@@
Ibet
ubiere
utị@@
owụtde
inua
side
inyenede
ering
between
All
ind
Saul
ubom
uny@@
rul@@
religious
conf@@
experience
idiọn̄ọ
asua
From
ubonowo
exp@@
Am@@
close
okodude
message
El@@
35
esis@@
esid@@
ẹken@@
Mark
Ima
in̄wam
32
mfọnmma
needed
ọkọdọhọde
eful
ẹny@@
result
ters
ature
city
oll@@
transl@@
language
û@@
ufọkabasi
otode
ndidọhọ
gar@@
form@@
mek
ụri
ains
ol
known
ndibi@@
left
Nt@@
present
person@@
ufen
abasi
ẹyak
again
share
thing
under@@
utu
kpep
brother
eyes
hold
int@@
elders
ern@@
̄
ety
discus@@
count@@
nsọn̄@@
esịne
199@@
heavenly
care
continue
baptized
tain@@
ach
child
tic
ong
done
ities
went
dev@@
ahade
ọkọnọde
ens
jo@@
ikemede
Wh@@
ndiọi
associ@@
offi@@
article
writ@@
odụk
okok@@
little
arawa
▪
ẹyetde
ẹkan
isan̄
light
37
teaching
eas@@
Uk@@
any@@
understand
hu@@
edumbet
tri@@
ẹto
pp@@
Em@@
n̄kpọkọbi
ebede
best
Be@@
mon@@
lives
udi@@
ikwọ
ẹbi@@
matter
Ami
ndausụn̄
ndikot
mod@@
ẹkotde
bad
Proverbs
desire
chang@@
spe@@
ọsọp
isụn̄utom
Man
Kere
ufọt
eyenete
ụh@@
gener@@
cer@@
ana@@
ose
ẹtịn̄
ari
idu
ani@@
last
Christ@@
certain
n̄kere
els
food
ures
bur@@
eng@@
inc@@
ọdiọn̄
au@@
ndiny@@
akakade
few
Judah
ided
pi@@
ịghi
esit@@
support
di
illustr@@
different
form
ner
tal@@
Apostle
ẹkpep
utuakibuot
uni@@
kind
ẹnọde
epde
34
fulfill@@
akade
try
ain@@
ap
sol@@
These
ell
Because
someone
benefit
oti@@
osio
fer@@
ancient
ible
Ọ
number
ntịn̄nnịm
fl@@
fine
Esịt
adan̄aemi
loy@@
ọdiọn̄ọ
acc@@
w
esịnede
direc@@
sure
ọf@@
AN@@
mbiet
moved
hard
less@@
Y
mbu@@
ears
nor
ged
ẹkey@@
utịn
emekeme
ack
ending
ten
Ama
fiak
cannot
nditịm
courage
ort
ets
Those
pris@@
United
ndisịn
received
ace
ọkpọn̄
ained
account
ẹkere
mag@@
the@@
Acts
az@@
prom@@
ịmke
fear
ndudue
ịm@@
ẹtọn̄ọ
better
nations
ined
Although
DE
kindness
yet
ụn̄de
he@@
enjoy
ẹn̄w@@
Your
ụn̄ọ
oku
saw
crip@@
194@@
Bar@@
Us@@
prọfet
pleas@@
ọn̄ke
believe
exc@@
ree
prophet
eh@@
law
anc@@
iyịp
going
speak
answer
friends
z
members
following
expr@@
Ih
supp@@
view@@
nditre
esịnde
Ns@@
etiene
teach@@
akada
sal@@
requ@@
nsịn
show@@
anyan
Jews
adv@@
knew
der@@
sense
oned
outh
ayak
ndinịm
edidiọn̄
R
def@@
lear@@
publ@@
thought
off
Ufọk@@
using
ject
lead
isi@@
Who
served
mîd@@
ond
nditiene
olo@@
fre@@
problems
mbub@@
wa
ukpụhọde
ẹdiọn̄ọ
cor@@
Law
wọ
ekenyenede
attitude
ead
prac@@
ines
ins@@
respect
ately
suf@@
ident
Ana
mfri
ntịn̄
den
know@@
ẹkesi@@
likely
fer
avoid
C.E
ented
far
Jacob
followers
ru@@
ct@@
amb@@
turned
indic@@
IN@@
born
receive
follow
situation
suffering
ound
peri@@
cap@@
emana
married
ị@@
nto
since
dep@@
reading
spec@@
saying
concl@@
ufọk@@
feelings
etre
ikop
Ib@@
case
gen@@
ave
ifan̄
Thus
ties
conv@@
difficult
ibọrọ
oli@@
obedi@@
thus
asan̄ade
brought
Philipp@@
eal
star@@
Ukara
mbre
change
died
on̄o
look@@
uọt
gn
yourself
trust
ns
Catholic
IK@@
Mbufo
system
ọhọke
iting
ọfọnde
nnyene
nny@@
isịn
idemmọ
needs
enyeneke
oppos@@
Consider
up@@
ekde
hon@@
progr@@
States
ually
eph@@
attention
nditie
Je@@
ants
du
aha@@
akes
yom
ndibọ
prove
until
beh@@
real
mean
ah’s
refl@@
plac@@
sons
ic
etienede
states
pray@@
ndu@@
Enyọn̄
oth@@
ọfọn̄
women
ekebe
mbuba
ẹwet
ẹtiene
ẹn̄wam
ested
ca@@
etde
ntiense
ths
mîn@@
ee
conduct
ached
trib@@
il
Ukpeme
Paradise
ndụn̄ọde
succ@@
inan̄
ukpọn̄
ukot
pray
’t
sio
H
mission@@
obụp
ubak
’@@
question
enn@@
turn
ọkwọrọ
wanted
to@@
tur@@
esị@@
ext@@
ised
ibọk
dedic@@
thinking
allow@@
ured
Ub@@
14@@
remain
Since
nam
ibi@@
liter@@
soon
ndidụk
oun@@
hab@@
tiene
imp@@
ution
idide
nation
utịn̄ikọ
esịtekọm
itiat
instruc@@
arri@@
ok
ukụt
pass@@
along
pression
reali@@
ath@@
nnịm
emke
especially
respon@@
ikot
iren
principles
around
gy
ẹkabade
ndiw@@
oted
iness
n̄kpọntịbe
taught
ps
omde
kere
money
f
fọn
wi@@
next
Ndit@@
happ@@
imm@@
Corinthians
Akwa
taking
lif@@
oke
Such
strong
os
individuals
Mic@@
Does
rely
teach
Int@@
idu@@
Yak
um
spiritually
dition
onal
mfụhọ
wrong
ọdu@@
pain
ẹkedi
clos@@
dead
wa@@
im
ements
ịt
Esie
Of
occ@@
ndisan̄a
Na@@
sent
ili@@
Ẹyak
Engl@@
satis@@
cause
eren
idan̄
0
Jon@@
world@@
ision
akpade
gives
mfọnido
nor@@
whole
cus
leta
ẹmade
idude
ẹkekp@@
aid
ụhe
assi@@
Ediyarade
resurrection
ser@@
free
poss@@
fav@@
everlasting
talk
Romans
10@@
mîkp@@
emeke
esisịt
makes
Nditọ
works
qualities
He@@
body
Rather
abarede
eben̄e
apostles
sacrifice
Kû@@
ride
including
Gospel
World
righteousness
sisters
rede
eless
cal
provide
Lord
concer@@
Elijah
195@@
refer@@
heard
proved
Joshua
coming
oss
nditọwọn̄
ust
ineme
clear
night
special
ches
verse
ẹkû@@
iketịbede
ably
water
ekpeme
dist@@
viol@@
matters
Are
un̄wọn̄ọ
Revelation
tor@@
okpon
ikan
religion
mbakara
Watchtower
Gilead
sa@@
false
ense
Ikp@@
anger
ọkọm
akpan@@
ekes@@
ẹfep
sk@@
char@@
ational
ful@@
tain
asu@@
small
ẹkedade
nditọ@@
mîkemeke
off@@
hol@@
list@@
nsu
mînyeneke
ularly
ope
eat
ẹwetde
EN@@
Koro
ebiere
eketịn̄
etịbe
While
mentioned
alf
ail@@
ịn̄de
lion
tiede
KE
Etie
ndikwọrọ
arrang@@
anana
action
ert
ọnke
otke
ans@@
ast@@
inspired
tre
Spirit
adianade
wit@@
ẹkedude
Mi
school
whether
thy
tle
idak
ens@@
kan̄a
shar@@
repor@@
high
obụkidem
ibio
enjoy@@
war
See
promise
ndikara
high@@
nothing
stand
slave
adu@@
expec@@
ikụt
Ukem
ON@@
akadade
stud@@
bir@@
en̄kpọ
great@@
ẹkenam
kingdom
loved
command@@
umb@@
beli@@
ability
ms
Rus@@
okoneyo
ost
ereke
comes
lands
ina
ẹfiak
cial
May
70
sc@@
proph@@
hour
OR@@
Fr@@
ẹmi
gned
pite
earing
cam@@
ọm
my@@
material
four
ọn̄ọke
cul@@
ẹse
daugh@@
strength
N̄kp@@
Can
cles
here
group
shows
ext
Gre@@
ill
moti@@
mbiba
n̄kukụre
ndima
iyomde
ụhọrede
ẹdọhọde
pati@@
identi@@
ut
ems
atch
omode
ẹkedide
consid@@
circumstances
Ephesus
affec@@
incl@@
similar
ekemmọ
mer@@
idade
happiness
sheep
essing
mor@@
invol@@
ide@@
Ruth
exam@@
ech
asian
io
Ex@@
certainly
edidi
Sim@@
odomo
ẹsis@@
imenyene
akama
meaning
vo@@
Gr@@
believers
truly
resul@@
ọnde
Matt
involved
bre@@
un̄wana
Creator
ather@@
Be
psalm
imitate
divine
ie
loyal
seen
ental
okos@@
ndisọn̄ọ
wal@@
ọkọb@@
understanding
ME
mfiọk
ling
blood
ẹtode
idik@@
Sam@@
taken
ekewetde
godly
temp@@
valu@@
claim@@
wide
magazine
E.N
Paul’s
ukpeme
Bo@@
38
ọtọkiet
sister
po@@
On@@
ewụhọ
produc@@
anam@@
reli@@
every@@
ndin̄w@@
protec@@
mde
ndiyom
mbiomo
poli@@
ẹdụk
govern@@
fied
ẹsio
prayers
lies
Lev@@
Ey@@
DI@@
emen
aidem
sight
mọ
ike
exerc@@
accept
sacrifi@@
usọp
Of@@
paradise
n̄kụt
sign@@
During
afai
ific@@
gift
second
ron@@
ọbọrọ
appointed
enem@@
lived
ịbi
Today
Christ’s
ịn̄@@
n̄kuk@@
uted
comfort
scho@@
Ido
based
Idi@@
60
mfọn@@
Da@@
etting
ọn@@
n̄kọri
return
unọ
interest
n̄kpep
fir@@
usọbọ
low
Like
rule
cour@@
wọrọke
oburobụt
prophecy
adaha
ndiy@@
ediomi
ped
persec@@
provid@@
congregations
showed
edidi@@
det@@
ẹkpọn̄
forever
cons@@
ES@@
baba
becom@@
Ps
asiakusụn̄
humb@@
deep@@
evidence
ekondo
kept
uforo
reas@@
ẹsọk
Ẹs@@
control
B.C.E
blessings
dem
Now
Eb@@
Ser@@
ọbọn̄
Wor@@
started
en̄wan
ntọt
wid@@
tell@@
pioneer
ood
ti
akan@@
overse@@
iyakke
don
36
okụtde
ukperedem
recogni@@
isio
displ@@
immor@@
written
effort
health
hor@@
Enyene
near
destr@@
privilege
once
n̄kọk
provided
iyom
Brọda
allow
amke
bus@@
Jewish
okposụkedi
shepher@@
duop
n̄kan@@
ẹkebede
ayed
travel@@
table
ekem@@
Not
iti
justice
conc@@
en̄erede
Ut@@
nsunsu
sing@@
lions
Ekp@@
anie
abian̄a
sil@@
ws
unity
Germany
includ@@
demonstr@@
tell
mmịn
oon
witness
blessing
Ibu@@
vely
ekenyene
Colos@@
Africa
leave
ater
ari@@
educ@@
anditiene
ubom@@
Ok@@
local
requir@@
enịmde
public@@
Kiet
Par@@
usọrọ
ri
otụk
willing
eyet
speaking
dia
preach
loc@@
meeting
cop@@
arly
okû@@
mbubehe
ka
Mmọdo
lost
deep
ufi@@
opportunity
ive
according
ism
past
ought
authority
er’s
ẹbọ
cus@@
efforts
spoke
Roman
reason@@
ọkọrọ
fai@@
actions
soul
18@@
physical
Andibot
ẹkem@@
n̄kop
okod@@
promises
oho
ndondo
39
origin@@
vation
large
anyone
tru@@
n̄n̄w@@
Uwem
confidence
edly
iwụt
ER@@
idid@@
accompl@@
Instead
ẹkot
doubt
ome
standing
Ufọkmbono
fail@@
regarding
therefore
owing
mîdụhe
already
san̄asan̄a
ant@@
increas@@
opke
organization
mfọn
pic@@
effec@@
Satan’s
wine
ọkọk@@
ians
heavens
ower
standards
circuit
sive
ase
N̄w@@
won@@
cri@@
examples
eidem
Scriptural
en̄w@@
hearts
simply
held
den@@
ọr@@
got
osu
ọfi@@
powerful
value
friend
clean
Hebrews
courag@@
draw
ẹdid@@
odot
thous@@
decisions
Still
Ri@@
entr@@
gain
reke
ubuene
imade
It@@
okob@@
onde
worshipp@@
continued
ndutụhọ
mbufa
ẹkew@@
st
greater
Their
shall
ma@@
Mî@@
than@@
field
put@@
soci@@
ikpîkpu
kn@@
THE
ibak
amama
div@@
ring
keep@@
tures
move
tation
challeng@@
Mfịn
glory
Ndinam
lar@@
Ẹd@@
effect
prepar@@
rather
ern
ndiyọ
eds
Sep@@
lied
aries
mirac@@
ekeb@@
ites
Will
ẹsụk
experienced
editịm
ghty
Ud@@
enam
omi
equ@@
andikpep
dic@@
Did
du@@
hand@@
anim@@
bea@@
fa@@
crow@@
eign
lig@@
ail
information
sed
Edisana
e’s
IS@@
pers@@
apply
ends
aedi
lim@@
helps
cultiv@@
disp@@
studi@@
osụhọde
positi@@
tion@@
wụt
longer
ass
Mal@@
adian
nyom
ẹdu@@
K
edinamde
maintain
okpụhọde
esida
poin@@
ịna
n̄kpọn̄
develop@@
ada@@
fre
ọwọn̄
ger
ists
Ju@@
older
yakke
let@@
ndụk
pages
trans@@
integrity
an̄wa
ligh@@
benef@@
ọdọ
declar@@
honor
ink
hear@@
area
KP@@
discipl@@
arede
beg@@
medi@@
ẹnyịme
believ@@
wonderful
TI@@
ẹkụtde
ẹkenọde
vital
direction
aster
ịre
esenyịn
angels
anything
ẹsinam
decision
head
ever@@
ord
enyụn̄
ges
alls
public
perhaps
1914
serious
working
osobo
rend@@
bas@@
Hence
ilities
mov@@
remember
tọsịn
accep@@
her@@
an̄ikọ
ndọn̄esịt
ẹkenyenede
sever@@
IB@@
complet@@
ekemde
L
ukw@@
events
Idịghe
ntaifiọk
en̄ekede
erc@@
determined
eyeneka
listen
cal@@
tọn̄ọ
die
ra
lik@@
osp@@
judgment
ekemeke
kû@@
Sy@@
recorded
enter
wil@@
dra@@
iyak
fy
isan̄a
n̄kpet
sins
azar@@
deal@@
country
eket@@
compani@@
ọpde
Usen
ndisi@@
ago
edin@@
building
hel@@
hear
ount
efep
urance
struc@@
one@@
miliọn
rup@@
named
itiaba
ays
ẹdomo
pros@@
ntịn̄enyịn
common
proc@@
anamke
lea@@
Indeed
en̄wed
within
months
offer
thoughts
obey
low@@
appreciation
ebịghike
ulation
heart@@
andikara
Des@@
accepted
v
teachings
Kpasụk
instance
stated
ndiyak
everything
HO@@
ria
mmemmem
Anie
ground
tually
eration
necess@@
Le@@
Jo@@
okotde
ofụm
People
complete
ediye
okoyomde
ous@@
uses
commun@@
head@@
toto
ising
Br@@
Ge@@
hands
udomo
relati@@
Eti
ched
ịn̄ke
cy@@
ick@@
ẹnen̄erede
Car@@
rest
establ@@
ịmeke
activities
en̄@@
ayan̄wam
198@@
ofụn
According
Just
Europe
Witness
cover@@
pione@@
sions
press@@
ẹsan̄a
Ọyọhọ
explained
conscience
seek
erly
Her@@
Iti@@
ọkọnọ
anxi@@
Comm@@
TH@@
PAG@@
ọsọn̄urua
etimes
ikpep
ery
Idahaemi
promised
M.E.N
andiwet
atever
esede
An
tern
eth
ụpde
afi@@
edinyan̄a
rejo@@
n̄wọrọnda
history
ịghike
ikod@@
wants
sequ@@
gri@@
n̄kann̄kụk
nsobo
branch
itiokiet
rich
Ameri@@
essi@@
edida
uyọhọ
akpana
Greece
zing
iyatesịt
ufụn
pe
inọde
buil@@
mat@@
ọn̄wọn̄ọde
mfep
ransom
olu@@
esh@@
tate
ẹbe
idit@@
Isaac
Dec@@
ame
ereikpe
practic@@
role
Utọ
Ukpepn̄kpọ
ịt@@
aying
Ọkp@@
entually
ẹkenyene
ọtde
ical
ẹtie
ebe@@
ẹkwọrọ
heal@@
Ukp@@
clearly
whose
couple
True
ụnọ
stat@@
ẹsịnde
ẹsik@@
considered
ack@@
mû@@
Su@@
ẹdik@@
offered
appear@@
mbi@@
utịm
LE
influence
ndifiak
advice
flo@@
various
Thessalon@@
NW
flesh
udu@@
Bible’s
ẹban̄ade
acts
eep
col@@
otuowo
aim
met
Ny@@
apti@@
Eph@@
mate
mba
assignment
uti@@
oughout
Ev@@
Brother
earthly
akpan̄@@
Ererimbot
earch
arr@@
letter
aifiọk
ọny@@
work@@
bu@@
York
sla@@
ẹsit@@
oken
happened
ndikpebe
psalmist
build
reach
ale
begin@@
First
nsi@@
friend@@
saf@@
ukwak
tend@@
fru@@
ẹwụtde
mîdi@@
sugg@@
faith@@
Akpan
Idụhe
thers
eneme
alone
pec@@
idemfo
ọn̄wọn̄ọ
foretold
Eyen@@
aph@@
students
ta
nsọn̄idem
describ@@
mbọhọidụn̄
regard
minis@@
training
described
ikedịghe
respond
acted
proper
helping
answers
Phil@@
ours
udịm
covenant
deed
ọkpọkpọ
call@@
Di@@
ould
natur@@
meet
asana
ash@@
N̄ko
walk
abuana
esinamde
anyan̄a
Ecclesiastes
Jos@@
harmony
Hall
Sarah
formed
princi@@
praise
otion
ikanam
No@@
ndim@@
class
nse
tuak
ica
15@@
Ukpono
neighb@@
seek@@
accur@@
ential
akak@@
vic@@
ected
gold
available
ẹkpepde
idọhọ
mbio
Deuteronomy
AR@@
resp@@
nda@@
precious
itted
ẹkewetde
repres@@
ito
prop@@
moral
ean@@
esinen̄ede
stay
ẹfi@@
ndiwet
Cor
hur@@
mas
Austr@@
fect
ọkodudu
resurrec@@
Therefore
stood
Ezeki@@
prin@@
line
chapter
wo
ụn̄sụn̄
akara
ly@@
streng@@
house@@
further
ọfiọkde
call
destruc@@
fill@@
jus@@
Oyom
ndibiere
success@@
deal
Usem
ows
visit
church
earlier
forth
bed
ufak
ẹdis@@
Jan@@
oth
Ụ@@
guidance
Galati@@
ital
ekekpepde
France
books
partic@@
please
ur
Qu@@
tem@@
ehede
concern
Man@@
survi@@
tom@@
step@@
ully
atch@@
Pharao@@
mount@@
activity
position
usiakusụn̄
Exodus
ọsọn̄de
odotde
raised
Life
source
extr@@
on’s
correc@@
sha@@
Mf@@
iọn̄
adul@@
Ewe
ọp@@
easy
sim@@
responsibility
trials
autom
prof@@
ẹkabarede
fill
convention
usọ
tici@@
poor
eresịt
ean
famil@@
tice
reasons
appreciate
tiv@@
servant
45
perfec@@
erous
mbufiọk
Would
Moreover
inher@@
tou@@
Lo@@
imag@@
okụre
open
issue
occasion
Most
itọn̄
iket@@
urity
EM@@
med
oyonyụn̄
strengthen
eda
okpono
ships
an̄ake
contain@@
prot@@
created
mfi@@
ubiak
langu@@
firm
Otu
44
ca
tried
ẹset
inst@@
sm@@
fam@@
Eli@@
ody
Phar@@
Or@@
differ@@
Kp@@
ịgh@@
righ@@
aching
ụt@@
nei@@
aining
wr@@
imit@@
probl@@
sou@@
efore
read@@
indiv@@
sac@@
uene
evil
ọnda
–
esses
n̄
shi@@
follow@@
eed
kind@@
nec@@
compl@@
devel@@
joy@@
experi@@
yụn̄
aking
inem@@
chall@@
ịnde
anted
wet
uit
emiah
can@@
emiso
sho@@
Ị@@
W
stan@@
coun@@
som@@
centur@@
ọi
spi@@
stand@@
wọrọ@@
̣@@
tit@@
continu@@
ufa
ò@@
Bib@@
ready
wọrọikọ
edu@@
av@@
organi@@
will@@
Tim@@
oci@@
clo@@
seri@@
uring
Christi@@
cha@@
n̄@@
idụn̄
Uw@@
fering
cou@@
haps
qual@@
Lu@@
chil@@
ven
on̄@@
spirit@@
J
otikọ
Gal@@
·@@
nesses
hist@@
answ@@
udu
ept
Ger@@
ni@@
import@@
gh
idem@@
ld
appreci@@
eutom
who@@
crib@@
․
uch
god@@
isions
andik@@
jud@@
ọrede
ith
help@@
sm
Eny@@
disci@@
feel@@
ards
C
sue
ames
influ@@
main@@
é@@
eneke
bor@@
Jeho@@
oub@@
G
F
usụk
thor@@
privil@@
recei@@
id
mes
situ@@
ques@@
Er@@
Jer@@
Mos@@
ịb@@
efi@@
reat@@
yp@@
gif@@
youn@@
urch
earth@@
De@@
ples
edịghe
ọtidem
fered
sion@@
ọkpọ
materi@@
an̄autom
serv@@
ụtn̄kpọ
worshi@@
ile
anci@@
uel
zek@@
mean@@
judg@@
respons@@
P
Ac@@
hea@@
enced
lic
ir
prod@@
appoin@@
consci@@
conduc@@
Babyl@@
V
grou@@
opport@@
mmem@@
occasi@@
ders
pra@@
wic@@
lasting
husb@@
responsib@@
pow@@
ial
an’s
lood
ne
prophec@@
m̀m@@
ʹ@@
U
ention
pose
ew
ru
ọke
ustr@@
sụn̄
fter
itu@@
é
ousness
otu@@
ụn
ekọm
Cor@@
wis@@
PA@@
doub@@
Abr@@
determin@@
Pet@@
asụk
gover@@
ises
religi@@
Israel@@
difficul@@
prob@@
author@@
The@@
ụme
physi@@
Do@@
dren
Isra@@
Mor@@
Joh@@
knowled@@
Abrah@@
til@@
Egyp@@
isters
dif@@
Pe@@
benefi@@
esh
Messi@@
ount@@
fel@@
fur@@
vari@@
okon@@
Phili@@
Josep@@
onom@@
le’s
trav@@
yl@@
sid@@
gin@@
priv@@
pde
val@@
ility
eve
ikọn̄
some@@
Spi@@
ọfet
ho
ere@@
tural
ul
rc@@
kpọ
ịn̄ikọ
dom
í@@
eld
ether
B
inspi@@
aken
reco@@
ü@@
Gen@@
inyan̄a
whi@@
wish
long@@
̀m@@
Col@@
amed
deter@@
Sin@@
kọ
kpu
with@@
duc@@
avo@@
ospel
tidem
bet@@
akibuot
edic@@
ara@@
assign@@
insi
Acc@@
aul@@
ld@@
ụkidem
regar@@
uns@@
chap@@
guid@@
á@@
apost@@
tode
mess@@
Tho@@
,0@@
mir@@
mfr@@
need@@
ife
eep@@
inform@@
magaz@@
couns@@
circum@@
oin@@
ource
numb@@
Bec@@
las@@
cov@@
Scrip@@
isụn̄@@
X@@
greg@@
Sar@@
◆
Jac@@
ewetde
nyịn
relation@@
neigh@@
vice
ollow@@
tow@@
Ind@@
simil@@
⁠
org@@
otenyịn
bọn̄
gg@@
ather
uth
esịt@@
Esi@@
zation
angu@@
ndom@@
fec@@
î@@
ọh@@
cent@@
led@@
Solom@@
contin@@
Afri@@
©
yarade
attit@@
thin@@
wom@@
menti@@
ough@@
esịn@@
olic
Ph@@
sis@@
amba
fal@@
erful
Okp@@
foret@@
count
cc@@
ã@@
fri@@
Q@@
evel@@
epher@@
un̄w@@
Sat@@
ó@@
Mat@@
Cath@@
Paul@@
atesịt
atis@@
jah
—@@
Co@@
Eur@@
othing
utu@@
ece
wọn̄
book@@
rifi@@
è@@
certain@@
idence
ö@@
ekede
embers
$
vention
atre
port@@
ob
Edis@@
apos@@
psal@@
ʹ
nyeneke
Dani@@
□
●
aw
ọsịn
harmon@@
simp@@
ụr@@
God@@
æ@@
abl@@
ben@@
Ther@@
fol@@
adan̄a@@
till
ac
ọn̄esịt
|
ially
syst@@
marri@@
preci@@
ondo
stances
Bab@@
activ@@
mili@@
anikọn̄
mem
bapti@@
ainst
Rom@@
ao@@
flu@@
your@@
Isai@@
forts
recogn@@
yọhọ
ointed
aim@@
til
ndut@@
fort
how@@
bran@@
ause
Ot@@
asi
vid
mbot
ô@@
Ec@@
ennen
lier
ọsọn̄@@
gether
san̄@@
ú@@
Jerusal@@
ê
circ@@
Gil@@
congreg@@
ege
ou
though@@
atur@@
wonder@@
ysi@@
tower
Heb@@
ñ@@
ọkọbi
ọn̄w@@
usb@@
ł@@
urrec@@
Wit@@
Sol@@
>
ọdo
epn̄kpọ
an̄a@@
tau@@
ç@@
eredem
Fir@@
ndibot
X
Yor@@
Apos@@
hum@@
Ŋ@@
á
akusụn̄
q
Consid@@
○
uture
Creat@@
unsu
xi@@
eft
ndud@@
bs
Á@@
ople
onowo
&
grity
How@@
Matthe@@
ntịbe
inte@@
him@@
onomy
n̄wọr@@
ọhọidụn̄
Timoth@@
record@@
osụk@@
dau@@
:@@
ä@@
individu@@
demon@@
aul
urobụt
̄@@
í
atters
okiet
meet@@
ording
hou@@
pub@@
lit@@
Z
q@@
Corinth@@
ọkiet
ticle
⇩
₦
îkpu
°
ë
rit
j
à
zeki@@
ween
Watch@@
ö
Isa@@
n̄kụk
É@@
č@@
ʼ@@
clesi@@
esus
overbs
ʽ@@
enant
esis
Corin@@
ansom
ê@@
ה@@
emselves
̀@@
ficul@@
hua
←
B.@@
Chris@@
Î@@
ה
↓
◇
bec@@
י@@
ו@@
Ê
â@@
rote
ọhọ@@
espec@@
adise
ë@@
astes
avail@@
ā@@
Û@@
=
Ecclesi@@
ø@@
alon@@
®
righte@@
è
▸
%
ń@@
More@@
Jehov@@
à@@
ñ
―
ū@@
ł
ntịn̄@@
̆@@
_@@
ś@@
Ž@@
Q
selves
Didi@@
mist
uter@@
thel
­
Í@@
ú
ọda
š@@
\
M.@@
heaven@@
stead
⇨
Eg@@
obụt
ý
−
ׁ
̇@@
ש@@
→
ę@@
↑
פ@@
נ@@
❖
‛
C.@@
­@@
ä
æ
✔
Ş@@
Ô@@
ó
å@@
Š@@
wọr@@
£
ż@@
Ü@@
Ã@@
☞
ý@@
É
ß
€
΄
ịg@@
Å@@
ï@@
ù@@
ã
▾
ő@@
̗@@
È@@
ą@@
Ó@@
å
Ł@@
ē
odus
י
μ@@
ß@@
Ḥ@@
ʼ
Thess@@
ū
Hebre@@
ī
ē@@
#
ì@@
ḍ@@
Ç@@
ŋ@@
Ò@@
-@@
Ö@@
̆
Ṭ@@
Ñ@@
ẹ
È
ï
ǒ
@
ò
ě@@
ž@@
Ú@@
Ż@@
_
Jerus@@
â
ć
ü
ı@@
ù
ź
Revel@@
™
‘@@
õ@@
.N
Á
Å
ī@@
ů@@
+
̧@@
ụ
ṃ
ị
ṭ
osụkedi
À@@
ṭ@@
Ė@@
ʺ
⁄@@
ō
ι
⁄
◀
ˋ@@
/@@
ā
Α@@
bless@@
;@@

