.
,
a
u
vha
the
na
nga
to
of
:
“
”
tshi
and
uri
?
ri
in
ya
o
ha
that
zwi
kha
-
—
wa
we
is
Yehova
ndi
for
Mudzimu
ḓo
vho
ita
his
i
)
(
zwa
sa
Jehovah
nahone
with
be
​
he
was
you
not
ni
ḽa
tsha
I
vhathu
hu
dza
as
;
U
will
zwo
’
have
1
are
musi
Ndi
our
khou
God
The
amba
Nga
on
Yesu
Jesus
nḓila
si
it
us
vhe
can
from
zwine
by
who
their
fanela
they
itela
what
‘
ra
!
mu
do
ho
What
vhukuma
no
2
or
yo
Bible
ine
lwa
this
him
ḓi
God’s
all
dzi
zwenezwo
re
had
Bivhili
them
zwithu
ane
A
were
tshifhinga
your
kana
e
vhu
Musi
one
sumbedza
people
at
about
ralo
3
Jehovah’s
thoma
ṱoḓa
How
an
did
thusa
In
vhane
when
hani
fhedzi
muthu
Naho
would
mini
4
zwe
vhaṅwe
mafhungo
has
ngayo
my
5
time
may
6
Vha
ḽi
Ri
those
life
dzula
muṅwe
muya
15
ndeme
vhona
O
but
He
help
songo
so
12
ngei
ṋea
Naa
We
how
wana
ye
ro
ngoho
phanḓa
ḓivha
shumisa
10
hone
]
[
me
11
7
wawe
8
funa
dovha
ndo
Vhakriste
her
love
9
miṅwaha
good
nda
guda
also
ngani
Paulo
tsumbo
ngo
some
arali
mushumo
more
should
humbula
13
14
kona
way
out
murahu
vhawe
does
things
such
vhutshilo
many
•
Zwi
been
Paul
make
ṱhogomela
When
bva
work
It
Kha
17
shango
if
up
b
hawe
spirit
maanḓa
vhana
16
Christians
Christian
Kristo
could
said
Ni
Why
other
even
others
zwavhuḓi
shuma
18
hashu
need
tshoṱhe
Muvhuso
vhudza
dzhia
Kingdom
day
tsho
there
wo
Arali
faith
dzo
Fhedzi
yawe
world
vhanzhi
congregation
first
lufuno
20
man
vhoṱhe
example
But
she
than
tshila
earth
years
They
For
19
If
tou
these
/
because
mbilu
lutendo
This
into
spiritual
As
huwelela
lu
must
tsini
Witnesses
fana
ḓuvha
ḽifhasi
yeneyo
zwone
zwiṅwe
Christ
which
family
Ṱhanzi
ṅwambo
Ndo
dzine
ngauri
being
made
naho
thetshelesa
children
zwoṱhe
know
Hu
fulufhedzea
ḽo
21
mbo
24
only
pfa
says
22
havho
fanaho
heart
awe
You
vhuya
ṱaḓulu
see
like
true
Sathane
Sa
nṱha
become
ones
bvela
ṱuṱuwedza
ḓa
take
munna
kone
words
come
riṋe
kale
then
katela
ḽiṅwe
Na
muṱa
Psalme
brothers
Davida
give
23
maipfi
ene
swika
own
vhuṱali
hune
well
athu
tshine
itea
fhethu
might
over
tenda
before
pfesesa
fhiraho
That
sedzana
vhuimo
And
David
vhala
men
death
Samusi
ṋamusi
just
pfi
Word
keep
after
truth
maitele
show
Vho
ṅwala
new
fhedza
nṱhani
now
tshenetsho
John
times
very
two
25
shumela
ḓipfa
faithful
yoṱhe
Ipfi
great
tshiṅwe
learn
funza
another
parents
phetho
name
mavhonele
apostle
tshivhidzo
Vhukuma
zwino
pfunzo
feel
Do
zwenezwi
fhira
vhonala
any
much
tshifhingani
its
today
To
Vhaisiraele
nṋe
person
ḓe
vhabebi
yavhuḓi
So
Vhathu
vhahashu
fulufhedzeaho
ministry
nyeletshedzo
mishumo
through
takalela
why
Vhalani
Read
find
However
Satan
against
washu
vhushaka
shangoni
young
ṱanganedza
fulufhelo
samusi
use
henefho
himself
28
holy
important
fa
*
Khotsi
study
fhasi
rabela
Israel
bugu
yashu
30
part
vhune
Bivhilini
say
takala
khulwane
wanga
nae
found
dzina
humbela
ṱavhanya
Petro
worship
yeneyi
vhurereli
preaching
means
each
bvaho
une
tshivhidzoni
vhafunziwa
zwifhinga
vhavho
dziṅwe
One
vhuṱungu
wrote
tshithu
lwo
though
Vhaṅwe
iṅwe
teaho
Yes
Peter
news
serve
want
right
vhutshiloni
end
livhisa
ite
Vhukriste
disciples
human
londwi
Ps
mbudziso
Yohane
never
Father
itwa
ḓiimisela
malugana
word
hafhu
where
course
tea
same
wife
vhone
read
27
Nahone
inwi
khonani
mulalo
most
ifhio
told
29
26
After
service
ḽoṱhe
hope
place
dzhiela
tshee
Zwiṅwe
servants
mind
became
too
fara
go
put
let
maḓifha
home
long
used
Mushe
fheli
mbiluni
vhahulwane
ḽine
eneo
fhela
dzawe
vhuleme
view
ṋewa
fhambanaho
thabelo
khagala
upon
dzoṱhe
33
ways
vhukati
tevhela
doing
gave
At
Isiraele
31
fulufhela
yavho
navho
onoyo
Maṅwalo
By
get
Khosi
engedzeaho
came
tevhelaho
able
ṅwana
given
lingedza
dzashu
live
Psalm
anointed
days
Some
during
nnzhi
dzule
tshimbila
ṱangana
No
often
away
Scriptures
under
book
consider
zwinzhi
dze
marriage
vhanna
ḽawe
Yobo
fellow
King
zwiḽiwa
naa
Mirero
vhashumeli
mufumakadzi
wonoyo
later
pfaneleo
set
musadzi
Nṱhani
back
lugaho
anga
Ho
among
lini
every
mbingano
Our
lungafhani
vhenevho
ambiwa
konḓelela
power
vhungoho
loving
His
thero
prayer
C.E
making
nungo
takadza
livhuha
Yesaya
living
whom
kwama
Ro
down
tendela
honoho
vhea
began
Moses
Mateo
Let
Muṅwe
am
peace
maṅwe
dakalo
always
dzifhio
haṋu
still
thuso
year
Israelites
Matthew
mukhethwa
ashu
ndugelo
tikedza
khwaṱhisa
hoṱhe
son
Murwa
nnḓu
ṱanganela
think
house
vhuḓidini
sokou
dzavho
waṋu
fhindula
ndivho
ṱhoḓea
ofha
lushaka
humans
old
themselves
litsha
tshivhi
hazwo
vhudzisa
Mukriste
elders
personal
On
iledza
She
helped
khotsi
three
avho
There
ḓiṱukufhadza
full
tendelana
joy
raloho
Is
khwine
With
muhulwane
counsel
khombo
vhuḓifhinduleli
Son
ngaho
ṱhogomelo
Zwenezwi
fhelelaho
ṱalutshedza
Then
muapostola
hand
32
reason
Zwenezwo
lovhedzwa
something
tshivhindi
edzisa
heaven
Vhayuda
ṱoḓaho
took
Roma
zwiimo
ḽeneḽo
article
wicked
zwivhi
without
lufu
asked
sin
Many
ask
knowledge
order
muthihi
purpose
tshigwada
tshe
khetha
however
face
wahashu
brother
34
called
century
dzavhuḓi
relationship
vhaswa
vhulivhisi
ourselves
fact
needed
husband
Genesi
future
meetings
felt
tshipiḓa
both
haseledza
questions
Zwo
wavho
together
understand
Yet
40
toward
message
experience
look
elekanya
tshelede
Even
mulayo
Yerusalema
mazwifhi
serving
share
wisdom
lavhelela
havhuḓi
while
tshisadzini
happy
mulaedza
really
sia
father
close
fhelisa
learned
Ṱhogomelani
muvhuso
enea
vhurabeli
maḓipfele
Jerusalem
having
vhuḓinḓani
My
Yakobo
Abrahamu
vhuthu
ḽe
bvelela
continue
care
bring
ṅwaha
tsireledza
muswa
All
New
Ngauralo
tshifanyiso
benefit
Murena
result
woman
possible
mvelelo
heavenly
best
ipfi
vhuṱanzi
vhufhelo
Because
hayani
baptized
khae
37
desire
Timotheo
support
gudisa
done
oṱhe
someone
vhuporofita
dzhena
child
ever
wise
Ha
B.C.E
maḓuvha
righteous
speak
dzangalelo
kunda
eyes
matter
between
last
different
language
bad
again
nnyi
enjoy
receive
khosi
hanga
vhusa
ḓadzea
vhuthihi
avoid
35
nations
king
Timothy
From
nyambo
Ya
lune
fine
nndwa
tshiitisi
minzhi
lives
khwaṱhaho
sisters
mme
vhukando
Luka
mother
Nḓila
kindness
These
ḓodzwaho
mankind
self
went
hard
nnḓa
luambo
situation
vhuḓifari
answer
ḓiphina
teaching
follow
Mulayo
gathi
giving
kind
left
zwifhio
miṱanganoni
Tsha
sure
food
difficult
miraḓo
vhuvhili
trust
vhuvhi
knew
khandiso
kule
aravha
Job
cannot
vhuyelwa
mean
khetheaho
pray
slave
Luke
murwa
problems
nḓivho
city
Acts
Your
lead
friends
remain
better
dzenedzo
vhulenda
zwiṱuku
Those
ṋama
needs
ṱolisisa
system
Muapostola
shumiswa
vhuhulwane
act
miṅwahani
feelings
received
milayo
followers
respect
yanga
saw
attitude
vhunzhi
imitate
Consider
vhuyedza
certain
Adamu
khamusi
members
Law
vhatevheli
prophet
Although
malofha
religious
thinking
Isaiah
moved
sons
law
little
apostles
fear
tshinnani
Muya
few
account
Ngauri
qualities
Abraham
spiritually
married
Who
age
ṋekedza
saying
Jews
strong
phaṱhutshedzo
fulufhedzisa
ambela
ḓifara
dalela
sense
Zwa
luga
following
nge
thought
ngazwo
lwe
eṱhe
wanted
fhamba
mmbi
muhumbulo
konḓaho
teach
ṱoḓea
yourself
present
nngu
until
milingo
sacrifice
See
misini
sheep
sedza
maṱo
conduct
tshanduko
thus
yet
Of
nazwo
Noaxe
ndaela
Tshi
▪
believe
case
false
gives
fhambana
everlasting
vhavhili
takadzaho
Mishumo
preach
roṱhe
ṱalusa
brought
resurrection
mulandu
Proverbs
Muthu
ḓivhi
vhidzwa
number
question
likely
provide
wavhuḓi
land
prayers
especially
point
vhuḓalo
tshumelo
ṱhonifha
Mir
shows
principles
known
Lord
temple
similar
individuals
wrong
United
died
lwashu
vhatendi
vhaapostola
ima
matters
Thus
off
sister
ṱuwa
blood
vhuḓinḓa
tshibuli
perfect
loyal
attention
swikelela
Watchtower
next
James
Zwino
Romans
cause
far
talk
ḓaho
vhaṋu
early
ancient
taking
luvhi
fhaṱa
righteousness
Rather
shandula
Revelation
women
konḓa
huna
real
tshawe
ndugiselelo
nation
turn
Gen
Adam
lindela
khwaṱha
makes
vhukonani
Satan’s
s
since
Daniele
gift
kingdom
circumstances
dzudzanya
mbili
vhavhingani
lwisana
whole
soon
vhufhio
Christ’s
Yosefa
Yeremia
loved
free
strength
taught
zwihuluhulu
mufarisi
fheliswa
states
nor
yone
decisions
Diabolo
khwaṱhisedza
mbinganoni
Salomo
Are
heard
siaṱari
try
suffering
works
Sedzani
lwawe
mashango
Since
muporofita
thi
thaidzo
Does
reading
hana
muṋe
Corinthians
whether
anzela
change
accept
lwela
bebwa
Wa
1914
fully
Khamusi
000
NW
avhuḓi
Such
dzenedzi
tshimbidzana
inspired
ḽino
comfort
tshilapfu
maḓi
Samuele
coming
comes
special
sent
ndimana
Paul’s
mutakalo
Joseph
vhonalaho
organization
page
phindulo
along
kanzhi
ndima
mulanga
Devil
mentioned
Be
tshumeloni
ḓivhudzisa
school
yaṋu
prophecy
examples
going
around
zwifanyiso
truly
Mafhungo
Like
vhanga
witness
dead
privilege
glory
ufhio
clear
States
blessings
fhelela
material
opportunity
allow
tell
vhukhakhi
zwiitea
wane
pioneer
rule
integrity
tshiṱhavhelo
understanding
forever
ḓanani
While
mathomoni
ḓivhadza
involved
Instead
body
lunzhi
vhukoni
gwadamela
control
kunaho
Solomon
certainly
koni
un@@
May
thivhela
vhulaha
war
past
isa
wanala
interest
tshiitea
zwiitisi
promises
religion
willing
including
tshaka
misi
return
Korinta
farwa
Wahashu
Can
tshifhiwa
believers
group
Today
Daniel
38
livhaho
Tshiingamo
small
zwivhuya
ḓitika
blessing
Greek
Yuda
money
manzhi
vharuṅwa
shumisana
congregations
direction
helps
lutamo
thing
Scriptural
ḓisa
second
World
muyani
field
provided
covenant
mbeu
honor
wants
confidence
greater
using
hulisa
showed
taken
wonoyu
kept
Creator
vhugala
night
decision
aluwa
konadzea
nothing
Ṋamusi
vhudzekani
promise
ṱhuṱhuwedzo
effort
sumbedzwa
Musiki
apply
older
Zwine
tsimu
ṱhogomele
ṱoḓi
ransom
serious
muḓi
During
Nṋe
courage
vhuṅwe
seen
meaning
angels
tovholwa
–
36
deep
tshenetshi
maintain
water
ngae
prove
health
once
stand
draw
obey
tshenzhelo
ḓadzisa
remember
four
zwavho
Noah
move
Bethele
happiness
hangwela
ṱuṱuwedzwa
zwivhidzo
nayo
leave
effect
zwilinganyo
Saulo
ano
Not
Shango
meeting
shanduka
45
evidence
afhio
fumi
listen
speaking
vhuronwane
ngudo
Still
already
khuthadza
muṱani
value
Zwe
everything
regarding
phetha
powerful
vhuvhusi
Mark
ranga
tshihulwane
near
tshinya
lost
vital
appreciation
led
anyone
high
divine
strengthen
vhashu
zwawe
spoke
vhege
Tim
bvelelaho
Egipita
lived
tama
Ndzumbululo
Will
determined
based
efforts
fhisea
Maria
vhasadzi
Samuel
ḓoweleaho
standards
written
therefore
got
fhaṱutshedza
Now
doubt
Vhabebi
Eva
Indeed
ṱutshela
appointed
n@@
stay
Tshifhinga
started
Genesis
served
Humbulani
hearts
50
continued
vhulwadze
Ee
Did
mushumoni
light
mvelaphanḓa
ṱahulela
Babele
imela
timatimisi
according
tshifhinganyana
Hence
anything
NYIMBO
lupfumo
praise
SONGS
judgment
hear
A@@
shall
Iṅwe
Bethel
maswina
offer
conscience
vhumatshelo
promised
Yeneyo
44
nḓuni
sinyuwa
Hebrew
Hebrews
earthly
42
Gilead
endure
lwavho
Messia
flesh
Marko
ḓivhe
Their
activities
pfalaho
born
wonderful
here
events
engedza
mbuno
vhafumakadzi
tovhola
People
experienced
heavens
couple
happened
tevhedza
vhuṱolo
pages
langa
perhaps
friend
mukoma
tshikolo
simply
authority
Mat
mbofholowo
illustration
bveledza
khathihi
hold
wau
mahumbulele
Just
zwashu
Vharoma
ability
walk
mihumbulo
ambi
maṅwalo
huṅwe
ṱanziela
instance
41
reach
advice
seek
responsibility
rather
stated
tshipikwa
zwiné
local
letter
vuswa
explained
S@@
thoughts
information
․
longer
vusa
zwanḓa
helping
miṅwe
psalmist
physical
fhaṱuwa
ndangulo
Uri
ngeno
proved
ṅwalela
ḓana
Vhane
elder
muvhili
hangwa
recorded
within
vhahuweleli
role
mu@@
trials
respond
vhilaela
Eve
tshidza
vhunga
Keep
sika
sins
godly
ḓifunela
guidance
soul
meet
clearly
khaedu
accepted
assignment
vhidza
appreciate
ḽiswa
zwipikwa
training
khakheaho
Therefore
baptism
tshikoloni
Saul
sendela
vhumba
affect
influence
ḽihulu
vhalala
tshanḓa
vhavhi
luvalo
Jeremiah
country
reasons
Mary
Yoshua
tsimuni
foretold
Lufuno
70
precious
head
Jewish
issue
nthihi
chapter
Mu@@
discipline
large
sevha
vhuyelela
humble
119
please
Matt
concern
musalauno
choose
humility
else
position
ḓalaho
Moreover
ḓivhazwakale
Later
harmony
kundwa
hands
mate
imperfect
THE
True
actions
offered
unity
masiaṱari
timatima
alone
dzikaho
Egypt
public
khavho
tribulation
encouraged
vhetshela
Pet
renda
vhusiku
dzhiiwa
miṱa
complete
Heb
whose
showing
First
humbudza
pfulutshela
muṱuku
ombedzela
start
dzanga
clean
thembele
ḓi@@
ambara
easy
pfala
gain
encourage
Would
call
teachings
considered
action
regard
ṱalukanya
pfela
engedzea
ṅwalwaho
vhulahwa
regularly
form
ṅwalwa
regular
tried
history
Kana
lugiselela
provides
aṋu
iwe
practical
mivhili
visit
deal
ḓala
vhenevha
Before
months
stop
desires
named
dzhele
further
T@@
Judah
humbule
vhagwadameli
mvuwo
dzaṋu
encouragement
leluwaho
ó
occasion
changes
goals
Messiah
nthusa
die
Have
livhiswa
proper
mercy
problem
freedom
creation
takes
thundu
tshashu
nadzo
class
kundelwa
ten
described
seeking
worshippers
khomboni
muvulanḓila
reflect
bear
single
midzimu
branch
build
open
ané
expression
knows
prayed
vhuye
grow
Bugu
working
available
focus
39
tshenzhela
Witness
Kanzhi
enemies
carry
ma@@
miṅwedzi
servant
60
ngafhi
vhurifhi
Tshigwada
Brother
common
in@@
earlier
challenge
Doiteronomio
pfanyisedzo
answers
Jacob
Love
Malugana
everyone
mafulufhedziso
raised
Roman
created
An
goal
mashangoni
maṱungu
warning
luthihi
held
interests
ready
Hezwi
learning
lila
forth
explains
allowed
kulea
daily
rest
Onoyo
vhuswa
tsevho
tshifhio
ramba
tshidzwa
Or
Ene
Lugerika
Most
lwendo
results
protect
evil
fulfillment
area
According
bvisa
sign
fhungo
decided
Sam
miṱangano
vhalaho
ḓiṋekedza
vutshela
develop
43
happen
Babylon
students
period
various
nwa
fhano
blessed
rich
ifa
Elia
zwauri
worldwide
justice
ago
attend
crowd
vharwa
walking
Bible’s
several
Maṅwaloni
vhushayanungo
masia
lesson
seed
Hall
tshavhuḓi
vula
tells
vhinga
N@@
subject
persecution
publications
Luheberu
birth
cultivate
rembuluwa
C@@
force
faced
enough
realize
muraḓo
ngomu
becoming
addition
mutsiko
mulanda
sovereignty
command
salvation
quality
Heberu
vuwa
Similarly
speech
paradise
deeply
door
destruction
Joshua
thuse
books
muḓini
personality
daughter
knowing
behalf
benefits
pain
khaṱulokwayo
Others
vha@@
tshilidzi
activity
Maipfi
met
VHA
sacrifices
shown
t@@
vhutsila
basis
voice
re@@
Life
express
source
ṱhoho
dzi@@
Vhutshilo
fani
bvele
vhewa
ḓoroboni
Mixa
seven
Vhana
alive
poor
challenges
changed
David’s
es
vhadzulapo
humela
convention
ambe
mahulu
kereke
ḓisela
thungo
personally
neither
mulilo
tshithihi
government
davhi
five
examine
turned
expect
vhaṋe
wives
khwinisa
seem
landula
Ekisodo
angel
office
fulfilled
discuss
vhenga
hevhedzwaho
arrangement
Mu
Hesekiele
tsireledzea
indeed
presence
46
politiki
invited
enjoyed
Though
Dziṱhanzi
matshilele
khunyeledza
shepherd
acts
assigned
eat
ḽashu
caused
entire
er
quickly
sacred
takale
khethwa
missionary
vhoiwe
muruṅwa
65
leluwa
greatest
languages
behind
lwala
shela
rumela
mivhuso
traveling
48
ahead
vharangaphanḓa
wonder
itaho
ate
haṱula
Perhaps
closer
beyond
include
worked
vhavulanḓila
fight
suffer
positive
leaders
disciple
individual
myself
keeping
rabelela
Thero
vhuvhusahoṱhe
millions
lovha
dzumbulula
tseḓa
Tshifhingani
kings
laya
sá
Ephesians
vhaṱuku
Another
above
Muhuweleli
vhafhio
ana
favor
vhingana
protection
discreet
L@@
itself
getting
khayo
modern
lavhelesa
added
necessary
100
vhaḓodzwa
s@@
laws
urged
less
resurrected
Eneo
studying
tsikeledzea
fushea
madekwana
K@@
choice
exercise
actually
truths
importance
throughout
vhuraru
iswa
nyemulo
M@@
brings
gogo
strive
Lwa
dedicated
fruit
families
Yeneyi
firm
Vha@@
Yoh
Mafheleloni
xelelwa
overseer
September
beautiful
looking
Great
vhagudiswa
vhofholowa
places
approach
55
dzimilioni
returned
progress
explain
farakanea
whatever
ḽeneḽi
tharu
rejoice
Vhenevho
sexual
tree
Vhunzhi
steps
realized
six
Dzikhosi
vhofhololwa
vhalanda
mangadzaho
Cor
job
awara
thewaho
elderly
hae
magazini
rathi
expressed
woṱhe
imba
interested
malamba
ḽihulwane
devotion
completely
revealed
swayeaho
moral
vharumiwa
Pfunzo
literature
nḓilani
tshedza
publishers
renga
lands
eḓela
hwala
ṅwananyana
fheleledza
line
imagine
loyalty
short
zwivhili
English
goloi
ḓimvumvusa
lack
Memorial
affection
beginning
despite
maḓana
involves
tshirengululi
flock
record
vhudzwa
Despite
test
mulenzhe
recognize
P@@
Vhahulwane
Edzani
asking
ṱolisise
display
York
Efesa
Ngoho
ṅwedzi
prepare
mutheo
education
condition
Clearly
carefully
konḓela
pressure
arrived
demonstrate
final
followed
ponyoka
humbulela
tshiṱuhu
Elijah
practice
kuna
pioneers
F@@
aware
chosen
ing
Tsumbo
reward
d@@
sumbe
church
Munna
obedient
ele
sometimes
zwifhingani
ers
mimuya
Mushumo
forgive
accounts
khaḽo
yau
Nda
Hosea
wone
seems
opposition
E@@
ino
member
begin
vhó
valuable
situations
spoken
anger
forward
eletshedza
April
spent
thetshelese
Iwe
mulavhelesi
Muhulwane
grateful
ed
zwiambaro
mbilaelo
eventually
circuit
success
katelwa
observe
feeling
genuine
Ita
Nevertheless
shaya
one’s
association
mahosi
contrast
lot
overcome
October
meant
Zwithu
articles
Ek
mashaka
tshavho
bvumo
building
Mini
yourselves
related
ṱungufhadzaho
khathutshelo
ṱhogomelani
b@@
vharathu
Lutendo
zwigidi
haya
violence
nyambedzano
ngadzo
dedication
sharing
patience
rambiwa
vhofholola
Vhaswa
experiences
’s
guard
pfesese
fall
davhidzana
fhisetshela
Ḓuvha
effective
p@@
waho
muvhusi
priests
confident
zeal
Yo
verse
Miṅwahani
ṱoḓe
Dza
Holy
wela
bread
mulisa
zwipiḓa
sea
D@@
vision
ḓipfe
territory
fruitage
sudzulusela
trying
simple
a@@
shumaho
Mexico
preached
vhambedza
side
week
shengela
kalulaho
tshilaho
included
key
sambi
evening
nyadza
conditions
filled
khaṱulo
g@@
honovhu
mbuyelo
Awake
friendship
Vhoṱhe
B@@
khoḓa
fire
siho
loves
TO
shavha
tende
appropriate
tshiṱuku
prison
c@@
ṋee
thousands
Ruth
khumbelo
uses
Soon
vhumuthu
warned
vhaeni
standing
specific
negative
ḽavho
zwifhiwa
morning
phambano
centuries
destroyed
relatives
household
surely
bvisela
ated
About
tshiṱoho
teaches
ṱhukhu
Dzi
vhuhulu
vhafu
cope
zealous
Where
guide
H@@
Each
ḓowelea
sound
maswole
Dzheremane
Sarah
fune
original
á
Ḽa
forgiveness
thuswa
ḓikukumusa
mupsalme
vhavhusi
former
published
sincere
ela
khakhea
August
Remember
kwamea
obedience
fulufhedziso
convinced
Vhu
response
vhuvemu
endurance
Muṋe
ḓorobo
foreign
December
note
ntswa
prepared
pursue
react
Young
School
answered
gudiswa
luṅwalo
pfuka
July
missionaries
Ipfini
vhufumi
political
parts
mugudiswa
Nehemia
matsheloni
Canada
vhafunzi
tshengelo
2009
vusulusa
mulingo
encouraging
mufuda
forget
Evangeli
Good
declared
reveal
write
responsibilities
Also
sick
gifts
understood
delight
natural
Langaho
hours
ṱanganedzwa
mushumeli
dzhie
conclusion
refers
Prov
nḓala
immediately
Luisimane
watch
Sara
Maḓi
paradiso
attending
lessons
51
kuvhangana
countries
offering
accurate
bulwaho
accomplish
O@@
2010
Body
Governing
vhotshifhe
security
ngatsho
overseers
vhadzia
concerned
Asa
Ḽiṅwe
vhararu
zwiṱhavhelo
beliefs
fail
sort
Paradise
compassion
Mish
2@@
praying
January
seemed
lose
approval
Ruthe
spend
train
k@@
priest
kombetshedza
state
thembeleni
buḓo
khaladzi
undeserved
invitation
mutevhe
miles
danger
murathu
seeing
suffered
sedzani
treat
r@@
Nndwa
offspring
dzulela
manner
sala
Thabelo
opportunities
mafunda
studies
Through
term
vhashumi
caring
E
DZI
tshivhalo
visited
tsiko
fhodza
R@@
zwigwada
helpful
Dzulani
l@@
remained
zwibuli
ambaho
consequences
fulfill
2011
Was
mitshelo
pure
commanded
failed
vuḓa
Translation
requires
mavhili
Rome
ḽiisela
madzina
m@@
existence
sili
required
noted
resist
pay
prospect
khilomithara
Huno
tshinzhi
mona
muri
ation
calls
enter
youth
parent
Tshiṅwe
consideration
Holo
nyofho
ating
ts
feet
March
alusa
reasonable
Think
faho
putting
Being
battle
Amosi
third
meditate
lwonolwo
passed
ḓivhiwa
muṱhannga
refused
student
Shangoni
musidzana
faithfully
fhura
Miṅwaha
G@@
man’s
Holoni
bless
outside
ndayo
y@@
includes
vhupombwe
zwihulwane
neighbor
madimoni
aspects
Mbilu
Vhahashu
lie
I@@
evident
Isaka
month
sumbedzaho
muhulu
tshone
mutukana
attack
takadzwa
bviswa
areas
nature
Really
Filipi
chose
vhufhura
tshi@@
becomes
Ma@@
t
riches
usually
army
malwadze
prophets
sasaladza
ruma
points
Only
ḓikumedza
nḓevhe
attended
thomani
town
vhudzulo
muyamukhethwa
milenzhe
bearing
tshile
heartfelt
careful
wait
looked
race
More
tshilikadzi
conversation
practices
hau
m
bula
youths
laṱa
hayo
linga
least
mubebi
assured
ground
fusha
Mount
y
takalelwa
aho
prevent
Vhakorinta
zwipuka
Zwoṱhe
limited
Look
ṱanganedze
2012
Hone
muvhi
subjects
killed
Australia
prophecies
dzhenela
Isaac
satisfaction
united
bono
tamba
event
vhilaelela
vhewaho
request
successful
mildness
thewa
ngauralo
wine
e@@
Make
step
June
ḓiṋekedzela
trained
referred
opened
immorality
text
either
immoral
maḓuvhani
relief
presented
mbekanyamushumo
thendo
almost
dovhe
ḽithihi
Should
shume
en@@
vhaporofita
greatly
ambiwaho
vhutsilu
half
naka
lies
kaidza
Esau
Muṱa
Ask
fhaṱutshedzwa
busy
manifest
vhalavhelesi
47
vhaisa
acceptable
judge
ḽau
viewed
Watch
discussed
eye
Vhaheberu
litshe
zwi@@
v@@
girl
Vhe
parable
tongue
ise
mental
Imagine
maano
hour
teacher
extent
observed
ṱhalutshedzelo
vhuṱambo
War
Rom
shumise
image
comments
animals
play
active
elwa
rengisa
ḓitshidza
Mathomoni
teachers
Israelite
built
affected
NGA
grew
Catholic
Tshihumbudzo
boy
vhulunga
Philippians
afraid
universe
hanedza
mafheleloni
listening
idea
Asia
luṅwe
W@@
loss
demons
funana
drink
Ezekiel
instead
Koronika
established
dis@@
world’s
direct
Tshifanyiso
anda
Gospel
nṋea
Kor
husbands
continues
improve
Thoma
Land
statement
meal
late
dzhenisa
beloved
vhubvo
enemy
ḽavhuḓi
bringing
sight
basic
nḓowelo
nndwani
mivhi
u@@
privileges
appear
au
concerning
principle
mi@@
2008
vhavhaho
produce
o@@
younger
mbiti
break
temptation
agree
energy
vhathetshelesi
mubulo
deliver
strengthened
tho
ṱaluswa
ark
tendi
groups
secular
konana
expressions
laedza
nao
Sakaria
ṋekedzwa
Faith
khakhathi
mavhi
ofisini
entertainment
minds
3@@
kumedza
al
witnessing
slaves
hearing
tsimbi
valelwa
emotional
Mme
Over
itelwa
search
homes
succeed
fanelea
1919
km
save
Vhanzhi
Micah
Enea
Her
ṱhogomelwa
companions
tendelwa
waiting
Martha
fanyisela
Dzikh
dzhielwa
kuvhanganya
ṱalutshedzela
khakha
reject
BE
relates
V@@
malo
inside
khazwo
vhofha
vhibvaho
ṱhoḓisiso
Haramagedo
ḽanga
discussion
vhingwa
Muh
ḓivhetshela
mvelele
vhakhethwa
Mupsalme
tender
closely
ṱhalukanyo
ani
zwidodombedzwa
Happy
ting
illustrate
workers
although
Under
PAGE
evidently
khaseledzo
pleasure
Ḓo
ṅwaliwa
Ḽi
destroy
Parents
drawn
Mahulu
verses
muḓinḓa
likewise
80
wanalaho
iwa
report
Note
insight
Armageddon
telling
room
an@@
Lu@@
outstanding
distress
program
trial
easily
c
Phindulo
deeds
ḓidzima
afho
creatures
general
zwiaṋwiwa
promote
acted
humbulani
Ine
Likewise
leading
sinful
mahulwane
Ṱaḓulu
Yuropa
Ngayo
values
Vhuvhili
53
ra@@
commandments
rejected
zwishumiswa
Bvaho
master
scriptures
warm
zwifha
SIAṰARI
mufunzi
decide
muṱangano
setting
pride
khwaṱhisedzo
responsible
fhedzisela
instruction
thome
essential
Having
maṅwalwa
heyi
Fanela
dzimbilu
contact
describes
Family
vhuhosi
mangala
49
pfe
phara
patient
noṱhe
Doit
ngavho
dealings
wi
translation
Ndeme
Israel’s
communication
mahayani
tshilavhelelwa
Teach
ofisi
easier
receiving
Funza
applied
Robert
daughters
lwaṋu
ḽone
halwa
uyo
Germany
miraru
funwaho
courageous
eight
vhuḓi
Christianity
listened
particular
cut
Could
focused
im@@
ṋaṋa
ngalafho
it@@
sex
unique
phaḓaladza
picture
Among
Britain
directed
sees
responded
ha@@
bulwa
assist
sword
Nehemiah
contribute
reality
mahumi
views
sumbedze
Mosaic
masiari
quite
contains
Elisa
inheritance
refer
Messianic
appeared
ḓiita
Ivhani
Koron
don’t
type
business
vhuimoni
measure
Farao
ḓikhethela
willingly
ḽifhio
Two
formed
Take
Furthermore
haseledzwa
bvelele
High
million
carried
mouth
cares
lasting
mature
iti
box
gude
tshiṱalula
mikhuvha
road
anxiety
garden
Nathan
Tshikolo
notice
funzwa
worth
swikela
Abraham’s
YA
madzangalelo
funesa
talking
Mbudziso
muṅwali
sun
Lord’s
drinking
Honoho
Tower
claim
providing
eating
f@@
naḽo
milioni
Brooklyn
hurt
illness
applying
Ane
Amos
weak
murole
cases
vhaḓuhulu
Ra
connection
entered
itiswa
90
major
zwenezwino
Well
lu@@
engage
matombo
vhahura
issues
instructions
mistakes
Henoxe
dealing
delivered
saved
vhaḓinḓa
sikwa
tshakha
joined
IN
contrary
pass
spread
increase
Brazil
mere
dzone
swina
itwaho
Once
raise
Naomi
dzulaho
join
takalaho
Noah’s
correct
Inwi
believed
Go
Flood
zwiṱuṱuwedzi
Khonani
primary
adds
lifhedza
provisions
pleased
discern
translated
deliverance
muzika
hú
indicate
advantage
Here
Deuteronomy
gandiswa
finally
devhula
rulership
fanelaho
seriously
conclude
speaks
Colossians
spirituality
November
zwihulu
critical
hezwi
kindly
USED
survive
Rev
yaho
SHUMISWAHO
neta
escape
reached
huno
widow
gratitude
ṱalula
February
khatsho
mudzimu
recognized
Isa
resolve
harm
ruler
fearing
rengululaho
ḓowela
Nzumbululo
i@@
cities
paragraph
shayaho
vhu@@
magazine
thithisa
gods
18@@
mangadza
dzinndwa
Dan
expected
buthanoni
bogisi
Finally
aside
letters
145
hangwelwa
story
ḽivhi
Nisan
developed
eternal
ḽifhasini
rumelwa
ofhi
feels
reminded
Vhuṱali
bond
purposes
merely
placed
ṱalifhaho
sh@@
vhudziswa
treated
tsikeledza
al@@
Edeni
front
Vhuḓinḓa
khathutshela
Y@@
England
Give
dangerous
khani
J
500
rely
considering
Spain
Knorr
pfuluwa
Mavhonele
nanga
é
awake
zwivhumbiwa
Ngei
refuge
Yer
st@@
reveals
52
person’s
kwa
Roṱhe
mvula
Fulufhedziswaho
organized
tandulula
Thavhani
thavha
assistance
muano
zwiito
Vhanna
tshiga
khulu
66
ṱhonifho
ḓisola
conventions
legal
lugisa
main
struggle
indicated
lingwa
dzimbeu
growing
mifuda
pattern
Whether
Vhuporofita
Pentecost
details
honest
fhiseaho
military
selfish
impressed
Promised
determination
represent
thivhelwa
fill
associated
decades
goes
touched
vhaitazwivhi
gone
thikhedzo
dzhenelela
shepherds
buthano
vhatsinda
felwa
mighty
ted
fell
treasure
challenging
ṱungufhala
reference
court
Children
difference
Second
aspect
aṋwa
Internet
walked
stopped
Fura
Picture
Wo
72
Without
Regarding
U.S.A
Worship
big
ill
54
particularly
faithfulness
involve
wedding
ḓilanga
fhelaho
ṱuṱuwedzela
Itani
Wonoyo
WA
Vhagudi
itwe
Exodus
Vhurabeli
persecuted
k
tears
NA
probably
occur
khakhulula
accomplished
vhavhuya
Joel
Nyeletshedzo
lemelaho
harvest
social
sí
satisfying
1950
constantly
is@@
Never
weeks
gathered
minister
tsireledzo
shared
Every
piringulula
pikiswa
Spirit
neighbors
cover
Afurika
de
natsho
musuku
difficulties
U@@
mupo
Pentekoste
vhalisa
perform
indicates
growth
inhabitants
provision
83
beba
muhumbuloni
Tshivhidzo
er@@
tshimbidzanaho
ṋeela
muhuweleli
z@@
marry
fanyisa
mudzia
dear
allows
committed
li@@
Num
forces
mukomana
mitsiko
performed
Elisha
eager
Eden
sogani
Kolosa
vhuhali
khothe
viewpoint
awela
lovhedzwaho
wealth
at@@
Samaria
exactly
kunga
ḓela
sought
rebellion
di@@
konadzee
Galatians
represented
Re@@
vhutshinyi
reaching
reports
Both
Him
studied
waniwa
vhonali
tshinyala
hevhedzwa
fleshly
Us
Muvhusi
siani
company
dzinani
choices
wilderness
mitambo
ṅwaliwaho
powers
Students
normal
joyful
background
Dzina
Ndivho
ngaḽo
Dzenedzi
soldiers
ought
Yona
dalelaho
4@@
adultery
Ecclesiastes
onoyu
medical
identify
throne
p
couples
freely
due
mafulufulu
Study
tshengedzo
wickedness
opening
yes
pembelela
Sometimes
fare
2013
mmbudza
leaving
requirements
sinned
D
behavior
deaf
Hiskia
secret
music
matswuku
Ú
fhisa
dzitshakha
assurance
ka
fhungudza
144
France
tshinyadza
Loto
ḓihudza
determine
mararu
pfesesi
shed
injustice
motivated
Sovereign
declare
camp
kula
pfuma
eḓanaho
tshikepe
comforting
ruling
th@@
rwa
beneficial
vhananyana
violent
writing
luṱingo
miracles
amount
khuthadzo
thomiwa
arise
tshiné
Father’s
vutshelwa
muvhilini
thousand
zwiga
Vhashumeli
pioneering
angry
Vhudzhagane
Muporofita
Paseka
Church
Kings
successfully
sinyusa
tombo
factors
George
am@@
nzudzanyo
M
miḓi
on@@
Enoch
separate
livhise
grief
proof
de@@
nearly
effects
send
names
writer
merciful
describe
occurred
South
appreciated
keeps
ar@@
nakaho
dignity
KHA
II
significant
handle
ofhisaho
Tshenetsho
worse
over@@
recent
descendants
process
Has
Gal
concerns
model
vhumuya
iledze
Help
mountain
mahandana
environment
attendance
treatment
vhidzelela
tribe
strengthening
phuli
fe
ḓiṋea
Sadly
vhupangwa
aid
muhoyo
Dziṅwe
proud
vhuthubwani
commission
vhahawe
Songo
admonition
pursuing
pomoka
Version
acting
vhurumiwa
dzitshaka
Pharaoh
Vhenevha
Ndimana
endeavor
vhaṋa
sinners
vhané
chief
governments
Ngani
Vhahaṱuli
marifhi
designed
occasions
god
zwivhidzoni
assembly
Africa
patiently
bveledzwa
maanḓani
fulufhedziswaho
mulala
opposers
compared
zwiraru
emotions
upright
generation
tshifhe
ended
goodness
oni
ofhaho
discouraged
muvhuya
ho@@
carrying
waters
vhudze
Thesalonika
Passover
car
w@@
moving
le
temporary
bugwana
lwanga
lavhelelwa
Baali
gungwa
vhafuni
begotten
sang
remains
fela
appearance
village
56
repentant
murangaphanḓa
witnesses
refuse
mild
Ṱoḓa
NDI
hatred
Levitiko
cry
nzulele
73
Zechariah
Notice
stake
vhambedzwa
danda
abilities
tshaṋu
rise
khuthadzwa
wish
vhuyi
Europe
heavy
firmly
inhabited
si@@
career
facts
61
reasoning
mufunziwa
khovhe
tsikeledzwa
sake
alcohol
Upon
Katolika
Ministry
mountains
6@@
pointed
meaningful
lovingly
ates
Paradiso
referring
anxious
leads
Ṱalutshedzani
worthy
Un@@
Mufumakadzi
Ephesus
Aroni
luhulwane
tshisima
I’m
gandiswaho
Surely
thangana
Russia
recreation
ḽiṱaḓulu
chapters
haseledze
Sea
hulu
zwidzidzivhadzi
Book
ḓiṋekedzaho
white
international
elelwa
impossible
mbofho
demonstrated
tambula
superior
influenced
granted
mbambe
humbelwa
apparently
Galata
produced
angaredza
rulers
funi
Whatever
ṱuṱuwedzaho
noticed
Michael
Vhumessia
mapfura
associate
humbly
assignments
calling
quoted
reaction
facing
exercising
ṱalifha
miṱanu
invite
sit
brotherhood
Muvhusoni
appears
peaceful
secure
remarkable
belong
dzika
society
run
global
dzhiele
path
gandisa
financial
farelwa
kunakisa
Baal
habits
surprise
motives
farelela
gammbani
fushaho
isaho
animal
figurative
trusted
300
ideas
glorious
exist
dzema
journey
lwanzhe
linganyisela
mutendi
directly
advance
Day
ḓivhadzwa
ant
ṱungufhadza
Maanḓa
numerous
repentance
Russell
Peter’s
Doing
dokotela
Am
ṱalutshedzelwa
eni
offers
benefited
MUSI
abandoned
Amba
approached
nyito
authorities
eli
remaining
linganaho
el@@
Inthanethe
OF
invisible
Hezekiah
Testament
grasp
forms
tswa
wide
tshirunzi
maṱanu
arrangements
Questions
ḓiswa
Ṋeani
darkness
scripture
relations
tshipembe
abundant
ḓivhelwa
possessions
Henefho
divorce
khuluṋoni
pfisa
murumiwa
rightly
moves
vhonwa
qualified
conversations
kovhela
recall
nyimbo
ndovhedzo
nawo
travel
severe
thank
zwaṋu
vhasidzana
ní
physically
ṱhoni
none
Abele
persons
120
mangadzwa
lo@@
Come
badela
sing
huliswa
thereafter
haṱulwa
preceding
iṱo
khole
ations
Luther
Komiti
madzanga
surprised
Eph
Funa
sleep
pfumaho
beast
nṋa
pleasing
pornography
highly
Drama
ap@@
song
buy
prophetic
heed
62
shumele
fornication
muhwalo
Lev
mushumi
mikano
ministerial
task
vhufheloni
mention
disease
Ndzumb
ṱhaphudza
identity
cost
Titus
ḓiitela
vhagudi
limitations
gathering
apart
fhirisa
dzumba
In@@
obeying
Khou
forgiving
Hafhu
Aaron
kombetshedzea
ṱalela
employment
lifestyle
causes
belief
vhuyedzaho
Kereke
j@@
render
healthy
reflected
assures
exists
weaknesses
vhilaedziswa
recently
Fulufhelo
ṱhanzi
dzudzanywa
German
stone
Al@@
Lot
144,000
Ahaba
tshimbile
wild
linda
L
vhalela
gradually
mavhele
Its
generous
Vhu@@
Numeri
2000
vhambedzani
Job’s
religions
7@@
vengo
dwelling
theocratic
Other
altar
vhahavho
hundreds
excellent
visiting
tshuwa
marvelous
pikisa
allowing
kunde
wars
pressures
linganyiselwaho
instructed
suggestions
moment
traveled
Solomon’s
construction
acknowledge
sickness
T
literal
mankind’s
kill
guided
Tsho
ku@@
trees
sema
grown
Misini
indefinite
lamulela
balanced
gold
outcome
Dovhani
increased
upbuilding
holding
redza
ul@@
fha
Biblical
nwesa
endured
tempted
peoples
finding
abundance
dzikhonani
released
unable
Thessalonians
reminders
happens
audience
tikedzwa
zwifuwo
arranged
vhagunei
site
tshimbidza
mangadzi
Korea
baby
Christendom
zwala
nó
root
86
vhashai
Stephen
wheat
protected
familiar
miri
mulayoni
Work
alert
higher
belongs
vhonetshela
Ngwana
ea
ro@@
gungula
lambedza
takadze
phaḓalala
notes
displayed
hospitality
dzingaho
trouble
elaho
gonya
phesenthe
visits
Prayer
Dakalo
ṱuṱuwedzea
remind
serves
Amerika
tribes
mashandukwa
Abel
S
useful
stood
ini
royal
communicate
ter
2002
tshena
writings
fhola
9@@
replied
2004
es@@
Vhafunziwa
recalls
vhaḓivhi
tshikhathi
fulufhedzei
flee
properly
lying
ṱanganele
traits
Maleaxi
wayo
2003
Ḽihulu
dovholola
research
ndanguloni
reign
plans
el
abandon
rain
takalele
Dzenedzo
ná
Learn
inclined
nalwo
tsa
modest
Vhavhingani
meditating
herself
percent
victory
rendered
103
relate
ḓiwana
dzitshelede
community
63
Shortly
daha
tendelani
tshini
nguvho
zwivhumbwa
brief
ears
balance
methods
shandukela
imperfection
dzangano
island
zwanḓani
tshanga
repeatedly
companion
sacrificing
inner
tshifhaṱuwo
require
ṱavha
ministers
resulted
ṋamani
lowly
encourages
vhakomana
wó
ḽikhethwa
fanyiswa
souls
hate
Muhulu
ent
win
mark
vhale
additional
Ḽeneḽo
be@@
zwiswa
Zwifanyiso
phaṱutshedzo
vhuṋa
stronger
broken
relationships
midst
ous
remove
unrighteous
Out
magazines
kerekeni
15@@
dwell
fhaṱiwa
possession
ṱalutshedzelwaho
sad
begins
child’s
alutshela
slow
Maitele
fulufhele
porofita
mis@@
today’s
Heyi
konadzei
ḽivhanda
nambatela
turning
potential
Kaini
tendency
ungodly
listeners
Almighty
khakhela
xedza
paragraphs
tevhele
union
wisely
Peace
Vhalevi
glad
luimbo
earnestly
607
hadzo
PS
approved
ab@@
Sisera
dangers
drawing
ṱahe
funwa
involving
Esera
honohu
conviction
Levites
Jonah
conducted
Corinth
abuse
tsireledzwa
ṱoḓei
spouse
mulomo
soil
Tshipembe
content
tshimbevha
across
private
region
trip
asks
Ḓanani
maintaining
Dzhapani
vast
mudededzi
luswayo
enjoying
aletare
official
vivho
rules
ṱ@@
nine
masalela
Michelle
address
pfumo
date
vhiga
enable
create
vhuvulanḓila
il@@
Esther
saintsi
YEHOVA
limit
conflict
concluded
lay
58
commands
nyendo
safe
quick
warns
vhuḓimvumvusi
Rahaba
J@@
thelevishini
Eventually
blind
touch
mates
compare
imelela
Mother
guma
bodies
treasures
NAA
vhubvaḓuvha
milandu
ṱhogomeli
welcome
ṱala
illustrations
huné
corrupt
ri@@
als
Vhannḓa
entrusted
oil
standard
vhumbwa
Vhubvaḓuvha
mihulwane
accepting
majority
adjustments
mavu
ngohoni
writes
mivhuya
Mulalo
associates
applies
sinyutshela
affairs
leluwi
ndó
mistake
covered
armies
commit
mavuni
mamela
symbolic
Wonoyu
avhelwa
murafho
vhukwila
hufhio
motivate
entitled
400
removed
air
adjust
attitudes
ruin
extended
nṱuṱuwedza
tshidzwe
identified
Ṅwana
Ḽo
signs
rabele
non
foolish
Judas
Hai
fitting
Jordan
ṋaledzi
Vhuvhusi
Halls
trusting
distance
Vhafarisei
Si
tshiphirini
Pharisees
punishment
muvhigo
ṱhaluso
shona
Mbingano
district
differ
se@@
ḓivhea
homolosa
Unlike
ly
painful
ir@@
inherit
culture
maṋa
conscious
Tsini
Granted
konḓelele
attacks
enabled
stress
ṱwa
tendele
Earth
straight
fast
writers
boldness
Photo
failure
people’s
sp@@
paid
magumoni
choosing
ṋemuḓi
mugudi
Ḓi@@
worldly
belongings
Tito
peaceable
Lamb
Vhakor
takaleli
fhaṱaho
tsheena
slavery
miḓini
Tshithu
pagan
firstborn
Ahab
talks
Z@@
Service
readily
significance
foundation
Charles
fundamental
aged
pfarelo
wrongdoing
khao
Committee
pursuits
American
Nge
bindu
Nations
partner
lugela
ends
represents
Time
obtain
wondered
kaṋa
vhukovhela
Phetho
spirits
initiative
discovered
HA
zwishaiwa
ee
songs
Eli
pfunzothendwa
Explain
khwaṱhiswa
makhaulambilu
disfellowshipped
tshika
wrath
Lazarus
mukhuvha
expects
bed
l
MU@@
ignore
Hani
Lazaro
divided
fhelelwa
tevhekana
Ḽifhasi
eḓana
vhonale
pandela
release
masiandoitwa
dress
75
hundred
lenga
Eric
broke
or@@
mbonalo
terms
restored
reported
vhupulini
differences
series
rewarded
safeguard
Cain
enables
ḓitakadza
reliable
stayed
struck
caught
kwamiwa
vhoni
seventh
meditation
zwiṋoni
Phanḓa
lozwiwa
teenager
Chronicles
vhaṅwali
welfare
comment
vhushandukwa
advancement
Source
biko
ḓadza
vuswaho
drew
compassionate
resources
appeal
total
Kale
perfection
C
n
worshipers
customs
rali
intense
dziphara
inherited
radio
h@@
hafu
worker
Tshigidi
mirafho
pfali
kilasi
vhatukana
200
hao
khwaṱhisedzwa
agreed
intended
judges
khaṋo
poverty
desirable
played
causing
MA@@
yayo
Manweledzo
Phil
ma
loyally
tests
Society
thankful
pleasant
cared
stick
thavhani
gidima
stars
Dzula
ayo
center
preparing
64
ṱhanu
Musadzi
2001
calamity
remnant
Fhethu
poured
mbalo
residents
review
burden
Zwi@@
context
104
thetshelesi
psalme
Paradisoni
economic
fhindulwa
national
Spiritual
th
Vhaefesa
Baranaba
kopi
vhafarisi
error
degree
abroad
lufuni
store
Tshumelo
eagerly
ḓivhona
Sheol
didn’t
custom
sedze
strangers
rec@@
skills
murahunyana
red
suddenly
tshaho
ship
tabernacle
tanzhe
repent
raising
motive
le@@
wind
tika
tshigidi
vhuyelele
disappointed
dzhene
Rebeka
likened
vhulahwe
enduring
Yak
thakha
mugudisi
permanent
delighted
91
57
courageously
pre@@
threatened
torture
lulimi
campaign
110
est
unclean
clothing
Congregation
satisfied
Japan
Ṱhoho
popular
Efeso
newly
zealously
urgency
hawo
vhurena
Vhuthu
features
59
henengei
Sermon
prejudice
g
Making
mulanguli
grain
Barnabas
69
ṱaluli
plan
finished
sendedza
humbele
ti@@
Concerning
passing
literally
list
Hannah
rwiwa
ula
senses
1918
rembuluwaho
healed
property
Sinai
ḓilugiselela
vhau
scholar
sustain
disaster
nearby
vhi
Further
henefha
reminds
fhandekana
cup
vhaaluwa
empty
tsireledzeaho
Yudea
opinion
miraculous
ḓodzwa
Mi@@
Rebekah
marital
fhungudzea
sorts
vow
Yudasi
Milayo
ḓitsireledza
gather
H
71
Sophia
Ḓi
ṅwale
Yearbook
haḽo
Minor
banga
exciting
tshazwo
shengedzwa
ḓiṱukufhadzaho
Philippines
fhedzaho
governing
warfare
salaho
Mbeu
warnings
Fulufhedzea
primarily
Zwifhingani
d
willingness
low
amb@@
Richard
leader
zwanga
routine
lilela
finds
co@@
dealt
regret
Muvhusahoṱhe
Gudani
kilasini
William
vhuṱanu
su@@
mb@@
139
Tshi@@
shayea
Vharuṅwa
earnest
khawo
ons
lwanzheni
maḓini
Tshipikwa
Ireland
Ef
returning
sendele
constant
lelutshela
elela
isi
maṱali
influences
muṱanganoni
Things
idolatry
sialala
depends
developing
observing
Muisiraele
London
Yorodane
mabindu
resolved
glorify
supported
burning
84
urges
restore
as@@
Rahab
universal
thusaho
mafumo
5@@
silver
guilty
YOU
thanks
mukovhe
8@@
forced
tsikeledzaho
lisa
vhonnyi
pomokwa
te
encounter
mashudu
Hanna
Mulisa
exposed
sold
laid
Vhurereli
wa@@
sayings
Wana
lovers
Maṅwe
theroni
subjection
News
fhurwa
ḓilugisela
weakness
Anna
Tshikoloni
impact
ṱoḓeaho
makhulu
lingana
Hagai
vuselwa
surrounded
vhusumbe
beauty
establish
ṱuwe
Mukhethwa
fighting
lwoṱhe
relative
solid
ṱarafa
conducting
depth
speaker
tent
dzhii
ṋamela
range
Malawi
maswa
refreshing
huhulwane
ḓiṱolisisa
600
vhulala
variety
mine
householder
N
1940
tired
Mulaedza
Following
heal
miracle
northern
believing
ngawo
isolated
Tshilalelo
ta
India
khana
table
Riṋe
mukalaha
possibly
Jonathan
hates
houses
AN@@
devoted
Poland
possess
finish
U.S
temptations
PAGES
nyengedzeo
Murenani
spending
1930
discernment
prominent
Grand
1999
supply
vhé
MASIAṰARI
fhele
ad@@
proceeded
shine
fanelwa
mabuthano
ḽaṋu
Faithful
police
Philip
supporting
Italy
mela
comforted
tested
edza
obeyed
lips
quit
kingdoms
aya
Elihu
dream
130
singing
father’s
tshau
holds
esa
psalm
68
prize
distant
printed
tewa
vusuluswa
regardless
no@@
huge
deceived
tshiṱiriki
bebelwa
scholars
Lu
tendelane
hanganea
ling
boys
Joseph’s
wholesome
tonda
reputation
Truth
jw.org
draws
huwelelwa
Jehu
contain
objective
ordered
risk
memory
ve
ously
mbekanyo
tshiphiri
madzangano
ity
Everyone
Bvelani
edition
damage
paying
Pro@@
ṱhóho
rewards
images
Bogisi
commandment
disobedience
Adam’s
sets
Vhuimo
terrible
97
DZA
luswa
Vhuleme
reflecting
friendships
dies
Which
phombwe
welwa
Lufu
Tshenetshi
fulo
existed
funze
opposed
ings
preserve
Evening
ḓiimisele
weeds
wani
hangwele
threat
150
reply
hated
River
Kanana
Heart
harsh
vhuyelwe
funaho
er’s
vumba
pandelwa
repeated
Meal
fulufhedzee
Pictures
preserved
rejoicing
Tshihumbudzoni
gained
bitter
Mudzimuni
IS
edzise
texts
remembered
Muhaṱuli
factor
ḓidzhenisa
emotionally
vhifha
Egyptian
churches
acknowledged
marked
earth’s
xela
meek
calm
Baraka
Jas
1943
bride
detail
112
vhaṱanu
huvhadza
Continue
hidden
throw
zwioro
shandule
Man
lozwa
letting
witnessed
sincerely
Often
luvhonela
Judea
ruled
priorities
heads
crime
zwifhaṱo
lufunoni
ḓowelana
stories
Switzerland
History
depend
proclaimers
THERO
vhalani
Jon
brochure
publicly
opposite
2006
mapele
AL@@
explanation
diligent
ks
Neh
dzibugu
Marriage
fanelei
cold
ZWI
schedule
puts
thrown
dzumbama
visible
ch@@
zwithithisi
kaidzwa
londa
minded
experiencing
utmost
interesting
season
completed
Trust
scene
Bill
admit
praising
mapholisa
Draw
la@@
Greece
pfana
Recall
bebiwa
innocent
elwaho
defend
1,@@
Muruṅwa
vhaho
fish
huwelele
Judges
wall
Get
claimed
felwaho
privileged
clothes
harmful
1945
modesty
um@@
observes
Be@@
looks
portion
les
chance
madokotela
133
shaka
watching
Ramaanḓaoṱhe
ḓiphine
street
Ar@@
dala
Vhukati
bo@@
cruel
WHEN
dzau
pfufhifhadza
aluswa
ala
discussing
Judge
theme
continually
matshelo
City
Miraḓo
fallen
joyfully
tr@@
reads
tshishumiswa
luraru
monde
Y
VHU@@
da
translations
arrival
Yehu
copy
JEHOVAH
anxieties
obligation
dark
declaring
effectively
description
vuḓaho
khothoni
sitting
Above
fasha
materially
deeper
vuledza
bound
leaves
Murangaphanḓa
requirement
copies
ac@@
WHAT
attempt
en
do@@
ance
Lwanzhe
Elders
Vhaegipita
addressed
approaching
buguni
tsilu
serpent
vhaisala
miraculously
displaying
Tshiitisi
Mufunzi
unless
Nṱha
shavhela
engaging
maṱhupho
Tshikriste
78
maturity
ṱambaho
Yosafati
charge
gets
priority
temper
mulambo
highlights
ans
hardships
fu@@
vhukomana
mikhwa
amazing
doctor
Gogo
Master
attain
reila
shortly
promotes
Times
tsheetsho
reap
habit
mavemu
om@@
incense
tshiswa
searching
assemblies
tra@@
drugs
ṋowa
vhurathu
cooperate
maḓanani
Mubulo
fhiwa
grand
89
reproach
lugisela
Web
ḽi@@
Tshisima
website
Ruler
·@@
vhukhethwa
ex@@
tshikwekwe
COVER
rewarding
contained
per@@
vhahaṱuli
comfortable
muitazwivhi
stumbling
proclaim
losing
hai
marambo
mabuthanoni
cultivating
vhugunei
life’s
the@@
vhuongeloni
Tshila
oma
ke
muvhusoni
Hesek
Truly
takuwa
Muvhumbi
swiswi
offerings
submit
hospital
urge
thetshelesaho
stumble
Barak
miṱodzi
ṱanganya
arms
solution
dalelwa
associations
Thavha
participate
ndavha
foot
Leviticus
musanda
1@@
dz@@
deserve
1953
miss
itani
angelic
dzumbululela
gu@@
oppose
survived
discouragement
accord
except
edzwa
zwau
executed
Mbuno
shumiselwa
Tshifhe
ṱanzwa
add
Cameron
believer
khentsara
ḓ@@
opinions
forgiven
Yonathani
swike
unbelieving
qu@@
Highlights
Jehoshaphat
lacking
understands
gundo
K
male
discussions
plant
95
crushed
tshino
healing
muṋango
dzithabelo
fields
stones
arose
paradisoni
worry
urgent
vhilaedzisa
fled
Rutherford
accused
ara
Muṋei
lumelisa
expressing
Next
condemned
vhapikisi
sumbedzi
pfesesea
French
solve
Con@@
extreme
Col
Early
ime
statements
ol@@
fit
patriarch
pursuit
makhethwa
munzhi
Theocratic
con@@
Latin
che@@
ec@@
ia
Gideoni
anymore
prophesied
musumbedzo
litshelela
Muyuda
silent
Yosh
Besides
judged
ist
khumbudzo
1955
ṋaṋisa
ment
tshiṱangadzimeni
hoped
luvhili
associating
ḽiṅwalwa
respects
tsh@@
Show
Nnḓu
netisa
wear
qualify
pictures
fola
Right
profound
kingship
Vhahuweleli
examination
appealing
Vhunga
project
victim
vhadededzi
lala
adopted
feature
dying
striving
Sodoma
pi@@
miṋeelo
Galilea
Vhaheb
testimony
ofhe
armor
thorough
principal
Ḓ@@
1990
vhuṱonḓolo
adults
kuvhatedza
tshifhaṱo
tend
TSHI
acquainted
Nathani
edzi
acquire
load
extend
handed
tshinkwa
capable
turns
mbudzi
Jude
headship
bus
manifested
brotherly
civil
positions
children’s
cast
Thusa
hide
await
Andrew
hardly
Psalms
conquered
birds
se
top
ku
vhathihi
Priest
similarly
lwone
rwela
mubebwa
haughty
dzilafho
car@@
publication
generally
overwhelmed
capital
Galilee
105
vidio
cherish
asleep
Human
mavhudzi
Use
greed
ves
humankind
Shumisani
ṱulutshelwa
victims
distressing
Spanish
bought
State
Become
mimunithi
vulela
Muṅwali
totally
Vhafilipi
Again
contributed
headquarters
troubled
1995
tshingafhani
shame
eliminate
apostate
us@@
Albert
rights
unfaithful
desired
dziphambano
muhaṱuli
peer
admits
kombetshedzwa
application
Ninive
execution
ent@@
reasoned
fathers
xelaho
widows
ch
ina
HOW
quiet
sending
whenever
muḓuhulu
mahaya
ens
takadzi
Reign
Sumbedzani
thrilling
Empire
goroi
debt
Asuri
otherwise
hunzhi
whereas
Three
cried
fhiswa
maguvhangano
Muanetsheli
ṱhonifheaho
imitating
greatness
Vhuthihi
faneleaho
officials
em@@
kwengweledza
Consequently
doubts
arrested
river
faces
prosperity
vulea
ridicule
Evidently
Says
corruption
bi@@
previously
happening
ḽiwa
vhaimeleli
morally
1960
everywhere
deception
ese
kuvhanganywa
rumiwa
Creation
talents
apostates
2005
Way
reflects
feed
Ana
dzudzanyeaho
imprisoned
generosity
running
phone
mar@@
Tony
sufficient
op@@
zwimela
kha@@
Gerika
Hope
commendation
Any
dina
unbelievers
minutes
citizens
accompanied
Using
vhumbiwa
go@@
Were
dzhieli
composed
historical
AND
elani
vhashumisani
he@@
VHA@@
burned
crowds
1952
doctors
Pray
clergy
weapons
tshiimo
foremost
ṱuku
mourning
Zwihuluhulu
maṱoni
fanelee
visitors
tshuwisa
expand
Guda
Ad@@
schools
unwise
ṋayo
Canaan
famine
ḓora
impression
Herode
atmosphere
Brian
W
fiery
Yosia
lwendoni
favorably
footnote
Eusebius
Vhonani
Babylonian
miṋa
fears
Name
highlight
Shepherd
ness
Itela
foreigners
ally
rescue
helper
Re
Goliata
Edzisani
sat
emphasized
evolution
anetshela
Thuso
elwe
Septuagint
International
José
increasing
Tshigerika
satisfy
Republic
virgins
h
errors
Tsefanya
●
submission
admonished
NI
Boaz
valley
konḓelwa
ding
perfectly
kambiwa
publisher
friendly
tempered
mafheloni
pro@@
Brothers
Mulambo
Year
thendelo
ṱhonifhiwa
afterward
gaining
Bethlehem
Haṋu
P
ensure
ds
khakhisa
shonisa
talked
explaining
imperfections
fourth
vhagudisi
thinks
goats
confronted
Ezra
trustworthy
Pilato
man@@
Ex
Peresia
livha
zwililo
resulting
ering
far@@
inter@@
laiwa
muselwa
shanduki
Musalauno
Ferdinand
suggested
Living
shepherding
77
fulfilling
khaho
avoided
edzani
fane
apostasy
depressed
clay
dzithavhani
deepen
oppression
empire
fi
valid
passage
mutengo
kalaha
rengulula
.@@
Years
Person
dzumbululwa
Old
Jenny
Close
tambudzwa
Tshipiḓa
92
Box
hair
realm
tools
hó
dust
fed
fulufhedziswa
Leader
prospects
ing@@
volunteers
obstacles
hi@@
ES
ḓidina
94
67
services
Boasi
tsikeledzeaho
Swondaha
initial
appointment
Christlike
extra
illustrates
bve
equipped
ethnic
conflicts
assure
ours
zwiphiri
Lushaka
boat
respected
ingly
countless
replaced
receives
vhuyaḓa
mentions
Gospels
ran
wholeheartedly
Vhaapostola
stands
highlighted
Much
Ṅwaha
St@@
hu@@
ny@@
Within
Henry
illustrated
14@@
Vhawe
ṱuṱuwedzana
fhumula
kavhili
hesitate
mavhuthu
miṱani
khamphani
ge
commended
Ngudo
huthihi
kinds
ndoṱhe
exile
neutral
surface
Ki
Serving
Vhakanana
swiswini
Don
handling
vhalwadze
won
Sendelani
achieve
2007
It’s
blame
Nyambo
ban
z
Mar@@
rock
video
bu@@
happily
safety
team
ḓadzee
Anointed
mithara
vain
suitable
leludza
continuing
ḽ@@
length
struggling
Gideon
garments
ngao
priesthood
vhidzwaho
Simon
sorrow
dedicate
heartwarming
located
Vhuṱanzi
expectation
grave
ḓilinda
overly
tswuku
2014
Sodom
ko@@
Encyclopedia
Vhafumakadzi
covering
vhuswole
advanced
Martin
ator
Gehenna
mihumbuloni
comparison
eternity
Vhushaka
middle
tshimima
strongly
Vhulenda
price
Dzo
Konḓelela
Mashudu
G
outlook
116
Mal
gole
ḓiṱukufhadzela
proving
tevhelwa
vhavhuḓi
imitation
bow
ṋeaho
shumiswaho
ndí
badness
Thetshelesani
exercised
mail
grant
fhedze
twice
vhalwa
ekonomi
exemplary
zwó
mothers
tshidzimu
sides
capacity
watchful
grows
elekanye
worshipped
ambedzana
zwilavhelelwa
pfufhi
é@@
Dictionary
Mul@@
elsewhere
ḓiṱukufhadze
Im@@
vhafunwa
disappointment
Luvalo
sheba
Friend
gentle
thendelano
object
Abesalomo
unusual
itisa
tevhedze
mul@@
vhulungwa
blesses
Haggai
dini
backing
Dzi@@
offended
ar
Mutshidzi
Vhaasuri
Fil
peers
commissioned
intimate
guilt
tax
Throughout
maṱaḓulu
extraordinary
edze
pha@@
ments
partake
ró
ṋ@@
ṅwalelwa
imelwa
ṋewaho
projects
karusaho
bere
relatively
mulwadze
IN@@
swole
count
sanctified
Davhi
Please
mugodini
mba
development
www.jw.org
R
memories
ci@@
doctrine
Tshiyuda
lion
langaho
vhuṱoho
2,000
muḓivhi
wipe
mutsinda
Vhutshiloni
ndau
preachers
up@@
Nḓivho
Knowing
ses
credit
milomo
hulela
Egyptians
arrive
independence
truthfulness
permission
European
shield
Dis@@
murder
maintained
ṱoḓou
alongside
Lini
girls
Esitere
tsiki
537
Anthony
po@@
Malachi
widely
elements
lingea
Know
soldier
tshihulu
ḓiimiselaho
ur@@
Chron
vhokhotsi
En@@
considerable
Iledzani
end@@
aim
Yeriko
Nothing
labor
to@@
dzuli
khadzo
bears
Fhungo
1947
Siria
Giving
Speaking
bore
iswe
Betlehema
respectful
strengthens
Red
ded
Austria
emblems
produces
Imitate
sports
proclaiming
Ex@@
intelligent
dzima
vhuhwavho
Alexander
Philippi
hell
cancer
Index
ages
ag@@
judgments
Herod
tshinwelo
Teacher
os@@
vhambedzwi
thrilled
ongoing
warn
Madagascar
ṱhonifhe
fhirisela
mutshelo
Sumbedza
ṱanganedzea
isela
adversity
specifically
changing
selected
informed
east
AR@@
method
te@@
mukosi
richly
welcomed
tshinyalaho
duties
judging
grieving
muvhala
shoulder
GWATI
lawlessness
tshinyadzwa
planet
dzudzanywaho
dry
settle
Jean
vhuhedeni
Li@@
1513
upset
IT
unexpected
dziphuli
khukhulisa
Elijah’s
Stefano
sa@@
outset
location
and@@
out@@
games
der
cha@@
deserves
plenty
restoration
Ḽeneḽi
intentions
population
vhuyafhedza
mbava
yours
RI
gatherings
Marita
undoubtedly
baisigira
camps
style
settled
vhá
immediate
ngelelo
moments
weekly
presentation
thi@@
farela
hypocrisy
equal
ah
rebellious
begun
Levi
bveledzwaho
la
Against
Thereafter
origin
earn
kungaho
unscriptural
falling
106
prayerful
MUDZIMU
ni@@
khuda
marriages
ṱoḓela
centered
ulu
Readers
gracious
backgrounds
belonging
protects
counted
sell
operation
viewing
Josephus
frequently
hears
ry
dziṋaledzi
Sabatha
ear
tshibammbiri
111
milingoni
tries
Tsh@@
rendering
souled
THIS
Sunday
Maṱo
ndimi
takalelwe
suggest
cultures
ary
examining
listed
captivity
fun
Alex
difficulty
imisa
gudiswaho
Kindness
Nineveh
era
Pfaneleo
tshivhumbeo
1980
correction
current
Muḓinḓa
ish
Joy
considers
pity
olive
obtained
worthless
Wawe
Jericho
londi
ṱamba
bisi
hevhedza
iḽa
refreshment
dzikhakhathi
Lo@@
officer
Ṋea
nyanyulaho
khomphyutha
improper
Moaba
drive
ob@@
tsheeho
funane
missing
engaged
bvula
strike
ON
pe@@
tu@@
enjoyable
Saul’s
mali
ble
steadfast
wealthy
Tshoṱhe
playing
ne
diligently
1958
ṱavhanyisa
vhushai
types
ḓivhadze
level
Nzumb
territories
NḒILA
sinyuswa
badly
fhandekanya
rabelele
pieces
res@@
dzhogo
bones
agreement
16@@
glorified
hanedzana
Daniel’s
mahaḓa
ei
television
iron
Thousand
mvalo
lwalaho
khwaṱhe
announced
Ngosha
humbulwa
ndapfu
limits
proves
developments
ters
muimeleli
storm
Vhavhali
nkhumbela
readers
openly
vhulondi
possibility
ze
declaration
vhavha
Ukraine
shumisi
khethekanya
ism
Josiah
Zwiimo
Up
98
pwasha
famous
Iina
hele
For@@
lovhedzwe
accident
sathu
north
AS
annual
Millions
vhurabelini
tshili
awaiting
Back
owner
bviswaho
ṱutshele
sola
execute
assume
ING
vhetshelwa
ED
Tshivhidzoni
replace
I’ve
fi@@
livhuwa
pleasures
komiti
Netherlands
rid
namely
Ḓoroboni
midzi
Jephthah
Misi
Saúl
127
Me
Jeremiah’s
inspiring
mivhigo
pick
Deborah
hangwe
Christmas
tri@@
judicial
introduced
mugwadameli
Zwifhinga
poswa
sc@@
favorable
tshidimela
Vhukovhela
inactive
petitions
remote
everyday
ashamed
ou@@
r
overwhelming
Debora
ntakadza
El@@
snare
gurannḓa
aging
steward
adult
zing
creature
1970
RE@@
mutshini
Tshivhindi
wherever
lifha
ntsumbedza
Seed
tions
Kalebe
Numbers
stage
afflicted
ule
depression
confirmed
fulufhedza
hoping
Ḓivhudziseni
Compare
lambedzwa
Vhanazi
me@@
Likely
Jan
99
repay
hopes
rí
fushee
Vhakolosa
1939
compromise
representatives
u̗
surrounding
Learning
materialism
tshimbidzani
humbuli
pregnant
|
Tshimbila
defense
ngangoho
mid
conquer
scale
Ten
Neither
Mvelelo
telephone
ṱaṱisana
garment
hula
ḓodza
langiwa
HO
Hitler
Mashangoni
billions
ama
3,000
ṱaluswaho
vhaliwa
Pilate
trap
expectations
suggests
Habakuku
neutrality
Try
mon@@
1998
extremely
STUDY
ola
1956
initially
Caleb
phanḓanyana
size
1942
dzithavha
crown
sengiswa
sinner
a’s
fhe
ḓivhudziseni
1941
Nebukadanetsara
art
MY
ngwana
fresh
sina
yield
waini
View
tendencies
Whom
tshivhili
smoking
husband’s
1949
Head
ṱholi
hafha
Thestamennde
reside
maṱari
historian
1992
ordinary
weaken
feared
Scripture
oversight
ṱalana
omaho
elo
deceptive
tic
heirs
ṋei
childhood
khuthadzaho
devote
immortal
mushumisani
ignored
schoolmates
yoke
East
Vhukonani
Ané
cloud
tongues
tshivhumbiwa
evangelizers
synagogue
producing
follows
mathomo
funds
Paris
America
distracted
mutholi
delay
zwiṋa
Goliath
Loving
guests
title
Assembly
jobs
tshifhé
absolutely
Sedzana
Mom
hurtful
Especially
moon
garaṱa
ṱhamu
Vhagudiswa
shandulwa
amazed
psalms
southern
Wise
linked
lunako
necessarily
milaedza
standpoint
selfishness
Rachel
Har@@
proverb
vhuyedzedza
Moscow
Reading
captive
skin
Huṅwe
spite
Jairo
lwonolu
disposed
worshipping
supplication
convince
phaḓaladzwa
jealous
Gentiles
muvhunduni
sensitive
comforts
maguvhanganoni
British
disposition
Turkey
sw@@
Death
ṋekedze
items
oath
brother’s
Certainly
Yoele
ka@@
tendiho
khwaṱhisaho
creative
Hans
ḓiamba
rage
unselfish
vhudzuloni
Library
mpfunza
mahala
tragic
posa
pfiwa
tshinyadzaho
Vhambedzani
Amen
ḓivheaho
edzaho
vhibva
Listen
misled
GUDWAHO
ḓiimelela
Nazi
bada
practiced
convey
uyu
mutambo
symbol
lean
ties
saving
Power
tremendous
measures
exchange
Fear
Phaṱhutshedzo
avoiding
ph@@
Lwo
touching
arrives
mulomoni
pf@@
Avoid
ḓiṱhogomela
yielding
funzeaho
HAVE
Actually
konḓi
hot
politics
respecting
priceless
x@@
leadership
holiness
central
goḓa
tear
kokodza
admitted
Hashu
feast
practicing
honesthearted
focusing
Baruki
Until
motivates
Ṱhogomela
ale
weight
timely
har@@
worthwhile
Sandra
penya
ḓaka
timatimi
vala
tshilimo
strange
mufhunga
ek@@
Samaritan
programs
Accordingly
endless
mold
kumedzela
thereby
vhayo
khunyeledzwa
honesty
ṱanganedzi
Arthur
dzimbudziso
Bath
laṱela
counseled
submissive
identifies
WE
Caesar
zwikhethwa
surprising
for@@
uphold
visions
1931
Lwanzheni
Ghana
Batseba
needy
shadow
resentment
Tshifhiwa
anyana
smile
commercial
khwaṱhise
lwonolo
bika
ered
dzudzanyea
ease
Mufunziwa
Dzine
loud
vhulapfu
EN@@
exact
hungry
0@@
meantime
xelelwe
fhodzwa
supplies
murunzi
tendaho
sessions
74
Purpose
globe
thoroughly
prayerfully
tsinde
worried
tragedy
yunivesithi
ivhani
cure
miṱokola
ḓivhudzise
hangwi
ler
Ḓivha
Had
expresses
periods
Branch
emula
ḓikonanya
searched
ḓumbu
Ac@@
remembers
ṱunḓela
propaganda
planned
media
luvhengelambiluni
Miṱangano
refrain
injury
indication
115
vhudavhidzano
Thessalonica
hanedzwa
B
cells
praised
passages
muthusi
mutsheṱo
fhufha
overlook
jealousy
Lingedzani
Manase
hunger
mbulungelo
yó
enjoyment
zwikolo
claims
summer
permit
instruct
Taking
Looking
attractive
ened
cr@@
emphasize
imbela
evangelizer
Filipo
falsely
Christian’s
Asafu
147
directions
inclination
lufhio
opens
khuḓano
promoted
Ṱhoḓea
Very
Vhakatolika
ng@@
Words
veine
khetho
1957
khakhelwa
ṱavhanyiswa
resurrect
entering
148
gladly
Baba
prominence
cross
circumcision
transferred
ying
requests
Car@@
maambele
Mulanga
Sabbath
corrected
ak@@
repented
Volumu
planning
Ohio
fought
mbulungo
phrase
watched
il
waited
voluntary
rebel
Czech
reassuring
Abigaili
character
proclaimed
weighed
pleases
under@@
He@@
tradition
Ones
ṱahulele
deceive
detailed
ER
recalled
VHATHU
kokodzela
Pennsylvania
misleading
fruits
analyze
characteristics
magnificent
De@@
Care
ṋekedzela
bvukulula
hezwo
Regardless
obvious
125
iteaho
Need
idols
sentence
hudza
vhushavhelo
ṱahela
iti@@
Antonio
humele
ere
computer
1948
zed
embrace
Earlier
Mukoma
ELA
vhuse
Greater
exert
Harold
succeeded
PSALME
ter@@
starting
lukanda
dzinḓila
refugees
thutha
symbolized
naturally
101
Muhasho
ṱuvha
homeland
TH@@
adopt
fied
festivals
hatsho
vhutshivha
y’s
Ṱ@@
sacrificed
17@@
appreciates
fails
mivhala
destination
gwadamele
Jezebel
press
inspiration
Insight
mutsho
increasingly
Vhona
1922
ins
silence
Di@@
staff
movement
taste
futelela
formerly
spared
Canaanite
yawo
vhavhali
truthful
highest
khoro
attracted
cell
vh@@
und@@
offices
The@@
bright
ps
accompany
plague
transformed
1951
Dead
vhomakhulukuku
ḓidzhiela
zwihali
Deut
aluwaho
concentration
Illustrate
ṅwalisa
nyadziwa
worshipper
newspaper
khethiwa
realistic
distressed
renewed
fifth
aluwe
plain
accomplishing
wahawe
impart
Linda
Ku@@
Makedonia
1993
forbidden
separated
thuba
beat
mibulo
perish
Describe
bul@@
ṱoḓani
Hune
virtue
ful
materialistic
funeral
Par@@
mupfumi
vi@@
ili@@
Sa@@
1946
uli
matsilu
pu@@
tendeli
ants
litshi
zwidzimu
thaula
Asaph
thambo
Provider
ities
Baruch
presents
ndaedzi
ḓifulufhela
118
Magdalena
war@@
topics
deliberately
nd@@
family’s
humbulisisa
pour
participation
vhaisaho
Meanwhile
An@@
host
Dad
fortify
vhupo
tovhole
Abigail
Vhuraruthihi
Philistines
incident
lines
Honovhu
station
spreading
96
Yerobeamu
walls
treacherous
rembuluwe
EL@@
observance
Miguel
vhuhosini
zwikoloni
disasters
Huwelela
average
Jew
occurs
minor
yaḽo
reminder
floor
shing
br@@
filimu
guvhangano
ITA
somehow
hardship
Fheli
zwayo
fhaṱulula
Maintain
uncleanness
Yawe
seated
tangwa
Ab@@
spies
ḓidzhia
sorry
dzheniswa
festival
movies
ú
lidza
Third
ence
messages
mudzio
vhusikuni
dzayo
Little
implies
ents
shumi
Yefeta
Humility
staying
warmly
freed
VH@@
color
iswaho
Vhuṅwe
discourse
printing
ines
individually
perspective
musimulalushaka
Nabali
edz@@
Vhaḓodzwa
zuwa
handled
mativha
Nonetheless
Eccl
Volume
Persian
zwivhotshwa
dzhenwa
teens
target
Jacob’s
mutevheli
Absalom
Mulovhedzi
Luṅwalo
distributed
La@@
prisoners
1,000
Vhahaṱ
Shumisa
Bibles
Divine
Answers
gungwani
mishumoni
board
ṅwethuwa
nduna
permitted
flow
ic@@
rooms
unnecessary
Always
sharp
appoint
forefathers
preparation
pen@@
wage
king’s
146
shanduke
demand
honestly
88
despair
awaits
Keeping
tangaho
vhuimazwikepe
singleness
Put
kwamaho
boldly
Me@@
exhortation
vhénga
Na@@
Luambo
absorbed
Khothe
dzaḽo
catch
Isaiah’s
Ann
contribution
outworking
thekinolodzhi
Vhuḓidini
kwamana
decree
thikho
guards
shushedza
adjusted
1954
Court
Happiness
Onoyu
ru@@
bufho
700
Whoever
Understandably
previous
dzumbamaho
ge@@
guarantee
apparent
contemplate
romantic
conquest
79
Ino
science
Self
PSALM
leluwe
exclusive
Zwone
maṱamba
cooperation
ative
muṱwari
tshitumbu
emphasis
sleeping
afternoon
Vhathesalonika
ṋamana
ists
sumbedzwaho
Men
hinder
Gog
ta@@
Long
vhuawelo
Additionally
classmates
Thess
vhomme
©
ges
thithiswa
check
ile
ki
tikwa
fukedza
occasionally
perceptive
Department
driving
tseṱha
fhaṱela
Ecuador
makone
Manasseh
bar@@
tshinyalelo
complex
fheliswe
Jesse
Muḓi
unrepentant
nwe
longtime
ṱuṱuwedze
widespread
heritage
mpfuna
gembula
traditions
prior
lifetime
bit
remembering
affliction
du@@
fruitful
originally
representative
cleansed
mabammbiri
falls
manuscripts
1994
sed
tshilela
driver
Wisdom
e’s
performing
ḓivhuyedza
spiritism
vhurathi
status
Assyrian
muṋei
mushonga
Dzipsalme
Lutswuku
Vhagerika
upper
ang@@
decisive
muṅwalo
contemporaries
accurately
access
headed
womb
Honohu
mulindi
est@@
ites
uḽa
numbers
hit
Five
iwaho
pfaho
mass
Everything
Chinese
dignified
forgotten
Seeing
memorial
muholo
vigilant
76
arriving
begged
parental
lavhelele
hall
ST@@
recognizing
thubiwa
1996
Vhuṱungu
Assyria
apartment
121
ali
entirely
Mupfi
1961
dinalea
Hearer
vhatshinyali
revealing
OR@@
135
vhulahe
AN
Soviet
vhee
Nebuchadnezzar
sadness
Moab
Irene
lamp
2,@@
tshiṱangadzime
rengiswa
ambeli
nyadzisa
John’s
bvise
Pay
Hungary
zwibammbiri
Vharangaphanḓa
kh@@
nangoho
Vhugala
stranger
800
guides
Priscilla
1974
Mulanda
tshitshavha
sow
Karen
lingedzani
Lystra
nthuse
gungulela
wife’s
vhonetshele
San
ṱha@@
survival
dictionary
Ofha
ila
ṱola
BIVHILI
Benjamin
keen
1997
Vhalisa
vhingaho
Mvuwo
scientists
El
threw
maṱodzi
Religion
consult
Khirisimusi
eaho
ṱhalusamaipfi
yadzo
purposed
missed
lifesaving
sacrificial
semana
81
gidimela
Britannica
Aquila
rejecting
na@@
milk
vhuludu
maḓumbu
chaste
Anyone
ṱalutshedzwa
thovhedzo
Millennial
pfeseswa
ndozwo
chariots
DO
khoḓiwa
delightful
ḽiṱuku
distinguish
domestics
Kol
belonged
delegates
Trinity
khombe
productive
rebels
lutombo
Waṋu
BIBLE
laṱe
veini
mishonga
afford
African
tion
qualifications
vhugudisi
party
challenged
ators
fhindule
Vhuvhi
Maker
records
Nigeria
Shuma
F
vine
fholaho
kho@@
piece
elana
conform
commend
lutendoni
Lisitara
Vhuṱambo
dzea
Devil’s
ev@@
ving
hanani
discusses
Vhasadzi
10@@
sudzulusea
horse
semiwa
prime
TRY
Nazareth
tsinyuwo
curse
bitterness
differently
extensive
ton
fo@@
Babylonians
vhahaṋu
persevere
shy
katelaho
dzim@@
zwikwekwe
virgin
Tshanduko
roof
ulula
vhuswina
fhulufhedzea
heat
Last
abusive
bl@@
connected
ited
tool
nkonḓela
tes
nḓivhadzo
injustices
Isai
rebelled
mentally
ḓirwa
Into
os
vhungome
ko
tract
perceive
Vhubvo
drug
characters
defeat
skill
fema
pair
1989
preacher
affects
figuratively
samba
hospitable
mislead
stating
lovhelwa
mat@@
roads
shonisaho
min@@
disobedient
weighty
exalted
vows
Rosa
somewhat
believes
dec@@
Showing
Kora
washed
bviselwa
fault
Habakkuk
ors
deny
branches
discover
facilities
Blessed
meat
nursing
sha@@
greedy
ud@@
Mary’s
ride
JESUS
uncertain
sowing
interfere
paths
khakhululwa
6,@@
ftn
attacked
kamara
female
follower
striking
inclinations
vhuhovheleli
rende
ombedzelwa
Vhaef
empowered
parallel
bondage
leprosy
Glory
ber@@
enthusiasm
Ndugiselelo
session
native
ḓivhudza
ḓilugisa
scribes
necessities
Zwiḽiwa
banned
founded
ḓifare
reflection
vhupuli
Silasi
Ambani
bvi
fhaṱutshedze
thief
Pierce
bold
Cyrus
commitment
instituted
mo@@
Suppose
exercises
dzivhuluwa
directing
konḓe
chooses
dzinyemulo
Apollos
maluvha
miswaswo
Yaṋu
swikelele
lift
fariwa
confidently
wishes
Franz
mureili
Vhuḓifari
strayed
Muswa
mabono
et@@
vhaṱalutshedzeli
ad
ring
reacted
outcry
leaven
Marcus
ts@@
Zephaniah
unjust
muṋangoni
hoyu
Fulufhedzeaho
exhorted
it’s
ṱalutshedze
demands
vhudzise
Vhalala
Maḓanani
lacked
definitely
Khombo
Si@@
fhelise
izwo
mal@@
diseases
Don’t
sites
safely
sanctification
Washu
questioned
Thusani
livhana
zwikepe
Shumela
Happily
rendisa
Together
dziṱhanzi
Rico
valued
declares
sale
tshiambi
ently
enhance
lady
recommended
shandukisa
HU
regain
LI@@
black
pains
double
izwi
Micah’s
celebrate
watsho
invites
sentenced
respectfully
generously
ṱavhanyiswaho
pursued
conquering
chariot
generations
behold
LINGEDZANI
Language
failing
vhaḽa
steal
Dzhiela
tshinyaho
exerts
Mor@@
Steve
Pa@@
ked
flood
references
duty
gra@@
liked
embraced
educated
Mikaele
Silas
107
rekhodo
devastated
Easter
creating
Akwila
Humbelani
orders
scattered
tshikhala
Simoni
feeding
smoke
mufu
joint
keenly
siblings
ṋanga
khaṱhulo
repair
Ngavhe
ṱanḓulukana
Reflecting
Dzhia
Ṅwana’nga
ṱanḓavhudza
ty
ʹ@@
None
phosho
tshipuka
Rule
doors
treating
appreciative
permanently
Ntswa
combined
iled
Lefèvre
indicating
liar
drama
fanyiselwa
waḽo
ḓivhidza
impress
protective
Ro@@
Ye
prompted
kamarani
Thomas
vary
breaking
Musamaria
ed@@
wearing
As@@
disastrous
av@@
Meditating
Ndima
card
Follow
dzivhisa
Uria
Denmark
Encyclopædia
fashwa
fair
Serve
X@@
Dzingosha
oppressed
lindelaho
fearful
buse
muhali
rapidly
muvhambadzi
Teaching
Vhatevheli
Apolo
exclaimed
vhakoma
funga
tasks
zwao
ṱhanga
Honor
vhalindi
happier
ill@@
livhuhe
actively
St
tshidzaho
translate
bereaved
Ṱhaluso
organizations
behave
undo
maḽeḓeretsendama
102
dominant
listens
pa@@
islands
tiny
rejoiced
avha
Comfort
wholehearted
merchant
gross
dramatic
ably
ending
teenagers
Bulgaria
Jeroboam
lavheleli
Bva
Something
multitude
Thanks
Suffering
masheleni
expose
guidelines
cease
deed
graduates
Ṱoḓani
han@@
ḓivhusa
weeping
muḓagasi
noteworthy
tsengisa
Khulwane
ḓigudisa
fh@@
vhingwaho
Nnyi
kwo
ḓiṱoḓela
Pacific
tha@@
temporarily
Jer
Rahele
kholomo
vhamba
Ifa
figure
contributes
Macedonia
we@@
87
Mediterranean
undermine
ḓamuni
Dzangano
muḓodzwa
Whenever
Vhababele
ne@@
firsthand
tshiṱaraṱani
objects
Patterson
hola
punished
route
severely
topic
lunyadzo
Find
x
nyonyoloso
khu@@
tikedze
misumbedzo
ga@@
Muvhi
adapt
attached
tsivhudza
vhubvelele
grandmother
ḓitiki
ṱhaphudzaho
Mis@@
thanksgiving
136
Thetshelesa
dzhenele
kani
pfu@@
res
colporteur
TV
vhorasaintsi
sower
shut
ḽitambwa
vhaṱali
hedzi
brain
dzitshilikadzi
ḽó
wages
Italia
ambani
per
accordingly
Hawe
dressed
doctrines
Lutamo
Ḽ@@
Evelyn
Nd@@
Vhafilisita
translators
Along
considerate
containing
ṋewe
prevented
TSHI@@
mitsheṱo
cited
kon@@
crying
desperate
alike
ngelekanyo
ḓiḓowedza
metal
Toward
Near
coping
university
Ri@@
vhulisa
RE
cleaning
empathy
haṱulelwa
sustained
larger
stumbled
weapon
Ha@@
salelwa
latter
Vhafunzi
crisis
lulapfu
expelled
cal
testify
ultimately
flour
ministering
recover
Gary
bonds
ns
actual
Applying
suit
ḓowelaho
230
guvhanganoni
ard
HEZWI
strict
ely
ancestors
tshanḓani
rembuluwi
w
accusations
Anania
Ananias
fishing
LO@@
contributions
Korah
pembelelwa
vhukule
lamb
Mo@@
mukano
lower
motivation
magogo
donations
skilled
khethe
sedzane
masimuni
ṱhavha
ulwa
cleanse
planted
answering
base
devastating
vhudzi
unfair
zwiṱangadzime
flight
linganelaho
pfushi
adverse
fixed
Rejoice
vhaṱhannga
managed
reserved
VHUTSHILO
design
vhuṱukuni
discourage
selling
plants
IL@@
muzwifhi
function
93
ṱarafiwa
responding
mother’s
fig
dzigoloi
genuinely
ned
sounds
thengo
Pe@@
1944
divisions
complaint
authorized
desiring
favorite
so@@
IS@@
imagined
bulasini
ṱukufhadza
Giver
Belgium
accountable
tsengo
Fumi
Gentile
mihwalo
Ḓivhazwakale
Iyani
west
US
Ethiopian
farm
contentment
splendor
armed
khoḓwa
vhurotho
Le@@
Go@@
gwadama
height
collect
ḓivhaho
$
Vhalavhelesi
Guard
taxes
misevhe
dzinnḓu
Elekanyani
scientific
timatime
remembrance
Publications
bammbiri
nzhi
sticking
mudzinginyo
12@@
Agripa
thihi
occupied
lavhelelwaho
1938
maṱunguni
Servant
No@@
independent
lugiselelwa
Nero
Sanhedrin
unknown
Tatian
regulations
guiding
reasonableness
absolute
Tshirengululi
worst
YESU
Miṱa
Praise
ver@@
muaro
Blessings
reduced
alien
Ancient
ḓigeḓa
Levite
improved
par@@
Cyprus
adversities
sikiwa
gl@@
funzea
convincing
Milton
tshilisana
plays
Elizabeth
shape
hid
sources
tactfully
zwiḽa
edzwaho
wan@@
Jerusalem’s
permits
Yourself
Knowledge
Zwililo
south
ances
lemela
Per@@
portions
confirm
tanga
shululwa
gwadamelwa
ignorance
murmuring
arrange
ening
relying
assembled
serekanaho
tour
Bad
stupid
zes
umb@@
ner
teen
neglect
resident
Vhurifhi
rare
stuck
Muṱangano
frustration
Preaching
badani
Song
seli
commented
muṅwaleli
sky
inferior
intervene
ntikedza
starts
dzinngu
Maḓuvha
ḓifhelwa
Vhufhelo
tenderness
mulimi
Louis
rengululwa
DE@@
swayea
inviting
Singapore
thenga
Stop
Jim
1972
ṱavhanye
on’s
seeds
Kunda
ḓiresi
fukulwaho
shelwa
spring
vhukhudo
São
educational
market
cultural
California
TI@@
cured
golden
nkwama
Pharaoh’s
Nazareta
nḓowe
mmbudzisa
ANI
laṱedzi
haṋwani
depicted
dzulani
tenderly
rob
unrighteousness
reliance
Devhula
Vhagwadameli
Obviously
f
auxiliary
sentiments
lelutshele
Korese
Lupania
vusuluswaho
manage
intimacy
ger
towns
tshinnkwa
secondary
ging
ade
positively
Vhoiwe
tempt
loose
legally
redzwaho
Shandula
logical
punish
Ndangulo
National
rangwa
swa
materials
committing
emperor
elwi
londota
Modern
zwiṱhavhane
persecute
fhaṱwa
seeks
Dz@@
progressed
Hong
intention
seat
disobey
relevant
earthquake
subjected
spoil
mihulu
attempts
immense
immortality
Tshivhi
phiṋa
pointing
mabebo
rea
Takala
hangwelwe
Megan
Rehabeamu
haho
madavhi
kungwa
vul@@
condemn
blow
stable
phendelashango
hurled
deserving
lima
ker
struggled
fierce
Humans
delivering
wake
confusion
ms
supportive
secretary
ic
Cornelius
1991
tshikhethwa
kanzwa
thusiwa
gomelelo
cycle
maambiwa
End
khofhe
relied
gammba
koloda
anela
Mozambique
Lufura
tsireledze
clouds
Child
largely
imi
mate’s
Four
82
Bethelites
um
concentrate
ward
mbumbeloni
destructive
prefer
anguish
regards
demon
dzinguni
zwifhaṱuwo
yeartext
requested
exquisite
owe
alcoholic
vhuno
onto
muḓalo
khethea
Tract
dalele
simplify
midzio
pre
longing
í
shes
Tsioni
existing
Portugal
fying
MB@@
climate
comprehend
demanding
sasaladzwa
Syrian
shululwaho
Russian
helpless
Must
villages
refusing
Ṱalusani
haughtiness
Grace
timing
forgave
wanting
imitators
laedzwa
Sak
advantages
Seek
tribulations
Interestingly
oneself
Nabothe
Yawee
Agrippa
laṱwa
Angels
Worldwide
teenage
partial
kanganyisa
collection
emphasizes
kulwa
non@@
weather
spot
phulusa
fhembeledza
wash
vivid
holo
UL@@
solely
pulanete
tracts
rose
lwavhuḓi
prevail
weigh
ER@@
shop
unmarried
hypocritical
inexperienced
despised
ḒO
cleansing
lungana
abound
covetousness
burnt
id@@
uttered
Ṅwananyana
Humbula
Courage
ḓihwa
neighborhood
persuaded
expecting
stressed
Godly
160
SH@@
nights
2015
excessive
sóngo
Philistine
valueless
Antioch
AL
Walk
port
tshea
phumula
gudwaho
section
acquired
cling
Zion
figs
Mesopotamia
MATEO
yi
offense
heleni
et
fhedzisa
faraho
arises
discerned
Fine
mufunwa
expensive
Ndugelo
Miṅwe
income
ON@@
betrayed
deserved
mithelo
huvhala
khethwe
sudden
muḓivhazwakale
mixed
troops
Lulatini
Full
Zw@@
por@@
vhuṱuku
Example
Dokotela
lapfa
subtle
learns
900
mob
eighth
lonely
newborn
sanctuary
mission
Thank
surviving
gray
midzinginyo
Husbands
honored
product
vhilaele
shandukiswa
Return
Vhadzulapo
outright
ak
slowly
isi@@
fhaṱuwe
pfumedzana
dzhavhelo
eleni
loneliness
Khandiso
Andrea
seemingly
tshin@@
lofty
muloro
Puerto
huvhalaho
lovhedza
Antiokia
vhaholefhali
Margaryan
luvhilo
ṱhalano
zwiṱanu
hal@@
shangohaya
makumba
250
wawo
HA@@
Muvhigo
uno
marrying
refresh
frustrated
Kong
maḽaifa
ḓifuna
Rose
demonstrates
distractions
certainty
outlined
window
below
roots
criminal
Koronelio
testing
Zwiné
scrolls
opposing
shi@@
Nott
Vhaṋu
impressive
fhaṱutshela
Baptizer
pose
mvutshelo
buried
voices
Mmbi
deceased
promptly
Athens
Training
BY
zwikolodo
suppose
Several
concludes
streets
dzaho
Isabel
Sydney
mapa
shocked
Guvhangano
makhulukuku
MUṄWE
alienated
kathihi
RO@@
shock
hukhethwa
discerning
cra@@
mag@@
lesser
Ṱhuṱhuwedzo
Benin
shengedza
amu
Shirley
Hafha
murdered
posed
tshiṱangu
recognition
lord
Isebele
Rabelani
masimu
lingedze
Writing
grass
correctly
obediently
violate
approachable
Canaanites
wrongdoer
Vulgate
Com@@
Vhusa
Orthodox
Magazini
runga
ce
China
WAS
sixth
scroll
farmer
khakhaho
isana
forgives
unreasonable
sin@@
appealed
luvha
rising
langwa
Vhukando
concept
originate
vessel
666
enjoys
ls
luvhondo
volunteer
thusi
rooted
ngudisa
sengisa
Su@@
Harani
Cor@@
oldest
els
unseen
Ark
ck
tobacco
murero
awareness
disturbed
coast
onward
weep
cre@@
traditional
vengeance
IA
Paraguay
can’t
GOD
FOR
chores
promoting
Vhakol
Jah
celebrated
arm
progressively
tsheṋe
resisting
dra@@
greeting
zwifhi
intently
killing
ṱhalutshedzo
Proclaimers
Tra@@
Prisila
Gudwaho
Hezwo
deadly
itele
Potifara
walks
Rehoboam
vhumalo
Huufha
scenes
conscientious
span
employer
MATTHEW
link
Muphurofesa
billion
hostile
woman’s
prey
flocks
Henschel
20th
mueni
ḓenzhe
ḓivhalei
crucial
faults
Apparently
forsake
thithisea
unkind
displays
Santa
forming
commonly
vhangana
calamities
SHANGO
ngomani
pwashea
Ḓiṱukufhadza
ga
dominated
threats
Muḓodzwa
bege
captured
blinded
85
accompanying
Morris
Nabal
ḓilwela
arguments
dzwaho
JOHN
joys
escaped
mutshinyali
distorted
lasted
Beatty
humbudzwa
Thes
Paula
afha
gudela
code
Sweden
waste
Zwivhi
mostly
excuse
excited
sambini
Maswina
sumbedzana
Barr
lwelwa
reconciled
des@@
Zambia
supports
des
block
Makhethwa
horses
Eunice
oppressive
Eduardo
EDZANI
tire
wele
infancy
hiding
NDO
almighty
Savior
ace
mp@@
oli
itelwaho
wi@@
mainly
disown
vhangwa
domestic
approaches
sanctify
adjustment
thumbu
denied
Simisoni
vicious
JEHOVAH’S
prophesy
Kipiro
◆
examined
neti
shubi
an’s
whoever
unite
Place
Teaho
Thousands
reluctant
mulamboni
fat
ele@@
cherished
elele
vhahedeni
False
sendamela
seasons
COR
winter
lingiwa
select
fanelwaho
prosperous
trade
truck
ah@@
Julie
cultivated
Japanese
tshil@@
envy
crush
pandamedza
Naemani
1935
eng@@
rescued
Tshaka
Münster
accommodations
Polyglot
Zwavhuḓi
pp
thea
hometown
rivers
medicine
murunzini
schooling
ire
nangiwa
PET
Set
Sha@@
emotion
maṱuku
Mafheloni
NGAYO
IT@@
Vhashumi
displeasing
dugaho
Tshenzhelo
yoked
comply
thabeloni
Speak
Mas@@
elevated
wahaṋu
counsels
demonstration
heading
impelled
unexpectedly
ṱanganedzeaho
Syria
thusana
muzwali
ZWE
advised
vhuyedzedzwa
undergo
konḓele
Zwiitea
Pfesesa
march
appreciatively
expansion
Hulisa
Mbulungelo
Vhavhusi
sub@@
bal@@
Haran
Festival
va
heeding
extending
hulise
Yoṱhe
Vhudzisa
graduated
antichrist
damaged
Tshine
attempted
Timothy’s
gate
Ger@@
ore
drove
1983
Mario
tshaḽo
Yafeta
ck@@
Afterward
grieve
repeat
yearn
provoked
Miriam
Real
outward
tshidze
nganea
pace
strikes
border
Eastern
mutual
1963
ep@@
Baptism
Choose
Tibor
cl@@
ws
unbeliever
Naaman
Emperor
arrest
vhuyedzi
adding
enda
Mulamuleli
pays
desert
mavili
Vhafu
survivors
can@@
ects
dishonest
ndingedzo
sworn
uncircumcised
carries
adhere
conclusions
wood
hetshi
Ra@@
keepers
Walter
North
Blessing
RA@@
d’s
evangeli
V
constructed
t’s
ach
iné
merit
technology
Vhone
Nicodemus
trans@@
Ever
Ne@@
rod
vhifhaho
nthumaho
UR@@
vhaṋameli
proclaimer
malofhani
inc@@
themendela
defeated
ndivhuho
Mil@@
fulness
Huna
Hades
Jaracz
drop
muthelo
perceived
ats
Tiro
vhahali
cutting
Tendela
1986
Swina
á@@
shumisani
grounds
zw@@
implied
twisted
burn
vhaḽo
shushedzwa
Hagara
langei
vo@@
sown
Finding
examines
muṱavha
tenth
systems
classes
misery
vhal@@
circumcised
wanali
mil@@
aloud
encountered
legs
nangwaho
employed
bvumba
Few
owned
ramaanḓaoṱhe
loaded
Unless
Muthomi
victorious
Ṱhalutshedzelo
inf@@
shortcomings
Lindela
Walking
Anne
participating
unworthy
accepts
tempting
maḽeḓere
ve@@
Getting
space
winds
princes
Otherwise
representing
insist
Answer
lovhe
progressive
ambare
ṱalulwa
mahuyu
Gra@@
zwaḽo
zwiliṅwa
edzisela
Nikodemo
mulingoni
Today’s
washing
dy
hwesa
ḼA
ena
sheeplike
numbered
thoro
ultimate
kanda
19th
organize
drought
sumba
Members
giver
tshenuwa
Salvation
regrets
trips
author
fold
fulufhelwa
besides
Fred
1971
ori@@
successor
Emmas
weakened
AS@@
Prophecy
Them
obviously
ḓitike
pictured
BE@@
kokotolo
psalmist’s
identifying
philosophy
ṱhonifhi
holedzwa
pilgrim
LUKA
vulanḓila
ost@@
Gomora
ane@@
demanded
attributes
IC@@
injured
ils
Mulevi
ira
milambo
Litsha
Judgment
disagreements
reproof
pillar
protecting
researchers
Loyal
stream
Hagar
racial
bv@@
saina
makole
í@@
imprisonment
ṅwando
pping
Referring
grooming
attendant
sexually
tutor
focuses
vhuponi
tshavhi
Nile
Man@@
Lwonolwo
stability
1962
complain
Unity
Fulufhela
products
paper
eletshedzwa
Far@@
nganeavhutshilo
tshikafhadza
Mulavhelesi
,@@
hel@@
foreshadowed
com@@
normally
Mike
ḓifhura
ponyoke
transgressions
siela
debts
Lucía
noble
iri
ṱu@@
ged
persistent
rula
malicious
kunakiswa
complained
Taiwan
fond
rate
vhumvumvu
Ludzheremane
divinely
foretell
ili
ari@@
Youths
pfulutshele
mubvumo
warmth
thirst
ṱanganedzei
halifha
utterance
fhandakanya
○
fl@@
terrified
oring
religiously
penalty
conveyed
LUKE
tactics
any@@
earthquakes
mibvumo
comp@@
ched
resting
thanda
shum@@
dzinginyea
Certain
ṱanganedzwe
Kenya
ḓakani
buildings
ḓadzise
claiming
West
tor@@
tshidulo
ME@@
Persia
ombelwa
mukegulu
Mbiluni
enmity
Fhaṱuwani
ḓura
satanic
vhomuthumunzhi
luné
intensely
Assyrians
ical
financially
Gestapo
ali@@
Protestant
Hand
anaho
ambaraho
harder
Susan
Tshee
breath
hum@@
loaf
lindele
wrongdoers
beasts
Samantha
stricken
tablets
ngalwo
healthful
tragedies
drunk
addressing
madambi
Catholics
1920
governor
tshenzhelwa
mudzulapo
disobeyed
mistaken
Suddenly
vhaṱaleli
anani
Mavhuthu
rothola
Bono
accomplishments
Benefit
mirror
Litshani
shelter
Ṱahulelani
heḽi
Tshaṋu
ved
smaller
swaiwa
outer
Ḓiimiseleni
anzeli
Vhulivhisi
Maḓifha
fellowship
ample
ḓikumedzela
MATT
ant@@
stewards
lwonolwu
ṱa@@
mavhiḓani
1959
da@@
Zwivhuya
misuse
HO@@
Khwine
Washington
customary
distinct
petition
Ryan
tswayo
zhamba
ekanya
Tenda
questioning
immune
ṄWAHA
skillfully
plasma
siege
Mc@@
Jersey
Tell
withstand
bridegroom
restraint
companionship
ling@@
copper
khakh@@
khakhi
confused
goḓiwa
favored
fan@@
weaker
understandable
Lupfumo
nungu
MI@@
vhoniwa
typical
fleeing
bicycle
gudise
remarks
pleaded
tshela
Shonisani
vhaṱoḓisisi
1987
kes
penyaho
cho@@
1977
anywhere
transportation
rendwa
soundness
zwikambi
palm
mun@@
scope
1933
funiwa
ined
Milingo
college
Filisita
shavhe
Religious
Lett
Mormon
vhulaya
Everlasting
Union
heartache
honoring
5,000
AT@@
apathy
MAT
235
123
reaches
dzánga
Centuries
volume
ranks
ruined
khonadzeo
ande
tha
Leads
confined
suffers
ching
fha@@
distinction
fhulufhelo
tshikafhadzwa
Zwipikwa
swikelelwa
Friends
damaging
messenger
yatsho
Muetiopia
nṱhogomela
a·gaʹpe
greet
Ndaela
longed
ser@@
Mafulufhedziso
Wycliffe
Obadya
anya
ṱangan@@
abyss
wá
Abi@@
descended
mutshidzi
Golden
Itaho
khathutshelwa
excuses
Ng@@
gates
acc@@
URI
sima
waves
approve
reader
ḓadze
vharabeli
Margaret
ice
imply
Amy
fewer
Images
AC@@
deciding
DO@@
Mahosi
Seeking
Dzoṱhe
slide
Gloria
Nyambedzano
giant
bilioni
Gu@@
dependent
Co@@
ḓilifhedzela
NA@@
drunkenness
assisted
davhini
counteract
ell@@
proselytes
mudzimukadzi
praises
losha
controlled
sinyuwe
ba@@
rendwe
Frederick
gambling
addiction
fhulufhedzeaho
Author
AHO
harbor
Fi@@
lets
Understanding
Fulufhedza
consume
figures
homolosaho
TSH@@
channel
meals
swaya
ruins
heir
enthroned
Christendom’s
formal
promising
drinks
consistent
forest
spirit’s
lover
possessed
ḒI@@
Middle
1988
calf
lifted
lubaḓa
nkhwaṱhisa
pambuwa
Hee
ff@@
Tshimbilani
gs
print
Organization
1976
tshinywa
verb
Ugarit
id
aḽo
basically
Bo@@
sweet
antly
justify
booklet
fheleli
disloyal
muṋeelo
intent
Tshilidzi
prisoner
Relate
Bi@@
charged
closed
impaled
hellfire
persuade
kwame
Far
740
mualuwa
relating
transgression
⇩
blameless
Magog
uma
holedza
zwiṱaraṱani
143
nonaho
listener
laying
ṱanganywa
vacation
Gomorrah
Gabriele
roles
increases
DNA
fhaṱe
vhul@@
kumedzwa
Professor
Western
Carol
devour
vhaevangeli
extends
Integrity
SOME
sh
briefly
combat
purity
parties
realities
tents
vhatshinyi
equipment
138
closest
consumed
fhiri
morality
Gudisani
songó
bitterly
Daily
descendant
criticism
sion
bone
son’s
Livhuha
Borrow
SO@@
Jo@@
hand@@
sand
online
bull
ḽí
infant
vhudzula
dispute
ḓivhulaha
Warwick
Dzhielani
presumptuous
torn
distribute
flowers
trapped
fhiriselwa
vhulayaho
Strong
Cha@@
enslaved
Deluge
overlooked
thieves
ngi
grandparents
Khaedu
fortified
rebuilt
accomplishment
Tshedza
Respect
altars
torment
khuliso
covers
derive
comparing
ḓivhonadza
shout
honey
Bar@@
presenting
distract
mbaba
Barbara
celebrations
supposed
contents
fulufheli
foretells
humbled
1966
fulufhuwa
Vhaḓivhi
cautious
Live
passion
buying
broad
Yankee
titles
Tshihulwane
tumbula
nationality
Nehemiah’s
dearly
imitated
edzela
ind@@
Augustine
Livhisani
Labani
Mahumbulele
hul@@
itshi
adza
till
cleanness
vhapfumi
mufhiso
zwifhela
ONE
map
1982
tomorrow
versions
patients
rightful
dly
pped
achieved
ṱhongola
ṋekedzwaho
Allen
experts
bank
hostility
householders
tshihumbudzo
rarely
attachment
partners
shumeli
ency
unhappy
filling
caution
flourish
photo
ences
queen
Yavhuḓi
obstacle
unga
tal@@
professed
boast
WA@@
captives
Pi@@
kukumusa
gondo
sincerity
Hosea’s
pfisaho
troubles
defined
Potiphar’s
dzingu
fills
households
dzinga
shun
Mbofholowo
ambelwa
Jane
insisted
mourn
minute
incomparable
vhuvhambadzi
neighboring
Kim
Share
bvelaho
Scotland
receptive
fhumudza
holoni
ys
Evil
acquiring
nomboro
Theroni
mile
tambudza
vhawo
fhole
mavhengeleni
burial
Maybe
Tshengelo
awaited
expense
rebuild
acknowledges
Prove
curious
kingly
ca@@
pikisana
divorced
Christine
Gehazi
INE
driven
regulating
astrologers
wished
vhutherorisi
ḽiné
Zwivhidzo
Judaism
Vhusikuni
magabelo
evangelizing
Tahitian
eledza
shocking
communities
ṱhalane
reduce
khoroni
YE
vhinganaho
tic@@
benefiting
Muhumbulo
futile
unduly
manslayer
recovery
electronic
Vhulwadze
fascinating
workplace
heated
horns
JW
director
pfamoni
Someone
molded
maḓembe
ition
Meeting
rina
ISA
lwau
preferences
MBUDZISO
portrayed
aries
Greeks
Vhafil
ḓuraho
push
lowliness
tomb
vhuluvhi
zwinwiwa
muvhundu
ped
Commandments
dzhen@@
describing
phulu
ṱhuphea
ofhisa
goods
pressured
vhugalani
Allan
makete
tsunami
ani@@
province
sur@@
dropped
sudzuluselwa
ARE
heavily
Dr
rewarder
Zarephath
fanele
sinning
attentive
Tshiambi
shishi
Working
reassured
meditated
vhaṱoma
SI@@
indigenous
Londwi
fies
introduction
University
tically
maybe
luhulu
advancing
ṱolisiswa
Carlos
vhi@@
5,@@
khukhulisea
mbondo
Better
muthomi
3,@@
del@@
ya@@
strife
thanked
Wicked
supplied
tied
Edith
Mal@@
André
4,@@
1965
1979
dinwa
incite
gi@@
tie
distribution
instructor
vhengeleni
tshihulwanesa
ṱumanya
oo@@
rush
Gayo
edzeni
zwikhokhonono
reverence
Roald
overjoyed
ulela
transform
thorn
seriousness
Ur
Anglo
Tshivhalo
hwale
cer@@
advances
Personal
Hanga
corulers
ath@@
113
Prayers
of@@
Ezekiel’s
expenses
dread
masiaṱ
tshipiringululi
Jehoash
141
ame
Ben
1937
ung@@
zwivhumbi
Armenia
maḓipfeleni
tone
sends
packed
Salvador
SE@@
vhulungele
zwitumbu
frequent
foods
harlot
rekhodiwaho
soft
muṋo
Museum
Musulamitha
gud@@
thivha
Mutsiko
Mildness
collected
Mugudi
yo@@
youthful
dew
document
unprecedented
maṋo
clearer
dzadzo
Fhela
game
vhaiswa
v
ḓifha
□
establishment
Malamba
Convention
borne
tshimbidzane
Bvela
ow@@
Reflect
relieved
Fhaṱuwa
kulee
Bu@@
vulnerable
Supreme
traffic
muofisiri
tolerate
muvhulahi
neglected
vunḓa
MO@@
tetemela
burdensome
bebwe
zone
hardworking
Vhaamerika
compelled
runs
Point
Jennifer
instances
Iḓani
That’s
Over@@
fushwa
Khaṱulo
ES@@
Vhadzia
tshiaṋwiwa
eaten
dwadze
imparts
platform
surgery
Rights
exhorts
retain
cur@@
CON@@
ó@@
muvhaḓi
Stand
announcement
itee
128
ponder
au@@
gro@@
ily
manners
pfesesei
Stay
Constantine
Sign
ARTICLES
pearl
1981
bviswe
muvhalo
undue
Immediately
disciplined
inculcate
structure
Gaius
muḽaifa
composite
locations
ṱanganyiswa
ideal
edzwe
nobody
10,000
entrance
mbuya
journal
introduce
Fun@@
Mufarisi
Ko@@
largest
ṱhavhiwa
ṱhuku
Phinehas
agents
awo
den
ZWINE
avail
Takadzaho
estimate
114
plagued
Mashaka
rebuilding
kan@@
Muyani
clothe
snow
payment
hating
Cultivate
Initially
mercies
iso
ceremony
honors
ṱanganyisa
confessed
Vhatendi
sealed
pfiswa
ell
enabling
Koni
Valley
chronic
Tshiitea
intellectual
professor
Uriah
vhuṱunguni
129
wept
foolishness
fhandekanaho
virtually
Sister
nḓ@@
DZ@@
Fa@@
Mufarisei
ʹ
vhuriha
ara@@
NG@@
Or@@
dzin@@
fashioned
enthusiastic
122
justified
HISTORY
Universal
govhela
contemplating
secretly
Tevhela
Vhuḓifhinduleli
strictly
purchased
Ṱhogomelo
fervently
vhonaho
GOD’S
committee
featured
camel
swept
muṱokola
tak@@
amed
unlike
rendiwe
bomo
posela
unbaptized
ruba
Missionary
malinga
corner
thanya
ery
vothi
Se@@
observers
upbringing
Gabriel
netaho
uswa
shaped
shrewd
ung
Asa’s
Samson
7,@@
vigor
measured
sen@@
tactful
criticize
halwo
ug@@
fe@@
Focus
bly
Ho@@
nzie
parables
tro@@
vhengiwa
deals
raises
na̗
tsheo
fearlessly
Tshiṱhavhelo
fits
showy
crossed
useless
exerted
races
Days
helmet
lwisanaho
Ngangoho
Vhasamaria
lwele
duga
CO@@
fhisaho
modestly
row
schemes
obliged
Simeoni
Paolo
meekness
ḽela
consciences
her@@
Ba@@
sim@@
vindication
Vhagalata
dzinginyisa
diagnosed
reassure
Lugaho
ṱo@@
der@@
Yoasi
organs
downhearted
ality
wahau
mila
equip
Maḓuvhani
ran@@
regarded
dzimagazini
farana
vhakaṋi
binding
notsi
ately
wrestling
vhon@@
prospective
ah’s
ement
Luke’s
Justice
gurannda
Ádám
Island
US@@
solei
phapha
dzifilimu
loaves
ored
ḓaḓa
administration
enrich
courts
beaten
LU@@
manna
Women
adolescent
manager
Hoyu
fholi
condemns
Vhavulanḓila
wings
resort
mipombo
Takalela
balangana
str@@
lingaho
immigrants
Vharwa
honorable
lilaho
coins
tsela
ei@@
endeavored
lange
commits
commenting
aright
ANA
appropriately
ṱangane
NO
explanations
konaho
detestable
dzibilioni
Marc
7,000
mabulayo
Luga
vhumb@@
Hoṱhe
Kenneth
band
humanity
khwinise
Hor@@
sustenance
ḓikukumuse
ies
post@@
ḓasi
hon@@
dzumbela
stealing
Research
distresses
define
SA@@
unjustly
shopping
ful@@
fa@@
embarrassed
col@@
solemn
FROM
1978
cooking
VHE
Yuno
prompt
ir
ḽishandukwa
vhatovholi
ṱhogomelaho
aches
tshiṱuṱuwedzi
realizing
que
ut@@
vhuḓilangi
rearing
matavhi
persist
divide
charges
vessels
doesn’t
speed
sal@@
plagues
fhima
fhire
threaten
muliloni
commemorate
day’s
expert
muhura
Discipline
mortal
vhurangaphanḓa
survey
treats
proclamation
Uganda
Funani
Dzhiani
Ny@@
124
Jephthah’s
enormous
iledzwa
partiality
corrupted
accustomed
iting
fame
Health
vegetation
fuka
vunḓekanaho
valela
twelve
mbi
impartiality
leisure
Pharisee
oned
faithless
astray
hills
Chief
Nor@@
tower
Dominican
ning
tive
Chester
couldn’t
competition
misumo
Efuraimi
muk@@
foreigner
Eureka
steady
ṅ@@
finest
tshililo
ONI
bofu
entertain
Ṋewa
Res@@
preserving
dzhenelele
Ndovhedzo
’@@
YEAR
Leah
lic@@
Zwenezwino
Messiah’s
ingiwa
Maḓipfele
earned
ṱhunḓu
thivheli
Precious
Riphabuliki
vhuyedze
6,000
tshilalelo
match
blue
430
contacted
sikaho
Magogo
kombetshedzi
Francisco
invaluable
fore@@
throwing
omba
farisaho
hulisana
Ezek
tering
Ge@@
Vhaporofita
Fhasi
lupenyo
vhofhiwa
Muvhuya
TSHA
cian
ḓivhei
dziphetho
constitute
hulumeni
exiles
dawn
Allow
ata
disposal
khwaṱhis@@
eyewitnesses
ongolowa
livhuhi
partaking
Rec@@
Youth
ndzhia
pil@@
shayi
Ehudu
halifhela
workmates
orderly
dziaho
affections
̭a
youngest
Caiaphas
reminding
anniversary
tsikeledzee
ZWI@@
learner
vhuaweloni
slaughtered
refined
Th@@
phuphu
Crete
Tshelede
Aaron’s
unacceptable
House
threatening
mystery
HANGA
vhanunu
Tetragrammaton
Ir@@
1928
Hu@@
Let’s
imminent
spare
ere@@
presiding
lights
operate
prehuman
vhalea
argued
convictions
quest
1925
Endurance
Six
indefinitely
leper
Mugerika
mulangammbi
morals
Sin
vanity
109
eri@@
assault
ḓivhana
entrenched
Ndayo
muṋeiwa
Yo@@
khethwaho
takadzwi
Ephraim
Tsiko
vhili
regions
eness
miano
tshina
Atonement
depended
ṱáhela
mer@@
inappropriate
Creator’s
mmangadza
utterances
prostitute
summoned
lions
ḽesa
Estonia
munyanya
post
lavhelese
Secret
vhagoḓi
lwisane
ngavhe
Laban
kuelekanyele
absence
Mad@@
tshifuwo
vhamaṅwalo
kers
seized
phalaphala
Ways
Adrian
vhannḓa
To@@
Zechariah’s
fheṱa
wisa
fugitive
coin
Han@@
Nearly
videos
star
Education
edzo
governmental
seize
ARTICLE
ṱafula
camels
realization
disrespect
plot
dishonor
Benyamini
shumiswe
shortages
Ethiopia
1879
shengele
evaluate
nṱhesa
Inter@@
med
cards
separation
momentous
mueletshedzi
wasn’t
dragon
Alice
ene@@
assisting
signal
esteem
Vharathu
mutevheṱhaḓu
safeguarded
tumbulwa
theory
30@@
wore
bola
thetshela
Gehasi
Vhagestapo
idol
beverages
instill
goddess
aba
Than
TO@@
esaho
fhi
Á
discretion
Lwaṋu
kutshimbilele
Matthew’s
tshisimani
Fulufhelani
Communist
zwiḽiwani
graduation
stressful
khunyelela
messengers
pwanyeledza
Van
kanuka
134
Institute
Yunivesithi
Obadiah
Article
teeth
ṱafulani
Asking
dynamic
ona
Pfa
endures
Getty
disabled
TR@@
khungulu
Scripturally
utter
lindelwa
sparrows
sha
roll
stirred
installed
Ontario
mupfa
thumba
Gift
pfesesana
mingana
Tshiheberu
goat
mbiliso
improving
ṱuṱuwedzelwa
exploit
perseverance
khalaṅwaha
tend@@
hangwelana
CAN
dzivhani
ME
Euodia
synagogues
entity
madakalo
terrorism
dzinyambo
shulula
Aiwa
20@@
dollars
massive
pe
undergoing
Mma
approves
shoniswa
Johannes
int@@
kungela
cap@@
conveys
dem@@
humbulelwa
simplified
fhuluṱa
Gudisa
kateli
sole
curiosity
equivalent
ast@@
abstain
masters
Resurrection
prays
eastern
endeavoring
succumb
Anetshelani
ṱoḓiwa
Problems
Zealous
Might
befall
Nngu
ala@@
langana
Hang@@
fhu@@
revelation
adequate
preservation
Jackson
lodging
wounds
automatically
So@@
Gradually
Cares
chastity
vhumbwaho
nyabwa
Nephilim
1932
diminish
khathutshele
oro
rests
Vhagal
mazwale
Colossae
isani
Kyrgyzstan
Verse
Florida
ROMA
prevents
1975
doubtless
Pontio
farwe
confront
strategy
Zwanḓa
documents
lightly
ḓifhambanya
arguing
furnace
Takadza
kalula
havha
Role
prisons
sealing
vhiḓa
Simeon
tshiṱitshini
Century
Ṋ@@
Ṱhoḓisiso
prevalent
Ty@@
rac@@
ess
mitshini
fhelekedza
Khwaṱhisa
ulwaho
thomaho
Tshiphiri
Wallkill
tevh@@
vhafhiri
Thaidzo
tamb@@
Kha@@
kombamisi
maḓautsha
climax
bloodshed
bvelani
dovhololwa
nice
itions
Wi@@
obligations
00
sprout
kati
resumed
bag
reasonably
Nazis
reactions
xedzwa
keys
Yanga
pained
refugee
ati@@
Jones
ulu@@
Credit
slaughter
contend
1473
pl@@
observation
flag
grandfather
fatherly
suggestion
bent
inspection
Search
burst
greetings
ther@@
Vhukomunisi
patriarchs
DA
presently
gems
historic
merchants
unitedly
Saturday
enc@@
aids
consisted
trespasses
paralyzed
disorder
offend
somewhere
priestly
def@@
disciplines
Queen
exhausted
mas@@
displeasure
SA
concluding
tshipfumelelo
Marifhi
ars
cks
surroundings
Bon@@
green
Pakistan
Lois
Po@@
defenses
recommend
footsteps
admire
rengwa
Important
Manfred
arrow
Alan
VI@@
100,000
Hutter
prestige
Frank
appetite
mang@@
unleavened
Pontius
Artemis
kidneys
knocked
excels
Enoch’s
aggressive
depart
submitting
trait
notices
oli@@
restoring
sooner
Alexandria
Mind
16th
lists
unwilling
At@@
issued
Association
creations
Tyndale
mill
KGB
spectacular
guarding
Hab
rab@@
Kayafa
engedzee
Aṋu
aravhe
vhulalo
mipfa
ming
destroying
beside
Nungo
Lutuvalu
ṱari
mathubwa
Mihumbulo
zwivhanda
mentioning
decreed
AT
shift
estimated
muevangeli
ple
TE@@
disappointments
daunting
fulufhelana
tsi@@
beg
muster
mutendelo
muhulwanesa
Muḓivhazwakale
vhabvumbedzwa
impartial
awaken
wooden
zwisiwana
mukwasha
differs
Muṱani
gar@@
sive
ridiculers
vhengele
phethe
penned
completion
vhofholole
disregard
sol@@
Thembele
vhutanzhe
options
competitive
Tsevho
Namibia
ḓisumbedza
zwienda
Zion’s
Khaṱulokwayo
ven@@
anḓana
3000
pfume
mana
I’ll
recommends
Taze
khwiniswa
Prague
ist@@
ai
humisela
traps
kundwe
bonya
Mapa
Muroma
cars
ṋeleṱe
huvhadzaho
enting
Polish
crops
Ofisi
dzheni
furalela
abundantly
ḓivhiwe
Italian
grip
matsinde
gamela
Markus
grandson
notable
vhatshena
vhiḓani
Wisła
unlikely
formation
humisa
Haya
Simply
ṱal@@
khoso
Vhuya
Khwaṱhisani
Best
tshikha
Marilyn
marangaphanḓa
Deep
MAR@@
nengisaho
zwí
Pursue
precise
dzivhege
vho@@
muṱaṱisano
nkhuthadza
Expository
wel@@
screaming
pul@@
rer
thuntsha
ṱhama
rampant
Costa
earthling
Jack
builds
mukhaha
locally
lulamisa
cal@@
characterized
ṱoḓesa
magona
tshimbili
confess
forgot
arrows
Ḽoṱhe
Hezekiah’s
upheld
innermost
Fellow
founding
barren
ṱanganeli
questionable
huma
president
Luigi
discipleship
glorifying
istic
jar
Fana
Potter
Dawn
manifestation
tshele
cli@@
despise
vh
ṱumbulwaho
persecutors
Islands
rented
Standard
shavhele
kung@@
laṱ@@
solved
ḓivhetshele
musevhe
quietly
Light
Mbinganoni
dominate
transformation
citizen
zwimima
tshipfufhi
rejection
cousin
argue
Genuine
vhahulu
donated
convenient
fuel
Conventions
win@@
Eliesere
humbelani
nṱanganedza
Malofha
Yaele
division
maivha
Lydia
budget
District
tshayo
consolation
concealed
zwik@@
transfusions
plight
madala
Czechoslovakia
solutions
dating
Whose
tshimimani
ambelela
dzitshikha
zwazwo
competent
Humble
lenge
colored
holefhala
DVD
laugh
buliwa
Vhagibeoni
hab@@
zwisima
sometime
sor@@
ath
casual
Khaladzi
tshilinganyo
dried
anointing
restricted
drank
resurrections
mut@@
Mudededzi
maps
Shepherds
signed
pfale
lo
cave
Ḽawe
vhaiti
withdrew
celebration
stirring
Commenting
Kona
ngano
Samaritans
simesa
refusal
fervent
mbebo
shumisane
WHO
vhaeletshedzi
retaliate
vhudz@@
victories
Tsedekia
mbongola
revolt
UN@@
hatsi
Kwama
volunteered
Pum
ṱavhanyedza
tel@@
astounded
harshly
ṱanziele
persecuting
Down
qui@@
Nangoho
maseṱha
criminals
vhadzo
Sim@@
ntendela
shares
Do@@
communicated
compares
vhukhopfu
thovhela
Rabela
submitted
Maswole
ide@@
ṱhonifhana
inscription
vhura
digirii
maṅwaloni
zwiraḓo
namela
Is@@
Rep@@
Gibeonites
swords
rider
riding
dzul@@
Mvelaphanḓa
EC@@
Sch@@
Zedekiah
ati
Vhumatshelo
laud
pronounced
fights
fil@@
movements
Athene
palace
YO
Damaseko
FH@@
harmonize
Cedar
widen
vhusaho
lushie
vhofhiwaho
guest
Dries
rural
Naboth
Guide
lessly
lwaliho
Part
vu@@
Lives
val@@
Bvelela
boundaries
sk@@
Josh
tur@@
Eve’s
inform
Damascus
longa
lovely
puzzled
fula
shululela
vhavhambadzi
supreme
Doris
drift
Virginia
calmly
tshedzani
movie
beautifully
zwawo
Admittedly
betray
Rolf
Vhaisimane
terror
rent
ley
lied
Leo
alafhiwa
matambwa
faneli
sum@@
newspapers
stor@@
Blurb
styles
ners
western
Onesmus
restrain
Cal@@
oc@@
tall
phuluse
ow
AP@@
ong@@
improvement
corrupting
ludzi
physician
grandchildren
crushing
consistently
desperately
Plato
bra@@
precisely
Remain
avenge
ngadeni
send@@
arrogant
grasping
exhort
anza
Vhaḓinḓa
Vhuṱolo
officers
dzhenea
ignoring
lil@@
Awe
sensed
argument
haṱule
fractions
Portuguese
Mankind
snares
vividly
zwibveledzwa
vhahanedzi
wanwa
individual’s
element
ré
disputes
Murahu
mupapa
zi
quotes
round
regretted
symbolize
ḓisoli
Victoria
vers
Servants
Bruno
ṱuṱuwedzi
shandukele
ascended
vhuḓilisi
carpenter
poselwa
anea
ḓifhima
ining
AG@@
pp@@
ṱhavhaho
dzing@@
demonstrating
pfelaho
hastily
costly
Eliezer
decade
failings
WHY
Tshiṱoho
ecting
quoting
vineyards
hasha
Dzievangeli
Dalia
Ber@@
govern
HU@@
components
mulwa
nengwa
undertone
vhasimulalushaka
confidential
phuluswa
Cheri
compromising
sedzanaho
Khumbelo
engedzwa
unwholesome
breaks
agrees
Gethsemane
tshimbilela
gr@@
celestial
vhumbe
ṱanzwiwa
slept
laṱiwa
unaware
Sal@@
pioneered
fari
dededza
Vhuḓalo
institutions
Juan
isolation
Fu@@
vusiwa
pr@@
ten@@
khuhu
reconciliation
Swiss
Tuvaluan
Takalani
SUBJECT
tambisa
tshivhotshwa
Mugivhela
Megiddo
Iscariot
thu@@
instantly
aiwa
o’clock
zwiimoni
bro@@
fertile
cam@@
Muthihi
Governor
Mbilaelo
1800
tshipiḓani
pholisa
8,@@
pastor
Christopher
mabufho
wonders
maker
khunguwedzo
exceptional
industry
Vhuraru
locked
sel@@
temples
ZWA
vowed
ṱhodzi
Thailand
rabelwa
slander
atory
Zealand
Chile
wheelchair
heel
VHAṄWE
Getsemane
altogether
ANG@@
ṅwal@@
materialized
coupled
philosopher
scarlet
denotes
alavha
lifhela
vuse
LIFE
Future
adulthood
Ilwani
eldest
Tsireledza
placing
provoking
rains
Mbalo
shouting
disappear
tshikepeni
Liberia
Moved
char@@
ome
portrays
mudzudzanyi
expanded
ṋotshi
graciousness
ond@@
intervention
Norway
bottom
>
Appreciate
roaring
Megido
1967
Train
Maṅwalwa
birthday
picked
ax@@
frank
fhaṱ@@
upholding
tangiwa
mivhundu
Map
na’nwi
ai@@
magumo
abiding
fore
Studies
tshuwiswa
salt
ALL
rend@@
land@@
konḓelwe
Deliverance
Lorraine
dogs
establishing
Manoa
Shumaho
mbudza
muvhali
organizational
preoccupied
hypocrites
pregnancy
blocks
liberation
Mbuyelo
holelaho
Kani
unfaithfulness
unpleasant
ders
designated
insignificant
Loyalty
philosophies
kokodzwa
thovho
DZI@@
cherishes
ints
Mer@@
alaho
muswonḓa
MANY
cheerful
wound
murei
uncertainty
cool
Mark’s
Spiritually
feeds
Amalekites
shaken
ROM
Lar@@
derived
rengela
Dzaṋu
possesses
latest
HE@@
apologize
tal
Slave
TS
heḽo
kitchen
professional
Khu@@
omb@@
dzudzanye
wayward
baptizing
CH@@
pwashakanya
TIM
Ḓisa
Vhuyedza
Ḽiṱaḓulu
anoint
ladder
impending
gwati
EDZA
holefhalaho
renowned
Ke@@
Action
Am@@
accusation
vhuṱamboni
congregation’s
eagerness
falsehood
bruise
hulwane
Ste@@
iling
pangs
nervous
Naturally
huswa
zwinkwa
mistreated
consulted
165
molding
version
gleaning
Fineasi
doomed
thrive
personalities
bur@@
sting
yazwo
muhuyu
stepped
exhibit
Havhuḓi
attract
definite
swikisa
enlightenment
Mazwifhi
tens
Khaseledzo
Kesare
ramb@@
vharengisi
operates
courtyard
purchase
violated
prophetically
pounds
Muṱhannga
dzhi@@
attributed
babe
att@@
Mb@@
TH
190@@
fly
ver
̭@@
rape
selective
absorb
NE@@
Alaska
Lutahiti
Fhira
Khethani
fla@@
bulls
dzudzanyela
Exercise
functions
shululelwa
counselor
idolatrous
likes
oral
settling
Tyre
tshiṋoni
occult
Maano
Yashu
unthinkable
khandisoni
Sennacherib
fy
Meaning
di
Obedience
fairly
Muyamukhethwa
Strengthen
homoloswa
vhukatini
expanding
1927
Angela
dzipfunzo
aka
luka
diligence
dzipsalme
Harry
tshikolodo
weary
vhomakhulu
Story
sil@@
Magota
ocean
lugise
devout
ḓelwa
mugumo
excitement
wave
Thinking
Nganeavhutshilo
addresses
Hundreds
kumba
buli
Build
HEB
Faho
1985
commendable
Vhananyana
ef@@
rubiswa
Beware
mmbwa
kutshilele
ris@@
iyo
deities
essence
shumisela
Meditate
Dzavhuḓi
rum@@
translating
consequence
Tendelani
vhumbulutshela
wander
flowing
brutal
DZINE
oning
ndele
involvement
Free
Smith
Maintaining
Individuals
livestock
din@@
Vhaporotesitante
alu@@
governed
Uyo
Barry
enraged
Sharon
mightiness
Ser@@
Mukatolika
machine
tshivhoni
Bolivia
mimuvi
ambition
profit
wrongs
Yoramu
Julian
Mivhuso
Rock
worrying
ambesa
acknowledging
Tsef
Given
miswa
Mukwasha
Mat@@
Hedzi
iselwa
revenge
restrictions
multiple
Elisha’s
Khetha
Originator
Westphalia
Say
Lulimi
condemnation
Fa
perished
harvesting
Pride
club
Judy
Ṱolisisani
Oh
Luimbo
ums
DI@@
Finland
intimidated
warrior
yed
disrupt
Gada
effectiveness
builders
nephew
ships
swingisa
weekends
Food
Changes
goloini
Tea
fhambanyisa
ches
sobering
kwengweledzela
plan@@
OL@@
Written
CI@@
restrained
measuring
Thankfully
Forever
ested
Vhupombwe
Similar
ilafha
Buthano
courtship
nnd@@
emb@@
ḓivha@@
characteristic
desolation
committees
LE@@
Goals
Beyond
prone
Chris
im
ignorant
Throw
RI@@
ambadza
redeem
adzo
guarded
Government
withdraw
Louise
directs
Zeus
reng@@
exiled
mikumba
Amoni
vhonana
La
ures
instructors
similarities
Renda
shameful
city’s
resemble
instrument
dzitalente
lazy
Office
commander
ired
Starting
dad
rengisela
tshimbidzwa
supporters
reviewing
recordings
ntakadzaho
thirsty
glimpse
solidly
Ephesian
nangiwaho
ENT
OUR
Vhaanabaptist
tsheloni
Die
Tr@@
Ta@@
AIDS
Wa@@
shi
netisaho
Eternal
gently
heeded
skillful
owed
vhofhololwe
lusili
IUD
zwipiḓani
muedzi
deprive
KING
soap
bebwaho
peacefully
jo@@
League
worries
ari
supplications
mistreatment
tshenetshiḽa
Tsarepata
khali
rembulutshela
Evidence
Wisely
bikela
mushai
108
cy@@
Mbekanyamushumo
likens
Diana
Vhavhi
unnoticed
apocryphal
swift
tho@@
ndi’we
responds
alized
bvafha
dire
inadequate
grievous
joyous
courtesy
60@@
Righteousness
appointments
dzike
Vhalanda
sec@@
Preach
Edomo
Je@@
stretch
abandoning
Tshiné
freeness
VHO
incentive
dzwa
mpfara
Tombo
miṱuku
tshelaho
ḽigweṋa
rival
tension
Shulammite
ḓale
vusuluse
scheme
landule
cuneiform
el’s
khukhuliswa
nkhumbudza
vhusawana
dziphombwe
recovered
fhaṱululwa
endearing
spear
Gad
dated
fho
Vhashu
KOR
hence
strip
hangwiwa
Dovha
tense
shining
Tevhelani
takula
barrier
peak
Tonga
Por@@
discrimination
Mbalotshikati
mambule
THAT
tshirethe
ndi@@
Dzawe
vharengi
pres@@
roadway
visitor
beneath
Bear
aga
Muri
adhering
wn
Mag@@
miḓifho
fhaṱutshedzwe
makoleni
Marian
ḓil@@
vhela
Asian
fhulufhedzisa
oversee
Keith
Rendani
khethiwaho
arranging
comprehension
Karl
wondering
intriguing
tshafumi
logically
ELE
Tokyo
ḓiṱalusa
Lot’s
estate
splendid
cond@@
Based
disturbing
ṱanḓavhuwaho
advertising
pit
frame
grieved
pause
proceed
ḓisendeka
gumi
Seven
calendar
1000
overall
nuclear
complement
compass
Alive
lacks
Success
student’s
amounts
swa@@
refine
Hon@@
Hear
Filemoni
pan@@
clo@@
clergymen
Madrid
Felisa
Lufunoni
betrayal
sie
Prophets
shouted
nak@@
tik@@
muḓanani
Frieda
urging
delights
livhiswe
ṅwalele
flirting
watches
Milan
matope
Lwelani
enthusiastically
Promises
ngafha
dr@@
gossip
aru
lame
Swika
ards
ay
progressing
milenzheni
endanger
APRIL
Calvin
Almost
Central
bakoni
pertaining
Party
gwadameli
fhulufhela
fhedzwa
Son’s
Herd
aṋwaho
solving
Origin
tshitshavhani
conceal
lure
fasiṱere
burdens
greeted
oxygen
mabogisi
fheleledze
co
Forgive
azwo
Security
needing
ora
nthwa
Kevin
sevhiwa
sufferings
Hawaii
adoptive
murmur
thonga
tends
tombs
van@@
mpha
tshit@@
nang@@
Sri
untruth
Fulufhedziso
tting
relaxed
mountainous
esses
Mel@@
hindered
MIṄWAHANI
zwitshele
shele
LY
vhoniwe
tendani
dzimbiluni
lurumbu
Bethany
esteemed
Ja@@
fulu
Lanka
vicinity
Common
vhupfufhi
anz@@
Ti@@
swili
ritual
Origen
Jehoram
muṱalutshedzeli
Khwaṱha
Pursuing
seats
Worth
reproving
Quebec
transmitted
hotel
Tovholwa
Vhala
prosper
wording
khundu
Khoro
pronouncements
kg
Modesty
malaria
nṱalutshedza
khuni
Philadelphia
tandululwa
IMAGINE
senseless
Galatia
ḓani
den@@
gudedzini
Tertullian
Drawing
disgusting
stu@@
ulani
ṱavhanyi
kum@@
vhuvhini
Theodotos
bird
kwaṋu
sect
mulangi
mercifully
iswi
vhan@@
Itea
stimulate
consuming
tics
Hanani
ham
pushed
ands
Fanyisani
other’s
ero
distributing
agreeable
unrealistic
Medical
influential
rebuked
Examples
Nahumi
interviewed
defines
lam@@
gh@@
Bebwa
ades
endowed
Ehud
wadzo
obtaining
Challenges
1870
rituals
1923
mmbete
alize
Abrahamic
sunset
ke@@
tshirendo
dzumbiwa
siaṱ
cooperating
treatments
ular
khadeledza
Hospital
chi@@
assign
funzi
Rica
Marie
informally
exultation
Vharumiwa
down@@
1916
interviews
procedures
pfuluswa
livhisaho
stronghold
hira
DA@@
AB@@
crossing
Tho@@
relieve
ṱalifhe
shoulders
zwiṱangadzimeni
tsireledzee
Ḓiṋeeni
frustrating
ṋyita
aunt
accuracy
fhambanya
vhilaeli
Australian
rotholaho
trains
Special
tevheli
admired
beware
head@@
1984
legacy
Vhotshifhe
Bearing
oneness
knees
don@@
tly
Stadium
firstfruits
Ṱanziela
ḓikumedzaho
vhatikedzi
situated
youngsters
Ḽi@@
Ru@@
thorns
enslavement
persists
paka
Bel@@
kuvhanganaho
YOHANE
destroys
manifesting
VE
khelusa
Poverty
masialala
misunderstandings
farisa
sounded
beset
envious
vineyard
vhakololo
VER@@
trembling
devices
objectives
Lutshaina
EF
Arithasasitha
pfumedzanywa
hosts
eleli
Vhasidzana
Accept
gang
majestic
She@@
overcoming
specified
phungo
archangel
ann@@
Talk
vhombaho
LA@@
Dzhena
vhafhaṱi
Test
Hag
ine@@
ELO
mabulannga
vhamb@@
Lamexe
entry
motion
mudzulatshidulo
centers
Sure
fhungudzwa
regained
dzela
ced
tshinye
horn
deliberate
Usia
Malagasy
ised
dzividio
motivating
heart@@
defiled
ḓifhaho
reasonings
io
SI
offensive
deceiving
ḽihwarahwara
phondi
Shall
Wanani
arouse
disciplining
unfailing
badelwa
interpret
volumu
Sarah’s
ḓis@@
eternally
currently
Cro@@
vhinge
rema
vhangisana
bindula
Review
pur@@
lumiwa
sinyuwaho
Building
mudavhini
gariki
administer
belly
seasoned
nu@@
kunge
futility
lugiswa
shumelaho
pfulo
unblemished
ility
thivhele
pen
star@@
tical
shu@@
13@@
dzikisa
Vho@@
disagreement
overnight
grudge
cally
Philemon
electricity
luvhone
tt
Kilasi
anywa
520
Sacrifice
180
Setting
TSHIFHINGANI
Mean
diwa
mbiḓi
untold
lebula
mit@@
Susana
Pliny
malungu
saddened
surprisingly
notion
renders
Mabuthano
madzingu
govhelwa
dance
eliminated
Carmen
Present
ee@@
xa
Sanheribi
department
Hupfi
livhiswi
Pr@@
back@@
someone’s
pas@@
Tomé
nthetshelesa
illicit
widowed
ess@@
communicating
Guinea
adopting
Sh@@
plainly
Behind
ṱhu@@
separating
uwa
ust
Ṱhonifha
finances
kuvhanganyela
alela
muhasho
foregoing
Can@@
Usually
Ca@@
dzimmbi
Khathutshelo
prophet’s
symbols
zwinepe
IF
bannga
li
peacemakers
prosecutor
Thundu
shandukaho
pika
marvel
deepest
dismiss
ṱaṱa
Ngo
Mudzia
pleasurable
Nicholas
persuasion
ics
Kon@@
Iskariote
pand@@
CD
gun@@
ḽiiti
londola
Lamentations
Samuel’s
fashion
liberated
MAN
passengers
vhalei
Vine’s
ordeal
ailing
Betsaliele
wina
empower
Ḓifunela
potentially
farisi
gg@@
1964
pressing
Ahasi
muphuresidennde
fhaḽa
IM@@
Korean
phele
thriving
alliance
hur@@
obligated
cu@@
apologized
tus
ass@@
fhodze
Suzanne
intensified
responsive
ṋanḓoni
bs
Studying
tikedzi
̗@@
Control
net@@
126
hung
earliest
Ruth’s
thuthuthu
Ḓikumedza
endeavors
Janny
alo
rubaho
discouraging
nete
oni@@
tshileme
breastplate
Tu@@
Vhunazi
phu@@
disappeared
talent
candidates
mammbule
ABOUT
differing
Righteous
hangei
internal
Jodie
dzikhosi
humbulele
vhonwiho
khunyelelaho
enticed
fhirela
faultless
Sel@@
Santiago
emergency
infected
stages
communion
dzibere
Line
Jael
tzhipiwa
ensnared
Augustus
plane
kuvhanganela
pressed
vhani
ria
rapid
saves
Stephanie
vhalimi
core
risks
Woe
searches
Decisions
Isabele
mediator
Ralph
vhidzelwa
Water
muelo
thandululo
risked
distinguished
decay
Tahiti
zwiṱoho
dzingano
flying
laṱedza
Vhal@@
acceptance
Ai
colporteurs
bosom
deepens
Vhuyelwani
explo@@
Zwigwada
presentations
eni@@
owing
ear@@
wazwo
NOT
Significantly
oming
rites
fullest
ols
machinations
Kristina
brokenhearted
nam@@
za
Akani
ṱanganaho
ban@@
imbiwa
phi@@
tshimedzi
tshel@@
Recognizing
imagination
Peru
evildoers
contempt
Council
ḓiwane
PER@@
humbelaho
General
Isaac’s
550
uncomfortable
João
Tshawe
operating
dzulwa
mulapfu
computers
zwidulo
noise
impatient
ḓivhambedza
vhadali
Halwa
rotten
eradicate
attaining
mur@@
piringululwa
Encourage
Phambano
exalt
Splane
Dennis
Araceli
Vhasadukei
Mulamboni
Atsina
sinyu@@
Eyes
ounding
serekana
lock
barely
peni
cont@@
treasured
fin@@
cons@@
khalwo
humor
implored
diet
Beloved
karusa
lim@@
occurrence
19@@
fhandekanywa
vhidze
Tri@@
Archives
equally
PEOPLE
vhutsi
totter
Ly@@
interpreted
bottle
evenings
comparable
khokhonya
colleagues
thetshelesani
horsemen
ORIGIN
Joshua’s
recount
Andreas
bas@@
deaths
Complete
Hel@@
policy
shade
stir
counselors
ṱavhiwa
admonishes
vhingane
JULY
surpasses
Ithai
flame
enrolled
farwaho
fura
kanya
Resist
’S
dismissed
odds
reprove
disadvantaged
Vhulamukanyi
worn
reverential
beheld
Wives
miroho
announce
strained
meets
revised
unshakable
1929
Lesson
stresses
disrespectful
Gathi
thevhedzaipfi
kuambele
Articles
Abigayl
Ḓa
Laodikea
ests
Joe
bind
Vhuongelo
zi@@
Ricardo
bigger
Provide
Ḓadzea
Muano
counting
loses
anganyelwa
ṅanga
vehicle
cattle
interrupted
Max
prophesying
vhengwa
memorable
birdcatcher
rejoices
ound
pled
Mimuya
Asaria
ARALI
Luis
Mah@@
ḓihumbudza
turbulent
welwaho
iwi
contract
Dublin
wonderfully
zwivhini
ḓisole
yl@@
subsequent
alafha
fix
ṅwa
Kojo
MUANETSHELI
vhubindudzi
film
Maradokai
zation
khe@@
khavhisa
muṋameli
Average
anye
corresponding
reinforce
men@@
speakers
khanzu
vhalelwa
assumed
intervened
fhedz@@
exception
tshifumakadzini
chairman
transfiguration
vharema
prince
bveledze
War@@
Pres@@
TOLD
ron
Vhavhuya
ḓikukumusaho
khunzi
Wales
adoption
dzheneleli
lavhelesaho
Sp@@
travelers
breathing
Amatsia
ṅwaliswa
Bezalel
Lilongwe
parent’s
Money
mad@@
Nation
seeming
stored
zwifho
fur@@
thomiwaho
hearers
underestimate
abused
pfamo
originates
mathukhwi
narrow
imaho
shot
ping
Vhanefilimi
vhidzwe
Values
muphurofesa
Azariah
employees
overwhelm
Pre@@
disappoint
renounce
enriched
abortion
tribute
art@@
CORINTHIANS
ball
ḓadzwa
Fern
COUNTRY
preferred
kiss
unresponsive
verbal
vhuḓabaḓaba
papyrus
reproved
Sadducees
IVF
lifelong
couple’s
Artaxerxes
uncle
nowhere
headedness
amid
bar
tshimbil@@
Beginning
Muraḓo
Persecution
vhadzimu
decline
Mafumo
imanyana
distances
salute
Hughes
Toronto
Borgia
multitudes
bad@@
Sy@@
backs
closeness
tered
Zwauri
sn@@
Joyce
knocking
locate
symbolically
brochures
ceased
sevhe
Left
ḓiwa
mufhaṱi
manifests
mer
ATION
fearless
Vhalindi
khuthadzea
Single
nurse
wrongly
ṰHANZI
Hukhethwa
450
Ang@@
scheduled
Bor@@
mupfumedzanyi
vhuaḓa
Ṱanganedzani
wed
handsome
ḓiswaho
tshipimbi
Amaziah
Vhushayanungo
cleanliness
adz@@
Baptist
Vhaṅwali
attribute
Elderly
disfellowshipping
Ministerial
AND@@
vhuswaho
ambitious
tsikeledzwaho
khoṋo
intensity
nyaluwo
differed
marks
lungano
succession
watchfulness
soften
Reach
somolela
Tshilikadzi
veil
van
Khaṋo
cherubs
bwa
132
ou
echo
desolate
err@@
anganyela
ṋoka
Sharing
ridiculed
vhudele
battles
ḽiṋowa
kel@@
Henefha
amela
farmers
Bri@@
vhatambi
bishop
ast
Sacred
ṱalukanye
intercourse
Realizing
Public
undefiled
hor@@
tolerated
Lloyd
anc@@
tshiṱahe
suicide
resistance
indifference
Alma
Irenaeus
hang@@
complied
tranquillity
lessness
fraud
awesome
humbulelaho
leg@@
flat
pap@@
preparations
sister’s
dzikhomphyutha
539
joining
banngani
tshiambaro
humiliation
tsekene
procedure
Makrónisos
hen
lwiwa
poisonous
widow’s
determines
fatherless
Man’s
Prince
hole
Bur@@
deceitful
londe
pfufho
ref@@
sects
counterfeit
fortune
downpour
ṱa
mupombo
kiwa
inactivity
bodo
publish
designs
spokesman
Arne
rwelwa
sions
MUAPOSTOLA
luxury
clue
lit@@
sem@@
residence
resisted
babes
vuleaho
sheer
defended
theater
Bal@@
sis
organizing
ection
begging
tim@@
mbalotshikati
nyanyula
Lessons
vhungafhani
uniting
Lisa
lwelani
dzimbiḓi
Facing
langi
Tikedza
Courageous
deepened
Gar@@
spar@@
Made
realizes
nourishment
Global
Indian
conversing
linde
opponents
haseledzwaho
insects
confirms
sentences
split
debilitating
Lösch
mikovhe
asi@@
nets
ladies
prodigal
superlative
Alcohol
Courtesy
pillars
groaning
tin@@
dzumbululelwa
ue
lalama
incessantly
Laodicea
Edom
Rel@@
extension
zwima
Vhuḓinḓani
Mutakalo
matanzhe
varied
disapproval
immersed
school@@
Flee
ela’ni
mmb@@
translator
pilela
Vhorasaintsi
devoting
kaṋiwa
pull
canceled
tshiṱitshi
vhaheḓana
choke
khalenda
Been
prepares
Luc@@
ACTS
thankfulness
kune
harmless
kundaho
Nyengedzeo
bi
funziwa
PI@@
chain
soothing
mmvi
dziphaṱhutshedzo
Otto
imelaho
dog
vhudziswaho
Gordon
Brethren
detect
illegal
PE@@
AM@@
ḓiṱanganya
ngalangala
revol@@
Tendelana
tion@@
ste@@
pronounce
rovhedza
Climax
production
ology
We@@
Step
controlling
Mountains
scenario
OR
yana
grabbed
Hamani
thrust
,000,000
farther
registered
dzumb@@
embarrassment
tshikhuna
Ahab’s
excessively
vhudzeni
eli@@
consulting
tshiny@@
ruining
coals
nyana
Yourselves
bveledzi
vhuvhuḓu
alternative
trend
gaze
newfound
Livhisa
pearls
Ye@@
140
dzindau
dzazwo
short@@
KORINTA
contrasts
Dec@@
erring
Mic
overcame
Trials
lamulelwa
Sol@@
beforehand
mustard
TA@@
000,000
worshiping
privacy
kills
opportune
khi@@
merits
PO@@
Khuthadzo
delivers
huufha
removing
liness
lubuli
ḽayo
hopeless
Regularly
nkombetshedza
truthfully
Street
Mr
needless
án
Out@@
Tshaina
1,500
prudent
Tovhola
recognizes
mashubi
Vhukoni
poison
Lamech
Khethwa
Khumbudzo
isele
NDA
1924
vhuswoleni
hodelani
Ambarani
disowned
Thiathira
sikelwa
complaining
Sia
Des@@
amounted
vulwa
phesheni
Corinthian
Phara
Zwiṱhavhelo
lile
adolescents
Ak@@
Thaboro
Around
aling
lutomboni
ṱambela
TIMOTHEO
impresses
Euphrates
Livhiswa
munukho
dzulwe
Kho@@
mirero
Ch@@
square
hanela
cramped
Millennium
1973
tshiala
determining
Carolina
FAITH
Brings
maḓaka
flexible
regime
complicated
Abisai
decisively
speechless
khakhiswa
publishing
Value
naked
Pure
Fathers
anti@@
formidable
housing
narrative
fhisee
Nḓuni
pet
Caribbean
attentively
Needed
mid@@
dzhielwe
vusela
Emilia
humbelela
readiness
Paragraph
vuwe
Riches
booklets
tsengoni
Yoyada
displeased
milanga
spends
Hum@@
Eng@@
Roberto
kwami
voluntarily
returns
thin
kokomedza
Gallus
Michigan
adulterers
tshihali
sustaining
holidays
lutho
TIMOTHY
dzhiani
Karamele
Shinto
Ahaz
sympathy
ERS
Riana
redemption
trivial
rev@@
shrink
privately
restrictive
subdue
struggles
rode
lunch
ascending
Opoku
persistence
negatively
Thyatira
displease
Takale
guaranteed
capture
humbuleli
Vhafunwa
workmate
MUVHUSO
fondly
tevhulela
hear@@
Ninevites
graduating
María
vunḓuni
khanedzano
ṋek@@
adjusting
Mariví
Becoming
Offered
EX@@
campaigns
Ipfani
mor@@
ṱuṱuwedzane
om
Mak@@
Lead
mar
Nicole
missiles
Supper
Bethania
Forgiveness
ama@@
another’s
Maguvhangano
underlying
unnatural
Pioneer
pat@@
sign@@
GE@@
AFP
entreated
dense
lovhelwaho
Prepare
ase
Needs
ousness
mutambi
lining
decides
haven
dedicating
hanya
Willingly
Maṱungu
Uzziah
degrees
MABEBO
babies
Vhul@@
Luther’s
onesa
wetshela
deluge
edzana
pope
injurious
Vhutsila
Khetheaho
atheist
volumes
YESAYA
uni@@
Swikelela
marking
pulled
kul@@
farelele
hairs
bre@@
ṱungufhalaho
collector
Regular
rushed
depending
hang
Fhaṱa
makers
hy@@
Eight
aglow
replies
shone
tsi
eḓele
surpassing
collective
Jimmy
testifies
ceremonies
Jürgen
vhaimbi
glorifies
magnify
gomela
Nepal
graduate
annihilate
hwaliwa
vhaisalaho
maiden
gre@@
compulsory
ḓumbumazwikule
retirement
kulaho
syndrome
ṱanzielela
Bridegroom
lutshetshe
240
wanale
Dustin
ṱulutshela
bule
Cisneros
barley
trusts
Mulingo
smooth
Dzitshakha
Argentina
1926
uni
unborn
unselfishly
ḓiṋekedze
Meda
mishashani
OF@@
tormented
UM@@
matshimbilele
Adelaide
gesture
radi@@
thubwa
unnamed
hulwanesa
Describing
Ite
farisana
Carmel
vhanda
ikonomi
Mutheo
dzind@@
Art
ISAIAH
Leaving
yela
prolonged
diverse
Subject
counts
Ṱanganedza
bri@@
sudzulusa
lukhethwa
fhululedza
tracks
Home
fre@@
afflict
costs
discreetly
vhanangiwa
tswiwa
1900
trueness
kela
Yeseriele
informal
criticized
vhele
ä@@
Mubebi
develops
Bombay
prevailed
Obey
contributing
Tshidzwa
1968
embryos
ian
Tsireledzea
Mishasha
TION
Pompeii
Wherever
Koda
likelihood
bye
exposes
Simone
equ@@
doctrinal
dove
ney
facets
migumoni
assuming
Katarzyna
Fh@@
dness
unforeseen
wheels
tiring
Protector
nnyadza
Tshiṱiriki
YOUR
Ages
170
Togo
inauguration
TSHO
Wanga
Vhuhosi
outline
mmbona
marketplace
Guidance
wonowo
Rabasake
hurts
rude
humiliated
ger@@
seduced
Lebanon
traitor
ision
tshifhefho
off@@
males
ulo
vhuy@@
scourge
rabelani
urgently
Jezreel
cia
lingi
Da@@
intelligence
tshitentsi
inga
Pornography
luma
Dedication
tzhipa
ented
fellowman
nthuma
polygamy
muheḓana
quar@@
Elsebeth
tre@@
plus
winning
empathetic
ational
Coun@@
rust
Foreign
mafhelo
Aramaic
THE@@
Khae
zwitungulo
Hol@@
substance
consists
Agboola
muyatshivhili
unfamiliar
pulane
Freedom
Mupfumedzanyi
Elifasi
fondness
bindulisa
trailer
ete
wee
lots
muthetshelesi
seleni
distraction
net
substitute
implicit
Manoah
Em@@
Mutukana
wal@@
MIRERO
Stories
ect
mines
robes
enyana
ambulula
mufheṱi
phasa
ash
burg
miṅwedzini
Auschwitz
lug@@
transport
vhavhalela
Oṱhe
linganyiselwa
blossom
muḽoro
HONE
brightly
fhambane
refinements
ft
Vhusiku
thoughtful
exploited
Cultivating
Matsepang
udz@@
mutovholi
ren@@
fatal
necessity
Judean
ULA
tshu@@
elle
mud
eb@@
magic
Kerekeni
elling
imin@@
zwil@@
crash
Olympic
likeness
Accurate
lang@@
interpretation
zwin@@
TSHIFHINGA
Maṱaḓulu
ada
lise
Felix
Itwa
fhaṱiwaho
sumbedzani
Addressing
Hebron
transforming
DZH@@
NGANI
onlookers
ple@@
Eliphaz
Vhuyelela
work@@
sedz@@
willfully
Motivated
FHIRAHO
Found
accuse
isolate
Student
descent
Alejandra
rabelelani
tshimela
nkonisaho
ba
ski
cm
Older
dzumbiwaho
vhelwa
Tabor
ḓodze
PETRO
frightening
magundo
Believe
du
Sc@@
letup
Undoubtedly
devious
Ed@@
seng@@
legitimate
ṱongisa
livhu@@
assigning
reception
khulwanesa
uprightness
taunting
Cristina
khunyeledze
Woman
ot
Fabian
Maya
unfulfilled
equips
Vhune
discovery
ass
Avhuḓi
eḓelaho
shrine
Fight
ins@@
maḓakani
revision
lamented
instructs
tsenguluso
shambo
flaws
Lind@@
ANS
PRO@@
imele
guess
vhulungela
hwelela
nation’s
keeper
Ready
sti@@
shumelana
Listening
tle
phonograph
sings
kolo@@
lukuna
lyrics
turmoil
vigorous
lum@@
lemedzwa
Ag@@
cord
Jonah’s
pos@@
that’s
atic
shel@@
pouring
mare
robbed
disagree
tikedzana
eggs
livhiswaho
homosexuality
1936
Gregory
EP@@
fhinduli
tified
Zwiaṋwiwa
Reaching
ascension
Patience
khwinesa
wiwa
ingamela
MAY
dreams
sport
links
holu
swallow
pho@@
cursed
edly
Lwisana
gen@@
Che@@
tshirundu
dzikhaladzi
suspicion
Fiji
interchange
Hulisani
shrines
embarrassing
Violence
ḓise
planets
Tou
screen
travels
neck
seldom
Mulanguli
rep@@
lest
Ros@@
Deliverer
Change
nt@@
reinforced
14th
songbook
Porotesitante
15th
lays
khoḓ@@
reg@@
lin@@
117
Jason
muzwala
contentiousness
Mutsireledzi
assets
nuns
III
silently
plea
142
4,000
frightened
Steven
Príncipe
MINI
Vhulunga
Mupapa
swear
smell
circumstance
esting
Pen@@
Nathanael
Vhathes
Instructor
Ngafhi
Rend@@
Works
Amb@@
master’s
resume
repeating
prot@@
eloni
ff
Cl@@
rises
dziṱhunḓu
rannda
roving
nṋee
gera
recipient
Gnostic
occupy
Tshumeloni
murderer
fany@@
rebuke
Elisabetha
Means
Pedro
thirsting
curing
cla@@
Ngomu
Agent
crafty
BORN
kuvha
readjust
Safira
ber
a’ni
wasted
50,000
dzhi
ṱhahelelo
vhabva
Kind
pla@@
streams
ḓuri
ny
surgeon
ndebvu
eme
hane
Heburoni
zwit@@
Science
Ṅwedzi
Caesar’s
vhalanguli
Sisera’s
nts@@
forgo
destined
worshiper
Strive
wrathful
ao
thro@@
od
coworker
hi
thola
Safeguard
Caring
Mugudiswa
vhufunzi
Open
Diotirefe
heap
purposeful
vhudzumbamo
phula
itelana
childless
dates
deprived
Columbus
Attitude
New@@
fulaga
uncontrolled
Lwavho
imisela
edzwi
mobile
thir@@
elev@@
Ob@@
bannda
Colombia
potter
1934
Mugudisi
ELI
carved
indignation
reaping
intimidate
dodela
Javier
entertained
Lovhedzwa
Flavius
Missouri
Tshilaho
gudwa
Alps
lucrative
you’re
ut
tshigwevho
Message
gas
observer
Haiti
Ḓiimisela
bonyongo
rank
iri@@
miserable
graciously
fhelelwe
Nyemulo
gh
attendants
yearning
grants
Gre@@
clothed
forty
opposer
proposal
unwittingly
lingedzi
tshidele
predicted
muiti
govhani
WITNESSES
aver@@
Simirina
delegating
divisive
Heaven
JUNE
ṱahala
zwikolodoni
coordinator
Remembering
calamitous
ḓivhofha
illing
muumba
destiny
cruelly
Diotrephes
cries
Ṱuṱuwedzani
fer@@
sided
Considering
pfumedzanya
abounds
nurture
SHANDULA
agency
tshanḓanguvhoni
Firm
Vhaṱoḓisisi
Charalambos
aha
impressions
maḓ@@
Mediator
intensify
Lost
inv@@
Patrick
lit
Guy
ascend
ḽiivha
stadium
guarantees
Noṱhe
sympathetic
moderate
expend
watchman
Counsel
fingers
Nancy
neglecting
tshelwa
m’s
consolingly
Fhindula
occasional
spotless
dispensing
ndzhiela
unevenly
remedy
Nathanaele
songwa
Smyrna
sclerosis
wing
manditi
Vhaamoni
nisela
Ter@@
ḽiḽa
Dzanga
spots
pushing
huliswe
Sedza
ponda
strongest
Rodrigo
lusa
tation
library
researcher
dudelaho
muṱoḓisisi
defilement
circus
lwondwi
WILL
Willy
ills
Tsimu
fun@@
giramafoni
Ev@@
skinned
decrees
Saskatchewan
ḓiṋeeni
Essential
indi
reviling
dzatsho
apping
diversity
plo@@
intimately
Sapphira
PROVERBS
Conscience
Texas
yer
fomo
adolescence
inflicted
Luaramiki
inquire
tshiṱepisi
alter
Lidia
tewaho
d’Ivoire
wasting
UN
Côte
demonic
mbokoṱo
misguided
Tshiṱangadzimeni
Swaziland
yao
chest
tondwa
historians
Khakhathi
elelaho
tures
AUGUST
vulee
Z
persecutor
wiwaho
Mufuda
prescribed
seal
ashes
unthankful
definition
puffed
peri@@
anism
exposing
customers
OK
Her@@
Vhe@@
vis@@
khukhul@@
Lwonolu
eats
Qualities
xi@@
Anabaptists
nears
Goloi
disobeying
Vhuhulwane
polite
Khoṋololo
remarked
Vhamoaba
cher
Dorota
slides
ANO
Meetings
int
treachery
DE
trek
triumph
nngudisa
Lansing
Grave
overtake
Learned
Sardis
Edward
Helper
warring
Dzule
Imani
rom@@
Noumair
Pap@@
tshibugwana
masimbe
NGEI
ṋaṋe
Dzinḓila
ading
Vincent
ḓikaidza
Cestius
Latvia
Miri
Vhaeni
gratefully
CHRIST
ministered
murderous
shumiwa
Georgia
CH
wounded
Vhuvulanḓila
dzitshika
ripped
Seoul
muholefhali
eling
LUTENDO
dri@@
indifferent
Mivhigo
affecting
Dina
relaxation
sandals
stra@@
Include
Ṱoḓea
dzindima
ululwa
trumpet
◇
zwigayo
marries
zwikhoḓo
leaf
Prior
carbon
Iḓá
accusing
employ
Nahum
atri@@
hesitated
entice
escaping
tshikwekweni
dzamuluwa
PHINDULO
Yabini
KRISTO
kamela
Herbert
alism
mabuli
40@@
pilot
Haykaz
climb
minimize
tshe@@
Col@@
initiated
opposes
Pioneers
musidzanyana
disturb
vhatholi
option
fhelele
refuses
ST
Gileada
Burrus
Egypt’s
sum
stolen
inevitable
Lowell
Hayani
Pope
exp@@
1969
Colorado
appeals
figured
Kyriacos
recipients
vhavutsheli
Miṱanganoni
dic@@
barriers
convent
Jr
tshawo
220
fulethe
vile
traces
Committees
vindicated
Newton
contest
Ammonites
MUYA
vhofhekanywaho
dro@@
Traveling
Taught
lake
gand@@
PAST
lawless
prof@@
stops
mal
Voltaire
instructing
sham@@
thanyaho
superhuman
lyingly
vhewe
Khwaṱhaho
imp@@
Dzhele
edzane
ṱoḓisisa
YES
bles
Reformation
Frost
fhisetshele
Vhathetshelesi
punishing
thuthwa
statutes
hobbies
ṱhiraka
invaded
Report
vhuk@@
acy
vharei
Florence
bloodguilt
nyadzisaho
lifhedze
glance
Ben@@
mitengo
milestone
eho@@
vhilula
gonye
pool
vhathuni
PETER
Ken
tations
exclusively
gains
facility
reunited
losses
pli@@
Saradesi
grand@@
ITY
strengths
responses
dle
blamed
Muzika
trends
mulimo
Master’s
tshimuma
ure
vhutshavha
sabbath
mak@@
Accepting
Mercedes
lem@@
fhahewa
talente
introducing
parallels
tshikhalani
ult
Gomere
tevhedzwa
Thompson
Delphine
rang@@
Northern
intolerance
Shumelani
granting
Ṅwalani
rough
denote
Ṱo@@
dzawo
ction
iyani
ḓiwe
Melite
belt
Honest
nengisa
Recently
tshivhini
films
checklist
lw@@
rudza
Mitshelo
mafulo
stepping
floodwaters
vel@@
sedzi
Mut@@
violating
sermon
Cam@@
Ḽitambwa
pol@@
Bvumo
vhumbea
hind@@
Pressure
blows
bike
ENI
Georgina
Nḓala
Ḽiswa
muambeli
ṱahelelwa
Tuesday
faulty
hovhelela
plead
hanging
Judah’s
dim@@
dragnet
kumedze
Gail
disability
prophetess
renew
demeanor
symbolizes
persuasive
Wor@@
mudzi
khofheni
lamps
Putting
Own
pfula
employers
vhudakwa
Dist@@
atonement
indications
khuthadze
hadzima
Willing
unfolding
Prison
pel@@
ul
pper
ack
Felipe
ṱuṱuwedzwe
vhatuka
hulesa
fulauru
Helped
Tshanḓa
muvhango
sanctity
mimapa
Vhukatini
Yoaba
tswu
swiftly
vhaḓa
Abel’s
tremble
Nu@@
contracted
hasty
cle@@
Nathan’s
misunderstood
dzivhiswaho
abusively
cruelty
Giuseppe
11th
defending
sewing
dragged
straw
Andes
reassurance
timid
lindwa
possibilities
lighter
presumptuously
Muthusi
Gerri
Muthanyi
Vhege
Martha’s
unloving
humiliating
rebelling
ngade
uk@@
nṱ@@
hoyo
Madzanga
bebela
collections
LWA
reproached
umba
succumbed
aroused
realistically
THEIR
fu
Fhiraho
permitting
Mercy
boxing
Wallen
mugodi
Nicaragua
ELANI
sustains
iṋe
Muvhili
removal
Val@@
1,600
swikel@@
Lucy
mbone
Vhukhakhi
characterize
facet
khomba
Rubeni
matshilisano
Hos
profoundly
Tovholani
rightfulness
dozens
EA
constitutes
Midiani
rangisa
ach@@
CE
fullness
woe
kharavani
Booths
muvi
imposed
YO@@
ṱavhanyaho
therapy
perilous
GU@@
dislikes
mistakenly
.5
enhanced
Sho@@
Eṱhe
impose
Dzangalelo
Joab
176
conceive
vhifhela
lers
inadequacy
intrigued
continent
dare
ḓivhiwi
tand@@
zwingafha
ate@@
Ultimately
BO@@
pleasantness
advertise
Loved
doves
Jud@@
assemble
Ashu
Growing
che
cunning
Tshirunzi
ṱhohoni
shumiswi
ongo
Valentina
Ṱuwa
hangweli
fhala
Sing
bowed
bveleli
EA@@
ation@@
troublesome
participated
Laura
degrading
FUL
Hur@@
sedzesa
assistant
renge
retired
vhofhea
bononi
Mountain
lawyer
wind@@
won’t
MARCH
gn@@
twofold
Scientists
Appropriately
beb@@
usual
wedlock
haṱulela
handful
bvu
Vhaperesia
suggesting
salary
slain
thoughtless
lovable
Elekanya
dictate
Vengeance
ur
Communication
ḒUVHA
Themselves
khukhulwa
,000
Practice
vhaongi
Demetrius
aw@@
mishasha
reporting
Birth
18th
phase
sho@@
Murumiwa
Madimoni
nz@@
Matshilele
pledge
Web@@
unforgettable
Positive
Appreciation
ṱanu
commanding
vhudziswe
vhangwaho
Letter
tshiraḓo
Dignity
dzikamela
ṱhuphiwa
huvhi
ṋeeni
ṱhaḓula
weighing
Stri@@
ounds
flo@@
ṱungufhadzwa
ṅala
Dzivha
rocks
cook
Kar@@
loan
tsaho
esani
superiority
Makes
cardinal
top@@
ón
endelana
medic@@
swikelelea
Done
mayor
vunḓu
Del@@
asserted
misunderstanding
ologist
heartening
sink
nyuklia
cor@@
restrict
senthimithara
Engedzeaho
appendix
Muḓivhi
melt
mingome
noting
fhandekane
tshinyisa
tovholaho
dd@@
2.@@
mabofu
Successful
nḓirivhe
Syrians
Jehoiada
ṅwat@@
Ḽivhanda
passes
kumbiwa
proceeds
boasting
Kobe
requesting
phepho
nwela
ṱanḓavhuwa
engrossed
isolating
Jerome
anticipated
Medo
closing
inches
Congregations
tsw@@
dividing
Maud
lus@@
Shiloh
dindini
tight
prevailing
AH
heart’s
app@@
impel
horizon
shoot
pornographic
Il@@
fhur@@
Bithynia
Haman
Greatest
khare
sevhaho
Mordecai
Ḓorobo
Iconium
willful
Cause
cul@@
fhindul@@
aff@@
tswio
Maṱhupho
Katherine
Ṱavhanya
endela
sinless
ramilayo
17th
Nabal’s
Vhuyelwa
Athena
breakdown
symptoms
Catherine
wolves
selecting
warriors
Gives
Ebed
ets
panic
melech
ero@@
breakfast
Transl@@
MAFHUNGO
ense
Ngelekanyo
applause
Ilaria
ngeino
tshidakwa
dependable
Inspired
vhasasaladzi
soga
eventual
Thomani
Shum@@
converted
Sub@@
vhe@@
representation
Zwiito
Vhudzisani
Khwaṱh@@
Larson
kanḓa
Witnessing
Wendy
Tariso
litsh@@
Phu@@
laughter
dreamed
ems
lovhaho
MIR
997
mbumbelo
shumelwa
are@@
Exc@@
ron@@
upcoming
Chapter
signify
Wil@@
enz@@
kotama
pic@@
Holiness
hwalaho
pa
ution
managing
affir@@
steadfastness
Erich
reinstated
biggest
ce@@
import
konḓ@@
bel@@
IG@@
acceptably
ṋeana
announcing
ossuary
locusts
ESS
nga@@
alliances
vhaḓivhalea
Guided
mam@@
clever
Berlin
Turn
peṱirolo
Toñi
olo
itor
Mulai
Leonardo
ji
khakhathini
vhonadza
maṱuwa
fts
Tur@@
Vhavhili
correcting
unfruitful
railway
Fore@@
ṅal@@
isn’t
vhiwa
wiser
tsimbe
contaminated
Pun@@
supplying
tendelwe
Tishri
ink
ḓikuvhanganyela
Tom
smallest
Bec@@
beach
mysterious
ambo
theft
Silo
Ammon
Ṱuṱuw@@
Nobody
reform
Coping
ṱoḓ@@
nny@@
nobles
Contemporary
ndindakhombo
tshifhango
achievements
vhulanguli
fhaṱi
Dzithabelo
MA
Sofia
pleas
sou@@
ḽihoro
reviled
exult
mungome
Contrast
fhungudze
Possible
Plan
Fan@@
breadth
ette
stock
refreshed
Ind@@
Ḽino
viewpoints
vhat@@
grains
disquieting
frankly
Victor
2018
Cu@@
HOL@@
Muheberu
Less
Mulandu
QU@@
Muimeleli
fulufhedzaho
ti
Dani
tte
essentially
Neighbor
mills
Challenge
diminished
imb@@
crimes
shortage
ured
Wal@@
Usa
undesirable
attracts
Abihu
D.C
shanda
induce
forcing
converse
Vhuyuda
decor@@
tshivhumbwa
mustered
our@@
ND@@
gondolo
traced
Coming
tortured
Es@@
strain
RU@@
muedzini
Vienna
Buguni
Act
Vhaamaleke
conductor
violin
Kapadokia
mit
ntevhela
Musimulalushaka
tsitsa
Dzitshaka
Rich
collecting
ungo
ZWO
musical
mmbaisa
purely
LMS
Pryce
bebi
reverse
Aletare
welcoming
majesty
midnight
MAN@@
embarked
edge
Fernando
Experience
Mbu@@
w17.0@@
debates
Wars
taunted
annihilated
watered
kind@@
Whole
stomach
paint
ḓihangwa
ḓiimiseleni
reaped
ANSWER
toll
borders
Ur@@
Gi@@
jailer
Tuvalu
̭e
236
Ale@@
KHOSI
theirs
Sacrifices
vhidz@@
lupila
kungiwa
ster
soci@@
ential
stoned
rigid
uluwa
ap
smiles
desirous
phukha
Baptized
misconduct
fhaṱuwaho
void
nga’ni
Pioneering
Faced
remorse
1912
Liaison
clarified
pfumisa
Bern@@
Shanduka
Ernest
settings
em
Numerous
ans@@
item
tirelessly
Stanley
absent
Sachsenhausen
appearances
indulgence
praiseworthy
Changing
fic@@
Willie
mukololo
Kund@@
De
vhalele
PL@@
holela
Kishon
70@@
Furata
TER@@
launched
vhuevangeli
lwisani
Tshifhé
kuvhanganye
Abishai
Ama@@
tshintsha
wanela
entreat
unsure
insurance
corpse
inspire
stubborn
failures
miswonḓa
rever@@
boxes
End@@
mikhethwa
circle
practically
recounted
Federico
Ḽine
185
participants
gravity
conversion
Praetorian
perceiving
Age
angi
Bro@@
Edwin
infirm
orphans
od@@
themendelwa
Op@@
kunguwedza
Johnson
rub@@
tending
nkhwaṱhisedza
fhembeledzwa
Ling@@
rumu
Serge
discourses
Tshiga
animosity
stroke
umu
pwash@@
honovho
courtyards
tshiswiṱulo
fuller
Vic@@
rays
Lithuania
design@@
vheiwa
nya@@
Char@@
ör@@
Konḓaho
Balaam
denying
powerless
propitiatory
scor@@
21st
dzimi
ert
slipped
alifabeta
ṱan@@
stays
millenniums
PROV
integral
owners
vunḓ@@
instant
flames
Fhedza
Wavhuḓi
swallowed
Married
Vhakomana
Gog’s
Iḓa
snake
King’s
controls
stores
Benefits
ature
Te@@
toiling
multiply
proc@@
vulelwa
Face
dispatched
gen
inward
abstaining
wh@@
ison
Mairambubu
Waiting
flogged
poem
fhumudzwa
ngeleloni
Babylon’s
cies
accomplishes
shand@@
ories
Dev@@
waniwe
simuwa
agonizing
lugiselele
Dorcas
vhil@@
bills
Ver@@
Jeff
ṱah@@
shumisaho
kuleaho
Abram
maṱeleṱele
Irina
investigate
vhidzela
nda@@
Dep@@
thethe
Practical
neighborly
olwa
Reuben
stri@@
storing
tar@@
beating
myriads
Rahab’s
onga
shore
Liz
inquiry
lifhedzela
underscores
Marcos
similarity
quote
lifting
resolute
ANZELA
agony
Tshiṱuku
mock
luṱuku
imiswa
humbul@@
Bas@@
baseball
Fanaho
Vhuswa
Nui
Sin@@
hala
nationalism
eḓ@@
touches
improvements
Kereta
MISHUMO
limitless
dangani
sera
via
Center
thetsheleswa
Understand
unit
undertaking
dziné
iṱali
sections
expanse
ḓihumbulela
predicament
kets
ḽaho
ca
kungelaho
Tsilu
bereavement
Hearing
Einstein
drunkards
Lumalagasy
Tshil@@
valiant
EG@@
mukumba
custody
muvhumbi
outpouring
Kh@@
nurses
Grateful
Sobhuza
bodied
sympathize
drifted
ancy
lul@@
tness
itive
greediness
appoints
bare
wor@@
canon
tab@@
soldier’s
accumulated
Ha’apai
newcomers
irritating
JUD@@
fraction
cloth
linger
ases
visualize
Vital
deceit
stimulating
Attending
Dutch
lawful
Schroeder
condone
pierced
ENG@@
lind@@
countrymen
targets
disclosed
Ocean
musician
sheds
Du@@
Claire
consisting
Palestine
refraining
cs
Proper
Hungarian
Michal
denounced
pit@@
torrent
acquaintance
bon@@
unconscious
FOR@@
dishes
Qu@@
Lutheran
nearest
Ray
foundations
elementary
companies
cooperated
atives
fem@@
bility
Helping
Kan@@
sively
micro@@
1.@@
momentary
executive
Edition
attraction
resurrecting
dilemma
orous
gospels
straightforward
2,500
constituted
NASA
Enjoy
fr@@
savings
It@@
denial
Gideon’s
accidents
acqu@@
courses
Claus
moderation
aptly
inger
Calendar
dramatically
Journal
aled
yard
racing
23@@
imperative
simplicity
fro@@
Letters
angrily
crop
Opposition
interior
dig
Scrolls
judgmental
Akiko
finishing
anticipate
insults
prohib@@
painted
Ni@@
gan@@
rel@@
incidents
fifty
encamped
Geoffrey
ths
critics
Slovakia
atively
bla@@
enge
Create
powerfully
dreadful
intend
pretend
cking
Apart
gene
gue
Belfast
archaeological
signifies
Ka@@
bestowed
defenseless
My@@
X
compatible
Cain’s
Jerry
High@@
kai@@
worthily
fathered
eagle
Gol@@
Kir@@
valleys
supposedly
unwisely
surround
onic
oms
wet
Big
Forget
clergyman
fountains
90@@
Musumbuluwo
hill
Muiti
mufari
Dzumbulula
Ararat
lur@@
impels
elekanyani
Tarsus
SIA
nisa
Mmawe
ṱhavhiwaho
Muhali
Nimirodo
Mitambo
mutshimbidzi
needle
apostolic
masambi
Send
employee
Friendship
tshuwisaho
ṱuwisa
quantity
Haseledzani
Whereas
tshinyi
thuseni
tshisadzi
Moabite
gid@@
Ḽavhuvhili
konḓelelana
Ahitofele
KHA@@
uring
lugiselelwaho
ḓiselwa
sadly
haṱ@@
tropical
Londa
furnish
nḓou
tshifhambano
laṱi
vigorously
interview
excelling
MU
walwo
Oxford
assurances
fushe
Janina
kuṱuku
wrapped
Pfunzoni
Muṱuku
sufficiency
fheṱiwa
tendiwa
Wayne
tame
inspect
sinḓa
incapable
khon@@
Sil@@
ḓiṋee
lingani
rindila
appointing
nde
Fhiseaho
mafhi
Livhuhani
resent
iṱoni
puta
ṱhavhela
lidzwa
ANE
choked
Braille
spiritistic
ṋeelwa
fele
awkward
KE
Protestants
Adolfo
jail
And@@
sielisana
pfuke
hweswa
bucket
Murafho
routes
fushei
sorely
Musi@@
academic
fuwa
nnyita
dzhuwele
nangwa
Rwanda
sta@@
foretelling
anyway
humb@@
overseeing
bonyolowa
pfumelela
kuhumbulele
fountain
mavhone
Heḽi
luṋanga
confession
Malwadze
dziṋ@@
QUESTIONS
popul@@
permissive
khuluṋonini
tuvhu
VHUDZISWA
aliens
isedza
agencies
IUDs
conc@@
Judg
birthright
dzimuvi
Ḓiṋekedza
lwaho
super@@
DS
Fearing
cro@@
Sanderson
bvum@@
dzwe
operations
overeating
livelihood
mahatsi
tikedzaho
advises
persevered
Mar
betsha
tains
Makhulu
Included
Rac@@
vhazwo
Esau’s
Fhindulwa
Tshin@@
ṱuṱuw@@
prestigious
secrets
apathetic
nthumela
vutshele
maḓenzhe
tamisaho
IPFI
Kisoni
ḓiitele
eletshedzi
ponyokisa
kapula
Tshati
delegate
ngilasi
populated
unchristian
acle
intact
Saxeo
Naples
Hetshi
Vhasiria
sighing
leap
putelaho
confuse
nor@@
zwalwo
disillusioned
VHAKOR
khuthadzi
nyadzi
decent
Vhagudisi
factory
racism
steadily
vhofh@@
embracing
20,000
melody
Schools
rashly
TIME
kuvhangane
ern@@
rumele
pardon
Oly
farise
pin
Miṅwedzi
combination
Naboth’s
completing
eg@@
summed
Nae
container
ELI@@
vhulahana
Win@@
righthearted
vhareili
lugele
abhor
Pra@@
zwiranzhe
solitary
greaters
poetic
numbering
rides
grim
nearing
coat
alwo
Dario
siiwa
Ethiopians
wronged
seduce
industrious
chart
nweledza
conflicting
ṱho@@
fury
theology
mbwandamela
composer
miḓanani
mabanga
Oct
deteriorate
Zacchaeus
malwanzhe
hanyisa
ological
industriousness
Beroea
maga
extremity
ram
delayed
ngwa
analysis
vhonadze
sundown
vhangela
gia
cancel
Lum@@
after@@
tshisolo
PF@@
esi
interference
lwayo
prohibition
terminally
mulifho
usa
aim@@
ṋeani
inscribed
hateful
utterly
eledzwa
stretched
depths
wither
undershepherds
Lus@@
Vhudzani
Bre@@
tons
Ed
Achan
zwidakwa
Doroka
apprehensive
manger
Wrong
incorruptible
RA
vegetables
breach
favors
Gamaliel
pagans
ḓaḓisa
bridge
stewardship
enters
toes
huvhadzwa
Dzashu
9,@@
lemelwaho
laughed
portray
Gertrud
remiwa
covenants
Isimaele
Melchizedek
mbila
hug
thrones
appreciating
authenticity
past@@
boring
Murero
patient’s
iledzei
dzó
gudi
expel
seisana
monthly
vhusunzi
Question
fhedzela
zu@@
iho
stipulated
takusa
Vhokhotsi
mutuka
bomb@@
ḓowelane
fhaṱana
Ittai
veni
kund@@
pila
Zwiṋoni
minding
Tobiya
lepers
Claude
rows
ḼI@@
Ḽavhuṱanu
ṋy@@
wandered
codex
vol@@
simese
mimakete
Nov
Tal@@
Sw@@
awedza
kuṅwalele
dzinginyei
maravhele
uswe
nkhumbula
Gundo
forfeited
Vhakhethwa
descend
insulting
affirmed
Lidasi
seventy
chaos
Distress
planting
Feelings
nngana
Powerful
creates
Takuwa
Ṱhogomele
mugunei
redzwa
alist
laho
adze
KU@@
windstorm
Couples
Uni@@
fornicators
vhuthubwa
pot
Eritrea
dioxide
pin@@
ḓadzeaho
ombela
Beth
web
lap@@
communicates
hearted
Claudete
ṱavhisela
gers
Bardet
unintentional
Diego
ew@@
val
yearned
Lam@@
khethela
supernatural
Wartburg
thick
debate
kavhiwa
theologian
logic
banquet
compelling
Cambodia
photographs
groom
proverbs
fhaṱele
forgetting
Magdeburg
thikedzo
Josué
ḽivhuya
fesheni
Lubodogisi
malasha
Fara
khaṋoni
Pos@@
thu
rice
Lei@@
apfu
Ṱhaphudzaho
Shumisana
ndilo
zha@@
vhagandisi
Herculaneum
insulted
marotha
tribal
inquired
ita’ni
funani
disheartened
wara
vhulunge
ḓiṱolisise
ṱhogomelana
Vuwa
underwent
yenei
Observing
ḓifhindulela
farani
duc@@
UD@@
dignifies
ḓibula
successive
Erasmus
convinces
mufuniwa
funzedza
wo@@
comforters
ḓinetisa
respective
downfall
furious
invariably
shengedz@@
vutshelaho
tshumisano
Jassa
Moabites
versed
kanganyiswa
confusing
Mab@@
testified
Suiter
impostors
landscape
khavhu
revive
linen
blasphemy
levels
betra@@
doers
knowledgeable
dzimbilaelo
ave
dzikereke
collectors
Zwikolo
explore
Mabono
relentless
ṱungufhalela
forefather
Kunaho
Atlantic
gon@@
lectures
Perfect
Sad
ini@@
ṱalukanyi
Joan
Gomer
warmed
marched
Raising
Tamba
Ḓivhani
ination
anded
Sintixe
Silistra
tshinyali
ramabindu
mihuyu
minwe
ys@@
zwiṱ@@
maambarele
originated
Zwilinganyo
Alone
Babel
unions
deviate
Dini
battled
Mbofho
Yairo
Erika
zwikwara
lessen
goni
Swole
minis@@
Queensland
Ṱhamu
celebrating
Raúl
jump
flooded
onal
Choice
Ky@@
vhuima@@
madzinguni
one@@
rabeli
Marilou
dzimbava
ngoyu
murmured
Organized
unwanted
Thu@@
trace
energi@@
Ahasia
humbling
Dem@@
vhenge
ungodliness
raisi
matchless
swiki
adzi
DOES
wouldn’t
concepts
thithiswi
Depending
mah@@
Libanoni
Adamic
WITH
Peregamo
nakisa
beard
litshedza
Const@@
mol@@
valiwa
vhonetshelwa
sudzulus@@
kwa@@
shuluwa
iseni
GAL
SS
vhuṱahe
fhirisaho
Ḽavhuraru
Ramah
201
Development
Examining
Anderson
ty@@
kokomedze
takulelwa
Ndele
yá
1915
mono@@
Changed
elelwe
cash
Twenty
achievement
1881
Lisbon
Undeserved
Zwiitisi
moth
mele
sand@@
Berea
maisela
clari@@
vel
Niger
sheleni
makhu̗lu
ndi̗
Takalelani
fhaṱutshedzwaho
Sense
dziphukha
mitshevho
Sir
baptismal
Suzie
hol@@
rested
Jacques
sentiment
pfumisaho
mvuvhelo
disunity
reassigned
Serubabele
khuli
Papua
cleaned
luvhelela
teams
aṱama
ṅwalwe
miṱwari
st
Vhofhololwa
Iini
Davidic
gun
daughter’s
Daniela
maṱhuphoni
fhaṱwaho
violation
householder’s
aravhi
countryside
vhunna
Ash@@
phaḓalalaho
HEBERU
Egiloni
thin@@
tsit@@
phoned
Tsumbi
tsirel@@
Warning
nṱutshela
SAMUSI
atheists
Simple
Cap@@
Mari
khilogireme
Mulomo
fleeting
sambelo
Thi@@
bveledzaho
luxuries
pwashetshelwa
vhingwe
ḓadziswa
AP
fel@@
Oinike
declined
ambarani
map@@
shenganya
Filadelefia
treasury
hardened
dudela
Nichols
Ikonio
Gr@@
tendelanaho
nthivhela
vhukunzi
Vhuk@@
Tshe
Lavhelesa
zwalwa
vhetshelwaho
highway
Epafrodito
unknowingly
lemedza
Donald
educate
shudufhadza
215
nkhulisa
acquaintances
Moral
blaming
usani
Feel
YAKOBO
weakening
ngu
journeys
ngavhuya
tshikhetho
kuambarele
Midzimu
instruments
Amsterdam
katele
Kadese
engedze
ḓowedza
iness
restaurant
Joachim
tiredness
irs
arthritis
edzelwa
Pat
dzimbiti
Circuit
rolled
Khuthadza
susp@@
vhuongelo
END
mel@@
resorted
lat@@
YOH
vunḓea
Nicaea
Rob@@
Ṱuṱuwedza
khu
Mushumoni
Vhaṱalutshedzeli
lwi
ken
vhulimi
sway
swarm
Mashango
ndumi
ḽisili
weekend
hy
ḓivhone
Mavu
nguwane
Kathy
Gavin
Reasoning
human@@
Elena
nzwalelo
nyadzea
oriented
Thebes
ory
Giligala
tendelwi
accounting
ams
Ṱalukanya
tshenzhele
sietha
fotostock
ṱharamudza
dzudz@@
mutshutshisi
Army
ṱungufhale
Ano
Abramu
vhaendelamashango
zwiṱaha
collapse
alleged
Mon@@
Af@@
vhurerelini
mount
NO@@
ale@@
Appreciating
Eduard
sensible
Hul@@
facial
directive
spy
copyists
Kadesh
0,000
EM@@
doubted
proceeding
Beer
egg
satisfies
enthronement
JAMES
Harris
Sand@@
entreaty
Syntyche
Answered
fes@@
mali@@
o’s
2017
captain
beds
Basically
sli@@
Various
operative
patterns
Steps
Heeding
ong
spouses
Kelvin
enticements
impulse
00,000
pot@@
Sarai
Cameroon
rud@@
Chicago
Bohemia
1913
Guam
accessible
pestilences
VE@@
conception
Mur@@
Fulfiller
Gath
Rudolf
sidetracked
fosters
track
givers
Und@@
bing
counter
dissolved
Toru
chs
Lab@@
profession
Jodi
Heidi
shoes
Mauritius
EPH
ements
specul@@
Tak@@
Gal@@
WORK
Concern
fool
flawed
Gilgal
kal@@
80@@
nourishing
Sonia
oaths
anne
opera
stunning
USSR
favoritism
bush
fiction
Emily
peaks
outback
len
Singleness
preventing
Le
Hun@@
Faithfulness
Kathleen
SU@@
medium
stripped
Vietnam
Rio
Feeling
dar@@
shipwreck
BR@@
CHANGED
Epaphroditus
bouts
adversary
Keon
Croesus
hurried
corners
fade
colossal
taunts
Born
Hi@@
nn@@
stocks
Irène
administering
stalks
EL
asi
blindness
signing
galaxies
gentleness
reigning
tossed
softened
Choong
nourished
Ravensbrück
confinement
woven
Alexandra
Emil
Kent
stark
Persians
crowded
bothered
suppress
insult
ilo
BENEFITED
low@@
Number
compete
bits
alizing
Clothe
overflow
Wednesday
labeled
11@@
Adul@@
legends
annually
Exemplar
Cas@@
token
confrontation
drastic
mood
Mivhi
fitted
depicts
Gamaliele
ḓiṋekedzelaho
harmoniously
Alejandro
Vhameda
Monday
zwaloni
fhirwa
Fur@@
Developing
AD@@
commemorated
uri@@
balanganaho
connections
pfeli
nicotine
inn@@
meager
fhindulela
Uzzah
reacting
alia
ANGA
uné
observations
ḓowele
genealogy
compels
Thendo
Ima
ḽivemu
Bring
mahumini
boarded
rine
Muvhulungi
kaho
enti@@
wer
Thorough
profitable
Vhurabelini
prohibited
Fer@@
andu@@
exclaim
scrutiny
itela’ni
hat@@
releasing
imparted
ṱanganedzaho
uncertainties
cycles
cakes
ignores
Believers
ṱhonifhea
excess
stand@@
genetic
ḓu@@
pri@@
ter’s
impulses
inescapable
pts
Vhafhio
app
Anny
gospel
vhuholefhali
Deliver
mivhunduni
thithise
los
tshifakhole
mutoli
ṅwalelana
Absalom’s
ections
Thendelano
Former
muthanyi
tsinga
fra@@
sul@@
phathini
tread
form@@
supervisor
punctual
zwaliwa
admonishing
ume
Ibvani
builder
crafts@@
emy
dzedza
Jubilee
adorned
Aṋwa
dre@@
extensively
Ranga
Fanelaho
huweleli
fushi
Nḓevhe
Vhaaluwa
stretching
spect@@
manual
ḽiṋe
13,@@
execu@@
muwa
kisa
churchgoers
Hold
tshati
pun@@
Quit
Verses
ḽiṱo
repents
ungeledza
Attention
dzikhathutshelo
console
sowed
ennde
breathe
dzindimi
Dzinani
ots
ake
speeches
Zwifhiwa
Zwivhumbwa
nḓevheni
Ahithophel
dzana
mutshena
allegiance
dishonored
ṱanganedzee
vhumbiwaho
Sar@@
HANI
lufhanga
manweledzo
Aware
verdict
gri@@
ndaṱa
khethulula
valwa
divination
Fhisea
huṱuku
tshivhana
fhani
wiped
optimistic
1500
Gri@@
SPIRIT
VHUYELWA
partially
Away
vhuḓisa
ṋe
adherents
EFESA
sterling
pfele
kanganyisea
nakiselwaho
energies
ulaho
vhashayi
achieving
preference
WORD
Mukomana
credited
vuledze
ancestress
READ
befell
transfer
VHU
ṱhogomelwe
Pfes@@
council
San@@
Wau
desk
monument
shanduli
reli@@
2370
Adonia
contradict
provoke
OUS
pile
explicit
Thessalonian
moisture
vhuendi
ntshidza
naive
craving
terrorist
Vatican
scared
ulele
Ḓoweleaho
Festus
Zeal
nec@@
frail
lab@@
Dinah
alities
Lwonolo
aus
admonish
ie
vhakhathutsheli
amen
framework
shorter
pocket
koko@@
relax
hw@@
labi
dzudzany@@
variation
HE
Mulilo
godless
obscene
Gud@@
aṋ@@
por·neiʹa
compensate
zwid@@
swearing
memorize
supervision
Bvelelaho
tsireledzaho
Ṱuṱuwedzwa
kuvhangany@@
gardener
Ahasuerus
Vengo
colors
vusaho
mmbidza
distinctive
Havho
zwidimela
tshitediamu
implications
Sur@@
Gwen
sperm
glass
Nnzhi
amazement
divorces
Vhon@@
Herald
LOVE
del
fittingly
classi@@
Waldo
dzitshavhi
Wela
defiling
gudiswe
throngs
dining
rap@@
tshatsho
Anglican
nevertheless
survivor
politicians
unanswered
aeons
alists
Anga
mpfu
omiswaho
erving
huhulu
Nḓilani
conducive
molds
Capernaum
Ḓivhetsheleni
Start
magota
Going
Vhuṋa
Muhashoni
contamination
danga
Past
ingathering
tshikwama
vhoinwi
advisers
khethekanywa
entails
tactic
unfold
ancing
lugelaho
tshiambela
camping
accommodate
phaḓalale
gudani
lookout
5000
Madzina
evho
disregarding
mos@@
Miriama
a.m
Vhumuya
Khavho
bling
bebe
classmate
foreknowledge
halt
Younger
unhappiness
mus
fhihamelwa
yavhuḓisa
stationed
EDZ@@
Buthanoni
levhela
mbulungoni
cat@@
Sundays
milalavhungu
behaved
ḓo@@
eless
Pergamum
myth
Vhi@@
pes
pwanyeledzwaho
poses
airplane
tandula
IMITATE
ased
abhor@@
Codex
rafter
format
Archaeology
boost
Fittingly
Methuselah
Comm@@
Peer
sailing
Milky
Dra@@
persisted
resentful
houʹtos
tshikafha@@
meditates
ads
fukedzwa
drowsiness
reigned
mbe
Mumoaba
penga
faculties
idolaters
thy
succumbing
lozwiwe
arts
tu
registration
Reference
eyesight
vuswe
Helps
admiration
ide
kundwi
ṱuṱuwedzwi
journeying
agent
hungering
reserve
pasture
mbulungeloni
ture
Examine
zwiho
Wall
Vol@@
cru@@
shattered
mase@@
zz@@
magoswi
tib@@
KO@@
Gaining
ATE
White
Aff@@
ected
Cast@@
dzhiiwe
portra@@
wool
burdened
significantly
donate
fication
exchanged
Caesarea
Scenario
insisting
heaped
drifting
invitations
sheledza
Fo@@
Oli@@
preceded
itei
rash
ker@@
visionary
mutshinyi
NY@@
exerting
emptiness
Tshilaleloni
motorcycle
apostle’s
by@@
Gibeon
foo@@
Possibly
objected
stunned
pfani
mundane
THO@@
thanking
cords
Chart
Moabitess
Lumanchu
Beneficial
proposed
controversy
ces
fidelity
Cappadocia
gener@@
483
boss
Era
xelana
disregarded
breeze
disc@@
Nyofho
tor
persistently
Thanyelani
dzime
tshinyadzwaho
zwitzhili
onda
Grant
stray
Troas
nw@@
Ṅwambo
Theodore
anticipation
strenuous
Ahead
vhapomoki
blur@@
ndaka
brave
tshen@@
mutswuku
embraces
unsteady
editions
Kulea
oceans
stem
tourists
repaired
Vhushandukwa
ḓisendedza
mand@@
Oriental
lene
eful
management
unending
dal@@
vhila
dropping
Zerubbabel
dzou
unlimited
donation
ḓiṱama
Cathy
gap
Ken@@
Had@@
imparting
sung
Bra@@
Josiah’s
esi@@
shment
3,500
ensued
aimed
vhatsho
needlessly
Bruce
uṋe
poised
Muhura
Ki@@
mourned
tsha@@
Bulani
aki
vhor@@
Wonderful
ole
ntsh@@
Dzino
vhoxwa
Rab@@
mocked
parting
demonstrations
Too
ender
Bul@@
excluded
furnished
Rem@@
mago@@
Thirty
nk@@
fulfills
forged
karuwa
onesana
squ@@
Canadian
vhusi
FAR@@
conf@@
’ni
una
vhisa
pofula
woes
or’s
Ṱalu@@
calmed
NDZUMBULULO
slanderer
injuries
Brazilian
Methusala
dish
bars
misplaced
ulous
harvested
singers
Choosing
SHANGONI
leadings
horror
Imitating
Dor@@
clarity
Sons
cus
Sonja
itted
536
nange
pal@@
vheaho
dzimiwa
MBO
elelani
unsearchable
environmental
clarify
Evolution
Zwivhidzoni
Friday
Determined
vhang@@
Ph@@
ry@@
mutaladzi
varying
ḓifunga
printery
soli@@
Ahaziah
Harp
ua
linge
Vhamidiani
sinfulness
concrete
Olson
irritated
Manchu
theologians
foregleam
OD
ḓikumedze
Darius
visa
cooperative
sweeping
abi
Authority
sunlight
lond@@
defective
administered
supplicate
giants
astonishing
Beli@@
erect
humbulisise
Zwivhumbiwa
Lake
Mipombo
Muselwa
goodwill
lifeless
Different
appearing
Dec
thwarted
trialsome
plowshares
skeptical
operated
evaluation
Tasmania
ethics
stature
Marelius
vhel@@
Zwiga
Stock
Elsa
fhadza
outlines
Dorothy
luruli
deemed
interpreter
tional
Ṱalutshedzela
Kwa@@
foe
kho
chased
ham@@
ous@@
kuvhatedzana
shook
fhel@@
Ron
lac@@
Vheani
ṱalutshedzele
vhetshele
rocky
hurting
Ṱal@@
Victorine
Prepared
jewelry
mpfisa
phul@@
aspirations
baptize
Ifhio
kheth@@
eding
tually
exemption
pris@@
exposure
ivory
unhypocritical
Str@@
consum@@
grandeur
thavhandubi
starry
ḓivhiwaho
taunt
pandele
Manila
Pfamoni
lengthy
Ah@@
bags
deteriorated
BV@@
ex
nthume
daimane
Barasilai
instructive
charitable
Colette
reigns
repudiate
Broadcasting
Mafunda
Muedzi
stairs
gging
thumbani
Aug
Muvulanḓila
timatimisaho
varies
fund
BU@@
vindicate
lapfaho
apprehension
summary
Gibeoni
Ḽashu
cautioned
phones
dirt
bother
Gnosticism
functioning
runner
livhisi
phumudzo
lending
nngwe
removes
lufhanza
incomplete
ṱhumetshedzo
Marvin
bigiri
multiplied
dziphindulo
dzimbavhalelo
eswa
certificate
ṱuṱuwedzwaho
zwiendedzi
shepherd’s
Communism
&
cos@@
occurring
Panos
Ker@@
vhuisa
Quest
clock
Designate
surrender
plates
khunḓani
Dzin@@
Vhatukana
reportedly
ḓikhetha
neat
reluctance
assertion
gloomy
Occasionally
reprehensible
phuthumennde
observances
Inheritance
ṱolisisani
ṱavhanyedzela
mavhala
455
khamphasi
There’s
ensnare
ups
Ṅ@@
Battle
incidental
slip
kherukanya
tamisa
REVELATION
ct
Inv@@
sibadela
munyanyani
unt
Between
Rewarder
Bangladesh
Ras
thimu
ville
mas
corresponds
origin@@
erred
mafhondo
Guvhanganoni
nyala
Edzou
Ahasiverosi
voyage
Circle
glutton
dzhielwi
Luca
tshivhingwi
dwells
hoya
Rapa
springs
Ilse
ok@@
ripe
twin
Apply
zwim@@
doer
davhidzane
Leave
loads
Marion
Shamra
bearers
gudiselwa
Zwiṱangadzimeni
meaningless
masses
induced
thwart
reviewed
abusing
Sime
ṱedza
Ishmael
Yaho
iledzani
AMBA
dennde
al’s
Adversary
Associ@@
Sisters
Vhukhethwa
despondent
Vardja
Trans@@
Beryl
VHUL@@
munwe
doba
plural
Long@@
Wojciech
prec@@
tshidzi
Owner
inous
hamba
Flavia
harmed
kovhelwa
kovhelana
gatho
Ḓilindeni
Raquel
VI
ithi
Cleveland
vent@@
Strength
isane
speedily
dziwa
everybody
fran@@
Miṅwedzini
matungo
Probably
Sen@@
inged
ector
Apr
Road
Lana
swore
khaḓa
convicted
ṅweṅwela
mush@@
fulobo
EPHESIANS
Vhuṅwaleli
Panama
ent’s
Renato
masana
civilization
Davies
confessing
mukanoni
rivalry
mubishopo
tshimbidzela
Reasonable
adulterous
wheel
Gray
Declaration
Effective
hali@@
Turku
landulwa
Jairus
edzele
mphu@@
Ferguson
insi@@
shata
ḓipfi
Elsie
offends
5th
Lakselv
dow@@
malume
Mutsinda
eman@@
bvule
forceful
tshilendele
qualifies
Regrettably
vhigwa
vhuṱ@@
brag
Harald
kokodzelwa
vhudzisani
ḓa@@
notorious
watering
hei
blade
ables
fatigue
Ronald
’ll
tables
debauchery
muimbi
Develop
proudly
undu
milora
stabbed
teraphim
Mutevhe
domination
Noemi
ḓiṅwalisa
Francis
Janeiro
Clara
invasion
mbavhalelo
1835
Pfumelelwa
Davhidzana
hangwei
repetition
nurturing
Peninsula
Fruit
khathutshelane
Margarita
edzea
device
anyi
extra@@
isel@@
Maḽeḓeretsendama
ton@@
vhei
Leticia
Gurannḓa
Adri@@
hormone
maṱhakheni
Eliaba
pa·rou·siʹa
sanc@@
bedroom
Nazaretha
ilation
knit
Ngeno
Jer@@
eo
evic@@
Rebekah’s
gically
Causes
Vhushai
vhorapolitiki
sweep
muronzhe
Julia
tata
tae
wao
khakhulule
concentrated
ose
audiences
vhana’nga
madzanganda
ito
WHILE
dramas
Miṋeelo
www.watchtower.org
Tiroasi
secularly
put@@
depraved
tors
disdain
Tshakha
girded
kwon
Empha@@
dolara
scarce
you’ve
Conqu@@
stain
mugidimi
tshis@@
mifhululu
repurchase
vhulali
dy@@
vuledzaho
bath@@
lapfu
litshani
Nuremberg
ḓit@@
attempting
undisturbed
porofitiwa
Potiphar
distort
tful
gies
superstitious
Olga
partakers
mechanical
Sebena
ens@@
Endure
thrill
passersby
15,000
People’s
arrogance
ALI@@
mutikedzi
starvation
vhaḓivhazwakale
Confidence
ames
Publishers
seminar
yan
Unfortunately
Thara
Ṋama
Blood
wr@@
tsemano
show@@
ot@@
Kapernaume
tendelwaho
Thamara
Aili
Feb
foreordained
Salami
eva
ddle
manhood
Sebastian
overindulgence
Kumedzela
eliminating
ine’s
policeman
Disciples
utensils
Romania
knowingly
Contrary
misipha
preserves
dinner
imaginable
allu@@
Graz
unzi
farming
mini@@
Mbonalo
pha
Fhaṱutshedzwa
Mother’s
textbook
dinaho
Sukhi
Vine
Vhufheloni
Nyimbo
sums
entangles
dig@@
severity
Vhaṱhannga
6th
Trusting
exemplified
hopelessly
unwary
Coast
Doubtless
pulatifomo
coffee
Ribeiro
Circumstances
milambwana
papers
Treasure
sackcloth
ṱudza
Gregorio
kararu
zwiṱitshi
Ḓe
adequately
rumelana
Nḓarieni
waver
tumula
lightning
gy
vhuṅanga
Williams
Tshinwelo
ḓiḓivha
griev@@
Muegipita
dusty
piring@@
fac@@
harming
reser@@
contention
mpfa
Called
baka
tholiwa
Laurie
vhuhashi
oner
Cape
ṱhogom@@
pers
mbela
omo
vhudziki
Vhatshaina
umbi
Local
lora
usaho
Tacitus
fle@@
dor@@
strove
hovhu
Helen
forbids
cursing
puzzling
Midianites
Goliath’s
Individual
Economic
Himself
Terah
sy
dom@@
Joyful
underground
nambat@@
atsho
arbitrary
dzhasi
fer
swigiri
Vhadededzi
formal@@
NGOHO
Wiesława
plains
overtime
Complutensian
8,000
thaipha
Carefully
Biafra
Sept
unusually
Drink
sheet
Vhapikisi
tshiṱaraṱa
akes
Andrzej
Social
straits
towers
ḓó
scores
pik@@
Irish
Nyito
indecisive
unforgiving
pretty
zwifhoni
deb@@
tshik@@
Enduring
nkhangwela
trigger
orchestra
kombetshedze
2016
Inher@@
kand@@
Nebraska
vhurendi
zwikhukhuliso
zwikhathi
Coll@@
fhaṱisa
perfected
Tigris
gradual
Bebani
Mufunwa
famines
Murengululi
vhukoma
ü@@
REG@@
aps
incited
lighten
cop@@
Khakheaho
Ṋaledzi
617
starving
cupbearer
astonished
ḓilugiselele
approximately
Lima
stein
Ponyoka
kissed
scales
servitude
Valuable
Grief
Frankly
sts
crow@@
shedding
lingering
entrust
sup@@
Eli@@
conceived
forests
alphabet
immigrant
census
miloro
overseas
archaeologists
cription
comforter
balanganya
mapfumo
Wait
bolster
bait
ordained
clutches
Muisimane
episode
Mildred
khoḓisa
olela
sounding
ret@@
Tsireledzo
Supot
oversees
grammar
Dun@@
Haykanush
runners
Rabshakeh
Storrs
Angola
aming
ather
cigarettes
correspond
Vhonnyi
Hangwela
stations
pfanelo
nel
ntsia
bountifully
ṱumetshedzwaho
mafasiṱere
Glorify
radical
Ebede
succeeds
lwale
blasphemed
matches
booth
holodei
khathutshelana
vhumbaho
Luswayo
cousins
pembela
ḓifusha
rocking
obscure
Lasting
band@@
exterminate
fortress
vhangwaniwapo
owns
assaulted
tshimbilaho
Nebrija
depict
ṋeele
ache
magical
ption
Christ@@
bearer
vhambedze
mir@@
furnishes
ḽiswole
Orpah
Onesimus
RO
Fear@@
fighters
myths
bisini
uda
50@@
ano@@
mmbudze
Providing
photograph
postponed
unprepared
khudzaipfi
mavhengele
Advice
Tor@@
institution
Aileen
Demas
drives
ninth
agricultural
mupfu@@
gluttony
incompatible
unquestionably
ner’s
Tshidza
Soledad
foes
forsaken
anced
ç@@
von
experim@@
vhakerube
skirt
ounded
concubines
stic@@
emphasizing
ṱhupha
implying
bath
Cr@@
teenth
treacherously
Min@@
Identify
citizenship
prejudices
ente
dden
dukes
lecture
astrology
teachable
Mystery
Barzillai
dzhango
fhenḓa
ḓal@@
Salamis
ethical
Petersburg
Impressed
troubling
ḓihuvhadza
Onesimo
522
vac@@
MUSHUMO
widower
sudzuluswa
characterizes
coworkers
drunkard
SHU
seekers
Turin
WO
Sei@@
irc@@
dziholodei
ṱahulelwa
offender
chamber
Cesar
slightly
constancy
Tim@@
stern
luck
Tou@@
persevering
Malta
firmness
Ah
robbing
Jabin
charm
Explaining
Testimonium
ental
ol
Bir@@
Guyana
Foremost
encyclopedia
empowering
tain
ENCE
ext@@
dialect
WAR@@
remarry
alertness
interfaith
asset
infinite
sher
tangible
passive
tact
tolerant
worshiped
ffs
ud
Want
Viewpoint
leaning
columns
menting
perv@@
caregivers
cigarette
coincidence
Cont@@
Shebna
continuous
optional
murders
anes@@
checked
analy@@
seashore
leather
slightest
displaced
riving
fal@@
fascinated
careers
impartially
my@@
Hate
AGE
Keys
Succ@@
lined
hygiene
uro@@
Jehu’s
stamp
idi@@
scepter
Interpreter’s
Reward
Nebuchadnezzar’s
lured
meekest
scribe
Mass
Steadfast
hired
savior
hesitant
Lau@@
timetable
roof@@
Mrs
memorized
selfless
DIS@@
girlfriend
massacre
shifted
mbu@@
Sor@@
woke
debased
night@@
walled
contentious
findings
relation
distrust
Dou@@
137
recommendations
Deli@@
ado@@
pale
personnel
THER
threshing
Sound
Cla@@
assaults
mechan@@
drunken
marijuana
learners
hosted
faded
noon
Lisbeth
Refre@@
uplifting
underscore
attained
perpe@@
plunge
agreements
bak@@
muscles
ANT
kernels
abstract
enza
foolishly
veiled
manuscript
Mol@@
Matter
Columbia
behaving
pets
ster@@
raid
dishonesty
PR@@
Missionaries
occupancy
stal@@
embryo
grade
Pri@@
unified
175
Finished
Harmony
waging
blemish
politically
weedlike
locust
run@@
nearness
Rat@@
consoling
Gaza
THESS
Natalie
panel
ony@@
Barber
nationalities
reap@@
freedoms
cation
Bud
inian
prevails
TE
cand@@
we’re
reliability
disloyalty
glow
foreheads
Wel@@
recalling
rying
Shi@@
correspondence
assessment
kle
sib@@
OTHER
terribly
invented
Mum
Nimrod
adapted
oes
soothe
Thursday
Bern
knock
KE@@
bruising
basket
commending
jumped
derision
Tamar
Cana
who@@
conscientiously
funerals
Sum@@
atrocities
bestow
attered
scenarios
wells
techniques
ecclesiastical
Sanc@@
ROMANS
inmates
exhausting
Receive
Said
dictates
annoyed
echoed
ree
boun@@
trick
Acting
tica
law@@
Ot@@
copied
Chi@@
Fully
Displaying
coal
windows
aked
Balanced
mockery
flirt
interpreting
nurtured
ingredient
fishermen
pleading
accompanies
physi@@
omy
perfumed
Innocent
sap
erful
2nd
galaxy
magnitude
mic
philosophers
Micronesia
mists
guns
advocate
there@@
colorful
HEBREWS
therein
rushing
1st
risen
dev@@
Elaine
Bread
Books
scre@@
dug
smoked
Janet
sus
stole
gazed
battling
Ida
hurl
shadows
basics
ude
incensed
Magdalene
glean
nun
ange
districts
catastrophe
Observe
organiz@@
consciousness
water@@
REV
essed
forethought
Darwin
instituting
compulsion
Hen@@
faint
vari@@
consent
tively
riders
tar
customarily
sequ@@
exhaustion
cked
enlightened
Planning
ica
div@@
redeemed
grasped
Eli’s
stubbornly
boats
Rest
newlyweds
sini
Failure
component
unrepentantly
sail
fired
biological
elite
break@@
pardoned
inj@@
cent
superficial
Reveals
lambs
unites
melted
sy@@
infinitely
debtors
Hus@@
champion
plundered
sticks
chasteness
Macmillan
alled
Nadia
mast@@
Lim@@
yst@@
investment
sank
forbade
pronoun
performs
Klein
monetary
vigilance
swell
Support
Reminders
Ga@@
loins
EST
Praying
pondered
Edenic
Wine
Sex
designation
principally
partook
oul@@
lend
Vo@@
remark
Exp@@
crowned
array
pop@@
depriving
fires
purple
secondhand
complacent
unwavering
hun@@
shat@@
illnesses
fire@@
Rachel’s
Refugees
resorting
initiate
en’s
tran@@
gamb@@
Angelo
Diojany
sma@@
Rewards
sparrow
portable
contemporary
chase
Tanzania
Anti@@
Kant
eled
inging
attire
Saint
indulging
mannered
prevalence
tank
leg
periodically
Worse
turing
REC@@
fhio
Used
fhurwe
vhaimeli
rotholelaho
owning
Pfunzothendwa
fhufhuma
erous
luṋa
Tend@@
aluseni
rendiwa
pembelele
sedzulusa
malembe
ḓitshilela
ḓihudze
lin
iḽo
Mbiti
ḓiimela
Ṱahulela
ulule
exhibition
KHOU
pfumedzane
Indonesia
Zwinzhi
pfulu@@
tshipilakhana
cius
vhaisi
Rama
mutuli
Giant
vhofhekanya
vhegeni
ṱanganedzwi
phe@@
ṱusa
Arctic
bundu
Mir@@
tsiwana
sele
hangwelaho
luḓi
tsho@@
mber
Hmm
farakanee
tamela
Birgit
thula
swikeleli
nwelele
locality
Pf@@
SONGO
thuthuba
kú
Iṱo
fukedzwaho
tshithithisi
MIṄWAHA
haṱulwe
ṱanganedzwaho
weddings
dzewa
automobile
GAL@@
amul@@
tasted
Boldness
Midzinginyo
mutshatshame
iselwaho
vhonwi
mixing
zwirathisi
Vhus@@
ṱambe
kudzwa
mufhuri
Marek
nyadz@@
pfuluwe
Musidzana
By@@
ambiwe
defects
kegula
ṱalifhisa
tele@@
ṱalutshedzi
zwigoḓelo
Phuli
4th
Wickedness
businessman
ḒI
awakened
Sheila
Fhano
INI
hwal@@
ḓibvisa
kudza
lovhi
luṱanu
langwaho
phaiphi
corresponded
heightened
nangela
mukhwa
vhuloi
Congo
515
Tshipfumelelo
kwamane
ṱanzi@@
ṋe@@
laṱele
zwisimani
kuswa
Alexand@@
ṋyelelwa
alerts
Mulwa
devoid
khoḓelwa
vhulahi
ḼI
vhadzi
nwa’ni
ḓifhelwe
vhaḓiwaho
ambar@@
edged
Aba
vhudziwa
Expressions
mbudzisa
kundi
mug@@
threatens
ṋengisaho
mupfufhi
Loisa
edziwa
ḽa’ni
tam@@
livhisani
Mukovhe
ṱang@@
bakete
DAVIDA
refu@@
liken
vhali@@
Conversation
makeup
vhasa
munḓirivhe
nngafhani
biting
sinyutshele
vhuphara
Lea
Fulu@@
Claudia
ṱaluse
Tokmok
engedz@@
pfanelelo
murengisi
VHON@@
Vhaberea
tshuṅwahaya
offici@@
Vhudza
nnḓisela
farewell
Humbela
supremacy
goswi
naming
men’s
Leanne
thoughtlessly
Gudiswa
Festo
funz@@
pack
Either
aching
vhudzulwa
ester
Flor@@
delicate
laiburari
inanimate
PAULO
ḓisele
Az@@
BVA
tshipfumelo
tshigayo
vhonetshelaho
vhofhe
shushaho
bammbela
Sinyuwani
ṱhingothendeleki
Sela
construct
ṄWE
dzit@@
You’re
Sendela
tovholwe
ḓikunakisa
swikelelei
ḓifanyisa
Dzibugu
transfusion
sicknesses
celibacy
mafhandeni
gudaho
ponyokaho
uvhu
vhuṱudzi
lemelwa
Tsimuni
vhudzani
addicted
homolowa
adzaho
Ṱalula
mails
Thuswa
Vhó
chat
bands
Vusulusa
Zwilavhelelwa
wanaho
matshena
Lugarit
disgrace
Revised
ṱanḓavhudze
khavhiswaho
lar
treaty
lineage
ntshuwisa
Pl@@
Pat@@
vhalwi
mupikisi
IND@@
gic
sanda
ELELA
foun@@
omo@@
190
bind@@
Emmanuel
edziswa
ḓifhaṱela
attuned
Nanga
kw@@
hash@@
thuntshiwa
tsumbadwadze
inborn
kheluwa
sinaho
GENESI
thivhelo
alafhei
ranging
Bithinia
mbe@@
raging
Dzindimana
Lud@@
dud@@
ṋeng@@
Zwipiḓa
tshimbidz@@
157
marena
imelwaho
rambe
Ṱhóho
comparisons
ṱhonifhiwe
nthwela
shengedzelwa
aṱamaho
Lungafhani
sinagogoni
ṱonḓola
exaltation
signified
vhudzana
Vhumuthu
trustworthiness
ḓiṋekedzele
tshiṱ@@
volenga
thani
vhoṋemiḓi
MUTHU
Haffner
tshimbilele
zh@@
Kesarea
valid@@
Ḓimvumvusa
ṱhoni@@
Jairo’s
ondi
fanatic
alb@@
ALI
Affect
ethe
tled
aṋwi
zwingafhani
joints
bicycles
indignant
ndumeliso
luṱanya
expounded
duge
Elikana
dzindaelá
wahavho
THES
Muḓalo
tumor
tei
heyo
Meleke
mpfunze
Mirac@@
thini
anci@@
pwashiwa
Ndi@@
TER
mining
ean
lunonya
Bveledza
dirty
ṱalwaho
ANY@@
abe
Poor
Thovhela
eeds
mmbini
dziṱhamu
passover
ey
kanyo
Lut@@
usela
Makhaulambilu
Mala@@
indulge
ḓifulufheli
ṱulu@@
HIS
Bob
Vhuvhusahoṱhe
ḓidzime
ema
resolving
commonplace
tshiṱarafo
Delila
uding
dziṱhóho
nzhili
usion
vhuyedz@@
miṋango
mafhaṱa
mathihi
kwe
Off
fú@@
sto@@
mpimo
storms
circuits
fho@@
zwiṱo@@
narr@@
ḓiḓivhadza
akhamadzaho
sedzaho
onia
Bran@@
Muk@@
ambwaho
cream
mununu
2,3@@
gestures
khoḓe
pfiwe
dzivha
risky
porofite
valo
ESA
chemotherapy
tshixele
tism
Murathu
funzaho
Ḽavhuṋa
olo@@
vhavhalele
pembeleli
wati
vhigi
piringanya
Ara@@
184
kulugele
Cris@@
Vhufhura
ḓidzumba
hoṋa
tikwaho
Sunema
Bvelele
mufhe
gw@@
zwikunwane
muhwe
EDZISANI
ital
iman@@
guardian
dzikhani
vhubva
Ḓivhadzani
tum@@
estimates
buseni
benevolent
unlettered
Oholiaba
ponya
ravages
Byington
Dora
Abimeleke
Deaf
ares
Nikolai
allay
1911
recite
economy
promotion
vice
overheard
Epafra
insolent
Hermine
Reg@@
parted
ound@@
Mudzheremane
evangel@@
exceed
lings
Tselopahada
kalakata
grap@@
welwe
succeeding
shu
Chorzow
Wan@@
corrective
Trees
surrendered
cornerstone
ango
Maureen
khishini
Events
ambiwi
Darren
Ṱanganela
Illness
mulalavhungu
FEBRUARY
SEPTEMBER
intimidating
Pal@@
fortifies
gratification
mist@@
ech
pfum@@
gudiwa
justly
Ari@@
Syriac
tru@@
mboho
ḽiambele
journals
relaxing
Tobiah
ically
Dani@@
tshikovhelelo
unreceptive
tevhelwe
phir@@
seme
Guar@@
unfailingly
millennium
Nick
Medes
Adolf
ṱama
223
Deleg@@
Vhudavhidzano
ONS
Offer
marching
issa
ḽawo
Sidon
dug@@
swikaho
affluent
vague
license
IKA
plentiful
envelop@@
Desi@@
genealogical
Main
lifeblood
FIN@@
plac@@
pheth@@
dziṱhoni
alleviate
litshiwa
Kazuna
bounds
numb@@
phrases
elisa
day@@
Flock
zwitshakatshaka
WOULD
Günther
nationalistic
ghting
phulekanya
zwiambi
kun@@
enroll
scream
mm@@
AMB@@
Emma
Clean
takal@@
genocide
smiling
Ṱhonifhani
illion
muduba
implicitly
Ramon
Barnes
pofulaho
dishonoring
Bilidada
grapes
ania
acles
contrac@@
domin@@
hesitation
miraḓoni
muṱalukanyi
mushavhapfumo
orable
Py@@
tshikirini
nengiswa
Cur@@
makhadzi
Vhonetshela
struc@@
Heil
pilgrims
Teenagers
sits
quic@@
MIN@@
impalement
tinya
ḓifulufhele
sen
Balykchy
refrained
applicable
abo@@
dzumbe
fúlelwaho
charity
oppress
musiki
screamed
vhomakone
recovering
toleration
lafhei
Experienced
vhulungwe
colony
stro@@
wickedly
nie
anganya
mitaladzi
lows
defensive
Paying
loshe
err
vhudziseni
hadad
Hands
part@@
considerably
departure
Serbia
deported
fixes
DECEMBER
Bl@@
Wallace
senior
provocation
vin
sermons
Adria
bulannga
obsessed
Nicol@@
KHANDISO
Historical
oun@@
kwavho
farekanea
rudzaho
brilliant
tough
chore
ṱuma
dzitshanduko
elaborate
imitates
villagers
vhulungwaho
Liverance
kil@@
tify
Thikhedzo
Takalaho
ṱe
mukungwani
wp17.@@
KI
Benihadada
Cruz
plowing
ecstasy
Tennessee
Tru@@
Russell’s
membership
wards
Mathys
Beni
propag@@
Abiramu
reverent
inherent
Baesa
nḓivhise
tshiofisi
tambela
statue
complaints
emptied
Vhushinto
Eliab
dzikerekeni
khalini
ḓadzaho
LAND
adorn
Warren
sedzea
itu@@
VHALANI
nthamba
transition
reconcile
draft
Muḓadzisi
forsook
fumbaho
tshir@@
advertis@@
aṋwe
Inger
Cho@@
Hwala
Shem
Gerrit
Worthy
Obed
Cite
Julius
Lat@@
sasaladz@@
▸
angel’s
suvha
Location
accuser
mabulasini
Obedient
Dave
ṱumetshedza
unrealities
’ve
pak@@
ḓow@@
Welcome
k’s
Abiram
Speech
resembles
integr@@
COL
bor@@
Takadze
untrue
smo@@
Gandhi
Blaise
Under@@
rhe@@
fhelelwi
vhaofisiri
eep@@
distinctions
orchid
Dathan
320
slave’s
beatings
Sybil
Radama
Talking
converts
Ful@@
improperly
ficiency
pwanyeledzwa
gota
sovereign
shatiwa
Ardis
sof@@
Cancún
vule
Increase
Pan@@
supervis@@
extermination
Ḓana
compromised
Zech
pardoning
erroneous
aster
imise
proportion
Vhagunei
171
road@@
muḓali
sacredness
Acc@@
lovhedze
tz@@
menial
Back@@
Tre@@
takalelwaho
vhoramilayo
gai
investigation
Adams
Protection
DAY
proportions
peril
Democratic
processed
mute
electric
doubting
KHOTSI
vhanameli
mi
temperature
ṱanzielwa
graphic
Ḽiiti
models
nest
vely
JE@@
fashiwa
diver@@
Knut
ghted
Photography
Cope
repu@@
gie
w16.0@@
fhidzi
dub@@
Prisika
Mihali
gethe
casting
tumulwa
sows
Religi@@
Kesia
Godship
Up@@
anzhe
Jesse’s
mouths
Remembered
suited
rati@@
confirmation
imi@@
unsettled
erase
descriptions
maanea
Realistically
advisable
iteni
153
VHANA
barracks
SC@@
bulayo
Fulufhedz@@
gl
GENESIS
dering
Sullivan
Gutenberg
iv@@
hardest
Baltasar
Rocio
audio
umble
lingwe
Winnipeg
yields
violently
reviews
Shu@@
lú
mphe
delaying
justification
Jinja
affectionate
Que@@
mitting
bon
install@@
tsheli
Hugo
stopping
Jensen
survives
Kuna
marty@@
congregational
Jehoi@@
nth@@
Black
Nndwani
Michel
harmonious
mahandanani
Jeho@@
McClintock
Ya@@
extract
ṱungufha@@
baḓ@@
musi@@
NING
Huntingford
ḓin@@
colleague
Rewarding
insecure
dissatisfied
brighter
painting
dzudzwa
tiveness
ARY
sober
ble@@
chronology
supervise
thanyele
kwawe
egotism
shandulwe
Trajan
flourishing
shortsighted
Rev@@
ailment
zer
chronological
independently
flocked
rear
Brown
tshilonda
Mandy
fear@@
year’s
ondo
swayed
defi@@
elane
Earnestly
Blanton
Baasha
skep@@
bus@@
Elias
devi@@
advertised
Siberia
vhangá
Humbly
nguluvhe
Hangwa
sengulusa
THA@@
Map@@
YHWH
Haz@@
Didier
Glenn
toil
ḓivhee
pave
Nḓowelo
Zeitung
chemical
mpandela
fhaho
Discernment
Beroeans
ip@@
Katina
appro@@
muoli
musengisi
beings
amelo
Reports
ush
aladza
Thangana
dzidzivhala
Ṱangana
weightier
hudzaho
ngana
PHOTO
mbidzo
Magi
VHUḒI
Haleluya
dull
presumptuousness
threefold
pulasitiki
UNHCR
smelling
ulo@@
Phillips
Gabrielle
Khwinisa
Unknown
bodily
Lörrach
Lacking
lif@@
vus@@
occupation
ght@@
Ofhani
aela
Ciranko
illustrating
mbanzhe
SW@@
Pavel
Atsuko
gem
Nadine
Researchers
Hearts
Gungwa
tevhelela
ṋengisa
slowed
khethululwa
Kayla
superscription
yn
mafhafhu
deviated
ang
Hau@@
Colporteur
maneuver
dzivhiswa
fhungudz@@
pala
Fushaho
Christi@@
spell
Write
platelet
Gudisela
Howard
pered
parenting
asing
squand@@
suspicious
EK@@
coped
shar@@
Sto@@
asmuch
Sz@@
rescues
umi
vhasili
Worl@@
fertility
shines
Educational
Warrior
Epaphras
Standing
maalafhele
uncommon
Countless
piringulule
ndamulela
inexcusable
TSI@@
Lev@@
reproaching
Arepa
sters
Kule
vhavhengiwa
ṱoka
arranges
Masi@@
town@@
miḽoro
Ceylon
outcries
ju@@
sailors
endeared
Celsus
Overseers
petty
childbearing
alistic
Kyle
step@@
Aegean
Vhuvemu
lords
Lavhel@@
ngoma
immersion
Peaceable
vhekanya
aval@@
ṱumiwaho
affords
chairs
professionals
adzima
tooth
Marina
Sydlik
swifhala
indescribable
apocrypha
stormy
Ella
laziness
stre@@
Kitty
phupha
MUL@@
Iraq
Ricky
rengululwaho
Vhak@@
unkindly
Expressing
karati
astounding
Chaldeans
uproot
rob@@
ONO@@
pretending
Katelani
fications
foresaw
withers
illo
nambatedza
pruning
Adrián
nahó
paramount
Abimelech
martyr
kholwa
speci@@
vhaise
undermined
vhusiwana
dzumbululi
Scott
Vhutshinyi
thanyeleni
buḓa
EVERY
173
TUR@@
What’s
knife
convert
unemployment
spi@@
gram
ḓiṱamaho
det@@
Curtis
Collins
Nim@@
ress
foot@@
ntevhele
metaphor
U̗
Lupolish
manipul@@
selfishly
Pax
nwelela
pursues
exceedingly
Cuba
3rd
iter
manaka
broader
Sem@@
alusana
nic@@
É@@
penetrating
Chemnitz
ared
bridle
autumn
Sambi
Ḽone
astic
accusers
madalo
Meditation
exc@@
Alfred
rant
than@@
Liverpool
ṅwata
heni
Kansas
Solomo
ank@@
smiled
defect
random
species
AM
Sicily
humbudzi
adept
Harvest
bwiwa
perverted
footstool
PA@@
Leipzig
30,000
HAP@@
Madokotela
Satisfying
Major
fhiris@@
livhuhiwa
ḓalesa
interrogated
betsho
substanti@@
Port
Dedic@@
209
entic@@
resourceful
ṱukufhadzwa
umbu
Encyclopaedia
resided
bribe
edi@@
kaludza
repairing
executing
ṱara@@
Humbul@@
parenthood
FANELA
kunakise
ouring
gras@@
tswina
rennde
Edna
kolela
QUESTION
unforgivable
southeast
Pisidia
unsuitable
vhulahelwa
Bil@@
news@@
Bronx
PRA@@
tshiḽiwa
thithiswe
Ham@@
ṱana
nails
reestablish
pfelane
260
BI@@
pronunciation
threshold
avenues
Responsible
subsequently
ella
encampment
ral
dimoni
Shine
Anything
log
authori@@
KH@@
pambusa
Emb@@
rainstorm
vheng@@
Music
Separ@@
Tree
USE
anim@@
deceivers
demeaning
1908
THI@@
bako
swela
ṱh@@
unmistakable
Uruguay
twenty
Essly
flaming
wield
administrator
rerela
aggression
Disciple
sin’s
Muvuledzi
steal@@
flexibility
fearsome
condemning
haṱuli
wild@@
ṱiraka
Mabuthanoni
prosp@@
inters
KINGDOM
thikhithi
bli@@
comparatively
VEN@@
Urijah
unḓi
Ramoni
Lauri
baptisms
je
encing
mufemo
slopes
Pictorial
rub
luvhanḓeni
Lourdes
arri@@
Stasi
sun’s
Incense
shallow
Kurt
tivha
Apun
caves
yielded
vhathelisi
Desire
bathing
unhealthy
dignify
Oholiab
ndá
partnership
thumb@@
Def@@
rates
sharper
wielded
elike
pfano
Vhewaho
ingredients
thengokhulu
backed
profess
MIL@@
ey@@
catching
gaya
HEL@@
preside
frozen
stiff
Laurence
alt
websites
Observatory
Mukanana
simplest
Venezuela
ekany@@
kanye
Goodness
bulasi
Invol@@
Ž@@
Lun@@
mattered
Samoa
kisi
kopa
erer
zhi
Vhufumi
205
ṅwenda
kne@@
ising
Midian
usage
TED
conforming
isms
Exercising
ral@@
Diane
allo@@
tments
harmonizes
umbul@@
stabilizing
DAVID
ṱale
comb@@
Nellie
therorisi
Edgar
black@@
Jay
Difference
REL@@
usu
tshidzidzivhadzi
Erica
bund@@
Ewa
Dathani
completeness
ECHR
supp@@
WBBR
deceiver
inted
overthrow
Mushumeli
1600
ouḽa
storehouse
Brook
Illinois
mmane
Roy
Reng@@
Sam@@
takulanaho
Tshilapfu
Nike
Conduct
NYELETSHEDZO
ḽisala
Ḽifhasini
pfeni
Maurizio
Mufura
Namangolwa
northwest
dzulele
ṱhukhula
Persever@@
Ugaritic
Archaeological
endlessly
Rulership
aph@@
Relationship
ningo
phasela
uncovered
ṱumetshedzwa
Oppose
dic
Angie
Konadzea
nonessential
ḓivhani
tireless
liquor
fhafhaḓi
Elva
EAR
ato
Islam
ṱum@@
cing
Lou@@
Dzudzanyani
multiplying
unbreakable
nkh@@
Hy@@
gunguli
dious
Husai
bindulise
Hind@@
erup@@
eyewitness
essors
elanaho
tswi@@
killer
couriers
slandering
candidate
Wá
Muhanedzi
picking
recreational
spir@@
Anabaptist
TSHIITEA
Tab@@
anat@@
fragile
masterpiece
Astrology
thunder@@
ngafhani
solar
GRE@@
prices
Discus@@
enga@@
Ada
tainted
outbreak
vhudzumbamoni
uneasy
cler@@
tary
hard@@
omed
accidental
swinga
Materialism
Palestina
vhuvhava
zwiṱhavhi
Recognize
Luṱere
Tem@@
sett@@
itude
VHEL@@
molten
Results
mahothi
nḓivha
Lived
loc@@
gathers
Sylviana
à
dzitsiwana
lavhel@@
milindi
Promote
Turner
Ought
lengi
O’Connor
Aluwa
pertinent
Vhamuslim
Voice
Temp@@
forfeit
venture
pfesesaho
leanings
Bulgarian
transc@@
conforms
ṱalulaho
Plain
reprimand
elusive
setbacks
appe@@
forehead
ṱovhowa
Hill
regul@@
ees
traveler
attend@@
Spokesman
Fe@@
funzwe
dayi
requiring
vhulavhelesi
Eutychus
Amor@@
gwadamelwe
forsaking
transported
pet@@
literacy
tuous
Yielding
zwikhala
fast@@
mistress
rul@@
Macedonian
Pfi
ENE@@
Information
Olivia
auer
journeyed
fhahe@@
accursed
Madzangano
vhari
dancing
Henri
dye
extracted
scholarship
han
Protestantism
Itá
investig@@
dzinyimbo
prejudiced
ṱhanziela
ṱamb@@
PH@@
Dzing@@
vhonwe
apology
Chap@@
Pon@@
Delilah
shake
aforetime
madenndeni
konḓisela
Phua
Sifira
Here@@
strate@@
Cherish
ust@@
beam
TIONS
shaking
mom
blowing
ḓipfela
activ@@
mavhanda
immensely
Tong@@
Advancement
dee@@
disgusted
References
kol@@
Pu@@
pt
pleads
authorize
dzudzanyi
dest
wanulusa
Rusk
picks
habitation
trunk
envelope
credentials
Abedenego
dziphambuwo
breath@@
Vhadzhapani
delegation
vhunzhili
Shiphrah
Puah
repentantly
ḓiṱhonifha
Reason
Vhuḓi
Miracles
Ul@@
Decision
Perfecter
Ḓiphineni
duration
suitcase
Dema
IV
extremes
Zwanga
humbles
vhulungelwa
Mesaka
conveying
stock@@
muṱoḓo
Zwishumiswa
vict@@
Est@@
Jon@@
Deception
LE
khuthadzana
Une
grape
professing
Bad@@
widowers
Shadrach
Meshach
Abednego
Sadaraka
doctor’s
ḓiphiṋa
decorated
tumuwi
tter
insightful
nyadzwa
poet
redzemuwa
shields
Charitable
xing
Fin@@
khwairi
vings
Ṱutshela
endedza
Vhuyedzaho
Qualifications
LUG@@
incl@@
Zwioro
Eye
Jun@@
buses
temperatures
ḓivhadzwe
ṱanama
dziḓoroboni
Izwo
holelwa
mbohwana
conspiracy
indispensable
insignificance
wherein
elekitironiki
tshivh@@
Tsireledzwa
rengi
Iledza
ege@@
Fanelea
AṊU
131
Vhaninive
vhalangammbi
Fhelelaho
maintenance
lungiwaho
MIS@@
whatsoever
vhedza
refinement
markets
cures
tshínyalo
woods
Leading
mildly
°
Repent
evolu@@
typically
erode
tambiwa
Colle@@
gifted
Greatness
sailed
vent
denndeni
Tongue
degraded
ngenó
Shechem
maṱaṱa
Daalen
bio@@
dondo
indu@@
ough
prop@@
abor@@
absorbing
mukhwama
Meet
predictions
khuthadz@@
THERE
administrative
suspected
muongi
tupula
Homer
Convinced
superabundantly
cowardice
aveng@@
sly
CHRISTIAN
contacts
liberating
assert
extinguish
wick
misinformation
Ram@@
gged
ḓidzhenisi
Save
Tuva
ulul@@
Demetrio
rabbinic
channels
quench
tos
DZULA
Tshifhaṱuwo
hint
vhuḽeloni
porters
eyed
ṱhang@@
chances
twos
kukumu@@
Fr@@
bruised
instrumental
relentlessly
Nadab
pondering
erly
lighting
agani
overconfident
experiment
worsening
Fushea
tax@@
tual
tives
fush@@
arisen
roadways
baseless
Plains
encompas@@
rainy
visual
Dzinḓilani
thenge
tionary
alluding
Lugiselela
hereditary
safeguarding
fuk@@
Rejoicing
gravely
girl’s
xedzaho
Services
appla@@
khw@@
Kris@@
mutshevho
dzikhandiso
contemplated
LIKE
bu
pwashakanywaho
milit@@
khunguluni
subscrib@@
MARK
fhanduwa
pierces
tandroy
Ṱangan@@
mulanduni
label
onian
Quickly
FHAṰ@@
Cusa
tide
authentic
enlighten
philiphilini
how@@
showers
fisherman
tidy
visi@@
Congreg@@
mend@@
pay@@
muvhusahoṱhe
Ele@@
inestimable
tightly
Politics
oppressors
FI@@
Perrine
ḒA
drops
Eri@@
ḓishandula
Delight
boasted
kwashu
lou@@
tshilele
filed
powered
vehicles
longs
horrific
nndi@@
Cre@@
bomb
atch
Plagues
tton
Pointing
gin
archives
FRE@@
illusion
falsehoods
gardening
omisa
bow@@
bom@@
breakup
kundwaho
Filip
Arimathea
captors
Ish@@
almond
necks
anyone’s
emigr@@
louder
Relief
iro
ra’s
BELI@@
healings
chaff
UNE
impulsive
bvukululwa
aboard
vhuvha
vhidziwa
Catholicism
Myanmar
kling
nwisa
drowsy
KANA
mushasha
inevitably
syn@@
horrible
zwipfi
storage
THI
separates
conquerors
light@@
throat
imbele
minimum
bvungwi
scheming
Phillip
sela
vhatami
rebu@@
with@@
obo
vhengana
silinga
Clo@@
nutrients
tsireledzi
Poly@@
Quoting
anzi@@
Hitler’s
HAR@@
itan
khunzini
tsikeledzi
Kone
glo@@
Earthquakes
genuineness
rabelaho
Ambiwa
posted
tshiḓolo
migr@@
kany@@
muṱali
utions
aci@@
khurum@@
Quar@@
Theology
maginethe
Ḓilug@@
SWA@@
Buddhist
ṋamelaho
Pil@@
Resister
fan
belligerent
Kis@@
spoiled
thers
tail@@
Briefly
Kinshasa
LWAVHO
Will@@
Atl@@
homework
fhuriwa
tshelani
fhaṱutshedzani
country’s
Napoleon
VES
lea@@
Pur@@
Ṱambaho
she@@
risking
partly
Lil@@
composition
replacing
kilabu
Dealing
Zwithithisi
presume
ration@@
rable
rinngi
vhudzulela
adherence
sci@@
Encouraged
cocaine
Vhaarabu
compliance
Jacqueline
mup@@
Cuenca
gir@@
matanda
Pasifiki
Games
accorded
muambo
Wife
iter@@
kholwi
magnetic
hupfufhi
chiefs
tshimbidze
typho@@
clas@@
dzipha@@
tondiwa
Law@@
fortifying
kuthihi
flower
coastal
takalelwi
empa@@
ayoni
nyadze
murmurers
teʹ@@
solitude
corpses
Konḓ@@
ek
tswuka
eunuch
discovering
practicers
PUBLI@@
Khunyeledza
Abund@@
reexamine
missions
birthdays
vhoneni
Caroline
Bank
mation
opponent
brazen
infl@@
resides
unproductive
ales
Hypo@@
avhi
hurry
aloof
Shandu@@
twins
commod@@
sparing
KA
vanganywa
Mari@@
laundry
zwipiringululi
mixture
eve
kambaho
dings
vhugevhenga
ults
Media
Nine
Nthusa
phalala
vhanyana
ute
overturn
Ṱolisisa
expressive
Nahó
Sti@@
tted
uniform
nourish
archer
eledzwaho
vutsheli
dzinḓevhe
cedar
Appe@@
VHI@@
Pas@@
ono@@
kanukisa
tikiwa
AF@@
nambatele
tevhelani
THUSA
artistic
boots
cautions
ami@@
exchanging
sasaladze
ANSW@@
pronouncement
vhoṋemuḓi
miṱaṱisano
postpone
ṱutshelwa
warming
zwitambiswa
damages
Vhavho
miaro
perception
Oitixo
dzinguvho
Mpfunze
delegated
horned
simpler
gar
midday
prostitution
deity
Vir@@
Tshiṱalula
Galilean
dunzi
Empowered
Primarily
fhi@@
Nazarene
elea
culmin@@
vutshelwe
shumá
dozen
accumulate
destitute
rolling
fuletheni
Melkitsedeke
vhufa
Ḓilanga
Camp
tsole
uluwaho
Ḽivhuya
ṱavhela
COM@@
lela
directives
Phaṱutshedzo
Lwendo
zwaho
Ṱanganedzwa
verbally
infallible
command@@
Izwi
irritation
fhulu@@
reḓula
navhiwa
tsik@@
ractions
upward
Hele
satisfactory
excel
mure@@
12th
commu@@
Mibulo
lottery
layer
tswela
morbid
Lines
Mour@@
DAN
muhedeni
vhú
simi
Bit@@
Ó
unqualified
tun@@
khilogiramu
societies
kids
muthelisi
mba@@
NAHO
224
Eu@@
tse@@
illumin@@
spreads
1517
Teachers
nukhelelaho
faraway
unpopular
dim
149
feathers
mly
Vhurathi
kwami@@
yearns
string
Neri
Cambridge
erected
Mutengo
siny@@
tedness
Dzithavha
SE
disabilities
Sue
tshiṱarafu
YA@@
Mulimi
vitality
terminal
holes
vhofhaho
paḓukanaho
Ḓiṋek@@
dzha@@
kovhekanya
spear@@
flattering
Fro@@
sore
dampen
genealogies
raliho
ṅwana’nga
rest@@
magnified
BVAHO
engine
wrec@@
restriction
mira@@
concert
entra@@
tshim@@
Garaṱa
luxurious
shr@@
uleli
tshinya@@
cubit
lowest
inordinate
onyana
Patricia
clues
dzivhuluwe
eledzi
rus@@
vusul@@
calculate
Hushai
Zo@@
descending
careless
wah@@
Unique
tan@@
disgu@@
1200
park
vun@@
dzipulanete
Sun
teacher’s
fooled
uplifted
aks
Occ@@
flawless
buliwaho
Kam@@
mutalo
kins
vhali
Zwickau
crises
Ey@@
kuḓu
wis@@
ḽin@@
simiwaho
ḽitswu
diagnosis
entangled
pulatifomoni
finger
dzudza
Deb@@
Edzisa
Strengthened
Nadaba
Sikeme
calculated
hearer
artist
desperation
Rul@@
eliwa
isea
fasting
aforementioned
phakhu
vhudzisi
Mental
ght
fhungudzee
dziedzi
ṅwalaho
Versus
dwelled
zwidina
Er@@
earthen
Conversely
Feli@@
tips
kanḓwa
fhelwa
tshiṱo@@
NY
unruly
sleeps
edness
ngo@@
See@@
epe
liars
Zi@@
ffed
Vhafilista
reas@@
lupedzi
atched
spo@@
Diehl
cleared
airplanes
Vhatsinda
Semu
en’t
personification
bowl
pfumi
Illustr@@
gins
fif@@
sunrise
lugisel@@
VHAKRISTE
Prophe@@
proof@@
open@@
prideful
tshimbilelana
fici@@
thulwa
itations
vacations
ṱuwiswa
ponyoki
mulovha
Sokou
airport
thr@@
forbid
Lisani
overshadow
vhuhulwanesa
foster
lively
murena
kholwe
ith
huvhadze
Presbyterian
kl@@
zwiṱiriki
milomoni
p.m
cious
vhalo
wins
luṋonya
ṱuṱulwa
mbona
Dal@@
Yah
tress
sigh
lwó
shak@@
anḓ@@
Alicia
Literal
publicity
unfavorable
hospitably
tshikalo
Ḓipfa
DOM
listing
BUGU
antiquity
robe
rumiwaho
MBE
deplorable
rangaho
185,000
Mufilisita
ectively
fishers
FEW
Nor
Riley
counseling
beaming
Sealathiele
obli@@
mihangammbwa
nkuvhatedza
resolution
renounced
Edzanu
mirunzi
dia
festivities
Budapest
Temple
Tar@@
Weeks
Haho
fulufhedz@@
slight
atures
lap
hospitalized
inity
Bab@@
wat@@
plastic
ISWA
Safe
ept
ḓifulufhelesa
ṋeḓorobo
furniture
dzhenise
HAN@@
You@@
eke
pho
battlefield
malombo
quarters
Escape
expended
domain
shomedzela
ard@@
peacemaker
Mvula
murengululi
wich
cow@@
raped
zwilidzo
chicks
THOMA
Ḓalaho
tshilavhi
semani
itiwa
plow
Influence
laṱeleni
buroho
reachable
7000
rokho
ngu@@
Lije
Dzimbilaelo
Hil@@
Maxwell
mmbuyedza
fungelela
shaei
Nahuatl
ngafho
abruptly
195
mavhari
infants
harshness
muambeleli
PRI@@
TIES
IAN
pfeseseaho
tended
Months
172
khakhedzwa
equality
ḓisedza
Gira@@
Don@@
vhakalaha
dejected
Vhudzuloni
khukhulisi
admitting
197
Lavhelela
VHUKUMA
Wiktor
ḽithara
Dachau
govha
musicians
artists
physicians
hari@@
zwis@@
Carin
here@@
qualifying
hee
introduces
mour@@
roth@@
ṊEA
fastened
care@@
radiation
thorny
remarkably
WORLD
drowned
debated
exhorting
Grande
NDEME
Vhil@@
swi@@
d’@@
Continuing
Propaganda
Pusan
iles
external
blend
Agata
solace
Digni@@
Tand@@
Runcorn
mahoro
Gerald
angany@@
Vhané
Associating
dzh@@
expulsion
eḓedza
350
irwa
ṱangany@@
spect
Vhaetiopia
Takuya
ḓivh@@
Ḓidzima
dzudzanyelwa
imperial
bias
há
Dzhavhelo
ḓitikedza
relics
konḓelelaho
Evangelizers
Hag@@
wadza
Sitía
Tshililelwa
BIVHILINI
players
masturbation
Hal@@
temp@@
Vhora@@
imagining
Reliable
NNDWA
flows
Babylonia
conducts
Crystal
bishops
nnyedzisaho
lulama
whereby
Neta
respectively
exalting
nearer
ḓadz@@
zwimimani
Aid
avenue
Cloris
elled
okela
khwin@@
Nsomba
Pfum@@
kwengweledzwa
mbevha
tendeleni
ky
612
Pha@@
illa
Willis
combine
Sul@@
lung
Rules
legions
gwevhelwa
client
bab@@
aun@@
gymna@@
Olives
Austin
Dur@@
saine
governors
tsevhela
gn
ḓivhisa
diwe
Judith
Racquel
hers
Ramo@@
Eliasibi
hwana
scour@@
gor@@
mvu@@
hurling
unifying
lovhedzelwa
kherula
Justin
Malin
besie@@
Adds
ulent
elicit
Tartarus
Laodiceans
lamb@@
wallet
tured
exagger@@
Ḽaṋu
dovhani
inability
Diatessaron
withhold
Tshitediamu
avhelwaho
rist
thivhelwaho
JANUARY
fhisetsheli
migration
attacking
tovhol@@
ben@@
hindrance
khoḓiwe
ign@@
ḓidzhenise
rubisa
heino
fhefhera
Cesare
Id@@
ilioni
incur
grudgingly
mbwa
Importance
hangwelwi
Alberta
Philistia
materialize
weights
ḓivhadzani
discre@@
Gro@@
Estab@@
biomimetics
automatic
trampled
UT
itis
ugly
Continu@@
Field
premature
Rudi
wash@@
Vhaameleke
Peters
kaidze
fulufhel@@
book@@
urs
sendelaho
Advan@@
giramu
vhazuwi
Nora
mpha@@
photos
pestilence
Cannot
vitally
rengulule
Tshiṱangadzime
Lurussia
Bertil
Zwik@@
mikala
fhelisi
muttering
Dawson
OCTOBER
courteous
dzudzanyee
host@@
Asiyo
masi
kwao
palsy
vhatshisadzini
Etta
onde
vhai
Ephra@@
swingiswa
welcomes
akanya
ahani
virtuous
vhoxwaho
sle@@
incredible
ambitions
ṅalela
Arabian
sensibleness
Hinnom
mwongo
456
cult
ective
SIN@@
modi@@
hallmark
Divided
muṱa@@
Hin@@
Corinna
piringul@@
hanelela
Yukon
aku
dovholo@@
tiba
Pascal
yani
teles@@
Lemu@@
adversaries
Ndau
sugar
Subsequently
play@@
ḓipfisa
Sakura
Gir@@
diction
Nga@@
dzinginyee
ndalela
Dunn
Fir@@
yers
mistreat
Elihu’s
malapfu
Stéphanie
lifts
Bildad
Lis@@
RES@@
regularity
contracts
raft
Swi@@
systematic
vhuḓi@@
artificial
Ma
Hyde
9,000
Sus@@
Compared
luse
tioned
Delta
reproduce
faiths
Class
pfunzoni
renderings
hail@@
Elelwani
steer
homesickness
tsumb@@
halls
dziphalaphala
sson
Testimony
Redeemer
shai
priest’s
Tulun
Mitsipa
tevhedzi
vhonani
dzingamufhe
phakhani
Angel
home@@
Svetlana
muddy
torrents
VHI
marke@@
ḽora
Holding
institute
gloom
sarcas@@
Woth
distraught
Soul
shom@@
zwiḓolo
Vitaly
nṱoḓa
muzwimi
ports
nzhele
Ḽiné
omens
ṱanganye
cians
Rekhodo
mukhushwane
Klaus
tshiṋ@@
Park
ongi
Ḽiṅwalwa
aking
nya
aning
cock
prospered
KHWA@@
eth@@
mahulwanesa
vhudzaho
Ponder
trud@@
motor@@
HUMBULA
Katharina
Heartfelt
Amid
tshaisa
Humbule
FUN@@
imagery
kovhekanywa
ries
sain@@
madeṅwa
Lang@@
Agnès
PAR@@
Mapholisa
Wavho
sojourn
ub@@
cement
Agab@@
nduvho
Ivy
sik@@
excellencies
Ḓis@@
aisi
aux
ḓolisa
donor
endangered
Linganyiselwaho
Business
confide
amoni
udza
discontinue
sprang
Tendá
bert
violates
essing
Lyova
ordering
ami
remainder
canonical
tshiranzhe
schoolteacher
Vhukomonisi
Greg
speculation
FER@@
Increased
humbudz@@
Gardner
nkula
phuvhe
ṰUṰUW@@
Negeb
thetsheles@@
dead@@
Person@@
Surprisingly
Vh@@
smu@@
bennde
vhatshimbidzi
Farakanea
Zbigniew
worms
vili@@
regis@@
Sakiko
melaho
rejects
Ní
Hell
dwellings
successes
rav@@
imo
Vuswa
Wittenberg
Pati@@
Appendix
Gabri@@
Musée
khwaṱhisana
Effort
Guatemala
deser@@
thongo
drinkers
Orient
Ransom
proconsul
drastically
ngela
Dalela
directors
Lulatin
lowered
lilala
1,200
KEEP
vuledzi
recipe
pervasive
contending
pollution
basari
Albania
Vhurwa
muziamu
huwel@@
Eno@@
awele
lungs
dzumbame
ishani
Basis
communic@@
Non@@
exam
beholds
mireoni
khol@@
withholding
Fheliswa
thes
itors
Carlo
disbelief
poll
Huwelelani
purchases
I’d
kavha
compe@@
meanings
Padgett
Vhakomunisi
commenced
Hilda
̭oni
respondents
732
Pemb@@
MEXICO
Consideration
statues
Sidoni
agreeing
admission
Dwelling
ne’phesh
NOVEMBER
inkhorn
zwikhukhulisi
offending
Teachings
Ṱho@@
traumatic
ile@@
helpers
Tro@@
langea
ment@@
sumbedzwi
eḓanwa
ís
Aravha
Minzhi
Zwa@@
Fiery
trucks
HUMBULANI
vili
cred@@
evildoer
Merche
forcefully
az@@
disclose
privation
Ṋeela
consist
dzipfamoni
Lug@@
hail
anu
hangulwa
ples
zwiwa
explicitly
vhula@@
Amery
ught
you’ll
miḓana
Prom@@
Fhambanaho
Anticip@@
tsitsela
rumuni
mubva
parks
heroin
adzwa
Madeleine
Sven
Karítsa
mbonzhe
revolved
Jaime
mael
Photograph
1906
dzí
oph@@
Jarosław
guil@@
tshiimoni
shops
deteriorating
CAR@@
kumb@@
delivery
Wolfgang
soothed
deficiency
ṋang@@
arian
Bulletin
Declar@@
Zwala
warranted
VHUS@@
thered
ft@@
harp
Assemb@@
fhodzi
Verónica
Preparing
exploits
onds
que@@
wé
handiwork
irritate
Pamphilus
Believing
stimulates
dzhenaho
henewe
edzisi
muxedzi
inton
fhululedze
Christina
appraisal
iniki
depravity
lalami
Milambo
wanise
preview
Shavha
Brotherhood
attainable
mimbete
madennde
Bet@@
selwa
Dar@@
residing
ndzi@@
Bergen
fashe
969
Luṅwe
7th
vhomba
Hannah’s
ntsedza
pfesesee
unemployed
Adonijah
badge
ghts
dependence
buḓekanya
Abba
Malachi’s
swaswa
Speci@@
devastation
ig@@
8th
log@@
Scandinavia
nḓisela
tupulwa
epide@@
Dzivhuluwani
Metz
Lew@@
dziṱhohoni
sudzuluwa
faster
peaceably
Indiana
Model
ja
Ṱhalutshedzo
Stephen’s
FE@@
Theological
anno@@
Kourion
simultaneously
bia
Koichi
eani
Cec@@
cheerfully
fhurea
gese
slippery
spacious
Steele
ken@@
snow@@
litshana
sinyuisa
pfeswaho
vhula
Young’s
930
Br@@
ladza
anḓani
Tsi@@
Shengela
drown
kufunzele
observant
Kazanlak
farakaneaho
mubveledzi
Expectation
inadvertently
Vhulu@@
Tshinkwa
1910
ö@@
sturdy
Appi@@
tou@@
Ngoyu
OP@@
vhonetsheli
stance
RIṊE
ḽazwo
enhances
WAHO
Bruys
trickery
tshifheṱi
specialized
ndingo
Late
dzikhundu
ste
Completely
shyness
mealtimes
clinic
zinger
recommendation
On@@
Taste
auditorium
Olive
heights
aw
xe
ḽivi
Antiochus
doorposts
221
dzulo
Politiki
champi@@
ía
fantasies
Annikki
khoṋololo
fornications
ingiwi
Symb@@
employs
motor
UG@@
reversal
dewdrops
Nowadays
acquisition
Katrina
ḓifhela
essions
phanga
gratifying
nṱalu@@
Fulo
chan@@
UNITED
famili@@
Plan@@
dictatorial
Savonarola
Petra
extor@@
Muriel
HAS
ṰOLISISANI
tshiendedzi
Vhakaladea
progresses
anti
shul@@
lethal
Rhode
counter@@
accountability
Bvel@@
Kumiko
inhabit
ZI
rwele
stabilize
Mark@@
Andr@@
angiwa
relati@@
vhaalavhi
anchor
ood
ndunduma
garbage
Pic@@
lasts
Swis@@
Belshazzar
CA@@
lan@@
shon@@
kly
drafted
phere
escapes
oud
supervised
mvumvusa
pfane
muni
Karachi
Haṱ@@
semaho
critically
ensured
lavhelelaho
Presence
ekanywa
Ernesto
invent@@
marrow
BRO@@
MORE
khudaho
Boo@@
ond
prompts
boil
Spo@@
Suez
pheletshedzi
Ṱungufha@@
Alfonso
hospitals
cem@@
Langa
trumpets
tian
sirel@@
gazing
ndzhena
blind@@
swielela
Takadz@@
omoni
Pearson
dzinthi
imbe
Twice
tse
Matters
850
Hindu
launch
countenance
uncanny
Examiner
implant
lawyers
vhifhe
Banga
insurmountable
sluggish
Athu
ḓalelwa
vhulung@@
Shealtiel
lurere
tshisiwana
Tshikepe
rift
ḓifhedzela
w16.@@
Brought
godi
GDR
ention
Burkina
indirectly
There@@
endedzi
Faso
MOST
530
exhibited
visibly
Larry
floodgates
Tama
̭i
sedzwa
Má@@
seas
jeopardize
consolations
covetous
amo
assess
celebr@@
mupsalema
Monique
tis@@
ṱanzw@@
Aside
vhé@@
xed
safeguards
Enrollment
Khagala
vastly
luṱingothendeleki
Canterbury
battle@@
mudaleli
eared
eta
th’s
cate
khwini@@
Anger
Zaragoza
provi@@
mipfani
delicacies
folly
documented
Cau@@
rainbow
Castra
befalling
promo@@
murmurings
tshedzwa
Alas
thangá
Praetoria
Rotterdam
thri@@
ṋo@@
misused
mbidza
Focusing
suf@@
alerted
cheer
rebuking
fhula
1917
Heike
Toulouse
poles
spl@@
TSHUMELO
retaliation
Phafo
stamina
vhushuvhuru
ficiently
191
sible
ṱuṱuwedz@@
banks
insensitive
liberty
robs
berg
orches@@
book’s
cows
Commendably
concealment
lic
Rabelelani
vhengelwa
234
essay
sáthu
harboring
ṱalutshedzaho
contemptible
refreshes
abide
ZWOṰHE
posing
ingoni
Bvulani
Issue
Staying
lowed
attackers
lutanda
ille
dzhekiseni
contradiction
Thivhela
plunged
Unquestionably
akim
thumbuni
summarize
sophisticated
paved
disappointing
broadcast
distinguishing
exclude
Tac@@
organ
Ren@@
compar@@
ndifhedzo
agitated
Milenzhe
Generally
attractions
surgeons
Dic@@
Eating
outstretched
shifts
Dale
allies
maḓumbuni
Rober@@
gauge
fron@@
mabul@@
repairs
Silence
Lily
Arabia
dziḽa
envied
Mágogo
flew
fulufhedzisana
ṱalutshedzeni
ciously
ḓisi
Tabitha
blew
dissuade
re’s
burns
renouncing
Stu@@
hodela
vocabulary
disru@@
Approach
alo@@
TWO
ven
timatim@@
afar
Paphos
Call
Black@@
BUL@@
Copenhagen
robbers
innocence
redeemable
24,000
rengiselwa
Overcoming
singular
Tshiṱangu
ington
fure
Minnesota
bans
yn@@
contentions
Ing@@
Vhurifhini
duce
Spirituality
authoritative
thus@@
ekana
rams
embittered
Confu@@
Claudius
tshelwaho
Reasonableness
vhulahwaho
register
luhumbela
dzikhovhe
sanctifying
olish
forgetful
enlarge
Benjam@@
gwal@@
thering
Mac@@
vhutshifhe
Hell@@
bestows
abu@@
ecli@@
bowing
fundam@@
spears
harvesttime
precedent
Salome
Kr@@
Workers
Roxana
Small
Graham
ṱi@@
vanganya
fruitless
Manchester
tshigonṱiri
commerce
Comp@@
tent@@
ISI
limping
ided
phaḓaladz@@
yc@@
Newsweek
Asizwo
ANYIS@@
Exactly
entist
ṱhogomelane
pitfalls
eno
tain@@
enforced
Murangi
piti@@
blaze
shumisea
WORLDWIDE
politely
enlightening
Albin
Dom@@
Memphis
Nzudzanyo
Ledra
alluded
̭
zhisa
Elsewhere
Maxine
tsu@@
enumer@@
pension
motto
khasho
Barabbas
lement
Jonas
inaugurated
forth@@
13th
Require
mounting
dzithikho
ABLE
León
sburg
wand@@
Tshivhumbeo
let’s
undeniable
pan
yesterday
collectively
rugged
sedition
Hop@@
gleaned
Acceptable
literate
w17.@@
Mom@@
waniwaho
Elvira
vhudzisesa
dzithendo
puni@@
Parthenon
Ep@@
Cyclopedia
uterus
tshikwarani
eral
contradictions
launches
strives
bec@@
thomi
dupli@@
frontal
Vhaedomo
bru@@
prowess
Daughter
hither
Sébastien
ticism
istan
exalts
Mikhwa
convenience
prerequisite
Samson’s
Already
Allende
obeys
ascertain
kala
departed
wl
colonies
ṅwalani
Has@@
isei
gonyi
nake
rot@@
Visitors
LET
slo@@
engedzaho
tee
Cy@@
ntsinyutshela
ESC@@
philisi
forwar@@
returnees
Remegio
dynasty
coordin@@
Beatri@@
house@@
Fourth
Hospitality
VHAHEB
swee@@
pitched
Madekwana
retaliating
ropes
cized
uneducated
mabakoni
initiatives
deter
EAHO
Livija
excellence
pling
stic
eagles
eved
talented
urg
symposium
HASHU
flash
compassionately
Hom@@
clubs
week’s
outwardly
zwali
ANCE
ṅw@@
Mamona
Archive
iṋa
waist
Consuelo
camped
ash@@
Hand@@
discoveries
identification
olwaho
untimely
Secular
floods
khunduni
hadn’t
Progress
khemikhala
fhandakana
sius
Meekness
aded
constructing
Vera
spur
disapproved
USA
inconveniences
vy
seas@@
them@@
humiselwa
Immanuel
rekhoda
khudisa
deci@@
instilled
fhodzaho
khethe@@
Á@@
clou@@
phen@@
THROUGHOUT
Grow
aletareni
ESS@@
HUWELELA
kony@@
Vhuhulu
Khwaṱhiswa
ever@@
MUSI@@
friction
MINISTRY
gla@@
ambassadors
Aphrodite
Gom@@
stepchildren
vering
pedi@@
cas@@
we’ve
ALS
equals
kill@@
unfathomable
kumedzele
Roswitha
Compar@@
tip
Thathanai
crept
ṱavhany@@
khanani
dinala
someday
slaving
Mudzi@@
thankless
Tshinnani
corrobor@@
trademark
fragments
ay@@
instinctive
Peor
ṅwalo
disapproves
Murole
stifle
cake
Bless
nutritious
imaginary
hanedzei
ṋaṋisedza
validated
basin
sent@@
ekeeping
ial
Fre@@
coholism
KHO@@
Elkanah
borrowed
Gos@@
consumes
semin@@
handles
Muslims
Fahrenheit
Rus@@
zwatsho
FATHER
agno@@
masogani
Jo
Designed
episi
prudence
gwevhiwa
mone
const@@
literary
anybody
percentage
ingenuity
VHUṰ@@
oxes
Ahijah
offset
Lur@@
amelwa
dlike
Trustworthy
100@@
ṋamedza
inquiring
Confident
ninety
fhumu@@
Mangadzaho
Kyrgyz
punctuality
Horebe
waned
muṱaululo
tambulaho
tasty
Muvhofhololi
indis@@
Richelieu
ancho@@
TSHAKA
Husband
shandu
rove
wagon
iny
candidly
herd
fasi
thuthub@@
vhukavhamabufho
bench
Supp@@
nonpriestly
manufac@@
uludza
triggered
Temporary
blood@@
cultivates
Khoḓani
Mit@@
Isol@@
Copyright
ousted
Gracious
invention
sukumedza
Obeying
aping
nguvhoni
SID@@
pup@@
SERVICE
catechism
Lond@@
dzitsimbi
bloo@@
Vhalaodikea
Vhuṱanu
vhini
impediment
ideology
kundelwe
Mulindi
Gidimani
sabatha
pret@@
takadzwe
khathi
tiness
ulate
fet@@
interpretations
ambesi
wearisome
ges@@
Thakha
relocated
carav@@
MENT
inheriting
grat@@
Jehoshaphat’s
Din@@
sne@@
vanganywaho
itari@@
Vhamenno
regimes
monarch
rope
anity
annihilation
sav@@
boy’s
Nduna
gardens
recognizable
Sid@@
earing
restores
cou@@
monaho
Kefa
dzinginyiswa
hero
ancestor
Mexican
precede
DZULANI
itt@@
Clean@@
Zer@@
FR@@
Tender
oted
logy
bes@@
deterioration
aluswaho
Bruni
ambululwa
winepress
Fifty
addictive
vhuṱala
cour@@
TING
Pattern
matomboni
filthy
yal
Cybele
Gone
magaraṱa
interact
ḓinakisa
gofhi
proselyte
emphatically
willpower
recited
ingrained
ṱanutshela
ghty
GOOD
ELWA
arduous
ENA
vhusedzi
Residents
forewarned
muḓana
Ṋemuḓi
grou@@
ANALYZE
anca
system’s
24@@
haven’t
stalk
vhafarekano
reinstatement
flag@@
firiziwa
Material
orial
covet
rubiswe
recounts
Domitian
YOUNG
staggering
swifhalelwa
asted
resented
mite
foresee
Lem@@
netiswa
thither
Phoeni@@
unattainable
dzhiiwaho
Feder@@
sengisaho
Muslim
humbeleni
pambuwe
Ṋe@@
Sheep
Guayaquil
uloni
thful
Humbulwa
comfortably
vhabishopo
ḓilaya
Yor@@
dzembe
PHANḒA
rendani
VHUKATI
Closer
fing@@
Illustration
ṱhara@@
acceler@@
ugu
groundwork
ky@@
phed
implanted
Desiring
pfelana
JO@@
Tshashu
vices
Mivhuya
sights
yunifomo
khoḓwaho
Paul@@
bend
Accounting
analyzing
Mifuda
occurrences
PIN@@
throng
iselwe
Gwadamelani
ṋekedzwe
Apolonija
tshiṱofu
abuses
kupfesesele
unrestrained
tswe
beholding
generals
950
misdirected
havoc
17.@@
khunyeledzwe
helwa
Wed@@
pamb@@
Pikiswa
Osaka
ṱali@@
featuring
Volunte@@
ambadzwa
humiliate
refining
Kwengweledza
grander
Ts@@
awed
undone
phil@@
funzwaho
zo@@
Cyril
statistics
ministration
thith@@
IL
Vhaathene
reproductive
2,520
projector
mix
Tsikel@@
Vhadzheremane
flare
folk
Tribulation
Lies
quarter
intervening
ves@@
okisidzheni
essive
Invisible
dul@@
gnashing
tom@@
mpho
ṋekedzelwa
nandi
Armenian
Rise
ished
haled
checking
voiced
canus
Exam@@
Anita
Ḓala
epic
rejo@@
progeny
fhufhela
likening
Sab@@
Hard
Lune
vhigiwa
ech@@
cide
eff@@
vhaḓiwa
kot@@
freeing
signals
inroads
aha@@
ship’s
worsened
herds@@
permanence
zwadzo
bit@@
tantamount
impersonal
pasturage
compliment
bubble
prefer@@
Facts
Magumoni
Plat@@
overconfidence
commemoration
bursts
Rumela
pairs
summon
murongwe
understandably
Timekeeper
Scientific
erupted
ṱoḓeli
Decades
Ngae
potent
hwalela
caregiving
oper@@
Midzi
dispersed
portents
Honesty
Quality
ambea
Dzikaho
freezing
WE@@
ḓivhise
ration
norm
ṱarafiwe
Fhumula
heating
vhus@@
Tears
Dan@@
hast@@
pours
Selma
Mama
mbambadzo
habitually
tshavha
Randalamo
Laiburari
BEING
vengeful
fhiswe
engedzela
mbumba
waged
inyana
Visiting
complexity
zwisibe
litsheni
konisa
ached
pretense
unstable
Serious
33@@
Hatred
164
Ḓivhi
Fif@@
Losing
END@@
darkest
calmness
termed
FIL
mon
Enri@@
improves
labored
tovholelwa
cribe
cart
pointedly
Mulingi
Kid@@
publi@@
provider
Homolosa
diminishing
Demons
konḓeleli
mbon@@
ffer
vhiwe
vhofhekanyaho
wiho
commun@@
bleak
inking
nominal
maaravhele
Pop@@
mukulo
healers
usurp
Key
Upright
Shavhani
pfelwa
lwaḽo
SHUMIS@@
wholly
stumbles
Hunger
ntsinyusa
Vhungoho
defile
fuka’ni
confronts
Ḓivhadza
agitation
ape
nwi
tamaho
Compassion
ḓitakalela
esh
newer
hudze
escap@@
catastrophic
mangafhani
acute
Miriamu
horse@@
Inwani
alleg@@
zwibugwana
saints
infirmities
church’s
Aar@@
sing@@
ware
lindwe
Subjects
ront
outsiders
Bind@@
Mudzhapani
pretext
Normally
macy
athletes
ther’s
pastures
Zebulun
Signific@@
vusuluswe
diam@@
rang
Accounts
climbing
Rod@@
Ṋe
unparalleled
Lift
apologizing
dzumbul@@
Kati
nḓa
Ṅwal@@
seating
lent
nap
Magedon
SHO@@
Har
Papa
Noting
Dzumbululwa
hair@@
stakes
traversed
Vhonalaho
zwiambo
phe
bulb
Ná@@
shifting
warped
boisterous
Asizwi
ḓiṱukufhadzele
continual
shengelaho
unrest
Stor@@
Lucrezia
agra@@
Mikhuvha
congreg@@
Tha@@
fulfillments
Eliashib
Christiana
fanciful
tracing
pful@@
envision
dak@@
Treasures
revelries
acious
ṱaraṱa
nicely
ḽifhinga
substances
GAR@@
thub@@
Shelah
ef
strategic
presses
secluded
endor
WANA
outcasts
vhutheledza
Ḓadzisa
fic
Rome’s
Om@@
unchecked
Appreci@@
fulufh@@
ṱavhiwaho
Press
fascination
locks
fate
houḽa
conce@@
enforce
eing
network
testifying
fhir@@
manly
smoldering
cyclone
blocked
Zwigayo
misrepresent
inconvenient
mab@@
ṱalukanyei
Cul@@
Ḓumbumazwikule
sun@@
wiswa
evhe
compose
fhiwe
authors
Vi@@
labors
jabi
fluently
Muevangeli
kunak@@
Sight
mute@@
fever
cargo
Spirits
huvhili
mudzi@@
169
ḓilinde
creation’s
PHIL
leukemia
Linganyis@@
lalaho
stoning
sists
khwea
tshiteidzhini
gos
overreached
detrimental
YAK
ḓikombetshedza
medza
khemiki
defy
educating
accidentally
sex@@
brutally
rer@@
quantities
bach
wondrous
Fruitage
Generation
Bright
mazuwo
spotted
lufherani
mall
Takes
Tshiṱ@@
umbling
recommending
eves
ṱolisisi
parade
TEACHINGS
Nyendo
Skillful
elated
wer@@
oked
bloom
ouse’s
insistence
DY
sphere
af@@
lufayo
SAL@@
pivotal
shunned
FHI@@
fhefheḓa
Run
eḓeli
sheets
ambiswa
TEN
fhoni
maneto
eradicated
dogmatic
Searching
ḓihwe
khii
CHO@@
tin
GI@@
nwel@@
shouldering
vhanzani
funziwaho
selves
quotations
preconceived
poorly
dog@@
Zwaṋu
mitevheṱhaḓu
VHUṰALI
resigned
Grandpa
grinding
blu@@
entally
zwimba
INO
Zeph
contamin@@
ister
ungrateful
allowance
ṋan@@
engenders
abyssed
faculty
madanda
bvisele
Tsirel@@
Stars
criti@@
permeates
tevhula
Gold
pfen@@
vhahwali
TSHENETSHO
mage@@
Ear@@
angs
stabs
Useful
possessing
gy@@
foregleams
coma
downtrodden
denominations
mingled
undergone
ego@@
cent@@
storehouses
khathutsheli
Vhahura
ngeḓane
hugged
Efurata
chickens
wax
ptive
breathed
easiest
Covetousness
fhiswaho
Animals
disadvantage
appar@@
Prize
copy@@
defam@@
masi@@
timeless
NṊE
LIVE
tandulule
courtroom
View@@
welaho
Dzimbilu
ERE
kat@@
zwirendo
Honduras
1700
denarii
lump
Hethe
businesses
MBUNO
coveted
hwelelwa
Fhaṱu@@
obscured
Khuḓano
andisa
goḓo@@
Mankind’s
ruthless
Simeulue
pomo@@
Aurele
cy
collapsed
org@@
pwashekanya
forcibly
ailments
Vivho
unreliable
hood
lotto
god@@
fulufhelwe
Ṱhonifho
Pfumo
Sees
Beau@@
farelwe
respectable
ori
northeast
advantageous
Laya
Encouraging
termin@@
pfu
pressuring
vhaleni
reliant
Belief
pennda
provinces
vhudzivha
evangelical
muṱ@@
Zelophehad
Phal@@
Compani@@
wif@@
ṱhogomelwi
slapped
Ḓiṱukufhadzeni
eleaho
Cephas
ilies
profits
farisa’ni
concentrating
Lumaya
homosexuals
ISELA
bvisiwa
fhemb@@
Sanhedrini
baked
prosec@@
mati@@
tsiku
itting
Discuss
ṱomola
Chan@@
veness
swit@@
Filimu
predators
mers
andiswa
farele
bid
181
maṱ@@
kiḽ@@
pole
mulindini
unfounded
tshifhaṱoni
unfolded
maboḓelo
fung@@
arte
Difficult
Didur
isima
LINI
blown
VEL@@
fairness
ski@@
virtues
engender
EAR@@
sling
Franc@@
pigeons
tibedza
martyrs
compet@@
lax
shears
corrects
17,@@
ḓikukumusi
tsikiwaho
blasphe@@
dzitshengelo
khwaṱhisani
Encouragement
voc@@
Trained
eland
unbelievable
takalelaho
ṱangulwa
kaṱanu
stubbornness
Falls
osteo@@
KHULWANE
imit@@
casualties
shaiwa
denies
rebelli@@
nṅwalela
wealthi@@
Vhomme
KA@@
THER@@
Lingwa
vhuḓipfi
Revealed
yea
Sili
graph
Gwadamela
DURING
feat
titima
lon@@
zwale
akat@@
furnishings
stool
Vhaṋe
badger
Cus@@
Merciful
antine
literated
canc@@
cool@@
adaptable
hanye
mounted
consi@@
Royal
engineer
YS
MARKO
rabulasi
pum@@
humbulesa
specially
athletic
Tan@@
Discouragement
CHILDREN
shly
southwest
vhambadzi
Yugoslavia
WO@@
Ṅwando
puzzle
fted
dzinḓilani
eed
Maambiwa
Blossom
unassigned
Muziamu
cleanses
tumul@@
Laṱani
unleash
laborer
aces
detriment
w’s
despising
intoxicated
pfeseso
ok
Rei@@
ḓiite
shments
ZWIFHI@@
Deaden
Horeb
ḓikanzwa
Zealously
broaden
withdrawn
Mudziammbi
Forgotten
flow@@
diploma
bug@@
khunyeledzaho
fhenḓwa
motions
rene@@
Reality
conspir@@
homage
Daddy
anisa
eans
vhulawa
ofhiho
enced
Post@@
reared
long@@
shaḓa
oppressing
Vhan@@
Mana
Lawrence
ndwani
dam@@
Radio
overthrown
bodara
defeating
Shunem
Gradu@@
Currently
khethi
Tshiṱu@@
ERUSALE@@
bveli
depressing
vibrant
ḓwa
tshinyiwa
heighten
illed
dzikha@@
exaggerated
Clarke
photosynthesis
unjustified
predict
Bru@@
Vhaḓivhazwakale
swifha@@
resign
vhofholowe
lugungulo
phala
Year@@
deposit
Persecuted
Experts
cky
mwethuwa
Amaleke
luṱ@@
clinging
delicious
ascribed
BERT
childbirth
Qualified
Cynthia
Prac@@
tendeleka
erity
tac@@
neared
itudes
vhingwi
po
platelets
Dear
funwi
toy
Bud@@
thivhelaho
zwiṋari
KHETH@@
negoti@@
elding
mutebvu
Baraba
repe@@
Mara
Everywhere
ressed
Mudzi
maimo
Ham
journalist
ndzumbululo
sendelani
assa@@
ṱhoṱhon@@
waterless
Legal
mukanzwo
mavhiḓa
lar@@
eḓane
VHASHUMELI
Herod’s
sorcerer
tot@@
oliwaho
dzhielani
Gulf
astronom@@
Board
endang@@
kolelwa
Chr@@
tshikwamani
dzhene@@
zwiṱaraṱa
edzisaho
inda
seaport
rot
versities
ṅwalisela
ṱha
Bethelite
Ḓifara
WI
mirrors
sikwaho
wa’ni
edzelaho
weaned
Forty
vhila@@
IES
GER@@
ṱaniwa
vhafhuri
khumba
VHILI
Fhemb@@
Tse@@
gamy
DZONI
lapse
dian
fetched
mbwandamedza
Archi@@
Fern@@
icons
mula@@
phusuphusu
Wis@@
VHAL@@
vhelo
attends
ḓinekedza
166
establishes
mushashani
Matombo
lovh@@
Tendani
closes
shengedzwani
unbled
amara
pottery
thekh@@
Ngavhuya
KOR@@
poswo
enses
trick@@
perplexing
Mupfumi
vhalapfu
concise
Course
ṱoḓele
inqui@@
hedge
anyo
figara
comple@@
Muloro
formul@@
antidote
elections
Choices
read@@
medication
mukha@@
sever@@
miwa
Quite
raha
even@@
VED
odor
vantage
ndina
Dream
drained
Muvhoni
Mizpah
adviser
readjustment
alienation
invalid
ḓiwaho
dzumbululwaho
retri@@
NESS
Tshavhuḓi
tshenisa
finance
Shumani
leveled
dzinduna
nzhinga
shelwe
KO
tyrannical
Nazirite
circulation
embarrass
munukhelelo
vocal
bombs
afflic@@
rel
Midavhini
transpl@@
kanganyedza
ḼIṄWE
hoko
Tsipora
outnumbered
rafho
770
bwandamedza
Thorn
itation
glasses
Court’s
khaulaho
executes
mafulufhelo
olen
ICE
Dest@@
fhen@@
Ṱah@@
Americans
shielded
Abuse
tibly
suffice
workman
intends
Urgency
Marais
soccer
sendedze
antity@@
amboni
shaye
Sinclair
Reasons
Bringing
UP
sidetrack
JAS
ṱolwa
boiling
singled
overmuch
bun@@
Logically
Kra@@
dzao
ungu@@
VHUḒINḒA
stretches
sely
resid@@
enrol@@
emperors
Bene@@
Decei@@
minority
mind@@
intensive
ello
Advert@@
crew
Additional
triumphal
Upbuilding
confirming
tshó
Amish
yl
discontent
Lena
FHE@@
Navho
icity
histor@@
Twelve
Plans
gam@@
wishful
paganism
Uḽa
vhengaho
paints
vhushie
Madge
poly@@
boḓelo
homosexual
ied
faresa
ḓuvhani
ṱano
ne’s
insol@@
album
Vhagandisi
nests
carcasses
Den@@
tw@@
atu@@
khangwa
YUDA
straying
carnival
VHURABELI
jer@@
Tshishumiswa
vir@@
ʹa
thunder
ondoni
ḓiṅwalisela
chorus
fhembeledze
mmbilaedzisa
Comes
athing
Previously
lut@@
contrasting
168
resembled
plu@@
Increasing
muṅwaliso
mathenga
copes
eḓani
monitor
itumbu
researched
withheld
emer@@
ṋukala
iyi
Econ@@
compel
fabric
instigator
huwelelwe
Rol@@
yara
stew
Livhu@@
mulwi
Malcolm
sift
maintains
Writings
Gifts
%
benefici@@
ṱahali
7.@@
Vhaamish
smoo@@
refute
tz
adaba
brighten
GO@@
seizing
Jap@@
swing@@
doubled
curtain
Super@@
Heritage
ringing
Sometime
conceivable
ULAR
ethic
grades
Pul@@
Kos@@
Bothingone
vou@@
tseka
Pac@@
remarried
beseeched
lukela
bows
Ethics
Bethuele
rume
Merosi
Bernice
Ṋowa
will@@
Scholars
reciproc@@
Nda@@
Austr@@
alarm
exceptionally
perme@@
Vhuyelelani
Corkern
Physical
ther
atus
Sikwa
wailing
pani
Antiquities
dence
archy
depicting
stag@@
lengths
fervor
swimming
nate
logs
schedules
vhofhololi
Tshifhinganyana
receiver
chair
Evangelizer
Literature
Rest@@
inciting
Zwipuka
invading
sweat
in’s
Farani
sinyalala
misrepresented
unkindness
zyk
takalani
Hier@@
Cairo
kicked
Graduating
entail
zwiambiwa
produc@@
SAMUELE
unimportant
Anwar
zwipfufhi
pfeseswe
sukumedzela
sumbedzeni
negligent
ailed
Proving
cel@@
daya
inhabitant
fhisiwa
rekindle
rosa
Ancho@@
control@@
210
COURAGE
interce@@
AṰ@@
ñ@@
roar
BA@@
Cody
rengwi
injunction
ṱung@@
wishing
grounded
tor’s
tshilani
Sheba
Led
khefi
Alberto
perpetrated
Dag@@
blun@@
THERS
abject
presided
koniswa
cents
Mubishopo
Zwitshele
vheiwaho
consultation
Nak@@
Luxembourg
Languages
liqu@@
aned
ṱaṱ@@
vhilaho
Construction
dine
DZA@@
Tshimbidzana
sac@@
FHI
Taganrog
vhuyafhedze
treasuring
apprentice
Louvre
parchments
whi@@
shoni
Patimo
Fulfilling
❖
abandonment
unintentionally
umin
supremely
itisaho
ablaze
blo@@
momentarily
uselwa
pie
lamentation
̭o
kher@@
Lincoln
maidservant
mus@@
SHAKA
addict
badzhi
Clement
technical
Celsius
leludz@@
Wane
Spiritism
Kuvhanganya
twilight
Leopold
khaboni
Mariusz
degradation
mist
robo@@
inconsistent
tier
not@@
Nowhere
shness
Tikedzani
fetus
rung@@
ḽikumedzwa
mbudz@@
Percy
ḽeḓere
fax
vinedres@@
Muhwalo
mbaḓa
mangali
Montreal
unpredictable
Found@@
graphy
Vuḓa
edges
khan@@
Sou@@
dzuvha
interrupt
Becomes
Resp@@
Yaroslav
deaden
clam@@
Bahamas
undertaken
disrupted
commotion
Knows
fists
maḓanzhe
Divorce
reducing
immeasurable
DZO
Turning
ṊE@@
ento
Aminoni
specify
J.@@
dzithwala
cell@@
Magazine
lime
Gnostics
instinc@@
Amnon
Promise
Harmful
Porter
Neutrality
mbi@@
grocer@@
profane
saturated
VOL@@
schemed
ṅina
Low@@
mafhelelo
tshihumbudzi
mbwandamedzwa
khakhe
Naaman’s
changers
Bou@@
vhofholowaho
fhirele
semelwa
tshifu
204
khee
tsikiwa
Grou@@
vuḓele
Tongatapu
proverbial
Atsushi
khuwa
Vul@@
vhoramabindu
nically
matopeni
paced
Isioc@@
stared
gigantic
file
adzela
Sn@@
zwitshetshe
Hour
ensus
mikotoni
bud@@
shoppers
nom@@
reproves
tsikel@@
ann
Preser@@
thetically
justifiable
Kur@@
kombetshedz@@
Seth
Nguvho
Estienne
vhulungese
ov
atheistic
da’s
nnyitela
Tzotzil
khwathela
eth
complications
reservations
ulusi
brick
Trustees
faring
needle’s
Unclean
Churchill
Arab@@
Liene
Luportuguese
Saúl’s
aments
usions
kushumele
kaṋ@@
192
Notes
pretended
juice
Dunkerque
eswaho
solis@@
ṱhi@@
tow@@
Announcing
tambe
performance
schoolwork
ado
kuvhusele
Wilson
vhagidimi
fluent
behaves
Dzingu
Head@@
Succeed
movable
Grew
vhuḓ@@
deformed
aʹ@@
Tshilavhelelwa
Rembulu@@
ession
muridili
Tiberius
Mes@@
tral
hor
machines
ome@@
composing
Engaging
phurogireme
ite@@
examiner
adhered
estament
vhilá
loathsome
vhunyunyu
hanyise
Cle@@
Watch@@
MBINGANO
coinci@@
awakening
Ṱhonifh@@
Eglon’s
Fortunately
diverted
ṱhingo
reck@@
ZWITHU
leng@@
afforded
veneration
Kyo@@
DZIṄWE
invested
appease
Expansion
AUSTRALIA
Iowa
Ministering
tranquil
rez
Unable
Ted
Vol
marvel@@
Vu@@
Teresa
Hamu
Pray@@
lad
Tiberio
fertili@@
Gulewamkulu
Differences
intricate
746
sleepless
Swedish
persecutions
Claudio
Envy
Roberson
illiterate
vhugabeloni
Zwiambaro
toys
repurchasing
Massachusetts
entrusting
Milane
TEN@@
boy@@
phenḓaluambo
Sierra
Mün@@
Shor@@
andaho
Juli@@
totalitarian
Eh@@
Reveal
·los
lia
mavhisi
ambadzifhele
Burnett
Saxony
Hakan
Secretary
Bannga
vhunamelo
Gener
Tshikwekwe
earning
jars
Elke
BAB@@
Ḓit@@
Hirschberg
badele
unyielding
Bowen
exclaims
mmbe@@
insatiable
vhaoli
ław
bac@@
comm@@
doubtful
Naomi’s
maramboni
Set@@
dodomb@@
packing
dominion
eighty
phunguhwe
tshinyale
tsikeledzwe
vhalanga
fores@@
nnḓivha
Analy@@
Ndanguloni
Sprout
tat@@
mapholisani
mukungwa
Mulenzhe
isanaho
precedence
prostitutes
Minis@@
ṱhase
nemb@@
tshidimelani
andesa
adversely
huvho
discord
ṱuṱuwedzeni
Yau
vulgar
honi
cross@@
MOR@@
Ellen
400,000
secretary’s
Ramilo
fhambananaho
Mos@@
recru@@
roared
fing
thithisi
aṋe
lowing
rembul@@
Zwibammbiri
Miletus
arid
edzini
Raymond
eminent
Arielle
paintings
Roṋewa
das
Armavir
fhelekedzwa
whomever
luggage
fert
Johan
Chelčický
zwithivheli
bors
thuswi
divan
vhilaedziswi
Schafer
mufuni
Vhudzekani
ologists
tshikwara
khunyel@@
specialist
MARRIAGE
Known
ph
tackle
audi@@
onzhe
mapfu@@
Pier@@
Steinach
ṱuwani
tural
sprouts
Ei@@
Angel@@
cartons
outlying
Political
Mongolia
Schaff
XE
Anxieties
Alusa
CHAR@@
baking
Uno
mphodza
welling
luvhungu
MARIA
Alabama
sasaladzi
rightfully
fanatics
tangwaho
matshakatshaka
mpfarele
stove
disagreed
mashika
nambatelana
Ing
Samuelson
fhedzisele
mics
hene@@
alling
begeni
confidant
U.@@
bake
reestablished
khwaṱhisedze
Kenyon
kn@@
Ironically
ogo
Helga
Medicine
Amburgh
lording
disorderly
excommunicated
Anatho@@
Ḓitikeni
collap@@
tham
beha@@
predetermined
hule
tley
AFTER
ḒIVHUDZISENI
More@@
ngezwi
fasted
Holocaust
regulated
unspeakable
novel
musc@@
ṱumana
Commissioner
Amazon
kushi
fumbiswa
aves
londote
aca
POR@@
Avho
evh@@
raged
lod@@
Aristarchus
thithisaho
Lausanne
Malo
elesa
combat@@
fost@@
Ludzhapani
pfuluselwa
mutholiwa
Muolo
d’Étaples
pression
athlete
Vil@@
UTSH@@
longest
Rali
Injustice
unciation
rambana
Vhamasorethe
idding
Decide
Yacos
ululi
Uyu
Ban@@
thuthubisa
cooked
Lw@@
Bevan
waved
posture
umes
inventions
heartily
Masore@@
Fhisetshela
alarmed
spor@@
Sandanski
kwamee
Gertrude
exam@@
Polo
Discreet
Haxworth
gwada
Luvhondo
unfairly
boards
muḓivhalea
Zwiṱuku
housebound
Morrison
frivolous
nightmares
sumb@@
vhengi
phants
WIS@@
Penny
entary
Endeav@@
regional
Evans
pleasantly
Sidney
Fraser
ene’s
timatimisa
scheduling
tale
Apostles
defuse
swoṱa
MUṄWALI
unify
thusani
Mululamisi
etary
adheres
[...]
