<unk>
<pad>
<s>
</s>
,
the
to
a
of
and
:
?
in
“
”
-
that
we
s@@
i
bona
—
l@@
is
y@@
ed
ab@@
for
)
(
ng@@
al@@
z@@
he
you
his
b@@
be
um@@
jehovah
what
n@@
is@@
em@@
w@@
it
as@@
m@@
’
ing
t@@
as
on
with
​
was
k@@
e
not
el@@
im@@
will
kw@@
an@@
i@@
us
s
are
our
have
in@@
e@@
‘
ujehova
o
am@@
ku@@
es@@
u
u@@
az@@
en@@
on@@
ela
ul@@
they
or
un@@
can
god
uku@@
ar@@
how
r@@
il@@
begodu
do
jesus
abantu
es
g@@
f@@
ele
ukuthi
d@@
ang@@
from
eng@@
us@@
ez@@
who
by
one
when
isa
c@@
ak@@
oku@@
o@@
wa
this
re@@
all
;
h@@
eni
er@@
their
an
ath@@
iz@@
ako
v@@
ad@@
a@@
p@@
!
kodwana
aku@@
ib@@
ek@@
bible
it@@
om@@
ngoku@@
at
er
y
ay@@
ung@@
th@@
but
your
njani
him
ise
ing@@
uzimu
eb@@
se@@
about
j@@
ani
people
god’s
khulu
t
had
uz@@
ujesu
le
aba
them
so
ana
my
ne@@
id@@
ic@@
at@@
ob@@
ik@@
weni
would
did
be@@
were
al
noku@@
or@@
enza
ol@@
ini
eli
os@@
azi
if
tr@@
elo
st@@
bek@@
jehovah’s
kufuze
lokho
ith@@
aw@@
uy@@
ag@@
akh@@
sing@@
ho@@
uth@@
time
av@@
ir@@
ileko
has
ed@@
ers
hl@@
iv@@
and@@
those
no@@
ted
help
ent@@
ph@@
may
aph@@
life
ind@@
eka
ly
af@@
ahl@@
nanyana
ile
ula
nom@@
ala
njeng@@
’s
b
ngayo
eku@@
khona
ent
wa@@
if@@
ud@@
ate
some
ac@@
ihl@@
ation
lo@@
abo
me
si@@
read
abanye
kh@@
many
no
her
ong@@
ha@@
ur@@
iswa
njengombana
nes@@
more
ig@@
tjh@@
ub@@
why
funda
end@@
uk@@
iy@@
love
also
wathi
yoku@@
umuntu
ama
akhe
iin@@
od@@
nam@@
we@@
even
ro@@
into
nas@@
esi@@
good
able
le@@
dis@@
emb@@
she
ke
beb@@
ex@@
there
does
nab@@
izinto
indlela
ies
ef@@
iso
eth@@
elwa
k
siz@@
ap@@
bang@@
make
ba
iph@@
kubayini
kung@@
should
ey@@
iya
woku@@
way
[
]
kazimu
qu@@
could
ting
atjh@@
pro@@
for@@
ev@@
work
d
ion
out
wab@@
see
ngom@@
ated
such
been
iim@@
na
things
lo
itjh@@
ive
because
res@@
ukul@@
others
ukuz@@
ngombana
sib@@
ance
ow@@
kuhle
need
con@@
de@@
alo
ngemva
ts
okw@@
op@@
after
ic
nak@@
qala
faith
bab@@
int@@
world
kingdom
up
isikhathi
ibhayibheli
n
phambili
first
yeke
bakhe
other
la
obu@@
nang@@
ok@@
elela
namkha
paul
these
ehl@@
andla
ine
isi
elwe
baz@@
bu@@
eleko
abang@@
abe
wakhe
example
siy@@
loku@@
said
usa
ephasini
ane
ch@@
th
enz@@
eg@@
upowula
then
day
pha@@
spirit
nek@@
aka
like
m
ment
aban@@
und@@
uthi
bal@@
athi
congregation
king
end
inga
eke
family
pl@@
koku@@
izwa
ence
ami
njalo
anga
sil@@
bes@@
ure
ngitjho
soku@@
per@@
years
amakrestu
kus@@
ass@@
koke
amb@@
phasi
earth
ona
bas@@
ions
en
wam@@
word
man
esi
se
phela
ngalokho
ice
uka
than
q@@
nje
ep@@
olo
yini
okuth@@
uza
akho
christians
tj@@
zim@@
enze
pe@@
know
eph@@
kuz@@
its
thi
ika
ikh@@
l
give
namtjhana
co@@
over
come
att@@
beng@@
sis@@
beku@@
says
eza
brothers
ce
esing@@
wana
ar
umb@@
new
ale
must
christian
ning
ukuth@@
et@@
ary
only
anda
just
made
sp@@
oz@@
use
iza
ubu@@
eko
let
kuy@@
hol@@
sin@@
uc@@
nges@@
godu
naye
israyeli
ngebanga
etha
wor@@
nabo
spiritual
ngokw@@
war@@
true
est
wal@@
nem@@
pre@@
children
ngendlela
being
oni
any@@
mar@@
take
ity
h
ethu
een@@
oy@@
now
uzoku@@
ally
witnesses
kwaphela
ra@@
ec@@
ain
ili
own
je@@
kwamambala
lakazimu
which
heart
well
ule
car@@
ene
itj@@
ah
son
omunye
khul@@
iko
before
ant
bakajehova
untu
keep
kwakhe
age
bel@@
kujehova
kun@@
nge@@
might
ri@@
father
become
ia
pr@@
amandla
fund@@
ely
mb@@
atj@@
however
boke
ness
ono
ings
ali
par@@
akw@@
feel
labo
ayo
ukub@@
ous
nokuthi
str@@
awa
used
learn
gr@@
comm@@
awo
me@@
was@@
inye
consider
go
abas@@
kajehova
bey@@
name
eleni
ug@@
bay@@
abela
most
nokho
ut@@
abanengi
words
kub@@
bese
ngam@@
am
lakhe
another
neen@@
ukuba
today
bath@@
christ
woke
akal@@
show
ye
ful
ones
rel@@
yoke
ngo
ibe
of@@
bew@@
naku@@
ize
ered
phila
lapho
abaz@@
ip@@
khuluma
abal@@
atha
umela
ila
uph@@
okuf@@
ling@@
nyaka
ekela
elele
ezing@@
uf@@
emp@@
alela
zoke
elako
ngokuthi
iqiniso
oma
tion
te@@
kobana
wen@@
siza
very
/
ade
kghani
wethu
hlangana
kangangani
ebenza
death
bo@@
any
sim@@
athu
isela
times
khuyini
great
ukw@@
uj@@
men
ations
sith@@
ezi
each
faithful
gu@@
ka
abh@@
lokhu
akhul@@
nengabe
kunjalo
two
ilo
abab@@
osi
serve
neb@@
amezwi
important
where
parents
ial
man@@
esiz@@
ngesikhathi
inter@@
atjho
sh@@
person
much
leyo
ty
est@@
oth@@
omb@@
iphi
hlala
ess
umsebenzi
ukwenza
john
fr@@
yo@@
ying
mo@@
ew@@
kungenzeka
ina
ical
truth
el
young
ban@@
land@@
ite
sel@@
get
•
ide
through
elel@@
izoku@@
iweko
esib@@
wini
kwethu
jalo
ukuphila
kwam@@
ter
iing@@
kul@@
ikela
wath@@
wom@@
uzo
ngil@@
ality
find
des@@
abantwana
il
bez@@
ithi
ight
umana
ver@@
david
study
idi
aza
kuzimu
ministry
ou@@
during
rec@@
ipha@@
unye
want
ithand@@
akhenge
uny@@
afuna
ve
ibizo
though
inc@@
kuth@@
say
krestu
namhlanjesi
kwalokho
loyo
*
iswe
ulo
ngab@@
ond@@
khumb@@
kom@@
arh@@
ema
tlhog@@
w
uze
ear@@
zakhe
isek@@
ezinye
har@@
isako
ekh@@
worship
later
pos@@
okung@@
kuf@@
isana
found
never
uma
ezulwini
sizoku@@
right
still
satan
part
ating
ngel@@
bam@@
ant@@
holy
ombuso
bonyana
ithando
ngiy@@
think
kwenza
wabo
kuye
act
com@@
web@@
budisi
x
dec@@
azo
qobe
tjengisa
iwe
g
usi
brother
igh@@
akghona
ebek@@
p
li@@
yet
iinhl@@
naw@@
told
oph@@
rem@@
izo
umoya
ezinengi
waba
ibhayibhili
les
doing
ndeni
iny@@
wan@@
ngokwesibonelo
apostle
dl@@
endaweni
eem@@
emba
ess@@
ref@@
uke
tl@@
ikosi
et
qiniso
mind
ilizwi
umel@@
ere
eminyaka
asi
zi
old
ited
service
oya
nabantu
preaching
usathana
ngem@@
enye
act@@
spe@@
news
cl@@
eki
ist@@
gave
means
while
okul@@
inikela
okufuze
iwa
pres@@
elders
bekang@@
po@@
wife
ngez@@
yena
set
ngiz@@
vis@@
wako
himself
view
ter@@
cho@@
new@@
ws
ask
eli@@
br@@
kube
ever
afund@@
abaf@@
place
ababelethi
conv@@
ola
ifunda
isibonelo
ngaphambi
ue
against
ej@@
wel@@
ekileko
isib@@
ds
andl@@
kukuthi
every
comp@@
ebandleni
isith@@
dr@@
bak@@
athulula
ay
cr@@
tjha
ahlala
esith@@
sebenz@@
wrote
off@@
peace
zethu
same
sam@@
ando
kum@@
really
ij@@
our@@
human
scriptures
article
athoma
akhuluma
esin@@
marriage
anointed
live
put
fully
lokha
ngim@@
eling@@
given
ist
ilung@@
law
ently
ekako
ny@@
indawo
ifund@@
abath@@
anc@@
look
ukela
peter
course
ukum@@
self
so@@
iphasi
ge
ually
zoku@@
elw@@
iindaba
ama@@
wis@@
felt
enu
ish
malungana
long
sakhe
too
qal@@
pri@@
servants
waz@@
fin@@
ast
abafundi
ch
si
lis@@
disciples
ikul@@
isi@@
ulula
fe@@
became
led
wisisa
helped
ze@@
okwenza
akam@@
gade
hope
ngib@@
angekhe
abofakazi
soke
atjengisa
wenza
sc@@
year
alung@@
home
kwathi
ngal@@
nal@@
ebeb@@
umo
ways
abadala
ukuhl@@
una
uhl@@
esihl@@
ks
serving
cabanga
ambala
wakho
ara
atlhog@@
inengi
eze
ngokuz@@
ahlang@@
ked
ourselves
cont@@
aqal@@
add@@
ukus@@
sur@@
uko
ard
often
prov@@
job
ry
anisa
iziyo
ya
always
came
ngi@@
ates
jud@@
amag@@
ibon@@
nobu@@
sic@@
bekung@@
kwe@@
acts
back
prayer
beg@@
iinkhathi
questions
indaba
del@@
qoph@@
wes@@
cted
nathi
uphi
moses
ents
ethando
hay@@
israel
njengom@@
psalm
had@@
id
som@@
fa@@
days
ngaphezu
jam@@
yom@@
rh@@
inv@@
ct
book
something
qakathekileko
ngeen@@
humans
loy@@
ibh@@
alele
living
ily
began
he@@
ye@@
azoku@@
akrestu
ction
understand
ake
apha@@
bus@@
iye
thus
away
endlela
hle
itjengisa
bazoku@@
land
baf@@
lethu
over@@
ci@@
sebenzi
kwesikhathi
do@@
iphatha
ima
abanga
umbi
okho
ocwengileko
ezimnandi
power
needed
ures
ubujamo
akwenza
ofakazi
ons
future
ithanda
ering
egade
ad
enzeka
ned
anel@@
ngani
possible
among
loke
together
whom
happy
fellow
ekw@@
cts
incwadi
iwo
ct@@
bl@@
joy
yes
bakazimu
iink@@
abi
sol@@
sin
qakatheke
cor@@
abazalwana
ious
yona
loving
indoda
ign
tjho
loc@@
appro@@
ives
nez@@
sub@@
wang@@
ening
matthew
ened
under
ement
bethel
kajesu
israelites
ands
making
uba
akuth@@
ethe
gen
endod@@
gh@@
giving
okomoya
kutjho
reg@@
ulung@@
aphezu
unywa
oc@@
msinyana
states
heaven
su@@
ngaphandle
fir@@
okom@@
ut
ekile
mon@@
ufuna
umpostoli
anako
umn@@
div@@
uthaza
okoza
hab@@
ized
enziwa
without
umbuso
ition
nofana
someone
nan@@
bethu
personal
close
pt@@
press@@
nel@@
waph@@
ukufunda
kwabo
meetings
im
ikhumb@@
ilanga
omkhulu
anakhe
elana
best
efa
three
esil@@
benefit
ikgh@@
esikhathi
afunda
onz@@
tjhad@@
imi
kungaba
abakh@@
holelwa
ezim@@
okuthoma
sebenzisa
ices
siph@@
kwakho
learned
iminyaka
ethi
both
babo
down
sec@@
asked
amab@@
nging@@
ments
ual
isel@@
form@@
way@@
nojehova
nozimu
hohl@@
ekele
sa@@
unga
phas@@
por@@
zom@@
abangani
ves
pho@@
phakathi
nabanye
hel@@
teach
amal@@
full
te
ebantwini
rather
cre@@
lokuthi
ill@@
sure
nw
person@@
ezela
purpose
counsel
ages
ipi
anyela
enc@@
ubh@@
continue
since
ku
ngas@@
umay@@
waf@@
go@@
ebenzisa
amath@@
iah
uzi
thina
og@@
akgh@@
ses
up@@
eful
lib@@
embekileko
utjh@@
ied
ikha@@
akatjh@@
care
wise
sisters
lul@@
inj@@
bar@@
themselves
ngubani
agela
coun@@
century
ma
ukuph@@
last
sibe
pract@@
obo
andela
▪
elikhulu
try
ities
united
ezo
ihlang@@
out@@
ship
kuhl@@
idl@@
husband
imisele
fl@@
sihl@@
bekufuze
akha@@
iziy@@
ngeb@@
lar@@
kam@@
sif@@
indod@@
face
isaya
imitate
wahl@@
coming
indl@@
hand
lam@@
knew
obho
ign@@
ained
hayibheli
knowledge
khonza
zabo
aya
concer@@
tre@@
wh@@
baptized
stud@@
yam@@
ory
experience
ngokuth@@
aka@@
mother
her@@
ngokukhamba
ifuna
called
ungileko
ikele
uthaz@@
ward
ezi@@
ngiziphi
isiza
requ@@
lom@@
endula
ngezinye
cono
iw@@
eso
bon@@
having
kiyo
isihl@@
jos@@
reason
v
fact
hard
oko
share
ume
nikela
wanted
ill
fo@@
neng@@
ngaph@@
friends
amak@@
wav@@
point
kunalokho
oda
endl@@
relationship
mina
house
kumbi
ilozi
wakh@@
tjhado
ngazo
illustr@@
ma@@
hlangano
elitjha
nguzimu
ithabisa
soon
ative
wokutjhumayela
ngehl@@
inda
izwe
ests
ps
ukwazi
order
language
gift
elinye
nob@@
bakh@@
lead@@
ereg@@
ans
ebenz@@
etj@@
married
adamu
nden@@
ains
abantwab@@
ors
less@@
vi@@
akathi
body
ikho
remember
ifan@@
ised
atjhad@@
kwaba
r
ended
esikhathini
ication
lakajehova
ulwa
prote@@
nini
bad
teach@@
mhlamunye
als
qin@@
holwa
sitjh@@
avoid
amad@@
abraham
thetho
ously
instead
baph@@
fanekiso
rul@@
wicked
pleas@@
dem@@
irh@@
sal@@
lead
uswa
ebhayibhelini
took
esithi
x@@
whether
enjoy
khumbula
fac@@
support
acc@@
nokobana
raro
ukuv@@
ences
pass@@
result
abisa
ulela
rhu
endleleni
although
trust
ba@@
isil@@
ukutjh@@
mat@@
moved
olo@@
holo
elweni
ling
message
nor@@
angeze
ekuphileni
ire
wena
thr@@
akala
endabeni
jo@@
pur@@
ric@@
ta@@
umane
kusukela
umnt@@
uv@@
jesu
qinisa
different
upon
loyal
kibo
bring
hamba
answer
respon@@
neth@@
abona
isebenz@@
ngikho
umzalwana
ters
done
lives
preach
kan@@
ifumana
hebheru
irhubo
organization
onakala
ilini
lik@@
mag@@
saw
bahl@@
itjela
ezis@@
omela
ike
ot@@
respect
ancani
itjho
eny@@
hlang@@
endulo
kind
head
ish@@
difficult
akaz@@
matter
amukela
eliz@@
nabod@@
wami
uml@@
embiso
reve@@
imin@@
tly
amadoda
consid@@
fan@@
adam
ziz@@
toward
ipho
ihle
imitlolo
phil@@
again
express@@
ezihl@@
elis@@
apho
strong
fulfill@@
andaza
qophiso
okhu
better
thinking
aman@@
qeda
ukung@@
urh@@
enzako
unj@@
arr@@
ezib@@
embeka
pray
iindlela
tjhumayela
umthetho
upitrosi
lela
ek
ukukholwa
associ@@
cannot
hor@@
perhaps
od
helebha
okoz@@
eleth@@
ivela
phayona
iingoma
ple
thand@@
kunye
mean
zib@@
qalana
desire
buy@@
songs
elin@@
babantu
free
to@@
val@@
city
situation
sister
sy@@
mor@@
ombe
ayi
ngezinto
wat@@
bad@@
akath@@
uye
ebh@@
abahl@@
lith@@
than@@
comes
eleleko
ikhathi
iincwadi
few
pati@@
ta
sem@@
imbi
lh@@
needs
yourself
eas@@
alokho
emuka
ekosi
ca@@
idela
receive
weli
apha
woman
change
qinisek@@
cond@@
der
qondo
nt@@
wisdom
ingasi
mod@@
babe
amth@@
athe
esinye
iimb@@
school
ikholo
likely
kanengi
problems
the@@
phumela
believe
wela
alwa
umayela
andelako
emsebenzini
righteous
vers@@
nange
prove
remain
ian
wad@@
bac@@
ur
accep@@
je
hlan@@
oba
using
eqinisweni
sele
ugg@@
next
clo@@
pe
reas@@
hold
utjha
kindness
ame
tel@@
endaba
neem@@
zakazimu
esis@@
akan@@
child
ulul@@
ethekileko
ukuk@@
jamo
umar@@
ner
ezulu
lotjha
kuzoku@@
ukh@@
ena
follow
itlhog@@
page
wesi
ion@@
akwazi
ukuthula
sed
ser@@
ngesikhatheso
encwadi
look@@
feelings
othi
serv@@
jwanisi
ukuf@@
iinqunto
thandazo
between
gives
mankind
decisions
esimini
abatjh@@
tha
otj@@
bathi
bekube
umma
elithi
alani
nga@@
show@@
nawe
red
trib@@
ekhe
besele
liy@@
thought
elelwa
’@@
speak
heavenly
zing@@
war
ukubona
ekuthomeni
eyes
ians
jerusalem
akha
pray@@
und
sak@@
ingly
loved
direc@@
you@@
went
asiza
especially
exc@@
kithi
umth@@
nawo
athulul@@
yakhe
luke
enzeni
ese
judg@@
ihloko
bekas@@
inz@@
ens
low@@
little
ngan@@
watlola
gener@@
ak
phambi
nations
ohl@@
benef@@
isaiah
bami
amalung@@
okobana
ibandla
esig@@
witness
ible
iinth@@
asisiza
kuphi
present
acabanga
tjhaba
ipilo
qinisekisa
tell
ongak@@
inta
akajesu
reading
rom@@
imb@@
wrong
kil@@
prom@@
dev@@
umayeli
food
talk
ject
pa@@
ending
isizo
unt@@
anje
rom
’t
izenzo
sing
athana
died
ebhayibheli
batjh@@
ande
itjhaph@@
walo
taking
enzela
question
known
left
fundisa
iziyweni
khenge
ef
real
gand@@
nayo
tle
gre@@
ify
indi
imagine
iting
kholwa
ango
lithi
udavidi
aphi
therefore
isebenzisa
lula
anyana
clearly
ithemba
ephas@@
ransom
kwami
ety
ukrestu
members
ihlangano
ukele
special
asil@@
ada
siv@@
esikh@@
medit@@
qun@@
yp@@
proph@@
auth@@
ified
shepher@@
refle@@
resurrection
all@@
imothi
abav@@
zakajehova
akhulu
pioneer
sacrifice
law@@
ude
timothy
akas@@
leg@@
alwana
eleli
tjhaph@@
joseph
teaching
isisa
righteousness
uwa
sid@@
di@@
received
ea
wak@@
sheep
apostles
ning@@
ding
following
eve
aphila
kangaka
iphe
esiya
khulekela
ember
esihlokw@@
ah’s
ngasuthi
kho
okuz@@
enj@@
ngaye
ifundisa
ebey@@
okwenzeka
bukrestu
fine
early
amanengi
past
col@@
world@@
form
iraro
isiph@@
tem@@
adeni
azizwa
asib@@
ubaba
ngaso
honor
ubuhlobo
obedi@@
ezith@@
amajuda
seme
alisa
akazi
itlol@@
amaz@@
certain
distr@@
qualities
nehl@@
attitude
ten
publish@@
angelo
wants
esibili
encourag@@
second
ezwa
esiph@@
ngokobana
fore@@
buth@@
nakho
isweni
spiritually
amanye
aga
udavida
andle
anya
den
courage
onipha
promise
comfort
lim@@
lif@@
ukwenzela
mis@@
less
embekile
ka@@
endawo
adango
akanipha
beka
uleko
instruc@@
system
weng@@
going
promised
athanda
ukileko
bob@@
akes
ngin@@
perfect
hajadiswa
similar
friend
examples
isin@@
kwab@@
adang@@
akwethu
arha
uit
real@@
until
bro@@
ikho@@
nokuz@@
bekan@@
kwang@@
pris@@
account
draw
zam@@
position
rule
enzo
side
engo
watchtower
lin@@
andleni
matewu
eness
far
mill@@
list@@
eenhl@@
jews
enem@@
kungakhathaliseki
ngojehova
lord
gro@@
arly
bav@@
move
ute
nesikhathi
kuthi
slave
akalo
uso
juda
ifunde
once
imibuzo
ekhaya
god@@
kuv@@
kha@@
forever
elani
prayers
prod@@
med@@
ithabo
ululo
money
abelo
ikelwa
prophecy
mot@@
engi
inst@@
nor
atjela
expl@@
eroma
ukudla
ungu
azib@@
eminyakeni
ahluko
willing
esihle
phamb@@
followers
indele
awula
ital
sent
ngujehova
eks
tjhana
got
senze
nami
fur@@
imali
ites
according
indeed
truly
phy@@
tjela
ekho
une
rha
provide
heb
corinthians
ghodlhel@@
ezinto
mbi
umi
kwanga
ithandaz@@
tal@@
regarding
aqiniseka
umele
overse@@
sense
pra@@
ature
ipha
enjoy@@
exam@@
ented
false
ack
ivumel@@
ihliziyo
cult@@
around
ann@@
ange
stay
ined
cla@@
kwenz@@
ain@@
ep
om
ingcenye
abatjha
orobh@@
discus@@
ujos@@
ngakho
allow
ree
conduct
principles
c
abrahamu
stand@@
ext@@
kab@@
ace
saf@@
ole
ust@@
ase
clear
makes
esem@@
great@@
courag@@
ambo
fered
amba
case
saying
busa
umhl@@
zabantu
shows
nation
mhl@@
ls
sons
born
hal@@
ancient
ambisolawulo
asa
akaniphileko
bh@@
zi@@
ngokomoya
umba
thing
hon@@
akhona
ubuhlungu
ekeli
expe@@
heard
ome
satan’s
ngis@@
appl@@
decision
here
nengi
shor@@
iimfund@@
lor@@
kokuthoma
wengileko
greater
ths
edwa
ention
omi
intando
azini
lawo
govern@@
suf@@
cause
nguye
abak@@
ezin@@
ezihle
ord@@
va
taught
enarheni
wek@@
hag@@
ekelwa
qhema
ethiweko
everlasting
tlol@@
awe
ukuze
eemb@@
number
ict@@
information
sihlale
succ@@
fect@@
rep@@
aj@@
umaneka
wo@@
khathi
indodana
dead
umlayezo
embela
lakho
sethu
served
ipp@@
fel@@
kuqakathekile
hod@@
messi@@
bib@@
encwadini
kufund@@
romans
ukukh@@
esiweko
ath
sup@@
umusa
ondo
privilege
strengthen
aqalana
kwakajesu
ested
paul’s
isiluleko
off
obek@@
abam@@
ngisiphi
erly
ube
turn
watch
ulu
abuy@@
bebang@@
ful@@
osisi
ngokuvumelana
everything
urg@@
sar@@
sacrif@@
ately
incl@@
adi
ikhasi
terr@@
turned
akuf@@
isele
kazi
hohlak@@
abay@@
adv@@
with@@
ution
obey
ngokukh@@
ress
ir
ority
wathoma
aneleko
ded@@
mentioned
ured
attention
nqopho
ulunga
small
circumstances
describ@@
nazo
ziy@@
iinceku
promises
ulako
sor@@
prog@@
matters
eside
moya
immor@@
ngathi
mat
tim@@
ingisa
amas@@
refer@@
four
ugul@@
khulukhulu
aliseka
umelela
yethu
concl@@
ides
daniel
zis@@
rofid@@
paradise
opportunity
challeng@@
nqoph@@
igned
appointed
ach@@
genesisi
e’s
er’s
ached
bakho
gar@@
writ@@
nandi
ines
tjha@@
strength
maintain
abad@@
beli@@
nalokho
valu@@
accept
serious
unity
working
ukudlula
consci@@
qale
wisise
ving
qinis@@
ail@@
brought
just@@
kuhlangan@@
plac@@
apply
blessings
sou@@
qangi
whole
wayo
amhlanjesi
started
ukuy@@
daugh@@
elder
emv@@
satis@@
lola
phath@@
nothing
meeting
eja
ood
wezi
uel
obeka
sab@@
aining
ver
understanding
contr@@
deep@@
ukuya
dla
ast@@
udade
otjh@@
control
inspired
ebeng@@
atlol@@
ukuthini
ingan@@
listen
blessing
kwak@@
theth@@
tur@@
ications
helps
le’s
grat@@
kept
abangela
ujwanisi
ukufa
bekaz@@
ke@@
osa
um
publ@@
ethileko
temple
action
ambulo
anj@@
adwethu
lokuthoma
umbuzo
wona
kulapho
ethemba
shweny@@
prophet
enziswa
suffering
women
ov@@
aye
kulung@@
arrang@@
uw@@
abange
nomunye
iseni
ezil@@
bur@@
umisa
noah
wano
ikelo
ants
qakath@@
ugulul@@
abant@@
kizo
religious
ind
isif@@
ilungelo
will@@
memor@@
iki
pol@@
boku@@
anger
opha
freedom
students
ither
ebhayibhili
please
appear@@
occ@@
revelation
amaph@@
neg@@
angels
embek@@
ngo@@
kwakazimu
sek@@
esim@@
affe@@
pect
ns
ived
events
cha@@
isono
angal@@
exerc@@
incani
high
matt
material
lulileko
khosi
odwa
alanga
recogn@@
jerem@@
afumana
ony@@
akalungi
ngozimu
atjhadi
wephasi
ished
elethi
iselela
fear
kungeb@@
mba
per
uthukisa
reason@@
kuzokuba
standards
angas@@
sikh@@
ezimbi
ngokuhl@@
engise
weqiniso
anyone
wokuthoma
despite
sovere@@
orig@@
esifan@@
ert
amakha@@
don@@
ambiso
night
ern
destro@@
mist@@
individuals
qed@@
icabanga
occas@@
isihloko
epil@@
not@@
return
along
udisi
itjhumi
ngaphasi
hlobo
ndawonye
sins
scriptural
allow@@
ibona
akwakhe
pict@@
neigh@@
kilokho
umk@@
akar@@
la@@
james
olomoni
uro@@
lot
bom@@
liter@@
anye
nokuth@@
ekonz@@
dist@@
kwabantu
okuhle
baba
eziz@@
min@@
afundi
dala
ngeze
showed
meaning
ahla
azange
ukuhlala
near
andisa
gc@@
peri@@
amehl@@
itlhoga
ubab@@
wazi
aking
itjhaba
char@@
ida
kuph@@
older
alis@@
pages
viol@@
ithuba
congregations
travel@@
isigaba
iimp@@
owethu
ezwi
direction
quic@@
kill@@
commun@@
ability
eduze
enzi
seen
ezint@@
mate
oyo
cabangela
wabantu
jayel@@
bre@@
ebe
focus
ncani
helping
kimi
ulumende
esif@@
usiso
chang@@
ough
ass
coca
inarha
my@@
event@@
umfazi
abon@@
branch
sometimes
tho
proverbs
erved
ngob@@
translation
appreciation
ikar@@
choose
believ@@
hezek@@
inikele
tjheja
umkrestu
fav@@
view@@
esizeleko
usuku
half
keep@@
esikha@@
sithi
asi@@
wide
works
religion
group
wenakhe
field
actions
fer@@
ong
let@@
ikolo
shar@@
involved
vu
ejerusalema
obh@@
surv@@
cam@@
aleli
ngith@@
kude
couple
ukahlukeneko
ekulu
ekonzweni
famil@@
sakazimu
wr@@
lalela
health
qalene
country
kgh@@
ngokupheleleko
phezu
nalabo
enceku
experienced
bor@@
asebenz@@
ngobu@@
ikhamb@@
ilwazi
esiy@@
ikonz@@
lear@@
haw@@
vo@@
fre@@
eminengi
lived
ukud@@
akuk@@
ubufakazi
senza
esifundweni
determined
hoko
itjha
onza
othileko
iful
los@@
mil@@
believers
affect
liz@@
ongakala
ithetho
tu
yeb@@
cabang@@
feel@@
uzwa
akuz@@
wish
ambi
nangabe
sm@@
tribulation
igugu
ben@@
f
atjelo
ukucabanga
advice
iiny@@
ugulula
anything
can@@
ired
set@@
stand
abeni
thous@@
seb@@
ngiyiphi
ped
written
indla
prepar@@
hlangan@@
hear
abez@@
omuso
nep@@
part@@
hly
resurrec@@
deep
porofid@@
akhel@@
kwenzeka
ney@@
lapha
icabang@@
ekuth@@
babyl@@
everyone
ukuthembeka
confidence
ihlala
transl@@
uhlungu
benza
nangoku@@
kwazi
abele
evidence
amazizo
yinto
ident@@
ukukhuluma
reli@@
cenye
enzani
nesi@@
imu
encouragement
rad@@
akasathana
enziwe
amala
invol@@
usako
ems
andakanya
mark
itions
alon@@
ndenakhe
effort
interest
pen@@
weso
omo
alelwa
ikhuthaza
sam
ibonelo
ucabange
doubt
nezinto
ibhide
thy
kiwo
appreciate
abapostoli
accompl@@
umnqopho
isifundo
cer@@
erg@@
pheze
tor@@
lost
qinileko
ved
wezulwini
sav@@
note
fer
yang@@
ukufumana
okungapheliko
enge
activities
eless
isipho
izwi
qiniseka
ther
assignment
iselwa
nendlela
nomuntu
comple@@
anx@@
happened
hearts
answers
issue
leave
lev@@
genesis
atjhuguluko
already
encourage
emhlanganweni
beaut@@
umbono
build
akul@@
esikolweni
ngendaba
abrahama
iwani
certainly
isani
else
etjh@@
gover@@
ular
friend@@
ulala
nesibindi
creator
chur@@
ilimi
including
indic@@
nojesu
zebhayibheli
eat
akhamba
ahluk@@
afaneli
greek
public
asebenzisa
okhunye
hebrew
atewu
resul@@
efforts
thoughts
namad@@
sho@@
sign@@
isiqunto
eziweko
reach
ebez@@
iss@@
yes@@
enzakalo
itive
ngabo
waneni
wonderful
bekazi
kuliqiniso
creation
kuwe
akajehova
kungas@@
necess@@
precious
ru@@
abaph@@
fanako
iled
labantu
bce
anu
khulume
izimvu
plan@@
esid@@
ethwa
sakho
angeli
sir@@
azar@@
kno@@
devil
inds
exist@@
akham@@
ingozi
glory
ific@@
changes
appe@@
korinte
command@@
unom@@
hadis@@
lwana
ach
cons@@
iyelel@@
itrosi
baptism
chapter
wenze
kangangobana
slav@@
simply
tend@@
abalandeli
ifa
ukile
ocr@@
explained
okutjh@@
usisa
ully
provided
success@@
read@@
cal@@
zebhayibhili
benze
ukutjhumayela
named
sight
eyi
hear@@
regul@@
ikel@@
lish
enjalo
spoke
based
var@@
ising
harmon@@
khulum@@
izaga
emihleni
eent@@
discipline
history
spec@@
goal
esik@@
training
includ@@
created
humility
ne
akukafuzi
dep@@
coc@@
apowula
sex@@
offer
worshippers
osisiza
eq@@
ethela
covenant
easy
circ@@
grow@@
house@@
kufanele
iving
singaz@@
wele
bless@@
esikhulu
efumul@@
ikelela
ements
ivate
emva
ngu
start
em
elweko
step@@
explain
ilities
sakajehova
angela
kutlhogeka
ujamweni
uter@@
olweni
den@@
taken
kor
okuthileko
emot@@
imisebenzi
humble
amahl@@
mas@@
complete
risti
inceku
isikh@@
imperfect
abo@@
effect
jwa
happiness
stop
embisa
kubonakala
sever@@
opo
ide@@
andaz@@
wakhuluma
ikhamba
okutjho
enyama
abathanda
vir@@
powerful
iinthombe
ery
abisako
repor@@
ional
ngawo
anikela
responsibility
ided
wanikela
continued
azibuza
table
solomon
yokuz@@
crow@@
z
agele
paragraph
tjhijilo
uzu
anti
endure
ngamandla
thini
clos@@
hur@@
rest
iyo
haph@@
omuhle
sini
elib@@
ukuhlakanipha
desires
nokuthula
regularly
ngath@@
ipho@@
khamb@@
head@@
igi
kuqakatheke
ively
ational
io
goals
draw@@
ihla
mumuntu
partic@@
rejo@@
sen@@
sik@@
alone
mary
akhumb@@
iimbon@@
grow
kha
langa
lhog@@
wabona
atshweny@@
happen
ujak@@
evangeli
discuss
whatever
press
da@@
ababili
nakw@@
arm@@
lingisa
develop@@
utho
uses
clean
ayed
kind@@
anakho
ngalo
ekhulu
idel@@
gri@@
thandaz@@
longer
nezinye
zombuso
minist@@
univer@@
watjela
austr@@
emihlanganweni
die
abathembekileko
umdala
increas@@
unya
ngamunye
eje
buk@@
lami
ther@@
alls
iku@@
akem@@
rof@@
atja
onisi
letter
amuk@@
proved
lokobana
ham@@
mission@@
mirac@@
rup@@
wo
ngaz@@
trials
kwez@@
christ’s
amabili
ungelo
itho
cap@@
know@@
oug@@
tions
fath@@
unjwa
lhag@@
ekufuze
isize
sakajesu
elij@@
iding
zakho
tried
pioneers
merc@@
lil@@
record@@
flesh
iswano
heart@@
ets
ibalela
influence
hlanganyela
imit@@
uthuk@@
foretold
isig@@
amakhosi
building
sifuna
afuni
seng@@
bekam@@
ragela
uyise
underst@@
iningwana
iqala
commit@@
fil@@
blood
earthly
nabaf@@
mic@@
ihlanganisa
trans@@
adl@@
decided
iphil@@
ehle
yabo
edly
ihlo
streng@@
isiz@@
bafund@@
realize
ubuntu
cor
rar@@
umtlolo
ought
spr@@
hayibhili
mathupha
whose
ombono
happ@@
hebre@@
tic@@
ready
mos@@
psal@@
liv@@
disi
gen@@
hayibh@@
umelana
op
lolo
faith@@
heaven@@
artic@@
alungana
lho@@
shwen@@
fazi
giv@@
qh@@
evid@@
jehova
uni
ment@@
dav@@
ult@@
watch@@
tlolo
qo@@
differ@@
ul
lang@@
ifundo
ol
nger
langu@@
fi@@
de
okh@@
j
devel@@
oke
confid@@
ayini
beth@@
khamba
isa@@
hig@@
cus@@
ngapheliko
hi@@
eneko
christ@@
fanek@@
inyaka
call@@
atjhugul@@
accoun@@
simil@@
cle@@
afan@@
qual@@
pers@@
low
determin@@
king@@
ekul@@
ste@@
jesi
uman@@
akeni
ubo
struc@@
answ@@
jes@@
cial
arheni
situ@@
under@@
experi@@
res
tower
engisa
miss@@
efum@@
activ@@
umz@@
ich
isebenzi
fill@@
jay@@
ezimb@@
heal@@
ezek@@
ship@@
ural
kutlhog@@
ngokuph@@
individ@@
orinte
isti
chall@@
chr@@
iness
st
andak@@
inted
thes@@
israel@@
hajad@@
hlanganweni
privileg@@
hok@@
upha
centur@@
appreci@@
child@@
nd@@
ears
jeho@@
ism
aching
aying
star@@
ende
qakathekile
ihlangan@@
cour@@
poss@@
fakazi
help@@
ild@@
gl@@
continu@@
uring
ose
haya
compl@@
akaniph@@
las@@
righ@@
porof@@
eliko
postoli
import@@
pione@@
follow@@
ild
wic@@
qunto
eld@@
apostoli
els
rece@@
creat@@
imag@@
organ@@
ult
port@@
broth@@
script@@
lol@@
sacr@@
foc@@
influ@@
ust
worshipp@@
suppor@@
pose
nesib@@
witnes@@
aro
ambis@@
paragr@@
pat@@
wro@@
jad@@
apt@@
esifund@@
peop@@
cou@@
fering
princi@@
lish@@
ew
int
mater@@
itude
ngokuv@@
opport@@
gif@@
ibuzo
cani
resp@@
ayezo
spir@@
shipp@@
kang@@
rev@@
ozi
mean@@
abraham@@
helebh@@
ewu
husb@@
eed
responsib@@
esiw@@
earth@@
ans@@
there@@
tri@@
appo@@
ijilo
hum@@
ances
apost@@
disci@@
azimu
ays
wond@@
diffic@@
row@@
maint@@
uyini
sl@@
dlula
conduc@@
bod@@
oub@@
iver@@
uly
ples
humb@@
eph
enced
ombana
descr@@
some@@
tro@@
parad@@
ugh@@
ani@@
thin@@
obana
christi@@
who@@
cent@@
ply
ioned
itu@@
trav@@
doub@@
emsebenz@@
grou@@
ises
spiritu@@
msiny@@
kib@@
emihl@@
é@@
heav@@
scho@@
pow@@
izim@@
ple@@
ation@@
owula
hist@@
regar@@
tol@@
aken
every@@
–
lasting
numb@@
jerusal@@
yana
ards
è@@
relig@@
she@@
lood
ept
ahlukeneko
ujam@@
an’s
jer@@
priv@@
uth
knowled@@
alungi
akazimu
fles@@
afuzi
andeli
ikhatheso
fol@@
tod@@
sat@@
chap@@
fic@@
eld
avo@@
ather
alisek@@
lit@@
adam@@
lef@@
estions
them@@
encwad@@
mir@@
andi
assign@@
anele
ebant@@
erusalema
ngub@@
ility
dif@@
ozimu
ano@@
thom@@
inspir@@
●
contro@@
ugu
·@@
fam@@
organiz@@
uku
thombe
pub@@
mem@@
ok
joh@@
theso
solom@@
circum@@
ousness
|
é
ustr@@
ley@@
tow@@
qopho
wi
ngokwes@@
ubuhl@@
understand@@
restu
ʹ@@
zimu
khu
inte
encour@@
aphela
ey
uhle
ung
reco@@
hous@@
ayeli
ongs
ebher@@
nj@@
mess@@
agr@@
ught
aph
org@@
discipl@@
awulo
ous@@
contin@@
ulation
bapt@@
iinc@@
accor@@
need@@
gn@@
relation@@
akhath@@
marri@@
inform@@
,@@
kangang@@
led@@
ms@@
dani@@
gho@@
shi@@
fana
ever@@
endaw@@
wit@@
erful
sla@@
forts
ower
decis@@
ith
ife
hayibhel@@
hosi
ó@@
fal@@
clear@@
how@@
desp@@
bet@@
kod@@
hap@@
í@@
ü@@
udav@@
build@@
cially
ainly
>
obe@@
sac@@
ö@@
aut@@
©
rection
sist@@
mes@@
h’s
ven@@
hayibhelini
ham
minis@@
uch
termin@@
your@@
prin@@
embers
ivid@@
erc@@
yl@@
eminy@@
$
eting
ã@@
ul’s
pher@@
nec@@
scri@@
though@@
ihlanganweni
math@@
sel
estion
apos@@
ren
dom
ô@@
congreg@@
ñ@@
dra@@
aliseki
thel
angi
matthe@@
prover@@
ater
usal@@
⁠
hus@@
á@@
him@@
infl@@
timoth@@
qinisweni
ezu
ound
ʹ
fri@@
inth@@
eku
circumst@@
cert@@
fid@@
what@@
ukhulu
bs
coven@@
rosi
ú@@
fut@@
heb@@
abra@@
æ@@
ambisol@@
q
-@@
fect
ulum@@
․
ה@@
etings
á
ave
cir@@
%
onye
freed@@
cong@@
mhlam@@
selves
uals
ש@@
פ@@
ׁ
נ@@
ה
ä@@
ç@@
fore
oci@@
ough@@
ndaw@@
—@@
­
jehov@@
ghodl@@
ʼ@@
ł@@
ining@@
wadi
corinth@@
ʽ@@
à
ו@@
י@@
‛
phileni
í
ibhel@@
ł
ø@@
stem
olom@@
ë@@
secon@@
י
ä
å@@
preci@@
jh@@
revel@@
fort
tog@@
hebher@@
righte@@
&
worl@@
wanisi
à@@
ş@@
thomeni
stead
ö
ween
è
anci@@
isra@@
pion@@
ó
ï
š@@
ï@@
ú
°
kungakhath@@
ucc@@
ezul@@
­@@
rayeli
\
⁄
ileg@@
resur@@
:@@
wha@@
prophec@@
espe@@
ething
nex@@
haps
probl@@
ʺ
uld
+
