<unk>
<pad>
<s>
</s>
.
,
the
to
a
:
of
kuti
ndi
and
?
“
”
in
that
)
(
we
—
ed
Yehova
is
-
for
s@@
al@@
wa
anthu
ing
Mulungu
anali
amene
na
Jehovah
his
pa
you
t@@
an@@
I
za
be
on
m@@
was
p@@
​
e
kwa
am@@
a@@
1
with
w@@
not
us
l@@
he
i@@
ku@@
M@@
y@@
in@@
s
as
will
m’@@
our
ya
have
zimene
it
are
es
Kodi
at@@
il@@
A@@
k@@
S@@
ndipo
i
c@@
or
can
z@@
f@@
as@@
’
ang@@
ak@@
ku
la
d@@
ac@@
u@@
ena
b@@
kwambili
un@@
Yesu
God
ap@@
e@@
re@@
er
zinthu
n@@
The
im@@
ca
Jesus
2
C@@
from
ana
P@@
o@@
who
r@@
it@@
they
ol@@
g@@
;
their
en@@
t
Bible
what
do
on@@
kukhala
by
er@@
K@@
ake
cifukwa
L@@
v@@
o
all
3
h@@
one
nchito
ab@@
an
adz@@
What
E@@
nthawi
‘
ad@@
is@@
him
ila
at
y
ali
ik@@
4
ar@@
5
ag@@
th@@
T@@
had
people
H@@
this
el@@
your
O@@
God’s
about
them
ma@@
al
op@@
ani
wo@@
iye
kapena
R@@
ul@@
mmene
tim@@
6
were
Koma
u
N@@
bwanji
How
G@@
W@@
ela
kul@@
I@@
would
ngati
when
st@@
!
did
ic@@
um@@
ciani
A
8
mtima
ti@@
ly
mwa
Jehovah’s
D@@
id@@
os@@
so
es@@
co@@
ay@@
and@@
mu
kucita
om@@
ika
wake
In
tr@@
ers
munthu
ate
my
B@@
12
akhala
help
7
has
anga
ip@@
yo@@
kudz@@
time
mo@@
10
b
15
U@@
how
ur@@
9
ambili
Iye
wa@@
’s
Z@@
nd@@
ch@@
may
monga
We
onse
lo@@
zo@@
anso
life
ine
pamene
ation
love
11
kuk@@
He
n’@@
or@@
anal@@
Y@@
ala
F@@
those
aku@@
13
ted
anap@@
se
14
se@@
itsa
ent
me
awo
kum@@
ana@@
kut@@
bwino
zaka
but
ni
ci@@
k
its@@
ile
more
Baibulo
koma
zonse
aw@@
zimenezi
idwa
zina
ok@@
J@@
her
az@@
us@@
ts
ed@@
kus@@
dis@@
ut@@
po@@
zambili
1@@
some
good
ig@@
apo
et@@
cimene
ting@@
17
kup@@
16
en
ion
able
many
ies
iya
con@@
imene
edwa
also
ec@@
Conco
ho@@
could
ex@@
anati
work
make
wina
out
thandiza
od@@
way
But
em@@
ir@@
ated
uk@@
been
j@@
When
if
mu@@
eza
zim@@
zin@@
19
iz@@
others
cakuti
moyo
qu@@
need
does
should
ako
wathu
ili
ano
end@@
ama@@
af@@
such
20
ance
eka
ond@@
Kingdom
ot@@
ula
wan@@
even
things
ing@@
It
etsa
ro@@
n
mau
lim@@
faith
cake
Ndipo
ind@@
18
pro@@
iy@@
abale
other
nkhani
Paulo
ats@@
An@@
Baibo
if@@
pl@@
ent@@
tion
example
wac@@
ek@@
Ngati
M’@@
maganizo
ment
19@@
up
par@@
ona
lapansi
Ufumu
ale
she
no
ph@@
uka
mavuto
Paul
dziko
lake
akhale
kudziŵa
ally
up@@
dz@@
than
idz@@
umoyo
For
for@@
ou@@
athu
m
24
there
ity
ence
ep@@
world
le
Nd@@
N’cifukwa
ic
ao
said
Why
years
ive
ina
funa
no@@
ting
l
because
first
21
brothers
elo
ndiponso
est
end
If
ely
anu
see
earth
ati@@
mal@@
congregation
They
As
rel@@
h
mfundo
eni
cikhulupililo
family
ez@@
padziko
ele
atsa
zos@@
imbikitsa
pre@@
man
ev@@
ful
Nanga
ve
ha@@
like
masiku
cl@@
Mwacitsanzo
kh@@
says
comm@@
tin@@
day
ngakhale
kuy@@
made
amba
ob@@
give
22
spiritual
amenewa
enso
come
iŵ@@
children
kuona
cit@@
Christians
ite
amb@@
Anthu
Ngakhale
sp@@
ary
uza
Ku@@
This
oy@@
d
must
these
udz@@
Mboni
ning
into
ong@@
aona
itse
ass@@
ia
wor@@
eng@@
know
Christian
dzina
mum@@
ati
mung@@
ayamba
anakamba
tidz@@
age
its
onetsa
acita
inali
]
[
limene
23
anak@@
cin@@
only
onda
over
Komabe
und@@
sa
ter
akhal@@
tiyenela
emb@@
ear@@
And
ayenela
ung@@
Read
ise
uthenga
sin@@
You
kupita
Pamene
Ŵelengani
show
mw@@
og@@
amal@@
Mau
take
ita
Iwo
cim@@
imba
res@@
zi@@
ophunzila
tik@@
sh@@
enga
acit@@
ankh@@
wam@@
E
mun@@
ents
cikondi
pr@@
funika
lin@@
wel@@
str@@
iwo
kun@@
well
5@@
new
ch
th
ant
just
zing@@
pam@@
be@@
uc@@
Witnesses
ter@@
ations
own
umene
wabwino
’@@
amat@@
mkazi
ar
read
kodi
ts@@
might
feel
mwana
spirit
itsidwa
banja
ankha
ty
anat@@
6@@
ings
That
used
ezeka
ide
pos@@
io
att@@
being
per@@
utsa
which
ib@@
anay@@
wal@@
learn
anacita
am’@@
king
very
imeneyi
mbali
ri@@
now
am
amv@@
V@@
malangizo
ous
ness
ra@@
ef@@
use
rec@@
then
ain
ones
So
pe@@
aŵ@@
mak@@
el
ndiye
mos@@
true
cabe
Satana
become
komanso
gr@@
et
Mar@@
uz@@
makolo
ered
ambila
citsanzo
ndin@@
p
ikh@@
ne@@
col@@
war@@
des@@
com@@
ions
off@@
ola
ever
ure
gulu
4@@
fun@@
elek@@
before
ying
Christ
ice
anda
wanga
ess@@
oka
heart
any
Al@@
aka
28
times
iv@@
n’n@@
serve
azi
w
25
wos@@
afunika
8@@
pres@@
iyo
O
death
words
told
acite
anja
cr@@
njila
aon@@
m’Baibulo
av@@
m’dziko
amas@@
ezi
wap@@
mp@@
Mat
parents
mas@@
keep
ath@@
te@@
ied
afuna
each
cho@@
important
zimenezo
right
Aroma
ots@@
kuphunzila
name
si
coonadi
empha
why
oni
person
tions
after
N’ciani
mzimu
utumiki
aliyense
zinali
faithful
olo
N’@@
ish
truth
ect
wanu
atil@@
AN@@
win@@
7@@
most
we@@
eleka
ikila
amap@@
su@@
find
ates
kumwamba
etse
ike
get
pan@@
say
much
two
il
zake
Akristu
30
Word
mphamvu
ny@@
alila
ud@@
kutumikila
ory
mudz@@
man@@
odz@@
men
iko
amikila
fully
udindo
awa@@
*
old
Nthawi
ce
anayamba
anas@@
ere
gro@@
where
lonse
ach@@
vis@@
ves
ited
want
aph@@
afun@@
anam@@
kw@@
young
tsiku
Luka
To
mwa@@
opanda
m’ma@@
akulu
John
zabwino
ristu
publ@@
ks
wila
ating
atu
another
atithandiza
iyana
ipatsa
si@@
sit@@
zil@@
zip@@
emba
wol@@
nyumba
found
tifunika
iza
study
ue
oŵa
anag@@
great
Yohane
ight
ife
reas@@
etsela
umb@@
ministry
Do
zik@@
sa@@
ezela
kumene
through
kuwa@@
ilani
eph@@
tly
hunzitsa
ipeleka
20@@
kug@@
acitika
akamba
Cifukwa
li@@
wil@@
exp@@
ther@@
ay
yake
ah
Aisiraeli
worship
makhalidwe
Atate
fo@@
ng@@
Mateyu
lina
never
ayo
Yes
cre@@
mwac@@
act
mpingo
kuposa
today
pamodzi
00
However
nkhawa
me@@
ets@@
over@@
dr@@
okhulupilika
tiz@@
ality
har@@
preaching
mis@@
ands
Satan
wo
Th@@
abe
ama
kuf@@
mumpingo
ws
though
Kuti
ill@@
cis@@
anz@@
33
One
David
yenela
acititsa
akuti
kud@@
nkhondo
26
ane
ion@@
do@@
wok@@
gave
bo@@
kung@@
wonse
san@@
akh@@
part
led
inu
kub@@
witsa
news
ndim@@
Mose
cing@@
wala
r
akale
alongo
oc@@
consider
27
ds
aonetsa
Sal
29
kum’@@
Davide
atithandize
kuc@@
mat@@
Ak@@
edwe
pakati
kukh@@
Salimo
ŵ@@
onkh@@
le@@
At@@
Father
conv@@
live
inter@@
After
gu@@
kukamba
apostle
f
ulila
Ml@@
doing
sanali
eb@@
ug@@
nawo
ciliconse
mpaka
mwamuna
kukonda
atumiki
Pa
same
map@@
ow@@
go
mb@@
zol@@
cil@@
idwe
place
given
kulu
nao
amu@@
elela
article
tic@@
lakuti
sel@@
kale
abwino
Tim@@
fr@@
ikondi
helped
adi
cop@@
cap@@
disciples
felt
wat@@
ign@@
limeneli
ways
au@@
fac@@
thupi
izi
Ndi
32
mag@@
ibe
malo
Onani
kugwila
x
tha
tili
bas@@
onz@@
ize
aniza
ilitsa
angalala
Kristu
mon@@
long
ently
sim@@
akul@@
tinali
m’Baibo
future
oyo
ked
naye
means
think
See
wife
31
Some
mind
id
servants
colinga
At
of@@
Akor
buku
anab@@
Mfumu
ver@@
opa
service
King
amalila
cip@@
Tik@@
Yoh
ask
set
amuna
home
amag@@
our@@
later
ign
ast
Moses
She
thandiz@@
thandizo
amay@@
human
any@@
peace
ess
alitsa
adziŵa
tive
zoipa
rem@@
cathu
pol@@
ezo
ily
int@@
imb@@
too
igh@@
ish@@
Re@@
son
icepetsa
humans
wodz@@
add@@
course
ut
serving
zidz@@
Akhristu
bl@@
cokela
hunz@@
Ting@@
during
kufuna
view
bu@@
fa@@
aci@@
ong
cont@@
always
pake
sur@@
inga
37
El@@
let
holy
ple
every
ons
S
himself
apita
atumikila
put
akhulupilila
wise
conco
,000
Genesis
ubwenzi
pali
pa@@
aŵili
alo
bel@@
emph@@
elders
eze
anakhala
mar@@
patsogolo
fore@@
stud@@
Mal@@
phamvu
ard
hope
Petulo
understand
ourselves
still
possible
ka
inv@@
against
Peter
khalidwe
adwa
kuuzimu
ious
became
look
ulum@@
ities
imfa
ndi@@
Mos@@
came
Ndiyeno
40
mafunso
wao
kulalikila
Gen
di@@
language
zathu
okh@@
ino
Af@@
Ch@@
34
upi
ain@@
esetsa
aphunz@@
ord@@
jo@@
mtendele
brother
ukila
book
kuts@@
de@@
ship
athandiza
amvela
back
In@@
anaf@@
theka
cita
away
ge
kha
cakudya
ule
ember
ndalama
aphunzila
ja
cidz@@
amene@@
fir@@
Komanso
g
ambilana
alibe
marriage
asked
Ar@@
wop@@
oŵ@@
self
yolalikila
atsopano
ulamulilo
zocita
Scriptures
N’n@@
vuta
anointed
kulambila
ected
m’nthawi
needed
n’nali
anan@@
often
something
mer@@
Then
By
omo
dec@@
eleza
Mac
ened
ufulu
wrote
may@@
ust@@
ition
mit@@
appro@@
ol
por@@
Even
amak@@
ikile
ening
ned
anaona
sisters
del@@
Tr@@
Yosefe
ngako
lathu
cabwino
eko
less
days
zindikila
ors
cor@@
ji
ciyembekezo
began
year
ulaliki
sal@@
Izi
arr@@
benefit
les
adzakhala
living
word
joy
happy
Psalm
pambuyo
muk@@
sl@@
kuon@@
onso
learned
hand
pri@@
Matthew
kuganizila
best
thawiyo
epo
anauza
TH@@
Let
2@@
cikwati
udza
face
akazi
Many
heaven
ko@@
message
amacita
muli
alikila
c
ments
questions
anaw@@
Our
ear
ilila
cimeneci
wh@@
ndinali
malamulo
he@@
kukhulupilila
zoona
acc@@
mtundu
whom
meetings
ulo
De@@
ima
hard
fin@@
really
tak@@
35
experience
pafupi
Adamu
mphatso
umboni
less@@
yakuti
wilitsila
Malemba
ced
analemba
ris@@
requ@@
mbili
akumana
ved
prayer
Timoteyo
baptized
osati
oti
ankho
ering
Tim
ithandiza
sub@@
ole
personal
afika
amafuna
land
three
ŵa
enda
Israelites
arly
ata
atum@@
care
funikila
cacikulu
yathu
9@@
while
M’bale
Popeza
ement
m’banja
kusintha
iti
kumu@@
under
tip@@
Mu
eke
ans@@
enti@@
amala
ikonda
otokoza
m’njila
ungu
among
tu@@
ward
out@@
someone
Pambuyo
mol@@
so@@
miy@@
sure
power
ulidwa
odzozedwa
fact
icit@@
father
pris@@
anam’@@
sol@@
ther
yo
itso
br@@
amva
mod@@
kutsatila
oyamba
making
full
ogolela
loving
dela
ilo
fu@@
amul@@
10@@
moved
cidwi
ml@@
inso
aniz@@
together
knew
wokhulupilika
Miy
amaona
giving
apeza
ead
challeng@@
mil@@
panthawi
form@@
Yobu
kupewa
woyela
U
ished
Ab@@
Because
siz@@
ulul@@
wanted
ress
kal@@
kuma@@
nzelu
est@@
different
Yet
oipa
wawo
acitila
ans
zop@@
iah
phunz@@
ters
m’bale
atha
amenewo
sin
imodzi
esa
Joseph
umba
itiliza
There
caka
oona
cimwemwe
eli
imeneyo
fl@@
Abulahamu
om
alandila
resp@@
continue
Pet
anapeleka
try
real@@
last
coun@@
yop@@
kucokela
anac@@
ziti
app@@
kumv@@
ects
athe
cinali
ang’anila
Is
reason
gift
med@@
Ma@@
order
cos@@
engo
century
emp@@
woy@@
done
ica
My
ir
aya
ture
EN@@
wela
husband
ist
funitsitsa
point
anaonetsa
close
ication
anizila
sec@@
Kh@@
purpose
cid@@
fellow
ended
IN@@
ill
MA@@
ad
Mwana
Ayuda
As@@
are@@
saw
both
ist@@
cam@@
kho@@
m’m@@
ual
atumwi
ungama
support
down
teach@@
imbik@@
mwayi
kuw@@
imitate
od
45
Israel
funsa
His
kind
thandize
kanthu
Lo@@
took
otsatila
mk@@
ony@@
undu
atul@@
sang@@
aim@@
red
tsogolo
hel@@
ondwela
angal@@
Ndin@@
avoid
result
ca@@
believ@@
ea@@
kumana
prot@@
unali
ich@@
eletsa
amakhala
Adam
cinthu
ures
akwa
fanizo
apang@@
amu
No@@
okha
kuthandiza
tal@@
express@@
cilungamo
ondweletsa
uyo
Munthu
sister
zit@@
zac@@
umiki
kupeleka
cifunilo
lear@@
als
bad
Ni
iyi
yol@@
ized
ref@@
Zimenezi
No
atila
ziz@@
the@@
sic@@
ub@@
adza@@
vuto
enelela
ress@@
utso
eal@@
cina
n’zo@@
ipa
enjoy
all@@
eteza
sho@@
uts@@
mother
chito
kumbukila
umenewu
mitundu
Ci@@
cul@@
pleas@@
Sol@@
ikil@@
angalatsa
0@@
early
Monga
misonkhano
ually
lives
ephela
mogwilizana
Zimene
kumb@@
ambilila
organization
cannot
ide@@
onth@@
transl@@
needs
gl@@
reg@@
thing
cial
iŵili
ry
oposa
awa
pang’ono
eed
heavenly
emekeza
relationship
knowledge
kuŵelenga
.@@
akal@@
without
mt@@
Son
andila
tel@@
ling@@
trib@@
counsel
thr@@
n’ciani
Be@@
Consider
madalitso
mmodzi
pansi
Mwina
KU@@
loy@@
yonse
anad@@
ously
share
ling
car@@
gre@@
Per@@
anamu@@
tani
Yakobo
thinking
amo
ai
mwai
regul@@
concer@@
change
desire
zosankha
athandize
elatu
C.E
tis@@
CI@@
succ@@
care@@
em
With
yos@@
ative
hab@@
Samu@@
50
endo
beg@@
prov@@
v
preach
kupilila
food
move
consid@@
mtumwi
wapatali
difficult
apind@@
ambo
ave
problems
kuphunzitsa
answer
St@@
woman
Timothy
On
uso
strong
akuthandizeni
friends
bring
ponena
onjeza
kupanga
nkhan@@
kuth@@
imwemwe
ged
amula
ainiya
atsidwa
however
eso
wokh@@
includ@@
x@@
free
called
themselves
respect
zok@@
Masiku
better
Ena
pati@@
Yesaya
boma
T
complet@@
lead@@
uli
direc@@
ner
serv@@
ined
zokhudza
ond
ulendo
ikulu
ceni
fe@@
These
ests
mankind
encourag@@
ained
akonda
wanila
uwo
/
remain
tsopano
Kuk@@
yourself
pop@@
cond@@
Abraham
cinenelo
Daniel
Muz@@
Aheb
Ol@@
cuma
weletsa
likely
principles
enem@@
wisdom
weni
ext@@
emphela
welela
went
amulila
ith@@
hon@@
Khristu
On@@
special
matter
vers@@
look@@
child
Yerusalemu
chedwa
ough
tsatila
Your
oma
outh
kupeza
onjez@@
sup@@
receive
having
R
few
yac@@
eful
situation
righteous
limodzi
eŵenzetsa
embedwa
dem@@
esi
wicked
Par@@
pray
promise
pal@@
lead
yabwino
anawa@@
kuyembekezela
lililonse
val@@
rul@@
whether
Ind@@
devel@@
Akorinto
feelings
using
toward
linali
wakuti
believe
imbitsa
kumvela
nazo
amakonda
iona
decisions
pass@@
Ti@@
eyes
ach
adela
alidwe
ukulu
Mk@@
married
ayi
nim@@
again
iphunzitsa
atizika
gives
clos@@
hunzila
fundo
Ed@@
resurrection
tiv@@
ak
ices
Kum@@
speak
adzap@@
Jerusalem
ndife
38
m’malo
IL@@
tic
guid@@
house
mkulu
known
rev@@
All
ever@@
eas@@
cifundo
ending
kuonetsa
tengo
uda
anx@@
iki
examples
nkhosa
bro@@
kumeneko
azo
ature
pemphelo
lac@@
Patapita
tell
mwina
cepa
dziŵa
between
kuli
died
loyal
SONGS
teach
iliyoni
NYIMBO
follow
left
prove
manja
39
mus@@
mantha
avuta
paragr@@
qualities
yom@@
onong@@
ind
afotokoza
cou@@
und
iŵa
nj@@
gener@@
imbana
ood
ransom
m’ma
prom@@
hum@@
real
associ@@
umikila
ek
maso
iwa
kuyamba
1914
ful@@
utu
benef@@
Chivumbulutso
3@@
Fr@@
ages
wrong
UN@@
te
Those
’ono
taught
otani
ungwe
akwanitse
Mung@@
ambil@@
Pro@@
cig@@
received
mill@@
great@@
latsopano
ewa
atso
aŵa
eep
ten
anitsa
accep@@
forever
form
Luke
loved
tima
bwenzi
ges
New
zocitika
khala
city
next
otokoz@@
anzake
Ganizilani
mabuku
iliyonse
let@@
Nkhani
ute
ens
women
pers@@
ulosi
mip@@
ded@@
re
zitsanzo
ŵelenga
matenda
mfumu
ey
ondo
,@@
yela
41
onjezela
iver@@
Although
tice
etsetsa
ogoleli
im
wosatha
pe
crip@@
mwamsanga
uth@@
los@@
olamulila
pione@@
iŵe
Tiyeni
following
ingo
onyeza
activ@@
provide
iyanasiyana
okhala
Chiv
n’cifukwa
kunali
members
kukwan@@
lalikulu
kuika
mnz@@
anafunika
wants
served
anadz@@
ical
followers
itila
prog@@
adv@@
immor@@
abwela
Kwa
atate
loc@@
lanu
Jos@@
200@@
uta
iristu
Ag@@
position
nor
mor@@
sind@@
kuyenda
elenga
nsembe
onj@@
zofunika
mean
ye
turned
yekha
wn
onza
trust
enako
akwanil@@
exer@@
greater
foc@@
100
refl@@
ozi
got
ached
kuse@@
ateng@@
ible
blessings
pot@@
dev@@
ie@@
efore
kucit@@
auz@@
reading
acinyamata
ulitsa
Mo@@
kindness
alamba
far
imikiza
ial
temple
who@@
to@@
ciz@@
willing
TS@@
ongo
embekezela
Muk@@
jila
humb@@
adise
kupemphela
going
ikidwa
recogn@@
pray@@
hoza
Isiraeli
sent
gwila
ver
Bar@@
kwake
owo
amakamba
pow@@
ŵeleng@@
ore
ote
ocepa
enj@@
dipo
ens@@
obedi@@
low@@
til@@
st
continu@@
anena
spiritually
ur
Ad@@
mwam@@
satis@@
decid@@
ths
Miyambo
vie@@
kukul@@
mapeto
N
36
world@@
e’s
Sim@@
kuph@@
fulfill@@
unthu
ect@@
privilege
tiyeni
ndani
decision
limati
number
kugwilitsila
ences
wond@@
everlasting
Law
hom@@
n’conco
wu
control
tre@@
honor
zolinga
igh
ured
amwamba
ms@@
affec@@
Job
question
N’zoona
pankhani
aun@@
zaku@@
way@@
asilikali
From
div@@
ls
n’kofunika
fa
lamulo
anand@@
eho@@
ately
cisoni
etsel@@
talk
especially
proph@@
ces
umu
Egyp@@
system
maka
lik@@
Nowa
pur@@
ah’s
present
promises
nation
Wh@@
apply
ulu
body
clear
siyana
ilapo
imbikits@@
le’s
lemba
rule
akwan@@
teaching
prod@@
strengthen
mul@@
tion@@
justice
cititsa
uluka
soon
def@@
ution
unga
adaiso
press@@
since
anth@@
kuwap@@
Instead
akw@@
akambilana
sadz@@
ezek@@
dep@@
pioneer
Rus@@
ording
circumstances
som@@
enjoy@@
perfect
okon@@
experienced
funso
certain
ekela
jw.org
valu@@
Jud@@
amuyaya
started
wom@@
turn
vo@@
Acts
oza
PA@@
ation@@
ention
cy
thawi
ears
Tin@@
apa
uku
makes
Of
remember
Ger@@
aakulu
until
instruc@@
ants
shows
ulemu
war
thought
avom@@
Mwac@@
mlongo
plac@@
angelo
Ambuye
imila
mist@@
igned
taking
195@@
accept
ild
Jews
iŵika
sense
iyenela
phunzila
Tsiku
apostles
apadela
ukitsidwa
contr@@
MB@@
comfort
kuganiza
elani
uliwonse
similar
Thus
Maliko
dzik@@
Danieli
ufumu
yaikulu
describ@@
ject
zam@@
Dziko
sy@@
B.C.E
okw@@
ree
cawo
Today
kwa@@
oli
ose
zakuti
Col@@
ocokela
atatu
congregations
grat@@
material
Bib@@
magazin@@
little
heard
nations
chap@@
Nsanja
sana@@
beh@@
wr@@
kacisi
zauzimu
co
canu
draw
Who
around
ised
May
cik@@
overse@@
Eli@@
ambanso
ital
ste@@
coming
Isaiah
than@@
attitude
off
ability
whole
person@@
ON@@
ack
ems
anapita
akhumud@@
kukhalabe
res
yaitali
nthambi
anj@@
itilizabe
kam@@
ns
kulile
akufa
serious
walila
Romans
Watchtower
ility
D
zovuta
cikh@@
courage
comp@@
engela
akut@@
Cilamulo
helps
tikhale
working
govern@@
yi
promised
Babyl@@
ancient
mwauzimu
encouragement
kupitiliza
AL@@
cok@@
appl@@
discipline
cot@@
enya
expl@@
palibe
discuss@@
indikilo
Satan’s
rep@@
training
maf@@
comes
lif@@
anafotokoza
unzi
conduct
mene
her@@
etsedwa
tur@@
mabwenzi
omv@@
ifunsa
sil@@
ins@@
account
offer@@
cen@@
truly
money
freedom
tingacite
angels
oz@@
sons
ets
ably
ians
obey
Com@@
author@@
brought
asintha
mok@@
kuz@@
erly
overe@@
ene
fine
saying
lood
atanthauza
waukulu
vela
nor@@
ving
anji
United
ansi
ingly
tonse
kutengela
m’dzikoli
adani
43
high@@
Are
khulupilika
individuals
olimba
Hebrew
fav@@
sacrifice
erved
yok@@
showed
pofuna
involved
aikila
eyo
Am@@
anadziŵa
ewele
wakumwamba
wolimba
seen
inst@@
inspired
arrang@@
ome
vi@@
Kup@@
pite
Sara
jud@@
sor@@
atswili
strength
ndinu
wide
Does
sheep
Inde
zili
otsiliza
ser@@
religious
▪
amang@@
deep@@
ungwilo
angwilo
ke@@
madela
Sit@@
kos@@
James
imag@@
amadziŵa
Ine
waci@@
ciwel@@
kucitika
cimodzi
ankhula
mlandu
long@@
Rather
speak@@
etting
bur@@
ath
Nkh@@
actions
ard@@
influ@@
ilikiza
field
small
cao
ayambe
imo
understanding
anzathu
osi
Ps
ayamikila
upainiya
Mwa
funs@@
thers
n’colinga
Akhiristu
m’Malemba
ga@@
information
cer@@
mentioned
ee@@
mts@@
Pr@@
practical
pat@@
ionekele
ipo
kumva
yet
onzeka
ested
Nyumba
kufunika
covenant
heberi
andikila
acicepele
ous@@
IB@@
akum@@
hi@@
ukapolo
tit@@
ick@@
bwela
prayers
action
Zinthu
Mkh@@
ziŵili
mzinda
anthauza
precious
cro@@
ico
44
odza
ilities
cilengedwe
ines
ki
anats@@
ire
mwake
Wam@@
ications
Ac@@
Br@@
bw@@
four
Kucita
avut@@
indu
past
sing@@
Mab@@
inda
Buku
eless
omba
case
friend@@
opsa
wilizana
ofalitsa
odzi
zao
iety
once
temp@@
cilango
attention
yofunika
occ@@
ives
ongola
alilo
ulupilila
anger
thus
unity
omas@@
kuphatikizapo
cofunika
kucitila
mtsogolo
unz@@
yu
iving
ciy@@
khama
stand
imikizila
tif@@
kaya
kutanthauza
becom@@
courag@@
school
underst@@
helping
meaning
ented
endela
fuza
zofalitsa
angano
Lord
Machitidwe
0,000
zanu
writ@@
ived
pak@@
fi@@
yoyamba
Y
icita
fer@@
iny@@
born
health
enela
written
onga
matters
zinal@@
madzi
poyamba
ikiz@@
azik@@
ties
neighb@@
Md@@
Ndithudi
itical
doubt
apulum@@
kukoma
Ang@@
vutika
kukumbukila
appreciation
Abale
ganizila
itions
thu
omveka
ganiz@@
Aef
msonkhano
nothing
nkh@@
anything
ogwilizana
Revelation
mission@@
M’malo
tikambilane
ian
Corinthians
including
stay
Noah
everything
char@@
iku
tum@@
iting
khudza
Beteli
kukw@@
compass@@
fanana
eness
While
kulamulila
Kul@@
conscience
every@@
list@@
interest
adziŵe
near
aonetse
accompl@@
zinenelo
isi
eps
kill@@
World
akuy@@
wi
pakuti
Ne@@
per
opportunity
hor@@
erful
Con@@
provided
resul@@
liter@@
languages
fles@@
Austr@@
older
ya@@
ululukila
vut@@
illustration
mab@@
hist@@
0
uke
already
bre@@
thy
ŵenzetsa
tiy@@
aki
Hava
labwino
famil@@
maintain
amaz@@
aza
effec@@
cikumbumtima
hand@@
zind@@
law@@
pic@@
199@@
Eng@@
aliki
second
Anali
ang’ana
ucimo
onena
commun@@
atiuza
amad@@
KH@@
Mofanana
endure
Q@@
mbe@@
cal@@
viol@@
States
branch
shar@@
allow
dist@@
destro@@
assignment
physical
Matt
Ezek@@
Scriptural
60
Un@@
shor@@
build@@
available
lar@@
goal
illustr@@
mam@@
The@@
friend
eal
asangalala
eti
occas@@
return
42
Kukhala
Ap@@
perhaps
atip@@
Ul@@
inkh@@
events
trials
coka
Paul’s
asinkha
kuyesetsa
Mlengi
pangano
saf@@
akolako
ink
Creator
chit@@
light
mgwilizano
Will
khale
kwathu
Ex@@
mwanzelu
kept
apeze
resurrec@@
EL@@
zap@@
oyela
elder
kuny@@
eny@@
m’nkhani
kusankha
ciyambi
kunyumba
akam@@
earing
cause
ame
ilana
mwakhama
mumtima
country
macimo
Mtumwi
kaŵili
muz@@
Tit@@
rather
righteousness
ident
alalikila
Kuy@@
ither
isonkhano
akuk@@
false
ental
akondwela
Ndiye
wonderful
uko
siting@@
kulandila
TI@@
uphungu
mtengo
baptism
night
bwel@@
ongol@@
exam@@
Mus@@
wilits@@
wauzimu
ail@@
coipa
relig@@
allow@@
earthly
advice
ofesi
mapemphelo
witness
Cikumbutso
happened
na@@
acitikila
issue
aph
engedwa
Greek
Such
ah@@
ongos@@
miss@@
standards
slav@@
hear
blessing
itil@@
zifukwa
group
eto
min@@
emo@@
kumvetsetsa
Roman
umud@@
Like
tribulation
choose
dead
Can
appointed
bal@@
organiz@@
inth@@
ambana
inc@@
tend@@
lost
atizidwa
Phar@@
fe
ene@@
etimes
eav@@
Ther@@
kwawo
ant@@
Aheberi
tendele
lived
muyenela
itilize
det@@
hold
tanthauzo
ononga
Be
Still
apeleka
citika
named
prophet
Japan
hulupililo
wakhala
Babulo
cons@@
m’ndende
refer@@
prophecy
desires
lidz@@
conf@@
akond@@
provid@@
alls
da
poss@@
Yo@@
easy
Would
refu@@
Pan@@
okamba
stop
arm@@
woyamba
cipembedzo
Christ’s
sukulu
Brother
comfor@@
go@@
cir@@
hoto
please
cel@@
amadz@@
izo
akup@@
explained
70
langa
tumikila
n’cakuti
auzimu
lonjezo
amata
culuka
rest@@
Sarah
ular
aonong@@
clean
nyimbo
start
zoposa
idziŵa
determined
Mu@@
thuyo
Mag@@
ofunika
travel@@
pamaso
ern@@
afa
gen@@
indic@@
akhudz@@
encourage
akuthandiz@@
ogol@@
naco
ified
embela
aced@@
neneli
Ndiponso
heart@@
kuzindikila
kno@@
pas@@
zawo
thoughts
happiness
zelu
nayenso
law
alf
gg@@
efforts
ipembedzo
erem@@
Now
confidence
Po@@
reach
CO@@
otokozela
M’nkhani
Since
onek@@
ext
oned
maphunzilo
anzelu
phunzilo
territ@@
changes
surv@@
chang@@
meditate
unso
Yos@@
evidence
ang’ono
auti@@
Cin@@
struc@@
listen
faith@@
rup@@
clearly
clo@@
deal
ok
necess@@
Jewish
je
Memorial
daughter
spoke
don@@
answers
standing
ech@@
god@@
Mbiri
46
judg@@
Tsopano
ery
spring
Bethel
Im@@
personality
enjeza
ulemelelo
akwika
konda
panali
Philipp@@
popanda
onzekela
zot@@
show@@
pau@@
munali
fect
appreciate
Cik@@
imati
wanji
achula
explains
isa
local
kweni
Did
owa
affect
cles
Iguputo
limenelo
Later
okela
um
pain
mnzake
atelo
la@@
cosankha
ekha
eledwa
web@@
ezele
Eks
Just
meeting
direction
During
uter@@
Motelo
happen
ater
akambe
mirac@@
ikiza
kulo@@
goals
itan@@
ips
kugwilizana
hearts
elanso
abwel@@
mumzinda
mph@@
responsibility
aining
Mofananamo
suffering
streng@@
ust
ishers
wonjezela
anyone
yam@@
gwilitsila
tivate
else
househo@@
anakumana
watsopano
modz@@
kapolo
maiko
opeza
People
invol@@
ainly
kulemekeza
Fir@@
large
ct@@
Mes@@
atsatila
Devil
liti
Gre@@
sembe
specif@@
Proverbs
motani
sitiyenela
created
inds
Tiyenela
Panthawi
entif@@
yed
mkw@@
malonjezo
ozo
Makolo
timakonda
ored
ambe
worshippers
ease
imperfect
leave
tures
alani
acib@@
coyamba
LE
mwan@@
simply
var@@
Sa@@
cuit
onjetsa
fel@@
respond
gain
prepar@@
anasankha
bir@@
deep
regarding
reat@@
embe
zosiyana
ains
uly
yelekezi
fec@@
zovala
amulo
uted
thandizila
z
omb@@
with@@
vala
giv@@
kumen@@
ace
Is@@
rit@@
gwilizana
feel@@
ld@@
oug@@
•
Tho@@
cert@@
beli@@
op
rema@@
clud@@
sacrif@@
wele
haps
bless@@
paf@@
Mas@@
effor@@
Wor@@
kap@@
dya
ulupilika
kind@@
ey@@
ŵenz@@
H
eld@@
scho@@
modzi
wamba
spe@@
Mw@@
eleng@@
dzikoli
mbu@@
emek@@
akudya
ons@@
atikizapo
alimo
Ny@@
L
ites
itiliz@@
Cil@@
cle@@
qual@@
iliza
ozedwa
anizo
probl@@
Bro@@
hear@@
intha
ende
itsanzo
Mb@@
umene@@
ody
apolo
privile@@
fill@@
gul@@
cif@@
fore
embek@@
sen@@
peri@@
read@@
Kut@@
Ez@@
know@@
aching
heaven@@
low
ord
ich
happ@@
els
onadi
trans@@
situ@@
prac@@
kom@@
centur@@
discus@@
nam@@
accoun@@
anana
ety
wiliz@@
righ@@
ought
Ev@@
call@@
fumu
heal@@
minis@@
suf@@
Wat@@
ustr@@
asin@@
cac@@
experien@@
icepele
padz@@
otelo
aib@@
Hebre@@
int
compl@@
ese
Se@@
ung
kukhal@@
practic@@
obe@@
child@@
itu@@
old@@
uzimu
differ@@
answ@@
wic@@
ild@@
wati
under@@
itness@@
cour@@
atapita
zi
osa
yp@@
iyen@@
ano@@
uit
iyense
nth@@
yamba
pose
uph@@
inyamata
angizo
ef
follow@@
appreci@@
suppor@@
worshipp@@
inted
ready
ungamo
cimenec@@
bale
ilikali
ld
ile@@
help@@
Sin@@
individ@@
aul
sacr@@
embedzo
engedwe
itness
ang’@@
can@@
ilik@@
aying
ays
Mak@@
ieli
kumbuk@@
Christ@@
Israel@@
F
otok@@
W
Mt@@
stead
oth
fre@@
uring
tikh@@
ept
import@@
ang’an@@
zof@@
bor@@
spok@@
ingdom
ult
uto
itude
ŵen@@
iel
ances
mad@@
gif@@
w.@@
lap@@
indo
star@@
mater@@
suffer@@
iness
hulupil@@
rece@@
deter@@
emor@@
fam@@
ubl@@
Isa@@
Abra@@
pingo
gover@@
appo@@
Cor@@
ais@@
ply
ulupil@@
atiz@@
maint@@
opport@@
ogolo
ples
nz@@
ango
responsib@@
nay@@
disci@@
shipp@@
itnesses
ono
aco
diffic@@
ith
Mul@@
uth
ould
yelek@@
amuy@@
kac@@
tem@@
mac@@
è@@
pankh@@
|
V
imikiz@@
Dav@@
trav@@
arding
G
ivid@@
evil
amun@@
pats@@
itsitsa
stand@@
Jo@@
prin@@
respons@@
ambi
ques@@
ren
oub@@
m’nd@@
akhalidwe
daugh@@
kuphunz@@
eneli
oci@@
atis@@
ziko
thin@@
wer
,0@@
anthauz@@
epa
Ph@@
earth@@
zimu
ires
princi@@
knowled@@
phy@@
spiritu@@
husb@@
apost@@
lasting
ekele
grou@@
n’ko@@
doub@@
mean@@
tri@@
cus@@
Phil@@
assign@@
consci@@
fal@@
tle
uli@@
emphelo
andu
Christi@@
M
Zimen@@
wis@@
Zim@@
alitso
kupe@@
ipp@@
uputo
ness@@
Pe@@
endele
usal@@
uld
eld
itali
ider
conduc@@
sue
Pet@@
Joh@@
determin@@
auza
fut@@
cog@@
odi
Do@@
Sar@@
Mat@@
Zin@@
uch
B
Je@@
thaw@@
avo@@
nec@@
imbo
an’s
lit@@
gazin@@
ether
lil@@
discipl@@
tro@@
nkho@@
diff@@
sm@@
emu
Ŵ@@
enzi
crib@@
é@@
priv@@
spir@@
embe@@
atali
Sat@@
onkhano
heav@@
elengani
Bec@@
amulilo
thor@@
Pa@@
isiraeli
ude
embedz@@
ards
Bet@@
numb@@
mir@@
circum@@
neigh@@
jus@@
Jes@@
inspir@@
Hav@@
need@@
eri
some@@
h’s
cum@@
cient
Kom@@
anding
wish
aught
Gen@@
K
fol@@
orinto
iyeno
port@@
Tiy@@
sis@@
augh@@
ambilane
Dan@@
iliy@@
angu@@
onjezo
·@@
aeli
tow@@
itate
Ts@@
>
belie@@
embers
kumbutso
ost@@
bu
hous@@
ulation
ö@@
gwiliz@@
relation@@
isters
mbuye
etim@@
embekezo
anizilani
ames
anthauzo
rection
aug@@
ousness
decis@@
fulu
ó@@
cent@@
ndal@@
lea@@
lal@@
Yes@@
é
atikiz@@
yl@@
Scrip@@
agr@@
ikilo
akhama
eyu
asting
dom
–
cially
Ho@@
Jap@@
elu
ucita
ven@@
liv@@
promis@@
hip
mway@@
ñ@@
sac@@
ʹ@@
kumbumtima
Matthe@@
upil@@
mess@@
emwe
ondi
cifun@@
contin@@
gwilizano
ause
iconse
tural
ô@@
C
enec@@
sanga
simil@@
syst@@
Rom@@
them@@
bran@@
though@@
ione@@
í@@
hunzilo
ONG@@
ough@@
P
inform@@
evel@@
ogether
udi
bet@@
contro@@
zimen@@
wino
heb@@
akol@@
X@@
Ng@@
⁠
:@@
J
spr@@
enef@@
ul’s
Ay@@
stances
umwi
tism
aso
iri
verb@@
salm
ham
til
enelo
Timo@@
wilo
icep@@
Akh@@
your@@
flu@@
emorial
Cons@@
aw
ü@@
sel
zinda
á@@
ound
aps
buk@@
Heb@@
selves
marri@@
usb@@
preci@@
coven@@
dzi
uals
ucc@@
Jerusal@@
God@@
Mach@@
itsanz@@
raw
umtima
$
q
edi@@
iris@@
eel
ה@@
פ@@
congreg@@
É@@
נ@@
ש@@
ׁ
elelo
led@@
idence
ifukwa
baptiz@@
fri@@
Chi@@
maganiz@@
sanja
Creat@@
Baib@@
æ@@
ה
YI@@
alleng@@
X
meet@@
ht
lef@@
‛
Bab@@
menti@@
ananam@@
Miy@@
Abul@@
him@@
tu
Yehov@@
MBO
ainst
thel
tower
ו@@
י@@
Corinth@@
י
iy
&
Isra@@
ʹ
Ş@@
à
Watch@@
bap@@
ã@@
avail@@
hane
anasiyana
esis
org
å@@
rans@@
edom
ween
ecy
‘@@
wili
B.@@
bec@@
ä@@
;@@
ilonse
ithudi
Mleng@@
umbul@@
©
Mof@@
j
ulem@@
akob@@
eph
á
%
resur@@
ç@@
ï@@
sical
ú@@
ó
è
espe@@
ather
ahamu
ukwa
ivumbulutso
Ig@@
thand@@
Timot@@
greg@@
verbs
­
imene@@
ananamo
ʺ
righte@@
ambuyo
amvu
dif@@
SONG@@
cogn@@
ʼ@@
Ó@@
Yosef@@
