#version: 0.2
t h
a n
i n
n d
a t
y a</w>
w a</w>
o n
m a
n a</w>
th e</w>
t o</w>
a l
e n
k ũ
e s
w a
m ũ
e r
k ĩ
e d</w>
o u
i t
w ĩ
i l
e l
i s
nd ũ</w>
o v
w e</w>
in g</w>
a s
r e
n ĩ
an a</w>
a r
a t</w>
o f</w>
th e
l a</w>
an d</w>
o r
m b
ĩ t
e e
n g
i s</w>
e s</w>
i n</w>
th ĩ
n ĩ</w>
w ’
k a</w>
ũ ndũ</w>
a v
o n</w>
l e</w>
e r</w>
a m
k ana</w>
t i
o m
y a
t ũ
an y
a a</w>
an d
y e</w>
e t
e nd
k e</w>
o r</w>
ĩ s
m a</w>
th at</w>
i v
i e</w>
o s
k wĩ
k w
w h
n o</w>
a c
r o
e v
al a</w>
in g
a n</w>
ĩ a</w>
l y</w>
h e</w>
ũ s
an g
ũ t
n o
s t
e c
ũ m
Y e
e n</w>
a i</w>
u s</w>
in d
ũ k
e h
N g
o u</w>
ov a</w>
y ĩ
Ye ova</w>
r i
and ũ</w>
ov a
m at
J eh
y o</w>
u s
Jeh ova
m e
’ s</w>
ĩ k
ou r</w>
u r
any ’
l d</w>
at a</w>
m e</w>
h is</w>
at i
thĩ wa</w>
f or</w>
w it
l i
a s</w>
a l</w>
G o
Ng ai</w>
a k
u l
p r
ĩ la</w>
on ya</w>
s y
s i
u m
ĩ v
o o</w>
ĩ kĩ
e k
er s</w>
ũ la</w>
il i
i c
e ar
c on
s u
Jehova h</w>
w’ a</w>
o o
o w</w>
a b
ũ l
a th
a p
nd ĩ</w>
il l</w>
t s</w>
t e
en g
y ou</w>
b e</w>
av e</w>
wa s</w>
a d</w>
k wa</w>
s h
i m
wit h</w>
t a</w>
en e</w>
W h
ind a</w>
mũ no</w>
e x
o l
no t</w>
t r
ĩt e</w>
as ya</w>
n th
i r
a g
c h
i t</w>
w or
w ĩ</w>
ou ld</w>
o p
m an
ar e</w>
ing ĩ</w>
n es
s e
n a
g h
en t</w>
a wa</w>
w ill</w>
s ya</w>
er e</w>
M b
ũ v
ũs u</w>
h ave</w>
ati on</w>
a i
an ĩ</w>
the r</w>
c e</w>
a y
d i
l e
nth ĩ</w>
o w
n e
ma ũndũ</w>
n z
m w
ũ u</w>
is ye</w>
Go d</w>
s p
b le</w>
T h
ĩ le</w>
k ya</w>
an ĩ
on s</w>
ĩs ya</w>
ũ kũ
ou t</w>
om e</w>
n ũndũ</w>
k a
c an</w>
kĩ la</w>
T he</w>
on e</w>
t ed</w>
et e</w>
iv ili
Mb ivili
kũ t
t h</w>
a d
w’ o</w>
m any
at e</w>
p l
ro m</w>
on the</w>
Y es
os e</w>
Yes ũ</w>
p er
d o
B i
any’ a</w>
J es
mũ ndũ</w>
on ĩ</w>
Jes us</w>
d e
at ĩ
ũ ng
f rom</w>
k u
ĩ l
any’ o</w>
f or
wh o</w>
p e
i r</w>
ĩv inda</w>
Bi ble</w>
ĩt ye</w>
in ya</w>
Ĩ ndĩ</w>
i d
b y</w>
u t</w>
ma k
ũl ũ</w>
the ir</w>
r es
nĩ w
t wa
C h
re c
u n
Mbivili a</w>
u l</w>
s o</w>
m o
c om
ĩ ũlũ</w>
h i
c h</w>
r is
ma v
mũ th
the y</w>
t w
b e
a y</w>
wh at</w>
ang ĩ</w>
al l</w>
y ĩ</w>
l ĩs
lĩs to</w>
m wĩ
t a
ou n
el ek
as a</w>
e e</w>
kwĩ thĩwa</w>
d o</w>
gh t</w>
it y</w>
kĩ t
Wh at</w>
ma ke</w>
h el
iv e</w>
the es
nĩ wa
Ch ris
t er</w>
d ’s</w>
am we</w>
y ũ</w>
f f
wa ke</w>
p ro
k u</w>
w o
ũ th
end ee
v e</w>
ũ mb
t wĩ
t o
kũ l
i a</w>
d is
kw at
p ar
k al
n y
k ya
ti on</w>
on g
h ad</w>
ing s</w>
Go d’s</w>
th is</w>
q u
s er
m ĩ
y our</w>
op le</w>
ũm we</w>
m in
hi m</w>
ou r
k y
ov e</w>
v yũ</w>
a ĩ</w>
an s</w>
r a
kwĩ ka</w>
W e</w>
as u</w>
a r</w>
v a</w>
pe ople</w>
mb ĩ
ĩ ndĩ</w>
s ya
h ’s</w>
u d
ĩkĩ ĩ
f e</w>
N ĩ</w>
w ere</w>
c l
e ka</w>
elek any’o</w>
c i
it ũ</w>
nes a</w>
g re
end a</w>
an ĩa</w>
and ĩk
w ould</w>
ab out</w>
i ka</w>
st r
A k
thĩ awa</w>
w’ e</w>
s el
the m</w>
i th
e thĩwa</w>
H ow</w>
ng elekany’o</w>
m or
ĩ e</w>
m y</w>
w at
w ee
v ata</w>
ag e</w>
al ly</w>
on a</w>
el e
di d</w>
es s
wh en</w>
Jehova h’s</w>
it i
ap p
I n</w>
am e</w>
en t
th ers</w>
ũt onya</w>
mb ĩ</w>
ng ĩ</w>
mũ n
b ec
h e
I s
il a</w>
oo d</w>
ur e</w>
us e</w>
ev a</w>
e a</w>
u ma</w>
k wa
h as</w>
f ul</w>
e o</w>
1 2</w>
1 5</w>
wĩ a</w>
se o</w>
nd e
sy ĩ</w>
us t</w>
ou s</w>
in a</w>
ev er</w>
w end
k ĩ</w>
kĩ l
an t</w>
ti me</w>
N a</w>
kũ tũ
ma n</w>
u t
s e</w>
en ts</w>
1 4</w>
ma y</w>
li fe</w>
a in
ũ ũ</w>
Chris ti
tũ t
e th
en ce</w>
ĩ ka</w>
m ee
m ent</w>
hel p</w>
1 0</w>
g h</w>
1 1</w>
h ow</w>
thees ya</w>
v inya</w>
d s</w>
kũ th
u nd
M a
kĩ th
tr u
it u
1 3</w>
thĩ we</w>
th ose</w>
t wĩ</w>
l ove</w>
an i</w>
nĩ ma
ũk u</w>
el i</w>
do m</w>
f a
e p
N d
p or
t ing</w>
m wa
ec t</w>
s yĩ
i k
in e</w>
ai th
ma a</w>
thĩ na</w>
il e</w>
ser v
N ĩ
m ya
o ther</w>
atĩ ĩ</w>
on an
a o</w>
o k
on i</w>
n eng
wa ĩ</w>
d es
kũ v
h er</w>
K wo
k no
A l
b ut</w>
on g</w>
e t</w>
es s</w>
H e</w>
om a</w>
n ee
1 9
wa y</w>
ũ anĩa</w>
s t</w>
el y</w>
p le</w>
d er</w>
t ene</w>
d ay</w>
ĩs u</w>
ou gh</w>
in ĩ</w>
sh i
t er
ab le</w>
m we</w>
el i
ĩ ngĩ</w>
ee n</w>
al l
sp ir
mb ee</w>
i we</w>
p re
s ome</w>
a ul
ũ tũ
u ng
av any’a</w>
it h</w>
w e
many ĩsya</w>
Ĩ la</w>
Kwo ou</w>
mũ t
mor e</w>
R e
il l
mũ v
nd a
nd ũ
at ed</w>
mya ka</w>
K wa</w>
per s
nde to</w>
ĩt we</w>
ĩt u</w>
ma ĩ</w>
l o
ku nd
b ro
c our
ũm ĩ
n am
kũ s
wit ũ</w>
ex am
ũv oo</w>
an ya</w>
1 7</w>
ov er
il y</w>
an s
v amwe</w>
ng inya</w>
ku ma</w>
na ĩ</w>
nes s</w>
t e</w>
b l
1 6</w>
w et
es t</w>
v a
is e</w>
es e</w>
c ould</w>
a use</w>
wa r
g r
k ing</w>
mũ ĩkĩĩ
mat onya</w>
ac e</w>
f ir
d e</w>
ac h
a m</w>
kw o
an ce</w>
ac h</w>
g ood</w>
c ri
j o
ic e</w>
b een</w>
p os
kĩ v
su mbĩ</w>
mũ seo</w>
su ch</w>
man y</w>
f ul
wor k</w>
aul o</w>
th ay
y u</w>
th ya</w>
i to</w>
ati ons</w>
yĩ u</w>
a h</w>
S at
Ak lĩsto</w>
h ear
t i</w>
mũn ene</w>
al so</w>
re s</w>
ng oo</w>
ka u</w>
m i
il yĩ</w>
k at
u ku</w>
anĩ o</w>
end ete</w>
in d</w>
on y
1 9</w>
spir itu
ing dom</w>
e y</w>
nz ĩa</w>
many ĩ
is t
u v
2 0</w>
v eva</w>
0 0</w>
k ie</w>
i f</w>
a ingĩ</w>
s es</w>
an o</w>
v i
el l</w>
k ala</w>
g e</w>
fa ith</w>
e l</w>
yĩ la</w>
il d
N ĩk
K ingdom</w>
kĩ kund
i z
ev er
en ya</w>
mũĩkĩĩ o</w>
ay s</w>
V aulo</w>
g iv
ti c
do es</w>
a ul</w>
v er
f am
ac c
p h
kw enda</w>
ear s</w>
oo k</w>
e the
1 8</w>
te theesya</w>
shi p</w>
sh ould</w>
en d</w>
kya ũ</w>
N ũndũ</w>
l ear
l a
gre g
con greg
ne ed</w>
al y
s om
o thers</w>
con t
y onthe</w>
ũkũ m
k ed</w>
Wh en</w>
u p</w>
ev en</w>
m on
ma r
ti ons</w>
end aa</w>
g n
a mb
m os
I t</w>
e f
sel f</w>
ung u</w>
is u</w>
kĩ a</w>
ow n</w>
es a</w>
w s</w>
g o
k aa</w>
i f
man ya</w>
o in
el a</w>
kw ata</w>
ma th
e w</w>
B ut</w>
andĩk o</w>
at t
ma ingĩ</w>
y ĩt
th ings</w>
endee e</w>
u c
N o</w>
i d</w>
f ter</w>
P aul</w>
ũ mũ
w oo</w>
v al
ĩs ye</w>
tũt onya</w>
na ke</w>
u mb
i on</w>
K lĩsto</w>
ũm e</w>
s he</w>
Ũ sumbĩ</w>
ee p</w>
d ec
F or</w>
w an
kĩt e</w>
ai d</w>
kũ k
exam ple</w>
on any’a</w>
A n
re as
W or
ũk any’o</w>
ne w</w>
Nĩk ĩ</w>
o a</w>
ind anĩ</w>
A s</w>
ũng ĩ</w>
oun d</w>
an y</w>
thĩ nĩ</w>
com m
thay ũ</w>
in i</w>
a ũ</w>
pr ov
ũs ĩ</w>
o c
thees ye</w>
h ar
ong o
t ur
w’ aa</w>
res p
2 4</w>
y ears</w>
fir st</w>
u maa</w>
b r
wa th
th ere</w>
for e</w>
kw ĩ</w>
a in</w>
ma thĩna</w>
pr es
spiritu al</w>
om o</w>
o m</w>
J o
ya ke</w>
mũ syĩ</w>
wor ld</w>
mw ana</w>
n ũ
nĩ tũ
congreg ation</w>
ĩl ĩte</w>
ĩ o</w>
sy ana</w>
ol l
thĩ a</w>
se e</w>
M ũ
ear th</w>
as s
2 1</w>
u e</w>
t ri
u nĩ</w>
th an</w>
s ĩ</w>
fam ily</w>
as t</w>
y s</w>
ee t
re f
a ĩ
M ũs
t u
tr y</w>
r el
L u
Christi an</w>
er ed</w>
nam o</w>
mav inda</w>
it e</w>
a u
Ng ũsĩ</w>
I f</w>
el o</w>
Wh y</w>
Th ey</w>
b o
ya ĩ</w>
ov er</w>
Ĩ v
por t
n ed</w>
kĩth ito</w>
cri p
iti es</w>
es ya</w>
il i</w>
pl es</w>
ũ a</w>
es ĩ</w>
ang a</w>
an ĩsya</w>
o ff
f el
kw ona</w>
i ous</w>
li ke</w>
v is
nes ses</w>
k w’
bec ause</w>
l iv
A ndũ</w>
i al</w>
kĩ u</w>
ũkũm i</w>
it s</w>
ch ild
n thĩnĩ</w>
re n</w>
Christi ans</w>
ti m
s aid</w>
W it
ma de</w>
v andũ</w>
ĩt ina</w>
is ya</w>
ũm any
A s
ma l
ta ke</w>
in to</w>
2 2</w>
tũ k
pr om
as ya
c er
an u</w>
ĩk u</w>
v es</w>
th r
syĩ ndũ</w>
c ome</w>
ou s
o ya</w>
at h</w>
is h</w>
f ac
the n</w>
on aa</w>
is h
ath ũkany’o</w>
wat anĩo</w>
bro thers</w>
Re ad</w>
m wa</w>
ma s
S oma</w>
N de
wa ys</w>
t y</w>
kũ ũ</w>
per i
ar y</w>
g ive</w>
f e
a e</w>
ow ever</w>
K ĩ
T his</w>
h app
kũl yo</w>
child ren</w>
an ĩte</w>
am u</w>
Nde to</w>
nz ika</w>
hel p
e d
os t
n ing</w>
i ri
et i</w>
a eli</w>
r u
m ust</w>
am any
ũt e
th ese</w>
si der</w>
re e</w>
nz eo</w>
ng o
2 3</w>
und er
ng watanĩo</w>
ĩ aa</w>
kũ manya</w>
mũth ũkũ
u mbĩ</w>
the u</w>
he av
nĩ we</w>
iri t</w>
wĩ t
kwo ndũ</w>
ũmb an
o nd
ĩkĩ l
the mb
ang o</w>
f i
ev el
um i</w>
mat e</w>
kat ĩ</w>
en c
wa s
on ly</w>
e wa</w>
st ud
o re
f oll
w’ ĩka</w>
k an
w ana</w>
t en</w>
Wit nesses</w>
w r
s ee
il aeli</w>
e asya</w>
m ĩt
et we</w>
sp irit</w>
kĩ ndũ</w>
ach ing</w>
be ing</w>
kno w</w>
ĩkĩ ĩku</w>
ic h</w>
at er</w>
2 0
w ell</w>
o ld</w>
u ch</w>
al s</w>
Ũ ndũ</w>
p ri
f ri
T H
l ov
kno w
n e</w>
an eng
g u
kũt avany’a</w>
at is
re g
Y ou</w>
ũ nĩ</w>
anĩ e</w>
n ak
twa ĩle</w>
tim es</w>
nd ĩ
mũth enya</w>
kĩv athũkany’o</w>
k o</w>
atĩ ĩa</w>
wh ich</w>
s ays</w>
mi ght</w>
wa ku</w>
kwĩ manyĩsya</w>
it i</w>
Ĩ t
ap ost
k s</w>
f ee
y omo</w>
pr ay
ma itũ</w>
e en
M at
j ust</w>
th ough</w>
m is
d ing</w>
d ed</w>
Th at</w>
wa ĩle</w>
at um
kwĩ kala</w>
Is ra
ũmũ nthĩ</w>
nĩ m
f aith
ĩv indanĩ</w>
to ndũ</w>
b eli
th ing</w>
s in
an i
a ther</w>
ĩ w’a</w>
on es</w>
kũ mũ
p p
pers on
w i
ũs eo</w>
e m
sh ow</w>
m y
kwa sya</w>
is i</w>
an e</w>
a mũ
o ka</w>
mbĩ ĩa</w>
ũmb a</w>
y ing</w>
under st
Mbivili anĩ</w>
no w</w>
en ti
Chris t</w>
An d</w>
us ed</w>
u ta</w>
ow er</w>
nĩ wĩ
um ya</w>
nĩ mat
mw anya</w>
in v
dis ci
di ff
am a</w>
wĩ va</w>
re ad</w>
k anĩ</w>
w oni</w>
a ke</w>
hear t</w>
2 5</w>
Ũ v
v o</w>
sel ves</w>
mb ingĩ</w>
id e</w>
M t</w>
wor ds</w>
en yu</w>
n ene</w>
as yo</w>
de ath</w>
al ity</w>
nda ĩa</w>
M wĩ
o b
an c
ur ing</w>
c oun
p u
in ter
ĩ ie</w>
f l
at es</w>
ĩ ĩsya</w>
st e
ĩ ĩa</w>
it ed</w>
ĩ no</w>
tru e</w>
ũ ũk
si on</w>
me mb
b u
fee l</w>
m ĩa</w>
kĩkund i</w>
ex peri
a w’a</w>
Sat ani</w>
S crip
m il
el ĩ</w>
a ĩle</w>
ti v
qu es
an ts</w>
ĩt unĩ</w>
mũ ka</w>
an ie</w>
Wor d</w>
wa kwa</w>
Jo h
ek al
at ũm
al e
2 8</w>
th in
asya i</w>
A t
at e
, 0
par ents</w>
in y
bec ome</w>
S a
wend o</w>
re ad
jo y</w>
n ame</w>
m oo</w>
er ing</w>
m ĩv
h um
e ther</w>
min is
im port
ĩ th
ang u
nĩ me
ne en
na w’o</w>
o th
s a
s al
ili kana</w>
be fore</w>
a fter</w>
uv ĩ</w>
sy oo</w>
Ĩt ina</w>
onan asya</w>
k av
endee a</w>
h u
e ach</w>
D av
rec e
en ef
at ing</w>
oun g</w>
o f
i w’e</w>
M wana</w>
ony eka</w>
cl ud
Ak o</w>
te m
mwa ka</w>
kĩt umi</w>
T im
ĩ mwe</w>
m s</w>
ya ĩtye</w>
on d</w>
e w
kwĩ s
anĩ aa</w>
s ur
f ore
cour ag
mar ri
va u</w>
it a</w>
a isye</w>
to ld</w>
iti on</w>
ath im
a ka</w>
v ala</w>
al ĩ</w>
om i</w>
nĩw at
as i
M ek
war d</w>
E thĩwa</w>
ful ly</w>
b enef
ac k</w>
M wa
m en</w>
c re
faith ful</w>
at ũ</w>
ser ve</w>
ũ ĩ</w>
t ak
kwĩ t
mos t</w>
3 0</w>
ul i</w>
oin ted</w>
tru th</w>
be g
ndũ nĩ</w>
lear n</w>
,0 00</w>
ũk e
ver y</w>
ngo onĩ</w>
Mek o</w>
Joh n</w>
A b
tu res</w>
f ound</w>
K ĩk
ul t</w>
mw ingĩ</w>
av ya</w>
H e
op e</w>
a re
ĩk o</w>
S av
wh ere</w>
pers on</w>
beli ev
a k</w>
et ye</w>
mbĩ ĩe</w>
yĩ ĩ</w>
as e</w>
thr ough</w>
m uch</w>
k i</w>
and s</w>
y oung</w>
p ec
and a</w>
T o</w>
mũ u
m eva</w>
ee thĩwa</w>
cont in
foll ow
J os
wh y</w>
nĩ w’o</w>
gre at</w>
b le
tw o</w>
o ly</w>
el e</w>
ar r
N ĩt
N o
M os
Lu ka</w>
l ed</w>
ch ang
Nd av
u r</w>
ri gh
kw’ ũ</w>
Sa v</w>
H owever</w>
ĩ ĩ
m ov
Ndav iti</w>
kĩkund inĩ</w>
kĩth yomo</w>
f ind</w>
ta in
an other</w>
or y</w>
i g
com p
Sav uli</w>
te the
ou ght</w>
Y o
thĩ nz
ta in</w>
kũt uma</w>
stud y</w>
p ur
n ũt
minis try</w>
t ly</w>
ri ght</w>
par t</w>
kw os
bl ess
Dav id</w>
wĩ kwat
ũ ndũnĩ</w>
th a</w>
l angu
import ant</w>
kw onany’a</w>
is i
y e
il ity</w>
c ent
an ya
ũmban onĩ</w>
in c
ũ ka</w>
u kĩ
sh ow
s o
n i</w>
ĩs yo</w>
thĩnz ĩo</w>
s l
ak a
min d</w>
k eep</w>
u str
str eng
kwo ou</w>
kal ĩ</w>
ũk ĩ</w>
t ers</w>
kĩ kw’ũ</w>
N G
ĩs a</w>
onan ĩtye</w>
b ap
ati on
r eli
mũ tũ
l es</w>
con sider</w>
mb aĩ</w>
S o</w>
D o</w>
w ie</w>
aith i</w>
ma in
b et
ans w
kũtũ mĩa</w>
mw ene</w>
en ed</w>
com pl
and ĩkĩ
per f
i m</w>
apost le</w>
an ’
amany ĩw’a</w>
k ind</w>
ac t</w>
n at
s ec
ma y
g et</w>
ti e</w>
si gn
t al
p le
ma i
la isi</w>
con v
M ath
C on
th er
b re
S t
to day</w>
ma g
kũth i</w>
O ne</w>
2 6</w>
v ak
is ed</w>
at onya</w>
wor ship</w>
N th
p i
mwĩ ĩ</w>
c le
an aa</w>
el eet
si ble</w>
al u</w>
nĩ kĩ</w>
kũ tetheesya</w>
ũk a
s ay</w>
Y oa</w>
ĩt w’e</w>
wĩkwat yo</w>
som e
pl ace</w>
kũs ũanĩa</w>
rec i
a yo</w>
P et
il d</w>
y p
ny ũmba</w>
ele elo</w>
us ale
il ye</w>
i es</w>
es ye</w>
e ũv
con f
M ar
ũ neng
ol oo
ma uta</w>
atĩ ĩe</w>
a ĩkĩĩku</w>
M av
n ever</w>
ex pl
E v
yĩt wa</w>
oloo to</w>
ans l
2 7</w>
d et
an ang
3 3</w>
v ai</w>
mĩt ũkĩ</w>
e ment</w>
M ũndũ</w>
thĩ n
kĩ aa</w>
kal aa</w>
ear ly</w>
ũt e</w>
nee na</w>
it es</w>
et ĩkĩ
at onyeka</w>
wend ete</w>
d ers</w>
A r
K wĩ
te thya</w>
A d
c or
N z
ũng alu</w>
giv en</w>
do ing</w>
ur rec
sp e
mav uku</w>
A fter</w>
2 9</w>
thĩ ĩtwe</w>
e i</w>
d ic
ũ kĩte</w>
su p
Y os
ng ewa</w>
ent ly</w>
e ĩtu</w>
a ff
v ed</w>
li k
iv ed</w>
ath ũkũmi</w>
F ather</w>
wĩt awa</w>
res urrec
hu man</w>
Sat an</w>
’ a</w>
ĩs yĩtwa</w>
Ĩv inda</w>
w ant</w>
fel l
w ith
u k
serv ice</w>
o be
cour se</w>
a ma
vi ew</w>
ut i</w>
mũthũkũ ma</w>
g ave</w>
Yo ana</w>
w i</w>
on ie</w>
um ĩte</w>
th o</w>
ne ws</w>
le t</w>
l ive</w>
ka ũ</w>
ir e</w>
in clud
ay ũũk
Ma andĩko</w>
was ũanĩa</w>
mũu o</w>
me ans</w>
is ilaeli</w>
li c
g an
c ond
n ũtonya</w>
h im
fel t</w>
app reci
Is ai
sp ec
mĩ ao</w>
kũ kwata</w>
tic le</w>
s ac
kũ atĩĩa</w>
ethe e
end ie</w>
ar ticle</w>
3 1</w>
s ame</w>
pre aching</w>
mũv ea</w>
V e</w>
K ing</w>
him self</w>
fri end
Scrip tures</w>
Mũs umbĩ</w>
on e
it ate</w>
V et
vak uvĩ</w>
ti ve</w>
serv ants</w>
p ut</w>
onan isye</w>
ũt ao</w>
mwĩ kal
i l</w>
g o</w>
3 2</w>
mũ twa
kĩt onya</w>
kwĩ y
th ukĩ
ny iv
m ĩs
any’ e</w>
righ te
mwĩ ĩtu</w>
Vet elo</w>
A c
ndĩ ni</w>
mee t
kũ neng
id ed</w>
h ome</w>
ain ia</w>
A val
ĩv uku</w>
kũ u</w>
gan iz
f ut
en courag
ele wa</w>
ch o
av ing</w>
kũl ya</w>
heav en
thĩ nĩ
sy onthe</w>
kwĩ w’a</w>
hum ans</w>
av o
aly ũl
ĩ u</w>
g ro
ou t
l ater</w>
kũ la</w>
Pet er</w>
K uma</w>
l ess</w>
i c</w>
ain st</w>
yĩ mwe</w>
mĩ th
pro p
mũ ika</w>
manyĩ asya</w>
wend i</w>
il e
h ope</w>
acc ep
A isilaeli</w>
ũt anu</w>
ma kũlyo</w>
m ents</w>
ith a</w>
fut ure</w>
aĩ i</w>
ar d</w>
ũ kĩl
sup por
ng uma</w>
di rec
ag ainst</w>
ũ w’o</w>
S ome</w>
K ĩla</w>
ĩl ĩl
se t</w>
kĩl ungu</w>
S ee</w>
M ose</w>
or ganiz
c all
A t</w>
t oo</w>
s on</w>
es ie</w>
ũt eth
ma ũndũnĩ</w>
bec ame</w>
wi fe</w>
sya ke</w>
mũ l
et e
d uring</w>
Math ayo</w>
ul u</w>
ti ce</w>
mũ yo</w>
g if
Ma ũndũ</w>
ur y</w>
ever y</w>
e thĩwe</w>
a u</w>
N y
Isra el
pr ac
y um
pos sible</w>
o mb
kĩ si
it onya</w>
h on
g en
d er
pr in
nĩ tw
le d
l ong</w>
h oly</w>
ov u</w>
nĩw ee
ir c
en tion</w>
d ra
a amu</w>
re e
our selves</w>
or s</w>
andĩk onĩ</w>
an ia</w>
ũl ũm
ĩkĩ la</w>
z ed</w>
kwĩ anĩsya</w>
ath i</w>
ũng ũ</w>
kĩ eleelo</w>
w ro
wro te</w>
p oin
amb a</w>
a ĩtye</w>
T im</w>
N th</w>
nĩ k
liv ing</w>
kũ ndũ</w>
en i</w>
c ame</w>
a way</w>
Ab ra
wa sya</w>
si m
r ed</w>
oc c
Jos ep
Aval aamu</w>
st ar
man eng
know led
an ointed</w>
y uti</w>
help ed</w>
disci ples</w>
at ũmĩ
M wa</w>
3 7</w>
of ten</w>
mũ thĩnzĩo</w>
mũ theu</w>
ma seo</w>
h and</w>
athim o</w>
a ũme</w>
wa u</w>
tũ i
mat e
ma ka
kũtũ tetheesya</w>
i i</w>
c irc
S isya</w>
su b
ec tion</w>
b ack</w>
T r
S he</w>
Mwĩ aĩi</w>
ũmany i</w>
langu age</w>
end e
Abra h
person al</w>
l it
I n
w’ onthe</w>
pr ess
fe el
an asya</w>
K wasũanĩa</w>
B y</w>
A la</w>
A ev
n i
me thĩwe</w>
kũ m
en ing</w>
V ate</w>
pe ace</w>
w al
tur n</w>
lo c
as k</w>
M ũk
E li
ĩkĩĩ th
t re
s itũ</w>
resp on
me thĩawa</w>
f ace</w>
ũke thĩa</w>
all eng
w’ ĩ
pro ble
mwĩkal ĩle</w>
kw ate</w>
e y
b ook</w>
w ic
s itu
s ch
ev u</w>
perf ect</w>
e fore</w>
ũv ĩa</w>
str uc
re qu
mũ na</w>
ad v
for t</w>
ek aa</w>
ch alleng
andĩk ie</w>
an ĩtye</w>
wh om</w>
und er</w>
id ence</w>
fell ow</w>
4 0</w>
st ill</w>
ri f
inv ol
ee p
E l
mũn eng
mb a</w>
l ook</w>
thin k</w>
st and
l and</w>
ũm u</w>
wr it
wet a</w>
on ed</w>
is t</w>
3 4</w>
y itũ</w>
si c
ou gh
h ap
f in
Mos es</w>
ye ar</w>
us b
o t
eleet ye</w>
el esya</w>
M ũt
ũte theesye</w>
ya ĩle</w>
un ity</w>
the o</w>
pr iv
nĩ twĩ
ili kan
es t
as ked</w>
M B
kũt w’ĩka</w>
kya ke</w>
wo nd
ish ed</w>
ee ka</w>
cent ury</w>
beg an</w>
ũmb ano</w>
k ind
i gn
d ays</w>
cl ose</w>
Th en</w>
yĩ va</w>
twĩ thĩwe</w>
on etye</w>
marri age</w>
diff er
ang a
Y ovu</w>
J er
ques tions</w>
ma ĩle</w>
dis c
Yos evu</w>
y oo</w>
nĩw e
benef it</w>
atum ie</w>
ũkĩl yo</w>
wor d</w>
wet ete</w>
b eh
ar ly</w>
r it
p ose</w>
my olooto</w>
memb er</w>
i ans</w>
h usb
giv ing</w>
f ill
al ways</w>
ag es</w>
pray er</w>
ful l</w>
atũm wa</w>
bro ther</w>
b el
T ũtonya</w>
many e</w>
b or
O ur</w>
s in</w>
d y</w>
amb ya</w>
Ye t</w>
Mat the
ũm ĩa</w>
v er</w>
kũ mũthũkũma</w>
g l
experi ence</w>
am ong</w>
P sal
reli g
qu al
o ci
nĩ y
fac t</w>
M any</w>
Is a</w>
ũth ũku</w>
wee t
serv ing</w>
kwat wa</w>
fa ther</w>
ap pro
N ew</w>
3 5</w>
mb esa</w>
mak ing</w>
m ed</w>
el ders</w>
At amu</w>
ũt wi</w>
ũt ony
wh ile</w>
um ie</w>
p ower</w>
oo mb
m er
i o</w>
ec ted</w>
a il
Mav inda</w>
s ist
ĩ the</w>
nee ded</w>
mov ed</w>
m ess
lov ing</w>
en se</w>
atum ĩa</w>
as sign
L et</w>
underst and</w>
te i</w>
ith yĩ</w>
W at
sac rif
m om
evel ania</w>
P r
Mũk lĩsto</w>
Is ilaeli</w>
Al o</w>
A N
oo l</w>
kĩv eti</w>
M we
g ether</w>
we tie</w>
mũ min
mb ĩlĩl
iv id
er ful</w>
b est</w>
Th ere</w>
K ũ
su ff
nĩw o
meet ings</w>
knowled ge</w>
e ma</w>
as ed</w>
ud e</w>
kwat aa</w>
ill ustr
heav en</w>
d ly</w>
a ĩka</w>
ũtony i</w>
Ũ u</w>
v o
i ma</w>
Psal m</w>
L i
ĩ wa</w>
w is
th ree</w>
l ĩu</w>
on z
isi ons</w>
is a</w>
h er
bap ti
ũte theesya</w>
kwat ie</w>
ever y
enc es</w>
acc oun
a it
M e
He bre
As a</w>
r y</w>
mũmin ũkĩlyo</w>
etĩkĩ w’a</w>
eth ing</w>
Matthe w</w>
sh are</w>
anc es</w>
B ec
u a</w>
t ure</w>
kya ĩ</w>
k wake</w>
in t
ethee isye</w>
Y A</w>
to gether</w>
mess age</w>
ma in</w>
poin t</w>
lear ned</w>
N a
M y</w>
Isra el</w>
reas on</w>
or d</w>
kwĩ kĩa</w>
ic al</w>
d en</w>
c c
bapti zed</w>
el l
cour age</w>
Ev en</w>
u al</w>
l ess
kũ mwĩ
kĩ anda</w>
ũlũm ĩl
wĩ sĩ</w>
v e
re ally</w>
kũ manyĩsya</w>
gif t</w>
Josep h</w>
Aev l</w>
re al
es aa</w>
e ff
c are</w>
A yuti</w>
si b
ous ly</w>
heaven ly</w>
sy ĩt
nĩ twa
mũth ũku</w>
m ingĩ</w>
happ y</w>
Israel ites</w>
Ĩ the</w>
ongo esye</w>
me an
iz e</w>
is m</w>
i ak
expl ain
et y</w>
es ts</w>
Abrah am</w>
ĩk al
wĩ thĩwe</w>
som ething</w>
s ure</w>
priv ile
n ũtũ
im we</w>
hap s</w>
end ed</w>
e ke</w>
di ed</w>
an ci
Kĩk lĩsto</w>
Ũ t
wet etwe</w>
suppor t</w>
some one</w>
shi pp
s is
bo th</w>
tw i</w>
o theo</w>
mat er
iv es</w>
V andũ</w>
Tim otheo</w>
um ĩa</w>
t we</w>
ov os
l as
kũv ika</w>
ethe easya</w>
det er
S on</w>
ũ anĩaa</w>
or der</w>
kũ neena</w>
kũ ma
con cer
an amba</w>
O n</w>
Nth ĩ</w>
Con sider</w>
g g
as i</w>
4 5</w>
ũs ya
ĩ ĩe</w>
w ill
ou nd
n asyo</w>
is yo</w>
is ion</w>
ind ivid
A v
wĩ anĩ</w>
tr ansl
rel ation
I s</w>
u p
themb o</w>
th an
mũ sya
d own</w>
M ĩ
u st
pur pose</w>
prin ci
anya e</w>
ũ ti
Ũ la</w>
ne i
k new</w>
d one</w>
ĩt yo</w>
ĩkĩĩ aa</w>
re p
prac tic
l ist
kũ mĩ
har d</w>
t ook</w>
sist ers</w>
sa w</w>
s ol
res ult</w>
mwa kanĩ</w>
f t</w>
endee ie</w>
d r
contin ue</w>
with out</w>
ul ar</w>
o la</w>
nĩ nĩ
ma ũmbanonĩ</w>
kĩ mwe</w>
ili kalĩ</w>
ũth asyo</w>
s ci
ou se</w>
o p</w>
mũtũ mwa</w>
kĩsi onĩ</w>
d iv
c an
ũk at
w’ ĩte</w>
wa v
te theesye</w>
se l</w>
n ini</w>
l ast</w>
kĩ e</w>
con si
Y es</w>
H is</w>
Ad am</w>
th s</w>
ndũ ũme</w>
mo ther</w>
it ude</w>
ya l</w>
w’ ĩkĩ
va ilyĩ</w>
pu b
h owever</w>
deter min
br ing</w>
D e
f ree</w>
c ar
ay ing</w>
av u</w>
K ĩs
F r
Bec ause</w>
ĩk i</w>
u mbĩ
nĩ matonya</w>
ma ya
kal e</w>
is es</w>
a im
M ũth
ũ ny
weet awa</w>
mũ ũme</w>
m ana</w>
husb and</w>
av isye</w>
L a
uk ũ</w>
u ku
s ed</w>
mwĩ ao</w>
min a</w>
k um
ũt avany’a</w>
ũs eũv
y ou
w os
u ally</w>
su cc
p rec
nz aũ</w>
no w’o</w>
n umb
mbĩlĩl yo</w>
m o</w>
ekal aa</w>
ad d
Mwe i</w>
se ũv
ou b
li c</w>
k w’o</w>
iny ia</w>
E s
y ed</w>
pro t
enc ed</w>
call ed</w>
an een
w’ ũ</w>
resurrec tion</w>
ol in
mb aũ</w>
l os
l ar
kũl ilikana</w>
coun sel</w>
c ul
avo id</w>
atis wa</w>
as eti</w>
N ĩv
tr ain
the m
them selves</w>
t le</w>
na itũ</w>
ing ly</w>
ee thĩawa</w>
ĩ kũlyo</w>
w ise</w>
w .
twa s
pro ph
nee ds</w>
kũs oma</w>
kĩl ĩko</w>
iz ed</w>
he al
en y
aly ũku</w>
wĩ thĩawa</w>
wan ted</w>
rece ived</w>
r ap
n er</w>
mb oya</w>
at ive</w>
S am
uku nĩ</w>
nĩ n
las ting</w>
disc us
can not</w>
ũkũ ma</w>
tũ ik
kwĩs a</w>
ic es</w>
ĩt ambya</w>
ĩkĩ ĩa</w>
wis dom</w>
res s</w>
mo athimo</w>
m ove</w>
kwos ana</w>
j ud
el s</w>
diff ic
ũs umb
mo twi</w>
ma yĩ
ig n</w>
ti c</w>
p ect</w>
mũ s
manyĩ w’a</w>
d evel
ch ild</w>
N ake</w>
5 0</w>
ũ i
nĩk yo</w>
lik ely</w>
e mb
ass oci
ak at
ac tiv
W ith</w>
D o
1 0
ũkũ mbaũ</w>
wan eng
righte ous</w>
relation ship</w>
liv es</w>
h aving</w>
des ire</w>
at aa</w>
a al
ũth aithi</w>
ĩ andĩko</w>
mũth ya</w>
en joy</w>
e ws</w>
wo man</w>
s ilikalĩ</w>
answ er</w>
v atonyeka</w>
to ward</w>
nĩ kwĩthĩwa</w>
k umya</w>
Y el
Tim oth
Chris t
wee kie</w>
sis ter</w>
resp ect</w>
organiz ation</w>
nĩwe esĩ</w>
nak yo</w>
mat ter</w>
ee kie</w>
differ ent</w>
an ini</w>
V ai</w>
tũ y
pu bl
know n</w>
eng ee
am wĩ
a a
ĩ i</w>
ya a</w>
u me</w>
op port
kũ mw
im itate</w>
an x
us ing</w>
neng ete</w>
f oc
cri b
Sam u
N D
wic ked</w>
w ent</w>
re main</w>
p s</w>
nĩ na
g ed</w>
circ um
S h
C .
C. E</w>
situ ation</w>
r ans
nyiv yo</w>
ng ũa</w>
n or</w>
mũl ũmu</w>
man kind</w>
ing ’
for m</w>
f ood</w>
au gh
w om
re at
ov o</w>
n thembo</w>
le ad
Wor ld</w>
S O
y onĩ</w>
thin king</w>
ovos yo</w>
mũtwa ano</w>
ma kwa</w>
e ũ</w>
an’ yo</w>
andĩk i</w>
P er
Mĩ ao</w>
ph y
ol om
ng al
in spir
ek i
rans om</w>
proble ms</w>
mbĩ ĩie</w>
cond uc
as y
C or
wh ether</w>
ref l
read ing</w>
ky u</w>
kw ie</w>
gen er
g over
friend s</w>
d oub
s ing</w>
ongo i</w>
Th ese</w>
S olom
Lu ke</w>
ũv ũngũ</w>
ĩ asya</w>
wee n</w>
te ach
t or
o ona</w>
kũ tethya</w>
h ouse</w>
ee r</w>
cl os
an anga</w>
Y ak
y ũkĩte</w>
read y</w>
nĩ sy
nĩ kũt
he ad</w>
f r
f ew</w>
B ro
pr ay</w>
nd ũũ</w>
mũv ango</w>
many ĩsye</w>
ma mũ
in ed</w>
i ally</w>
ec ts</w>
e f</w>
b ad</w>
at avany’a</w>
ar ding</w>
an a
Timoth y</w>
M as
20 0
ũ nd
Ũv u</w>
wa anĩte</w>
usale me</w>
math ũku</w>
mat at
bet ween</w>
an ĩsye</w>
Yel usaleme</w>
wa r</w>
l oo
ex t</w>
e mi
Jo b</w>
Isai a</w>
ũ yĩ
y our
spec ial</w>
olin tho</w>
o y
o le</w>
ndũ a</w>
le ft</w>
kũ man
in ess</w>
feel ings</w>
en ĩ</w>
ath ela</w>
at ĩ</w>
D ani
v ate</w>
o ou</w>
le ad</w>
cont ro
Th us</w>
P h
K ĩl
u res</w>
spe ak</w>
rece ive</w>
en s</w>
bet ter</w>
believ e</w>
Th ose</w>
Mwa mbĩlĩlyo</w>
ũmĩ aa</w>
tw ee
s c
re al</w>
pos ition</w>
mb o</w>
ma it
ma endeee</w>
giv es</w>
chang e</w>
Al though</w>
tri b
th or
tem p
str ong</w>
prom ise</w>
o ke</w>
kũ elewa</w>
g yp
a atĩ
U n
E gyp
pro g
pr is
numb er</w>
kũ sya
j us
bless ings</w>
ag ain</w>
V al
T o
Kĩ u</w>
A TH
4 1</w>
ũng ĩo</w>
Ũ mũ
ya ku</w>
prop he
pr ove</w>
par ag
os a</w>
mũn ango</w>
is su
il ĩ</w>
dec isions</w>
Yak ovo</w>
Al l</w>
A m
3 8</w>
wath ani</w>
st ances</w>
kũ mũth
gre at
ep t</w>
ear th
3 9</w>
ũsya o</w>
Ũmũ nthĩ</w>
w ovosyo</w>
themb a</w>
parag rap
p ati
mak at
contin u
M o
ĩ andĩkonĩ</w>
y ũl
wor shipp
usale m</w>
ngo mbo</w>
mo alyũku</w>
memb ers</w>
ili oni</w>
disci pl
c a
Jer usalem</w>
ũng am
Ĩv indanĩ</w>
your self</w>
su k
nd aĩ</w>
follow ers</w>
ev il</w>
W ĩ
y l
wend aa</w>
respon sib
pres ent</w>
phy sic
iv er
in es</w>
ex er
c are
anci ent</w>
O n
M al
ĩt onya</w>
kũ endeea</w>
kĩ seo</w>
in for
ek ala</w>
de dic
an ’s</w>
Al omi</w>
Ac ts</w>
ũkũ maa</w>
w enda</w>
syĩt wa</w>
ste ad</w>
ques tion</w>
p ass
l et
c o
wĩ nyivyo</w>
si mil
qual ities</w>
prov ide</w>
ng alĩ</w>
marri ed</w>
li m
i kund
exam ples</w>
d augh
c ity</w>
V et</w>
w eka</w>
p ow
ey es</w>
end ing</w>
and ing</w>
Do es</w>
Ũ s
w’ĩ ke</w>
wom en</w>
ste m</w>
nd ũk
mũthũkũ me</w>
kwos a</w>
kwat ya</w>
foll ow</w>
ang e</w>
tur ned</w>
si de</w>
re ve
ok o</w>
nda a
na yo</w>
man ene</w>
ma ik
kũ ny
fore ver</w>
d ev
all ow
F rom</w>
te aching</w>
m ind
le a</w>
follow ing</w>
el d</w>
an ene</w>
T ũ
Dani el</w>
Ũv u
yũl ũl
vis a</w>
u ri
sya ĩ</w>
pi one
ong o</w>
neen ea</w>
nd ak
mũ ĩkĩĩku</w>
mũ sumbĩ</w>
mater ial</w>
lo yal</w>
kind ness</w>
go ing</w>
NG S</w>
ũs umbĩ</w>
Ũvu an’yo</w>
z i</w>
spiritu ally</w>
nĩ yo</w>
kwĩ v
in st
ful fill
ex pec
e as
3 6</w>
ĩ we</w>
tũ yĩ
tũ mĩ
sy ok
s atis
k ai</w>
d uc
wr ong</w>
wi i</w>
tũ s
tũ ka
th ought</w>
th i</w>
ony ’a</w>
mw endete</w>
m et
e aa</w>
am o</w>
M ũtũ
Hebre w</w>
w on
obe di
nd i
e ie</w>
circum stances</w>
P ar
Mũs ya
ũsumb ĩki</w>
tur al</w>
sy stem</w>
serv ed</w>
ro w
r ul
r e</w>
princi ples</w>
me d
manyĩ isye</w>
ma endee
lov ed</w>
k itũ</w>
k elĩ</w>
im mor
ex c
e w’a</w>
R us
N oa</w>
ti l</w>
n ext</w>
many ie</w>
mak ethĩwa</w>
g es</w>
eth ya</w>
e v</w>
R o
MB ATH
MBATH I</w>
ĩk ie</w>
wa k
tak ing</w>
si on
se mb
or t</w>
mũ ndũũme</w>
l ong
gr ou
ad ise</w>
ũmb i</w>
ya kwa</w>
y ũmban
w enyu</w>
n ũm
ky onthe</w>
ind ic
c ap
Y our</w>
SO NGS</w>
P ro
Mũth enya</w>
M ya
w’ ĩ</w>
u als</w>
press ed</w>
nĩ t
me an</w>
mav ĩtyo</w>
dra w</w>
des crib
al aĩka</w>
ak ing</w>
R ather</w>
G er
E no
tr ust</w>
n ũkũ
mũ ny
mũ k
kĩ ngĩ</w>
inspir ed</w>
ever lasting</w>
diffic ult</w>
S ar
M is
ũl ũngalu</w>
tr av
s ense</w>
it ing</w>
f ar</w>
e thĩawa</w>
conduc t</w>
E ng
Cor in
ĩkĩĩ thya</w>
Ĩ andĩko</w>
wath o</w>
t ower</w>
so on</w>
o d</w>
doub t</w>
c ou
andĩkĩ twe</w>
aith a</w>
y et</w>
ti on
thukĩ ĩsya</w>
nĩm o</w>
mil li
mav ata</w>
mag ine</w>
m ir
kũk w’a</w>
id ent</w>
hi gh
es pec
en jo
con tr
a h’s</w>
Mũsya ĩĩsya</w>
ũt av
will ing</w>
t ro
suk ulu</w>
nd u</w>
n ation</w>
kal ungu</w>
et s</w>
espec ially</w>
cle ar</w>
aul ’s</w>
at atũ</w>
ach ed</w>
O f</w>
ũng ĩa</w>
wor l
wh ole</w>
ul arly</w>
sin ce</w>
privile ge</w>
p o
ong el
ol der</w>
ng ’
experi enced</w>
contro l</w>
ch ap
aal ai</w>
Wat ch
um o</w>
tem ple</w>
s mal
n or
me tho</w>
id es</w>
gre ater</w>
ex t
c ov
anĩ thya</w>
S ala</w>
um isye</w>
u ght</w>
tũ te
tru ly</w>
t ell</w>
prom ises</w>
over e
o kya</w>
maendee o</w>
i res</w>
f ru
br ought</w>
bo dy</w>
am ina</w>
aatĩ ĩi</w>
Ak olintho</w>
19 14</w>
tethe easya</w>
t ism</w>
nth ũku</w>
j ect</w>
for ts</w>
ee te</w>
cer tain</w>
Watch tower</w>
S in
P s</w>
E kai</w>
un til</w>
p ic
in struc
au thor
att itude</w>
am es</w>
Mũtũ mwa</w>
A tũ
z e
th us</w>
ree k</w>
nei gh
invol ved</w>
ar ds</w>
an’ ya</w>
accoun t</w>
ta ught</w>
n ũseo</w>
n ations</w>
mbĩ ĩ
mat ters</w>
individ uals</w>
ev e</w>
d a
ũv ĩ
ĩ nĩ</w>
train ing</w>
s ent</w>
ple as
pl ac
or e</w>
n ya
mĩv ango</w>
com fort</w>
at ely</w>
ac tion</w>
S y
G reek</w>
ĩ asa</w>
w. or
w.or g</w>
su mbĩ
simil ar</w>
ous ness</w>
mak es</w>
jus tice</w>
j w.org</w>
it al</w>
exer c
el ess</w>
com ing</w>
at i</w>
ang ũ</w>
Wh o</w>
S am</w>
v anini</w>
ur ed</w>
u va</w>
te ach</w>
sacrif ice</w>
ru le</w>
mĩth enya</w>
hear d</w>
f ine</w>
d u
com es</w>
att ention</w>
an t
aly ũla</w>
Y o</w>
M A
ũth ũkũ
sim p
ma ilyĩ</w>
li ka</w>
kwa ĩ</w>
ili ki</w>
eng y
en ted</w>
discipl ine</w>
dec ision</w>
at ure</w>
Nd ev
ul ation</w>
ti a</w>
show ed</w>
s ons</w>
s een</w>
p ite</w>
nak u</w>
mom any
kũth ũkũma</w>
encourag ement</w>
cov en
T waĩle</w>
Isai ah</w>
A ev</w>
ĩkĩ te</w>
te x
pr os
mũ ũnd
lit tle</w>
kũl ilye</w>
kĩ ka</w>
inc reas
im o</w>
h umb
fi eld</w>
er ved</w>
en ess</w>
ek ie</w>
av il
arr ang
appreci ation</w>
an ake</w>
M ak
ũl aalai</w>
Ĩv uku</w>
twĩ thĩawa</w>
th ough
sya ku</w>
show s</w>
ser ious</w>
o g
m es
kũneng a</w>
iti ons</w>
hon or</w>
go t</w>
fri end</w>
f ree
ete ele</w>
ende esya</w>
d eep
con sci
app ly</w>
anĩ ie</w>
Mb eth
As u</w>
A th
4 3</w>
ũteth yo</w>
ũ anĩo</w>
wĩ s
prov ided</w>
mwa th
fl u
de ad</w>
ch es</w>
c ase</w>
am anya</w>
all ow</w>
Mat t</w>
La w</w>
G en
Atũ mwa</w>
4 2</w>
ũmb anĩ</w>
ĩ ndĩ
um ĩl
practic al</w>
os ie</w>
of f</w>
mak u</w>
m ilioni</w>
kũman tha</w>
kũl ye</w>
kĩ s
kw’ oko</w>
iv ing</w>
is ts</w>
h ab
at ũ
ac tions</w>
A na</w>
wor king</w>
themb i</w>
streng th</w>
s pr
p ast</w>
opport unity</w>
o gn
min ĩ</w>
kũ mb
i ety</w>
congreg ations</w>
avil oni</w>
anĩ u</w>
al o</w>
T wa
Scrip tural</w>
B ab
sh eep</w>
s aying</w>
relig ious</w>
prec ious</w>
ong e</w>
on eer</w>
mean ing</w>
mat ion</w>
ma wĩa</w>
ma lo
malo ndu</w>
kĩ ĩ</w>
kwĩ yĩ
bap tism</w>
al f</w>
R om
Bab yl
ũt a
ũmĩ ĩsyo</w>
wĩ thĩwa</w>
wan ts</w>
underst anding</w>
u tion</w>
streng then</w>
pres sion</w>
oo l
m enti
kav inda</w>
h a
fl es
L ord</w>
’ t</w>
wa isye</w>
tũ l
si ons</w>
si a</w>
nĩ mee
momany ĩsyo</w>
me th
kũt avya</w>
if ic
free dom</w>
f our</w>
ele we</w>
anang wa</w>
W A</w>
P aul’s</w>
Ny ie</w>
E va</w>
Ũv oo</w>
sh ar
rec ogn
pray ers</w>
on ce</w>
mb au</w>
ky atumie</w>
in flu
ili k
f y</w>
et ting</w>
e i
an w’a</w>
Ng elekany’o</w>
J ews</w>
ũthũkũ minĩ</w>
wĩ w’aa</w>
u ma
prov ed</w>
proph ec
pi oneer</w>
per haps</w>
nĩw endete</w>
n s</w>
lit er
i ka
h ist
ev idence</w>
av ail
apost les</w>
ab ility</w>
Th er
Mis ili</w>
K wos
B o
ũtũ mĩ
ref er
re member</w>
prom ised</w>
k ingĩ</w>
i ed</w>
es ted</w>
b s</w>
accep t</w>
Ph ili
C om
vi ol
thĩn anĩ</w>
tal k</w>
smal l</w>
ra ther</w>
o onanisye</w>
kĩ ie</w>
kwĩt ĩkĩla</w>
help ing</w>
g ain</w>
f al
ek ai</w>
coven ant</w>
consi d
ab ly</w>
ũmb e</w>
ũ anĩe</w>
Ĩ TH
nĩwa v
nĩ twaĩle</w>
kw itũ</w>
i de
er ’s</w>
c ause</w>
bor n</w>
bec om
ar ound</w>
ang els</w>
al ea</w>
ai l</w>
L omi</w>
J ames</w>
1 00</w>
ut e</w>
s ũanĩa</w>
re turn</w>
pr a
os p
nĩ kĩ
n ment</w>
kũv oya</w>
kũt wa
kũm i</w>
inter est</w>
il ities</w>
fi ed</w>
ac compl
Tr ansl
Sat an’s</w>
ũth ayũũk
ĩv ukunĩ</w>
star ted</w>
menti oned</w>
kũmĩ ĩsya</w>
k ept</w>
includ ing</w>
gu id
ev ents</w>
earth ly</w>
avail able</w>
and ĩka</w>
W ’
K ana</w>
4 4</w>
ũ kwenda</w>
ng a
n ec
me a</w>
endee w’a</w>
ch ar
V I
To day</w>
ũ endeee</w>
though ts</w>
t end
st and</w>
sch ool</w>
prophe t</w>
nĩ yĩ
me kalaa</w>
main tain</w>
kĩ k
ky oo</w>
ith yomo</w>
i an</w>
ang er</w>
an ch</w>
Ro man</w>
Nĩv atonyeka</w>
Kĩ evelania</w>
Ũs u</w>
w ide</w>
u th
physic al</w>
or d
h ous
d el
bless ing</w>
at av
ani eli</w>
a ĩlĩte</w>
Transl ation</w>
Nd anieli</w>
Mb aviloni</w>
L I
ĩndĩ ĩ</w>
writ ten</w>
w ũmĩĩsyo</w>
sec ond</w>
s ing
reg arding</w>
lo y
ing angĩ</w>
help s</w>
heal th</w>
ef forts</w>
ee na</w>
e anĩe</w>
conf idence</w>
bu ild
all s</w>
0 ,000</w>
te th
mor ial</w>
mat av
il li
C reat
C an</w>
ũmĩ ie</w>
ũmany ĩsya</w>
tũ endeee</w>
ti es</w>
re main
oth i</w>
nĩ mav
l ing</w>
kũsya wa</w>
kwĩs ĩla</w>
issu e</w>
infor mation</w>
ikund i</w>
gro w
comp as
comm un
c op
Kwos ana</w>
ũv ĩaa</w>
ũk u
ĩs ĩ</w>
ĩ kũmi</w>
val ũa</w>
twĩ ke</w>
spr ing</w>
ou th</w>
mũneng a</w>
loc al</w>
determin ed</w>
Th e
R evel
P har
No ah</w>
In stead</w>
ũseũv yo</w>
tũt e</w>
res ul
no thing</w>
neigh b
mũt umĩa</w>
mon aa</w>
kwa mbĩĩa</w>
f av
eet awa</w>
e mo
at wa
a ir
a andĩkie</w>
S uch</w>
Rom ans</w>
Revel ation</w>
Ar e</w>
A isye</w>
ũt athela</w>
Ũ k
z e</w>
w ia</w>
us es</w>
sl av
nĩ vatonyeka</w>
mwa ũ</w>
mos ũanĩo</w>
los t</w>
li ght</w>
kĩt umaa</w>
hear ts</w>
h ands</w>
de mon
ap pe
W ould</w>
St ill</w>
Mwĩ ĩtu</w>
Mwa kanĩ</w>
Corin th
7 0</w>
val u
tw one</w>
th y</w>
onz u</w>
liv ed</w>
le g
kũ lea</w>
kĩ kie</w>
fam ili
bu ild</w>
ayũũk w’a</w>
ati we</w>
Mbeth eli</w>
ũv onge</w>
ũlũmĩl ya</w>
tũ manye</w>
trib ulation</w>
righte ousness</w>
pre par
pre ach</w>
nec ess
mĩs yĩ</w>
mav ainia</w>
m endete</w>
li es</w>
l ine</w>
kũv atiswa</w>
kw oo</w>
ilikan aa</w>
h or
er y</w>
e w’e</w>
d en
cle an</w>
ath ani</w>
Li ke</w>
J ud
E x
A evelania</w>
19 9
ĩ ĩsye</w>
z eki
wĩ kaa</w>
rec or
nĩwĩ sĩ</w>
ma ũmbano</w>
kũ kũ
it ive</w>
g ar
ent al</w>
ele m
ef fort</w>
al ready</w>
N ow</w>
wĩ thĩ
mon y</w>
mat a
la w</w>
kwĩy umya</w>
im perfect</w>
ath aithi</w>
ang ’
activ ities</w>
a kũũ</w>
Egyp t</w>
Corinth ians</w>
w onaa</w>
vi ew
v ol
tri als</w>
th i
s crip
ng a</w>
mũn ini</w>
mwa ki</w>
kũ elesya</w>
illustr ation</w>
ic k
hous eh
et inĩ</w>
cont ri
br anch</w>
at ie</w>
at anu</w>
assign ment</w>
ai r</w>
a we</w>
Creat or</w>
ũm any’a</w>
yĩt awa</w>
wĩ v
wit ness</w>
u g
or ig
mee ting</w>
me thĩwa</w>
me di
ev ee
demon str
daugh ter</w>
any thing</w>
any one</w>
al ong</w>
al ia</w>
a yĩ
S im
A sya
19 5
1 4
ĩ thya</w>
v ar
tex t</w>
simp ly</w>
ru p
nak wa</w>
kũ ea</w>
b ac
Wh ile</w>
Sar ah</w>
Phili pp
Nth imo</w>
G r
D uring</w>
Christ ’s</w>
A ka</w>
ũthayũũk yo</w>
thĩ o</w>
t ell
ne ar</w>
li ed</w>
kũt ata</w>
every thing</w>
ethe l</w>
eng ’
ear ing</w>
des tro
compl ete</w>
ch ed</w>
believ ers</w>
b as
al ty</w>
ak ethĩwa</w>
I nde
B ethel</w>
A mwe</w>
ũ ma
se qu
ough out</w>
mir ac
ma andĩko</w>
li kya</w>
kũ ũtetheesya</w>
ic ial</w>
end e</w>
en s
b ased</w>
Sin ce</w>
Me morial</w>
M ũmbi</w>
ũth ũkũmi</w>
yum ĩtye</w>
sur v
stand ards</w>
st ep
responsib ility</w>
o maa</w>
nĩwa th
mũ la
ma kĩ
long er</w>
jud g
es is</w>
ek ea</w>
c am
b ir
am in
ak w’a</w>
W ill</w>
W end
M Ũ
I th
F ir
Ũt onya</w>
worshipp ers</w>
si ght</w>
s overe
sovere ign
sovereign ty</w>
on eka</w>
nĩw aneng
ndũ anĩ</w>
nam ed</w>
mon ey</w>
kĩ wa</w>
kw atiwe</w>
iv ely</w>
it e
grou p</w>
dis tr
dis pl
de al</w>
d ie</w>
as t
answ ers</w>
Ther efore</w>
S p
R u
Kĩl ungu</w>
Kĩk iliki</w>
Fr ance</w>
D evil</w>
ũng a</w>
ũk o</w>
wond erful</w>
t able</w>
s isya</w>
om onĩ</w>
off spring</w>
o ti</w>
nĩ tũtonya</w>
m umo</w>
ka ũnĩ</w>
k ill
iny w’ĩ</w>
f er
ew ish</w>
engee a</w>
ele isye</w>
direc tion</w>
ble ’s</w>
asi kalĩ</w>
appreci ate</w>
J ewish</w>
Bi ble’s</w>
v ir
twa ĩlĩte</w>
t ation</w>
su mb
pow erful</w>
pos ed</w>
ple ase</w>
l ish</w>
kya kwa</w>
kwĩ thĩa</w>
in k</w>
endee aw’a</w>
end u</w>
eff ect</w>
e ed</w>
da ily</w>
c row
ama itha</w>
M ay</w>
H oly</w>
ũs engy
ũ ilyĩ</w>
wĩ e</w>
uri es</w>
thay ũũk
tak en</w>
sumbĩ ka</w>
suff ering</w>
su gg
pub lic</w>
pr ess</w>
nĩ ya
n ũũ</w>
g n</w>
cul tiv
cl es</w>
cl early</w>
c r
build ing</w>
b ur
b ri
atĩ ĩaa</w>
app ointed</w>
an tha</w>
O r</w>
Ng ewa</w>
M es
Kwĩ ka</w>
Gen esis</w>
A ustr
yũmban ĩtye</w>
v ic
mal ĩ</w>
langu ages</w>
kĩ va</w>
h ere</w>
h and
es ti
ec tive</w>
d eli
d eep</w>
chang ed</w>
challeng es</w>
any anyae</w>
ac ted</w>
J ap
J ac
C or</w>
6 0</w>
1 8
ũti anĩo</w>
Ũ th
ĩk aa</w>
wa ĩlĩte</w>
um wa</w>
streng th
resp ond</w>
re por
ra ised</w>
paragrap h</w>
o t</w>
ny ie</w>
mee kie</w>
kĩt we</w>
kwa ka</w>
kw ananga</w>
he ad
gro w</w>
er n
as eo</w>
ak ame</w>
P e
Nĩk yo</w>
Mb ee</w>
L ev
yĩ ngĩ</w>
wor ks</w>
val ue</w>
trav el
thay ũnĩ</w>
p as
nĩ kĩl
ngal ĩko</w>
lar ge</w>
k ey</w>
fal se</w>
fac ed</w>
ee s</w>
cer tain
av ĩt
ati c</w>
ath i
an isye</w>
Y u</w>
Mya ka</w>
K ĩv
Fir st</w>
D id</w>
A NG
ũk ethĩwa</w>
ĩĩ wa</w>
ĩk aseti</w>
sp oke</w>
s ex
reas on
obe y</w>
ni ght</w>
mw eũ</w>
man ĩ</w>
ma kĩa</w>
kũ tethe
it ation</w>
h osp
go al</w>
des ires</w>
conv inc
at ongoi</w>
al one</w>
Inde ed</w>
ũt umaa</w>
ĩ ĩ</w>
t yp
pro duc
on alĩ</w>
nĩw endaa</w>
mis sion
le y</w>
kan ini</w>
il ungu</w>
hi gh</w>
con clud
ay ed</w>
au ti
aff ect</w>
Nĩ nĩ
wĩ ana</w>
ti we</w>
refl ect</w>
recor ded</w>
re ach</w>
pub lic
kĩ w’ũ</w>
k enda</w>
il ĩl
guid ance</w>
go als</w>
fa il
explain ed</w>
ex p
end ee</w>
continu ed</w>
ation al</w>
ũkũm ũ</w>
ĩkĩĩth asya</w>
ĩk onĩ</w>
yĩ thĩawa</w>
ur ch</w>
un iver
u u</w>
st u
st ates</w>
si ĩĩa</w>
person ality</w>
p e</w>
om ana</w>
nĩkĩl i</w>
mũ themba</w>
mĩv ĩtu</w>
mwath ani</w>
mak onetye</w>
ma ũvoo</w>
happ iness</w>
happ en</w>
h old</w>
fe ar</w>
ele awa</w>
el der</w>
devel op
dev o
cre ated</w>
commun ic
bl ood</w>
b att
am ĩĩa</w>
O V
Ny ũmba</w>
J ust</w>
J u
ũ kwate</w>
ver s
st ated</w>
sl ave</w>
ne e</w>
me kaa</w>
kũs ũvĩa</w>
ind ĩĩsya</w>
et a</w>
cl aim
E ve</w>
E u
Asya i</w>
A ta</w>
4 6</w>
ũng ĩie</w>
ĩkĩl aa</w>
w’ ĩkie</w>
sel f
reg ularly</w>
reg ard</w>
prop er</w>
p are</w>
nũt wendete</w>
nĩ ky
mũt ũ</w>
mo des
m ist
le ave</w>
kũt onya</w>
kũl asya</w>
great est</w>
explain s</w>
et onĩ</w>
end ure</w>
ek i</w>
e qu
coun try</w>
cho ose</w>
c as
c all</w>
av ika</w>
as ũanĩa</w>
accep ted</w>
Y ak</w>
W ĩa</w>
Ndev ili</w>
K ũm
G re
D es
Austr alia</w>
A T
ũm anĩtye</w>
ĩkĩ e</w>
y onanĩtye</w>
wor ked</w>
thĩ iwe</w>
stand ing</w>
pione ers</w>
on inĩ</w>
mũ isyo</w>
mee t</w>
math i</w>
m wĩ</w>
l ands</w>
happ ened</w>
es erved</w>
comm and
av i
att end</w>
as ye</w>
anx iety</w>
ang ĩte</w>
an n
N amo</w>
wa mũ
w id
rel at
orig in
oo kie</w>
ongo ew’e</w>
mũth ũkũmi</w>
mwĩ anĩe</w>
m it
li er</w>
ith yonthe</w>
ing ĩv
hum ility</w>
hel d</w>
he ar</w>
compl et
anĩ asya</w>
Q u
Ger many</w>
B e</w>
ũ it
y onanasya</w>
wĩ ona</w>
r on
oo a</w>
ongo esya</w>
off er</w>
nth akame</w>
kũ lika</w>
is ing</w>
inst ance</w>
ik ie</w>
friend ship</w>
for m
f ill</w>
en zi</w>
describ ed</w>
at ever</w>
Val ao</w>
TH E</w>
T wĩ
T wee
Mũ nene</w>
K ũv
ũv ainia</w>
ĩkal ũ</w>
ĩ ndũ
ya ĩlĩte</w>
ya a
wor k
tũ it
ti cles</w>
thĩnĩ kĩaa</w>
t reas
star t</w>
show ing</w>
s av
prov ides</w>
mo ko</w>
mbĩĩ onĩ</w>
kũny w’a</w>
ky ongo</w>
kum ana</w>
il iv
eth asya</w>
d wide</w>
comm on</w>
b er
ad ly</w>
T i</w>
K y
ũt etheeasya</w>
ũk omb
thr oughout</w>
sp ee
ol og
n ata</w>
mũt ĩ</w>
me ke</w>
ma kũ
kũmw enda</w>
kũ alyũla</w>
i ons</w>
est ab
devel op</w>
conv ention</w>
consci ence</w>
clos er</w>
ath ima</w>
andĩk iwe</w>
aith aa</w>
a o
Ma andĩkonĩ</w>
ũth ũ</w>
ĩ nee</w>
wh ose</w>
we ak
wa itũ</w>
v ĩt
und eserved</w>
twĩ thĩwa</w>
tri ed</w>
ta oninĩ</w>
t ou
step s</w>
sin s</w>
s ever
reas ons</w>
re nd
pur su
pra ise</w>
os ya</w>
ky ama</w>
iny ie</w>
id enti
ic o</w>
fles h</w>
d on
consid ered</w>
beh ind</w>
adv ice</w>
V eva</w>
N ee
E t
ũ wau</w>
ĩ isye</w>
ung unĩ</w>
twa ĩ</w>
thĩn w’a</w>
succ ess
prophec y</w>
on ekaa</w>
milli ons</w>
l asi
lasi ma</w>
kĩ ĩte</w>
ka mb
gh ty</w>
fore ign</w>
eas y</w>
div ine</w>
a head</w>
Samu el</w>
Per haps</w>
I nd
B ar
ũth wii</w>
ĩkĩl ile</w>
wa yo</w>
w anĩ</w>
ta o</w>
syĩ va</w>
spe aking</w>
nĩwa ĩle</w>
neighb or</w>
ma woni</w>
kũ eka</w>
foc us</w>
en courage</w>
chap ter</w>
c y</w>
as etinĩ</w>
anĩ th
al ing</w>
a z
S ch
Eli ya</w>
Bro ther</w>
Av i</w>
ya wa</w>
wat er</w>
wa it</w>
twas ye</w>
st op</w>
pers ec
p ol
o li
mũt anu</w>
mĩ io</w>
mya kanĩ</w>
kũ ya</w>
kũ mina</w>
kwat ĩte</w>
ir ed</w>
il ya</w>
h ur
el se</w>
dis cer
di es</w>
der ly</w>
de f
chang es</w>
ar ticles</w>
appro pri
ai m</w>
L ater</w>
L A</w>
E nd
ĨTH ANG
ĨTHANG Ũ</w>
ver se</w>
sy oka</w>
ro le</w>
pl an
our ce</w>
ol os
mũv oya</w>
me mor
ma wetetwe</w>
list en</w>
kũk ita</w>
kũ sumbĩka</w>
kya ku</w>
k am
ish ers</w>
im p
if ied</w>
hist ory</w>
con tain
com par
am at
O N
M ary</w>
A ĩtye</w>
4 8</w>
ĩ ng
vis it</w>
tũ th
or k</w>
nĩ sya
nd e</w>
mate theesye</w>
ma yaĩ</w>
ik o</w>
e mwa</w>
dis t
certain ly</w>
am ũ</w>
acc or
Nĩ wa
ũs oma</w>
w’ĩkĩ th
ur ther</w>
ur r
tũ kat
reg ular</w>
re jo
onz a</w>
me kwenda</w>
me ko</w>
ma mwĩ
judg ment</w>
inter ests</w>
gr ound</w>
fore told</w>
con c
cent uries</w>
as ion</w>
a kũ
a f
Samu eli</w>
S er
Phar ao
M ko</w>
H all</w>
Eli j
v aĩ</w>
v aa</w>
par adise</w>
p sal
over bs</w>
op en</w>
off ered</w>
mũ andĩki</w>
kũl ũmany’a</w>
kũ weta</w>
kno ws</w>
k eep
hear t
et ee</w>
enti al</w>
el ika</w>
cou ple</w>
cor rec
compas sion</w>
challeng e</w>
app ear
anĩ w’a</w>
accor ding</w>
R om</w>
Jap an</w>
Babyl on</w>
Ac cor
wond er</w>
with in</w>
v ation</w>
tũ ng
transl ation</w>
tr ans
th ous
t wa</w>
serv ant</w>
proble m</w>
nd onya</w>
ma um
m en
h om
g y</w>
ear lier</w>
dra w
der n</w>
cho ice</w>
b us
at w’ĩka</w>
allow ed</w>
W A
St ud
Solom oni</w>
S aulo</w>
Pro v</w>
Pr overbs</w>
E N
underst ood</w>
tru st
teach ings</w>
tak es</w>
see m</w>
re bel
ra in</w>
oc r
o l</w>
nĩ tũt
ny uv
matat wa</w>
man een
kĩ ĩa</w>
ka ĩ</w>
com for
b read</w>
aneng a</w>
al ed</w>
aff ection</w>
P ol
No t</w>
K eep</w>
H ave</w>
y ond</w>
th aa</w>
som o</w>
sex ual</w>
see k</w>
real ize</w>
occ asion</w>
nĩ kũ
mũla ĩka</w>
me t</w>
loy alty</w>
in s</w>
hosp it
for med</w>
fi ght</w>
ew ise</w>
es enĩ</w>
en emi
enemi es</w>
c al
be yond</w>
ath ũku</w>
assign ed</w>
anga asya</w>
ak av
Pe ople</w>
Mes si
K wa
A ingĩ</w>
ũku nĩkĩli</w>
twĩ sĩ</w>
tru c
re pres
person ally</w>
par tic
mw anake</w>
mat waanĩte</w>
mak ath
kũtũ tethya</w>
in yu</w>
im ũ</w>
ex pect</w>
de m
becom ing</w>
at anamba</w>
al ũngalu</w>
T w
B ri
19 8
you ng
u b
t ors</w>
sever al</w>
resurrec ted</w>
ra z
pre pare</w>
nd y
med itate</w>
kĩ nene</w>
k ak
har mony</w>
g ri
be auti
author ity</w>
asy ok
appropri ate</w>
add ition</w>
Y ork</w>
Wat ch</w>
M ũv
G over
Am elika</w>
ũv ĩe</w>
v ital</w>
tũ yaĩle</w>
tr ain</w>
sy ũmbe</w>
spee ch</w>
publ ishers</w>
mak om
liter ature</w>
kwa kwa</w>
humb le</w>
gover nment</w>
gen u
er t</w>
en n
dec ided</w>
cl o
beh alf</w>
T ata</w>
ũtũ ng
ũ na</w>
ĩt h</w>
u it</w>
t or</w>
st ay</w>
situ ations</w>
sel l</w>
ov isi</w>
nĩ ng
nd esa</w>
mi ghty</w>
kav ola</w>
if ic</w>
heaven s</w>
fulfill ment</w>
exam ine</w>
es tions</w>
e at</w>
deep ly</w>
b al
atũm ĩa</w>
ate ful</w>
are a</w>
al ive</w>
ag er</w>
Y uta</w>
Nz ĩa</w>
N thĩnĩ</w>
N A</w>
Mar k</w>
Eng lish</w>
1 6
ũteth ya</w>
ũs ũanĩa</w>
war e</w>
te gr
sh ep
shep her
s ou
s or
nĩkũt umaa</w>
ng ili</w>
necess ary</w>
mo dern</w>
mb inyu</w>
lear ning</w>
kũmwĩ w’a</w>
j ust
in her
i anda</w>
fir m</w>
en ough</w>
en e
ed uc
de p
convinc ed</w>
c a</w>
at ĩte</w>
ak es</w>
ac ts</w>
M ore
Kĩs ũngũ</w>
B e
ĩ na</w>
wet aa</w>
wath ĩte</w>
tũi ka
ter rit
qu ick
prom o
pris on</w>
pol it
o yaa</w>
o b</w>
ma manye</w>
kũv ĩt
kũt anĩa</w>
kw endeesya</w>
iv er</w>
includ e</w>
in tegr
i it
every one</w>
er ous</w>
ent ually</w>
end s</w>
eleet w’e</w>
ee kaa</w>
ath an</w>
as king</w>
amũ ika</w>
am ĩĩe</w>
Tr ue</w>
The ir</w>
More over</w>
Ma v</w>
Li fe</w>
Jac ob</w>
Eno ko</w>
B efore</w>
ũny anya</w>
ũng ’
ũ neen
Ĩ ĩ</w>
ya i</w>
war ning</w>
t ful</w>
ro l
oomb ie</w>
o to</w>
nĩma ĩle</w>
nam any
mũũnd anĩ</w>
mũthũkũ maa</w>
mũsya i</w>
mũny anyae</w>
kũneng ane</w>
kwĩt anĩthya</w>
j ects</w>
ith ũ
ind o</w>
in ation</w>
il t</w>
ex pressed</w>
enjo yed</w>
encourag ed</w>
ee ie</w>
des pite</w>
dedic ation</w>
con sequ
c arr
at wa</w>
ang el</w>
Solom on</w>
S is
Nz ama</w>
Mas ia</w>
Kwo ndũ</w>
K aũ</w>
5 5</w>
20 13</w>
19 7
ĩk asetinĩ</w>
yĩ atĩĩe</w>
wĩ kĩte</w>
worl dwide</w>
tũ tũmĩ
ther efore</w>
prog ress</w>
prac tice</w>
nĩ mo
nat ur
my ei</w>
me kale</w>
me as
mb ũ
mate theesya</w>
ma wĩ
kũneng wa</w>
kũ seũv
isi onĩ</w>
inv ited</w>
influ ence</w>
i magine</w>
en ter</w>
em pl
elek ela</w>
cond itions</w>
bas is</w>
accoun ts</w>
Nd etonĩ</w>
A fri
ũk iak
yum isye</w>
vis ion</w>
va asa</w>
u m</w>
u gg
re war
quick ly</w>
pray ed</w>
pos s
p ain</w>
ov ed</w>
os t</w>
ng ai</w>
n av
mo tiv
ma l</w>
lov es</w>
lear ly</w>
kũ mat
im medi
i ah</w>
gr ap
f ive</w>
eny anĩ</w>
eng a</w>
el derly</w>
comm and</w>
b oo
arrang ement</w>
al i
acc ur
a theu</w>
T I
M eli</w>
K ĩt
C learly</w>
B .
B. C.E</w>
ũneng a</w>
ũkũ sĩ</w>
ũkomb onĩ</w>
ĩĩ we</w>
ĩ ĩk
ĩ manĩ</w>
w’ ĩa</w>
wa wetie</w>
uv i</w>
tũ neng
th atũ</w>
syĩ thĩo</w>
re ward</w>
qu ality</w>
pos itive</w>
p at
oun t</w>
nĩ s
mũ kũũ</w>
mind s</w>
kũ ka</w>
kwa ku</w>
it ating</w>
gl ory</w>
exerc ise</w>
cre ation</w>
atũmĩ aa</w>
ate theesya</w>
appro ach</w>
an tly</w>
’ o</w>
ũs ili</w>
ũ ũ
w el
ur ity</w>
relig ion</w>
on y</w>
nĩwĩ thĩawa</w>
mo k
me o</w>
me kal
ma ana</w>
li f
let ter</w>
kũ ĩkĩĩa</w>
ky at
kwĩ l
h s</w>
g ir
ex pression</w>
d re
beauti ful</w>
an ĩtw’e</w>
ag o</w>
Wend o</w>
Sim il
L ilikana</w>
Afri ca</w>
ũv ĩt
wee thĩa</w>
vol un
us aa</w>
ur ance</w>
up on</w>
tu ally</w>
su res</w>
stud ents</w>
som i</w>
sa enzi</w>
res tor
res ol
off ice</w>
mwa mbĩĩonĩ</w>
ma s</w>
kwĩ kũlya</w>
know ing</w>
integr ity</w>
gr ateful</w>
ex press</w>
consequ ences</w>
av anasya</w>
ang ie</w>
a kĩ
U nd
T ower</w>
I l
Hebre ws</w>
E R</w>
C ar
Ar th
4 9</w>
ũyĩ thĩa</w>
ũtũ nengete</w>
ũk ũ</w>
vo ice</w>
ter n</w>
sur ely</w>
ro ad</w>
re turned</w>
nĩwa mũ
nĩw eet
ma ĩlĩte</w>
la ws</w>
kũ me
kũ many
kwĩ anĩa</w>
id ing</w>
f urther</w>
em ents</w>
e isye</w>
des truc
cultiv ate</w>
contr ast</w>
circ uit</w>
c es</w>
batt le</w>
as umbĩ</w>
S te
Re ally</w>
N ao</w>
Mwa ka</w>
Kĩ ndũ</w>
I ny
Elij ah</w>
6 5</w>
ze al
var ious</w>
tũ ũ
t est</w>
su pp
prot ect</w>
ong ele
on om
nz yawa</w>
ny amũ</w>
n ’t</w>
mĩth ũku</w>
mat i
less on</w>
kũ kwatwa</w>
is inĩ</w>
for ward</w>
for give</w>
fir e</w>
e ful</w>
du ce</w>
cor rup
concer n</w>
b ed</w>
T wĩ</w>
O R
L ove</w>
A manyĩw’a</w>
1 5
’ e</w>
ũt ukũ</w>
ũng ĩ
ĩs aa</w>
wĩs a</w>
w esie</w>
v ainia</w>
tw oona</w>
tr a
t yo</w>
res t</w>
rec ord</w>
r ele
peri od</w>
oth aa</w>
ong s</w>
on ’s</w>
on any’e</w>
obedi ent</w>
ne w
mon ths</w>
ma j
import ance</w>
f oo
expec ted</w>
end wa</w>
emo tion
ear ch</w>
con vers
benef its</w>
ar s</w>
am ’s</w>
Wit ness</w>
S aul</w>
M w
M o</w>
Kwĩ thĩwa</w>
H ence</w>
Eu ro
El esya</w>
Al so</w>
ũ y
yũlũl ũko</w>
young er</w>
wĩ ka</w>
w onzu</w>
tell s</w>
some times</w>
shi ps</w>
self ish</w>
s ource</w>
r en
ocr atic</w>
nĩwo onanisye</w>
nz a</w>
neng ae</w>
m u
m oo
m enyu</w>
m endaa</w>
kw elekela</w>
fill ed</w>
ate theesye</w>
am s</w>
alyũl ĩtwe</w>
a endeee</w>
S uk
Nĩ na
Mũt a</w>
Arth ur</w>
Accor ding</w>
A th</w>
ũs ũngĩo</w>
ũ e</w>
wo onie</w>
wa mwĩ
uma sya</w>
s ound</w>
resul ts</w>
real ized</w>
public ations</w>
psal mis
psalmis t</w>
plac es</w>
nes anga</w>
li a</w>
less ons</w>
kĩsi o</w>
kw ongel
inter ested</w>
iliv i</w>
gu ard</w>
gr and
bless ed</w>
ath a</w>
at ures</w>
asy oka</w>
anĩ ĩte</w>
ab ove</w>
Kĩv athũkany’o</w>
B raz
0 1</w>
ũkũ l
ĩ nene</w>
y n</w>
wa a
w ives</w>
uth u</w>
tri es</w>
than thatũ</w>
sy ũa</w>
sign ific
see king</w>
sal vation</w>
pati ence</w>
o onaa</w>
o lic</w>
nĩtwĩ sĩ</w>
nĩkũt onya</w>
nd ũka
me thĩĩtwe</w>
mb ua</w>
mat ũ
mat ukũ</w>
mat aĩ</w>
kũv i
kĩ mũtũ</w>
ky umwa</w>
kwĩ kal
includ ed</w>
immor ality</w>
famili es</w>
et ĩkĩl
estab l
con struc
con st
cl us
atis iwe</w>
ang ĩĩa</w>
K Ũ
I magine</w>
I N
Al i</w>
0 0,000</w>
wor thy</w>
wan een
so ci
si gn</w>
see ms</w>
sac red</w>
publ ished</w>
pre v
p ut
on oka</w>
obedi ence</w>
n ers</w>
mak eethĩwa</w>
mag az
ma kwat
loo king</w>
l ose</w>
kũs isya</w>
kũmũth aitha</w>
kwĩ thukĩĩsya</w>
kw endeew’a</w>
iv eti</w>
im any
i mag
go dly</w>
expl ain</w>
ex ec
enti re</w>
ec ting</w>
bro ther
ass ist</w>
am i</w>
a mbĩĩa</w>
a eni</w>
Un ited</w>
Th ough</w>
Suk ulu</w>
Simil arly</w>
Sch ool</w>
M ic
K Ĩ
He b</w>
Gover ning</w>
E S
Bo dy</w>
ũtũ mĩa</w>
ũsengy ’o</w>
ĩkĩĩ e</w>
ĩ to</w>
z a</w>
wet wa</w>
wa mbĩĩe</w>
tũ v
twa th
tr ou
territ ory</w>
st ri
spec ific</w>
si kala</w>
se par
s w
s il
ro w</w>
resp ond
relat ives</w>
our s</w>
ny anya</w>
mũ manyĩw’a</w>
mas aa</w>
manyĩ ĩtye</w>
kũl ũlũmĩlya</w>
kũ ĩkĩĩthya</w>
k iwe</w>
iti on
in hab
id ently</w>
g ath
f are</w>
er tain
em p
do c
di a</w>
dedic ated</w>
d ang
cl aim</w>
c ar</w>
aneng wa</w>
am wĩa</w>
N ak
Mos t</w>
Kũ t</w>
ũmany e</w>
wĩ thĩĩtwe</w>
wo ona</w>
tũ la</w>
twĩ kale</w>
syok ie</w>
stud ying</w>
or ity</w>
on ete</w>
nĩwa wetie</w>
nei ther</w>
ne g
mũt av
my self</w>
mo wau</w>
maya a
ma umĩte</w>
li gh
kĩl ĩkonĩ</w>
k ings</w>
h ood</w>
discus s</w>
complet ely</w>
ch urch</w>
be ar</w>
ath ana</w>
ac her</w>
Th r
A avu</w>
ĩl aa</w>
wat umie</w>
valu able</w>
tru ths</w>
tethe eisye</w>
t ye</w>
t ong
syĩ thĩawa</w>
shar ing</w>
sh own</w>
ri ed</w>
recogn ize</w>
reason able</w>
po or</w>
pec ts</w>
over come</w>
or ed</w>
neng a</w>
mũsya ĩĩsya</w>
mĩt ĩ</w>
mer cy</w>
mb al
ma watho</w>
k el
is onalĩ</w>
ful ness</w>
as semb
are as</w>
any uv
a is
Rus sia</w>
O thers</w>
Braz il</w>
ũk ya</w>
urr ent</w>
und i</w>
un e</w>
tw at
thĩ ny
satis fac
rel ates</w>
pri de</w>
prepar ed</w>
p ed</w>
origin al</w>
off ic
nĩw atumie</w>
nĩ nat
ng uthu</w>
mũt we</w>
mĩs oa</w>
ma mb
ma asya</w>
kwĩ makĩa</w>
jo y
il w’e</w>
ha b</w>
gr ad
genu ine</w>
crow d</w>
c rit
ang aa</w>
ak w’ũ</w>
a ware</w>
Par adise</w>
Nĩ n
J air
I ’
I S
Et eni</w>
A no
ũk eethĩwa</w>
ĩ ndũa</w>
Ĩt ongoesye</w>
y ’s</w>
y oka</w>
y endete</w>
wĩthĩ e</w>
wit nes
wend e</w>
wa a</w>
u tr
te en
sy enyu</w>
str ive</w>
sim ũ</w>
rep ent
nĩwa mbĩĩe</w>
nĩ vo</w>
n ational</w>
mĩv othi</w>
mwĩ t
mw ingangĩ</w>
mist akes</w>
mak av
m it</w>
loo ked</w>
ky eva</w>
kw ete</w>
k as
in iti
i ble</w>
giv eness</w>
ee a</w>
destruc tion</w>
d om
comm it
ch ing</w>
c oll
bel oved</w>
as umbĩ
ar ies</w>
ang ĩ
am anĩ</w>
Rus sell</w>
P A
Nĩ kwĩthĩwa</w>
Kĩt umi</w>
Gre at</w>
1 ,
ũtũmĩ aa</w>
ũ athimo</w>
wĩv ĩto</w>
wa ĩtye</w>
ti ci
tici p
thukĩ ĩsye</w>
th a
sub ject</w>
str ugg
st re
satisfac tion</w>
re act</w>
paragrap hs</w>
os en</w>
nĩ v
natur al</w>
mũth yũlũlũko</w>
mũt avya</w>
mũ onza</w>
mw olooto</w>
mos ũngĩo</w>
mo tao</w>
mb athi</w>
mat ũmĩaa</w>
mat umaa</w>
lo t</w>
individ ual</w>
iak i
et ea</w>
con qu
b i
an ae</w>
al i</w>
ad just
aa c</w>
a ilyĩ</w>
Y A
Stud ents</w>
Re member</w>
Is aac</w>
A S
4 ,000</w>
ũmĩ ĩte</w>
ĩl ĩ</w>
Ĩ s
y at
vi as
sur pr
ste p</w>
s en
prot ection</w>
pro c
over see
over ed</w>
ov isinĩ</w>
nĩwo onie</w>
nĩw esie</w>
ny ũmbanĩ</w>
neg ative</w>
nd at
m ental</w>
kũt e</w>
kũ asa</w>
in ning</w>
gif ts</w>
for giveness</w>
f re
end i</w>
ed ly</w>
des c
consi der
c li
bir th</w>
bac k
arr ived</w>
aly ũka</w>
ag ed</w>
ad ded</w>
S outh</w>
S o
L E</w>
Eng land</w>
B rit
A n</w>
19 19</w>
ũt aĩle</w>
ĩl ĩ
v ing</w>
si x</w>
sh ort</w>
pe op
par ent</w>
ou d</w>
nũt umaa</w>
nũ kwenda</w>
mũl ũngalu</w>
mar k
ma ku
l s</w>
kũ andĩka</w>
i ma
g etting</w>
fin al</w>
fell ow
feel ing</w>
experi ences</w>
eth isye</w>
et ern
enc y</w>
ek ia</w>
ef s</w>
e theesye</w>
e ma
ch osen</w>
boo ks</w>
beg in</w>
att ending</w>
as ũanĩaa</w>
ar my</w>
al imũ</w>
ag ree</w>
activ ity</w>
W E</w>
S u
N av
E n
ũlũmĩl ye</w>
w’ an
wĩt ĩkĩl
wĩ ke</w>
wh atever</w>
wal k</w>
ur ged</w>
u ge</w>
tũ mũ
thĩnĩ ka</w>
ta oni</w>
slav es</w>
s aa</w>
ri a</w>
respon se</w>
res sed</w>
re pe
ple ased</w>
pe ac
oversee r</w>
ound ed</w>
op position</w>
nd awa</w>
mĩ meo</w>
main tain
ma mũth
lead ers</w>
l ate</w>
kũtũ mĩ
kũ neenea</w>
kũ n
kũ matetheesya</w>
kwĩ ana</w>
k awa</w>
is yonĩ</w>
for d</w>
ev entually</w>
es o</w>
encourag ing</w>
emi ah</w>
e ’s</w>
conf ident</w>
comp ani
c oo
c ed</w>
anx ious</w>
ang ũnĩ</w>
an ted</w>
al on
Y onthe</w>
Y O
W illi
E ph
At umĩa</w>
ũ the
ĩt uvi</w>
Ĩ k
Ĩ T
you th</w>
wĩ onany’a</w>
wo onanisye</w>
wa mb
univer se</w>
tr ying</w>
thĩ ie</w>
thous ands</w>
sim ple</w>
sch ol
s tic
r a</w>
pros pect</w>
pri mar
os s</w>
no te</w>
nd waĩ</w>
mission ary</w>
mat ũm
m ing</w>
m end
l ack</w>
kwĩt ĩkĩl
kw anangwa</w>
j ected</w>
it umi</w>
eny iv
dis courag
dis as
beli efs</w>
as eũv
ar k</w>
angu age</w>
anc ed</w>
ait ũmĩa</w>
ac qu
W H
Th ink</w>
R ob
Nĩv o</w>
Nd ũk
L ik
Is aka</w>
In ter
ũk onetye</w>
ĩs omonĩ</w>
wee wie</w>
was yo</w>
u o</w>
twa k
sp ok
sing le</w>
sin c
sinc ere</w>
reve aled</w>
qu e</w>
pres ence</w>
occ asi
mor al</w>
mil es</w>
kũ kat
kwĩ kĩka</w>
kwat asya</w>
kill ed</w>
kel ĩtu</w>
ka uta</w>
in justice</w>
in ing</w>
in cl
il ea</w>
gl or
follow ed</w>
et anga</w>
demonstr ate</w>
dec lar
c ope</w>
br ings</w>
ani c</w>
adv ant
a ĩe</w>
M ore</w>
Jair o</w>
B ed
Ath ũkũmi</w>
ũt uma</w>
wath i</w>
w. jw.org</w>
w w.jw.org</w>
w ww.jw.org</w>
view ed</w>
un i
twa v
th eless</w>
sp read</w>
serv es</w>
see med</w>
s ort</w>
s et
ri ch</w>
rel ated</w>
pre ached</w>
plac ed</w>
pl ying</w>
ova l</w>
os anĩte</w>
oomb iwe</w>
namany ie</w>
mũ isyonĩ</w>
mũ ima</w>
mak e
ma st
ma aĩle</w>
m esĩ</w>
li on</w>
ky ee
kwĩ an
h op
g ent</w>
for th</w>
ever theless</w>
er gy</w>
elem ia</w>
el eeka</w>
communic ation</w>
c ol
atũmĩ ie</w>
atũ i</w>
answ ered</w>
ang i</w>
amwĩ ie</w>
al u
Y elemia</w>
W ar</w>
P et</w>
L anguage</w>
Kũm anya</w>
G en</w>
G E</w>
Eno ch</w>
E zeki
E ach</w>
D i
20 14</w>
ĩ anĩ</w>
yĩ ana</w>
y on
wr ite</w>
wee k</w>
vis ited</w>
vias ala</w>
us ũ
tũy ĩsa</w>
tũ ta
travel ing</w>
s k
pic ture</w>
nĩwee kie</w>
nĩw onaa</w>
nĩ nee
nd ya
m esaa</w>
kwa sũanĩa</w>
j our
ir d</w>
increas e</w>
immor al</w>
i j
f ying</w>
ev ent</w>
ep h
ent ertain
eki eli</w>
ei ther</w>
eff ective</w>
e ase</w>
e anĩsye</w>
coun tries</w>
contri b
care fully</w>
at ũtetheesye</w>
ad ds</w>
T each</w>
S ep
Pharao h</w>
Nĩ ng
H app
Es ekieli</w>
Des pite</w>
A ar
ũmĩ awa</w>
ĩt atũ</w>
ĩkal ũnĩ</w>
wĩ kal
wa andĩkie</w>
tũ neen
twas ũanĩa</w>
s um
requ ired</w>
r ely</w>
polit ical</w>
persec ution</w>
op ening</w>
op ened</w>
om anie</w>
nĩma th
ng ya</w>
nd ata</w>
mĩth enyanĩ</w>
mĩ thĩnzĩo</w>
mw ei</w>
mat ure</w>
ma itha</w>
kĩ iwe</w>
ku a</w>
keep ing</w>
kav aa</w>
k yo</w>
ene my</w>
ende av
ekal ile</w>
e asi
do or</w>
displ ay</w>
challeng ing</w>
ca used</w>
c ust
ayũũk ya</w>
as omi</w>
any’ anĩ</w>
am ĩ
ab and
a e
W as</w>
N evertheless</w>
Mb al
ũ ya</w>
ĩv ĩtyo</w>
ĩ thĩwa</w>
y ĩs
wr ong
wa umisye</w>
viol ence</w>
tũ i</w>
thĩny ’a</w>
th reat
t ment</w>
sy mb
pr oval</w>
pass ed</w>
one ’s</w>
nĩtw endete</w>
nyuv ĩa</w>
ng ito</w>
ne utr
mũũnd a</w>
mĩ isyo</w>
maneng etwe</w>
ma syĩtwa</w>
ma le
kĩt alĩ</w>
kat atũ</w>
k eka</w>
it atũ</w>
invol ves</w>
ing ing</w>
hospit ality</w>
es yo</w>
er ship</w>
ed ness</w>
det ail
de ar</w>
ch ose</w>
carr y</w>
av an’ya</w>
andĩkĩ ie</w>
an isa</w>
accompl ish</w>
T E
St ates</w>
S i
ND Ũ</w>
Mat ukũ</w>
Ith yĩ</w>
5 00</w>
19 6
ũv a</w>
ũt onyeka</w>
ũng’ endu</w>
ũkũ ũ</w>
ũk anga</w>
ũ ek
y eetawa</w>
um ĩla</w>
tw eeka</w>
t less</w>
spe ak
pione ering</w>
p ages</w>
organiz ed</w>
ong ela</w>
ng ũĩ</w>
n ũs
n inyie</w>
mind ed</w>
milli on</w>
meth o
mav ukunĩ</w>
ma ĩkĩĩaa</w>
ma mw
k ol
is tic</w>
is ted</w>
immedi ately</w>
iak isya</w>
heart felt</w>
form er</w>
fav or</w>
ext ent</w>
et ete</w>
et ae</w>
ee w’aa</w>
direc ted</w>
destro yed</w>
beg inning</w>
ati a</w>
at w’ĩke</w>
as pects</w>
ag re
ab und
Ste ph
M an
Lev eka</w>
L e
Jos hu
He zeki
E asya</w>
Bri an</w>
Ano ther</w>
A ĩ</w>
: ⁠</w>
4 7</w>
ũng ama</w>
ũ ke</w>
ĩth angũnĩ</w>
ĩkĩ twe</w>
w’ĩkĩ thya</w>
wor th</w>
un ities</w>
tong ue</w>
thĩ aa</w>
teach es</w>
sp ent</w>
responsib ilities</w>
rel and</w>
ref used</w>
prec ed
perf ection</w>
par ts</w>
o onanasya</w>
nĩ mak
me ana</w>
math ok
lo b
kũl wa</w>
ky enyu</w>
kwĩy ũmb
ing’ o</w>
im in
ik ethĩwa</w>
if y</w>
i als</w>
har d
fulfill ed</w>
foc used</w>
er r
eng ane</w>
ende esye</w>
empl oy
el esyo</w>
ekal e</w>
easi er</w>
de b
contri bu
concer ns</w>
bu ilt</w>
bo x</w>
asyok ie</w>
ap proval</w>
anĩ w’e</w>
anya a</w>
and ũkũ</w>
ad ul
ac tually</w>
a thembi</w>
W ak
Sy ana</w>
On the</w>
M ex
I reland</w>
Euro pe</w>
ũneng ete</w>
ĩt ĩkĩla</w>
ĩkĩĩth ĩtye</w>
ĩkĩĩth isye</w>
z ar
yĩ thĩwe</w>
wĩt ing’o</w>
waneng ie</w>
wal king</w>
w onanasya</w>
v at
typ e</w>
ter m</w>
t on</w>
see ing</w>
requ est</w>
remain ed</w>
privile ges</w>
per c
pe l</w>
p p</w>
opport unities</w>
ob serve</w>
o d
nĩme thĩawa</w>
nth oni</w>
ma endaa</w>
lim ited</w>
lead ing</w>
kũ mũnenga</w>
kĩl ya</w>
kĩl ungunĩ</w>
kwĩ nyuvĩa</w>
inv itation</w>
indic ate</w>
i re
househ old</w>
gr as
fru it
fr on
f und
f ath
ete ela</w>
es i
endee asya</w>
e na</w>
disci ple</w>
construc tion</w>
conclud e</w>
cho os
aĩ we</w>
at s</w>
ain ed</w>
accur ate</w>
a ie</w>
N ũũ</w>
L ef
J an
Es ekia</w>
Egyp ti
A i
A hab</w>
ũth ya</w>
ĩkĩĩ o</w>
è v
wĩ kalaa</w>
wic k
us h
un i</w>
tũ atĩĩe</w>
ti anĩo</w>
suff er</w>
strength ened</w>
sol di
se a</w>
s ite</w>
ris h</w>
reve al</w>
rejo ice</w>
ound s</w>
ool s</w>
off ering</w>
occ ur
nd aka
mo ona</w>
mbal asi</w>
ma sya
ma kwate</w>
ma im
kũseũv ya</w>
kĩl asi</w>
kwĩan ana</w>
kw oneka</w>
jo b</w>
in s
ima ge</w>
ik ile</w>
g y
for ce</w>
ew i</w>
cas es</w>
atĩ ka</w>
ath ũk
ang anĩ</w>
aneen aa</w>
al most</w>
a ĩa</w>
T uv
Re g
PA GE</w>
Mũ ik
M ami</w>
Lef èv
C an
As k</w>
A ng
8 0</w>
5 4</w>
ũ thĩ
ĩth angũ</w>
ĩlĩl wa</w>
ĩl ya</w>
ya th
we i
w ona</w>
vis ible</w>
tũ kwate</w>
treas ure</w>
tem por
ri ches</w>
reli ef</w>
put ting</w>
pro per
pro claim
pray ing</w>
par able</w>
p ot
no tic
mũĩkĩĩ e</w>
mũtũ i</w>
mũs oa</w>
mũ tetheesya</w>
mee thĩawa</w>
me ie</w>
me dic
may ĩsa</w>
m ly</w>
m esa</w>
kũma kya</w>
kũ tia</w>
kũ ngĩ</w>
il we</w>
ic a</w>
hon es
faith fully</w>
eth ukĩ
draw n</w>
d anger</w>
courag e
convers ation</w>
conv en
chap ters</w>
car ing</w>
c ities</w>
believ ing</w>
av a</w>
asya a</w>
am isonalĩ</w>
ac tive</w>
S om
Mũ ndũũme</w>
Mex ico</w>
L am
J E
Ezeki el</w>
ũtav any’anĩ</w>
ĩth i</w>
ĩk om
y ourselves</w>
wh ol
we esĩ</w>
wa iting</w>
viol ent</w>
ver ses</w>
us u</w>
tũs ũanĩe</w>
tur ning</w>
ter ed</w>
sy ama</w>
spok en</w>
ref uge</w>
r ing</w>
qu o
pro f
press ure</w>
ph as
ow s</w>
ok i</w>
nd yaĩ</w>
mav isa</w>
mat es</w>
ma is
leg al</w>
kũtwa ana</w>
kũtethe ew’a</w>
k ill</w>
iz ing</w>
ing o</w>
ind eed</w>
hon est</w>
gu ide</w>
fail ed</w>
establ ished</w>
en tr
des ign
de al
d n’t</w>
cri be</w>
coo per
conv ic
comm is
char ac
c y
b asi
basi c</w>
appear ed</w>
alyũl i</w>
al e</w>
ai ma</w>
a ’s</w>
Z ec
Ye l</w>
Thr ough</w>
S ec
ND A</w>
K ũtũng
K ũsũanĩa</w>
Joshu a</w>
J on
Ab out</w>
1 19</w>
ũkiak isyo</w>
ũ kw
ĩ manyĩasya</w>
ĩ ma</w>
y umya</w>
y le</w>
tũ kwĩmanyĩsya</w>
thukĩ ĩasya</w>
tha avu</w>
th ooa</w>
t ree</w>
suff ered</w>
sec ular</w>
requ ire
ra m</w>
p er</w>
over se
on ok
nĩtũ mwendete</w>
nĩme esĩ</w>
mũt avany’a</w>
mũ ito</w>
m one</w>
kũtũmĩ wa</w>
kũth amĩĩa</w>
kwĩ likya</w>
kind ly</w>
in t</w>
ilik any’a</w>
h und
great ly</w>
fin anci
fellow shipp
f all</w>
ev itha</w>
ens ive</w>
emotion al</w>
em phas
ei ght</w>
deli ght</w>
cho ices</w>
ass ured</w>
an k
an e
am ea</w>
Wh ere</w>
S adly</w>
N or
Mb oya</w>
Kũtũng ĩlĩlwa</w>
Kĩ eleelo</w>
K eka</w>
C ath
ũt a</w>
ũs ani</w>
ũm ĩsya</w>
ũl yo</w>
ũ wetetwe</w>
Ũ mwe</w>
ĩk a
wit nesses</w>
trust ed</w>
thĩn asya</w>
tend er</w>
te dly</w>
surv ive</w>
s mo
respond ed</w>
rec ent</w>
ra ise</w>
pro duce</w>
pri ests</w>
pres sions</w>
om ita</w>
o ani</w>
nĩwa manyie</w>
ng enda</w>
n itonya</w>
mũtũ ng
mũneng ie</w>
mĩs eo</w>
mov ing</w>
mirac ul
ma mbĩĩe</w>
m id
kũ syoka</w>
kũ it
kũ eleeka</w>
kĩl omita</w>
ind ĩaa</w>
id ’s</w>
ic s</w>
f ind
et h</w>
endee iw’e</w>
en ab
d ue</w>
d less</w>
conf lic
br inging</w>
bl ess</w>
beh avi
att ended</w>
at itude</w>
asumbĩ ka</w>
as om
app oin
and etheeisye</w>
an z
an k</w>
aff ected</w>
a iv
V er
Re v</w>
R ec
Ny ũmbanĩ</w>
Mal iko</w>
K A</w>
E ri
Dav id’s</w>
C ould</w>
Av ilivi</w>
A nth
ũneng e</w>
ĩs eo</w>
ĩ ĩs
Ĩ somo</w>
w’ ano</w>
wick edness</w>
war ned</w>
va ĩle</w>
thĩ ĩo</w>
the ocratic</w>
te e</w>
ta ĩa</w>
st or
sou l</w>
sacrif ices</w>
s ive</w>
promo te</w>
pati ent</w>
p op
p ay</w>
os aa</w>
nĩ kya
ng ũlũ</w>
n theu</w>
mĩt ũlyo</w>
maneng a</w>
man thaa</w>
ma atĩĩe</w>
m us
lob al</w>
list ening</w>
kũt umaa</w>
kũmũth engeea</w>
k ness</w>
k m</w>
ing i</w>
illustr ations</w>
il ĩko</w>
ic ing</w>
h y</w>
h ours</w>
for get</w>
fav or
f loc
er ness</w>
elek any’a</w>
een ĩ</w>
discus sed</w>
cre atures</w>
concer ned</w>
ang ĩĩwa</w>
ang eli
an onĩ</w>
ad a</w>
W ath
T ed</w>
S A
Mũ andĩki</w>
M el
F in
F a
Eph es
Bi b
5 1</w>
— ⁠</w>
ũseũv yonĩ</w>
ũi iti</w>
ĩt omo</w>
ĩkĩ w’a</w>
wat ũmĩie</w>
w oombie</w>
vir g
vi ews</w>
un ited</w>
tũ maũndũ</w>
tũ im
twĩ kal
tri c
tre at</w>
transl ated</w>
s anc
p ure</w>
p un
occ ur</w>
o ĩ</w>
nz eve</w>
ne y</w>
n it
mũ wau</w>
mwĩ anĩu</w>
meth onĩ</w>
meas ure</w>
math ũkũmaa</w>
man if
ma mbĩĩa</w>
ma kwie</w>
le ast</w>
kũtũ ng
kũth ela</w>
kũmũ tetheesya</w>
kũ ilyĩ</w>
kĩ na</w>
kwĩv athana</w>
kwĩkal any’a</w>
iv ai</w>
instruc tions</w>
ind any’a</w>
ilik ene</w>
gre w</w>
gar den</w>
eth ye</w>
entertain ment</w>
ee wie</w>
dis cre
call ing</w>
bre ak</w>
b ar
atũmĩ ĩte</w>
atũmĩ awa</w>
as ks</w>
are r</w>
ag ing</w>
ad e</w>
W’ o</w>
W ith
Philipp ines</w>
On ce</w>
N aĩ</w>
Mũs eo</w>
H el
F l
E den</w>
Anth ony</w>
A ngĩ</w>
ũk aa</w>
ũ kwata</w>
Ĩ manyĩasya</w>
witnes sing</w>
war m</w>
ut er
sur r
su st
spiritu ality</w>
shepher d</w>
sh or
scrip tures</w>
rece iving</w>
r ac
practic es</w>
pos sib
p ing</w>
p h</w>
op pos
ol i</w>
o onie</w>
nd endaa</w>
mon th</w>
mas ũanĩaa</w>
mar ry</w>
makĩ o</w>
mak aseti</w>
ma kwataa</w>
ma kwata</w>
m oun
kũtũ nga</w>
k e
in sight</w>
im oni</w>
il ed</w>
ika mba</w>
hur t</w>
h alf</w>
ful fill</w>
f ail</w>
evee e</w>
er ly</w>
eng wa</w>
eng age</w>
ele br
ear nes
e kana</w>
daugh ters</w>
cul ture</w>
b it
ar ise</w>
an ity</w>
a wetie</w>
W eeka</w>
So on</w>
R O
R E
O ver</w>
No te</w>
Mũt avan’ya</w>
Lefèv re</w>
L ook</w>
K ikamba</w>
G u
El isa</w>
Can ada</w>
Aev eso</w>
1 7
ũt aĩ</w>
ũ ũka</w>
ĩv a</w>
Ĩk aseti</w>
y ĩsa</w>
w’ anene</w>
wa ili</w>
w one</w>
w in</w>
v ill
us crip
tw eteele</w>
to b
t es</w>
t al</w>
si asa</w>
refer red</w>
qu ar
pri est</w>
partic ularly</w>
ong elek
oli ath
oliath u</w>
o ta</w>
nĩw al
nĩ kwat
nya ĩĩk
n enyu</w>
mũ ĩ</w>
mũ thembi</w>
mĩ ĩ</w>
mu tha</w>
mos eo</w>
mor ning</w>
modes t</w>
mee kaa</w>
me w’aa</w>
me kĩte</w>
me ant</w>
man ’s</w>
mai ka
ma ili</w>
l ab
kũ na</w>
ith o</w>
it self</w>
ist ence</w>
issu es</w>
includ es</w>
illustr ate</w>
i ana</w>
h our</w>
h ol
famili ar</w>
fac ing</w>
f ell</w>
ex pressions</w>
eng e</w>
el ile</w>
ekal ia</w>
educ ation</w>
ec h
e w’aa</w>
devo tion</w>
desc end
con clus
cle an
ar ch
appe ar</w>
app lied</w>
anĩ isye</w>
ang ĩĩe</w>
ang ang
am an
Zec har
Y evitha</w>
VI NDA</w>
Nz ekalia</w>
Ng oliathu</w>
N di
Mũ ĩkĩĩo</w>
M in
Kĩs waili</w>
Kĩ th
K ya
I m
I B
H i
C ity</w>
Ai ee</w>
20 15</w>
2 00</w>
14 4,000</w>
1 ,000</w>
ĩs omo</w>
yĩt onya</w>
you ths</w>
y anĩ</w>
w’an ano</w>
was ye</w>
w oo
w esaa</w>
tũk eethĩawa</w>
than k
te mb
sya kwa</w>
sin ema</w>
sic k</w>
sh ou
se k</w>
res c
qu ite</w>
prov ision</w>
prev ent</w>
par ticip
on ment</w>
om s</w>
olos ai</w>
nĩwa mwĩ
nĩ kw
nat ure</w>
mas yo</w>
manyĩ o</w>
ma wendi</w>
m ev
kũs ũngĩa</w>
kũny uva</w>
kũ kũlya</w>
kũ ekea</w>
kĩth ũku</w>
ist ance</w>
ic k</w>
i ously</w>
h yp
h ly</w>
gr atitude</w>
gir l</w>
fru it</w>
ev ening</w>
er ve</w>
en ev
emb er</w>
ear n</w>
e man
e al
direc t</w>
dec e
d on</w>
d ee
ch er
bo y</w>
benef icial</w>
behavi or</w>
ate ment</w>
associ ation</w>
any anya</w>
ana ani</w>
amany e</w>
Yos ua</w>
Ma ke</w>
J eph
H an
El ish
E sek</w>
D is
Ch ar
Be ing</w>
6 6</w>
ũt ethe
ũs i
ũk w’a</w>
ũ kwĩka</w>
Ĩ kũlyo</w>
y ingĩ</w>
w’ ĩaa</w>
work ers</w>
wor se</w>
us ya</w>
ur ther
urther more</w>
uni que</w>
tũ mw
tw enda</w>
thr ill
t ten</w>
succ ess</w>
sec urity</w>
ref ers</w>
rec alls</w>
re memb
prog ram</w>
pl ay</w>
onom y</w>
nĩwa s
nga thĩĩo</w>
ng us
mũt avisye</w>
mawĩ makĩo</w>
many uv
maneen aa</w>
ma wonzu</w>
los s</w>
kũth ok
kũt w’a</w>
kũ manyĩw’a</w>
kwĩl ila</w>
k oti</w>
ish ing</w>
ing’ ĩ
in yĩ
grou ps</w>
fron t</w>
fr aid</w>
fee t</w>
f ast</w>
evee we</w>
ev idently</w>
eth a</w>
equ i
el el
ee thĩiwe</w>
dis fellowshipp
diffic ul
determin e</w>
describ es</w>
d ress</w>
cont act</w>
call s</w>
ca res</w>
c elebr
as im
aneng ie</w>
amũ s
ak ath
advant age</w>
adv ance</w>
V inya</w>
T wat
S yĩ
S U
Mya kanĩ</w>
Ma kũlyo</w>
K ũth
K elĩ</w>
Jud ah</w>
Jeph th
Hezeki ah</w>
F ri
Eri c</w>
E ka</w>
C urrent</w>
B IB
A L
ũti ĩwa</w>
ũ kĩa</w>
ĩs andũkũ</w>
ĩk wa</w>
ĩ m
ĩ ke</w>
z ing</w>
y asya</w>
wond ered</w>
wh el
wan ang
ut es</w>
tũneen ee</w>
tũ tetheesye</w>
tũ nini</w>
tũ elewe</w>
th ok
teth asya</w>
t ũ</w>
t amo</w>
sin ful</w>
sec ure</w>
ro om</w>
re mark
re ds</w>
p ain
oo d
nĩs yo</w>
mũ io</w>
mĩ themba</w>
man uscrip
ma elesyo</w>
lik ewise</w>
le ’s</w>
kũmũ manya</w>
kũ mũvoya</w>
kĩ manyĩo</w>
kwat ĩtye</w>
kw end
k omb
it ting</w>
it ations</w>
it ary</w>
in stead</w>
hom es</w>
fin ally</w>
f ear
ex istence</w>
et wa</w>
et awa</w>
engee e</w>
eng ani</w>
en ch</w>
compar ed</w>
c ut</w>
c k</w>
be l</w>
athi maa</w>
ass istance</w>
as sures</w>
ap ar
ak w’e</w>
a ut
a um
Y aĩtye</w>
Twee ka</w>
Na aũ</w>
N ũtonya</w>
N ene</w>
N e
N ayo</w>
N ab
F urthermore</w>
E ver
Aar on</w>
5 2</w>
3 00</w>
ũngam ĩe</w>
ũmany ĩasya</w>
ũ n
ĩkom ano</w>
zeal ous</w>
ya o</w>
ya mbĩĩa</w>
worl d’s</w>
umbĩ th
u ut
tũt av
tre ated</w>
tal king</w>
stu died</w>
st op
st ate</w>
see s</w>
sec re
s ev
s etting</w>
rebel lion</w>
re jected</w>
princi ple</w>
pleas ure</w>
ph one</w>
over whel
occasi ons</w>
nĩweet ĩkĩlile</w>
nĩwaneng ie</w>
nĩ man
nyiv ĩtye</w>
nor mal</w>
n ũv
n on</w>
n early</w>
mũ kũ
mat ongoesye</w>
man ner</w>
ma mutha</w>
ma ito</w>
m p
kwongel eka</w>
k ingdom</w>
jo ined</w>
ikund inĩ</w>
i ita</w>
i al
gu ar
gover n
go tten</w>
ele asya</w>
ek ete</w>
detail s</w>
contain s</w>
command ed</w>
clos ely</w>
b ond</w>
at u</w>
as pect</w>
anĩ l
ale ile</w>
ak e
ad op
ad es</w>
a wi</w>
a the
a mũthũkũme</w>
T ene</w>
Pr om
O c
Mar tha</w>
Mal awi</w>
K av
H er</w>
Ger man</w>
Fa ith</w>
De bor
C ana
C O
Bed ell</w>
B eth
A p
A endeee</w>
20 12</w>
,0 00,000</w>
ũtũ tetheesya</w>
ũt wĩ
ũkũm ĩte</w>
ũk av
ĩkĩĩth ye</w>
y ok
wĩthĩ aa</w>
we tiwe</w>
wa manyie</w>
v ow</w>
u ve</w>
tũneng etwe</w>
tũ ĩ</w>
tou ched</w>
tal endi</w>
t own</w>
sugg estions</w>
sub jects</w>
stu dies</w>
ste ad
so li
signific ant</w>
re ached</w>
r gy
prophe tic</w>
poss es
poin ts</w>
pati ently</w>
out side</w>
onan ĩtw’e</w>
nĩtũ kwenda</w>
nĩt onya</w>
no tice</w>
ng ũsĩ</w>
nee w’aa</w>
ndi wa</w>
nde m
n usu</w>
mũ ingo</w>
mit ted</w>
me na</w>
mat w’ĩke</w>
let ters</w>
kũtethe ka</w>
kũl ilw’e</w>
ky al
kwĩy enda</w>
kwat ye</w>
im pressed</w>
ilĩl o</w>
grow th</w>
fre ely</w>
f ar
eas ily</w>
dom in
de l</w>
cond ition</w>
commit ted</w>
care ful</w>
cam p
c ry</w>
becom es</w>
back ground</w>
b earing</w>
aĩ wa</w>
at uma</w>
assign ments</w>
as te</w>
aneen ie</w>
al though</w>
ak am
ai c</w>
ad mon
a fraid</w>
Sec ond</w>
S ur
S oci
Ru ther
Messi ah</w>
Ky rgy
K ath
Josep h’s</w>
G os
G ive</w>
E ph</w>
E S</w>
AN D
ũt ĩĩa</w>
ũt avya</w>
ũs umbĩ
ũng aa</w>
ũneng ae</w>
Ũth ũkũmi</w>
ĩv ia</w>
y ie</w>
wee ka</w>
w ine</w>
v ast</w>
ul ak
u n</w>
twa kwatwa</w>
tic s</w>
ti ves</w>
t in
succ eed</w>
st atement</w>
shar ed</w>
s al</w>
resp ec
per form</w>
ord in
ongele ela</w>
occur red</w>
nĩwĩ thĩwa</w>
no ted</w>
ngus an
nee wie</w>
ne esĩ</w>
nd a</w>
na mbĩĩa</w>
mis sion</w>
mbũ i</w>
mb aa</w>
mat wĩe</w>
mat ambya</w>
makath ayũũkw’a</w>
ma thĩnanĩ</w>
ma i</w>
m ere</w>
kũ ũngam
kĩ thĩawa</w>
kwĩv itha</w>
kwĩ kwa</w>
kw ony’a</w>
kam wana</w>
help ful</w>
gh t
gener al</w>
f ound
ex tre
don ’t</w>
compani ons</w>
ch i
camp ai
bus y</w>
at o</w>
and ũnĩ</w>
an ti
ab road</w>
Reg arding</w>
OV ER</w>
Nĩt wĩsĩ</w>
Mo t</w>
Math a</w>
M ad
LI A</w>
Jer emiah</w>
G h
Fr ench</w>
E du
An t
Al ivai</w>
Abrah am’s</w>
7 2</w>
ũt ee</w>
ũl ũmĩ
ũk uvĩ</w>
Ũ w’o</w>
war s</w>
war fare</w>
w esa</w>
twĩ v
trav el</w>
train ed</w>
te acher</w>
syĩ thĩwe</w>
syok ea</w>
su peri
str ong
stic k</w>
soldi ers</w>
scrip ture</w>
s even</w>
s end</w>
rul ership</w>
requ ires</w>
repent ant</w>
remark able</w>
refer ence</w>
qual ified</w>
pursu e</w>
prov isions</w>
primar y</w>
preced ing</w>
person ’s</w>
pas s</w>
overse ers</w>
off icial</w>
o s</w>
nĩwa k
notic ed</w>
nd ũmu</w>
mũv aka</w>
mũ maitha</w>
mĩv w’anano</w>
mes ilya</w>
med itating</w>
mbĩ ie</w>
mat ethe
magaz ine</w>
ma seũv
ma manyĩ
ma aũ</w>
m ĩkal
lo ela</w>
kũv ĩndũa</w>
kũv indĩĩsya</w>
kũtũ t
kũ ũtethya</w>
kũ ete</w>
kũ awa</w>
kwĩs ũvĩa</w>
kw enyu</w>
in een
im prove</w>
ide a</w>
high ly</w>
fir st
financi al</w>
faith fulness</w>
endee aa</w>
en vir
e we</w>
e after</w>
discer n</w>
dec ide</w>
dang erous</w>
d le</w>
convic tion</w>
co ndem
ci es</w>
bl es</w>
believ ed</w>
anya wa</w>
angĩ ĩo</w>
amin ĩte</w>
al aa</w>
W Ĩ
W a
Philipp ians</w>
Mũs omi</w>
Mos aic</w>
Mar ia</w>
M ount</w>
Lik ewise</w>
Iny w’ĩ</w>
Ind an
I T
H alls</w>
Gh ana</w>
Fin ally</w>
Cath olic</w>
Brit ain</w>
A ũme</w>
A mer
ũt ume</w>
ũt atonya</w>
ũneng ie</w>
ũmany ĩsyo</w>
ũkũl ya</w>
Ũ NDŨ</w>
ĩk uvĩ</w>
ĩ alyũlĩtwe</w>
won any’o</w>
we b
wa sya
wa kwie</w>
w ony’a</w>
v el
um iw’e</w>
ulak iti</w>
tũk ethĩwa</w>
twĩ kaa</w>
tre at
ti fy</w>
ther n</w>
success ful</w>
st ory</w>
ser ies</w>
s ent
ref res
re aching</w>
r out
proph ets</w>
pres ented</w>
p en
ok ol
o onany’a</w>
o etye</w>
nĩwa endie</w>
nĩma mbĩĩe</w>
nĩk w’o</w>
nĩ maneng
nda imoni</w>
nd wĩ</w>
mũĩkĩĩ onĩ</w>
mũ e
min e</w>
me kala</w>
me al</w>
mat wa
mar k</w>
m ul
l ac
kũt av
kũk eethĩwa</w>
kũ thĩnw’a</w>
kũ siĩĩa</w>
kũ ng’
kũ ek
kya ĩle</w>
kwĩ kalaa</w>
jo in</w>
it able</w>
inv ite</w>
in ner</w>
im possible</w>
high ligh
grap hy</w>
go ld</w>
g one</w>
g an</w>
floc k</w>
ev ident</w>
et oni</w>
ess ential</w>
er a</w>
end urance</w>
el esye</w>
d ay
cop ies</w>
continu es</w>
const antly</w>
conclus ion</w>
con n
comm ents</w>
clo thing</w>
cl as
care er</w>
bi g</w>
athi me</w>
at tr
at temp
app ears</w>
aneng iwe</w>
al ika</w>
ad ed</w>
Y u
Wath o</w>
T ur
Sh ould</w>
Ruther ford</w>
Ru th</w>
Rob ert</w>
Ndev ola</w>
Nd ũka
Nd a</w>
Mw ene</w>
Messi anic</w>
Mak etoni</w>
M A</w>
L as
Kĩs esenĩ</w>
Kĩk undi</w>
K a
I VI
G o</w>
Debor ah</w>
Com m
Al uni</w>
A sumbĩ</w>
A m</w>
ũth i</w>
ũt wathĩte</w>
ũt ongoesye</w>
ũ theu</w>
Ũ tianĩo</w>
ĩt a</w>
yĩ k
ya ya
y es</w>
will ingly</w>
wh er
w ũmbi</w>
uter onomy</w>
us ually</w>
us h</w>
un c
tũ kwĩka</w>
ter y</w>
tell ing</w>
t ations</w>
sa f
s oma</w>
repres ent
re ality</w>
quo ted</w>
pre vi
p ag
off ers</w>
o ts</w>
nĩwa ma
nz ĩanĩ</w>
nd ũke
nd u
n um
mo mb
mer ely</w>
me kĩ
mas inĩ</w>
ma mũthũkũme</w>
ma iv
m ol
kũmany ana</w>
ky alo</w>
kwĩt wa</w>
kwa mba</w>
kw ina</w>
kw atĩ
kol okol
ind e</w>
humb ly</w>
hist or
for ms</w>
fi g
es ĩkĩe</w>
es ting</w>
es cap
enyiv ĩtye</w>
em s</w>
el ev
e anĩa</w>
develop ed</w>
descend ants</w>
correc t</w>
comp any</w>
at ise</w>
at ano</w>
as oma</w>
ad s</w>
accep table</w>
ac tly</w>
ac knowledge</w>
ab ilities</w>
a wau</w>
Y E
Syĩ ndũ</w>
Som e
Pol and</w>
N athan</w>
N at
K wĩ</w>
K nor
Joh n
Il ungu</w>
I rish</w>
E E</w>
De uteronomy</w>
Christi anity</w>
Char les</w>
C olos
C OVER</w>
A somi</w>
A ana</w>
19 50</w>
ũl ilikana</w>
ũkat uma</w>
ũ uu</w>
ũ nene</w>
ũ kwĩw’a</w>
ĩĩ asya</w>
ĩ kwonany’a</w>
ĩ ilyĩ</w>
y ũmũ
w’ ĩĩa</w>
writ ings</w>
wat ch</w>
volun t
ung wa</w>
tũ ũtavany’a</w>
tũ itonya</w>
tiv ity</w>
thĩ na
thayũũk iw’e</w>
than k</w>
temp tation</w>
sy at
superi or</w>
stud ent</w>
sp end</w>
sing ing</w>
produc ed</w>
oy ie</w>
out standing</w>
ongo ew’a</w>
ob li
o osa</w>
nĩm endete</w>
ng an
nd oto</w>
nd alea</w>
n ue</w>
n ath
mission aries</w>
mb ie</w>
mast er</w>
mag ed
maged don</w>
ma yaĩle</w>
lim itations</w>
l in
l ie</w>
kũth okya</w>
kũth anga
kũmwĩ kwatya</w>
kũ manenga</w>
iv al</w>
ish ment</w>
is it
invol ve</w>
im pris
hund reds</w>
hand le</w>
grow n</w>
grow ing</w>
grad ually</w>
gath ered</w>
g lobal</w>
fruit age</w>
fles hly</w>
ent ered</w>
en ergy</w>
el imin
ek ee</w>
destro y</w>
dec l
day ’s</w>
consider ation</w>
benef ited</w>
au u</w>
at or</w>
as umb
ap plying</w>
anĩ wa</w>
Y ĩla</w>
Willi am</w>
V i
S he
R ome</w>
Qu estions</w>
Nĩt ũ
Nav othi</w>
L or
K ing
J im</w>
I U
Han na
H as</w>
Gos pel</w>
E R
Ar mageddon</w>
ũsengy ’a</w>
ũngĩ ĩte</w>
ũma e</w>
ũk ile</w>
ũ ito</w>
ũ aa</w>
ĩ ĩla</w>
ĩ ee
y ũmb
y av
w’ oka</w>
wĩ w’a</w>
writ er</w>
wee w’aa</w>
wee kaa</w>
vis ed</w>
u ted</w>
tũ kwataa</w>
tri al</w>
travel ed</w>
thĩnĩ kĩa</w>
thĩna w’a</w>
th ird</w>
strugg le</w>
set t
rout ine</w>
ref ug
re ation</w>
proc ess</w>
por no
partic ular</w>
ov ia</w>
ony ’e</w>
ob served</w>
o mas</w>
o il</w>
nĩy onanĩtye</w>
nĩma mũ
nĩ kũtũ
no onie</w>
mũ ĩthi</w>
modes ty</w>
medic al</w>
me ũ
mayĩ thĩawa</w>
math amĩĩe</w>
ma a
m eli</w>
la u
l u</w>
kũtũ nenga</w>
kũth aitha</w>
kũt ume</w>
kũk oma</w>
kĩ ka
ky eni</w>
kwĩ thĩawa</w>
komb i
k ing
k en</w>
joy ful</w>
int ro
ill ness</w>
identi fy</w>
id ol
ic us</w>
gu ided</w>
for giving</w>
fac ts</w>
f t
etĩkĩ le</w>
etern al</w>
et ang
en ete</w>
emo tions</w>
el ete</w>
el ec
e ag
de fin
crit ical</w>
contrib ute</w>
car ed</w>
bri de</w>
associ ate</w>
ar do</w>
alu an</w>
allow s</w>
al ikile</w>
ac knowled
Tuv aluan</w>
Steph en</w>
S ea</w>
Nĩ nat
Nz aũ</w>
MB EE</w>
M ed
M e</w>
Las alo</w>
Knor r</w>
K ũt
K u
Ju ly</w>
Ever y
Bro ok
Babyl on
2 ,000</w>
ũt angĩĩo</w>
ũng ĩaa</w>
ũkũ me</w>
ĩs yonĩ</w>
ĩ theo</w>
Ĩ ũlũ</w>
Ĩ VINDA</w>
w’ĩkĩ te</w>
we al
we ak</w>
wat avisye</w>
wa ano</w>
volun te
tũ mĩa</w>
tũ kwenda</w>
tũ is
thr one</w>
teach ers</w>
tal ents</w>
t ac
t ab
sya ĩle</w>
su per
st ood</w>
si kalĩ</w>
sc rol
satis fying</w>
s ti
s earch</w>
reve als</w>
re ject</w>
prophec ies</w>
pp ed</w>
pot ential</w>
pl ain</w>
oy anĩ</w>
ow ing</w>
oo ka</w>
ok onĩ</w>
obe ying</w>
o osie</w>
nĩtwĩ thĩawa</w>
nd ĩk
mũ m
mĩkal ĩle</w>
mw alimũ</w>
mom ent</w>
mo th
mo onaa</w>
mi es</w>
mat aĩle</w>
man yaa</w>
man tha</w>
m onanasya</w>
m ild
li fe
kũtwa a</w>
kũt w’ĩkĩthya</w>
kũt ongoesya</w>
kũ le
kwĩ th
kwĩ kwat
k amwe</w>
jour ney</w>
it ĩa</w>
increas ed</w>
in visible</w>
in f
i ke</w>
hyp oc
gras p</w>
gr anted</w>
gener ous</w>
g ing</w>
foo t
fac tors</w>
elek anĩtw’e</w>
el aa</w>
e theesya</w>
design ed</w>
declar ed</w>
cou ples</w>
conf ron
choos ing</w>
ch e
car ried</w>
cap tivity</w>
bal anced</w>
b ek
att ac
at ors</w>
al ũa</w>
ac ting</w>
a endeeie</w>
W ill
W ell</w>
Ver sion</w>
Und er</w>
Re bek
Re ad
N ever</w>
Min is
MB IVI
M il
L E
I’ m</w>
Elish a</w>
E c
D on</w>
D ec
C ol</w>
C ol
B ook</w>
AND Ũ</w>
A mis
A K
16 .
ũth aith
ũthaith inĩ</w>
ũ ĩkĩĩaa</w>
ũ is
ĩt ano</w>
ĩk anisa</w>
ĩ wetete</w>
zar us</w>
yĩ eleetye</w>
wĩt ĩkĩlaa</w>
wĩ u</w>
wee ks</w>
we ap
waneng iwe</w>
wal ked</w>
wa aĩle</w>
v u</w>
uut ani</w>
twĩ manyĩsye</w>
the i</w>
tem pl
t op
t esti
stop ped</w>
st one</w>
sin ners</w>
sin ned</w>
sav ed</w>
s a</w>
rep lied</w>
ref er</w>
r oss</w>
pro of</w>
per formed</w>
ongo easya</w>
on isye</w>
offic ials</w>
o ye</w>
nũtũ nengete</w>
nũ kwona</w>
nĩwa endeeie</w>
nĩw etete</w>
nĩm endaa</w>
nĩ thĩwe</w>
nz ama</w>
no ona</w>
nd atĩka</w>
mũtwa e</w>
mũsya e</w>
mũ somi</w>
mirac les</w>
mb ũ</w>
mb ano</w>
mat anamba</w>
ma ma
lov ingly</w>
l ow
kũth ayũũkw’a</w>
kũk ũ</w>
kũ the
kĩv ĩla</w>
kĩ ta
kĩ ng’
kĩ kat
iz es</w>
ition al</w>
ir ley</w>
inter pre
ingĩv ĩte</w>
ilĩl wa</w>
ic ally</w>
har m</w>
feel s</w>
eng’ ie</w>
end uring</w>
ee w’a</w>
discre et</w>
discourag ed</w>
deli gh
conven tions</w>
conclud ed</w>
cl esi
campai gn</w>
c omb
bus iness</w>
b ably</w>
ay ũũka</w>
av ati</w>
author ities</w>
ath ane</w>
as on</w>
ar mies</w>
anya u</w>
anang ĩka</w>
an ile</w>
an g</w>
ac le</w>
a the</w>
Y oung</w>
W oni</w>
T ũk
Soci ety</w>
Sh irley</w>
P u
N ath
M eth
La zarus</w>
Israel ite</w>
D el
Ch r
BIB LE</w>
As i</w>
10 3</w>
0 7</w>
ũt anamba</w>
ũk anganĩ</w>
ũek eo</w>
ũ asa</w>
ĩk ala</w>
ĩ ana</w>
yũlũl ũkĩte</w>
yĩt ũmanyĩsya</w>
y ela</w>
writ ing</w>
wa mbĩĩa</w>
u le</w>
tũ ilyĩ</w>
thĩnĩ kaa</w>
ter ms</w>
su d
soli d</w>
so maa</w>
s ongs</w>
righ tly</w>
respon sible</w>
rele ased</w>
refres h
prov iding</w>
pre dic
porno graphy</w>
pleas ing</w>
peop le’s</w>
pat ri
os hap
oshap h
on io</w>
nĩwĩ w’aa</w>
nĩma s
nĩ thĩwa</w>
neen eete</w>
nd yĩ
n ũk
mũneng ete</w>
mav ia</w>
mal s</w>
mak w’a</w>
ma sya</w>
ma manya</w>
ma kaũ</w>
m outh</w>
m onanĩtye</w>
le aving</w>
kũkũ na</w>
kũ ka
kĩ wĩu</w>
kĩ tũ
kya mũ
kwĩ loela</w>
kwĩ kaa</w>
ite theesya</w>
illi ons</w>
il s</w>
ic h
i e
hear ing</w>
ha el</w>
govern ments</w>
ex actly</w>
envir onment</w>
en inĩ</w>
en ange</w>
el ya</w>
e ye</w>
e mee
e ager</w>
dem ons</w>
decl are</w>
d ili
concer ning</w>
commis sion</w>
c au
aĩ nĩ</w>
ay ĩsa</w>
av asya</w>
au di
att end
att ack</w>
atis o</w>
associ ated</w>
amany ĩsya</w>
ak amũ
adjust ments</w>
add ress</w>
accompl ished</w>
a kwata</w>
a andĩki</w>
W ar
Th ĩna</w>
Th omas</w>
T ake</w>
Pol ish</w>
P ent
N Ĩ</w>
Mũt umĩa</w>
Mũs yĩ</w>
Mic hael</w>
MBIVI LIA</w>
Lu thi</w>
K yu</w>
K YA</w>
Jeh oshaph
G ide
F ij
Ec clesi
Ch er
At avany’a</w>
As ili</w>
Ak olosai</w>
A sia</w>
20 11</w>
ũtũmĩ e</w>
ũt at
ũt alo</w>
ũl ũsani</w>
ĩv ĩtu</w>
ĩt atwa</w>
ze al</w>
yũmban ĩsye</w>
yũlũl ũka</w>
x ed</w>
w’ ĩĩwa</w>
wa ĩte</w>
wa w’o</w>
w and
ver t
valu es</w>
v angĩ</w>
u es</w>
tũtũmĩ e</w>
tu ag
tuag int</w>
tr ag
teen ager</w>
t ory</w>
shou l
s ear
require ments</w>
rel ate</w>
reg ar
recogn ized</w>
prom p
pos es</w>
pass ing</w>
par t
p et
ow n
overe ign</w>
over ty</w>
our ces</w>
or ing</w>
nĩw atũm
nĩnĩ t
nda kĩtalĩ</w>
mya ko</w>
motiv ated</w>
mo t
mo onie</w>
mee ka</w>
mbĩ anĩu</w>
mav ĩt
manuscrip ts</w>
ma theu</w>
ma li
m oomb
m ention</w>
list ened</w>
le e</w>
kũt wĩ
kũmw endeesya</w>
kũ ĩa</w>
kũ teth
kũ ema</w>
kĩt awa</w>
hi l</w>
exc ell
ex ist</w>
ess ed</w>
ep tive</w>
ent ists</w>
en ly</w>
el led</w>
eet ĩkĩla</w>
e ele</w>
e b
determin ation</w>
dec ades</w>
courage ous</w>
consid ering</w>
con templ
chi ef</w>
charac ter
c over</w>
atũm ĩe</w>
atwa e</w>
ate na</w>
ar ily</w>
appreci ated</w>
aneng ae</w>
an eena</w>
am eie</w>
ain ing</w>
ai k
a ũtetheesye</w>
a ũka</w>
Y ĩu</w>
Wh atever</w>
T wasye</w>
Sep tuagint</w>
S overeign</w>
R ose</w>
P hil</w>
O F</w>
NG A
Mũ ny
M ĩth
L at
L and</w>
K atena</w>
K am
Jon athan</w>
Israel ’s</w>
H u
Go li
Go l
Ephes ians</w>
E thi
B less
Amis ili</w>
A nd
8 3</w>
ũthe inĩ</w>
ũteth ye</w>
ũ ma</w>
ũ anĩie</w>
ĩs i
Ĩ LA</w>
y r
wos anĩte</w>
wor th
wee kĩkie</w>
wa mbĩĩie</w>
wa ma
w ov
ung o
ungo dly</w>
und a</w>
ul ut
u ĩtye</w>
tũ ya
tũ mũth
tw onany’e</w>
t ools</w>
t ata</w>
si kũkũ</w>
separ ate</w>
s ave</w>
resol ved</w>
res ist</w>
repor ts</w>
repor t</w>
remain ing</w>
re mind</w>
pro bably</w>
perf ec
peac eful</w>
out come</w>
os avati</w>
op in
nĩy at
nĩwat wie</w>
nĩma l
neutr ality</w>
na aũ</w>
n er
mĩv aka</w>
mos yao</w>
mil itary</w>
maneng ie</w>
maka kwata</w>
maj ority</w>
kũmĩ anĩsya</w>
kũk omana</w>
kũ ol
kũ mũv
kũ mũt
kũ mas
kũ alyũka</w>
kĩ the
kwat awa</w>
is ol
is anĩ</w>
il ĩla</w>
househ older</w>
har m
gri ef</w>
g s</w>
g er</w>
g e
ft n</w>
fr ag
fi gh
f as
expec tation</w>
etĩkĩ la</w>
es alon
esalon ika</w>
en ever</w>
elimin ate</w>
draw ing</w>
difficul ties</w>
den ly</w>
del iv
ci al</w>
c ent</w>
at edly</w>
ast es</w>
ang’ ana</w>
andĩkĩ e</w>
an ak
amb ĩa</w>
ain i</w>
ac y</w>
Ye osavati</w>
Wh ether</w>
U .
S ũanĩa</w>
R ep
Par ents</w>
Mav uku</w>
Lev it
J as</w>
H er
H aving</w>
Gol den</w>
Am ong</w>
A meie</w>
A T</w>
6 1</w>
ũth yũ</w>
ũt esa</w>
ũsumbĩ nĩ</w>
ũny i</w>
ũm ũ</w>
ũl wa</w>
ũl au</w>
ũit uma</w>
ũ ũsoma</w>
ũ anĩ</w>
Ĩs u</w>
wis ely</w>
we d
wa endie</w>
virg ins</w>
vill age</w>
v iti
usũ ĩte</w>
un clean</w>
un able</w>
tũk eethĩwa</w>
tũk e
twĩ kala</w>
trou ble</w>
t ulakiti</w>
syĩ onany’a</w>
sumb ĩki</w>
success fully</w>
str ai
st ore</w>
st ake</w>
speak s</w>
smo king</w>
slav ery</w>
sacrif icing</w>
remain s</w>
rele ase</w>
rec om
r an</w>
prop ag
pr oud</w>
physic ally</w>
p our
p aid</w>
os ito</w>
on ia</w>
ol eki</w>
nũtũ tetheeasya</w>
nĩyĩ eleetye</w>
nĩwa umisye</w>
nyaĩĩk ya</w>
no onaa</w>
ne t</w>
nd yaa
mũe me
mĩv ũthũ</w>
mo del</w>
mis onalĩ</w>
metho ds</w>
maj or</w>
maintain ing</w>
ma endie</w>
ma e</w>
ma aĩlĩte</w>
m ur
m its</w>
liv oti</w>
lic ation</w>
lic al</w>
l yn</w>
l ilikana</w>
kũtwa wa</w>
kũt ongoew’a</w>
kĩ thĩo</w>
kĩ nini</w>
kĩ awa</w>
kwa kya</w>
k any’a</w>
iti i</w>
instruc ted</w>
in king</w>
il ilye</w>
husb ands</w>
go ds</w>
endeav or</w>
end ek
endek osito</w>
ed ition</w>
differ ence</w>
diff er</w>
di dn’t</w>
des cribe</w>
dee ds</w>
contr ary</w>
cle ans
c ru
b ol
appro ached</w>
appear ance</w>
any uva</w>
ani mals</w>
ang ũl
amb ĩte</w>
alyũl o</w>
ai we</w>
a ya</w>
W ĩ</w>
V endekosito</w>
Th ay
T wĩsĩ</w>
R ac
Prom ised</w>
Minis try</w>
Jehoshaph at</w>
Hanna h</w>
H ere</w>
Gide on</w>
Edu ardo</w>
E ar
Brook lyn</w>
Bo th</w>
AN Y
A kal
9 0</w>
ũth atu</w>
ũkũ tetheesya</w>
ĩk ethĩwa</w>
yĩ asa</w>
yon eete</w>
y one
wĩ oo</w>
wid ow</w>
wh ite</w>
wee ie</w>
was isya</w>
wa ilyĩ</w>
wa ie</w>
w ild
view point</w>
vic tory</w>
tũy onany’a</w>
tũng ĩa</w>
tũ vo
twĩ w’aa</w>
twee manyĩsya</w>
tr ad
ti fied</w>
than ks</w>
ter ri
t ol
t it
surpr ised</w>
suppor ting</w>
su n</w>
struc k</w>
strength ening</w>
si ans</w>
si an</w>
s ity</w>
rul ing</w>
rewar ded</w>
resul ted</w>
repe atedly</w>
refug ees</w>
re present</w>
re action</w>
r or</w>
r ace</w>
quar ters</w>
pres ent
pat tern</w>
os ity</w>
obli g
nĩw endeeaw’a</w>
nĩtw at
nĩ w’aa</w>
ny ama</w>
ng elek
n ear
minis ter
mild ness</w>
mil d</w>
mi gr
mee kĩkie</w>
me ka</w>
mb ul
mb ilioni</w>
mb eenĩ</w>
man ini</w>
ma wet
m eteele</w>
lif est
l ying</w>
l ist</w>
kũ atĩ
kũ aa</w>
kĩ uutani</w>
kw onanasya</w>
is on</w>
inhab it
il aa</w>
i anĩ</w>
ex ists</w>
ew anĩ</w>
ev o</w>
ent ment</w>
end ured</w>
employ ment</w>
elek anw’a</w>
el ik
e tie</w>
distr ess</w>
deal ings</w>
corrup tion</w>
ch ris
ch a</w>
c ost</w>
bel ong
be gotten</w>
b ab
ay er</w>
as ide</w>
an w’e</w>
all ed</w>
ak wa</w>
ac ross</w>
aband on</w>
Yo s</w>
W’ onthe</w>
With out</w>
Tur key</w>
T ru
S c
R es
Ph il
P l
On ly</w>
Nĩt ũt
Me gan</w>
Mbal aka</w>
Ma thĩna</w>
Levit icus</w>
Jephth ah</w>
Ith yonthe</w>
I I</w>
Hi gh</w>
Happ y</w>
Go od</w>
G e
Egypti an</w>
Ecclesi astes</w>
E very</w>
Ch urch</w>
Bar ak</w>
20 00</w>
ũk ath
ĩl we</w>
ĩl o</w>
ĩ awa</w>
Ĩ thĩwa</w>
ya e</w>
wat uma</w>
w ing</w>
vi de
ut ter</w>
u nĩ
tũ tethe
twĩ anĩsye</w>
treas ures</w>
t ask</w>
suppor ted</w>
st ress</w>
sl eep</w>
sic kness</w>
s ong</w>
s kill
s iv
resol ve</w>
relig ions</w>
pow ers</w>
per man
p ond
ond u</w>
om anaa</w>
obe yed</w>
o onĩ</w>
nũm wendete</w>
nĩtwĩ w’aa</w>
nĩma le
nĩm esĩ</w>
nth ũ</w>
nd ik
nam es</w>
na ĩnĩ</w>
mũs ingi</w>
mũm ũ</w>
mov es</w>
mean ĩsye</w>
mb aĩnĩ</w>
ma yo</w>
ma mina</w>
lifest yle</w>
lead er</w>
l el
l angi</w>
kũs inda</w>
kũ si
kĩt umĩte</w>
kw’ onthe</w>
kwĩ thĩwe</w>
kw eteela</w>
kolokol onĩ</w>
is eũv
inter national</w>
int ense</w>
inhab ited</w>
influ enced</w>
indic ates</w>
incl ined</w>
ide as</w>
i i
i ght</w>
g rain</w>
first born</w>
f ool
f all
ex press
en cies</w>
ema wa</w>
ema kĩe</w>
ec e</w>
disfellowshipp ed</w>
direc tly</w>
d es</w>
cy cl
cam p</w>
ca uses</w>
c le</w>
bro ch
beli ever</w>
athim ie</w>
asya ĩĩsya</w>
as h
apar t</w>
anĩ aw’a</w>
ann oun
aneen ea</w>
anang e</w>
ag o
af ter
ad just</w>
a mbĩĩe</w>
a kwie</w>
Zechar iah</w>
W aĩle</w>
Thay ũ</w>
T e
T a
Sis ela</w>
Phar is
Pet er’s</w>
P ri
Nĩt waĩle</w>
Ng watanĩo</w>
N engane</w>
Mũ thĩnzĩo</w>
M E</w>
I t
H ans</w>
E x</w>
E T
Com mit
C T</w>
B en
A mũika</w>
A andĩkie</w>
6 00</w>
4 00</w>
ũth ok
ũm anya</w>
ũk ilyĩ</w>
ũ ĩkĩĩku</w>
Ũ many
ĩĩ isye</w>
ĩs e</w>
ĩl enĩ</w>
ĩ ndũk
zeal ously</w>
yĩ v
yaya ya</w>
y enyu</w>
wee thĩawa</w>
was oma</w>
w ind
w angang
viti o</w>
vis iting</w>
un righteous</w>
um anu</w>
u ph
u na</w>
treat ment</w>
thank ful</w>
th re
tempor ary</w>
t en
surpr ise</w>
su me</w>
st ayed</w>
soci al</w>
sh oc
ser iously</w>
s ũvĩaa</w>
s word</w>
ro ot</w>
ris e</w>
refer ring</w>
re mo
prom in
prog res
prin ted</w>
pri ority</w>
prepar ing</w>
pag an</w>
os ete</w>
on athani</w>
nũ nengete</w>
nĩwat etheeisye</w>
nĩwa eleisye</w>
nĩtũ mĩ
num erous</w>
ng ewanĩ</w>
ne ene</w>
nd wa
mũv oyie</w>
mũu u</w>
mũ syĩ
mus ic</w>
me ũ</w>
may enda</w>
ma elewe</w>
m er</w>
list en
li ce</w>
kũng’ ang’ana</w>
kũmũ taĩa</w>
ky ũmbe</w>
kw ongeleela</w>
kw ongela</w>
ka ingĩ</w>
intro duc
inhabit ants</w>
ing ũ
ing a</w>
ile ad</w>
ie ties</w>
heal thy</w>
he l</w>
gro om</w>
go d</w>
found ation</w>
for ces</w>
f requ
et ewa</w>
enc oun
el ’s</w>
eh ear
ec ost</w>
earnes t</w>
e ating</w>
dre w</w>
dr ink</w>
disc overed</w>
devo ted</w>
des per
d ro
cop y</w>
conflic t</w>
c enter</w>
bel ong</w>
ass urance</w>
ang ĩtwe</w>
an ĩtwe</w>
an ks</w>
an ish</w>
allow ing</w>
air s</w>
ai the</w>
a w
Y onathani</w>
V yũ</w>
Pent ecost</w>
P or
N Ĩ
N ic
N TH
M ika</w>
M al</w>
Lor d’s</w>
Lam b</w>
Kĩ ĩmanĩ</w>
K w
K olintho</w>
Jan et</w>
Iny ia</w>
I N</w>
G al
F ath
D ad</w>
C H
Ant onio</w>
Ad d
A wake</w>
A mwĩ
A mb
7 3</w>
19 18</w>
ũvĩt ũkĩte</w>
ũs ilĩlo</w>
ũl ilikanaa</w>
ũl ilikan
ũl ea</w>
ĩk at
yĩ thĩwa</w>
wrong doing</w>
wee k
wed ding</w>
web site</w>
we ũnĩ</w>
waneng anie</w>
wan z
wa kwatie</w>
vis its</w>
vi g
us ũs
umbĩ thya</w>
tũ ilea</w>
twĩ t
twĩ l
twĩ ka</w>
transl ations</w>
tr an
tiv ely</w>
thĩ ĩa</w>
the s</w>
sp or
som onĩ</w>
sion ate</w>
sh r
satis fied</w>
s ad</w>
rul er</w>
res earch</w>
repor ted</w>
rend ering</w>
reg ion</w>
refl ected</w>
rec reation</w>
rec ently</w>
qu it</w>
qu i
proper ty</w>
propag anda</w>
pl ag
pass age</w>
ordin ary</w>
ong i</w>
on okya</w>
on er</w>
od us</w>
ob st
nĩwĩ kaa</w>
nĩtũ l
nĩtũ kwona</w>
nĩtw onaa</w>
nĩmat anĩaa</w>
nĩ syĩ
nĩ kwa
ny ũnyi</w>
neng ane</w>
n ur
min ie</w>
mean ing
may asya</w>
mater ial
makũ yũ</w>
mak ekala</w>
mak asya</w>
ma le</w>
ma ith
kũl ũng
kũ ũngama</w>
kũ kua</w>
kũ ekana</w>
kwat we</w>
k ũ</w>
k any
ite oni</w>
int ended</w>
in side</w>
ile ati</w>
head quarters</w>
go es</w>
exec ution</w>
ex and
ethee iw’e</w>
es ides</w>
end any’a</w>
e thĩĩtwe</w>
e iwe</w>
demonstr ated</w>
d ru
cour t</w>
coun tless</w>
corrup t</w>
conc e
comm end
comfor ting</w>
comfor table</w>
clas s</w>
brother hood</w>
bo nd
athim ĩka</w>
at w’a</w>
anĩth asya</w>
angeli z
aneng ete</w>
andĩk wa</w>
am ount</w>
am e
ak asya</w>
ain eena</w>
a ĩse</w>
a aĩle</w>
Un like</w>
T ito</w>
S tr
O ther</w>
O N</w>
Ng iteoni</w>
Na w’o</w>
Mũ theu</w>
M ũl
Lat in</w>
Kũv i
Kwĩ manyĩsya</w>
King s
Hel p</w>
H ar
G ilead</w>
E N</w>
Comm un
B el
Al exand
5 3</w>
ũv ano</w>
ũthĩ ĩsya</w>
ũsumb ĩkĩte</w>
ũm in
ũ mũthũkũme</w>
ũ kwat
Ũ sumbĩ
Ũsumbĩ nĩ</w>
ĩĩ thya</w>
ĩth asya</w>
ĩt ĩkĩl
ĩndũ ka</w>
ĩ manyĩsya</w>
ĩ eleetw’e</w>
Ĩ somonĩ</w>
z z
yum ye</w>
y ũmba</w>
y ĩte</w>
y ee
wĩ kĩaa</w>
writ ers</w>
whol ehear
wanang ĩko</w>
w onanĩtye</w>
us ĩe</w>
un ion</w>
twa endeea</w>
tri bu
tou ch</w>
tob er</w>
to p</w>
to day’s</w>
thukĩ ĩisye</w>
t elev
st at
st an</w>
sor ts</w>
sev ere</w>
schol ar</w>
sav alĩ</w>
ris y</w>
rend ered</w>
rel ative</w>
re moved</w>
pri ze</w>
pour ed</w>
pl ans</w>
perc e
p overty</w>
p ap
p age</w>
ot es</w>
ond on</w>
omb e</w>
olog ical</w>
ol o</w>
ob tain</w>
ob serv
ob j
nĩwat ũmĩie</w>
nĩ kyatumie</w>
nĩ endeee</w>
new ly</w>
nd wĩsa</w>
n one</w>
n ation
mũv w’ano</w>
mũu ke</w>
mũtwa wa</w>
mũsyĩ nĩ</w>
mũ sikalĩ</w>
me kwĩka</w>
me kwonany’a</w>
mb ũĩ</w>
mat am
mar vel
manif est</w>
man thĩa</w>
magaz ines</w>
ma endee</w>
ma eka</w>
ma andĩkĩtwe</w>
m ie</w>
le av
la w
kũtũ tetheesye</w>
kũmũ ĩkĩĩa</w>
kũmw ona</w>
kũm ila</w>
kũk it
kũ nĩ
kũ kĩlya</w>
kũ kĩa</w>
kwĩyũmb anĩsya</w>
kwĩtĩkĩl ana</w>
kwĩ kwatya</w>
kw ingĩ</w>
kum ĩla</w>
ka ũndũ</w>
ish es</w>
inher ited</w>
ing u
indic ation</w>
ind aa</w>
id ents</w>
i ilyĩ</w>
her self</w>
harm ful</w>
gover ning</w>
go ats</w>
g a
fi es</w>
et w’e</w>
es ome</w>
ent ity</w>
end anasya</w>
encourag es</w>
enab led</w>
dis tribu
de fe
d ar
cre d
ch il
bre ak
be aut
beaut y</w>
aĩ aa</w>
av any’e</w>
atĩ ĩie</w>
ati ĩwa</w>
ati wa</w>
at ives</w>
at avisye</w>
as isya</w>
any’ onĩ</w>
ang ĩe</w>
aneng ane</w>
andĩkĩ th
and anĩ</w>
an ilye</w>
am ent</w>
am ed</w>
alyũl ile</w>
al ilikana</w>
ak ilyĩ</w>
add itional</w>
ad vert
a thĩ
a alyũli</w>
Wĩ oo</w>
V ata</w>
T i
Sur ely</w>
Ser v
Rec all</w>
Rebek ah</w>
Por tu
Oc tober</w>
No ah’s</w>
N ata</w>
L oto</w>
L ondon</w>
Kings ley</w>
K A
J e
F am
Ex plain</w>
Ex odus</w>
Colos sians</w>
Christ mas</w>
Bib lical</w>
B er
Ad am’s</w>
14 7</w>
ũv yũ</w>
ũtav ĩtye</w>
ũt waanĩte</w>
ũmban ĩtye</w>
ũ kĩ
ĩ ĩte</w>
ĩ nini</w>
Ĩ syĩtwa</w>
Ĩ WA</w>
z stan</w>
w’ ĩĩwe</w>
w’ ana</w>
won ete</w>
wild erness</w>
wic k</w>
wa ko</w>
un believing</w>
tũ sya
tũ iv
typ es</w>
tw onaa</w>
temp ted</w>
t ests</w>
t ele
sy umwa</w>
sh ed</w>
schol ars</w>
s es
s ake</w>
ru n</w>
ri g
restor ed</w>
rec all</w>
re ign</w>
re gre
pur poses</w>
peop les</w>
peac e
par ently</w>
pain ful</w>
o ever</w>
na o</w>
n ongi</w>
n avu</w>
mũ ik
mw endwa</w>
mis take</w>
miracul ously</w>
mer ci
memor ies</w>
mbĩĩ isye</w>
matav anasya</w>
matat waanĩte</w>
mat u</w>
mat etheeasya</w>
marvel ous</w>
maintain ed</w>
ma umie</w>
ma mũthũkũmaa</w>
ma lea</w>
ma kwatie</w>
ma itonya</w>
ma eleetye</w>
low ly</w>
liter al</w>
l er</w>
l eng
kũvi kĩa</w>
kũth yũlũlũka</w>
kũteth w’a</w>
kũl w’a</w>
kũ thĩnĩka</w>
kũ i</w>
kĩ endeee</w>
kwĩ w’ĩa</w>
kav uku</w>
kan isa</w>
k eni</w>
ition ally</w>
iti z
ithũ kĩa</w>
ist ers</w>
ish ness</w>
is her</w>
instruc tion</w>
id den</w>
i as
h es
gr ac
g ates</w>
g are
fru str
fir mly</w>
find ing</w>
ethukĩ ĩsya</w>
ethe ka</w>
ern acle</w>
enjo ying</w>
elek ele</w>
el ila</w>
e me</w>
div or
displ ayed</w>
dang ers</w>
d well</w>
cont ent</w>
con s
compas sionate</w>
char i
bu y</w>
bro ke</w>
aĩ ĩe</w>
av i</w>
audi ence</w>
athim ĩte</w>
ath y</w>
at wĩ
arrang ements</w>
anx ieties</w>
ang ers</w>
andĩkĩ a</w>
and etheesye</w>
an iwe</w>
an aly
amũ tetheesye</w>
am ental</w>
alyũl ĩte</w>
al ilikan
al ert</w>
ak eethĩwa</w>
ag as
a kũlilye</w>
a eleetye</w>
a eka</w>
a andĩka</w>
W es
W all
W E
Tw o</w>
Sp anish</w>
Some times</w>
SU B
SUB JE
SUBJE CT</w>
S ee
Nĩnĩ sĩ</w>
Ng oki</w>
Ng ileati</w>
N ep
Mũv ango</w>
Mar il
Kyrgy zstan</w>
Kath oleki</w>
K anaani</w>
Ju de
H um
Ethi op
E ast</w>
Commit tee</w>
Am keni</w>
5 8</w>
2 ,
10 ,000</w>
1 45</w>
ũti ĩe</w>
ũl ei</w>
ũk eka</w>
ũ kwataa</w>
ũ i</w>
ũ eninĩ</w>
yum wa</w>
ye i</w>
ya andĩkiwe</w>
we ar</w>
wath anĩte</w>
wa atĩĩe</w>
var iety</w>
univer sal</w>
umĩl ile</w>
ul ations</w>
ud es</w>
tũtũmĩ aa</w>
tũta ĩle</w>
tũng aa</w>
tũ mũthũkũme</w>
tw eethĩwa</w>
t fully</w>
sel y</w>
sci entists</w>
sa fe</w>
remo te</w>
relat ively</w>
ref use</w>
re view</w>
re move</w>
qu ick</w>
publ isher</w>
pri l</w>
pres sures</w>
possib ly</w>
pleas ant</w>
p ointed</w>
overwhel med</w>
or ge</w>
on ye</w>
om ĩĩsya</w>
o th</w>
nĩwaneng anie</w>
nĩnĩ sĩ</w>
nĩ mũ
nz oka</w>
nth oo</w>
n ine</w>
mũv ĩt
mũt onya</w>
mũt ongoi</w>
mo tives</w>
mis s</w>
minister ial</w>
mi d</w>
mbul os
mb oyanĩ</w>
mb eveee</w>
mat ethasya</w>
mat atonya</w>
mas i</w>
mait ũmĩa</w>
ma kw
ma endeea</w>
ma andĩkiwe</w>
m our
m esie</w>
m el
lead s</w>
kũ ti
kũ nyaĩĩkya</w>
kĩt ye</w>
kĩs esenĩ</w>
kwĩ a</w>
kwend ana</w>
kwa th
kan isye</w>
ka m</w>
ka ati</w>
jud ged</w>
itu al</w>
isi masi</w>
imag ination</w>
im perfection</w>
il ĩku</w>
i b
hor se</w>
hab it</w>
h o
fund amental</w>
fig ur
f itting</w>
excell ent</w>
exc iting</w>
ess alon
eet we</w>
discus sion</w>
dis ease</w>
de groom</w>
contribu ted</w>
comm er
claim ed</w>
chil d’s</w>
c itiz
b us</w>
athũk any’a</w>
at al
associ ates</w>
as l
appe al</w>
an z</w>
an aw’a</w>
al ũka</w>
ak u
agre ed</w>
admon ition</w>
acknowled ged</w>
ac hi
Yu tia</w>
Wor k</w>
W athi</w>
V ic
V ak
Th essalon
S T
Pharis ees</w>
P S</w>
Nd a
Mũ yuti</w>
MA T
M ĩs
Kĩl isimasi</w>
Kĩ yuti</w>
K ai
I tal
H utter</w>
Goli ath</w>
G w
Fr anz</w>
Fath er’s</w>
Fam ily</w>
End aa</w>
Al mighty</w>
Al aĩka</w>
Add itionally</w>
AN A</w>
A ust
A pril</w>
A R
A N</w>
9 1</w>
17 .
ũv oya</w>
ũny uv
ũk i</w>
ũ anĩ
Ũ mbano</w>
ĩth isye</w>
ĩk ya</w>
ĩk oani</w>
ĩ y
ye esĩ</w>
wid ely</w>
wee kiwe</w>
wat av
volunte ers</w>
vide o</w>
un selfish</w>
un expected</w>
um anĩte</w>
ul unĩ</w>
u re
tũ ũsoma</w>
tũ kwata</w>
twa mbĩĩa</w>
tu al</w>
tri p</w>
tri be</w>
tra its</w>
ti red</w>
thous and</w>
tal ks</w>
tab ernacle</w>
t ar
sy onanĩtye</w>
stand ard</w>
sp ar
si t</w>
si as
sias anĩ</w>
saf ety</w>
ro yal</w>
restor e</w>
resc ue</w>
rend er</w>
re minded</w>
prov ing</w>
pro jects</w>
pro ject</w>
posses sions</w>
plan et</w>
pl an</w>
pic tures</w>
ovos ya</w>
op pression</w>
om ing</w>
olog y</w>
o ti
o aa</w>
nĩmat ataa</w>
nĩm esie</w>
nĩ th
nĩ l
ng’ endu</w>
neighb ors</w>
nde ke</w>
mĩ ongo</w>
mĩ na</w>
mwa ko</w>
mon ete</w>
mok onĩ</w>
mawet u</w>
matũm ĩe</w>
mat ũmĩĩte</w>
man z
ma endeeie</w>
m ia</w>
less ly</w>
le ms</w>
kũv anga</w>
kũth ooa</w>
kũmũ kĩa</w>
kũle ana</w>
kũ mav
kyal onĩ</w>
kwĩt ya</w>
kwĩ kĩwa</w>
kwat isye</w>
k ete</w>
jud ge</w>
it aa</w>
in ie</w>
impris oned</w>
idol at
i or</w>
househ ol
happ ens</w>
h ou
h ind
gri ev
gener ation</w>
g ets</w>
fa ul
f ic
eny ’e</w>
emb lems</w>
elek any’e</w>
ele ke</w>
el u</w>
eff ects</w>
earth ’s</w>
eag erly</w>
div ided</w>
de aling</w>
cycl op
cre ate</w>
contro l
conn ection</w>
commend ation</w>
cli ff
c old</w>
brother ly</w>
av ĩtye</w>
associ ations</w>
assemb ly</w>
assemb lies</w>
anga au</w>
aneng e</w>
aneng anie</w>
ane ene</w>
ana mbĩĩa</w>
ag ers</w>
adv anc
adul tery</w>
ach es</w>
ab sol
a res</w>
a kwate</w>
a ana</w>
Yos ia</w>
W al
S an
S al
R ico</w>
Pr ov
Pharao h’s</w>
NGA I</w>
N ũseo</w>
Mũth ya</w>
Maril yn</w>
M wathani</w>
M ay
Kũ neena</w>
K no
K al
Ind ia</w>
I r
Go g</w>
G O
Fri end</w>
Fl ood</w>
Fij i</w>
F el
En cyclop
Do ing</w>
Cher i</w>
Cana an
A H</w>
7 1</w>
19 40</w>
0 8</w>
’ S</w>
ũtũ ĩka</w>
ũng ĩe</w>
ũmĩ ĩtwe</w>
ũkũ t
ũk as
ũ anĩĩte</w>
ũ alyũlo</w>
Ũs ũngĩo</w>
ĩv anĩsya</w>
ĩl u</w>
Ĩ O</w>
Ĩ A</w>
y cliff
worl dly</w>
work er</w>
won asya</w>
wel come</w>
weak nesses</w>
wat ch
waneen ie</w>
wa ana</w>
w ũke</w>
w 16.
ut ing</w>
us eful</w>
ur ge</w>
un less</w>
ub lic</w>
tũyĩ thĩwa</w>
twĩ w’a</w>
twĩ e</w>
tw endete</w>
thrill ing</w>
tend encies</w>
sya th
sy onanasya</w>
sud denly</w>
stre et</w>
str angers</w>
st umb
siv it
sci ence</w>
s ang</w>
res tric
res ources</w>
requ ire</w>
repres ents</w>
regar dless</w>
re vised</w>
re ques
re placed</w>
prov es</w>
priv ate</w>
por tion</w>
pl ant</w>
p our</w>
ot inĩ</w>
on al</w>
om u</w>
ob serves</w>
o osya</w>
o os
nĩwo osie</w>
nĩmee kie</w>
nĩmat etheeasya</w>
nĩma mbĩĩie</w>
nd i</w>
nd atonya</w>
n ũmũ
n inĩ</w>
mũv i
mũtũng ĩaa</w>
mũtwa anonĩ</w>
mũth aitha</w>
mũ in
mw anae</w>
moth ũku</w>
minis ter</w>
me k
mb e</w>
mat ũ</w>
mat urity</w>
mar ital</w>
makat w’ĩka</w>
mak as
ma ĩtye</w>
ma atĩĩaa</w>
kũtũ la</w>
kũth esya</w>
kũth angaasya</w>
kũt umbĩthya</w>
kũmũ k
kũma manyĩsya</w>
kũ semb
kũ nde
kũ mĩs
kũ mba</w>
kĩth ing’ĩ
kĩthing’ĩ ĩsyo</w>
kyee kĩkie</w>
kw ov
j eal
ith anĩtye</w>
it ely</w>
inher it
ind ĩa</w>
ind ep
indep end
in j
identi fied</w>
iaki asya</w>
i mb
i ah’s</w>
fund s</w>
f o
f ish</w>
ete ie</w>
ess ing</w>
ep tion</w>
en able</w>
ek w’a</w>
ed y</w>
ec onom
dist ant</w>
discer nment</w>
disas ter</w>
di gn
deb t</w>
cust oms</w>
cri me</w>
comp are</w>
clo thes</w>
cal am
c ur
bo dies</w>
bab y</w>
av ed</w>
attend ance</w>
athim wa</w>
ath anie</w>
asl eep</w>
arrang ed</w>
appe aling</w>
app lies</w>
ang ry</w>
aneng etwe</w>
anak avya</w>
ama zing</w>
am anenga</w>
alyũl aa</w>
aly ũkile</w>
al a
ak i</w>
ak eli</w>
add ressed</w>
ad dic
ad d</w>
abund ance</w>
a b</w>
a athime</w>
YO NG
YONG O</w>
W ycliff
V el
Und er
Sp ir
Rac hel</w>
O l
Nĩ wat
Nĩ nee
N inyie</w>
N eh
Mũny anyae</w>
Mũ uo</w>
Mũ no</w>
MŨ TH
Mwĩ kal
L akeli</w>
Kũv ika</w>
Kai o</w>
K YONGO</w>
Jud ges</w>
Jos é</w>
IN G</w>
Gw en</w>
F oll
F aith
E as
E V
Dec ember</w>
D on
Bro thers</w>
An na</w>
7 5</w>
ũvĩ ng
ũneng etwe</w>
ũm antha</w>
ũk esa</w>
ũ ĩm
ũ li
ũ im
Ũ tao</w>
Ũ T
ĩl yo</w>
ĩl wa</w>
ĩ w’e</w>
yĩt aa</w>
ya asya</w>
y enda</w>
w’ ũnĩ</w>
wa manyĩasya</w>
wa i</w>
w ati
underst and
un ning</w>
un f
um p
tũk ekalaa</w>
tũ mwĩ
twa mbĩĩe</w>
tw e
tol er
thi ana</w>
tend ency</w>
temb er</w>
t ech
surr ound
sumb ĩkĩte</w>
sub mit</w>
su a</w>
strai ght</w>
soci ety</w>
signific ance</w>
si ĩĩe</w>
shoul der</w>
shor t
se ated</w>
sch ed
sa fe
s ought</w>
s old</w>
ris k</w>
recom m
reas sur
prot ected</w>
pres erve</w>
ph ere</w>
p ath</w>
p air</w>
ow ed</w>
os ea</w>
op posed</w>
one kana</w>
on ekie</w>
ol we</w>
o te</w>
nĩwa kwatiwe</w>
nĩwa kwatie</w>
nĩtũ tũngaa</w>
nĩkwat umie</w>
nĩ meet
no tes</w>
ngelek any’onĩ</w>
ngal awa</w>
ng o</w>
nes ie</w>
neigh bor
nd ũkat
nd wĩ
mũv atise</w>
mũla u</w>
mũ amba</w>
mĩ no
motiv ate</w>
mirac le</w>
merci ful</w>
mee wie</w>
meaning ful</w>
me esĩ</w>
mbĩ ĩsya</w>
mb eũ</w>
mb anake</w>
mav alũa</w>
math aũ</w>
mat unda</w>
mat ongoew’e</w>
mat esĩ</w>
mat avisye</w>
man the</w>
ma endete</w>
lov ers</w>
lo g
listen ers</w>
lear ner</w>
l ay</w>
kũtũ l
kũtũ kwata</w>
kũt indany’a</w>
kũt anĩthya</w>
kũ ũ
kĩs eve</w>
ky onanasya</w>
kw’ okonĩ</w>
kw on
ka ke</w>
is ting</w>
inter v
inherit ance</w>
ing’ ĩĩsya</w>
il ty</w>
hypoc risy</w>
hones ty</w>
high er</w>
har v
gl ing</w>
g res
g ate</w>
form ing</w>
for b
f unc
f earing</w>
exp and</w>
exerc ising</w>
ethee w’e</w>
etern ity</w>
ete ae</w>
estab lish</w>
escap e</w>
er ings</w>
ent it
eng ’a</w>
en ses</w>
el ye</w>
el ds</w>
ekal ĩte</w>
eff ec
ee thĩa</w>
dra ws</w>
dis position</w>
differ ences</w>
det ail</w>
del iver</w>
d ust</w>
d own
d ate</w>
d ark</w>
d ama
dama ge</w>
confron ted</w>
con text</w>
con sist
cher ish</w>
c anc
broch ure</w>
bir ds</w>
beli ef</w>
avĩt a</w>
attac ks</w>
at ũng
at ively</w>
at avya</w>
as ũvĩe</w>
any more</w>
anga aisye</w>
ali ke</w>
ad mit</w>
accep ting</w>
aband oned</w>
a endeea</w>
YO U</w>
Y O</w>
Wĩ ona</w>
Wor ship</w>
Wak u</w>
V au</w>
Un iver
Twĩ neenea</w>
Sep tember</w>
R a
O ng
O U
Nĩ w’aa</w>
Nee mia</w>
NTH Ĩ</w>
N ov
N is
N ik
N as
M aĩ</w>
L ot</w>
K atĩ</w>
H im</w>
Ath esalonika</w>
Amer ica</w>
Ab ove</w>
A A</w>
6 2</w>
200 9</w>
200 8</w>
1 39</w>
1 36</w>
1 10</w>
ũt umanu</w>
ũt am
ũs ũanĩe</w>
ũmb ie</w>
ũlũmĩl asya</w>
ũk ie</w>
ũ wetete</w>
ũ kwonany’a</w>
ĩth ĩtw’e</w>
ĩl anĩ</w>
ĩkĩ le</w>
ĩ ĩaa</w>
ĩ ia</w>
Ĩ kalaa</w>
y ũa</w>
y ĩsĩ</w>
y omonĩ</w>
w’ĩkĩth iw’e</w>
w’ ĩkaa</w>
wh enever</w>
wet eele</w>
wend e
weal th</w>
weak en</w>
wav ikie</w>
wath anie</w>
wan ake</w>
wak yo</w>
wa mwath
wa endeee</w>
w endeeasya</w>
w ekalaa</w>
v aseo</w>
us ias
un s</w>
ul ated</w>
ug ust</w>
u ed</w>
u ary</w>
tũte th
tũk am
tũik ese</w>
tũ manya</w>
tw esa</w>
tic ally</w>
ther eafter</w>
th row
t om
t ears</w>
sumb ĩkĩtwe</w>
su nam
sol ution</w>
so anĩ</w>
se ason</w>
scrol l</w>
s ũv
s m
s h</w>
relation ships</w>
refl ects</w>
re minds</w>
re mind
ra ising</w>
ra ine</w>
proper ly</w>
pro claim</w>
pre h
poss ess</w>
ph il
part ner</w>
ob tain
nũtũ nengae</w>
nũ wetete</w>
nĩwa syokie</w>
nĩwa mbĩĩie</w>
nĩma mwendete</w>
nĩ thi</w>
nĩ nak
nya ĩĩ</w>
no cent</w>
ngusan ĩsyonĩ</w>
ng am
neng etwe</w>
n y</w>
n al</w>
mũv oyaa</w>
mũth aithaa</w>
mũsya wa</w>
mũ soanĩ</w>
mũ kũlya</w>
mũ kĩ
mũ i
mĩno o</w>
mwĩt ĩkĩw’a</w>
mis sed</w>
min isters</w>
memor y</w>
mee thĩwa</w>
me manyĩsye</w>
mat umie</w>
makom anaa</w>
mak asumbĩka</w>
ma mwendete</w>
ma isye</w>
m on</w>
m enda</w>
m angũ</w>
loy ally</w>
life ’s</w>
li ber
lab or</w>
kũvĩt a</w>
kũv etanga</w>
kũt inda</w>
kũkũ a</w>
kũk ethĩwa</w>
kũ ũtetheesye</w>
kũ nd
kũ i
kũ athima</w>
kĩt indo</w>
kĩ ĩmanĩ</w>
kĩ we</w>
kĩ ko</w>
kwĩyũmb any’a</w>
k ov
itu maa</w>
ithũ kĩwa</w>
is land</w>
in eena</w>
imp act</w>
im migr
i ent</w>
hu ge</w>
hol ding</w>
highligh ts</w>
heav y</w>
he ed</w>
h ung
gu ilty</w>
gre ed</w>
glor ious</w>
fi c</w>
extre m
ext ended</w>
explain ing</w>
expec ts</w>
es h</w>
end ilĩ</w>
eli o</w>
ee nda</w>
econom ic</w>
dr inking</w>
dist ingu
dis appoin
dev ast
des t</w>
deliv ered</w>
cri min
complet ed</w>
command ments</w>
c overed</w>
bro ken</w>
ay enda</w>
ath wa</w>
ath s</w>
appro aching</w>
ang’ endu</w>
andĩk aa</w>
an th
an ava</w>
ak esa</w>
ad mits</w>
aa ĩsa</w>
a mũt
a f</w>
Willi ams</w>
War wick</w>
WH AT</w>
Val anava</w>
Vak uvĩ</w>
T it
Su pp
Sp ain</w>
S ila</w>
S il
S e
S .
R el
Pr ay</w>
P E
Nĩt ũtonya</w>
Ma itũ</w>
Kĩk w’ũ</w>
Ju li
Inter net</w>
IU D</w>
G al</w>
Faith ful</w>
F or
F e
El ders</w>
De ut</w>
De ath</w>
De ad</w>
Corin th</w>
C E</w>
A ugust</w>
A pp
A mina</w>
8 6</w>
7 00</w>
5 6</w>
200 4</w>
1 50</w>
1 20</w>
’ ya</w>
ũs eleke</w>
ũneng ane</w>
ũ le</w>
ũ iv
Ũmany i</w>
Ũ seo</w>
ĩth wa</w>
ĩl ye</w>
yĩ wetete</w>
yr us</w>
y ear
x es</w>
w’ anĩth
worshipp ed</w>
wor ry</w>
wee thĩiwe</w>
wat etheeisye</w>
wa ya</w>
wa vo
w ish</w>
vis it
v wana</w>
v ath
underst ands</w>
un righteousness</w>
un g</w>
umĩl ya</w>
tũk onany’a</w>
tũ twĩe</w>
tũ kal
twĩ yĩ
twĩ kũlye</w>
twas oma</w>
tw ende</w>
tu kũ</w>
trust ing</w>
threat ened</w>
th usias
testi mony</w>
ta r</w>
t y
symb olic</w>
sust ain</w>
surv ived</w>
surr ounded</w>
su n
stor m</w>
st ones</w>
sp ices</w>
sl ow</w>
sivit alĩ</w>
sign s</w>
si ana</w>
sch ool
ri es</w>
ri de</w>
ri d</w>
repent ance</w>
rememb ered</w>
read s</w>
read ily</w>
ra di
r i</w>
qual ify</w>
pu ter</w>
pros per
pri c
pric eless</w>
pre fer
phil os
philos op
ph r
ord ered</w>
nũ ka</w>
nĩw aneenie</w>
nyiv ĩsya</w>
near by</w>
ndĩ ninĩ</w>
ndi ka
nde the
ndaa ĩtĩkĩla</w>
nda ĩle</w>
n athi</w>
mũtav ye</w>
mũny anyau</w>
my anya</w>
mos anĩte</w>
miracul ous</w>
metho i</w>
met u</w>
mee w’aa</w>
mbũ anĩ</w>
mbulos ua</w>
may ona</w>
math angũ</w>
mat etheeisye</w>
mas oma</w>
mak o</w>
loo ks</w>
lim its</w>
lim it</w>
le x</w>
kũsya ĩĩsya</w>
kũmũ tethya</w>
kũmb any’a</w>
kũk w’ĩĩwa</w>
kũ yaĩ</w>
kĩ mb
kĩ kĩ
ky eetawa</w>
kwĩ anĩw’a</w>
ku aa</w>
kombi ũta</w>
kamb inĩ</w>
kamb e
k otinĩ</w>
it av
it ated</w>
inher it</w>
ing ũa</w>
in ti
in eng
in ce</w>
in ations</w>
ili a</w>
il asya</w>
h ates</w>
guar an
gu ilt</w>
gr ave</w>
gener osity</w>
g al</w>
g ained</w>
for ced</w>
fool ish</w>
fear ed</w>
fe ature</w>
expl an
every where</w>
ev ol
entit led</w>
en thusias
em iwe</w>
ekal i</w>
e yĩ
dre am</w>
don ations</w>
doc tr
dis tur
dep th</w>
del iver
def end</w>
dec is
cultiv ating</w>
contain ed</w>
con tain</w>
commer cial</w>
command ment</w>
com puter</w>
circum c
chris t</w>
carr ying</w>
cal m</w>
c ard</w>
bl ind</w>
believ es</w>
b ones</w>
b it</w>
aĩ w’a</w>
aĩ thĩwa</w>
ay asya</w>
atis we</w>
associ ating</w>
ang ĩĩwe</w>
an oin
an isanĩ</w>
amb ie</w>
alyũl ilwe</w>
al co
akat w’ĩka</w>
ai weta</w>
agas car</w>
acqu ain
a endie</w>
YE OV
YEOV A</w>
Wycliff e</w>
W athani</w>
Twa ĩlĩte</w>
The ocratic</w>
Th anks</w>
Serv ice</w>
S Ũ
P le
Ng uma</w>
Nee w’aa</w>
Nd onya</w>
Mad agascar</w>
M y
M om</w>
M E
L y
L uc
L earn</w>
Kĩth ito</w>
K ong</w>
K ar
Jude a</w>
Jos iah</w>
JE H
JEH OV
J ord
J enn
I T</w>
H ong</w>
Gr and</w>
Every one</w>
End eea</w>
Egypti ans</w>
Con tin
Bi bles</w>
Beth el
Babylon ian</w>
B r
Aval isi</w>
19 49</w>
ũv ĩwa</w>
ũtũ nengae</w>
ũt wĩe</w>
ũt wendete</w>
ũt umĩte</w>
ũnd a</w>
ũkũm ie</w>
ũ elewe</w>
ũ eleetw’e</w>
Ũth aithi</w>
Ũt anu</w>
Ũ sumbĩki</w>
ĩt ũtetheesye</w>
ĩt wĩ
ĩl awa</w>
ĩkĩ ĩte</w>
ĩk asya</w>
ĩ endeee</w>
yĩ ilyĩ</w>
w’ĩkĩth ye</w>
wher e
wanz anĩ</w>
w ind</w>
w ild</w>
val id</w>
v etha</w>
v as
us ual</w>
uph old</w>
um w’a</w>
ug gling</w>
u al
twa kwata</w>
tw aneenea</w>
tre es</w>
tion ary</w>
th ood</w>
terri ble</w>
temp er</w>
t end</w>
symb oli
su itable</w>
str uggling</w>
sp ap
som ie</w>
sin cer
simp li
ser p
satis fy</w>
s ũvĩa</w>
s us
s ila</w>
reli able</w>
re pro
proph es
prin ting</w>
previ ously</w>
po lice</w>
perman ent</w>
pass ages</w>
pas ses</w>
organiz ations</w>
oppos ers</w>
op er
on iw’e</w>
on ally</w>
om ete</w>
ob vi
nũ kw
nĩwatũm ie</w>
nĩwath anie</w>
nĩwat avisye</w>
nĩwa mb
nĩw and
nĩtwa ĩlĩte</w>
nĩn ath
nĩma endie</w>
nĩ kĩtumaa</w>
ng ũ
n ithyĩ</w>
n enda</w>
mũtũ mie</w>
mũth ok
mũt al
mũ kw’ũ</w>
mĩ aa</w>
moun tain</w>
mo onanisye</w>
met ĩkĩl
mer ch
mav i
mat ely</w>
mar ked</w>
many ĩte</w>
mal ũmanĩtye</w>
mal ly</w>
mak oani</w>
mai l</w>
ma wathani</w>
ma cy</w>
ma asyaa</w>
m ita</w>
l at
l ad
kũũngam ĩa</w>
kũth a</w>
kũ mũtavya</w>
kũ ku
kĩv ind
kĩl ye</w>
kĩ somo</w>
ky uu</w>
kwĩyĩ kĩa</w>
kwĩ siĩĩa</w>
keep s</w>
ka ĩla</w>
k en
joy fully</w>
ith ĩte</w>
ite theesye</w>
ineen ea</w>
indic ated</w>
in nocent</w>
in ak
immedi ate</w>
il ing</w>
iit wa</w>
i ik
hospit able</w>
high light</w>
he al</w>
h ost
h ate</w>
h at
gu ests</w>
gr ounds</w>
gath ering</w>
g ather</w>
for given</w>
figh ting</w>
fi elds</w>
fath er’s</w>
ex posed</w>
ex clus
ev angeliz
eth i</w>
ent ing</w>
enn eth</w>
en trusted</w>
emotion ally</w>
el se
ek ya</w>
ek eaa</w>
een y
e dia</w>
divor ce</w>
des er
de gre
d ying</w>
const ant</w>
consci ous</w>
comfor ted</w>
cc l</w>
cau ght</w>
bac king</w>
av atiswa</w>
ath ie</w>
at ũnenge</w>
at ate</w>
at at
as ũanĩe</w>
as y</w>
an’ ye</w>
anyuv ie</w>
ang u</w>
anc y</w>
analy ze</w>
an akav
amũ k
amĩ ĩie</w>
amany ĩisye</w>
al ũmanĩtye</w>
ak eka</w>
ai w’e</w>
ai us</w>
ai thĩa</w>
aff airs</w>
ad ness</w>
ac eli</w>
a p</w>
a kwatwa</w>
Wĩ nyivyo</w>
W e
V il
U. S.
U.S. A</w>
U sing</w>
U lu</w>
U N
U M
S ong</w>
S ci
Read ers</w>
O ut</w>
Ng oo</w>
Na omi</w>
N ũ
N ext</w>
N athani</w>
Kno wing</w>
K ũmũ
K ĩ</w>
K i</w>
K enneth</w>
John ’s</w>
J e</w>
I’ ve</w>
Im itate</w>
IS A</w>
I S</w>
G iving</w>
G aius</w>
E ccl</w>
Chr on</w>
Ch ron
Ch ina</w>
Ben j
Bec ome</w>
B ud
B esides</w>
Aust ria</w>
As sy
Ar aceli</w>
A M
8 9</w>
8 4</w>
6 4</w>
5 7</w>
3 ,000</w>
199 5</w>
19 30</w>
0 4</w>
ũv ĩie</w>
ũs ũngĩa</w>
ũng ye</w>
ũmany ĩw’a</w>
ũ eleetye</w>
Ũk lĩsto</w>
ĩkĩ a</w>
ĩk anaa</w>
ĨT U</w>
Ĩ kũlye</w>
ya ĩĩk
y eethĩawa</w>
wĩ kale</w>
won inĩ</w>
wo onaa</w>
will ing
weap ons</w>
wat ũnengie</w>
wat ũm
waneen aa</w>
wa mw
wa mo</w>
wa manyĩisye</w>
w umĩl
w ingĩ</w>
w alls</w>
view ing</w>
v in
v es
uri ous</w>
ump tu
ul ulu</w>
tũt w’e</w>
tũik ethĩwe</w>
tũ yaĩlĩte</w>
tũ m
twĩ nyivĩtye</w>
twak omana</w>
twa thi</w>
twa r
tw atũmĩa</w>
tru th
trib ulations</w>
ta ĩaa</w>
ta x</w>
t w’e</w>
t sunam
sy n
sy eekie</w>
sugg ested</w>
sub j
strong ly</w>
sp reading</w>
sol ve</w>
sol ation</w>
sl eep
sl and
sil ver</w>
shepher ds</w>
sett led</w>
sequ ently</w>
self ishness</w>
sel ected</w>
ri dic
real m</w>
re turning</w>
re conc
privile ged</w>
plan ning</w>
par tment</w>
out set</w>
our th</w>
ok oo</w>
obst ac
obstac les</w>
nũt umĩte</w>
nũm endete</w>
nũ endeee</w>
nĩwat w’ĩkie</w>
nĩwa kwie</w>
nĩw onanĩtye</w>
nĩmo onie</w>
nĩme thĩĩtwe</w>
nĩma mwĩ
nz aa</w>
nor th</w>
no yo</w>
ng ũmb
ng av
new spap
ne gl
n as
n ab
nab as</w>
mũ ti
mũ ng’endu</w>
mwĩ thĩwe</w>
mos phere</w>
mom ũ</w>
me onany’a</w>
mbĩ ĩaa</w>
mav ika</w>
mate w’aa</w>
mat ũtetheesye</w>
mat w’ĩka</w>
mak am
ma kwatiwe</w>
m and
lo te</w>
lau gh
l am
kũv osya</w>
kũt ana</w>
kũsya a</w>
kũmb ana</w>
kũmat avya</w>
kũ seo</w>
kũ mĩt
kũ kĩ
kũ kwat
kũ emwa</w>
kĩ yaĩ</w>
kĩ mwana</w>
kĩ mena</w>
kĩ ana</w>
kyat etheeisye</w>
kwĩkwat w’a</w>
kw atĩĩa</w>
kund i</w>
it ’s</w>
is ia</w>
ir o</w>
invol ving</w>
int en
int el
intel li
initi al</w>
ific ally</w>
ic an</w>
iaki w’a</w>
heal ed</w>
head ship</w>
gu n</w>
g ency</w>
g aining</w>
fl ed</w>
fe atures</w>
f lee</w>
f er</w>
ey ũmbanĩtye</w>
exerc ises</w>
ess or</w>
er fully</w>
engy ’a</w>
en slav
eet ĩkĩl
ee ile</w>
e manyĩsye</w>
dr un
dr ive</w>
dist inc
dili gent</w>
develop ing</w>
deep en</w>
de x</w>
d h
cred it</w>
cre ature</w>
continu ing</w>
comp an
communic ate</w>
comm ands</w>
com preh
com memor
com forts</w>
cl ergy</w>
child hood</w>
chang ing</w>
ch ur
c urrent</w>
bur den</w>
be arer</w>
b illions</w>
atĩ anĩe</w>
ath ayũũkw’a</w>
at ya</w>
as sume</w>
andĩkĩ te</w>
and ĩthya</w>
anang ie</w>
alyũl wa</w>
al ũmu</w>
acc o</w>
a eleisye</w>
a el</w>
Y E</w>
W ere</w>
W ay</w>
Val ũa</w>
V ilivi</w>
U se</w>
U k
Th ess</w>
S us
R ul
O r
Nĩ wee
No tice</w>
Nak wa</w>
Mwĩkal ĩle</w>
Mwe inĩ</w>
Mar ch</w>
M ũmin
M ungu</w>
L iv
K ũtavany’a</w>
K ũsoma</w>
K wenda</w>
K it
K U</w>
Is land</w>
Indan eti</w>
H en
Fel isa</w>
Ev ening</w>
E mp
E m
E lote</w>
C our
Bib lia</w>
Bar nabas</w>
An ti
AT A</w>
10 4</w>
10 2</w>
ũvĩ ana</w>
ũtũ inĩ</w>
ũsi ĩlo</w>
ũs ũvĩaa</w>
ũmĩ ĩsya</w>
ũm wendete</w>
ũkũ ũe</w>
ũka kwata</w>
ũk wasya</w>
Ũk anga</w>
Ũ ũ</w>
ĩt ongoesye</w>
ĩng ĩĩs
ĩ ny
yone ie</w>
w’ ĩie</w>
w’ s</w>
wĩ w’ano</w>
wumĩl onĩ</w>
wos a</w>
willing ness</w>
whol esome</w>
wel fare</w>
wei gh
weak ness</w>
wav ika</w>
wath ela</w>
wa ũ</w>
wa wa</w>
wa kwatwa</w>
w p
uth ĩ</w>
ut ely</w>
ur ges</w>
umb a</w>
um ye</w>
u pri
u d</w>
tũyĩ ka</w>
tũy ona</w>
tũk eka</w>
twĩ kĩte</w>
twĩ kĩe</w>
twĩ kalaa</w>
twa atĩĩa</w>
top ics</w>
thĩ wai</w>
thrill ed</w>
th row</w>
tele phone</w>
tain s</w>
t aste</w>
sy ee
sub st
star s</w>
sp ending</w>
serv ices</w>
sa u</w>
s ens
rul es</w>
ri c
res entment</w>
repres ented</w>
ren ’s</w>
reason ing</w>
primar ily</w>
pop ular</w>
pleas ures</w>
pl ayed</w>
ph o
per su
ov ing</w>
oth er
or tly</w>
or ies</w>
one ke</w>
onan aw’a</w>
offic er</w>
nĩwo onaa</w>
nĩwa ĩlĩte</w>
nĩwa mw
nĩna kwatie</w>
nĩn av
nĩmat av
nĩ namanyie</w>
ngũmb aũ</w>
ngan ũ</w>
ngal ama</w>
ng ĩ
ng w
neutr al</w>
nee kie</w>
nee kaa</w>
ndaa eka</w>
nd etonĩ</w>
nd akat
na mba</w>
n os
n ings</w>
mũth yanĩ</w>
mũt isu</w>
mũneng e</w>
mũeme wa</w>
mũ tetheeisye</w>
mwĩkal ĩlenĩ</w>
mo tive</w>
mo kĩte</w>
met awa</w>
med itation</w>
mb s</w>
mayĩ thĩwa</w>
mayĩ ka</w>
matũm ĩtwe</w>
mati ele</w>
mat anĩe</w>
mas omaa</w>
mar it
manz ĩ</w>
manyuv ĩtwe</w>
man th
makat anĩa</w>
ma wetwa</w>
ma si
ma mbĩĩie</w>
ma ingangĩ</w>
los ing</w>
loc ation</w>
lik ile</w>
leng th</w>
l u
l and
kũtũng ĩĩa</w>
kũtũ a</w>
kũth aũka</w>
kũth ayũũkya</w>
kũkat uma</w>
kũk iakisya</w>
kũ waa</w>
kũ temb
kũ math
kũ likya</w>
kũ kwatya</w>
kĩ w’ũnĩ</w>
kĩ theu</w>
kĩ onany’a</w>
kĩ kav
kyat umaa</w>
kwat yo</w>
kwa mb
kw etye</w>
kov i</w>
king ship</w>
kambe ini</w>
ka e</w>
inter esting</w>
initi ally</w>
ing’ĩ ĩw’a</w>
ind ing</w>
ind ie</w>
in ity</w>
in ese</w>
in ely</w>
im anĩ</w>
ilik ano</w>
il es</w>
idolat ry</w>
hum an
hou ses</w>
head s</w>
har sh</w>
g i
g ently</w>
for tify</w>
foc using</w>
fin ished</w>
fac es</w>
f it</w>
ex ile</w>
ev i
est ament</w>
er to</w>
ent ’s</w>
eng’ aa</w>
enev ete</w>
en h
eman wa</w>
elem ile</w>
eeny iv
e k</w>
e awa</w>
discus ses</w>
dis appointed</w>
degre e</w>
dec eptive</w>
de af</w>
d ingly</w>
crit ic
convers ations</w>
condem ned</w>
compan ion</w>
comm ended</w>
com mo
child ren’s</w>
ch ron
ca using</w>
b an
ayĩ ka</w>
avo ided</w>
at mosphere</w>
at ethya</w>
at ethe
as h</w>
ar ch</w>
any uve</w>
ani mal</w>
angũl ilye</w>
anga as
ang ĩĩ
al d</w>
al anĩ</w>
ai elesya</w>
abund ant</w>
ab u</w>
a ũ
a wetete</w>
a onĩ</w>
a mũth
a mas
Wĩ kwatyo</w>
Wor l
Wes tern</w>
WH EN</w>
W is
W aĩ</w>
Uk raine</w>
Tru th</w>
TH E
Sis era</w>
Sh ortly</w>
SA V</w>
S und
S ilikalĩ</w>
Ru le</w>
Rep ublic</w>
Pu erto</w>
Pr ayer</w>
O vis
Nĩ weesĩ</w>
Nz ek</w>
Nov ember</w>
Ng ili</w>
Neh emiah</w>
Nd ĩ
Na zi</w>
N ee</w>
Mũmin ũkĩlyo</w>
Mwa mbĩĩonĩ</w>
Me al</w>
M wende</w>
M or
Kũvi kĩĩa</w>
Kĩs ese</w>
Kya ũya</w>
K U
Jord an</w>
J une</w>
J W</w>
Indan etinĩ</w>
Emp ire</w>
E sau</w>
Ch inese</w>
C la
Bud dh
B ap
B al
B a
As semb
AK O</w>
A ny
A V
A S</w>
7 9</w>
6 9</w>
200 6</w>
200 2</w>
19 31</w>
1 30</w>
ũĩm ĩ</w>
ũth ũkũmaa</w>
ũth ilĩku</w>
ũt anĩ</w>
ũs ome</w>
ũng e</w>
ũk ona</w>
ũk itĩa</w>
ũ wetiwe</w>
ũ neenea</w>
ũ alyũku</w>
Ũt avany’a</w>
ĩv ya</w>
ĩv u</w>
ĩt ĩte</w>
ĩk onetye</w>
ĩee ma</w>
ĩ ile</w>
ĩ ianĩ</w>
w’ĩ ĩe</w>
wĩkal o</w>
wĩ manyĩsye</w>
wĩ kũlye</w>
wĩ anĩu</w>
wend ie</w>
wat umaa</w>
wa manyĩ
wa ge</w>
vĩt ie</w>
va yaĩ</w>
v ethĩwe</w>
v eng
ush ed</w>
upri ght</w>
ung un
ung aa</w>
ul ate</w>
uc k</w>
tũũ neenea</w>
tũũ neena</w>
tũk av
tũk amanya</w>
tũit ũmĩa</w>
trou bl
transl ators</w>
tr a</w>
te ens</w>
t ow
t ested</w>
syĩt wanĩ</w>
sy elĩ</w>
subj ection</w>
strength ens</w>
spec ifically</w>
skill s</w>
si bl
shor tly</w>
sent ence</w>
sched ule</w>
sc en
rul ed</w>
ri der</w>
rewar ds</w>
rewar ding</w>
resurrec t</w>
respec tful</w>
res ted</w>
res idents</w>
rel ations</w>
reas oned</w>
read ers</w>
re infor
r ying</w>
r am
pursu its</w>
pur ch
promin ent</w>
prom ising</w>
prof es
pres erved</w>
pre ad</w>
pl aying</w>
particip ate</w>
ov etwe</w>
oun ce</w>
other wise</w>
op ens</w>
on ing</w>
omb o</w>
o grap
nĩweet ĩkĩl
nĩwee wie</w>
nĩwat w’ĩte</w>
nĩwa mũnengie</w>
nĩwa ekie</w>
nĩsy av
nĩn endete</w>
nĩme w’aa</w>
nĩma manyie</w>
nĩma kwatie</w>
nĩkũtũ tetheeasya</w>
nĩ mwĩ
nĩ kĩtonya</w>
neng ĩ</w>
necess ities</w>
nde esĩ</w>
nd ĩv
na ĩle</w>
na mbĩĩe</w>
mũv oye</w>
mũn ya
moo ka</w>
mon ekaa</w>
mo onekaa</w>
min ĩte</w>
mee yumisye</w>
medi a</w>
me yĩ
me w’a</w>
mbĩ ĩw’a</w>
mb oka</w>
mb evo</w>
may ĩsĩ</w>
mav ĩndĩ</w>
makĩ ĩe</w>
makat uma</w>
mak eka</w>
ma ingĩvĩte</w>
ma andĩkie</w>
m enyivĩtye</w>
lif es
kũvĩt ũka</w>
kũtwĩ kĩa</w>
kũthanga aw’a</w>
kũn ie</w>
kũmũ aa</w>
kũmwĩ thukĩĩsya</w>
kũmb anĩa</w>
kũl ũnga</w>
kũ neen
kũ endany’a</w>
kĩv ũthya</w>
kĩth amanĩ</w>
kĩ ĩle</w>
kĩ mako</w>
kĩ kaa</w>
kĩ it
kĩ eni</w>
kwĩyĩ elekany’a</w>
kwĩy anakavya</w>
kwa endie</w>
kind ’s</w>
k ee
k ath
iv ũ</w>
ith ela</w>
isit ela</w>
isi o</w>
increas ing</w>
ild ren</w>
il ĩkonĩ</w>
if t</w>
ic les</w>
i yĩ
i ya
hear ted</w>
hab its</w>
gl ad</w>
gir ls</w>
f ug
f ears</w>
explan ation</w>
exp ensive</w>
ex tra
et ĩkĩlaa</w>
et t</w>
et r
et er
ess es</w>
es ar</w>
entr al</w>
eng aging</w>
encoun ter</w>
enc ing</w>
en z
emb arr
em etwe</w>
el ed</w>
ek ane</w>
effec tively</w>
ee kĩie</w>
ec tor</w>
e tic</w>
e kĩe</w>
distribu ted</w>
dis obedience</w>
direc tions</w>
des crip
deal t</w>
d ’
d ated</w>
cru el</w>
cooper ation</w>
cooper ate</w>
conqu est</w>
co dex</w>
clean ness</w>
cl er
chur ches</w>
ch ec
c up
c in
c ast</w>
bit ter</w>
bel ongs</w>
bal ance</w>
avo yaa</w>
av ivũ</w>
atũm iwe</w>
at ĩa</w>
at ana</w>
as emb
ar ms</w>
ap proved</w>
andĩkĩ we</w>
amany ĩasya</w>
aman the</w>
am in</w>
aly ũle</w>
alco h
aff lic
ad mitted</w>
acqu ire</w>
acc ident</w>
ab sor
a wake</w>
a umya</w>
a umisye</w>
a anĩsya</w>
Y aĩ</w>
Wall kill</w>
W asya</w>
Vel isia</w>
U R
Tũ yaĩle</w>
Twĩ ĩmanyĩsya</w>
Tit us</w>
Th ings</w>
T ũmĩa</w>
T y
T er
Sus an</w>
Supp ose</w>
S pe
S el
Re fl
Re fer
Philipp i</w>
Per son</w>
P an
No onaa</w>
Nab oth</w>
N thembo</w>
N asyo</w>
Mũs oa</w>
Mũ thembi</w>
Mb aĩ</w>
Mav ainia</w>
M id
M c
M O
Lik ely</w>
L o
L isitela</w>
Kwa ekai</w>
K ore
K ings</w>
K ev
H ist
Gre ece</w>
Contin ue</w>
Ch ildren</w>
Bethel ites</w>
Assemb ly</w>
Amwĩ ie</w>
A gain</w>
A L</w>
9 7</w>
15 13</w>
ũth w’a</w>
ũteth asya</w>
ũseũv ĩte</w>
ũs omaa</w>
ũs om
ũneen i</w>
ũm an
ũka mbĩĩa</w>
ũk oka</w>
ũk am
ũ ima</w>
Ũ twi</w>
ĩv w’a</w>
ĩt umaa</w>
ĩlĩ ĩle</w>
ĩee manĩ</w>
ĩ ĩka</w>
ĩ kwatya</w>
Ĩ manyĩsye</w>
ya k
y avika</w>
w’ĩ ĩka</w>
wĩ yendete</w>
wĩ anĩasya</w>
wrong do
worshipp ing</w>
worshipp er</w>
wo osie</w>
wid es
wides pread</w>
wasya iwe</w>
war n</w>
waneng etwe</w>
w ood</w>
w on</w>
vis ions</w>
vic ti
um ent</w>
ul l</w>
tũmw enda</w>
tũk asũanĩa</w>
tũ some</w>
tũ mwendete</w>
tũ mb
twĩkal ĩte</w>
tw ati
tr act</w>
tob acco</w>
ti fic
te am</w>
t in</w>
sy oombiwe</w>
sy mp
sy e
supp ly</w>
strugg led</w>
st yle</w>
st ed</w>
sp l
si des</w>
set tle</w>
serp ent</w>
s ively</w>
s at</w>
ru in</w>
ri an</w>
resurrec tions</w>
resp ects</w>
represent atives</w>
repe ated</w>
rep ut
refl ecting</w>
re m
qui et</w>
pun ishment</w>
promo ted</w>
pro found</w>
pri es
pres umptu
por tions</w>
pond er</w>
pet itions</w>
persec uted</w>
perfec tly</w>
perc ent</w>
patri arch</w>
p aying</w>
ov o
os ts</w>
origin ally</w>
op s</w>
ongo ing</w>
ong side</w>
on ic</w>
on eth
oneth eless</w>
on ers</w>
nĩwav eveewe</w>
nĩwa ĩkĩĩthisye</w>
nĩwa vo
nĩwa thayũũkiw’e</w>
nĩnĩ w’aa</w>
nĩma kwie</w>
no kyo</w>
no a</w>
ngusan ĩsyo</w>
n omo</w>
n ic
mũth engeea</w>
mũt ĩnĩ</w>
mũnya mbũ</w>
mũ ka
mĩ ũnda</w>
mwĩ a</w>
meth od</w>
meet awa</w>
me kĩe</w>
me kwĩw’a</w>
mb ai</w>
mav indanĩ</w>
mat umĩte</w>
mat al
man kind’s</w>
mal ĩu</w>
ma wetete</w>
ma wasya</w>
ma thayũ</w>
ma gn
ma ema</w>
lifes aving</w>
li ked</w>
l dn’t</w>
kũvi kĩĩa</w>
kũv oa</w>
kũv eta</w>
kũth onoka</w>
kũth asya</w>
kũmũ tũngĩa</w>
kũek ewa</w>
kũ nz
kũ mwe</w>
kũ ikethĩwa</w>
kũ andĩkwa</w>
kĩs ese</w>
kĩl ĩĩla</w>
kw’ ĩte</w>
kwĩv ĩta</w>
kwĩ nũka</w>
kwĩ manthĩa</w>
kwa ilyĩ</w>
kak uvĩ</w>
ith i</w>
ith any’a</w>
it t
it indo</w>
it anĩ</w>
initi ative</w>
ingĩv a</w>
il ate</w>
ign ore</w>
ic ed</w>
i ĩma</w>
i mũtũ</w>
i endeee</w>
hop ed</w>
hel l</w>
hat red</w>
gu ese</w>
grac ious</w>
gener ously</w>
gar ment</w>
g ood
friend ly</w>
find s</w>
figur ative</w>
fe ed</w>
fam ous</w>
f lo
extre me</w>
exerc ised</w>
ex per
ex hor
enti fic</w>
ent y</w>
emp ire</w>
ell ing</w>
ee v
ee kĩa</w>
ec h</w>
e esĩ</w>
distr acted</w>
discus sing</w>
disas ters</w>
develop ments</w>
develop ment</w>
des erve</w>
deliver ance</w>
deligh ted</w>
deli ber
d ele
cust om</w>
courage ously</w>
correc tion</w>
consi ders</w>
con fir
compar ison</w>
comm it</w>
cl ay</w>
cl ar
chari ots</w>
ch aste</w>
c at
bol dly</w>
beg ins</w>
atũmĩ iwe</w>
atĩ ĩi</w>
ath wii</w>
at inĩ</w>
at an
as ũvĩ
ar ted</w>
app lication</w>
anĩ ĩe</w>
ang wa</w>
and ĩke</w>
amany ie</w>
ama lia</w>
al ongside</w>
ak yasya</w>
ak as
ad o</w>
ad ap
acc ess</w>
a z</w>
a wetaa</w>
a mbĩĩie</w>
a eke</w>
Th ous
Th ird</w>
T estament</w>
Sa marit
S how</w>
R i
Portu guese</w>
Ple ase</w>
Pe ace</w>
O sea</w>
Nd ya
N in
Mũ isilaeli</w>
Me an
Mar gare
M WA
Kĩv eti</w>
Kya ũ</w>
Kit abu</w>
Kev in</w>
K aini</w>
K WA
K W
K G
KG B</w>
Ital y</w>
Inter national</w>
Il l
I ts</w>
H E
Ge orge</w>
G ra
Fl or
Ev entually</w>
E st
E D</w>
Des cribe</w>
D E
Car ol
C ong
Benj amin</w>
Av il
As a’s</w>
Ak anaani</w>
A ge</w>
A bel</w>
9 00</w>
8 00</w>
6 3</w>
6 ,000</w>
5 ,000</w>
197 1</w>
19 70</w>
19 43</w>
10 5</w>
1, 600</w>
1 35</w>
0 9</w>
ũtũ tetheeasya</w>
ũtũ l
ũt ongoi</w>
ũt aa
ũmb endete</w>
ũmany ĩsye</w>
ũm ya</w>
ũk engani</w>
ũ na
ĩĩ ile</w>
ĩsi wa</w>
ĩndũk ie</w>
ĩ aw’a</w>
Ĩ V
Ĩ KĨ
yĩ onany’a</w>
yĩ kav
yum ĩthĩtw’e</w>
yok ete</w>
ya isye</w>
y ment</w>
y et
w’ĩkĩth w’a</w>
wĩ tũ
witnes sed</w>
wher ever</w>
wh eat</w>
wel com
welcom ed</w>
week ly</w>
watch ful</w>
wat avanasya</w>
wamwĩ ie</w>
wak omanie</w>
wa andĩkĩie</w>
victi m</w>
v ul
v ows</w>
v etawa</w>
us i</w>
ul ti
u bl
ubl in</w>
tũt anamba</w>
tũka kwata</w>
tũk ekala</w>
tũ u</w>
tũ kwasya</w>
twĩkal ae</w>
tur ed</w>
tre mend
trans fer
tr ous</w>
tit le</w>
tion al</w>
themb onĩ</w>
the arted</w>
thayũũk yo</w>
tex ts</w>
tem per
telev is
teen agers</w>
ta un
syĩ kaa</w>
sy st
stre t
str a</w>
sp ouse</w>
some what</w>
simil arly</w>
sel ect</w>
se x</w>
se men</w>
se ango</w>
s yo</w>
s of
s ites</w>
s ets</w>
ri al</w>
regre t</w>
rac es</w>
prom otes</w>
prog ressed</w>
proclaim ers</w>
proclaim ed</w>
pri or
previ ous</w>
pr on
pers ever
par ty</w>
out l
oub tedly</w>
os ye</w>
opin ions</w>
ong a</w>
ol ai</w>
ok o
ok iw’e</w>
off ices</w>
oc k</w>
obtain ed</w>
o yae</w>
nũt w’ĩte</w>
nĩyĩ wetete</w>
nĩya th
nĩwĩ kĩte</w>
nĩwat atie</w>
nĩw ũkĩte</w>
nĩw ookie</w>
nĩw aleile</w>
nĩtũ kwataa</w>
nĩnat wie</w>
nĩmat umaa</w>
nĩmat ethe
nĩma endeeie</w>
nĩm oo
nĩkũt umĩte</w>
nĩ yaĩle</w>
nĩ monete</w>
nĩ a</w>
ngav ana</w>
ng ung
ndu uthĩ</w>
nda aĩka</w>
nat ive</w>
n ia</w>
n endete</w>
mũth wii</w>
mĩt waano</w>
mĩ nini</w>
mwĩt ĩkĩl
mwĩ wi</w>
mot anu</w>
mo ke</w>
mid dle</w>
mekal ae</w>
me ũt
me yũmbanĩtye</w>
me yumĩtye</w>
me w’e</w>
me kawa</w>
math amĩĩa</w>
mat ũl
mat w’a</w>
mat wĩ
mat ethye</w>
mat esa</w>
mas ũanĩa</w>
maneng ete</w>
mamũth aithaa</w>
male ile</w>
mal ilikan
mak athi</w>
maik ese</w>
ma w
ma thayũũk
ma kwatwa</w>
ma ela</w>
m oombiwe</w>
m etĩkĩ
m ent
liter ally</w>
let ting</w>
le ti
lac king</w>
l ow</w>
kũvĩt ya</w>
kũv onoka</w>
kũtũ k
kũtemb ea</w>
kũol anga</w>
kũmĩs oma</w>
kũm eta</w>
kũlũng wa</w>
kũkit ana</w>
kũ ũmĩsya</w>
kũ ĩva</w>
kũ ua</w>
kũ sy
kũ kwatĩĩa</w>
kĩthe kanĩ</w>
kĩt oo</w>
kĩkĩ o</w>
kĩkat uma</w>
kĩ ĩtwe</w>
kwĩv w’ĩka</w>
kwĩs ũva</w>
kw eethĩwa</w>
isol ated</w>
iseũv ĩtw’e</w>
is esenĩ</w>
inter f
ind i</w>
in k
imany ĩsya</w>
im wana</w>
il ee</w>
i on’s</w>
i au</w>
human kind</w>
hosp ital</w>
histor ical</w>
hi o</w>
hard ships</w>
har dly</w>
happ ily</w>
h air</w>
gro oming</w>
good ness</w>
g a</w>
foc uses</w>
fl ou
fi xed</w>
fac ilities</w>
f ourth</w>
extra ordinary</w>
ext end</w>
ex act</w>
ev eli</w>
ethee w’a</w>
esti mate</w>
err or</w>
equi pped</w>
enjo yment</w>
eng aged</w>
en tic
elek anilye</w>
ele w’a</w>
el wa</w>
earnes tly</w>
e tiwe</w>
dro p</w>
distr essing</w>
disas trous</w>
de pr
cup bearer</w>
coun sel
conc entr
com promise</w>
choos es</w>
cent ered</w>
c ell</w>
bri ef</w>
bo at</w>
bless es</w>
b ish
b ear
av ũthũ</w>
av ĩndũ
av er
aum ye</w>
asya iwe</w>
asom ie</w>
arch ae
ar ing</w>
ar g
anĩ ĩtye</w>
an ese</w>
amũ kũlya</w>
ama zed</w>
al tar</w>
al ities</w>
ak atũmĩa</w>
ai aa</w>
after ward</w>
ad equ
ac ity</w>
ab use</w>
aal i</w>
a ũnenge</w>
a ĩkĩĩthye</w>
a wa
a umĩte</w>
a andĩkĩie</w>
Wal ter</w>
W T</w>
Vil ato</w>
V aa</w>
U r</w>
Thessalon ians</w>
T ony</w>
T al
T ab
Sund ay</w>
St ate</w>
Spir itual</w>
Sp irit</w>
Sil as</w>
Sa ma
S ource</w>
R ud
Ovis i</w>
O hio</w>
Nĩ wĩthĩwa</w>
Nĩ namanyie</w>
Nik olai</w>
Ndĩ ni</w>
Nak u</w>
N onetheless</w>
N esa</w>
N WT</w>
Mũt waano</w>
Mid dle</w>
Mb eenĩ</w>
Margare t</w>
Ly stra</w>
L it
L ist
Kũm wenda</w>
Kore a</w>
Jap anese</w>
JEHOV AH</w>
J ude</w>
J im
It ’s</w>
Ill ustr
I v
I C
Her od</w>
H ung
Gr anted</w>
G ent
Euro pe
Encyclop edia</w>
E arly</w>
D ublin</w>
Cana an</w>
C oun
C ome</w>
Bless ing</w>
An sw
Alexand ra</w>
A u
9 2</w>
7 ,000</w>
18 70</w>
1 33</w>
ũũ neena</w>
ũyĩ thĩwa</w>
ũv atiso</w>
ũtũ tetheesye</w>
ũt athimĩka</w>
ũs ũanĩaa</w>
ũs isye</w>
ũny uva</w>
ũny iau</w>
ũli ku</w>
ũkũ tethya</w>
ũkũ nĩ</w>
ũk amanya</w>
ũ ĩa</w>
ũ we</w>
ũ kwĩmanyĩsya</w>
ũ kwona</w>
ĩĩs yai</w>
ĩt ũ
ĩng ĩ
ĩ ĩie</w>
ĩ kũlye</w>
Ĩ andĩkonĩ</w>
yĩ kĩtwe</w>
yĩ ka
ya atĩĩe</w>
y umasya</w>
y atũmĩawa</w>
w’ ĩe</w>
wĩt ĩkĩla</w>
wĩ anĩsye</w>
wi pe</w>
wee manyĩsya</w>
wat ching</w>
wamwath ĩte</w>
waa ĩsa</w>
wa wetaa</w>
wa mina</w>
w ũmb
w ookie</w>
w in
w 17.
volunt ary</w>
ut most</w>
up building</w>
un usual</w>
un like</w>
um ĩtw’e</w>
um ents</w>
ul ũ
tũt ate</w>
tũmĩ ĩsye</w>
tũl ũlũmĩlye</w>
tũl ungu</w>
tũk ath
tũ thi</w>
tũ ngĩ</w>
tũ kwĩw’a</w>
twa vĩt
tw ose</w>
tw anengwa</w>
tsunam i</w>
transfer red</w>
tr acts</w>
tr ac
thĩ e</w>
throw n</w>
thre at</w>
ther e
teth ye</w>
temp tations</w>
tech no
te a</w>
t ents</w>
t ent</w>
stri ke</w>
sti r
sor row</w>
si oned</w>
sent enced</w>
s ũva</w>
s at
ro p
ro ads</w>
righ ts</w>
require ment</w>
reques ts</w>
reput ation</w>
rec alled</w>
r unning</w>
produc tive</w>
prior ities</w>
pre gn
pow ered</w>
posses sion</w>
pos t
p al
ow ned</w>
over ly</w>
over ing</w>
os sed</w>
op enly</w>
on ea</w>
om ĩĩsye</w>
ol f</w>
ol es
obvi ous</w>
oblig ation</w>
obj ective</w>
o awe</w>
o ath</w>
o anĩ</w>
nĩwĩ thĩĩtwe</w>
nĩwav angie</w>
nĩng ũ
nĩna mbĩĩe</w>
nĩmat atie</w>
nĩ yĩt
nĩ w’a</w>
nĩ monaa</w>
nz i
ni ma</w>
ng’ ombe</w>
ng ath
ndũ kwona</w>
nd waĩle</w>
n endaa</w>
n aa</w>
mũv ungwa</w>
mũt uo</w>
mũk engani</w>
mũin ae</w>
mũ end
mwĩ ĩnĩ</w>
mul ti
mos umbĩ</w>
min utes</w>
men tions</w>
mee kiwe</w>
mean time</w>
me kĩaa</w>
mav ikie</w>
matũ kwataa</w>
mater ially</w>
matat wanĩ</w>
mat ume</w>
maneng ae</w>
mal el
mak atiĩwa</w>
mak amanya</w>
mait avany’a</w>
ma ume</w>
ma the
ma m
ma kĩaa</w>
ma ilea</w>
ma elekanĩtw’e</w>
m ĩk
m ust
lo gy</w>
leg iti
kũv athũkany’a</w>
kũtũ ma</w>
kũs om
kũs engy’a</w>
kũnde theesya</w>
kũmany ĩa</w>
kũm ony’a</w>
kũkũ nz
kũ syokea</w>
kũ li
kĩ wanzanĩ</w>
kĩ thĩwa</w>
kĩ themb
kĩ ikethĩwa</w>
kĩ i
kya th
ky eũ</w>
kwĩ thiana</w>
kwongel anga</w>
kwend eka</w>
kw anang
ku ĩte</w>
kam itii</w>
k y</w>
k etawa</w>
k een
ith athi</w>
it yp
it udes</w>
is lands</w>
is iti</w>
is ite</w>
intelli gent</w>
inst itu
ing itho</w>
incl inations</w>
inc ense</w>
il le</w>
id entity</w>
i x</w>
i andĩkĩtwe</w>
hol ds</w>
he at</w>
har mon
happ i
h idden</w>
h augh
guaran tee</w>
gro ws</w>
grand parents</w>
gover nor</w>
giv er</w>
gener ally</w>
fru its</w>
friend ships</w>
frequ ently</w>
foot note</w>
favor able</w>
far m</w>
fam ine</w>
f u</w>
f ond</w>
ext ensive</w>
expl o
experi encing</w>
exclus ive</w>
ex isted</w>
ex change</w>
ex al
evol ution</w>
every day</w>
ethukĩ ĩsye</w>
enab les</w>
emphas ized</w>
embarr ass
ele iwe</w>
ek eie</w>
ee ded</w>
e z
e anĩu</w>
e ango</w>
du ties</w>
dr ag
doub ts</w>
div isions</w>
discourag ement</w>
des ir
coun t</w>
cop y
con ver
com ment</w>
cleans ed</w>
ci ent</w>
bu rial</w>
br ary</w>
avo yie</w>
av ye</w>
av ikie</w>
av es</w>
author ized</w>
atwa wa</w>
attr acted</w>
att itudes</w>
atis awa</w>
ati ele</w>
at ala</w>
as inĩ</w>
ar ro
ar ose</w>
app ed</w>
apost asy</w>
any anyawa</w>
and ũkũnĩ</w>
anang we</w>
an na</w>
amũ ka</w>
al au</w>
ake anĩsya</w>
ait avany’a</w>
agre ement</w>
ad ult</w>
a x</w>
a mũnenga</w>
a aũ</w>
Z ion’s</w>
Yo ena</w>
Y aeli</w>
Worl dwide</w>
With in</w>
W ee
Twee thĩwa</w>
Ther eafter</w>
Ta ze</w>
T ũt
T ũi
T at
Stud y</w>
Ser mon</w>
Scrip ture</w>
Sar ah’s</w>
S yo</w>
S aul’s</w>
S ak
R ic
R iana</w>
Qu een
Pri est</w>
Phili p</w>
P os
P i
O ff
Nep al</w>
Nee wie</w>
Mũt ongoi</w>
Mũik emakĩe</w>
Mwĩ ao</w>
Mic ah</w>
Mas ter</w>
Mal aki</w>
M uch</w>
Kĩl atinĩ</w>
K ũlilikana</w>
K YA
Jo anna</w>
Jim my</w>
IS T
Gr ave</w>
Europe an</w>
Et ĩkĩw’a</w>
El i</w>
EN YA</w>
E un
E ne</w>
D or
Cong reg
Con sequently</w>
Chron icles</w>
C ain</w>
Ar ab
An to
An n
An cient</w>
Akal atia</w>
9 9</w>
6 07</w>
5 0,000</w>
200 7</w>
200 3</w>
195 8</w>
195 6</w>
195 2</w>
19 41</w>
19 37</w>
0 5</w>
ũt anĩa</w>
ũs ũe</w>
ũng ĩwa</w>
ũlũmĩ ĩlya</w>
ũlũm anĩtye</w>
ũl ya</w>
ũku ĩtwe</w>
ũk amũ
ũis ũanĩa</w>
ũ ni</w>
ũ andĩkĩtwe</w>
Ũth ũku</w>
Ũ ĩ</w>
Ũ thayũũkyo</w>
Ũ ka
Ũ S
ĩth ye</w>
ĩs umb
ĩng aa</w>
ĩm i</w>
ĩl ile</w>
ĩ it
Ĩ S
ze k</w>
ya yo</w>
ya ble</w>
w’ ĩk
wholehear ted</w>
where as</w>
wee kĩte</w>
wav atisiwe</w>
wat wie</w>
war mly</w>
wal ilikana</w>
wa manengie</w>
wa iwe</w>
w ongelek
w all</w>
volunt eer</w>
visit ors</w>
vic tor
vic tim
vic ious</w>
vat aĩle</w>
va umĩla</w>
v uti</w>
uv uku</w>
un known</w>
ub u</w>
u na
u li
tũy ĩsĩ</w>
tũt avanasya</w>
tũt at
tũs isye</w>
tũmĩ aa</w>
tũ ĩkĩĩa</w>
tũ in
twath ĩtwe</w>
twas isya</w>
twar ming</w>
twa mbe</w>
tw ona</w>
tw ice</w>
tw endaa</w>
tremend ous</w>
tran spor
thĩ anu</w>
the ok
the ka</w>
ter ’s</w>
te ar</w>
tal o</w>
t ally</w>
sy eethĩawa</w>
sumb ĩkwa</w>
suk ulunĩ</w>
sub tle</w>
strong er</w>
stor ies</w>
spl end
spir its</w>
smo ke</w>
sincer ely</w>
sibl ings</w>
sen ses</w>
se mba</w>
sci entific</w>
sc ope</w>
sc ene</w>
safe guard</w>
s y</w>
s ek
resul ting</w>
resc ued</w>
rep ent</w>
rem n
remn ant</w>
rejo icing</w>
refresh ing</w>
real istic</w>
qu isite</w>
pris oners</w>
pri or</w>
present ation</w>
pre me</w>
pre ach
preach ers</w>
por tr
plan ets</w>
plag ue</w>
ph ine</w>
p ly</w>
osp els</w>
or ah</w>
onok ie</w>
on es
ol wa</w>
ol olo</w>
occasi onally</w>
nĩwĩ yũmbanĩtye</w>
nĩwee kĩie</w>
nĩwa mũv
nĩtũl ũmanĩtye</w>
nĩtwa mbĩĩe</w>
nĩtw endaa</w>
nĩtw ee
nĩna mbĩĩie</w>
nĩna endie</w>
nĩmat umie</w>
nĩma mb
nĩm es
nĩ wĩtĩkĩl
nya mbũ</w>
nor thern</w>
no we</w>
ng aa</w>
nee w’a</w>
ne w’o</w>
ndĩ wetete</w>
nd an
n ik
mũv ĩla</w>
mũv ĩa</w>
mũtwa ani</w>
mũth engee
mũneng ae</w>
mũ mb
mwĩkal o</w>
mov isi</w>
mos tly</w>
mid st</w>
men ete</w>
mee kawa</w>
me ũtũ
mawĩ oo</w>
maum anĩte</w>
math aithaa</w>
mat ũmĩie</w>
mat indĩaa</w>
mat avya</w>
manyĩ thya</w>
manyĩ th
mal uvuku</w>
makom anie</w>
mak anisa</w>
ma ĩsaa</w>
ma sumbĩkĩtwe</w>
ma mĩ
ma like</w>
ma eke</w>
m ookie</w>
m ill
loc ated</w>
lik ened</w>
lif ted</w>
lel ũnĩ</w>
lac ked</w>
l on
l eness</w>
kũthe w’a</w>
kũth ama</w>
kũt ĩĩa</w>
kũs ũvĩwa</w>
kũs ũanĩaa</w>
kũmb wa</w>
kũkũnz wa</w>
kũk iita</w>
kũk atha</w>
kũek eanĩa</w>
kũ ĩkĩĩ
kũ nya
kũ kwatĩ
kũ endaa</w>
kĩng’ ee</w>
kĩl ilikano</w>
kwĩtĩkĩl ya</w>
kwĩth wa</w>
kwath ana</w>
kwat ĩtwe</w>
keen ly</w>
kany w’a</w>
kan asya</w>
kan aa</w>
kamb unĩ</w>
ka thĩĩa</w>
k iakiasya</w>
k ethĩwa</w>
j e</w>
ith okoo</w>
it ĩ</w>
it edly</w>
is ese</w>
ir amb
iramb ubu</w>
inspir ing</w>
ins ul
ing e</w>
in qu
illi on</w>
ign or
id er</w>
id a</w>
ick y</w>
i wetetwe</w>
i ie</w>
hop ing</w>
highligh ted</w>
high est</w>
hear twarming</w>
heal ing</w>
hard working</w>
happi er</w>
happ ening</w>
great ers</w>
gr and</w>
fore ign
for es
foo t</w>
faul ts</w>
fam il
fall ing</w>
f res
extrem ely</w>
express es</w>
exec uted</w>
ex quisite</w>
enslav ed</w>
eng ie</w>
endee isye</w>
end etwe</w>
end ekaa</w>
en ekee</w>
en ai</w>
emp athy</w>
else where</w>
ell ’s</w>
ee ding</w>
e mba</w>
e anĩsya</w>
discus sions</w>
dis trib
direc ting</w>
di um</w>
deser ves</w>
descrip tion</w>
dep ends</w>
defin itely</w>
de pression</w>
de pressed</w>
d w
cop per</w>
control led</w>
conqu ered</w>
conduc ting</w>
con solation</w>
comp et
commis sioned</w>
cl ass
cap acity</w>
cap able</w>
calam ity</w>
c auti
bur ned</w>
bond age</w>
bo ard</w>
bit ter
b rain</w>
b ound</w>
aver age</w>
attemp t</w>
ath aa</w>
at ’s</w>
asya ĩwe</w>
as ũngĩie</w>
arr ival</w>
ap parently</w>
anti christ</w>
ant ityp
angeli c</w>
an ticip
amũ kũlilye</w>
amũ kĩaa</w>
amin ie</w>
ama i</w>
am ini</w>
am anyaa</w>
ak eeka</w>
advanc ement</w>
adul ts</w>
adop ted</w>
ad mir
ad ing</w>
acc used</w>
ab eth</w>
a wak
a wait</w>
a mbĩie</w>
a anĩtye</w>
a an
Zechar iah’s</w>
Ye ar
Wak yumwa</w>
W oo</w>
V wana</w>
V o</w>
V ala</w>
U S
Tũ i</w>
Twa endeea</w>
Tuv alu</w>
To ñ
Tim es</w>
Ti me</w>
Thr oughout</w>
T H</w>
Sis yai</w>
Sh ane</w>
Ser ve</w>
S ya
RO M</w>
Pro t
P at
O f
Nĩn endete</w>
Nĩ wĩsĩ</w>
Nĩ neesĩ</w>
Nd yaĩ</w>
Mũs ili</w>
Mĩth enya</w>
Mo des
Mar y’s</w>
Mar tin</w>
Ma ũmbano</w>
Ma irambubu</w>
MAT T</w>
M T</w>
Kam itii</w>
K ũtũmĩa</w>
John ny</w>
Jan uary</w>
Jac ob
Hum ans</w>
Hist ory</w>
H O
Gal ilee</w>
G ospels</w>
Eun ice</w>
E zek</w>
E d
Del phine</w>
D ay</w>
C a
Bed ell’s</w>
B ur
Av eli</w>
Ar ch
Accor dingly</w>
AS A</w>
AN D</w>
A vis
8 1</w>
6 8</w>
200 5</w>
2 .
18 00</w>
1 18</w>
0 3</w>
ũv ĩi</w>
ũt ak
ũs ũv
ũs isya</w>
ũneen aa</w>
ũmĩ ĩsye</w>
ũm ĩe</w>
ũm enete</w>
ũkũ v
ũkwat i</w>
ũka ete</w>
ũka ema</w>
ũk omo</w>
ũk avika</w>
ũ tũt
ũ neene</w>
ũ endaa</w>
Ũ tukũ</w>
ĩv i
ĩth ĩtye</w>
ĩt ya</w>
ĩk atĩ</w>
ĩ ĩtw’e</w>
ĩ theu</w>
ĩ nga</w>
ĩ eleetye</w>
Ĩs ũvĩ
ĨTH ĨWA</w>
z one</w>
yĩ thĩĩtwe</w>
yĩ andĩkĩtwe</w>
ya umiw’e</w>
y usĩe</w>
y ona</w>
y i
w’ anĩ</w>
wi ĩe</w>
wende esya</w>
wat ũmĩaa</w>
wat w’ĩkie</w>
wa ũngamĩe</w>
wa umie</w>
wa mbĩĩisye</w>
wa manya</w>
w umaa</w>
w d</w>
vin ey
victim s</w>
va in</w>
ut ting</w>
usũs ye</w>
un necessary</w>
un just</w>
umbĩth w’a</w>
uma al
tũy enda</w>
tũtethe ke</w>
tũt w’ĩke</w>
tũt esa</w>
tũmũ manye</w>
tũ yĩt
tũ kwona</w>
twĩ thĩĩtwe</w>
troubl ed</w>
trou bles</w>
trag ic</w>
tr onic</w>
thĩn iw’e</w>
thĩn aa</w>
threat s</w>
there by</w>
ther ap
tend erness</w>
televis eni</w>
ta mb
t ary</w>
syĩ thĩwa</w>
surv ival</w>
sugg ests</w>
st ing</w>
sleep ing</w>
sk y</w>
si ci
si asya</w>
seũv isye</w>
sex ually</w>
sev en
seven th</w>
secre t</w>
sear ching</w>
se ed</w>
sch ools</w>
sanc tified</w>
s uring</w>
s oo
s ob
s li
s killed</w>
s crib
s cor
rol ls</w>
ro b
ridic ule</w>
resp ected</w>
res ses</w>
repro ach</w>
rep ly</w>
reli ed</w>
rel ev
rec over</w>
reassur ed</w>
reas suring</w>
re vision</w>
re ver
radi o</w>
r ine</w>
r ance</w>
pro gr
pries thood</w>
pri ce</w>
pre fer</w>
pre acher</w>
pr ost
pl enty</w>
pl ed</w>
phy sici
perfec tions</w>
per spec
pen alty</w>
peace able</w>
pas sion</w>
par ti
p ill
out look</w>
oun ced</w>
orig in</w>
oppos ite</w>
om ed</w>
olin ess</w>
o asi</w>
nũt etheeasya</w>
nũ eleetye</w>
nĩwas ũngĩie</w>
nĩwamũ tetheeisye</w>
nĩwa ĩ</w>
nĩwa me
nĩwa kũlilye</w>
nĩwa andĩkie</w>
nĩtũ tetheeasya</w>
nĩsy at
nĩnak omanie</w>
nĩm endeeaw’a</w>
nĩ no
nĩ neesĩ</w>
nĩ nd
ngan anĩo</w>
ng amu</w>
neng wa</w>
ndũke thĩwe</w>
ndũk ese</w>
ndĩv i</w>
ndy enda</w>
ndak alea</w>
n ũlilikanaa</w>
n on
mũĩkĩĩ aa</w>
mũtũng ĩa</w>
mũny anyawa</w>
mũ sa
mũ omonĩ</w>
mũ nĩ</w>
mĩ end
mwa ĩle</w>
mo ld</w>
mist ak
min im
mbĩlĩl ya</w>
may endaa</w>
mat ataa</w>
make anĩa</w>
maka uma</w>
mak onanĩtye</w>
mak al
ma thĩnĩ
ma kwatĩte</w>
m ĩl
m ona</w>
loc ally</w>
less ness</w>
le an
l ĩlyo</w>
l ilikanaa</w>
l aiaa</w>
kũtũ manyĩsya</w>
kũth ũka</w>
kũth engeea</w>
kũth ata</w>
kũs ũnga</w>
kũmat ethya</w>
kũmany ĩka</w>
kũman thĩa</w>
kũl ĩtye</w>
kũkat umaa</w>
kũ ũv
kũ ũnenga</w>
kũ ĩv
kũ sumbĩkwa</w>
kũ ng
kũ itetheesya</w>
kĩvind u</w>
kĩt ume</w>
kĩk ethĩwa</w>
kĩ ĩma</w>
kĩ ya
kĩ eleetye</w>
kw’ ĩĩwe</w>
kwĩt w’ĩĩa</w>
kwĩt anĩw’a</w>
kwĩl ĩ</w>
kwĩ thĩĩtwe</w>
kwa ĩle</w>
kw ia</w>
kw eethĩiwe</w>
kw anangĩka</w>
ku nĩkĩli</w>
kombi ũtanĩ</w>
kal ĩte</w>
kak alĩ</w>
ka ĩlaa</w>
k ers</w>
isit oli</w>
interf ere</w>
int enti
ind i
immor tal</w>
imag ined</w>
imag es</w>
im perfections</w>
im itating</w>
iliv u</w>
iit ie</w>
identi fies</w>
i ĩmanĩ</w>
i yaĩ</w>
i di
histor ian</w>
help er</w>
har der</w>
h ide</w>
h al
gre et
gr ant</w>
flo or</w>
famil y’s</w>
fall en</w>
fail ure</w>
f ol
expec tations</w>
exam ination</w>
eth w’a</w>
eth i
est ee
er ico</w>
er ce</w>
equ al</w>
eny amini</w>
eng’ isye</w>
eng ers</w>
endee w’e</w>
end ix</w>
en sure</w>
en sion</w>
emee we</w>
eleet we</w>
ele elya</w>
el il
ee iwe</w>
ed erico</w>
eb all</w>
dru gs</w>
displ aying</w>
dis posed</w>
dep end</w>
del ay</w>
dar kness</w>
da un
d ou
d anc
cul tures</w>
crow ds</w>
coun ter
correc ted</w>
conv ey</w>
contrib utes</w>
conflic ts</w>
comm ented</w>
challeng ed</w>
c up</w>
bl ame</w>
be gun</w>
b ’s</w>
b ul
ay onany’a</w>
avo iding</w>
av ĩte</w>
av anw’a</w>
av anga</w>
au th
atũmĩ wa</w>
ath elete</w>
at tain</w>
at ind
at en</w>
asumbĩ ke</w>
ass over</w>
ar t
ar rested</w>
appreci ates</w>
ap e</w>
ann ual</w>
andĩkĩth isye</w>
and ’s</w>
and ed</w>
anc est
an we</w>
an ewa</w>
amũs ũngĩie</w>
amat etheeisye</w>
am ple</w>
am ic</w>
ale aa</w>
al ũs
al ĩka</w>
akũ angũ</w>
ai thĩaa</w>
adv anced</w>
adop t</w>
ad vers
ac tual</w>
ab or
a weta</w>
a mũtavya</w>
a mal
Year book</w>
Wh oever</w>
W ovosyo</w>
W enda</w>
W a</w>
V ilivu</w>
V as
U S</w>
Tũ yĩsa</w>
Toñ i</w>
TI ON</w>
TI M</w>
T akethĩwa</w>
St ory</w>
Spe aking</w>
Si me
Rus sian</w>
Re ign</w>
R am
Phil ist
Par is</w>
P assover</w>
P RO
ON YA</w>
O rig
O b
Nĩ we</w>
Ng ombo</w>
Nak yo</w>
Mũl aĩka</w>
MŨTH ENYA</w>
Mwe ũ</w>
Med itating</w>
Mb enyamini</w>
M ĩv
M other</w>
List en</w>
Li brary</w>
L U
KĨ LA</w>
Kyrgy z</w>
Kwĩ kala</w>
Kwo osa</w>
K ũndũ</w>
K ũmanyĩsya</w>
K um
Jud ge</w>
Jo b’s</w>
Je ze
J ai
I la</w>
H ad</w>
G iver</w>
G ar
Foll owing</w>
F ederico</w>
Ev idently</w>
Eu o
Eli as</w>
D ra
D en
Com pare</w>
Christ op
Canaan ite</w>
CO R</w>
C y
C o
C ent
B ul
B enef
At ongoi</w>
Anto ine</w>
Ak iliki</w>
AS YA
AN ĨA</w>
A my</w>
20 th</w>
20 10</w>
199 0</w>
19 60</w>
19 48</w>
1 41</w>
1 27</w>
ũyĩ ka</w>
ũvĩt ĩsya</w>
ũtũ man
ũth ũ
ũtethe tye</w>
ũtav asya</w>
ũt wĩkĩte</w>
ũt onekaa</w>
ũt etheeisye</w>
ũt anĩe</w>
ũsũv ĩo</w>
ũs ũvĩe</w>
ũs ũvĩa</w>
ũs indi</w>
ũmĩ wa</w>
ũm isonalĩ</w>
ũke anĩsya</w>
ũke anĩa</w>
ũk y
ũ ũtavany’a</w>
ũ nũ
ũ mũth
ũ kĩĩa</w>
ũ endete</w>
ũ atĩĩe</w>
Ũk any’o</w>
Ũ seũv
Ũ M
ĩt ũmĩawa</w>
ĩs eũv
ĩngĩ ĩsa</w>
ĩl onĩ</w>
ĩl ondu</w>
Ĩ kanisa</w>
z abeth</w>
yũmũ a</w>
yĩ kale</w>
year text</w>
ya mbĩĩe</w>
wĩ nyivĩtye</w>
wĩ kala</w>
won any’e</w>
wend ano</w>
weet ĩkĩlile</w>
wangang any’o</w>
wa mũt
wa me
wa kwatiwe</w>
wa endeeie</w>
wa endeea</w>
wa ani</w>
w ene</w>
w earing</w>
w anyuv
w aleile</w>
val ũanĩ</w>
va ke</w>
us ion</w>
ur gency</w>
un believers</w>
umbĩ ka</w>
ul un</w>
tũte ũtĩĩa</w>
tũtav any’e</w>
tũis ũanĩa</w>
tũika aĩse</w>
tũ ũm
tũ ti
tũ seo</w>
twĩl ĩtu</w>
twĩ yũmbanĩtye</w>
twee kĩa</w>
twa manya</w>
tw onanasya</w>
tur ns</w>
trib es</w>
tra p</w>
tow ns</w>
to tally</w>
to tal</w>
tic es</w>
ti oned</w>
th and</w>
te ele</w>
tal ked</w>
tak ethĩwa</w>
t asks</w>
syĩ ndũnĩ</w>
sya ĩtye</w>
sya isye</w>
sya andĩkiwe</w>
sy av
sy aneen
sur pris
sugg est</w>
success or</w>
str ange</w>
stead y</w>
stead fast</w>
stat ements</w>
stand ably</w>
st ro
st ery</w>
st able</w>
sm ile</w>
sil ent</w>
sh ing</w>
sh ak
sens itive</w>
sec ond
s tim
s thand</w>
ro d</w>
rit ical</w>
righ tful</w>
ri or</w>
ri ch
respec tfully</w>
rep ay</w>
rep air</w>
ren ounce</w>
relev ant</w>
re place</w>
re ated</w>
r iv
qual ific
qualific ations</w>
public ation</w>
prepar ation</w>
pre va
pop ulation</w>
perspec tive</w>
perce ive</w>
p se</w>
p ity</w>
p en</w>
out working</w>
ous y</w>
oth ’s</w>
os i</w>
opin ion</w>
on line</w>
omb o
off ense</w>
obedi ently</w>
o we</w>
o ov
o k</w>
o es</w>
o e</w>
o e
nũtũ mĩaa</w>
nũt anĩaa</w>
nũkw endete</w>
nũ ma
nĩwĩ yumĩtye</w>
nĩwee yũmbanĩtye</w>
nĩwee yumisye</w>
nĩwat umaa</w>
nĩwa thayũũk
nĩw esaa</w>
nĩtũ k
nĩmale ile</w>
nĩma wetete</w>
nĩma kwatiwe</w>
nĩma endeee</w>
nĩma endaa</w>
nĩm ookie</w>
nĩ thĩawa</w>
nĩ manya</w>
nĩ ilyĩ</w>
numb ers</w>
ngung anĩ</w>
ngam ĩle</w>
ngal ĩnĩ</w>
ng ũũ</w>
ng ũta</w>
ng ovia</w>
ndĩ thya</w>
nde thĩawa</w>
nda ema</w>
nda at
nd ĩkĩĩku</w>
natur ally</w>
nak w’o</w>
na endeeie</w>
n ũth
n ũsumbĩkĩte</w>
n onaa</w>
mũu onĩ</w>
mũ neen
mĩ nyambũ</w>
mwĩ kĩĩle</w>
mur der</w>
mour ning</w>
moun tains</w>
mon any’e</w>
modes tly</w>
mis sing</w>
mir ror</w>
meas ures</w>
me tũ
mb ingangĩ</w>
mat ongo
mat amũkĩaa</w>
mas ũanĩe</w>
mas ye</w>
mas ind
mar ks</w>
manyuv ie</w>
maneng e</w>
maku ĩtwe</w>
mak othaa</w>
maim antha</w>
ma yĩt
ma wĩanĩ</w>
ma somo</w>
ma som
ma manyĩsya</w>
ma many
ma lika</w>
m u</w>
m ende</w>
lu x
log ical</w>
lo ad</w>
lel ũ</w>
legiti mate</w>
leg ally</w>
le ment</w>
lar g
l ĩtu</w>
l um
l isted</w>
l fire</w>
kũv u
kũv ind
kũthok ea</w>
kũt etea</w>
kũs ilĩla</w>
kũmũ tia</w>
kũmũ kũlya</w>
kũme ka</w>
kũmas ũvĩa</w>
kũ ĩthya</w>
kũ w
kũ thĩnĩkĩa</w>
kũ manyĩthya</w>
kũ etee</w>
kũ a</w>
kĩt ulu</w>
kĩl ĩ
kĩ thĩwe</w>
kĩ neen
kĩ n
kĩ ik
kyat uma</w>
kw’ oka</w>
kwĩy umĩlya</w>
kwĩs ilya</w>
kwĩkwat any’a</w>
kwĩ w’ana</w>
kwĩ nyivĩsya</w>
kwĩ k
kw endwa</w>
kw ee
ku n
kav ĩsĩ</w>
kat ĩkatĩ</w>
it ũmĩawa</w>
is tics</w>
ir s</w>
inv ites</w>
inspir ation</w>
imp ul
immigr ants</w>
im u</w>
im press</w>
ilikan asya</w>
ili i</w>
il ĩ
il ungunĩ</w>
if ies</w>
ic y
ic ient</w>
husb and’s</w>
househol ders</w>
hor semen</w>
hop es</w>
hones tly</w>
hones thearted</w>
hel lfire</w>
haugh ty</w>
harv est</w>
hand led</w>
grad u
gr av
glor ify</w>
glor ified</w>
gh ts</w>
fulfill ing</w>
fug itive</w>
fo ref
fir sthand</w>
ff er
fer t
favor ite</w>
favor ably</w>
f il
f ed</w>
express ing</w>
ex tra</w>
ev es</w>
ethi ovia</w>
ete ma</w>
et awe</w>
es tion</w>
er al</w>
equi p</w>
enti ous</w>
emphas is</w>
em ’s</w>
em powered</w>
em et
elik ye</w>
elem ya</w>
ele ments</w>
ele ma</w>
el ing</w>
el ines</w>
ec es</w>
earth qu
e m</w>
e ana</w>
dre ams</w>
div er
dist ance</w>
disfellowshipp ing</w>
disc over</w>
dis rup
devo te</w>
desper ately</w>
des ired</w>
deliber ately</w>
defe at</w>
dec re
de pic
d ry</w>
convinc ing</w>
contribu tions</w>
contribu tion</w>
contempl ate</w>
cons ul
con sum
commo d
comb ined</w>
com mon
clos ed</w>
char ge</w>
cap tive</w>
c ris
c ra
brother ’s</w>
bl ack</w>
bir th
belong ings</w>
beg ged</w>
back grounds</w>
b icy
b ears</w>
avĩt ie</w>
av atise</w>
atum ĩte</w>
ati ie</w>
ath ok
ath ers</w>
ate ũ
at ũtongoesye</w>
at ũl
asim ĩthya</w>
asi asya</w>
as ũngĩa</w>
ar m</w>
any ĩsya</w>
anoin ting</w>
ang as
andĩk awa</w>
anang aa</w>
amwĩ lĩtu</w>
aman thaa</w>
alcoh ol</w>
al mighty</w>
ain t</w>
aim u</w>
ag ar</w>
adjust ed</w>
achi ev
accur ately</w>
acc ord</w>
aatĩ ĩaa</w>
a ĩsa</w>
a mũv
a elewe</w>
a asya</w>
a ani</w>
Yes eveli</w>
Ye ar</w>
Wend y</w>
W itũ</w>
Vas aka</w>
V e
Univer sity</w>
Under standably</w>
Th ree</w>
T wasũanĩa</w>
T ok
T S</w>
T O</w>
Solom on’s</w>
Ser ving</w>
S yl
S ilia</w>
Rul er</w>
R iver</w>
Q U
Per sian</w>
P ilate</w>
P ap
P ac
Of ten</w>
OR I
ON S</w>
Nĩt wĩw’aa</w>
Nd ũke
Nd ũkat
Nd yaa
Nd i</w>
Nab oth’s</w>
Na itũ</w>
ND ET
N ini</w>
N ations</w>
N Z
Mũt waani</w>
MŨ T
Modes ty</w>
Me thĩawa</w>
Mb oasi</w>
MA ŨNDŨ</w>
M wanake</w>
M ee
M anya</w>
L oy
L ou
L ear
Kũv oya</w>
Kwa eka</w>
Kal ilii</w>
KU MA</w>
K ola</w>
Jer ich
Jacob ’s</w>
J er</w>
J O
Ir ina</w>
IU D
IUD s</w>
I WE</w>
H ay
H agar</w>
G et</w>
F urther</w>
Es ther</w>
Elij ah’s</w>
Eli zabeth</w>
E ĩtu</w>
E ekie</w>
D ic
Commun ist</w>
Christ end
Bri degroom</w>
B u
ANY ’
9 8</w>
9 4</w>
8 ,000</w>
3 ,
199 9</w>
10 6</w>
’ yo</w>
ũy ona</w>
ũy enda</w>
ũv angĩte</w>
ũtũmĩ ĩte</w>
ũthũ ĩlonĩ</w>
ũthe i</w>
ũth asya</w>
ũngĩ iwe</w>
ũngam ie</w>
ũng eme</w>
ũkĩl ya</w>
ũkomb o</w>
ũkat avanw’a</w>
ũk ee
ũ kwĩ
Ũseũv yo</w>
ŨT ONYA</w>
Ũ sĩ</w>
Ũ neen
Ũ kunĩkĩli</w>
ĩĩ aw’a</w>
ĩth aũ</w>
ĩt ũmĩĩte</w>
ĩs ũngĩĩte</w>
ĩny ungaa</w>
ĩlĩ ĩla</w>
ĩkĩl ya</w>
ĩk anisanĩ</w>
ĩ ĩkĩte</w>
ô te</w>
ó n</w>
yĩs ilya</w>
yath anie</w>
ya ka</w>
y ũ
y oke</w>
wĩv itho</w>
wĩ enda</w>
worth while</w>
woo aie</w>
wo onanasya</w>
wet eka</w>
wee manyĩisye</w>
wee kĩie</w>
wath ie</w>
wat ched</w>
wamũ tetheeisye</w>
wal imũ</w>
wa umiw’e</w>
wa mbĩlĩlyo</w>
wa andĩkĩe</w>
w est</w>
vĩt ĩte</w>
vo ire</w>
vo id</w>
virg in</w>
vig il
ver sions</w>
ve onekana</w>
valu ed</w>
ut ya</w>
ut y</w>
usũs ya</w>
ur i</w>
ur gent</w>
up set</w>
un faithful</w>
umb ũl
uma w’a</w>
um ed</w>
u ĩ</w>
u we</w>
u tions</w>
u nth
u ka</w>
tũtũmĩ ĩte</w>
tũt anĩe</w>
tũka ema</w>
tũk ona</w>
tũit ata</w>
tũ somaa</w>
tũ il
typ ical</w>
twĩ s
twĩ neenea</w>
twee thĩa</w>
twa weta</w>
twa mina</w>
transpor tation</w>
trag edy</w>
tor ture</w>
top ic</w>
tom b</w>
toler ate</w>
tim ely</w>
tific ation</w>
thre w</w>
thok etye</w>
thank s
thanks giving</w>
ten ance</w>
tempor arily</w>
temper ed</w>
techno logy</w>
tak eka</w>
ta itũ</w>
t av
t as
t ably</w>
t aa</w>
sũv ie</w>
syst ems</w>
syok ee</w>
sya k
sy uu</w>
sy oonanasya</w>
sy l
sur face</w>
st uck</w>
st ands</w>
speak er</w>
shr ines</w>
sh out</w>
sh el
ses sion</w>
secre tary</w>
sacrif icial</w>
s outh</w>
s bur
rul ers</w>
ro ck</w>
ro c
ris h
restor ation</w>
rememb ering</w>
rebel led</w>
ram mat
rammat on</w>
r ate</w>
pursu ing</w>
pu zz
prot ective</w>
progres sively</w>
proclaim ing</w>
princi p
pre jud
practic ed</w>
pl ants</w>
phr ase</w>
per mission</w>
par take</w>
over jo
overjo yed</w>
ot am
oo ds</w>
ongelek ile</w>
ol ot
ok enĩ</w>
ob serving</w>
o x
o res</w>
nũt ataa</w>
nũt anaa</w>
nũm enete</w>
nĩwĩ anĩasya</w>
nĩwat ũmĩaa</w>
nĩwaneng iwe</w>
nĩw oo
nĩw endeeiw’e</w>
nĩtũt ataa</w>
nĩtũt anaa</w>
nĩtũ vĩt
nĩtũ manyaa</w>
nĩt umaa</w>
nĩme kalaa</w>
nĩmat ũmĩaa</w>
nĩma um
nĩma aĩle</w>
nĩm onanĩtye</w>
nĩm etĩkĩl
nĩm esaa</w>
nĩ wĩtĩkĩlaa</w>
nĩ syĩthĩawa</w>
nya aĩ</w>
numb ered</w>
nor mally</w>
ng wenda</w>
newspap er</w>
ne l</w>
ndethe easya</w>
nde theesye</w>
ndaa ĩsa</w>
nda aĩ
nd ale</w>
nation ality</w>
n ũmany
n in
mũĩkĩĩ th
mũt u</w>
mũt enge</w>
mũsa ala</w>
mũ tetheesye</w>
mũ kat
mok it
mit ting</w>
mis sive</w>
mekal ĩte</w>
me thukĩĩsye</w>
me kĩtwe</w>
mb ũthũ</w>
mav oyaa</w>
mater ials</w>
mata kĩtalĩ</w>
mat ũmĩawa</w>
mat uma</w>
mat aa
makw atĩĩe</w>
ma ĩkĩĩthasya</w>
ma t</w>
ma semb
ma manyĩsye</w>
ma il
ma ee
ma ch
m ut
m endeeaw’a</w>
loy al
loyal ties</w>
long time</w>
lin ked</w>
lic ations</w>
li r
li ps</w>
leti ũ</w>
let s</w>
lar ger</w>
la res</w>
l ’s</w>
l ilikany’a</w>
l est</w>
kũũngam ya</w>
kũv ũthĩĩsya</w>
kũtũ th
kũth ũku</w>
kũth aw’a</w>
kũt angĩĩwa</w>
kũmwĩ a</w>
kũme kĩa</w>
kũk enga</w>
kũk any’a</w>
kũk anw’a</w>
kũatĩ anĩa</w>
kũ ũtũmĩa</w>
kũ su
kũ mak
kũ kĩl
kũ a
kĩv ĩlanĩ</w>
kĩth ũi</w>
kĩl ilye</w>
kĩ sya</w>
kwov wa</w>
kwat umie</w>
kwamb ata</w>
kw elel
kum w’a</w>
ku ie</w>
kind s</w>
kav indanĩ</w>
k it
k een</w>
jud ges</w>
jeal ousy</w>
iv il</w>
iti we</w>
ith amanĩ</w>
it err
it ems</w>
it ano</w>
ing’ endilĩ</w>
ing’ ei</w>
indic ating</w>
independ ence</w>
ind ĩĩsye</w>
increas ingly</w>
inak okenĩ</w>
in y</w>
im proper</w>
illustr ated</w>
id ly</w>
id i</w>
i y
hon ored</w>
hear s</w>
h oliness</w>
h it</w>
h all</w>
h ad
gu ides</w>
grand mother</w>
gl adly</w>
g lo
g et
g ala
gala x
fri ght
foref athers</w>
fl ow</w>
fi erce</w>
fail ing</w>
f ra
f lir
exec ute</w>
etr ag
etrag rammaton</w>
et ’s</w>
esti mat
err ors</w>
enh ance</w>
empl o
elec tronic</w>
ek anie</w>
ee thĩie</w>
ed ar</w>
eas es</w>
d’ I
d’I voire</w>
dr am
domin ant</w>
distingu ish</w>
discipl ined</w>
dis put
devast ated</w>
detail ed</w>
den y</w>
dem and</w>
decis ive</w>
dec lares</w>
de ed</w>
d ness</w>
cre ating</w>
contr over
consist ent</w>
conqu er</w>
con firm</w>
commemor ate</w>
comm unity</w>
cli mate</w>
cleans ing</w>
circumc ised</w>
ci l</w>
chron ic</w>
character istics</w>
ch ance</w>
cer e
canc er</w>
bro ad
break s</w>
bre aking</w>
boo k
bl ood
beh ave</w>
be at</w>
bal let</w>
b illion</w>
b adly</w>
avĩt ya</w>
av en
ation ’s</w>
athe tic</w>
at ambĩte</w>
at a
asumb ĩkĩtwe</w>
ass ure</w>
aseũv ya</w>
as ũanĩie</w>
ar med</w>
appreci ative</w>
anĩth ye</w>
any iv
announ ced</w>
ani w’e</w>
ang’ ang’
anga asye</w>
ang ile</w>
andĩkĩ thya</w>
and y</w>
an wa</w>
amb e</w>
amany ĩsye</w>
am wĩkwat
am atetheesye</w>
akat uma</w>
aka mbĩĩa</w>
ak eng
ak el
ain ĩ</w>
ai ĩ</w>
ago g</w>
ag nos
ag gres
af ford</w>
addic tion</w>
adap t</w>
ad oles
ac company</w>
ac compani
absol utely</w>
ab b
aa ũmae</w>
a uma</w>
a atĩĩe</w>
Y ona</w>
Y ES
YES Ũ</w>
V ul
U p
U li
Tr y</w>
T etragrammaton</w>
T av
T a</w>
T R
Si anĩsya</w>
She b
Se oli</w>
Sc rolls</w>
S ays</w>
S E
Rud olf</w>
Ro yal</w>
Rel ate</w>
Read ing</w>
R eli
Prov ider</w>
P re
P ot
P oin
P ic
OR Y</w>
Nĩtũt anaa</w>
Nĩ nd
Nĩ matonya</w>
No thing</w>
Ng a
Na z
Mũs i
Mĩth enyanĩ</w>
My olooto</w>
Mo talo</w>
Med iterr
Mb athi</w>
Mal ondu</w>
Mak oki</w>
M ir
M er
M an</w>
M agog</w>
Lu ig
LI K
L O
KŨ L
Kĩth yomo</w>
Kav inda</w>
Ka ren</w>
K wasisya</w>
Jeze bel</w>
Jephth ah’s</w>
Is u</w>
I M
Hu man</w>
Flor ida</w>
Ev eso</w>
Ethiop ian</w>
End ai</w>
Dani el’s</w>
D an</w>
Col or
C ôte</w>
C ali
An ene</w>
Amer ican</w>
Akal i</w>
Ac tually</w>
AN S
A me</w>
A ma
A as
A R</w>
A LA</w>
9 5</w>
8 7</w>
8 5</w>
5 9</w>
20 18</w>
20 16</w>
198 9</w>
198 4</w>
198 2</w>
197 9</w>
195 5</w>
195 3</w>
19 th</w>
19 44</w>
19 39</w>
0 2</w>
0 ,000,000</w>
ʹ pe</w>
ũtũng aa</w>
ũtũ ĩkĩĩthasya</w>
ũth angaasya</w>
ũt ulu</w>
ũt ongoew’e</w>
ũneng wa</w>
ũmb any’a</w>
ũm anyaa</w>
ũlilikan asya</w>
ũl ilikene</w>
ũkũ ta</w>
ũk osa</w>
ũk ita</w>
ũi mũ
ũ ol
ũ etae</w>
Ũv onge</w>
ŨS U</w>
Ũ sya
Ũsya o</w>
Ũ l
Ũ LA</w>
ĩth w’a</w>
ĩt ũtetheeasya</w>
ĩt etheesye</w>
ĩt aĩle</w>
ĩs ĩkĩe</w>
ĩs oma</w>
ĩkĩ aa</w>
Ĩsũvĩ ei</w>
ĨV ĨTU</w>
ĨT E</w>
Ĩ tamb
Ĩtamb ya</w>
Ĩ ngĩ</w>
· ga
·ga ʹpe</w>
z al
yĩ i
yĩ elesya</w>
ya ĩa</w>
y ũũ
y un
yun iv
yuniv as
y s
y esaa</w>
y atumie</w>
x ili
wĩ ĩw’a</w>
wĩ yũmbanĩtye</w>
worth less</w>
wor st</w>
wom an’s</w>
wholehear tedly</w>
wei ght</w>
weap on</w>
wav angĩte</w>
wath ok
wath anĩtwe</w>
war ns</w>
war nings</w>
waneng wa</w>
wa um
wa meie</w>
wa kũlilye</w>
wa kwata</w>
wa e</w>
wa aĩlĩte</w>
w oomb
w if
w endeeaw’a</w>
vo yaa</w>
val aimu</w>
v ĩ</w>
v ary</w>
v ania</w>
ur al</w>
ungun y
understand able</w>
und oubtedly</w>
un repentant</w>
u ne
u bs</w>
tũyĩ thĩawa</w>
tũyĩ kala</w>
tũteth ye</w>
tũte ũ
tũt atonya</w>
tũs inde</w>
tũng ĩaa</w>
tũneng awe</w>
tũit avany’a</w>
tũi kal
tũ ĩkĩĩaa</w>
tũ endee</w>
tũ eka</w>
twav oya</w>
twati ĩwe</w>
twat ata</w>
twa sya</w>
tw ekalaa</w>
tw ekala</w>
tw atwa
tic al</w>
thĩ ana</w>
tethe tye</w>
t ate</w>
t ality</w>
syĩ yĩtaa</w>
syĩ thĩĩtwe</w>
syĩ kwonany’a</w>
syĩ kalaa</w>
syl vania</w>
sy atũmĩawa</w>
sy asyo</w>
sy aseũv
surround ing</w>
sur passes</w>
supp ose</w>
supp lies</w>
supp lication</w>
stri c
str iving</w>
ste al</w>
star ts</w>
stand point</w>
spor ts</w>
sp an</w>
soldi er</w>
simpli fy</w>
si ze</w>
shel ter</w>
sh re
sh ee
sh all</w>
separ ation</w>
sel i</w>
sec tion</w>
s qu
s laugh
s itting</w>
s iti
siti ma</w>
s ending</w>
s aving</w>
rol led</w>
ri us</w>
res sing</w>
res ear
ren ew
renew ed</w>
recogn ition</w>
rebel li
rebelli ous</w>
r om
r ange</w>
r age</w>
public ly</w>
pu ts</w>
prot ects</w>
pros pec
prophes ied</w>
progr ams</w>
profes sion
produc ing</w>
pres er
post p
possib ility</w>
port ers</w>
por te
persu aded</w>
per mit</w>
particip ating</w>
p ul
p ool</w>
p he
p aths</w>
over y</w>
over look</w>
outl ined</w>
otam ia</w>
op press
oo king</w>
ongele elwa</w>
ongel eka</w>
ong we</w>
on eness</w>
om ĩĩisye</w>
olog ists</w>
ol ong
ol ding</w>
ol dest</w>
o onekaa</w>
nũtũ thĩnĩkĩaa</w>
nũm anengae</w>
nĩwa mwendete</w>
nĩw andetheeisye</w>
nĩtũt avĩtye</w>
nĩtũt anĩaa</w>
nĩnee manyĩisye</w>
nĩmat etheeisye</w>
nĩmak othaa</w>
nĩ nam
nĩ eleetye</w>
no ĩthwa</w>
no u</w>
neen eaa</w>
nee dy</w>
necess arily</w>
ndu ka</w>
nd ev
ndev ili</w>
nd ethĩwa</w>
nath ũkũmaa</w>
na endie</w>
n yũ</w>
n ekalaa</w>
mũĩkĩĩ thya</w>
mũvi ku</w>
mũth aithi</w>
mũs ũngĩie</w>
mũn enange</w>
mũeme u</w>
mũ thei</w>
mũ te
mũ meo</w>
mĩt uo</w>
my ri
mwĩtĩkĩl i</w>
mwĩ ki</w>
mwa itũ</w>
mw onzu</w>
mw eng
mov ies</w>
mom ĩĩsye</w>
mom ent
mis use</w>
ment ally</w>
mee k</w>
me kĩĩte</w>
me kwendeew’a</w>
mb ũa</w>
mayĩ kala</w>
may onaa</w>
maum ĩla</w>
math a
matam wĩsĩ</w>
mat anĩaa</w>
mar y</w>
mamũ manthaa</w>
mamũ kĩaa</w>
mamb ie</w>
mal ek
makom ete</w>
make kĩka</w>
mak onany’a</w>
mak omaa</w>
mak ilyĩ</w>
mak ew’a</w>
mai kwata</w>
mai kal
magn ific
ma yeesĩ</w>
ma syoka</w>
ma manyie</w>
ma likile</w>
ma atĩanĩe</w>
long ing</w>
l oud</w>
l ing
kũĩkĩĩ ka</w>
kũv oyaa</w>
kũthanga any’a</w>
kũth oosya</w>
kũtav w’a</w>
kũt al
kũs ilĩlwa</w>
kũs eng’a</w>
kũma kwata</w>
kũ elekanw’a</w>
kũ alyũlwa</w>
kĩl ile</w>
kĩk e
kya kwatie</w>
ky ovo</w>
kwĩ nengane</w>
kwĩ kany’a</w>
kwat ĩkanaa</w>
kwa ĩla</w>
kw onaa</w>
kany w’anĩ</w>
kan za</w>
kan ush</w>
just ly</w>
jus tices</w>
it ute</w>
is ovu</w>
introduc tion</w>
interpre ted</w>
int ently</w>
instruc t</w>
influ ences</w>
in justices</w>
imany e</w>
im itation</w>
im it
ill s</w>
ili kal
ic ate</w>
iak isye</w>
i ĩa</w>
i us</w>
i aa</w>
hypoc ritical</w>
hom el
hind er</w>
hi b
head ing</w>
h u</w>
h ot</w>
h au
guid ing</w>
gu ed</w>
giv ers</w>
genu inely</w>
gar ments</w>
fruit ful</w>
fres h</w>
fre ed</w>
frag ment</w>
fl ying</w>
fer v
fe ast</w>
fac tor</w>
f ty</w>
f ounded</w>
exp enses</w>
exc ess
etĩkĩl ya</w>
es eli</w>
er less</w>
enthusias m</w>
enn sylvania</w>
enjo ys</w>
ende angĩe</w>
end er</w>
emi ah’s</w>
emee wa</w>
em er
eet wa</w>
ec tions</w>
e kĩte</w>
e ela</w>
dw elling</w>
dru g</w>
dou ble</w>
div ide</w>
discer ned</w>
dis honest</w>
desper ate</w>
dele gates</w>
deep er</w>
declar ing</w>
dece ive</w>
de adly</w>
daun ting</w>
d imin
crow n</w>
coun ted</w>
cou ldn’t</w>
conv ince</w>
contain ing</w>
conduc ted</w>
compar able</w>
commod ations</w>
coll ect</w>
col porte
clean ing</w>
ch ’s</w>
cer ning</w>
c overing</w>
c oin
c ivil</w>
c ally</w>
bur ning</w>
bri degroom</w>
bet r
bas eball</w>
b ow</w>
b ak
b a
aĩ ĩwe</w>
aĩ thi</w>
aĩ the</w>
ayũũk isye</w>
ayĩ thĩwa</w>
ay ona</w>
avĩt ĩte</w>
av ungwa</w>
av eveewe</w>
av atiswe</w>
aut om
au xili
ati cally</w>
ath ũkũmaa</w>
ath ĩte</w>
atav ye</w>
at w’e</w>
at wĩe</w>
at ume</w>
at ongoesye</w>
ass isted</w>
as tro
as c
arr y</w>
arr ange</w>
apost ate</w>
apar tment</w>
ap ed</w>
anĩl ya</w>
any usaa</w>
ang ya</w>
aneen eie</w>
an tic</w>
amany ĩka</w>
amany ĩa</w>
am ine</w>
ale anile</w>
ak ona</w>
ak oma</w>
ak aĩi</w>
ak amanya</w>
ai mũ
adequ ate</w>
ad vis
activ ely</w>
achi eve</w>
ach i</w>
accompani ed</w>
absor bed</w>
absol ute</w>
ab us
aa ĩlĩte</w>
a ũkĩa</w>
a ũki</w>
a ·gaʹpe</w>
a waiting</w>
a kwatiwe</w>
a endete</w>
Ye ars</w>
Y ou
W’ O</w>
W’ A</w>
W O
Vi ol
V oya</w>
Uli mweng
U s</w>
Twĩ asya</w>
Timoth y’s</w>
Thous and</w>
TH ĨWA</w>
T wĩthĩwe</w>
Sya ĩĩsyai</w>
Sc ot
SO ME</w>
S hu
S etting</w>
Pro f
Pot ter</w>
Pic ture</w>
Pac ific</w>
P ennsylvania</w>
P O
Nĩ nĩt
Nĩ meeyumisye</w>
Nz ev
N ũt
N either</w>
N O
Mĩs oa</w>
Mw olooto</w>
Meth o</w>
Mal achi</w>
Ma j
MWA KA</w>
M ĩt
M walimũ</w>
M illions</w>
M antha</w>
M ain
M ag
M ac
M IN
Lou is</w>
La avi</w>
L ooking</w>
L ast</w>
L ana</w>
Kwa mba</w>
Kwa kũna</w>
K now</w>
K ethĩwa</w>
Jenn y</w>
J ason</w>
Illustr ate</w>
I kundi</w>
Hung ary</w>
Hay kanush</w>
Happ ily</w>
GO D
GOD ’S</w>
G i
F our</w>
F ore
F ind</w>
Ephes us</w>
Eli eseli</w>
Eas ter</w>
Ear th</w>
E valaimu</w>
E LE
De partment</w>
D ev
Congreg ation</w>
Chr is</w>
C esar</w>
Bo az</w>
Babylon ians</w>
B eli
B OR
B E
At ĩĩa</w>
Ang els</w>
An ita</w>
Al an</w>
A syokie</w>
A Y
A WA</w>
9 6</w>
7 6</w>
199 3</w>
199 2</w>
197 4</w>
ũvĩ ĩte</w>
ũv w’anene</w>
ũv uku</w>
ũv ithany’a</w>
ũtũ nga</w>
ũth engeee</w>
ũt w’ĩke</w>
ũt ate</w>
ũt an
ũt al
ũs ĩnĩ</w>
ũs eng’
ũneng anae</w>
ũneen ewa</w>
ũmĩ asya</w>
ũm ĩte</w>
ũm wĩtĩkĩlaa</w>
ũkũ mĩth
ũkũ mae</w>
ũk enge</w>
ũk amina</w>
ũ ũtuma</w>
ũ ĩkĩĩthasya</w>
ũ ĩkĩĩe</w>
ũ kwatĩte</w>
Ũ ngĩ</w>
Ũ kũ
Ũ athimo</w>
Ũ L
Ũ K
ĩth a
ĩt ũtavĩtye</w>
ĩt eta</w>
ĩsumb ĩkĩtwe</w>
ĩng wa</w>
ĩndũ e</w>
ĩkĩ ie</w>
ĩk eethĩwa</w>
ĩ ng’
ĩ iw’e</w>
ĩ iwe</w>
ĩ andĩkĩtwe</w>
ĩ ae</w>
Ĩ thĩwai</w>
Ĩ mwe</w>
Ĩ NA</w>
yĩkav ika</w>
yok ed</w>
ya wanĩ</w>
ya ilyĩ</w>
ya anang
y ’a</w>
y osanĩte</w>
y les</w>
y g
y elĩ</w>
w’ĩ ĩ</w>
wĩtĩkĩl ĩtye</w>
wĩkal ĩte</w>
wĩ w’e</w>
wĩ k
wp 16.
wor ding</w>
wongelek u</w>
wee yumisye</w>
wee thĩwa</w>
wee ping</w>
wee p</w>
wee ds</w>
we den</w>
wath ũkũmaa</w>
wath a</w>
wat wĩe</w>
waneng ete</w>
wa shing</w>
wa mũtavisye</w>
wa minie</w>
wa ited</w>
wa ges</w>
w elekele</w>
ves sel
vessel s</w>
val atiso</w>
va ĩlĩte</w>
v iv
viv id</w>
v indication</w>
v ev
v ac
ustr y</w>
us ũa</w>
us ye</w>
unguny ĩsya</w>
unf air</w>
un intenti
umĩl ilye</w>
uc t
u pi
tũya mba</w>
tũv ila</w>
tũth ũkũmaa</w>
tũtav ye</w>
tũl ilikene</w>
tũkat w’ĩka</w>
tũka mbĩĩa</w>
tũk asya</w>
tũim anya</w>
tũ ũtavya</w>
tũ na
tũ ith
tũ endeea</w>
twĩv athane</w>
twĩl ĩ</w>
twĩ w’e</w>
twĩ ndũ</w>
twee w’a</w>
twa manyie</w>
twa endie</w>
tw eethĩawa</w>
tw atetheesya</w>
tw ana</w>
transl ating</w>
tin y</w>
tim ing</w>
ti ĩte</w>
ti w’o</w>
ti us</w>
ti ie</w>
thĩn isye</w>
therap y</w>
than ĩtwe</w>
teth isye</w>
territ ories</w>
ter min
temp t</w>
teen age</w>
te worthy</w>
ta ĩe</w>
ta dium</w>
t itude</w>
symboli zed</w>
sy ũki</w>
surround ings</w>
sur ance</w>
sub missive</w>
stri p</w>
stir red</w>
st ra
sp ort</w>
som ete</w>
so oner</w>
sl and</w>
sin ner</w>
si ai</w>
shre wd</w>
shoc ked</w>
sh y</w>
sh ad
se aling</w>
scrol ls</w>
scrib es</w>
sch el</w>
scen es</w>
sc ale</w>
sanc tification</w>
saf ely</w>
s ĩla</w>
s ye</w>
ron x</w>
ro ’s</w>
ro b</w>
rich ly</w>
res erved</w>
rel ying</w>
rebel s</w>
ra h</w>
r are</w>
ques tioned</w>
ques tion
pur posed</w>
pun ished</w>
prosper ous</w>
pros el
prosel y
promp ted</w>
promo ting</w>
princip al</w>
pray erfully</w>
pray erful</w>
practic ing</w>
pra ises</w>
pos t</w>
po lic
pi eces</w>
physici an</w>
ph esh</w>
pe t</w>
p il
p ear
p ays</w>
p ay
oy ea</w>
ow ner</w>
over all</w>
out cry</w>
out break</w>
organiz e</w>
op pose</w>
ongele ele</w>
onan w’a</w>
on to</w>
on o</w>
om ’s</w>
om ie</w>
olong y
ol ok
ok ite</w>
og ue</w>
occur s</w>
occ upi
oc e
nũt wathĩte</w>
nũkũ tũ
nĩwath anĩte</w>
nĩwat ũng
nĩtũvĩt asya</w>
nĩtũ nengete</w>
nĩtũ mwĩ
nĩtwa endie</w>
nĩn endaa</w>
nĩmeet ĩkĩlile</w>
nĩme kĩte</w>
nĩmat anaa</w>
nĩma ĩlĩte</w>
nĩm etĩkĩlaa</w>
nĩm and
nĩ thĩĩtwe</w>
nĩ mw
nĩ ke</w>
nz w’ĩĩ</w>
no teworthy</w>
neng anĩte</w>
nee thĩawa</w>
nee manyĩisye</w>
nee kũlasya</w>
ndĩ i</w>
nd ũngalu</w>
nd wĩthĩawa</w>
n ũl
n uns</w>
mũv uku</w>
mũny uv
mũneng ani</w>
mũkũ ũa</w>
mũ ĩmi</w>
mũ seango</w>
mũ omo</w>
mũ ku
mĩl ũngalu</w>
mw ove</w>
min or</w>
met ĩtwe</w>
me als</w>
mbĩlĩl yonĩ</w>
mb ĩlĩ
mb waũ</w>
mb asi</w>
mayaa ĩsa</w>
may be</w>
math ũkũme</w>
math okya</w>
matav any’e</w>
mat w’ĩte</w>
mat w’ĩkie</w>
mat unĩ</w>
manth ie</w>
manif ested</w>
man e
mamũ tetheesye</w>
mamũ manye</w>
mal aa</w>
maku ĩte</w>
mak w’ĩte</w>
mak esa</w>
main tenance</w>
magnific ent</w>
ma umasya</w>
ma thayũũkiw’e</w>
ma sy
ma mũv
ma matetheesye</w>
ma manyĩasya</w>
ma manthe</w>
ma eleetw’e</w>
ma atĩĩa</w>
ma ala</w>
m ose</w>
m onanĩtw’e</w>
m i</w>
m endeew’a</w>
long ed</w>
lo d
li ft</w>
leav es</w>
le ile</w>
le i</w>
le ag
lat est</w>
l ev
kũv ũ
kũtũ s
kũthok any’a</w>
kũth i
kũth aithĩa</w>
kũsemb any’a</w>
kũmũ manyĩsya</w>
kũmwĩ t
kũl ulut
kũatĩ ĩwa</w>
kũ thĩnĩ
kũ semba</w>
kũ my
kũ min
kĩv ĩtu</w>
kĩtũ manyĩsya</w>
kĩth yomonĩ</w>
kĩmb ith
kĩmbith ĩ</w>
kyamũ tetheeisye</w>
ky onanĩtye</w>
kwĩth ima</w>
kwĩt etea</w>
kwĩs ũvĩana</w>
kwĩ kana</w>
kw atĩĩe</w>
ke ys</w>
kan ie</w>
k angĩ</w>
jo bs</w>
jeal ous</w>
iv ĩla</w>
it ũtetheesye</w>
it a
is s
is et
iset eki</w>
inv iting</w>
introduc ed</w>
ineng o</w>
inc ident</w>
in olongy
in fer
in come</w>
il ongwe</w>
ik onetye</w>
ik iseteki</w>
ik aa</w>
if th</w>
i eleelo</w>
i atĩĩe</w>
hung ry</w>
hund red</w>
humb led</w>
hon oring</w>
hes itate</w>
he dr
hand ed</w>
h ova</w>
h oli
grand father</w>
gr oss</w>
gg ed</w>
gar dless</w>
fore tell</w>
for nia</w>
follow s</w>
fin ish</w>
fellow ship</w>
fas hi
fas cin
fa ir
f ifth</w>
exc ept</w>
evangeliz er</w>
etĩkĩl i</w>
ethee aw’a</w>
ete elaa</w>
estimat ed</w>
es ũv
es crib
escrib able</w>
er able</w>
eny ’a</w>
enti rely</w>
ent ering</w>
enjo yable</w>
en or
emp ty</w>
emb race</w>
eman e</w>
ell s</w>
eli bac
elibac y</w>
el eeile</w>
ek inolongy
ee tie</w>
ee nd
educ ational</w>
e ye
e aved</w>
e ast</w>
doctr ine</w>
discer ning</w>
dis tor
dili gently</w>
difficul ty</w>
dem anding</w>
deligh tful</w>
dece ived</w>
danc ing</w>
d uty</w>
d row
d ressed</w>
d ering</w>
cy cle</w>
cri ed</w>
cr ossed</w>
copy ists</w>
conv ent</w>
cont entment</w>
conn ected</w>
confir med</w>
comm end</w>
cle arer</w>
claim s</w>
citiz ens</w>
certain ty</w>
cauti ous</w>
c ured</w>
c ited</w>
c ing</w>
c entral</w>
bu il
bl am
bac ks</w>
b an</w>
av anisye</w>
auxili ary</w>
au ĩtye</w>
atũm ĩtwe</w>
atũ ma</w>
atĩ e</w>
atum anu</w>
attr active</w>
attemp ted</w>
ati ans</w>
atav any’e</w>
at ũv
at tered</w>
at indĩaa</w>
at indany’a</w>
at etheeisye</w>
at ata</w>
asy oke</w>
asom u</w>
as tic</w>
appro aches</w>
appoin tment</w>
app le</w>
anĩ we</w>
anĩ onĩ</w>
any’ ai</w>
ann ica</w>
ann es</w>
ang ĩthya</w>
aneen eaa</w>
an ĩsyo</w>
an inĩ</w>
ale i</w>
al ũsani</w>
al ĩtye</w>
al ĩku</w>
akĩ mwĩa</w>
akat ũnenga</w>
ak aa</w>
ain s</w>
aim antha</w>
ai a</w>
aff ects</w>
af f</w>
adv ances</w>
ad vised</w>
accompl ishment</w>
acc us
ac k
ab st
Ye hova</w>
YE AR</w>
Y ĩĩ</w>
Will ie</w>
Wh om</w>
W rit
W il
Vul gate</w>
Vi et
Val ley</w>
V ol
V isa</w>
U. S</w>
U siai</w>
Ty ndale</w>
Tr ust</w>
Tr inity</w>
T wĩw’aa</w>
T ulun</w>
Sci ence</w>
San hedr
Samarit an</w>
S weden</w>
S up
S tadium</w>
Ric hard</w>
Refl ecting</w>
Re gardless</w>
Ra hab</w>
Queen sland</w>
QU ES
Pu bl
Prof essor</w>
P ris
P LE</w>
O ld</w>
Nor thern</w>
Nav ali</w>
N ews</w>
N E
Mũ neng
Mil ton</w>
Meth us
Mel ikiseteki</w>
Mean while</w>
Mbal uku</w>
Mb aali</w>
Matthe w’s</w>
Mas ore
Ma x
M ũmanyĩw’a</w>
M ill
M ik
M WĨ
M ANY
Luig i</w>
Liv oti</w>
Lam eki</w>
L u</w>
L oving</w>
L ilongwe</w>
L id
Kũ mũthũkũma</w>
Kĩl ungunĩ</w>
Kĩ anda</w>
K ũkeethĩwa</w>
K ul
K orah</w>
K enya</w>
K el
K ais
Josep h
Joh annes</w>
Jo y
Jai ro’s</w>
J ael</w>
J ack</w>
IT H</w>
IST ORY</w>
Hen schel</w>
HO W</w>
HE B</w>
H ISTORY</w>
Gal atians</w>
G ift</w>
F ree</w>
F ar</w>
F A
Ev er</w>
Es ala</w>
Es a</w>
Eno ch’s</w>
Eli ez
E z
E eie</w>
Dic tionary</w>
Den mark</w>
Color ado</w>
Cla us</w>
Cali fornia</w>
CO UN
C r
Brit annica</w>
Bar uch</w>
B ronx</w>
B ir
B ill</w>
Avil isiti</w>
As alia</w>
Ap parently</w>
Anti o
AT E</w>
AS YA</w>
A zar
A vi
A lex</w>
A al
20 17</w>
199 1</w>
196 2</w>
195 7</w>
19 46</w>
19 45</w>
19 22</w>
1, 500</w>
ũvĩng ĩĩs
ũtũman e</w>
ũtũ th
ũteth aw’a</w>
ũt esĩ</w>
ũngam ĩwe</w>
ũngam ĩte</w>
ũmĩ ĩasya</w>
ũmĩ we</w>
ũmb ĩtwe</w>
ũm ĩtye</w>
ũm ie</w>
ũl ĩte</w>
ũkũ th
ũkũ neena</w>
ũky ũka</w>
ũkiak i
ũk ekalaa</w>
ũit ũmĩa</w>
ũ waĩte</w>
ũ endee</w>
ũ awa</w>
ũ atĩĩa</w>
Ũk anganĩ</w>
ĩĩ awa</w>
ĩy anangwa</w>
ĩtĩkĩl ya</w>
ĩtwĩ ĩte</w>
ĩt ũmanyĩasya</w>
ĩt isye</w>
ĩt anamba</w>
ĩs avu</w>
ĩ ĩw’a</w>
ĩ i
ĩ anĩsye</w>
yĩt aĩwe</w>
yĩ neeneete</w>
yĩ ima</w>
yĩ endeee</w>
yone aa</w>
yon ee</w>
yaĩĩk asya</w>
ya w’o</w>
ya aĩle</w>
y as
y alikile</w>
w’anĩth yo</w>
wĩs aa</w>
wĩ yumĩtye</w>
wĩ thĩa</w>
wĩ anĩe</w>
wor ried</w>
wind s</w>
wif e’s</w>
wei gh</w>
weet ĩkĩl
wee w’a</w>
wavo yie</w>
wath aniwe</w>
wa weta</w>
wa sumbĩkĩte</w>
wa mũnengete</w>
wa mũk
wa mwendete</w>
wa matavisye</w>
w umo</w>
w ingĩvĩte</w>
vis ual
vev anĩ</w>
veng i</w>
ve thĩawa</w>
val id
vak u
va thei</w>
va any’a</w>
v ovu</w>
uv wa</w>
ush ai</w>
ur s</w>
univer sity</w>
un worthy</w>
un wise</w>
un scrip
unscrip tural</w>
un itedly</w>
um any’a</w>
ulti mately</w>
ul asi</w>
u wa</w>
u anisye</w>
tũth aithaa</w>
tũmũth engeee</w>
tũmĩ ie</w>
tũk omanaa</w>
tũit ethya</w>
tũ ũnyuva</w>
tũ yaĩ</w>
tũ kũ
tũ kĩlye</w>
tũ kwatĩte</w>
tũ itetheesya</w>
tũ ek
twĩyĩ elekany’e</w>
twĩ manyĩasya</w>
twa sya
truth fulness</w>
tre ach
trans formed</w>
trad itions</w>
trad ition</w>
tra it</w>
tong ues</w>
ti g
thĩnĩ kie</w>
threat ening</w>
ther ’s</w>
theok ulasi</w>
thayũũk w’a</w>
th ir
tethe etye</w>
ter ror</w>
telev ision</w>
t un
t ekinolongy
syok ete</w>
syn ag
synag ogue</w>
sy oonanisye</w>
suppor ts</w>
sup posed</w>
sugg estion</w>
suff icient</w>
struc ture</w>
str ate
star ting</w>
st er
st ating</w>
st ability</w>
spir it
spar ed</w>
sp ite</w>
sp ace</w>
sou thern</w>
some where</w>
sk ep
sic k
si ri</w>
shee t</w>
shar p</w>
sh ut</w>
sh ine</w>
sh ares</w>
s om</w>
s end
s cre
rol l</w>
ro ots</w>
ri ans</w>
reve aling</w>
resp ecting</w>
res ide</w>
rel uct
reg ain</w>
refer ences</w>
ref ined</w>
recor ds</w>
reci pi
re v
re duce</w>
re bel</w>
re acted</w>
rap idly</w>
ra ises</w>
r aim</w>
purch ase</w>
pun ish</w>
psal m</w>
pros y</w>
pros pects</w>
pris oner</w>
pra ising</w>
po etic</w>
pleas es</w>
pl at
pho to
ph er
pers ev
persev ere</w>
per or</w>
pe ers</w>
pass engers</w>
p eer</w>
overwhel ming</w>
out line</w>
ound ing</w>
oth er’s</w>
ot omo</w>
ot el
organiz ational</w>
or derly</w>
op p
oo kĩla</w>
onok ete</w>
ongelek ete</w>
ongel ile</w>
ong ele</w>
ok it
nũ kwĩw’a</w>
nĩy atumie</w>
nĩwĩ thukĩĩasya</w>
nĩwee yumĩtye</w>
nĩwat ataa</w>
nĩwal ũmanĩtye</w>
nĩwa manyĩisye</w>
nĩwa manengie</w>
nĩwa athimie</w>
nĩw endie</w>
nĩw eenyiv
nĩw an
nĩtũ mendete</w>
nĩtwa th
nĩtw onete</w>
nĩsya ĩle</w>
nĩnĩ thĩawa</w>
nĩmee wie</w>
nĩme kaa</w>
nĩmat w’ĩte</w>
nĩma thĩnĩkaa</w>
nĩma ekie</w>
nĩm oomb
nĩm endie</w>
nĩ tetheesye</w>
nĩ manengetwe</w>
nĩ kĩte</w>
nĩ eke</w>
nz yawanĩ</w>
ny ũmũ</w>
ni ght
ng ĩs
ng wĩka</w>
ng ethĩwa</w>
ng etha</w>
ng amũ
negl ected</w>
nee manyĩasya</w>
nd une</w>
nd onaa</w>
nd it
nd etema</w>
nd esĩ</w>
na m</w>
na kwata</w>
n ũtetheesye</w>
n eli
neli us</w>
mũv ĩanĩ</w>
mũtal atala</w>
mũt andĩthya</w>
mũl ũm
mũ sumbĩki</w>
mũ manye</w>
mũ athime</w>
mũ andĩko</w>
mĩs oanĩ</w>
mĩend ele</w>
mwĩ s
mwa mbĩlĩlyo</w>
mur der
mov ie</w>
mos ilĩlo</w>
mor ally</w>
mon ene</w>
mo tianĩo</w>
mo ka</w>
mo k</w>
mis ery</w>
met ĩkĩlaa</w>
mes ĩkĩe</w>
merch ant</w>
mer ly</w>
mekal ile</w>
mee w’a</w>
mee kĩiwe</w>
me ũtavany’a</w>
me yendete</w>
me morial</w>
me asya</w>
mbĩ ka</w>
mb eke</w>
mb e
mav inyĩ
matongo etye</w>
math ĩte</w>
math oo
material istic</w>
matav ye</w>
matav asya</w>
mat ũvĩtĩsya</w>
mat onye</w>
mas ũvĩa</w>
man ya
man thĩe</w>
man sl
man aged</w>
mal ilikene</w>
mal ilikanaa</w>
makĩ ĩte</w>
maka endeea</w>
mak w’ĩĩwe</w>
mak aa</w>
ma wetaa</w>
ma uma</w>
ma thĩnĩkĩaa</w>
ma syokie</w>
ma sia</w>
ma mbĩ
m umya</w>
m ous</w>
m ang
lik asya</w>
leav en</w>
le prosy</w>
l y
l l</w>
l iness</w>
kũũ atĩĩa</w>
kũv ithũkĩa</w>
kũtũt ongoesya</w>
kũtũ v
kũtũ siĩĩa</w>
kũtũ athima</w>
kũth ũkũm
kũth ia</w>
kũth ayũũka</w>
kũtav anw’a</w>
kũt indĩa</w>
kũt angĩĩa</w>
kũt ala</w>
kũt aanĩsya</w>
kũn iwe</w>
kũmũk atha</w>
kũmũ kumya</w>
kũmĩ atĩĩa</w>
kũmw ony’a</w>
kũma elesya</w>
kũkũ nĩa</w>
kũ yũ</w>
kũ wĩka</w>
kũ mea</w>
kĩth imo</w>
kĩth imanĩ</w>
kĩta ĩle</w>
kĩ y
kĩ ma
kĩ kwonany’a</w>
kĩ atĩĩe</w>
kyamũ kwatie</w>
ky onanaw’a</w>
ky esaa</w>
ky ende</w>
kwĩyĩ una</w>
kwĩy ũkitĩa</w>
kwĩ w’
kwĩ vaany’a</w>
kwĩ kathĩĩa</w>
kwa mbĩĩsya</w>
kwa a</w>
kw ingĩva</w>
kw i
kum ĩthya</w>
ku maa</w>
kas ũmbanĩ</w>
k ote</w>
k in
k amwĩlĩtu</w>
jo ys</w>
jo int</w>
iz e
ize de
izede k</w>
iv en</w>
it ũmĩĩtwe</w>
it ulu</w>
it iv
is ũ</w>
is il
iri am</w>
int ell
ingĩv ie</w>
ing anĩsya</w>
ind ustry</w>
ind ness</w>
incl ination</w>
in tri
in stances</w>
impris onment</w>
immor tality</w>
imag in
im ĩte</w>
im proved</w>
im pression</w>
illustr ates</w>
ilikan e</w>
ilikal ĩnĩ</w>
il ’s</w>
ika eli</w>
id s</w>
i ousness</w>
i or
i kya</w>
i alyũlĩtwe</w>
hur led</w>
hung er</w>
host ile</w>
homel and</w>
hi p</w>
head ed</w>
h ail</w>
guid elines</w>
gu ing</w>
gu es</w>
gre edy</w>
grand son</w>
gr ud
g ent
g ames</w>
func tion</w>
fr ank
for mation</w>
for mat</w>
for man
for gotten</w>
foo ds</w>
fe at
fav ored</w>
fath erly</w>
fair ly</w>
fail s</w>
fa ult</w>
f un
f u
f ought</w>
f ond
f ant
exer t</w>
exc ep
ex claimed</w>
eter ia</w>
ete aa</w>
et own</w>
escap ed</w>
es ter</w>
es ene</w>
enev ya</w>
end anĩte</w>
en ũka</w>
en aa</w>
el ele</w>
e ĩka</w>
e fully</w>
e anĩie</w>
dr iver</w>
doc tors</w>
doc tor</w>
distrib ute</w>
distr actions</w>
disput es</w>
dis eases</w>
dign ity</w>
di agnos
deter ior
desir able</w>
describ ing</w>
defe ated</w>
dedic ate</w>
da mag
d early</w>
d ance</w>
cris is</w>
cr ushed</w>
cr oss</w>
contin ually</w>
contain er</w>
cont ents</w>
consci entious</w>
conqu ering</w>
commun ities</w>
common ly</w>
coll ap
cl ou
cher ished</w>
che erful</w>
charac ters</w>
ch y</w>
ch izedek</w>
cau tion</w>
cas ual</w>
cas ting</w>
ca f
c u
c ement</w>
c ease</w>
c and
bu ried</w>
bor der</w>
bond s</w>
bo ys</w>
blam eless</w>
bitter ness</w>
bish op</w>
bicy cle</w>
ber eaved</w>
be iro</w>
ban ned</w>
b ud
b ound
b on</w>
b loc
b ig
ay umya</w>
av ĩndũa</w>
av el</w>
atũm ie</w>
atĩ lĩlyo</w>
att le</w>
atis ĩwe</w>
ati can</w>
atav anasya</w>
at ũmbie</w>
at ory</w>
at ethye</w>
asũvĩ ĩku</w>
asya ĩĩsye</w>
assemb led</w>
as ing</w>
arro g
appreci atively</w>
apost ates</w>
ap s</w>
ap olog
ang ye</w>
amat ongoesye</w>
amat avya</w>
am ing</w>
aly ũkaa</w>
alilikan ile</w>
al ũng
al ĩnĩ</w>
akath ayũũka</w>
ak asyoka</w>
ak amwĩ
ait ata</w>
ais ũanĩa</w>
ai ma
af siri</w>
ad er</w>
ad ding</w>
acquain ted</w>
ac commodations</w>
abund antly</w>
a ye</w>
a yambĩĩa</w>
a war
a wanĩ</w>
a mũnengie</w>
a mak
a aĩthe</w>
a anĩw’a</w>
Yel iko</w>
Wĩ thĩwe</w>
Wĩ thĩawa</w>
Wor king</w>
Wis dom</w>
Wh ich</w>
W eta</w>
W est</w>
Viet nam</w>
V eth
V atican</w>
Un til</w>
UM ĨTE</w>
Tok mok</w>
Te acher</w>
T ũkaema</w>
T ei</w>
T att
T aku
T afsiri</w>
Sy ria</w>
Som ething</w>
So dom</w>
Sin ai</w>
Sim ply</w>
She pher
See k</w>
Sanhedr in</w>
S ure</w>
S otomo</w>
S ev
S as
Ri beiro</w>
R evi
Poin t</w>
Per s
Per rine</w>
P ut</w>
P on
Or ganiz
Ol ga</w>
O R</w>
Nĩnĩ w’aa</w>
Nĩnee manyĩisye</w>
Nĩ w’o</w>
Nĩ wendete</w>
Nor th</w>
Nis ani</w>
Nis an</w>
Ng om
Nee kũlasya</w>
Ndũka kĩe</w>
Nd ũa</w>
Nd aĩa</w>
N ĩs
N um</w>
N ad
Mũtũ i</w>
Mũl omi</w>
MŨ NDŨ</w>
Mil an</w>
Mel ita</w>
Mel chizedek</w>
Ma ure
Ma elesyo</w>
M onaa</w>
M iriam</w>
M ikaeli</w>
M amina</w>
M aking</w>
M AN
Lu ther</w>
Lit tle</w>
Lid asi</w>
Lear ning</w>
Le ader</w>
L iving</w>
L ama</w>
Kũv indĩĩsya</w>
Kũ ea</w>
Kĩ theokulasi</w>
Kwĩ sĩla</w>
Ka zi</w>
K olosai</w>
K o</w>
Jerich o</w>
J ar
Is ita</w>
I L
Hum ility</w>
Hezeki ah’s</w>
H ushai</w>
H or
G lobal</w>
Fr ank
F ili
F ROM</w>
Eph raim</w>
Eliez er</w>
EV L</w>
EN T</w>
E kal
E ekaa</w>
E T</w>
E L
Di eh
Cor nelius</w>
Con v
Con cerning</w>
Col umb
Christend om</w>
Christ like</w>
Ch ang
C edar</w>
Bless ed</w>
Benef it</w>
BOR N</w>
Azar iah</w>
And re
An y</w>
Amb aviloni</w>
Al ona</w>
Abrah amic</w>
Ab sal
ASYA IWE</w>
A void</w>
A va</w>
A EVL</w>
A D
A CH
7 7</w>
7 4</w>
19 38</w>
19 00</w>
10 1</w>
1 38</w>
1 15</w>
1 1
. 5</w>
’ re</w>
’ phesh</w>
ũy ĩsa</w>
ũy onany’a</w>
ũtũ manyĩasya</w>
ũti a</w>
ũth okya</w>
ũte ũtĩĩa</w>
ũt w’ĩte</w>
ũt oetye</w>
ũt atonyeka</w>
ũt anaa</w>
ũsya asya</w>
ũng’ ei</w>
ũngam ĩa</w>
ũngam ya</w>
ũng ilye</w>
ũng ame</w>
ũneen any’a</w>
ũmany ĩisye</w>
ũm any’e</w>
ũlũm ĩla</w>
ũl ũlũmĩlya</w>
ũkũl ye</w>
ũke w’a</w>
ũke kũlya</w>
ũk any’a</w>
ũim anya</w>
ũ ũvoya</w>
ũ ũm
ũ wetaa</w>
ũ athima</w>
ĩĩ i</w>
ĩv ĩndĩ</w>
ĩv e</w>
ĩth aw’a</w>
ĩt ũmĩĩtwe</w>
ĩs oki</w>
ĩs anĩe</w>
ĩng awa</w>
ĩl waya</w>
ĩkĩĩth yo</w>
ĩkĩ sya</w>
ĩkal aa</w>
ĩ ika</w>
ĩ ei</w>
ĩ anĩa</w>
Ĩ kal
Ĩ LE</w>
Ĩ AA</w>
í a</w>
z io</w>
yĩs ĩkĩe</w>
yunivas iti</w>
yl ands</w>
ya mb
ya andĩkĩtwe</w>
ya alyũlilwe</w>
y o
y endaa</w>
wĩt ĩtwe</w>
wĩs ũva</w>
wĩ yĩ
wĩ th
wĩ kĩĩte</w>
wĩ kĩtwe</w>
wor ries</w>
wid ows</w>
wh oever</w>
wh e
wend onĩ</w>
web sites</w>
weal thy</w>
we ather</w>
wath elile</w>
watav iw’e</w>
wat ers</w>
war rior</w>
waneen eaa</w>
wand avisye</w>
wan ting</w>
wal i</w>
wak onetye</w>
wak omana</w>
wa umĩla</w>
wa kũlilw’e</w>
wa endaa</w>
wa ekie</w>
w res
w ol
w ings</w>
w er</w>
w ekalile</w>
vol isi</w>
viol ate</w>
viney ard</w>
vig or
vi ously</w>
vat athelete</w>
val ley</w>
va theu</w>
v in</w>
v et
ush ing</w>
us al
usal em’s</w>
uri zio</w>
up held</w>
up bringing</w>
unintenti onal</w>
understand ings</w>
und u
und o</w>
un seen</w>
un married</w>
un believer</w>
umĩl aa</w>
umb ers</w>
um s</w>
ul ya</w>
ul ating</w>
u ĩte</w>
u ie</w>
tũtav ĩtye</w>
tũt esĩ</w>
tũsya ĩĩsye</w>
tũsya anĩw’e</w>
tũl ya</w>
tũl ilikany’a</w>
tũke kũlya</w>
tũk eekaa</w>
tũ uĩtye</w>
tũ eke</w>
twĩ se</w>
twĩ sa</w>
twĩ kũlya</w>
twĩ enda</w>
twee kaa</w>
twav ika</w>
twa mũvoya</w>
twa mwĩ
twa kwatie</w>
tw o
tw ingĩ</w>
tw eekie</w>
tu masya</w>
tri ght</w>
tri gg
treat ments</w>
transl ate</w>
to ck</w>
tim ũ</w>
tim id
ti re</w>
thĩ ka</w>
thĩ awe</w>
thr ive</w>
thor ough</w>
thi ĩ</w>
thi eves</w>
the me</w>
th ful</w>
ter ward</w>
ter ing</w>
te l</w>
tar io</w>
ta we</w>
t ĩkĩlile</w>
t ĩkĩl
t ments</w>
syaneen iwe</w>
sya a</w>
sus pic
sum mer</w>
sud den</w>
sub mission</w>
stumb led</w>
stre ets</w>
stic king</w>
stead ily</w>
ste ward</w>
st ation</w>
st aff</w>
spec ially</w>
sou led</w>
sor ry</w>
sof t</w>
so mba</w>
smal ler</w>
si fied</w>
si eva</w>
shepher ding</w>
shak able</w>
seũv ĩtye</w>
ses sions</w>
sek ond
sekond alĩ</w>
sear ched</w>
sc r
scr ut
s ilikalĩnĩ</w>
ro of</w>
ro o</w>
ro aring</w>
rep ented</w>
remind er</w>
reli ance</w>
rel a
reinfor ce</w>
refresh ment</w>
reconc iled</w>
re vol
re j
re ign
re building</w>
re bu
r ors</w>
r is</w>
pursu it</w>
pu n</w>
prov ok
prosper ity</w>
promin ence</w>
prin t</w>
pri macy</w>
presumptu ous</w>
press ured</w>
pos al</w>
plat form</w>
ph on
phon ograp
pers ist
perce ived</w>
per mitted</w>
per forming</w>
patri arch
parti al</w>
par ental</w>
pap yrus</w>
p oll
p ment</w>
p ace</w>
ovos ye</w>
overse as</w>
over sight</w>
ov i
ou ver</w>
ou tright</w>
ot onĩ</w>
or row</w>
or g
or able</w>
op tions</w>
ongel ete</w>
on asya</w>
om anĩte</w>
olin elio</w>
off ended</w>
oci o</w>
observ ance</w>
o tie</w>
o g</w>
nũs ũvĩaa</w>
nĩwĩ kalaa</w>
nĩwo ona</w>
nĩwee yoneie</w>
nĩwas ũanĩaa</w>
nĩwa ĩkĩĩe</w>
nĩwa mũth
nĩwa mũtavisye</w>
nĩwa mũk
nĩw ang
nĩtũmĩ ĩte</w>
nĩtũ s
nĩsy atumie</w>
nĩna ekie</w>
nĩme kĩaa</w>
nĩme kwenda</w>
nĩmat wie</w>
nĩmat etheesye</w>
nĩmat anie</w>
nĩmaneng ete</w>
nĩma ĩkĩĩaa</w>
nĩma kwatawa</w>
nĩma kwataa</w>
nĩma ekete</w>
nĩma atĩĩaa</w>
nĩkĩ ũtũtetheesya</w>
nĩkĩ eleetye</w>
nĩky at
nĩ ĩ</w>
nz amanĩ</w>
ngw atĩlĩlyo</w>
ngal ĩkonĩ</w>
ner most</w>
ne ’phesh</w>
ndak ese</w>
nda mb
nda aĩle</w>
nda asa</w>
nd is
nd ia</w>
nd am
nam wĩa</w>
nak o</w>
n im
n ice</w>
n ic</w>
n enange</w>
mũthũkũ mae</w>
mũthengee u</w>
mũs ili</w>
mũ tethya</w>
mũ o</w>
mũ kwenda</w>
mĩs avivũ</w>
mĩk ate</w>
mĩ nene</w>
mĩ i</w>
mĩ aonĩ</w>
myri ads</w>
mwa mbĩ
mwambĩ ĩo</w>
mut ual</w>
mov isinĩ</w>
mos i</w>
moo kĩte</w>
mol ding</w>
mol ded</w>
mo thers</w>
mo s</w>
mo onany’a</w>
mo b
mist reated</w>
mis leading</w>
mes anĩ</w>
merch ants</w>
mee thĩie</w>
mee iwe</w>
medic ine</w>
me ĩka</w>
mbĩĩ iw’e</w>
mbe ange</w>
mb ers</w>
mavĩt ya</w>
mav oyae</w>
mav eva</w>
matũ ĩkĩĩthasya</w>
matwa ana</w>
math ĩtwe</w>
mat ũng
mat etheew’e</w>
mat ch</w>
mat angĩĩwe</w>
masya ĩĩsye</w>
mas asya</w>
mar rying</w>
manuscrip t</w>
maneen eaa</w>
man emane</w>
mamũth ũkũmĩte</w>
malel ũ</w>
mal ũngalu</w>
mal ũlũmĩlye</w>
mal waya</w>
makũ a</w>
makwat awa</w>
makath a</w>
makat ũa</w>
makat avany’e</w>
makas ilĩlwa</w>
maka mũ
maka mbĩĩa</w>
maka kwatwa</w>
mak o
mak ekalaa</w>
mak angaa</w>
mais ũanĩa</w>
main ly</w>
mai endeea</w>
mai atĩĩa</w>
mach ine</w>
ma wa</w>
ma thĩnaw’a</w>
ma thembonĩ</w>
ma eleasya</w>
m ĩtwe</w>
m ĩkĩ
m um
loc ked</w>
lo fty</w>
life time</w>
lev el</w>
leg acy</w>
le l</w>
le an</w>
l ines</w>
l aid</w>
kũvind ya</w>
kũv ũthw’a</w>
kũv ingũa</w>
kũth ũkĩĩa</w>
kũth ambĩa</w>
kũt ũ</w>
kũt umbĩthw’a</w>
kũt ila</w>
kũt enga</w>
kũt atwa</w>
kũs ĩĩe</w>
kũs ĩĩa</w>
kũs ola</w>
kũol eka</w>
kũn aa</w>
kũmũ sũvĩa</w>
kũl ũlũmĩĩlya</w>
kũl ũlũmĩlasya</w>
kũkwatĩ anĩa</w>
kũk iakiw’a</w>
kũ thĩny’a</w>
kũ tetheesye</w>
kũ nyiv
kũ noa</w>
kũ mĩv
kũ mal
kũ kĩla</w>
kũ amũ
kĩv oya</w>
kĩthemb eo</w>
kĩt w’e</w>
kĩ tetheesye</w>
kĩ kw’
kĩkw’ ũnĩ</w>
kĩ alanĩ</w>
kya ũya</w>
kya endeeie</w>
ky eethĩawa</w>
ky amatetheeisye</w>
kwĩy onea</w>
kwĩ nza</w>
kwon w’a</w>
kw onza</w>
kun g</w>
kum any’a</w>
kav ila</w>
k i
k e’s</w>
judg ing</w>
jo ining</w>
j um
ith aa</w>
it al
is ya
ir on</w>
ir ing</w>
inyĩ le</w>
iny w’onthe</w>
interv ene</w>
int ent</w>
int end</w>
instruc tors</w>
inj ury</w>
ing ith
independ ent</w>
ind escribable</w>
in ĩa</w>
in zi</w>
in yĩla</w>
in timid
in nermost</w>
in comparable</w>
in aa</w>
imany ĩasya</w>
im press
im m
ili ka</w>
il ĩĩla</w>
ig ail</w>
if ying</w>
if er</w>
idol s</w>
ic ide</w>
i kwonany’a</w>
hor mone</w>
hon ors</w>
he ight</w>
h y
h osts</w>
h ers</w>
h ated</w>
gu ards</w>
gu arding</w>
griev ing</w>
gr ants</w>
go d
gen eal
geneal og
g oods</w>
frequ ent</w>
forb idden</w>
for merly</w>
flou rish</w>
fl u</w>
financi ally</w>
fill s</w>
fee ding</w>
fe wer</w>
f ur
f un</w>
f terward</w>
f air</w>
ey ed</w>
exhor ted</w>
excep tional</w>
ev alu
ethe kie</w>
eth nic</w>
etang ana</w>
et ya</w>
es tiv
ertain ly</w>
er ts</w>
er g</w>
endeav ored</w>
end ures</w>
en wa</w>
en ri
emet rius</w>
em u</w>
elel wa</w>
el eva</w>
ek wa</w>
ek u</w>
ek iw’e</w>
ei gh
ef in
educ ated</w>
ed itions</w>
e ar</w>
e ance</w>
domin ated</w>
dom es
do z
do ors</w>
do gs</w>
dis obey</w>
dis courage</w>
di am
devast ating</w>
des pair</w>
des p
dep end
den ic</w>
def ending</w>
dec eption</w>
dec ay</w>
de w</w>
d y
d read
d ner</w>
d ating</w>
cust o
cru cial</w>
cre ative</w>
coven ants</w>
cour ts</w>
cont amin
consum ed</w>
consist ently</w>
consider ate</w>
consider able</w>
con verse</w>
con sis
compreh end</w>
comp ly</w>
comp lex</w>
col or</w>
co de</w>
clos est</w>
clos eness</w>
clo the</w>
ch or</w>
caf eteria</w>
c utting</w>
c ure</w>
bor e</w>
bar ri
bar ely</w>
b right</w>
b or</w>
b ing</w>
aĩ awa</w>
ayĩ kala</w>
awa its</w>
av ũ
av uk
av oya</w>
av in</w>
av etwa</w>
atwa a</w>
attemp ts</w>
att ri
athim iwe</w>
ath oo
ath ing</w>
ath anĩte</w>
atav ĩtye</w>
atav w’a</w>
atav asya</w>
at anĩa</w>
asya wa</w>
ass isting</w>
asim ĩthasya</w>
as ts</w>
as tr
as ser
arr iving</w>
arr ive</w>
ar t</w>
appoin t</w>
ap pl
an’ t</w>
anyuv ĩtwe</w>
any where</w>
any anyau</w>
ani ah</w>
angu ish</w>
angang any’a</w>
anc ouver</w>
an anĩa</w>
amũ tetheesya</w>
amwĩ w’a</w>
amb i
amb aa</w>
am wona</w>
aly ũke</w>
al omu</w>
al eti</w>
akĩ mea</w>
aka ma
ak ie</w>
ak ekala</w>
ak anĩ</w>
ak al
ait ũtetheesya</w>
ag ua</w>
ag u
advert ise</w>
advant ages</w>
advanc ing</w>
ad ually</w>
ad or
ad casting</w>
accoun table</w>
abus ive</w>
a umie</w>
a mbĩ
a maa</w>
a at
a asa</w>
a ai</w>
Wh enever</w>
We b</w>
W ũmĩĩsyo</w>
W asũanĩa</w>
W UMĨTE</w>
W OR
V o
V ery</w>
V ancouver</w>
V E</w>
Up on</w>
Univer sal</w>
Ulimweng u</w>
US S
U L
Twa mina</w>
Twa atĩĩa</w>
Tr act</w>
Th ank</w>
Taku ya</w>
TR Y</w>
THE I
THEI R</w>
T ri
T rain</w>
T or
T A</w>
SŨ NG
SŨ ANĨA</w>
Su preme</w>
Str eng
Steph anie</w>
Sev ina</w>
See ing</w>
San ta</w>
S ud
S top</w>
S t</w>
S k
Revi ew</w>
Reli g
R ylands</w>
R on
R ocio</w>
R icky</w>
R ene
R ed</w>
Prot est
Portu gal</w>
P ur
P raise</w>
P avel</w>
P au
P R
P I
On tario</w>
Ob viously</w>
ORI G
ORIG IN</w>
ON Ĩ</w>
O ver
O ut
O onanisye</w>
Nĩna mbĩĩie</w>
Nĩn endeeiw’e</w>
Nĩn endaa</w>
Nĩ mwĩ
Nĩ enda</w>
Ndi ka
Nd wĩsa</w>
Nas eng’ie</w>
Na dia</w>
N ure
N somba</w>
N one</w>
N er
N G</w>
Mũt une</w>
Mũs amalia</w>
Mũ ũme</w>
Mũ nyũ</w>
Mũ ethiovia</w>
Mos ũngĩo</w>
Mo avi</w>
Mo ab</w>
Mic hi
Mav indanĩ</w>
Mas wali</w>
Mar ía</w>
Mar ri
Mak er</w>
Main tain</w>
Ma urizio</w>
Ma isye</w>
M wĩ</w>
M p
M on
Lu ke’s</w>
L ive</w>
Kul usi</w>
Kath ar
Kar ma</w>
K olinelio</w>
Joseph us</w>
Jo y</w>
Jes se</w>
Jer usalem’s</w>
Jenn ifer</w>
Je an</w>
J ew</w>
Ind ivid
In c
Hi roo</w>
H osea</w>
H on
Gr and
Gr adually</w>
Gover nment</w>
Gent ile</w>
Gar dner</w>
GO D</w>
G om
G avin</w>
Fr anc
F ull</w>
F re
Ez ra</w>
Every thing</w>
Est onia</w>
ER S</w>
E e
E denic</w>
E ND
Dis ci
Dieh l</w>
D iv
D emetrius</w>
D a
Christop her</w>
Cent uries</w>
Canaan ites</w>
COUN TRY</w>
C yrus</w>
C ertainly</w>
C K</w>
C I
Buddh a</w>
Bro adcasting</w>
Br anch</w>
Bel fast</w>
Bal let</w>
B ack</w>
B CK</w>
Avis alomu</w>
Ath aithi</w>
Assy rian</w>
Arch ae
Arab ia</w>
An x
Ad ria</w>
Ab igail</w>
Aas uli</w>
Aar on’s</w>
AT I
ANS W
AN Ĩ</w>
A pun</w>
A mosi</w>
A mos</w>
A fterward</w>
8 ,000,000</w>
7 ,
200 1</w>
2 50</w>
196 1</w>
195 4</w>
19 24</w>
19 20</w>
’ ye</w>
ũyĩ w’a</w>
ũyĩ kwate</w>
ũv ani</w>
ũtũ sũvĩaa</w>
ũth ũmũ
ũth angaau</w>
ũt wony’a</w>
ũt indĩa</w>
ũt anambĩĩa</w>
ũsumbĩ ke</w>
ũs ũa</w>
ũnyuv ĩte</w>
ũng al
ũmũ kũlye</w>
ũmũ a</w>
ũm onaa</w>
ũlũmĩ ilye</w>
ũlũm u</w>
ũl ũlũmĩlye</w>
ũkiak isye</w>
ũkav etanga</w>
ũka ma
ũk eethĩa</w>
ũk asumbĩka</w>
ũek ete</w>
ũ nya
ũ kĩtwe</w>
ũ eleawa</w>
Ũth asyo</w>
Ũ TE
Ũ MB
ĩth iw’e</w>
ĩt ũnengete</w>
ĩt e
ĩs yai</w>
ĩs ilya</w>
ĩs andũkũnĩ</w>
ĩl ĩtwe</w>
ĩkĩ ka</w>
ĩk ye</w>
ĩk atuma</w>
ĩ ithela</w>
ĨKĨ ĨO</w>
z er
yũmb any’e</w>
yũlũl ũkĩtwe</w>
yĩt aĩle</w>
yĩ wetetwe</w>
yum anĩte</w>
yaya yanĩ</w>
y ũv
y ũmũ</w>
y usũĩte</w>
y onaa</w>
y esie</w>
y ana</w>
y am
x th</w>
x ing</w>
w’ĩkĩth isye</w>
w’ĩ we</w>
wĩs ĩkĩe</w>
wĩ ĩka</w>
wĩ ĩ
wĩ thukĩĩasya</w>
wĩ kĩe</w>
wĩ anĩtye</w>
wrongdo er</w>
wr ongs</w>
won isye</w>
wo mbie</w>
wind ow</w>
weigh ed</w>
wei ghty</w>
wee kĩiwe</w>
wee kanie</w>
we za</w>
wath i
wath amĩĩe</w>
wat ũ
wat wĩ
wat wa
wat atie</w>
was ũanĩaa</w>
war t</w>
wangang an’yo</w>
waneng a</w>
wamb e</w>
wal ks</w>
wal ikile</w>
wak w’a</w>
wa mũtũmie</w>
wa mũs
wa aĩ
w n</w>
w ekala</w>
vo ices</w>
ver sion</w>
vaku ki</w>
v eetawa</w>
v atiele</w>
ut ĩa</w>
ut eny’e</w>
us tice</w>
ur a</w>
undu ly</w>
under scor
und ue</w>
und inĩ</w>
un preced
unpreced ented</w>
un justly</w>
un cleanness</w>
umb ũla</w>
umb ĩki</w>
um anaa</w>
uli za</w>
ul t
ul ers</w>
ud ed</w>
uc ees</w>
uc c
u ĩa</w>
u aa</w>
tũyĩ w’a</w>
tũvo yae</w>
tũth ok
tũte to</w>
tũte kũeka</w>
tũt ongoew’e</w>
tũt ana</w>
tũs ũvĩe</w>
tũmũ kũlye</w>
tũmw ende</w>
tũmb ĩtwe</w>
tũka eka</w>
tũka atĩĩa</w>
tũk as
tũi atĩĩa</w>
tũ ũvoya</w>
tũ vi
tũ twa
tũ neene</w>
tũ kwat
tũ endete</w>
twĩ yũmbanĩsye</w>
twĩ ona</w>
twee manyĩasya</w>
twa a</w>
tur ing</w>
tro ops</w>
transl ator</w>
trans gres
trans form</w>
train s</w>
tr aff
tou ching</w>
tor ia</w>
tom orrow</w>
to mbs</w>
ti rel
thĩ ĩla</w>
thor ough
thin ks</w>
ther wise</w>
the kee
teth yo</w>
terri fied</w>
tempor aries</w>
tal ent</w>
tak ers</w>
tain ing</w>
tac tful</w>
t w’onthe</w>
t ool</w>
t ina</w>
t ees</w>
syĩt awa</w>
syĩ ke</w>
sy ĩsĩ</w>
sw if
swif tly</w>
surv iving</w>
surv iv
super human</w>
sup porters</w>
succ eeded</w>
su kuma</w>
stumb le</w>
stri king</w>
st yles</w>
st age</w>
splend or</w>
sp are</w>
som ea</w>
sol em
sing leness</w>
sil ĩla</w>
sign ed</w>
si xth</w>
short ages</w>
shoc king</w>
shi p
shi ft</w>
ser iousness</w>
separ ated</w>
sen tim
se al</w>
sat anic</w>
s w</w>
s ources</w>
s ounds</w>
s okonĩ</w>
s moo
s car
s ary</w>
s ae</w>
ro y</w>
ri d
restric ted</w>
respond s</w>
resear ch
res er
remind ing</w>
rememb rance</w>
reli eve</w>
rejo iced</w>
regar ded</w>
reg ions</w>
ref rain</w>
recomm ended</w>
recomm end</w>
rece ives</w>
reason ably</w>
reas sure</w>
re ti
re ment</w>
re members</w>
re inst
rac ial</w>
ra ins</w>
ra ining</w>
r ush</w>
r ent</w>
qu ot
prosely tes</w>
promp tly</w>
produc es</w>
pro hib
pro di
prev ented</w>
present ing</w>
pres ents</w>
pregn ant</w>
prefer ences</w>
predic t</w>
pos itions</w>
pos it
por t</w>
polit ics</w>
ple a</w>
pic k</w>
pi ece</w>
ph es</w>
person alities</w>
per mits</w>
par ties</w>
p sy
p it
p hi
ow ers</w>
over coming</w>
ova ble</w>
otel eve</w>
ot ine</w>
ord ingly</w>
or ’s</w>
oper ation</w>
ongel eeile</w>
on w’a</w>
on ward</w>
on ents</w>
omb oa</w>
olot ani</w>
ol f
ok anĩ</w>
off erings</w>
off end</w>
occupi ed</w>
occ up
oc k
ob jects</w>
ob ject</w>
o ’s</w>
o yu</w>
o lic
o do
nũt ethasya</w>
nũs i
nũ ĩkĩĩaa</w>
nũ nengae</w>
nũ kwĩ
nũ athimaa</w>
nĩwavo yie</w>
nĩwat anĩaa</w>
nĩwaneng ete</w>
nĩwak omanie</w>
nĩwa mũtũmie</w>
nĩwa kanisye</w>
nĩwa isye</w>
nĩw onete</w>
nĩw onanasya</w>
nĩw ati
nĩtũ ũneenea</w>
nĩtũ v
nĩtũ manyĩasya</w>
nĩtwĩ kaa</w>
nĩng ũm
nĩmo osie</w>
nĩmes ĩte</w>
nĩmeet ĩkĩl
nĩmee thĩawa</w>
nĩme thĩwa</w>
nĩmat ũmĩie</w>
nĩmat w’ĩkie</w>
nĩma kwatĩte</w>
nĩma andĩkie</w>
nĩm onanasya</w>
nĩkũ etae</w>
nĩ sĩ</w>
nĩ ne
nĩ kwate</w>
nĩ kale</w>
nĩ kalaa</w>
nĩ kaa</w>
nyuv ĩte</w>
ny w’a</w>
ny uva</w>
no osie</w>
no on</w>
nic otine</w>
ni ũtũtetheesya</w>
ni eleetye</w>
neng e</w>
neen aa</w>
nee thĩie</w>
ndũk usaa</w>
nda ilyĩ</w>
nda amũ
nd ũlea</w>
nd ola</w>
nd itonya</w>
nd anamba</w>
nd ala</w>
nation al
nat w’ĩka</w>
na eka</w>
n ũmbendete</w>
n ou
n is
n et
n ende</w>
n asye</w>
mũv ũthũ</w>
mũth elu</w>
mũtav ĩtye</w>
mũtav asya</w>
mũmb i</w>
mũkat w’ĩkĩthye</w>
mũk eethĩwa</w>
mũ eni</w>
mĩv ĩa</w>
mĩ ito</w>
mwĩs ũkũũe</w>
mwath ie</w>
mwa mbĩlĩlyonĩ</w>
mul titude</w>
motiv ates</w>
moo kaa</w>
mo ther’s</w>
mo osie</w>
mis led</w>
mis lead</w>
mi l</w>
mer it</w>
mekĩ kĩte</w>
mee thĩa</w>
medi ately</w>
me ũth
me yumye</w>
me kwĩmanyĩsya</w>
me at</w>
mb ĩa</w>
mb omu</w>
mb okanĩ</w>
mb ing
mb a
mayĩ kĩa</w>
may endete</w>
maw ũĩ</w>
mav w’anene</w>
mav u
mav ali</w>
matethe tye</w>
matethe kie</w>
material ism</w>
matav ĩtwe</w>
matav iwe</w>
matav anĩtye</w>
mat et
mat angas
masya anĩw’e</w>
mas ũvĩe</w>
mas s</w>
mas inakokenĩ</w>
marri ages</w>
manyĩ ĩtw’e</w>
maneng wa</w>
man thĩaa</w>
man age</w>
man a
mamwĩ thukĩĩsye</w>
mamwĩ kaĩlaa</w>
mamw endeeasya</w>
mamanyĩ ĩtw’e</w>
mali ci
mal es</w>
makwat ĩtwe</w>
mak yasya</w>
mak usaa</w>
mak ona</w>
maiv atiswa</w>
maim anya</w>
maik ethĩwe</w>
mai anĩa</w>
maendee aa</w>
ma ũũ</w>
ma w’o</w>
ma w’a</w>
ma usũsye</w>
ma minie</w>
ma mine</w>
ma kwete</w>
list ens</w>
lik ye</w>
ligh tly</w>
li ons</w>
li est</w>
le per</w>
law lessness</w>
lab eled</w>
l ists</w>
l ink</w>
l evel
kũvi kya</w>
kũv ũthya</w>
kũv ũa</w>
kũv ĩndũka</w>
kũv etewa</w>
kũtũ ekea</w>
kũth yũmũa</w>
kũt wenda</w>
kũt atĩka</w>
kũseũv a</w>
kũny ungunyĩsya</w>
kũmũ kwata</w>
kũmũ elesya</w>
kũmĩt ũmĩa</w>
kũmwĩ w’ĩa</w>
kũme w’a</w>
kũm umya</w>
kũm ona</w>
kũkit wa</w>
kũk ol
kũk athwa</w>
kũit uma</w>
kũ ũmĩa</w>
kũ ũkwata</w>
kũ iv
kũ andĩkĩa</w>
kĩs ululu</w>
kĩng’ ei</w>
kĩ ĩe</w>
kĩ yĩ
kĩ tei</w>
kĩ neng
kĩ neeneete</w>
kĩ kũtha</w>
kĩ ke</w>
kĩ anĩe</w>
kya ĩtye</w>
kya yo</w>
kya endeee</w>
ky atumĩte</w>
kwĩyĩ thĩa</w>
kwĩyĩ elesya</w>
kwĩ wa</w>
kwĩ si
kwĩ kua</w>
kwĩ ke</w>
kwo onanasya</w>
ku k</w>
king dom
kingdom s</w>
kin son</w>
kan w’a</w>
kan isanĩ</w>
kal ata</w>
kal ae</w>
kak wa</w>
kak undi</w>
ka itũ</w>
k usũsya</w>
k n
k chy</w>
judg ments</w>
j u
iz ation</w>
itu ally</w>
iti ous</w>
iti ally</w>
ithũ kĩiwe</w>
ith ũkũma</w>
ith yomonĩ</w>
ital y</w>
it age</w>
interpre t</w>
infor med</w>
infer ior</w>
inf ancy</w>
ind ec
increas es</w>
inc or
in surance</w>
in fir
imit ators</w>
ilĩl we</w>
ilĩl aa</w>
il ĩle</w>
il ĩka</w>
ik eethĩwa</w>
ij ana</w>
ij a</w>
iit aa</w>
ignor ant</w>
identi fying</w>
ide al</w>
ic ked</w>
ib u</w>
i ũtetheesye</w>
i ĩte</w>
i um</w>
i mũthũkũme</w>
i kĩtye</w>
i iv
hor ses</w>
hom etown</w>
hard ship</w>
har sh
hab ’s</w>
guar ant
guarant ees</w>
gu st
griev ous</w>
grav ity</w>
glo be</w>
gener ations</w>
gare t
g amb
frustr ation</w>
forman t</w>
foreign ers</w>
for tified</w>
for est</w>
foot steps</w>
fol k</w>
fl ee
fill ing</w>
fi ery</w>
fe male</w>
fal sely</w>
exp elled</w>
exam ining</w>
exam ines</w>
exal ted</w>
ex iled</w>
ex hau
ex empl
exempl ary</w>
evee iwe</w>
evangeliz ers</w>
ev ithĩte</w>
ethe tye</w>
ethe kaa</w>
ethe etye</w>
et ur
et ly</w>
et etwe</w>
estee m</w>
establ ishing</w>
es ĩle</w>
es man</w>
es i</w>
es al
esal eli</w>
equi pment</w>
enti ally</w>
enor mous</w>
engy i</w>
eng anie</w>
eng ana</w>
endeav oring</w>
end eka</w>
en thr
en ne</w>
en er
employ ees</w>
emphas ize</w>
elil ile</w>
elec tri
el o
el enĩ</w>
eki ah</w>
ekal ae</w>
eh ow</w>
efin itely</w>
ee manyĩsya</w>
ee kĩwa</w>
ee kĩiwe</w>
ed onia</w>
ed ekiah</w>
eag le</w>
e onĩ</w>
e aw’a</w>
duc ed</w>
dr ought</w>
dr iving</w>
domin ate</w>
distur bed</w>
distribu tion</w>
distinc tion</w>
disappoin tment</w>
dic tionary</w>
destruc tive</w>
destro ying</w>
des t
des ol
depr ive</w>
dep ended</w>
def ense</w>
declar ation</w>
cop ied</w>
contempl ating</w>
cons ult</w>
con temporaries</w>
con sume</w>
comp elled</w>
comp any
comb at</w>
com promising</w>
com pos
colporte urs</w>
coll ection</w>
cler gy
class mates</w>
cl ock</w>
ci garet
chec k</w>
chari ot</w>
ch ment</w>
celebr ate</w>
cal mly</w>
c an’t</w>
build ings</w>
bud get</w>
bl as
blas phe
birth day</w>
ber ia</w>
benef iting</w>
belong ing</w>
bear d</w>
bas ically</w>
b ought</w>
b es
b ank</w>
b all</w>
awak en</w>
av ul
atũmĩ ĩtwe</w>
atwĩ ie</w>
att enti
att ached</w>
atind an’ya</w>
ath ĩtwe</w>
ath ĩ</w>
at w’ĩkie</w>
at anie</w>
asyok ete</w>
ass aul
ash amed</w>
as ung
archae ological</w>
ar ely</w>
ap proves</w>
anĩth isye</w>
anya ĩĩk
angĩ ĩie</w>
ane an</w>
andĩkĩ aa</w>
and roy</w>
and ie</w>
an o
an asye</w>
aman th
amal eki</w>
am w
am ona</w>
alũs i</w>
aly kchy</w>
alu kya</w>
ali en
al ĩte</w>
al est
al es</w>
akũ ni</w>
akav yaĩa</w>
akath ayũũkya</w>
akath ayũũkw’a</w>
aka ananga</w>
ak o
ak kuk</w>
ak ililye</w>
aiv oya</w>
aik w’a</w>
ai ee</w>
ai anĩsya</w>
agre ements</w>
aggres sive</w>
after noon</w>
afflic ted</w>
admon ished</w>
add ucees</w>
acqu ired</w>
acc ordingly</w>
acc id
ab les</w>
ab akkuk</w>
a ũngama</w>
a ũkaa</w>
a mũtavisye</w>
a kũlya</w>
a iti</w>
a endee</w>
a elesya</w>
Z edekiah</w>
Y ĩt
Y olotani</w>
W amina</w>
Vi ew</w>
Ve onekana</w>
V ond
V italy</w>
V ijana</w>
V aĩ</w>
V ar
USS R</w>
U KU</w>
Tw ekala</w>
Tru ly</w>
To gether</w>
Th row</w>
Th inking</w>
Th i
Th esalonika</w>
Th an</w>
Te aching</w>
Tav oli</w>
Tab or</w>
TH ĨNA</w>
TE ACH
T wĩkaa</w>
T waĩ</w>
T as
T aking</w>
T EN
Syl vi
St and
Sime ul
Sheb na</w>
Sama lia</w>
S ucc
S ub
S iv
S adducees</w>
S YA</w>
S I
S E</w>
Ron ald</w>
Rene é</w>
Re al
R etur
Pro ph
Pl ato</w>
Pi one
Pan ama</w>
PE O
PEO PLE</w>
P res
P alest
Ong eleeile</w>
On any’a</w>
ON I</w>
ON E</w>
O therwise</w>
Nĩt woona</w>
Nĩng ũ
Nzev ania</w>
Nor a</w>
No ĩthwa</w>
No onie</w>
Ne ar</w>
Ndũk etĩkĩle</w>
Ndi oteleve</w>
N ue</w>
N im
N ew
N early</w>
N ame</w>
N O</w>
Mũt ĩ</w>
Mũneng ani</w>
Mũ maitha</w>
MŨ ĨKĨĨO</w>
Mp ya</w>
Mik hail</w>
Mb oyanĩ</w>
Mb esaleli</w>
Max ine</w>
Maure en</w>
Marri age</w>
Ma woni</w>
MA VINDA</w>
MA V
M us
M umo</w>
M ol
M ike</w>
M en</w>
M eeka</w>
Luc y</w>
Loy alty</w>
Liv ija</w>
Le ads</w>
L av
Kũvi kĩa</w>
Kũth ũkũma</w>
Ky ama</w>
Kwĩ makĩa</w>
Kwos a</w>
Kwo ona</w>
Kais ali</w>
KWA SŨANĨA</w>
K yo</w>
K wona</w>
K indness</w>
K atatũ</w>
K amb
K aingĩ</w>
K WĨ
K O</w>
Juli an</w>
Jud g</w>
J ustice</w>
J ah</w>
Iv eti</w>
In itially</w>
In formant</w>
Im mediately</w>
IT ATE</w>
I li
Hu uliza</w>
He arer</w>
Har an</w>
H abakkuk</w>
G etting</w>
G ab
FA ITH</w>
Et ta</w>
Em peror</w>
Elish a’s</w>
Eas tern</w>
Ear lier</w>
E mil</w>
E THĨWA</w>
Dra w</w>
Dev il’s</w>
D O
Coun cil</w>
Corin na</w>
Colos sae</w>
Car ol</w>
C os
C lose</w>
C irc
C ON
C H</w>
C AN</w>
Ba al</w>
B ru
B los
B et
B alykchy</w>
Asya ĩĩsya</w>
As uli</w>
Archae ology</w>
Ap plying</w>
Answ ers</w>
Ano in
Al ong</w>
Al l
Absal om</w>
Aal ani</w>
AM WE</w>
A Ĩ</w>
A vakuki</w>
A hab’s</w>
A atĩĩi</w>
A amaleki</w>
7 8</w>
6 7</w>
6 00,000</w>
3 0,000</w>
198 8</w>
198 0</w>
16 th</w>
1 44</w>
1 3
1 21</w>
1 12</w>
ũũk ya</w>
ũv ana</w>
ũth ĩtye</w>
ũth yũlũlũkĩte</w>
ũth eng
ũtat waanĩte</w>
ũt w’ĩka</w>
ũt wa
ũt ongoesya</w>
ũt enekee</w>
ũt endaa</w>
ũt as
ũt anĩaa</w>
ũngĩ ĩtwe</w>
ũng ĩĩa</w>
ũmĩ iwe</w>
ũlũmĩl w’a</w>
ũkũ nengete</w>
ũkas ũvĩaa</w>
ũka endeea</w>
ũk onanĩtye</w>
ũk athela</w>
ũk asũanĩa</w>
ũi endeea</w>
ũ ũt
ũ ũmanyĩsya</w>
ũ yambĩĩa</w>
ũ thembi</w>
ũ nyiv
ũ mũtavye</w>
ũ eke</w>
ũ alyũli</w>
Ũkũ mbaũ</w>
Ũk esa</w>
Ũ nĩ</w>
Ũ kai</w>
Ũ KA
ĩv ĩte</w>
ĩv anĩsye</w>
ĩtha aa</w>
ĩth ukĩ
ĩt etheeasya</w>
ĩndũk aa</w>
ĩka ai</w>
ĩ wetetwe</w>
ĩ thĩwai</w>
ĩ kũeleeka</w>
ĩ imanĩ</w>
ĩ anĩsya</w>
ĩ anĩe</w>
ĩ alyũl
Ĩv ukunĩ</w>
ĨTH Ĩ
ĨT YE</w>
Ĩ yĩ
Ĩ no</w>
Ĩ ka</w>
í t
ít sa</w>
z ambi
zambi que</w>
yĩt umbĩth
yĩk ethĩwa</w>
yĩ th
yĩ kat
yĩ elekany’a</w>
your s</w>
young est</w>
you thful</w>
yon ea</w>
yav ikie</w>
yaa kĩtwe</w>
ya wetie</w>
ya weta</w>
ya endeee</w>
y wood</w>
y l</w>
y imb
y asyo</w>
y aseũv
y anang
w’ĩkĩth w’e</w>
w’ĩ ĩkaa</w>
w’ ĩĩ
w’ ongo</w>
w’ ane</w>
wũmb o</w>
wĩtũ manyĩsya</w>
wĩtĩkĩl ya</w>
wĩt ya</w>
wĩ ũka</w>
wĩ ĩthĩwa</w>
wĩ kĩa</w>
wĩ anĩsya</w>
wrongdo ers</w>
wp 17.
wor rying</w>
wor e</w>
wond ering</w>
wo oniw’e</w>
wo onekaa</w>
wee yĩ
wee manyĩasya</w>
we ene</w>
wav angie</w>
wat ongoesye</w>
wasya ĩwe</w>
was omaa</w>
wan za</w>
wan ange</w>
wamanyĩ ĩtw’e</w>
wa ũni</w>
wa ver
wa st
wast e</w>
wa eleisye</w>
w rec
w oneke</w>
w ishes</w>
vĩt a</w>
vill ages</w>
vigil ant</w>
victor ious</w>
ver b</w>
ver b
vak u</w>
v oya</w>
v ous</w>
v ia</w>
v ethĩwa</w>
v anene</w>
v aik
uter us</w>
ut ers</w>
us w’a</w>
us eless</w>
up coming</w>
unĩ nĩ</w>
under mine</w>
under going</w>
un shakable</w>
un faithfulness</w>
un controlled</w>
un comfortable</w>
umĩl ĩĩile</w>
umbũl aa</w>
ulũ ĩla</w>
ul c
uk ai</w>
u mũ
u k</w>
tũteth asya</w>
tũneng e</w>
tũl ũmanĩtye</w>
tũkat anĩa</w>
tũk esa</w>
tũiv ika</w>
tũik eke</w>
tũi mũthũkũma</w>
tũi mũ
tũi endeea</w>
tũ ũmanyĩsya</w>
tũ ĩkĩĩe</w>
tũ nengete</w>
tũ matetheesye</w>
tũ manyĩsye</w>
tũ kundi</w>
twath ok
tw al
tur ally</w>
tri ps</w>
tre phes</w>
tre ating</w>
tr um
tou ches</w>
to m</w>
to ken</w>
ti k
ti ble</w>
thĩ thya</w>
thĩ ni</w>
thorough ly</w>
the olog
the ea</w>
th west</w>
temp ting</w>
tekinolongy ia</w>
tak wa</w>
tak u</w>
tac tfully</w>
ta yo</w>
ta xes</w>
t ’s</w>
t ill</w>
t ending</w>
syn ago
synago gues</w>
sy endete</w>
sw ept</w>
sust ained</w>
succ umb
sub jected</w>
su icide</w>
strugg les</w>
stro ke</w>
stri fe</w>
strate gy</w>
stim ulate</w>
stic ks</w>
st up
st aying</w>
st ance</w>
spirit ism</w>
spe ed</w>
some time</w>
sol ved</w>
sol ely</w>
sob ering</w>
sland er
sk in</w>
simpli fied</w>
si mũnĩ</w>
si gh
shoul ders</w>
shou ting</w>
shoc k</w>
sh ape</w>
sett ling</w>
semb ie</w>
sel ess</w>
sel dom</w>
see m
seem ingly</w>
se ize</w>
scrut iny</w>
scrip tion</w>
sc attered</w>
sanc tify</w>
s ound
s ook</w>
s cour
s ay
s anz
sanz ũ</w>
s ai
sai i</w>
s adness</w>
rom antic</w>
riv ers</w>
ris tina</w>
ri des</w>
ri ders</w>
restor ing</w>
respond ing</w>
res ort</w>
res or
represent ing</w>
represent ative</w>
reg i
recom mend
recogn izes</w>
rec eptive</w>
re vel
re aches</w>
r ural</w>
r ose</w>
r itual</w>
r arely</w>
progres sing</w>
profession al</w>
produc ts</w>
produc t</w>
prodi gal</w>
pro pri
prejud ice</w>
possib ilities</w>
portr ayed</w>
ple aded</w>
plan ned</w>
pic tured</w>
persist ent</w>
perman ently</w>
peri o
per ish</w>
pay ment</w>
part ners</w>
par ent’s</w>
par al
paral lel</w>
pal ace</w>
p ope</w>
p ac
ovo isye</w>
ovi et</w>
oti ph
os is</w>
or rah</w>
oo aie</w>
ongel ange</w>
ongel anga</w>
on ne</w>
on ement</w>
oll ywood</w>
olf o</w>
ol ive</w>
ol eka</w>
ok ia</w>
offic ers</w>
o ye
o trephes</w>
o isye</w>
o asya</w>
o aana</w>
nũs ũanĩaa</w>
nũ kwĩtĩkĩla</w>
nũ eleawa</w>
nĩyat etheeisye</w>
nĩwee w’aa</w>
nĩwe anĩie</w>
nĩwav ĩndũ
nĩwamũ athimie</w>
nĩwa seũvisye</w>
nĩwa mũt
nĩwa mendete</w>
nĩwa m
nĩwa aĩle</w>
nĩw ũmĩĩasya</w>
nĩw osanĩte</w>
nĩw eka</w>
nĩtũ ĩkĩĩthĩtye</w>
nĩtũ ngaa</w>
nĩtũ endeee</w>
nĩtwĩ manyĩasya</w>
nĩtwĩ kĩaa</w>
nĩtwa v
nĩtwa k
nĩt umĩte</w>
nĩnĩt anĩaa</w>
nĩmee kĩie</w>
nĩmav ĩndũkie</w>
nĩmav oyaa</w>
nĩmat ũtetheeasya</w>
nĩmat umĩte</w>
nĩmaneng iwe</w>
nĩmal ũmanĩtye</w>
nĩma umasya</w>
nĩma sya
nĩma manyĩte</w>
nĩma manyaa</w>
nĩ ũtuma</w>
nĩ noonie</w>
nĩ mũthũkũme</w>
nĩ ka</w>
nĩ ka
nz awa</w>
nyiv ĩsye</w>
nur ture</w>
nur sing</w>
nth wii</w>
no kw’o</w>
no ble</w>
nga kũtethya</w>
ng ũkũ</w>
ng ũ</w>
ng ol
ng itĩ</w>
new com
newcom ers</w>
ner able</w>
neng anae</w>
ne mo</w>
ndũk olwe</w>
ndyaa ĩsa</w>
ndy ĩsa</w>
ndu kanĩ</w>
ndi okia</w>
ndak amũ
ndaa ũlwa</w>
ndaa ona</w>
nda ĩlĩte</w>
nd ũtonya</w>
nd ũm
nd ĩl
nd waa
nd oonaa</w>
nd ekalaa</w>
nd eekaa</w>
nd av
nav ig
nam ely</w>
nam anya</w>
na mũ
na kwatwa</w>
na endaa</w>
na a
n itumaa</w>
n asũanĩaa</w>
mũvĩt ĩsya</w>
mũv eveee</w>
mũtũ lu</w>
mũti ani</w>
mũtav onĩ</w>
mũneng ane</w>
mũn yao</w>
mũku vĩ</w>
mũin awa</w>
mũ ndũnĩ</w>
mũ ky
mũ atĩĩi</w>
mũ asa</w>
mĩ omo</w>
mwĩ thĩanu</w>
mw an
must ard</w>
mu utĩa</w>
moomb anĩe</w>
moo aiwe</w>
mom ents</w>
mo tor
mo osa</w>
mo c
mes ĩle</w>
mend ene</w>
mekĩ ke</w>
mee nda</w>
mee kĩie</w>
me ũmanyĩsya</w>
me y
mbĩlĩ ĩlyo</w>
mbal avu</w>
mb yũ</w>
mb erg</w>
mayaa ĩtĩkĩla</w>
maya ĩlĩte</w>
may ũa</w>
may ee
mav uti</w>
mav onokie</w>
mav athũk
mav angĩte</w>
mav anga</w>
maum anaa</w>
mati ie</w>
mathok ea</w>
math yũlũlũkĩte</w>
material ized</w>
mat endete</w>
mas ũvĩaa</w>
mas sive</w>
mas avu</w>
mansl ayer</w>
maneng iwe</w>
man yaĩĩkasya</w>
man na</w>
man enange</w>
man eena</w>
man angaa</w>
mamũ kwatĩte</w>
mamũ kwatie</w>
mamwĩ t
mamw eteelaa</w>
mamanyĩ w’e</w>
maka anangwa</w>
mak eet
makeet an’ya</w>
mak asetinĩ</w>
mak anisanĩ</w>
mak ak
mai mũthũkũma</w>
ma ũtetheesye</w>
ma wonany’o</w>
ma ri
ma manthaa</w>
ma kĩe</w>
ma etae</w>
ma endeesye</w>
ma elewa</w>
ma andĩkĩwe</w>
ma alyũle</w>
m enyiv
loo kers</w>
lon ely</w>
lo aves</w>
lo aded</w>
lear ners</w>
lead ership</w>
lat ter</w>
l ũlũ</w>
l in</w>
l eh
leh em</w>
kũvũ ĩwa</w>
kũv ĩvw’a</w>
kũv ul
kũv etwa</w>
kũtũt avya</w>
kũtũk iakisya</w>
kũth aũkĩa</w>
kũt etewa</w>
kũt aĩwa</w>
kũt aĩa</w>
kũsom ea</w>
kũs omaa</w>
kũs ind
kũmũ siĩĩa</w>
kũmĩ elewa</w>
kũle ela</w>
kũl ũmya</w>
kũl ilikanaa</w>
kũl aw’a</w>
kũku wa</w>
kũkat ũtetheeasya</w>
kũit oetye</w>
kũa any’a</w>
kũ yĩ
kũ nth
kũ mo
kũ is
kũ athimwa</w>
kĩtũ tetheeasya</w>
kĩth ingitho</w>
kĩneng o</w>
kĩmb i
kĩma amai</w>
kĩl o</w>
kĩl asinĩ</w>
kĩl aa</w>
kĩke kĩka</w>
kĩit uma</w>
kĩ oo</w>
kĩ mw
kĩ le</w>
kĩ kĩte</w>
kĩ kw
kĩ ilyĩ</w>
kĩ andĩkĩtwe</w>
kyath ĩ</w>
ky ũma</w>
ky atũmĩawa</w>
kwĩw’ anĩa</w>
kwĩv etangana</w>
kwĩ w’ĩ
kwĩ n
kwos wa</w>
kwa ĩkwa</w>
kw endaa</w>
kum ĩlya</w>
ku mb
kolokol o</w>
ken ness</w>
ke ana</w>
kath amanĩ</w>
kas ĩlanĩ</w>
kan ĩtye</w>
kamb unĩnĩ</w>
kamb i</w>
kal ya</w>
ka thĩ
ka ili</w>
k nee
k is
k ingly</w>
k ate</w>
k ar
jour ne
jour nal</w>
j a</w>
iv al
itu ĩ</w>
it ũmĩaa</w>
it onyeka</w>
it etheeasya</w>
it ement</w>
ish ments</w>
ish ly</w>
is eve</w>
inti mate</w>
interv ened</w>
inter faith</w>
institu ted</w>
inst inc
ing’ ĩĩsye</w>
ing’ ĩĩasya</w>
ind ĩte</w>
ind anasya</w>
inc ap
in n
in e
in ches</w>
im part</w>
ilikan ile</w>
ili ation</w>
il ĩk
il omo</w>
ik isye</w>
ign ored</w>
id able</w>
ib be
i oo</w>
i kĩte</w>
hur tful</w>
he irs</w>
harsh ly</w>
h iding</w>
h idi</w>
gust ine</w>
grand children</w>
gi ant</w>
gent le</w>
g er
g ems</w>
frustr ated</w>
found ations</w>
fore hand</w>
for gave</w>
fl our</w>
fl oo
fl at
first fruits</w>
fin est</w>
figur atively</w>
figh ts</w>
fath ers</w>
fal me</w>
fac ul
f ly</w>
f its</w>
f ishing</w>
f alls</w>
eũv ya</w>
ext ending</w>
exer ts</w>
exc itement</w>
ev e
etĩkĩl ye</w>
etang wa</w>
et te</w>
et onia</w>
et ekia</w>
ess ly</w>
ess ie</w>
es ũkũũe</w>
es n’t</w>
es hip</w>
er tain</w>
er c
er a’s</w>
entertain ed</w>
end any’e</w>
en ’s</w>
en ship</w>
en ni
en i
employ er</w>
emphas izes</w>
em ie</w>
elev ated</w>
elek i</w>
elek anw’e</w>
ele ele</w>
el ela</w>
ekal anasya</w>
ek o</w>
eb a</w>
earthqu ake</w>
e manyĩsya</w>
e ile</w>
e ge</w>
drun kenness</w>
dram atic</w>
don ated</w>
doctr ines</w>
doc ument</w>
do esn’t</w>
distr essed</w>
displ ays</w>
discourag ing</w>
dis tric
dis obeying</w>
dis obedient</w>
differ ently</w>
dic t
di er</w>
det ect</w>
des ign</w>
des erved</w>
der ive</w>
defin ed</w>
def enses</w>
dec ade</w>
de partment</w>
d rif
cur se</w>
crimin al</w>
cr ush</w>
corrup ted</w>
conven ient</w>
conven i
conv e
controver si
control ling</w>
cont acted</w>
confron t</w>
conf idently</w>
conclud es</w>
conce ive</w>
conc ept</w>
con form</w>
company ing</w>
comm enting</w>
com posed</w>
coll ected</w>
col leag
clou ds</w>
cli ma
clean se</w>
clar ified</w>
cl oth
circumc ision</w>
cher ubs</w>
ch less</w>
celebr ations</w>
care givers</w>
cam ps</w>
cam els</w>
c urious</w>
c ows</w>
c osts</w>
c elibacy</w>
c el
bur n
bro ad</w>
bri ck</w>
br an
bran ches</w>
ble m
belong ed</w>
be forehand</w>
be d
b raz
b ly</w>
b er</w>
b adness</w>
ay ũka</w>
avĩndũ iwe</w>
av ũthĩ
av ind
av atisiwe</w>
av al
au me</w>
attr act</w>
att ach
attach ment</w>
atis a</w>
ati iwe</w>
athim ĩtwe</w>
ath ataa</w>
ath angaaisye</w>
ate i</w>
atat waanĩte</w>
at ũt
at ukai</w>
at ongoew’e</w>
at ataa</w>
at anĩte</w>
at ai</w>
asumb ĩkĩte</w>
ast on
as yĩ
as ome</w>
as ili</w>
as avĩte</w>
arrog ant</w>
ar io</w>
appe als</w>
appe aled</w>
ap prove</w>
ap parent</w>
ap h
anĩ awa</w>
answ ering</w>
anoin t</w>
ann iver
ank ee</w>
anga aw’a</w>
ang iwe</w>
an ni</w>
an ath
an ai</w>
amin wa</w>
amb ata</w>
am anenge</w>
al og</w>
al ene</w>
al awa</w>
akav etanga</w>
aka weta</w>
aka mũnenga</w>
aka ema</w>
aka eka</w>
ak onany’a</w>
ak oka</w>
ak anenga</w>
ak an
ais ũvĩa</w>
aim wĩa</w>
aim anya</w>
ail er</w>
ai ya</w>
ai ds</w>
agu ay</w>
ag alog</w>
aff ir
ae iwe</w>
adjust ment</w>
acquain t
accur acy</w>
accompl ishments</w>
ac z</w>
ac companying</w>
a mbĩĩsya</w>
a math
a kwete</w>
a endaa</w>
a ema</w>
Y ury</w>
Y ankee</w>
Will ingly</w>
Wend i</w>
WO O</w>
WH Y</w>
WA S</w>
W Ĩ</w>
W enyu</w>
W eethĩwa</w>
W asoma</w>
W asisya</w>
Vond io</w>
Vic toria</w>
Vic tor</w>
V in
V aiĩ</w>
V O</w>
[...]
