. 43207
, 39487
the 33061
to 25866
of 19584
and 16766
in 13378
a 12702
that 11338
“ 8828
” 8658
? 8207
: 7712
we 6826
is 6788
for 6490
his 5894
Jehovah 5251
you 5070
was 5038
be 4909
with 4875
​ 4871
— 4863
I 4733
not 4465
will 4258
he 4186
our 4175
have 4168
as 4153
us 3776
on 3723
God 3698
are 3537
it 3506
can 3474
The 3332
- 3327
Jesus 3197
from 3177
who 3057
their 2902
Bible 2896
by 2890
they 2753
what 2681
or 2631
What 2514
do 2487
had 2323
God’s 2319
this 2306
your 2296
him 2257
all 2212
people 2184
) 2182
( 2176
were 2118
would 2023
about 2017
them 1994
at 1992
How 1953
one 1928
an 1898
did 1886
when 1881
Jehovah’s 1881
In 1864
’ 1793
has 1779
my 1731
may 1647
life 1646
time 1616
help 1610
how 1581
so 1571
! 1564
those 1544
love 1543
We 1495
1 1450
me 1437
but 1431
He 1427
; 1309
her 1309
some 1302
more 1229
could 1202
good 1162
been 1157
such 1151
work 1146
make 1120
also 1119
way 1085
if 1055
out 1050
many 1035
faith 1031
Kingdom 1031
does 1027
should 1011
need 1006
others 1000
other 992
When 992
It 978
up 974
But 961
no 953
things 949
even 935
she 917
For 909
Paul 907
example 905
2 896
As 888
years 866
first 861
there 856
spiritual 850
world 842
congregation 837
earth 830
see 819
than 817
family 817
‘ 801
man 799
If 797
Christian 797
Why 796
They 796
3 796
day 780
because 779
Christians 767
said 766
made 763
into 748
Read 734
brothers 734
This 718
must 707
these 706
children 702
only 683
Witnesses 678
4 677
spirit 670
being 668
know 667
A 664
like 660
You 653
take 650
which 647
says 647
might 647
new 638
That 635
5 633
give 629
well 629
15 617
show 613
And 606
Christ 604
over 603
6 602
heart 594
now 591
words 585
b 583
come 582
just 582
death 581
then 573
true 572
feel 569
12 569
ones 569
Word 560
own 551
become 550
use 545
name 545
before 534
parents 530
any 530
times 530
8 521
truth 496
learn 495
10 491
11 490
faithful 486
person 486
after 485
through 481
much 481
young 480
To 479
why 476
great 476
14 475
two 475
13 472
found 471
However 471
find 467
another 466
men 465
study 460
ministry 459
important 456
very 456
each 452
7 449
part 448
keep 447
end 446
consider 443
So 442
right 442
Do 441
John 441
apostle 437
serve 436
its 431
David 429
One 429
today 429
worship 427
ways 424
read 423
say 419
17 418
9 418
never 411
able 410
where 409
mind 407
16 406
told 405
[ 404
] 404
ing 399
After 399
most 395
place 394
Father 393
Satan 393
want 392
service 390
un@@ 389
news 387
live 386
used 385
course 385
means 384
gave 380
article 380
old 380
same 379
preaching 379
himself 378
though 378
put 376
servants 375
given 374
human 374
home 371
humans 368
later 366
doing 365
go 365
get 364
hope 362
future 361
Scriptures 360
against 360
King 359
Some 359
See 358
view 358
At 357
became 355
ed 355
during 354
wife 354
let 352
every 352
20 350
long 345
holy 345
Peter 339
wrote 338
living 337
away 337
came 337
am 336
too 335
anointed 335
helped 334
disciples 334
s 332
She 331
language 330
personal 329
By 328
often 327
peace 326
18 322
back 322
fellow 317
under 317
joy 317
whom 317
hand 316
felt 314
think 314
Moses 312
set 311
year 311
asked 310
19 309
still 309
century 308
face 308
began 308
Then 307
days 307
close 307
marriage 306
questions 305
benefit 304
always 302
prayer 301
possible 301
full 301
brother 300
Yet 298
Our 298
sin 297
experience 297
among 297
fact 296
Many 296
book 295
making 294
elders 294
needed 291
understand 290
son 289
Let 289
ask 288
power 287
There 286
best 286
meetings 285
heaven 284
ever 284
loving 283
Psalm 283
look 282
three 282
father 281
ourselves 280
serving 279
share 278
No 277
in@@ 276
message 276
learned 275
reason 274
My 274
Even 273
really 271
gift 271
Israel 270
21 269
heavenly 269
care 269
* 268
together 268
Israelites 268
happy 268
Abraham 267
something 266
baptized 266
someone 265
both 265
support 265
s@@ 264
word 264
while 263
Son 263
order 262
b@@ 262
Joseph 262
On 262
Consider 262
age 261
Matthew 259
down 258
purpose 257
Is 257
moved 257
24 256
knew 256
done 256
took 254
result 254
continue 254
sisters 254
saw 253
without 253
ers 252
Yes 251
Adam 251
last 251
His 250
however 249
bring 249
Because 248
free 248
husband 246
er 245
p@@ 244
called 242
resurrection 241
counsel 241
avoid 241
themselves 240
hard 239
needs 239
wanted 238
received 238
knowledge 238
sure 237
cannot 237
king 237
giving 235
wisdom 235
re@@ 235
mother 234
C@@ 233
child 233
desire 231
lives 231
having 231
relationship 231
enjoy 230
woman 229
answer 229
toward 228
t@@ 228
sister 227
organization 227
different 227
With 226
es 226
22 226
matter 226
likely 226
imitate 225
ate 223
remain 223
wicked 223
went 223
mankind 222
food 222
point 222
situation 222
thinking 220
respect 220
ation 220
self 220
ransom 218
problems 218
friends 217
whether 217
These 216
Luke 216
house 214
S@@ 214
23 214
died 214
few 214
pray 213
bad 213
between 212
war 211
Job 211
Timothy 211
left 210
feelings 210
special 210
Thus 209
believe 208
Those 208
D@@ 208
speak 208
better 208
receive 208
Although 207
known 207
real 206
again 205
number 205
blessings 205
strong 205
decisions 204
d@@ 204
fully 204
early 204
move 203
dis@@ 201
All 201
ting 201
Jerusalem 200
followers 200
yourself 200
ancient 199
gives 199
A@@ 198
lead 197
question 197
examples 196
qualities 196
provide 196
righteous 195
eyes 195
c@@ 195
Does 194
women 194
Acts 194
follow 194
From 193
forever 193
reading 192
following 192
nor 192
teaching 192
wise 192
kindness 191
material 191
spiritually 190
25 190
members 190
city 189
g@@ 189
ated 189
wrong 188
thought 188
H@@ 188
circumstances 187
loved 186
principles 186
kind 186
Hebrew 186
promise 185
system 185
next 185
st@@ 185
ts 185
married 184
loyal 184
perfect 183
F@@ 183
SONGS 183
Rather 182
Your 182
mean 182
draw 182
’s 182
everlasting 181
trust 181
difficult 181
inspired 181
sense 180
try 180
act 180
far 180
doubt 179
change 179
t 179
yet 178
soon 178
Of 177
especially 177
clear 177
since 176
control 176
whole 176
privilege 176
h@@ 175
greater 175
temple 175
taking 175
r@@ 175
truly 174
turn 174
promises 174
brought 174
conduct 174
Ps 173
going 173
led 173
attitude 172
until 172
L@@ 172
account 171
thus 171
involved 171
taught 170
nation 170
nations 170
individuals 170
matters 170
sent 169
New 169
comfort 169
experienced 169
training 169
ted 169
Who 168
similar 168
makes 168
willing 168
teach 167
Watchtower 167
attention 167
sacrifice 167
using 167
comes 167
body 167
fine 167
decision 166
rule 166
discipline 166
sons 165
encouragement 165
certain 165
28 165
Isaiah 165
showed 165
Greek 165
appreciation 164
little 164
field 163
apply 163
shows 163
serious 163
30 163
honor 163
dead 162
provided 162
f@@ 162
Law 162
land 162
Matt 162
en@@ 162
case 162
/ 161
practical 161
present 161
heard 161
tell 160
congregations 160
Scriptural 160
strength 160
opportunity 160
Daniel 160
past 160
meaning 159
M@@ 159
sheep 159
saying 159
precious 159
baptism 159
religious 159
understanding 158
al 158
wants 158
strengthen 158
Lord 157
four 157
P@@ 157
Paul’s 157
freedom 157
friend 157
off 157
allow 156
Jews 156
got 156
prayers 156
once 155
evidence 155
apostles 155
perhaps 155
pioneer 155
accept 154
promised 154
remember 154
small 153
helping 153
rather 153
talk 153
R@@ 153
seen 153
covenant 153
cause 152
B@@ 152
angels 152
around 152
return 151
interest 151
courage 151
Satan’s 151
started 150
mentioned 150
including 150
kept 150
World 150
available 150
earthly 150
events 150
Today 149
stand 148
school 148
prophet 148
maintain 148
thoughts 148
physical 147
blessing 147
E@@ 147
coming 147
regarding 146
efforts 146
written 146
second 146
health 146
confidence 146
helps 146
Can 145
prove 145
issue 144
information 144
33 144
Instead 143
determined 143
Noah 143
local 143
Roman 143
nothing 142
Romans 142
Revelation 142
Such 142
l@@ 142
Still 141
served 141
hands 141
lost 141
actions 141
Would 141
Are 141
hearts 141
lived 140
ch@@ 140
Like 139
ating 139
tribulation 139
preach 139
effort 138
Now 138
already 138
imperfect 137
Corinthians 137
activities 137
G@@ 136
trials 136
older 136
branch 136
Creator 136
law 136
illustration 136
assignment 136
ability 136
along 135
anything 135
witness 135
meeting 135
daughter 135
anyone 135
simply 134
During 134
While 134
Christ’s 134
unity 134
build 133
complete 133
near 133
everything 133
26 132
based 132
Sarah 132
Since 132
thing 132
Memorial 132
standards 131
longer 131
responsibility 131
action 131
money 130
Devil 130
Will 130
C.E 130
named 130
group 130
gain 130
answers 130
Therefore 130
worshippers 130
deal 130
sovereignty 130
direction 129
offspring 129
er@@ 129
appreciate 129
wonderful 129
Egypt 129
Bible’s 129
daily 128
please 128
powerful 128
Jewish 128
May 128
effect 128
Bethel 127
Genesis 127
taken 127
Or 127
clearly 127
suffering 127
public 127
Cor 126
ent 126
changed 126
deep 126
James 126
form 126
languages 126
less 126
challenges 126
respond 125
raised 125
grow 125
paragraph 125
e@@ 125
Did 124
works 124
32 124
working 124
value 124
large 124
false 124
faced 124
desires 123
Indeed 123
m 123
alone 123
goal 123
spoke 123
night 123
First 123
sh@@ 122
die 122
affect 122
high 122
29 122
goals 121
recorded 121
reflect 121
reach 121
guidance 121
explained 121
continued 121
happiness 120
created 120
fear 120
here 120
happen 120
Just 120
elder 120
personality 120
ten 120
states 120
blood 120
stated 119
hold 119
Eve 119
slave 119
proved 119
31 118
leave 118
accepted 118
choose 118
call 118
explains 118
regularly 118
greatest 118
endure 118
country 118
worked 117
meet 117
anxiety 117
pioneers 117
happened 117
attend 117
27 117
p 116
ab@@ 116
hear 116
believers 116
humility 116
offer 115
al@@ 115
friendship 115
W@@ 115
instance 115
described 115
Be 114
provides 114
common 114
start 114
y 114
showing 114
closer 113
develop 113
conscience 113
throughout 113
behind 112
flesh 112
sins 112
advice 112
convention 112
whose 112
ar@@ 112
righteousness 112
undeserved 112
praise 112
reasons 112
T@@ 112
considered 112
tried 112
ahead 111
easy 111
Perhaps 111
divine 111
prophecy 111
im@@ 111
obey 111
foreign 111
millions 111
Brother 110
speaking 110
encourage 110
neighbor 110
chapter 110
focus 110
changes 109
stop 109
regard 109
m@@ 109
water 109
Later 109
else 109
articles 109
history 108
listen 108
role 108
visit 107
certainly 107
light 107
THE 107
or@@ 107
34 106
judgment 106
Hall 106
interests 106
centuries 106
regular 106
foretold 106
couple 105
according 105
challenge 105
Babylon 105
open 105
knows 105
Rom 105
offered 105
paradise 105
compassion 105
allowed 104
within 104
problem 104
wonder 104
held 104
Prov 104
37 104
40 104
position 104
earlier 104
it@@ 104
choice 104
Proverbs 104
turned 104
translation 104
appointed 103
bread 103
affection 103
Have 103
o@@ 103
head 103
mate 103
Keep 103
teachings 103
takes 103
seem 103
seek 102
Not 102
servant 102
loyalty 102
met 102
beyond 102
sexual 102
proper 102
fight 102
i@@ 102
realize 102
occasion 102
enemies 102
personally 101
becoming 101
People 101
steps 101
expect 101
born 101
authority 100
meditate 100
clean 100
resurrected 100
harmony 100
Samuel 100
addition 100
several 100
prepare 100
decided 99
speech 99
publishers 99
literature 99
vital 99
line 99
behalf 99
humble 99
en 99
government 99
deeply 98
heavens 98
stay 98
fulfillment 98
alive 98
k@@ 98
examine 98
situations 98
area 98
enough 97
convinced 97
modern 97
learning 97
assigned 96
justice 96
prison 96
asking 96
verse 96
include 96
Moreover 96
Before 96
O@@ 96
everyone 96
despite 95
dedication 95
expressed 95
True 95
understood 95
building 95
encouraged 95
warning 95
N@@ 95
angel 95
Their 95
enjoyed 95
Tim 94
basis 94
practice 94
Solomon 94
therefore 94
imagine 94
influence 94
progress 94
invited 94
conditions 94
worldwide 94
arrangement 93
quickly 93
accounts 93
command 93
English 93
e 93
loves 93
pain 93
elderly 93
Life 93
train 93
five 93
B.C.E 93
prayed 93
Clearly 93
creation 92
quality 92
exercise 92
positive 92
approach 92
glory 92
reward 92
ations 91
beautiful 91
tr@@ 91
appropriate 91
religion 91
letter 91
expression 91
express 90
students 90
ri@@ 90
is@@ 90
grateful 90
wait 90
integrity 90
ti@@ 90
office 90
consequences 90
upon 90
ly 90
knowing 90
de@@ 90
Hebrews 90
for@@ 89
contrast 89
cultivate 89
voice 89
returned 89
further 89
Really 89
circuit 89
laws 89
ings 89
surely 89
Elijah 89
battle 89
lesson 88
forward 88
ago 88
protect 88
concern 88
Mary 88
forgive 88
text 88
test 88
various 88
period 87
importance 87
record 87
y@@ 87
Also 87
1914 87
Saul 87
benefits 87
Love 87
months 87
Hence 87
rest 87
sometimes 86
est 86
ates 86
Witness 86
source 86
Mark 86
Translation 86
an@@ 86
ur@@ 86
tion 86
filled 86
younger 86
psalmist 85
over@@ 85
places 85
ally 85
realized 85
th 85
res@@ 85
results 85
ter 85
sound 85
lessons 85
interested 85
publications 85
blessed 85
above 85
lands 84
patience 84
ous 84
seeking 84
k 84
families 84
included 84
According 84
salvation 84
key 84
immorality 84
wives 84
Imagine 84
explain 83
Governing 83
Body 83
looking 83
uses 83
Though 83
published 83
K@@ 83
Similarly 83
Heb 83
godly 83
sacred 83
entire 83
Jacob 83
ity 83
seems 83
n@@ 83
assist 83
dedicated 82
le@@ 82
ant 82
Most 82
specific 82
territory 82
35 82
relatives 82
v@@ 81
myself 81
neither 81
church 81
kings 81
discuss 81
li@@ 81
bear 81
ence 81
studying 81
completely 81
sharing 80
Others 80
recognize 80
shown 80
il@@ 80
truths 80
overcome 80
ad@@ 80
mercy 80
poor 80
areas 80
side 79
prepared 79
original 79
ar 79
necessary 79
crowd 79
relates 79
genuine 79
School 79
pride 79
aware 79
tells 78
beloved 78
strive 78
destruction 78
mistakes 78
ered 78
sp@@ 78
bl@@ 78
u@@ 78
paragraphs 77
obedient 77
subject 77
individual 77
satisfaction 77
react 77
eat 77
natural 77
acts 77
Remember 77
w@@ 77
lot 76
An 76
ready 76
negative 76
protection 76
arrived 76
per@@ 76
forgiveness 76
gifts 76
added 76
birth 76
ic@@ 76
sign 75
six 75
activity 75
Great 75
army 75
begin 75
feeling 75
step 75
attending 75
chosen 75
firm 75
books 75
final 75
short 75
ering 75
vision 75
Paradise 75
getting 75
experiences 75
eventually 74
overseer 74
opposition 74
late 74
es@@ 74
whatever 74
anxious 74
I@@ 74
response 74
urged 74
encouraging 74
walk 74
leaders 74
slaves 74
universe 73
Think 73
thousands 73
trying 73
beliefs 73
youth 73
prospect 73
United 73
as@@ 73
missionary 73
simple 73
als 73
single 72
valuable 72
Isaac 72
Isa 72
▪ 72
Students 72
More 72
presence 72
cope 72
anger 72
ir@@ 72
a@@ 72
revealed 72
brings 72
injustice 72
demonstrate 72
sincere 72
miles 72
followed 72
at@@ 71
preached 71
forth 71
spread 71
related 71
sort 71
member 71
Pet 71
seemed 71
viewed 71
answered 71
War 71
lack 71
moral 71
Each 71
reasonable 71
communication 71
Gen 71
pl@@ 71
bo@@ 71
looked 71
ds 71
fire 71
countries 70
evil 70
traveling 70
45 70
ou@@ 70
Pharaoh 70
h 70
write 70
ance 70
week 70
Despite 70
immoral 70
ying 70
effective 70
visited 70
Teach 70
adds 70
event 70
ag@@ 70
carefully 70
picture 70
increase 70
Enoch 70
ks 70
mis@@ 69
required 69
political 69
keeping 69
Was 69
opening 69
Nevertheless 69
enemy 69
mental 69
par@@ 69
challenging 69
door 69
opened 69
persecution 69
O 69
agree 69
mature 69
n 69
caused 69
th@@ 69
display 69
violence 68
passed 68
ans 68
lose 68
accomplish 68
dear 68
confident 68
one’s 68
involves 68
se@@ 68
chose 68
on@@ 68
carry 68
ac@@ 68
hospitality 68
heartfelt 67
beginning 67
pioneering 67
aspects 67
destroyed 67
l 67
extent 67
Another 67
million 67
organized 67
rich 67
former 67
immediately 67
directed 67
pleased 67
pages 67
favor 67
teaches 66
spent 66
focused 66
tongue 66
Re@@ 66
easier 66
concerns 66
approval 66
box 66
parts 66
refused 66
di@@ 66
actually 66
responsibilities 66
accurate 65
am@@ 65
remained 65
household 65
Ahab 65
term 65
conclude 65
seeing 65
construction 65
limited 65
walking 65
fl@@ 65
opportunities 65
pp 65
el@@ 65
ors 65
privileges 65
pre@@ 65
type 65
disciple 65
invitation 65
observe 65
parent 65
request 65
indicate 65
ul@@ 64
image 64
rejoice 64
almost 64
PAGE 64
suffer 64
strengthened 64
offering 64
minds 64
reveal 64
cases 64
standing 64
force 64
job 64
caring 63
Ask 63
conversation 63
relief 63
50 63
States 63
treasure 63
chapters 63
qu@@ 63
ex@@ 63
putting 63
cities 63
j@@ 63
praying 63
danger 63
ite 63
faithfully 63
parable 63
riches 63
el 63
drawn 63
violent 62
pressure 62
gr@@ 62
verses 62
About 62
ap@@ 62
appeared 62
guide 62
spoken 62
failed 62
established 62
Through 62
co@@ 62
refuge 62
indeed 62
legal 62
yourselves 62
2@@ 62
basic 62
greatly 61
ended 61
con@@ 61
bed 61
Sadly 61
assured 61
ro@@ 61
tree 61
secular 61
ies 61
acted 61
eight 61
choices 61
Ezekiel 61
kindly 61
emotional 61
Holy 61
delight 61
suffered 61
built 60
bless 60
Rev 60
attended 60
David’s 60
recent 60
tender 60
affected 60
produce 60
Could 60
responded 60
ra@@ 60
os@@ 60
Where 60
survive 60
priests 60
obedience 60
sing 59
E 59
hours 59
listening 59
38 59
concerned 59
pay 59
discussed 59
sacrifices 59
forget 59
creatures 59
patient 59
Watch 59
fulfilled 59
warned 59
theocratic 59
wickedness 59
illustrations 59
rec@@ 59
promote 59
km 59
garden 58
Eden 58
occur 58
France 58
measure 58
entertainment 58
Once 58
views 58
pure 58
instructions 58
Al@@ 58
J@@ 58
Joshua 58
be@@ 58
ked 58
op@@ 58
ia 58
fill 58
calling 58
translated 58
treat 58
ol@@ 58
least 58
grew 58
guard 57
Look 57
arise 57
month 57
Soon 57
daughters 57
receiving 57
g 57
fail 57
soul 57
shepherd 57
marry 57
witnessing 57
Over 57
spirituality 57
practices 57
insight 57
half 57
scriptures 57
fulfill 57
hurt 57
Note 57
warm 57
engage 57
culture 57
lasting 56
expressions 56
applied 56
modest 56
ent@@ 56
facing 56
expected 56
V@@ 56
meant 56
particularly 56
morning 56
devotion 56
includes 56
hour 56
issues 56
ary 56
appear 56
itself 56
education 56
illustrate 56
man’s 56
1@@ 56
Ex@@ 56
referred 56
le 56
enter 56
priest 56
worth 56
prevent 55
sick 55
provision 55
evening 55
boy 55
fall 55
fell 55
behavior 55
fruit 55
either 55
direct 55
selfish 55
ful 55
nature 55
youths 55
Being 55
rely 55
quite 55
gratitude 55
association 55
beneficial 55
girl 55
success 54
security 54
loss 54
play 54
program 54
groups 54
advantage 54
calls 54
Judah 54
ec@@ 54
contact 54
refers 54
U@@ 54
claim 54
front 54
Hezekiah 54
lies 54
unique 54
car 54
Australia 54
due 54
determine 54
feet 54
recalls 54
worse 54
killed 54
dress 54
workers 54
evidently 54
advance 54
cares 54
ently 54
describes 54
assures 53
instead 53
70 53
S 53
leading 53
assistance 53
existence 53
compared 53
ded 53
cut 53
room 53
main 53
Furthermore 53
note 53
homes 53
likewise 53
finally 53
sinful 53
wondered 53
witnesses 52
cr@@ 52
closely 52
nearly 52
setting 52
world’s 52
sees 52
rebellion 52
commanded 52
principle 52
treated 52
aspect 52
pleasure 52
normal 52
studied 52
joined 52
non 52
kingdom 52
talking 52
occasions 52
contains 52
zealous 52
moving 52
manner 52
rejected 52
details 52
Her 52
bond 52
town 51
points 51
Give 51
Eph 51
patiently 51
prophetic 51
growth 51
committed 51
assignments 51
condition 51
impressed 51
Asa 51
becomes 51
ma@@ 51
letters 51
touched 51
Messiah 51
background 51
win 51
bearing 51
notice 51
subjects 51
ously 51
Ch@@ 51
reached 51
state 51
easily 51
36 51
afraid 51
Martha 51
careful 51
suggestions 51
Joseph’s 51
sight 51
outside 51
vow 51
freely 51
although 51
Regarding 50
abroad 50
Faith 50
mere 50
inc@@ 50
busy 50
ah 50
general 50
ons 50
vast 50
Second 50
Jeremiah 50
Abraham’s 50
studies 50
Germany 50
et@@ 50
statement 50
York 50
comp@@ 50
perform 50
helpful 50
noted 50
don’t 50
shared 50
wine 50
occurred 50
companions 50
succeed 50
z@@ 50
ses 50
ling 49
scripture 49
dangerous 49
financial 49
reference 49
remarkable 49
provisions 49
pursue 49
Philippians 49
pass 49
pr@@ 49
Mosaic 49
person’s 49
qualified 49
seven 49
travel 49
overseers 49
soldiers 49
decide 49
meditating 49
Tower 49
united 49
ground 49
jw.org 49
official 49
ic 49
ill 49
primary 49
preceding 49
idea 49
Finally 49
inter@@ 49
improve 49
Con@@ 49
mighty 49
conviction 49
pro@@ 49
send 49
requires 49
60 49
believed 49
highly 49
trained 49
rulership 49
ably 49
um@@ 49
magazine 49
warfare 49
Likewise 49
wars 49
discern 49
comments 48
big 48
stick 48
conclusion 48
continues 48
Halls 48
constantly 48
Mount 48
prophets 48
career 48
gone 48
flock 48
essential 48
endurance 48
i 48
familiar 48
• 48
de 48
reaching 48
impossible 48
ian 48
Should 48
Messianic 48
appears 48
ure 48
evident 48
presented 48
bringing 48
clothing 48
invite 48
story 48
ness 48
39 48
41 48
meal 48
ends 48
Go 48
successful 48
raise 48
join 48
si@@ 48
series 48
out@@ 48
copies 48
developed 47
correct 47
car@@ 47
abilities 47
usually 47
descendants 47
tly 47
willingly 47
merely 47
ical 47
COVER 47
ph@@ 47
reality 47
acceptable 47
2013 47
waiting 47
In@@ 47
av@@ 47
Japan 47
wa@@ 47
worthy 47
yes 47
humbly 47
secure 47
telling 47
ist 47
offers 47
gold 47
quoted 47
Ac@@ 47
acknowledge 47
ty 47
ents 47
Deuteronomy 47
forms 47
honest 47
entered 46
ess 46
Make 46
Aaron 46
watch 46
Questions 46
global 46
destroy 46
grown 46
inner 46
Am 46
benefited 46
gathered 46
fruitage 46
student 46
applying 46
sur@@ 46
involve 46
gradually 46
temptation 46
ne@@ 46
ism 46
c 46
superior 46
formed 46
Has 46
o 46
ingly 46
missionaries 46
writings 46
produced 46
outstanding 46
hundreds 46
limitations 46
thank 46
spend 46
fleshly 46
handle 46
growing 46
Armageddon 46
master 46
singing 46
consideration 46
contribute 45
traveled 45
allows 45
observed 45
guided 45
Christianity 45
cared 45
ass@@ 45
war@@ 45
emotions 45
medical 45
trial 45
100 45
joyful 45
om@@ 45
forgiving 45
ed@@ 45
ms 45
routine 45
bride 45
Ruth 45
July 45
Deborah 45
mo@@ 45
third 45
ment 45
process 45
struggle 45
facts 45
lie 45
critical 45
3@@ 45
modesty 45
energy 45
la@@ 45
associate 45
eternal 45
illness 45
particular 45
42 45
writer 45
identify 45
satisfying 44
weak 44
I’m 44
oc@@ 44
designed 44
reveals 44
throne 44
prophecies 44
generous 44
Elisha 44
acting 44
search 44
moment 44
invisible 44
break 44
factors 44
declared 44
choosing 44
Never 44
couples 44
Gospel 44
carried 44
Col 44
stood 44
balanced 44
captivity 44
ark 44
reject 44
increased 44
journey 44
Rome 44
Africa 44
cor@@ 44
Well 44
talents 44
granted 44
teachers 44
Under 44
potential 44
mat@@ 44
grasp 44
performed 43
miracles 43
Israelite 43
enduring 43
mates 43
saved 43
stopped 43
authorities 43
lo@@ 43
harm 43
proof 43
conventions 43
ev@@ 43
campaign 43
sinners 43
iv@@ 43
discreet 43
ial 43
replied 43
significant 43
Ar@@ 43
walked 43
armies 43
ited 43
discouraged 43
weeks 43
teacher 43
lovingly 43
officials 43
sinned 43
all@@ 43
business 43
feels 43
concluded 43
refer 43
Lazarus 43
writing 42
accomplished 42
terms 42
demons 42
eye 42
hearing 42
address 42
D 42
exactly 42
Catholic 42
associated 42
ship 42
adjustments 42
active 42
concerning 42
Young 42
songs 42
RE@@ 42
providing 42
commission 42
pornography 42
governments 42
leaving 42
eager 42
released 42
rightly 42
declare 42
solid 42
people’s 42
environment 42
br@@ 42
tive 42
attack 42
Take 42
He@@ 42
mouth 42
asks 41
relate 41
Israel’s 41
Land 41
Arthur 41
ad 41
motivated 41
mention 41
ances 41
ay 41
decades 41
requirements 41
| 41
def@@ 41
zeal 41
cover 41
Sovereign 41
listened 41
Ephesians 41
BIBLE 41
appreciated 41
chief 41
Phil 41
su@@ 41
teenager 41
recognized 41
exist 41
tions 41
courageous 41
sub@@ 41
sea 41
cl@@ 41
Whatever 41
placed 41
determination 41
responsible 41
considering 41
serves 41
LI@@ 40
et 40
conf@@ 40
resist 40
Among 40
resolved 40
outcome 40
remaining 40
expectation 40
ftn 40
Russia 40
majority 40
difficulties 40
Com@@ 40
neutrality 40
householder 40
ungodly 40
military 40
values 40
separate 40
ious 40
probably 40
ery 40
Jas 40
grief 40
tools 40
manuscripts 40
noticed 40
eliminate 40
drawing 40
South 40
ative 40
remind 40
ned 40
ens 40
reports 40
ely 40
save 40
Parents 40
peaceful 40
Having 40
str@@ 40
Whether 40
report 40
contrary 39
model 39
Promised 39
major 39
difference 39
proud 39
maintaining 39
unclean 39
paid 39
Sea 39
Here 39
ized 39
OF 39
kill 39
Jehoshaphat 39
em@@ 39
animals 39
T 39
edition 39
store 39
ns 39
faithfulness 39
and@@ 39
release 39
gods 39
speaks 39
smoking 39
Sam 39
Ministry 39
els 39
instructed 39
describe 39
virgins 39
successfully 39
mon@@ 39
differ 39
sacrificing 39
remains 39
deeds 39
endeavor 39
appearance 39
road 39
physically 39
trouble 39
stake 39
approached 39
Both 39
methods 39
unable 39
slavery 39
e’s 39
didn’t 39
wisely 39
husbands 39
ear@@ 39
village 39
viewpoint 38
exists 38
De@@ 38
employment 38
se 38
victory 38
abandon 38
Good 38
rewarded 38
distress 38
mildness 38
Every 38
Jephthah 38
struck 38
refugees 38
end@@ 38
Without 38
sun 38
ruling 38
izing 38
white 38
id 38
strengthening 38
d 38
begotten 38
Barak 38
fore@@ 38
ran 38
thanks 38
represent 38
pattern 38
dealings 38
ing@@ 38
repeatedly 38
Leviticus 38
under@@ 38
Hannah 38
Ecclesiastes 38
widow 38
aside 38
reaction 38
Egyptian 38
mild 38
Only 38
across 38
list 38
1919 38
resulted 38
supporting 38
surprised 38
cost 38
corruption 38
Happy 38
Y 38
19@@ 38
endured 38
indicates 37
Gideon 37
international 37
turning 37
stress 37
causes 37
Ex 37
ue 37
names 37
id@@ 37
us@@ 37
supported 37
adjust 37
ter@@ 37
moves 37
leader 37
ish 37
task 37
influenced 37
intense 37
directly 37
Peter’s 37
lifestyle 37
resolve 37
inclined 37
religions 37
inhabited 37
sleep 37
ideas 37
Zechariah 37
sickness 37
Jonathan 37
Sh@@ 37
firstborn 37
camp 37
treasures 37
High 37
man@@ 37
cry 37
disfellowshipped 37
apart 37
song 37
grain 37
referring 36
sc@@ 36
fr@@ 36
belong 36
discovered 36
center 36
43 36
Pentecost 36
visiting 36
thankful 36
er’s 36
drew 36
god 36
surprise 36
eating 36
ut@@ 36
foundation 36
ath@@ 36
ive 36
seriously 36
conflict 36
numerous 36
St@@ 36
forces 36
dec@@ 36
copy 36
devoted 36
earnest 36
treatment 36
healthy 36
music 36
ought 36
pagan 36
drink 36
zealously 36
assurance 36
ard 36
inhabitants 36
printed 36
oned 36
unrighteous 36
allowing 36
ep@@ 36
oil 36
exc@@ 36
2014 36
au@@ 36
minded 36
rise 36
Brazil 36
sword 36
preparing 36
Lamb 36
powers 36
priority 36
Dad 36
Lord’s 36
stayed 36
recreation 35
wrongdoing 35
propaganda 35
recently 35
ding 35
table 35
translations 35
quit 35
website 35
www.jw.org 35
demonstrated 35
reflected 35
Other 35
comforting 35
ES 35
region 35
visits 35
aid 35
rendering 35
ists 35
amount 35
4@@ 35
Russell 35
brotherhood 35
Help 35
countless 35
goes 35
ise 35
research 35
passage 35
sad 35
Awake 35
England 35
class 35
ine 35
execution 35
enti@@ 35
corrupt 35
Unlike 35
Gilead 35
sed 35
reported 35
intended 35
satisfied 35
headquarters 35
ruler 35
46 35
her@@ 35
inside 35
ished 35
property 35
Ad@@ 35
stone 35
wedding 35
with@@ 34
44 34
court 34
Adam’s 34
ud@@ 34
social 34
enabled 34
Nathan 34
writers 34
perfection 34
Rebekah 34
obtain 34
obeying 34
repentant 34
ending 34
prize 34
severe 34
magazines 34
Colossians 34
Go@@ 34
harmful 34
Noah’s 34
Explain 34
ind@@ 34
poverty 34
ments 34
touch 34
Surely 34
governing 34
relative 34
beauty 34
inherited 34
x 34
goats 34
herself 34
Recall 34
scholar 34
manifest 34
80 34
newly 34
removed 34
additional 34
rendered 34
sorts 34
Gu@@ 34
plans 34
today’s 34
mark 34
poured 34
ator 34
October 34
page 34
encourages 34
Exodus 33
miraculously 33
firmly 33
65 33
tests 33
he@@ 33
ities 33
trusted 33
displayed 33
ov@@ 33
SUBJECT 33
ants 33
tempted 33
reign 33
lowly 33
pleasing 33
purposes 33
literal 33
wilderness 33
wide 33
marvelous 33
instruction 33
arrangements 33
peoples 33
broke 33
maintained 33
recall 33
ge 33
Brian 33
ize 33
anxieties 33
finding 33
ile 33
Sometimes 33
dwell 33
content 33
dangers 33
compassionate 33
enjoying 33
up@@ 33
root 33
alert 33
Two 33
audience 33
run 33
union 33
scholars 33
types 33
mistake 33
restored 33
unbelieving 33
memories 33
aged 33
painful 33
Book 33
to@@ 33
imperfection 32
Gr@@ 32
Family 32
ess@@ 32
Goliath 32
um 32
Additionally 32
Pharisees 32
har@@ 32
overwhelmed 32
admonition 32
review 32
contributed 32
ministerial 32
pressures 32
den@@ 32
excellent 32
Almighty 32
acknowledged 32
passing 32
habit 32
safe 32
scientists 32
fundamental 32
pointed 32
mid 32
ages 32
variety 32
child’s 32
imagination 32
fitting 32
relatively 32
universal 32
bus 32
appeal 32
no@@ 32
tered 32
ically 32
publisher 32
mar@@ 32
x@@ 32
und@@ 32
ily 32
ill@@ 32
discussion 32
Father’s 32
Church 32
motives 32
mor@@ 32
exciting 32
ps 32
remove 32
Mexico 32
associates 32
super@@ 32
del@@ 32
agreed 32
quick 32
wear 32
possibly 32
Polish 32
Golden 32
remote 32
judged 32
refuse 32
leads 32
horse 32
cold 31
commendation 31
unselfish 31
prof@@ 31
Qu@@ 31
Gog 31
assembly 31
lic@@ 31
safety 31
render 31
reminded 31
Doing 31
imprisoned 31
tabernacle 31
L 31
Friend 31
rescue 31
divided 31
judge 31
royal 31
ately 31
brotherly 31
April 31
assemblies 31
traits 31
talks 31
dealing 31
thousand 31
eagerly 31
nine 31
gets 31
tribe 31
Ireland 31
standard 31
sit 31
plan 31
pictures 31
trip 31
Res@@ 31
48 31
18@@ 31
ened 31
earth’s 31
restore 31
adultery 31
ade 31
55 31
project 31
ched 31
disease 31
projects 31
Work 31
Christmas 31
Flood 31
happens 31
widely 31
ice 31
connection 31
generation 31
video 31
sake 31
tic 31
emblems 31
unexpected 31
associations 31
neighbors 31
effects 31
Pharaoh’s 31
possessions 31
create 31
tors 31
oppression 31
5@@ 31
volunteers 31
ang@@ 31
hand@@ 31
temporary 30
do@@ 30
Brothers 30
welcome 30
worker 30
ets 30
asleep 30
observes 30
suddenly 30
resources 30
identified 30
med 30
portion 30
private 30
enable 30
compare 30
Mar@@ 30
ented 30
attendance 30
worldly 30
maturity 30
City 30
urge 30
appealing 30
revised 30
December 30
ci@@ 30
useful 30
angry 30
customs 30
debt 30
French 30
applies 30
addressed 30
bodies 30
street 30
fish 30
regardless 30
add 30
marital 30
ters 30
distant 30
z 30
tendencies 30
ze 30
replaced 30
ward 30
plant 30
thrilling 30
represents 30
unless 30
crime 30
strangers 30
clothes 30
require 30
believing 30
arranged 30
discernment 30
disaster 30
baby 30
company 30
abundance 30
Judges 30
sang 30
weaknesses 30
the@@ 30
amazing 30
funds 30
planet 30
ears 30
date 29
ore 29
Worship 29
ref@@ 29
shoulder 29
ning 29
path 29
merciful 29
sought 29
cre@@ 29
cherish 29
ish@@ 29
ives 29
submit 29
eternity 29
inheritance 29
air 29
ians 29
ality 29
tendency 29
escape 29
II 29
accepting 29
German 29
risk 29
seated 29
none 29
context 29
sold 29
detail 29
Lot 29
brochure 29
admit 29
dust 29
disposition 29
Per@@ 29
establish 29
deliver 29
significance 29
damage 29
society 29
ged 29
expand 29
abandoned 29
ped 29
miracle 29
exercising 29
listeners 29
higher 29
hypocrisy 29
Anthony 29
ru@@ 29
Him 29
lying 29
ect 29
notes 29
September 29
Above 29
fearing 29
per 29
meaningful 29
straight 29
Canada 29
motivate 29
YOU 29
lay 29
science 29
protected 29
red 29
draws 29
attacks 29
ob@@ 29
min@@ 29
1,000 29
anymore 29
belief 29
preserve 29
birds 29
po@@ 29
ch 29
confronted 29
ening 29
learner 29
differences 29
ging 29
TH@@ 29
lovers 29
der 29
opposed 29
hur@@ 28
impact 28
holding 28
heavy 28
admits 28
phone 28
pos@@ 28
loc@@ 28
reflects 28
spec@@ 28
Elders 28
Z@@ 28
explaining 28
guilty 28
loyally 28
heed 28
completed 28
ow@@ 28
so@@ 28
WHAT 28
delivered 28
wealth 28
Death 28
Ted 28
Gal 28
ition 28
2015 28
drinking 28
oo@@ 28
whenever 28
Pr@@ 28
ay@@ 28
memory 28
approaching 28
huge 28
Corinth 28
obeyed 28
Michael 28
island 28
Pray 28
expects 28
est@@ 28
Eric 28
labor 28
commandments 28
relationships 28
Jairo 28
Deut 28
extended 28
weaken 28
greed 28
broken 28
reminds 28
solution 28
partner 28
thereafter 28
aging 28
season 28
El@@ 28
life’s 28
proclaim 28
Faithful 28
PS 28
tears 28
Internet 28
ministers 28
glorious 28
highlights 28
site 28
raising 28
na@@ 28
EN@@ 28
possess 28
properly 28
stones 27
Everyone 27
att@@ 27
qualify 27
buy 27
Un@@ 27
nearby 27
blind 27
Thanks 27
tw@@ 27
gained 27
computer 27
inherit 27
AN@@ 27
ough 27
economic 27
limit 27
worry 27
calm 27
feared 27
ES@@ 27
Egyptians 27
worshipped 27
repentance 27
surrounded 27
wish 27
everywhere 27
entitled 27
defend 27
Mom 27
Babylonian 27
contain 27
covered 27
contained 27
sion 27
les 27
slow 27
ordered 27
Latin 27
Josiah 27
generosity 27
15@@ 27
understands 27
limits 27
bones 27
unrighteousness 27
hates 27
believes 27
signs 27
donations 27
ce 27
trusting 27
foolish 27
cultivating 27
looks 27
remembered 27
2012 27
ff@@ 27
dream 27
ant@@ 27
commandment 27
Learn 27
survived 27
sustain 27
associating 27
Bibles 27
Biblical 27
dark 27
symbolic 27
grave 27
priceless 27
miraculous 27
reg@@ 27
commercial 27
Judea 27
threatened 27
Le@@ 27
reads 27
air@@ 27
carrying 27
forced 27
istic 27
Philippines 27
card 27
pe@@ 27
testimony 27
readily 27
feature 27
Committee 27
ER@@ 27
depth 27
ride 27
spices 27
ture 27
fac@@ 26
ths 26
Eccl 26
opposers 26
dying 26
pleasant 26
printing 26
gh@@ 26
father’s 26
Car@@ 26
Readers 26
uphold 26
Song 26
valid 26
hospitable 26
affairs 26
marked 26
IS 26
heal 26
inv@@ 26
hate 26
permanent 26
entrusted 26
dr@@ 26
terrible 26
indicated 26
highlight 26
Become 26
exposed 26
reliable 26
Chron 26
gather 26
trees 26
innocent 26
bit 26
temper 26
emotionally 26
John’s 26
fields 26
ming 26
I’ve 26
backing 26
wild 26
suitable 26
Dis@@ 26
ites 26
keeps 26
comforted 26
144,000 26
analyze 26
guests 26
Besides 26
Next 26
Knowing 26
Imitate 26
ines 26
police 26
Europe 26
caught 26
iling 26
divorce 26
Giving 26
Using 26
forgiven 26
r 26
mountain 26
tend 26
constant 26
passages 26
previously 26
En@@ 26
Ki 26
IT 26
satisfy 26
.@@ 26
wind 26
gathering 26
ren@@ 26
Gaius 26
struggling 26
August 26
fighting 26
miss 26
immediate 26
ils 26
gl@@ 26
organizations 26
joyfully 26
diligent 25
gu@@ 25
gaining 25
realm 25
continuing 25
por@@ 25
Theocratic 25
creature 25
weapons 25
comforts 25
headship 25
drive 25
walls 25
66 25
commands 25
current 25
ave 25
strongly 25
ge@@ 25
awe 25
contr@@ 25
selected 25
ement 25
flee 25
ist@@ 25
healed 25
outset 25
Stephen 25
Notice 25
ke 25
ease 25
Were 25
Thess 25
Th@@ 25
it’s 25
é@@ 25
sl@@ 25
ches 25
solve 25
viewing 25
believer 25
ow 25
ory 25
ining 25
tax 25
assume 25
obstacles 25
selfishness 25
don@@ 25
returning 25
communicate 25
childhood 25
settled 25
ures 25
features 25
changing 25
developing 25
burden 25
ences 25
Use 25
ens@@ 25
initial 25
silver 25
clergy 25
involving 25
fled 25
cont@@ 25
shepherds 25
ver@@ 25
spreading 25
Service 25
credit 25
sw@@ 25
dy 25
comfortable 25
deepen 25
Barnabas 25
tribulations 25
iled 25
Irish 25
suggested 25
bi@@ 25
privileged 25
north 25
exercises 25
zed 25
billions 25
Evening 25
planning 25
eness 25
urges 24
weakness 24
tired 24
heads 24
Y@@ 24
deaf 24
avoided 24
played 24
300 24
Version 24
trans@@ 24
losing 24
November 24
cal@@ 24
imp@@ 24
ised 24
focusing 24
proc@@ 24
bor@@ 24
taste 24
emb@@ 24
Dead 24
spending 24
popular 24
Grand 24
race 24
Truth 24
fi@@ 24
animal 24
degree 24
Ghana 24
welfare 24
children’s 24
IN 24
March 24
scroll 24
disappointed 24
exile 24
Rachel 24
companion 24
bu@@ 24
Nehemiah 24
pour 24
neutral 24
Empire 24
discusses 24
willingness 24
houses 24
topics 24
At@@ 24
initially 24
services 24
Lefèvre 24
primarily 24
harsh 24
officer 24
commended 24
fortify 24
Shortly 24
pres@@ 24
represented 24
ak@@ 24
land@@ 24
ound 24
reasoning 24
Prayer 24
June 24
motive 24
interesting 24
fit 24
location 24
idolatry 24
te 24
length 24
finished 24
atmosphere 24
telephone 24
te@@ 24
app@@ 24
Tr@@ 24
eer 24
WHEN 24
deceptive 24
minister 24
stars 24
ble 24
pleasures 24
thrilled 24
condemned 24
faces 24
Sisera 24
OR@@ 24
abundant 24
resentment 24
kingship 24
male 24
off@@ 24
Malawi 24
causing 24
conversations 24
rain 24
Rule 24
Meal 24
rules 24
throw 24
meditation 24
Likely 23
sentence 23
dealt 23
awake 23
schedule 23
ishing 23
ie 23
ruled 23
tested 23
translators 23
prominent 23
cooperate 23
we@@ 23
otherwise 23
ching 23
LE@@ 23
approved 23
teens 23
down@@ 23
Pl@@ 23
glad 23
esses 23
belongs 23
dated 23
expensive 23
Person 23
rider 23
balance 23
increasing 23
opens 23
strengthens 23
bri@@ 23
cruel 23
explanation 23
ified 23
disobedience 23
tless 23
accident 23
M 23
Society 23
William 23
arms 23
Out 23
Naboth 23
reasoned 23
rewarding 23
fin@@ 23
engaging 23
ination 23
readers 23
proving 23
Children 23
girls 23
residents 23
participate 23
encounter 23
sum@@ 23
cast 23
Continue 23
Bethelites 23
effectively 23
Robert 23
ose 23
fears 23
Suppose 23
AS 23
habits 23
ah’s 23
rewards 23
AL 23
upright 23
bitter 23
sel@@ 23
Kings 23
preserved 23
relations 23
pursuits 23
playing 23
ours 23
subjection 23
cooperation 23
acquire 23
wage 23
distributed 23
skills 23
necessities 23
admitted 23
Tuvaluan 23
our@@ 23
1950 23
Again 23
directions 23
specifically 23
Charles 23
conquest 23
ili@@ 23
wh@@ 23
shortly 23
Philippi 23
resurrect 23
exercised 22
Jim 22
deserve 22
Shirley 22
promoted 22
serpent 22
Maria 22
hatred 22
media 22
Show 22
application 22
2,000 22
chariots 22
chaste 22
ute 22
courageously 22
tobacco 22
supply 22
deliverance 22
119 22
disasters 22
punishment 22
Asa’s 22
Peace 22
sides 22
aw@@ 22
commit 22
7@@ 22
ED 22
representatives 22
ponder 22
generously 22
respects 22
ach 22
warn 22
custom 22
paying 22
worshipping 22
Abel 22
feed 22
ING 22
distracted 22
churches 22
struggled 22
Titus 22
delighted 22
portions 22
figurative 22
begins 22
correction 22
tic@@ 22
mankind’s 22
liked 22
empire 22
gracious 22
ignore 22
worshipper 22
extreme 22
200 22
percent 22
widespread 22
famous 22
sat 22
clay 22
ars 22
discussing 22
Britain 22
Things 22
ruin 22
Its 22
Describe 22
lifesaving 22
repeated 22
honesty 22
tor 22
patriarch 22
development 22
ongoing 22
resurrections 22
settle 22
initiative 22
access 22
garment 22
boldly 22
reflecting 22
mission 22
top 22
Eventually 22
ions 22
team 22
finds 22
tract 22
des@@ 22
originally 22
anc@@ 22
Please 22
profound 22
uring 22
alongside 22
considers 22
ast@@ 22
U.S.A 22
developments 22
petitions 22
style 22
perfectly 22
visions 22
os 22
hoped 22
comparison 22
quiet 22
compl@@ 22
persecuted 22
friendly 22
method 22
Spiritual 21
Ur 21
humankind 21
won 21
hospital 21
me@@ 21
disastrous 21
Granted 21
ys 21
proclaimed 21
abuse 21
tri@@ 21
hair 21
ong 21
goodness 21
texts 21
dly 21
similarly 21
engaged 21
CH@@ 21
welcomed 21
compromise 21
extraordinary 21
It’s 21
dies 21
Herod 21
Come 21
Rose 21
witnessed 21
VI@@ 21
distressing 21
isolated 21
regret 21
ived 21
TE@@ 21
2011 21
error 21
letting 21
Nonetheless 21
progressed 21
ties 21
amazed 21
JEHOVAH 21
previous 21
ards 21
weekly 21
Lystra 21
umb@@ 21
brief 21
afterward 21
inst@@ 21
spouse 21
victim 21
title 21
Don 21
missed 21
races 21
cupbearer 21
Rutherford 21
wherever 21
wheat 21
eng@@ 21
happily 21
Silas 21
low 21
sex 21
enjoyment 21
cas@@ 21
boat 21
lacking 21
ind 21
ased 21
ements 21
blesses 21
extend 21
Thessalonians 21
exact 21
bre@@ 21
earing 21
earnestly 21
equipped 21
tor@@ 21
fourth 21
ain 21
drop 21
ber@@ 21
vows 21
rep@@ 21
centered 21
historical 21
facilities 21
literally 21
ving 21
opinions 21
emp@@ 21
somewhat 21
OU@@ 21
chooses 21
offices 21
hardly 21
ays 21
owed 21
teenagers 21
select 21
hardships 21
Third 21
grooming 21
6@@ 21
altar 21
focuses 21
watchful 21
sets 21
party 21
middle 21
ST@@ 21
guilt 21
Spirit 21
ve 21
proclaimers 21
Canaan 21
promotes 21
bur@@ 21
Jude 21
obtained 21
Source 21
fixed 21
recalled 20
Inter@@ 20
upbuilding 20
indication 20
cleansed 20
meantime 20
friendships 20
Micah 20
adult 20
transferred 20
mentions 20
utmost 20
identity 20
overly 20
51 20
attitudes 20
thrown 20
materially 20
unusual 20
openly 20
liber@@ 20
sec@@ 20
agreement 20
Chronicles 20
Consequently 20
doubts 20
ur 20
possession 20
tracts 20
rights 20
thr@@ 20
sal@@ 20
Testament 20
49 20
roads 20
arose 20
obvious 20
footnote 20
exclusive 20
Ber@@ 20
evolution 20
heat 20
islands 20
Grave 20
governor 20
ta@@ 20
sell 20
attracted 20
divisions 20
minutes 20
requirement 20
generally 20
obligation 20
Sarah’s 20
inclinations 20
wipe 20
favorable 20
authorized 20
exchange 20
int@@ 20
Septuagint 20
lim@@ 20
Sermon 20
grows 20
grandparents 20
exp@@ 20
reputation 20
count 20
Scripture 20
discouragement 20
voluntary 20
mid@@ 20
Man@@ 20
comment 20
extensive 20
farm 20
apostasy 20
cur@@ 20
w 20
rel@@ 20
Within 20
tent 20
Thomas 20
productive 20
Saul’s 20
Is@@ 20
requests 20
guarantee 20
ective 20
holds 20
objective 20
Priest 20
oath 20
existed 20
running 20
temptations 20
47 20
il 20
watching 20
Brooklyn 20
No@@ 20
unlike 20
frequently 20
press 20
ined 20
Master 20
apped 20
Thereafter 20
emphasized 20
giver 20
sorrow 20
DE@@ 20
Study 20
Cain 20
For@@ 20
intelligent 20
hidden 20
enables 20
IN@@ 20
priorities 20
sentenced 20
fond 20
Joanna 20
strike 20
Much 20
Anna 20
Sunday 20
Asia 20
duties 20
owned 20
threat 20
famine 20
pi@@ 20
righ@@ 20
burial 20
ency 20
det@@ 20
54 20
72 20
experiencing 20
everyday 20
cell 20
January 19
senses 19
greaters 19
average 19
earn 19
expresses 19
Knorr 19
healing 19
warmly 19
conscious 19
whereas 19
America 19
mostly 19
fast 19
proves 19
adults 19
foot 19
realistic 19
accused 19
depends 19
heartwarming 19
itation 19
repent 19
hoping 19
yed 19
scope 19
lifted 19
twice 19
safeguard 19
visible 19
Accordingly 19
rid 19
visitors 19
tremendous 19
Ezek 19
tically 19
directing 19
lion 19
fe@@ 19
Serve 19
Philip 19
amb@@ 19
highest 19
definitely 19
acc@@ 19
ological 19
eless 19
adopted 19
Rec@@ 19
og@@ 19
presentation 19
conquered 19
tation 19
rejoicing 19
mine 19
tear 19
refreshing 19
Megan 19
d’s 19
northern 19
ho@@ 19
prisoners 19
volunteer 19
bondage 19
a’s 19
discussions 19
arrival 19
Throughout 19
Bedell 19
depressed 19
scientific 19
subtle 19
N 19
grand 19
faults 19
highlighted 19
executed 19
claimed 19
calamity 19
vi@@ 19
located 19
Im@@ 19
ust@@ 19
antly 19
happening 19
star@@ 19
era 19
description 19
stories 19
TI@@ 19
Time 19
midst 19
plague 19
remnant 19
siblings 19
Humans 19
advancement 19
ha@@ 19
happier 19
Zechariah’s 19
wholehearted 19
resulting 19
empathy 19
prior 19
antichrist 19
dic@@ 19
bound 19
ring 19
burned 19
prov@@ 19
od@@ 19
Mary’s 19
consolation 19
go@@ 19
commissioned 19
falling 19
ell@@ 19
Way 19
keenly 19
ows 19
unknown 19
elsewhere 19
conducting 19
ma 19
hardworking 19
occasionally 19
likened 19
ry 19
await 19
lacked 19
angelic 19
smoke 19
capacity 19
ins 19
preachers 19
apparently 19
scene 19
national 19
circ@@ 19
sincerely 19
enslaved 19
rescued 19
MATT 19
inspiring 19
attempt 19
Early 19
deserves 19
exquisite 19
capable 19
vicious 19
extremely 19
stronger 19
wall 19
F 19
spirits 19
ail@@ 18
grant 18
troubled 18
Judge 18
bul@@ 18
52 18
passion 18
ate@@ 18
fulness 18
outlook 18
on’s 18
attain 18
plenty 18
art@@ 18
ion 18
recover 18
reassured 18
seed 18
revision 18
mold 18
sen@@ 18
Had 18
helper 18
drugs 18
imagined 18
Giver 18
expectations 18
preacher 18
contributes 18
floor 18
ges 18
Following 18
vain 18
Speaking 18
AL@@ 18
commented 18
Ap@@ 18
corrected 18
identifies 18
thereby 18
priesthood 18
reassuring 18
sanctified 18
pas@@ 18
ests 18
East 18
unjust 18
Reign 18
ping 18
Eduardo 18
ual 18
ris@@ 18
Compare 18
victims 18
interfere 18
prefer 18
board 18
adopt 18
Assembly 18
iness 18
challenged 18
Kingsley 18
darkness 18
brain 18
unnecessary 18
equal 18
gates 18
Bel@@ 18
Galilee 18
shed 18
10,000 18
Di@@ 18
20th 18
ridicule 18
searching 18
begun 18
examination 18
reply 18
Meditating 18
Evidently 18
ively 18
schools 18
displaying 18
peaceable 18
immortal 18
1918 18
sol@@ 18
Passover 18
W 18
wholesome 18
troubles 18
ensure 18
suggests 18
origin 18
sexually 18
ell 18
dra@@ 18
State 18
seventh 18
cultures 18
blame 18
depend 18
locally 18
price 18
bs 18
threats 18
Spanish 18
vis@@ 18
Turkey 18
deb@@ 18
appreciates 18
tenderness 18
actual 18
mi@@ 18
ample 18
annual 18
sin@@ 18
quar@@ 18
family’s 18
crowds 18
delay 18
ics 18
conflicts 18
convey 18
respected 18
hide 18
images 18
tragic 18
imperfections 18
ee@@ 18
Canaanite 18
Hans 18
radio 18
61 18
ained 18
survival 18
reproach 18
skilled 18
Benjamin 18
Job’s 18
Story 18
ni@@ 18
tents 18
Whoever 18
COR 18
opposite 18
pled 18
imitating 18
failure 18
penalty 18
sting 18
Pro@@ 18
conce@@ 18
historian 18
relied 18
ash@@ 18
advanced 18
Listen 18
sleeping 18
posed 18
·@@ 18
ati@@ 18
fallen 18
secret 18
arrested 18
ology 18
harder 18
disposed 18
Mother 18
Gospels 18
owing 18
Worldwide 18
Ne@@ 18
storm 18
tal@@ 18
cup 18
avoiding 18
Modesty 17
tur@@ 17
unbelievers 17
fed 17
Serving 17
cer@@ 17
tasks 17
cra@@ 17
edly 17
defeat 17
Further 17
extra 17
totally 17
River 17
elements 17
load 17
handled 17
mal 17
mer@@ 17
relevant 17
alcohol 17
respectfully 17
expressing 17
desperately 17
discover 17
ot@@ 17
yeartext 17
lessly 17
husband’s 17
honesthearted 17
Get 17
online 17
tric@@ 17
Three 17
zing 17
Day 17
Elijah’s 17
successor 17
combined 17
Jordan 17
outworking 17
numbers 17
mountains 17
dev@@ 17
IS@@ 17
Year 17
statements 17
Jacob’s 17
Often 17
publication 17
ot 17
closed 17
listed 17
distance 17
far@@ 17
favorite 17
perspective 17
population 17
ships 17
repay 17
ig@@ 17
res 17
non@@ 17
belongings 17
H 17
contemplate 17
Naboth’s 17
fugitive 17
tribes 17
Des@@ 17
equip 17
favorably 17
dreams 17
hopes 17
emphasis 17
immigrants 17
deliberately 17
obediently 17
haughty 17
smile 17
naturally 17
opinion 17
logical 17
dry 17
disfellowshipping 17
European 17
convincing 17
strange 17
IUDs 17
rightful 17
16@@ 17
contributions 17
sli@@ 17
AND 17
amed 17
murder 17
rod 17
acy 17
offense 17
lab@@ 17
householders 17
Hagar 17
brother’s 17
accurately 17
captive 17
Ruler 17
ton 17
steadfast 17
empowered 17
Bridegroom 17
total 17
ility 17
anointing 17
sensitive 17
rac@@ 17
ack 17
Pilate 17
silent 17
devote 17
inspiration 17
Ang@@ 17
accord 17
pen 17
desired 17
depression 17
legally 17
almighty 17
fulfilling 17
turns 17
pity 17
London 17
adjusted 17
ams 17
hell 17
trap 17
glorified 17
horsemen 17
Jer 17
talked 17
spr@@ 17
mourning 17
impress 17
wearing 17
Chinese 17
mas@@ 17
charge 17
modestly 17
oun@@ 17
Solomon’s 17
renounce 17
spar@@ 17
suggest 17
replace 17
owe 17
missing 17
perceive 17
Japanese 17
90 17
urgency 17
mus@@ 17
Par@@ 17
ored 17
bears 17
backgrounds 17
qualifications 17
Times 17
repair 17
legitimate 17
begged 17
honestly 17
om 17
ER 17
steady 17
Janet 17
firsthand 17
stable 17
measures 17
towns 17
pair 17
hi@@ 17
contribution 17
mirror 17
harvest 17
tics 17
invites 17
glorify 17
hellfire 17
Ancient 17
preparation 17
Understandably 17
zone 16
progressively 16
declares 16
rulers 16
disciplined 16
75 16
breaks 16
flow 16
arr@@ 16
execute 16
announced 16
ular 16
ify 16
rebelled 16
Ethiopian 16
forefathers 16
ON 16
practiced 16
iting 16
timely 16
Be@@ 16
addiction 16
normally 16
badly 16
Actually 16
Try 16
virgin 16
lik@@ 16
ash 16
ws 16
dominant 16
errors 16
stands 16
technology 16
ision 16
Nothing 16
watched 16
systems 16
ler 16
numbered 16
an’s 16
decisive 16
bel@@ 16
Reading 16
beh@@ 16
plants 16
devastated 16
honored 16
deed 16
kinds 16
climate 16
enting 16
Jezebel 16
behave 16
equ@@ 16
restoration 16
cleansing 16
hears 16
threw 16
umed 16
community 16
500 16
overjoyed 16
sacrificial 16
keen 16
den 16
ounded 16
oms 16
tempered 16
deny 16
Relate 16
izes 16
jealousy 16
guides 16
demand 16
ub@@ 16
stuck 16
Daniel’s 16
observ@@ 16
aying 16
materials 16
Jephthah’s 16
detailed 16
memor@@ 16
Antonio 16
unfaithful 16
topic 16
urgent 16
1,@@ 16
uc@@ 16
creating 16
adapt 16
shrines 16
indicating 16
hall 16
afford 16
newspaper 16
improper 16
71 16
conquer 16
confirm 16
consistent 16
coll@@ 16
breaking 16
appreciative 16
pen@@ 16
session 16
ak 16
hit 16
men@@ 16
mag@@ 16
distinguish 16
commemorate 16
electronic 16
worthwhile 16
nationality 16
judges 16
secretary 16
rock 16
gar@@ 16
ousness 16
chance 16
accompany 16
billion 16
hom@@ 16
idence 16
19th 16
larger 16
103 16
observing 16
st 16
permission 16
valued 16
surface 16
proclaiming 16
holiness 16
characteristics 16
illustrated 16
transportation 16
Provider 16
items 16
tomb 16
typical 16
coun@@ 16
Wh@@ 16
broad@@ 16
absolutely 16
arch@@ 16
linked 16
remembering 16
com@@ 16
RO@@ 16
ank 16
Pri@@ 16
Magog 16
tragedy 16
tolerate 16
phrase 16
loyalties 16
temporarily 16
partake 16
cul@@ 16
grandmother 16
assure 16
increasingly 16
independence 16
south 16
protective 16
speaker 16
fierce 16
longtime 16
cancer 16
ol 16
n’t 16
gladly 16
armed 16
torture 16
Dan 16
rate 16
Me@@ 16
char@@ 16
chronic 16
beat 16
black 16
upset 16
ond@@ 16
versions 16
aved 16
thanksgiving 16
Says 16
shout 16
enhance 16
pursuing 16
pap@@ 16
sending 15
wholeheartedly 15
necessarily 15
cap@@ 15
Happily 15
renewed 15
Es@@ 15
rebellious 15
hear@@ 15
sti@@ 15
ai@@ 15
movies 15
pul@@ 15
undoubtedly 15
pped 15
copper 15
dwelling 15
ame 15
soldier 15
fied 15
120 15
Last 15
expenses 15
simplify 15
ries 15
Ephesus 15
iti@@ 15
fresh 15
hypocritical 15
size 15
Years 15
ager 15
conducted 15
fying 15
Boaz 15
advis@@ 15
Fore@@ 15
Thousand 15
rolled 15
An@@ 15
span 15
civil 15
longing 15
intently 15
possibility 15
instruct 15
collect 15
couldn’t 15
guiding 15
w16.@@ 15
ana 15
adop@@ 15
shelter 15
weapon 15
arm 15
lets 15
Malachi 15
worthless 15
suppose 15
oved 15
ale 15
Babylonians 15
Find 15
covering 15
Looking 15
You@@ 15
recognition 15
Congregation 15
1940 15
section 15
Me 15
unrepentant 15
weight 15
oneness 15
woman’s 15
ast 15
imitation 15
Eli@@ 15
fragment 15
desperate 15
conc@@ 15
accompanied 15
Rico 15
73 15
Bedell’s 15
striving 15
squ@@ 15
apartment 15
surrounding 15
persuaded 15
steal 15
deceive 15
flying 15
introduction 15
read@@ 15
freed 15
dishonest 15
Potter 15
divide 15
mer 15
Us 15
convince 15
crown 15
Illustrate 15
range 15
2000 15
ina 15
drug 15
rap@@ 15
protects 15
instruc@@ 15
loud 15
deeper 15
hot 15
9@@ 15
sitting 15
pond@@ 15
unf@@ 15
assisted 15
actively 15
standpoint 15
puts 15
misuse 15
garments 15
double 15
awaiting 15
genuinely 15
subst@@ 15
deadly 15
vo@@ 15
ust 15
delegates 15
ung@@ 15
Picture 15
Timothy’s 15
supplication 15
bridegroom 15
burning 15
cleaning 15
ector 15
supplies 15
Ab@@ 15
heading 15
declaring 15
oning 15
arrange 15
feast 15
AS@@ 15
factor 15
warnings 15
hinder 15
surpasses 15
Neither 15
participating 15
vary 15
prophesied 15
saving 15
Setting 15
Franz 15
respectful 15
outlined 15
permit 15
Angels 15
lips 15
comb@@ 15
publicly 15
Kyrgyzstan 15
influences 15
tion@@ 15
containing 15
can@@ 15
Know 15
origin@@ 15
daunting 15
understandable 15
sports 15
achieve 15
absorbed 15
ail 15
counted 15
Yearbook 15
gate 15
starts 15
Easter 15
Millions 15
apostate 15
> 15
fruitful 15
ats 15
warns 15
separation 15
injustices 15
ender 15
mentally 15
programs 15
enthusiasm 15
discerned 15
ee 15
AR@@ 15
shall 15
producing 15
worst 15
SOME 15
meek 15
Rep@@ 15
absolute 15
GOD’S 15
Island 15
oldest 15
rage 15
needy 15
planets 15
interpreted 15
bow 15
Prov@@ 15
inf@@ 15
overlook 15
founded 15
paths 15
pri@@ 15
enjoys 15
Four 15
latest 14
cured 14
BE@@ 14
confirmed 14
accomplishment 14
relying 14
hesitate 14
prosperous 14
drow@@ 14
fellowship 14
Mal@@ 14
col@@ 14
wages 14
mail 14
safely 14
Apparently 14
shrewd 14
educational 14
teenage 14
G 14
physician 14
scale 14
1949 14
entirely 14
ann@@ 14
lift 14
work@@ 14
submissive 14
Rahab 14
hearted 14
ace 14
ulated 14
cond@@ 14
deceived 14
some@@ 14
uri@@ 14
Ever 14
’S 14
2004 14
copyists 14
pose 14
Baruch 14
rare 14
noteworthy 14
territories 14
inviting 14
symbolized 14
income 14
Galatians 14
Enoch’s 14
ban 14
convent 14
outbreak 14
iz@@ 14
José 14
HOW 14
crossed 14
grandfather 14
1930 14
tu@@ 14
punished 14
ices 14
minor 14
ign 14
HISTORY 14
evangelizer 14
wi@@ 14
cing 14
sooner 14
scrolls 14
mal@@ 14
itable 14
Na@@ 14
83 14
ire 14
fy 14
certainty 14
jealous 14
questioned 14
ba@@ 14
jobs 14
suff@@ 14
mary 14
Regardless 14
native 14
entity 14
aking 14
stirred 14
prompted 14
translating 14
magnificent 14
keys 14
prayerfully 14
vindication 14
58 14
advised 14
shocked 14
duty 14
discerning 14
pain@@ 14
hungry 14
2008 14
timing 14
gross 14
Warwick 14
Jud@@ 14
entering 14
maybe 14
commend 14
rob 14
manifested 14
care@@ 14
occurs 14
appointment 14
essed 14
YEAR 14
Bar@@ 14
Gwen 14
follows 14
ten@@ 14
ON@@ 14
weep 14
honoring 14
Williams 14
estimate 14
empty 14
waited 14
ir 14
difficulty 14
cautious 14
hundred 14
ordinary 14
meals 14
embrace 14
foretell 14
introduced 14
symp@@ 14
Persian 14
Ev@@ 14
attempted 14
Marilyn 14
reserved 14
delightful 14
aim 14
backs 14
ains 14
Matthew’s 14
apple 14
Cheri 14
finish 14
scenes 14
weeds 14
post 14
owner 14
sinner 14
row 14
ide 14
Age 14
Earth 14
doctrine 14
TO 14
organize 14
advances 14
wording 14
fashi@@ 14
tries 14
outcry 14
estimated 14
tiny 14
prayerful 14
east 14
praises 14
oll@@ 14
2009 14
fifth 14
incident 14
demanding 14
ature 14
dressed 14
strip 14
purposed 14
surroundings 14
84 14
ower 14
auxiliary 14
Jael 14
sive 14
pieces 14
pays 14
Don@@ 14
expl@@ 14
connected 14
enjoyable 14
prin@@ 14
vessels 14
8@@ 14
cried 14
citizens 14
leaves 14
unfair 14
gged 14
contentment 14
affects 14
Mer@@ 14
weeping 14
promoting 14
approaches 14
richly 14
TS 14
Department 14
lied 14
maintenance 14
Trust 14
shy 14
yoked 14
oppose 14
central 14
principal 14
ta 14
ext@@ 14
sealing 14
ani@@ 14
vers@@ 14
explo@@ 14
HEB 14
ain@@ 14
Jairo’s 14
She@@ 14
handed 14
News 14
cycle 14
cited 14
humbled 14
ent’s 14
clearer 14
longed 14
Meanwhile 14
vivid 14
Gift 14
spring 14
practicing 14
sk@@ 14
except 14
’@@ 14
Li@@ 14
eep@@ 14
lad@@ 14
ME@@ 14
overall 14
attractive 14
sanctification 14
incense 14
rebels 14
Korah 14
tempt 14
ater 14
Loving 14
Reflecting 14
diligently 14
sign@@ 14
scribes 14
om’s 14
che@@ 14
India 14
var@@ 14
cat@@ 14
Western 14
R 14
claims 14
hs 14
washing 14
Naomi 14
Something 13
desirable 13
wife’s 13
hurled 13
Learning 13
Blessed 13
ential 13
sup@@ 13
defeated 13
ury 13
dedicate 13
neglected 13
Gre@@ 13
ounding 13
Azariah 13
any@@ 13
impression 13
International 13
dancing 13
revealing 13
homeland 13
pool 13
pol@@ 13
grandson 13
ins@@ 13
bas@@ 13
cles 13
Seek 13
regain 13
shar@@ 13
135 13
stating 13
tsunami 13
ove 13
structure 13
fairly 13
ading 13
Madagascar 13
reduce 13
border 13
Beli@@ 13
memorial 13
rebel 13
peers 13
inclination 13
ful@@ 13
esti@@ 13
ied 13
tre@@ 13
praising 13
Sodom 13
Avoid 13
sions 13
bitterness 13
crushed 13
Simply 13
Comm@@ 13
cheerful 13
managed 13
fails 13
ational 13
tac@@ 13
contents 13
space 13
industry 13
Christlike 13
leprosy 13
passengers 13
references 13
tongues 13
games 13
foods 13
other’s 13
aff@@ 13
Hezekiah’s 13
trac@@ 13
rup@@ 13
southern 13
purchase 13
reside 13
cho@@ 13
dearly 13
prospects 13
ult 13
improved 13
describing 13
Eliezer 13
misery 13
Ephraim 13
illustrates 13
truthfulness 13
stability 13
bonds 13
Felisa 13
Araceli 13
harmon@@ 13
Cornelius 13
Far 13
Any 13
toler@@ 13
hunger 13
appreciatively 13
mbs 13
imprisonment 13
Until 13
pur@@ 13
peer 13
terror 13
worried 13
Scrolls 13
Hutter 13
err@@ 13
respecting 13
casual 13
shut 13
Vol@@ 13
ume 13
Leader 13
asing 13
BORN 13
Fiji 13
Spain 13
Nikolai 13
Prom@@ 13
ick@@ 13
suggestion 13
crisis 13
Whom 13
sharp 13
sy@@ 13
ser@@ 13
fatherly 13
ap 13
AN 13
Christendom 13
ete 13
ention 13
Sel@@ 13
Living 13
yoke 13
Which 13
liness 13
ultimately 13
Sanhedrin 13
Nations 13
accommodations 13
traditions 13
91 13
threatening 13
communities 13
joint 13
driver 13
raises 13
Abrahamic 13
1995 13
apostates 13
refined 13
Mis@@ 13
conquering 13
ght@@ 13
instances 13
im 13
canc@@ 13
ulate 13
punish 13
Humility 13
sufficient 13
Nisan 13
Hong 13
Kong 13
Sch@@ 13
nes@@ 13
favored 13
skep@@ 13
tical 13
rapidly 13
Sure 13
bicycle 13
outline 13
movie 13
resol@@ 13
unscriptural 13
banned 13
transformed 13
blameless 13
unwise 13
clas@@ 13
re 13
materialistic 13
spared 13
Little 13
winds 13
joys 13
bereaved 13
persevere 13
spite 13
guidelines 13
supposed 13
3,000 13
cease 13
wid@@ 13
Samaritan 13
prisoner 13
doctor 13
university 13
commonly 13
mately 13
Put 13
vol@@ 13
television 13
fought 13
unitedly 13
overwhelming 13
shares 13
roots 13
rev@@ 13
Man 13
shine 13
morally 13
orderly 13
distractions 13
Mo@@ 13
700 13
doctors 13
deterior@@ 13
format 13
somewhere 13
Jericho 13
greedy 13
atic 13
conscientious 13
Her@@ 13
poetic 13
Making 13
head@@ 13
az@@ 13
continually 13
unworthy 13
roll 13
Greece 13
pleases 13
aming 13
ius 13
inqu@@ 13
Teacher 13
Concerning 13
hostile 13
sa@@ 13
scre@@ 13
synagogue 13
hab@@ 13
acquainted 13
supports 13
merchant 13
headed 13
function 13
dance 13
abundantly 13
Hushai 13
exert 13
buried 13
cross 13
89 13
diseases 13
weigh 13
exec@@ 13
aps 13
escaped 13
Num 13
caution 13
ga@@ 13
Working 13
boys 13
adding 13
ISA 13
gro@@ 13
Melchizedek 13
organizational 13
leaven 13
exclaimed 13
dignity 13
sick@@ 13
reacted 13
records 13
forgotten 13
addic@@ 13
ra 13
distribute 13
tradition 13
disputes 13
immortality 13
atory 13
characters 13
psalm 13
Human 13
Poland 13
fault 13
container 13
trait 13
cherished 13
150 13
57 13
assembled 13
starting 13
ples 13
tering 12
ost 12
assisting 12
unmarried 12
perceived 12
reminder 12
aling 12
courts 12
Edenic 12
lam@@ 12
thieves 12
merchants 12
wealthy 12
websites 12
summer 12
ord@@ 12
136 12
endures 12
iring 12
independent 12
arrive 12
oversight 12
Whenever 12
are@@ 12
COUNTRY 12
ORIGIN 12
cies 12
sorry 12
advancing 12
sessions 12
Jerusalem’s 12
tively 12
thrive 12
tab@@ 12
u 12
platform 12
sky 12
bar@@ 12
rebu@@ 12
Maker 12
bright 12
closest 12
pressured 12
sun@@ 12
grand@@ 12
ek@@ 12
pat@@ 12
overseas 12
Buddh@@ 12
consistently 12
financially 12
las@@ 12
abusive 12
roaring 12
disobey 12
prec@@ 12
aled 12
Ver@@ 12
offended 12
revol@@ 12
nice 12
Train 12
Red 12
steward 12
ENT 12
appoint 12
height 12
dew 12
ther 12
None 12
misleading 12
Mat@@ 12
anguish 12
ls 12
eb@@ 12
wor@@ 12
lines 12
inj@@ 12
reinforce 12
anywhere 12
Certainly 12
AT@@ 12
weather 12
smaller 12
options 12
atives 12
dominated 12
Science 12
warrior 12
ecting 12
unbeliever 12
2002 12
machine 12
reliance 12
Aaron’s 12
cure 12
eth 12
genealog@@ 12
mistreated 12
Moab 12
Thank 12
vineyard 12
custo@@ 12
rend@@ 12
ene 12
tun@@ 12
infor@@ 12
considerate 12
gi@@ 12
intend 12
fas@@ 12
hosts 12
comply 12
parental 12
Gradually 12
ner 12
editions 12
hor@@ 12
manuscript 12
147 12
comprehend 12
FROM 12
dating 12
intent 12
chec@@ 12
grap@@ 12
Republic 12
Puerto 12
THEIR 12
lifetime 12
American 12
Br@@ 12
fun 12
exceptional 12
observance 12
eful 12
creative 12
Ter@@ 12
intervene 12
sou@@ 12
thorough 12
prominence 12
dogs 12
wanting 12
outright 12
Rel@@ 12
sticking 12
Everything 12
clar@@ 12
ushing 12
performing 12
Conv@@ 12
legacy 12
sudden 12
reas@@ 12
tle 12
Ezra 12
flourish 12
iding 12
motiv@@ 12
accountable 12
staff 12
conver@@ 12
Over@@ 12
awaits 12
streets 12
joining 12
Full 12
Cyrus 12
reconciled 12
Susan 12
level 12
complex 12
ador@@ 12
marrying 12
crucial 12
searched 12
6,000 12
valley 12
roof 12
whoever 12
color 12
lean 12
presumptuous 12
guards 12
Portuguese 12
theme 12
innermost 12
doc@@ 12
wres@@ 12
Gentile 12
code 12
wood 12
lofty 12
fail@@ 12
counsel@@ 12
honors 12
distr@@ 12
Back 12
ERS 12
fu@@ 12
multi@@ 12
duc@@ 12
translate 12
1931 12
molding 12
ares 12
Praise 12
As@@ 12
Str@@ 12
shepherding 12
itated 12
doors 12
deception 12
fair 12
ght 12
defending 12
Pap@@ 12
eigh@@ 12
mutual 12
treatments 12
despair 12
la 12
Trinity 12
formation 12
feeding 12
idols 12
Very 12
ethnic 12
match 12
GOD 12
advantages 12
locked 12
Ukraine 12
hated 12
Free 12
print 12
discourage 12
ulating 12
Wisdom 12
worries 12
considerable 12
vigor@@ 12
judging 12
ots 12
fewer 12
Dec@@ 12
End@@ 12
admir@@ 12
KGB 12
ick 12
Branch 12
coo@@ 12
alike 12
JW 12
codex 12
pursuit 12
145 12
NG 12
86 12
Live 12
elled 12
Assyrian 12
barely 12
exhorted 12
Bri@@ 12
Web 12
reign@@ 12
ook 12
arriving 12
upbringing 12
iron 12
incomparable 12
pet@@ 12
Maintain 12
papyrus 12
ired 12
Seeing 12
ifying 12
2006 12
break@@ 12
ured 12
injury 12
clothe 12
primacy 12
leg@@ 12
educated 12
indescribable 12
rebuilding 12
tim@@ 12
stri@@ 12
Hosea 12
mb@@ 12
Obviously 12
ear 12
ners 12
frequent 12
sified 12
submission 12
asser@@ 12
stumbled 12
grieving 12
closeness 12
guarding 12
Canaanites 12
promising 12
station 12
unseen 12
steadily 12
Language 12
Tal@@ 12
mainly 12
souled 12
upheld 12
Blessing 12
U.S 12
aries 12
el’s 12
ack@@ 12
ense 12
covenants 12
Afterward 12
myriads 12
prosperity 12
Supreme 12
Dor@@ 12
omed 12
formerly 12
wings 12
soft 12
molded 12
laid 12
unintentional 12
WOR@@ 12
Stop 12
goods 12
waters 12
tiv@@ 12
devastating 12
converse 12
Luke’s 12
eled 12
ME 12
refreshment 12
hy@@ 12
instructors 12
Del@@ 12
bore 12
poll@@ 12
fills 12
Amos 12
attempts 12
ling@@ 12
Upon 12
struc@@ 12
110 12
trigg@@ 12
Centuries 12
’re 12
violate 12
Old 12
War@@ 12
cleanness 12
mothers 12
log@@ 12
endeavored 12
cutting 12
permitted 12
widows 12
bishop 12
decay 12
AT 12
consumed 12
pace 12
64 12
aving 12
medicine 12
Jew 12
ces 12
repented 12
akes 12
pic@@ 12
ter’s 12
driving 11
presenting 11
singleness 11
1971 11
Than 11
separated 11
distribution 11
Haran 11
mother’s 11
ball 11
satanic 11
labeled 11
defense 11
ey 11
refrain 11
my@@ 11
acqu@@ 11
Absalom 11
Sub@@ 11
own@@ 11
rush 11
Teaching 11
mass 11
gre@@ 11
Government 11
day’s 11
tful 11
disappointment 11
ashamed 11
infir@@ 11
beard 11
cli@@ 11
PEOPLE 11
trains 11
cy@@ 11
occupied 11
osity 11
budget 11
ut 11
particip@@ 11
eli@@ 11
comm@@ 11
informed 11
destroying 11
forest 11
V 11
IC@@ 11
predict 11
multitude 11
ung 11
stumble 11
compelled 11
acquired 11
Universal 11
tombs 11
1943 11
seal 11
incor@@ 11
depended 11
reminding 11
window 11
gan@@ 11
SU@@ 11
nic@@ 11
striking 11
stage 11
walks 11
port 11
approves 11
Esther 11
filling 11
design@@ 11
der@@ 11
eld 11
AD@@ 11
spir@@ 11
ensive 11
itious 11
onward 11
uded 11
wrongdoer 11
positions 11
wel@@ 11
uncleanness 11
contemporaries 11
qui@@ 11
Baal 11
lif@@ 11
awaken 11
translator 11
version 11
examines 11
belonging 11
Kenneth 11
isol@@ 11
undo 11
fortified 11
terrified 11
ounds 11
Together 11
1,600 11
ane 11
Sy@@ 11
aul@@ 11
succeeded 11
contemplating 11
offend 11
99 11
kingdoms 11
chariot 11
promptly 11
Sadducees 11
examining 11
hometown 11
ever@@ 11
indec@@ 11
accordingly 11
le’s 11
voices 11
mil@@ 11
rejoiced 11
preferences 11
can’t 11
weighty 11
ple@@ 11
Along 11
globe 11
dar@@ 11
emphasize 11
rains 11
offerings 11
infancy 11
combat 11
operation 11
falsely 11
Leads 11
racial 11
FAITH 11
une 11
splendor 11
disturbed 11
objects 11
0@@ 11
Bi@@ 11
Answers 11
shift 11
merit 11
Mc@@ 11
ew 11
Hel@@ 11
superhuman 11
sixth 11
Em@@ 11
SA@@ 11
400 11
swiftly 11
Nearly 11
gh 11
Benefit 11
calmly 11
o’s 11
ste@@ 11
Ol@@ 11
,000 11
basically 11
ideal 11
relieve 11
interpret 11
prohib@@ 11
heart@@ 11
anced 11
George 11
distinction 11
Men 11
Loyalty 11
shortages 11
troops 11
ignorant 11
buildings 11
anic 11
reassure 11
produces 11
iver@@ 11
hardship 11
meat 11
perf@@ 11
Ph@@ 11
bought 11
dece@@ 11
sion@@ 11
Draw 11
scar@@ 11
lightly 11
Valley 11
receives 11
responds 11
fear@@ 11
exiled 11
Eunice 11
Hearer 11
tool 11
compromising 11
CON@@ 11
TION 11
Close 11
ection 11
regarded 11
afflicted 11
proselytes 11
kn@@ 11
deprive 11
recommended 11
K 11
plea 11
forbidden 11
personalities 11
Ear@@ 11
53 11
presents 11
object 11
touching 11
restricted 11
consult 11
da@@ 11
Pres@@ 11
ans@@ 11
domin@@ 11
unduly 11
restric@@ 11
supporters 11
fiery 11
destructive 11
generations 11
devo@@ 11
dem@@ 11
establishing 11
bus@@ 11
increases 11
mas 11
prevented 11
Marriage 11
lawlessness 11
archaeological 11
motivates 11
sources 11
PR@@ 11
f 11
piece 11
Elisha’s 11
net@@ 11
Throw 11
exemplary 11
CH 11
WA@@ 11
69 11
shocking 11
endeavoring 11
declaration 11
Colossae 11
Taking 11
expelled 11
transform 11
styles 11
foo@@ 11
aching 11
Mal 11
aggressive 11
unjustly 11
marriages 11
Truly 11
Thinking 11
colporteurs 11
Applying 11
leper 11
Ca@@ 11
ake 11
enc@@ 11
remembrance 11
foreigners 11
judgments 11
16th 11
rob@@ 11
aten 11
Otherwise 11
Kevin 11
misled 11
Shebna 11
un 11
consci@@ 11
ft 11
ises 11
Jah 11
parties 11
thinks 11
17@@ 11
0,000 11
pregnant 11
arry 11
wrongs 11
Real@@ 11
recommend 11
pick 11
listens 11
eption 11
CO@@ 11
sounds 11
imitators 11
remembers 11
y’s 11
politics 11
ky 11
eagle 11
Har@@ 11
CAN 11
admonished 11
viol@@ 11
grievous 11
tro@@ 11
males 11
drought 11
talent 11
ayed 11
unprecedented 11
Tabor 11
Getting 11
horses 11
Zedekiah 11
guarantees 11
Abigail 11
dre@@ 11
permits 11
blasphe@@ 11
manage 11
ades 11
birthday 11
erfully 11
turing 11
advertise 11
PI@@ 11
evangelizers 11
classmates 11
ongs 11
Elizabeth 11
Habakkuk 11
139 11
ster@@ 11
copied 11
occup@@ 11
102 11
frustration 11
Kindness 11
inferior 11
tactful 11
mislead 11
afternoon 11
1970 11
View 11
ea 11
undue 11
celebrate 11
Austria 11
ude 11
collection 11
Encyclopedia 11
regions 11
check 11
Ahab’s 11
surviving 11
lists 11
esteem 11
attached 11
spare 11
materialism 11
overcoming 11
95 11
prot@@ 11
oes 11
consume 11
1513 11
at’s 11
footsteps 11
wing 11
employees 11
passes 11
Earlier 11
Devil’s 11
Judg 11
identifying 11
eth@@ 11
tomorrow 11
Wallkill 11
thor@@ 11
exalted 11
Juli@@ 11
desol@@ 11
Middle 11
reasonably 11
benefiting 11
130 11
mel@@ 11
History 11
interpre@@ 11
Initially 11
cafeteria 11
ension 11
female 11
ath 11
seriousness 11
dictionary 11
CI@@ 11
lions 11
dominate 11
Organiz@@ 11
taining 11
Wycliffe 11
enormous 11
weighed 11
SO@@ 11
Immediately 11
trad@@ 11
equipment 11
ole 11
Nic@@ 11
ang 11
50,000 11
cherubs 10
noble 10
kis@@ 10
adjustment 10
WE 10
EV@@ 10
representing 10
ONE 10
inity 10
batt@@ 10
ull 10
rivers 10
Ti@@ 10
beforehand 10
Reg@@ 10
alities 10
proph@@ 10
newcomers 10
Training 10
C 10
intervened 10
unfaithfulness 10
– 10
vir@@ 10
ental 10
displays 10
Lamech 10
link 10
derive 10
hes@@ 10
defined 10
responding 10
namely 10
inn@@ 10
Zion’s 10
ous@@ 10
gently 10
cu@@ 10
gen@@ 10
tactfully 10
ried 10
finest 10
End 10
ANSWER 10
scrutiny 10
1937 10
wishes 10
xing 10
sometime 10
Tony 10
corrupted 10
Mon@@ 10
costs 10
Gomorrah 10
vas@@ 10
reaches 10
PET 10
Self 10
manif@@ 10
ATI@@ 10
ligh@@ 10
detect 10
Prepar@@ 10
emphasizes 10
ves 10
Return 10
perish 10
EN 10
stimulate 10
aves 10
officers 10
bly 10
sadness 10
earthquake 10
criminal 10
moc@@ 10
gent 10
loaded 10
harshly 10
2.@@ 10
uncontrolled 10
hurtful 10
controlling 10
youngest 10
rides 10
Five 10
PH 10
56 10
doctrines 10
kno@@ 10
speed 10
Tri@@ 10
sustained 10
falls 10
607 10
shr@@ 10
depic@@ 10
1958 10
Pol@@ 10
Anyone 10
swept 10
prejudice 10
thoroughly 10
Cy@@ 10
Ser@@ 10
Contr@@ 10
portrayed 10
shoulders 10
crush 10
celibacy 10
undermine 10
1990 10
Russian 10
verb@@ 10
answering 10
Esau 10
ild@@ 10
oming 10
ech@@ 10
pse 10
ane@@ 10
exerts 10
apparent 10
touches 10
pit@@ 10
shock 10
ided 10
giant 10
belonged 10
elevated 10
attract 10
unshakable 10
yours 10
branches 10
tably 10
tempting 10
accompanying 10
IMITATE 10
Lu@@ 10
ther@@ 10
anoint 10
Justice 10
PRO@@ 10
revel@@ 10
Appreci@@ 10
ories 10
dep@@ 10
flour 10
rarely 10
treating 10
latter 10
partners 10
taxes 10
ishes 10
undergoing 10
conform 10
arrogant 10
doesn’t 10
Cor@@ 10
rural 10
ye 10
Near 10
uterus 10
shouting 10
aids 10
thi@@ 10
confidently 10
isting 10
bed@@ 10
drif@@ 10
ved 10
nd@@ 10
Psalms 10
interfaith 10
Days 10
accuracy 10
Follow 10
year@@ 10
trips 10
low@@ 10
Off@@ 10
Hor@@ 10
Offered 10
sticks 10
instinc@@ 10
achiev@@ 10
fies 10
clarified 10
fly 10
Antioch 10
intimate 10
badness 10
Diotrephes 10
heirs 10
collected 10
cler@@ 10
attachment 10
produc@@ 10
seless 10
camels 10
eling 10
manna 10
frustrated 10
synagogues 10
greet@@ 10
Pontius 10
excitement 10
prodigal 10
waste 10
lux@@ 10
sobering 10
900 10
curious 10
romantic 10
form@@ 10
gentle 10
WAS 10
1941 10
keep@@ 10
appealed 10
nurture 10
circumcision 10
bank 10
plain 10
rever@@ 10
accomplishments 10
product 10
tery 10
ides 10
decade 10
concept 10
t’s 10
fathers 10
ony 10
worrying 10
Don’t 10
victorious 10
products 10
composed 10
97 10
simplified 10
verb 10
lonely 10
permanently 10
till 10
xes 10
marks 10
sted 10
restoring 10
pleaded 10
pow@@ 10
sigh@@ 10
cam@@ 10
ject 10
compar@@ 10
olive 10
mast@@ 10
villages 10
learners 10
cleanse 10
eh@@ 10
esome 10
TER@@ 10
CE 10
confront 10
cows 10
solved 10
convenient 10
materialized 10
127 10
nursing 10
tar@@ 10
Nazi 10
ertain 10
Numbers 10
youthful 10
representative 10
kingly 10
OK 10
celebrations 10
parallel 10
disobedient 10
fruits 10
airs 10
Happ@@ 10
caregivers 10
Walter 10
Pati@@ 10
defenses 10
seldom 10
respec@@ 10
ort 10
wrongdoers 10
ghts 10
gems 10
unc@@ 10
national@@ 10
token 10
payment 10
planned 10
Ba@@ 10
fre@@ 10
US 10
Se@@ 10
Korea 10
ya@@ 10
Frank@@ 10
fur@@ 10
onement 10
massive 10
los@@ 10
Ste@@ 10
wondering 10
Ohio 10
seize 10
suicide 10
Mill@@ 10
Suddenly 10
Italy 10
ders 10
wn 10
failing 10
J 10
ritual 10
distressed 10
ignored 10
Toward 10
rif@@ 10
mean@@ 10
grandchildren 10
Emperor 10
mony 10
wore 10
palace 10
Taze 10
contacted 10
strategy 10
entertained 10
succumb@@ 10
Sisera’s 10
en’s 10
appeals 10
Mor@@ 10
sanctify 10
ators 10
const@@ 10
waver@@ 10
subjected 10
mist@@ 10
discouraging 10
document 10
essly 10
possibilities 10
useless 10
riders 10
solely 10
struggles 10
fishing 10
Dublin 10
firstfruits 10
ected 10
donated 10
sett@@ 10
dramatic 10
Samaria 10
commenting 10
shape 10
drunkenness 10
Pay 10
Rebekah’s 10
new@@ 10
w17.@@ 10
department 10
employer 10
ab 10
migr@@ 10
mustard 10
TH 10
journal 10
itions 10
short@@ 10
Und@@ 10
professional 10
aph@@ 10
inches 10
impart 10
spiritism 10
parent’s 10
Syria 10
row@@ 10
manslayer 10
receptive 10
eeding 10
recognizes 10
stu@@ 10
figuratively 10
seemingly 10
Pos@@ 10
eep 10
anticip@@ 10
uncomfortable 10
lications 10
scattered 10
pictured 10
extending 10
dict@@ 10
approve 10
disobeying 10
ban@@ 10
foundations 10
Willingly 10
WHY 10
HAVE 10
skin 10
tending 10
laugh@@ 10
journe@@ 10
vigilant 10
mill@@ 10
clouds 10
deserved 10
1952 10
14@@ 10
forgave 10
will@@ 10
instituted 10
Baptism 10
loaves 10
progressing 10
settling 10
persistent 10
law@@ 10
staying 10
curse 10
pers@@ 10
Out@@ 10
agers 10
tible 10
2007 10
2003 10
strife 10
motor@@ 10
63 10
hu@@ 10
camps 10
62 10
sing@@ 10
Answ@@ 10
Bethlehem 10
design 10
conceive 10
hiding 10
,@@ 10
broad 10
cov@@ 10
concludes 10
moments 10
ple 10
differently 10
contin@@ 10
fights 10
theolog@@ 10
fits 10
bear@@ 10
upcoming 10
ug@@ 10
Shane 10
1956 10
resort 10
7,000 10
clock 10
leadership 10
’t 9
essing 9
1948 9
counseled 9
Stand 9
vic@@ 9
schooling 9
Ethiopians 9
disobeyed 9
had@@ 9
milk 9
ger 9
sites 9
obstacle 9
flat 9
yearn 9
eel 9
mani@@ 9
enriched 9
commemor@@ 9
’ve 9
plagues 9
chores 9
Comfort 9
lor@@ 9
criminals 9
households 9
justify 9
Jimmy 9
mirrors 9
ric@@ 9
met@@ 9
polit@@ 9
parted 9
lements 9
condem@@ 9
reflection 9
featured 9
condemn 9
ARE 9
goddess 9
occurr@@ 9
GI@@ 9
Philistine 9
horri@@ 9
solutions 9
Assyrians 9
moon 9
X@@ 9
92 9
chast@@ 9
hind@@ 9
Bad 9
Wor@@ 9
tens 9
truck 9
div@@ 9
ria 9
echo 9
flourish@@ 9
less@@ 9
watch@@ 9
Josiah’s 9
Cath@@ 9
Mus@@ 9
mines 9
nutr@@ 9
rig@@ 9
substanti@@ 9
correctly 9
onal 9
dge 9
nec@@ 9
Cher@@ 9
devour 9
mobile 9
Nat@@ 9
roving 9
clothed 9
tional 9
brokenhearted 9
flirting 9
sheep@@ 9
Ten 9
Friend@@ 9
Islands 9
Fi@@ 9
bro@@ 9
Goliath’s 9
unnoticed 9
fascinating 9
demonstration 9
correc@@ 9
hum@@ 9
ey@@ 9
ock 9
roc@@ 9
greed@@ 9
mari@@ 9
ju@@ 9
TIM 9
separating 9
in’s 9
versely 9
cred@@ 9
establishment 9
Paris 9
heir 9
Sur@@ 9
maker 9
ai 9
Thessalonica 9
unreasonable 9
adminis@@ 9
alleg@@ 9
introduce 9
ittingly 9
oping 9
Nor@@ 9
MANY 9
gardener 9
Creator’s 9
2010 9
heavily 9
phonograph 9
horiz@@ 9
doubtless 9
seats 9
anted 9
uncircumcised 9
Gentiles 9
imply 9
debates 9
praised 9
puzzling 9
sil@@ 9
Name 9
sible 9
ituting 9
builds 9
distinct 9
communic@@ 9
nde@@ 9
Kyrgyz 9
characterized 9
loneliness 9
moment@@ 9
Johnny 9
mee@@ 9
ution@@ 9
P 9
Mag@@ 9
uries 9
helpers 9
persevered 9
unaware 9
Choose 9
hill 9
lovely 9
notices 9
du@@ 9
ership 9
ternal 9
University 9
solemn 9
defin@@ 9
arises 9
urr@@ 9
Elias 9
excuse 9
temp@@ 9
honorable 9
leng@@ 9
thy 9
beg 9
stewar@@ 9
capital 9
insist 9
dia 9
refine 9
pros@@ 9
weakened 9
ok@@ 9
formidable 9
real@@ 9
istically 9
item 9
icate 9
newspapers 9
trumpet 9
rent 9
tex@@ 9
oring 9
scen@@ 9
distinguished 9
district 9
surge@@ 9
educ@@ 9
ancestor 9
bos@@ 9
Amalekites 9
humanity 9
disappointments 9
SE@@ 9
expose 9
malicious 9
refusing 9
persu@@ 9
Beyond 9
App@@ 9
Foc@@ 9
ood 9
ruined 9
peace@@ 9
itutes 9
diagnosed 9
Professor 9
shadow 9
Federico 9
ranks 9
soundness 9
eter@@ 9
smooth 9
sy 9
umes 9
Aug 9
Bear 9
market@@ 9
gradu@@ 9
besides 9
victories 9
Nabal 9
sist@@ 9
Thankfully 9
anticipated 9
ulation 9
sta@@ 9
port@@ 9
tling 9
Ind@@ 9
scales 9
survivors 9
immer@@ 9
encountered 9
retirement 9
rejecting 9
convinces 9
denar@@ 9
book@@ 9
rop@@ 9
wr@@ 9
une@@ 9
133 9
prevail 9
Anointed 9
2005 9
coin 9
rooms 9
wrath 9
mystery 9
wart 9
Nin@@ 9
ancestors 9
Guide 9
individually 9
Zephaniah 9
tied 9
corulers 9
itu@@ 9
dog@@ 9
trustworthy 9
Global 9
zz@@ 9
follower 9
ware 9
Members 9
burst 9
tures 9
bold 9
98 9
persons 9
ario 9
boundaries 9
criticism 9
unwilling 9
The@@ 9
siege 9
dependent 9
sealed 9
humor 9
ication 9
appropriately 9
son’s 9
smok@@ 9
sav@@ 9
pp@@ 9
Elihu 9
reluctant 9
respon@@ 9
ón 9
drama 9
art 9
contract 9
athetic 9
Differ@@ 9
lear@@ 9
descendant 9
postpone 9
10@@ 9
anniversary 9
Husbands 9
iving 9
adequate 9
cloud 9
navig@@ 9
bol@@ 9
demands 9
ome 9
sling 9
decreed 9
Spiritually 9
excited 9
é 9
pe 9
ud 9
destination 9
Anxiety 9
status 9
mur@@ 9
ver 9
thoughtful 9
discipleship 9
annih@@ 9
Martin 9
philosophy 9
fraud 9
selling 9
brazen 9
END 9
impul@@ 9
inning 9
Oct 9
ight 9
Pioneers 9
person@@ 9
concentration 9
PAR@@ 9
links 9
king’s 9
Lo@@ 9
pping 9
locations 9
Amy 9
hly 9
regional 9
radi@@ 9
JO@@ 9
plane 9
Philistines 9
crimin@@ 9
intact 9
Safeguard 9
via 9
citizenship 9
complement 9
doub@@ 9
fare 9
stop@@ 9
controlled 9
binding 9
ification 9
implies 9
arrives 9
flocks 9
advoc@@ 9
diver@@ 9
miserable 9
reli@@ 9
equivalent 9
poetry 9
Coun@@ 9
pressed 9
ka 9
11@@ 9
teen 9
rejoices 9
partaking 9
Prophets 9
dignified 9
weaker 9
vessel 9
spoil 9
intellectual 9
Tattenai 9
oversee 9
pu@@ 9
celebrated 9
Nathanael 9
esting 9
Changes 9
stealing 9
corner 9
Riana 9
crip@@ 9
Viol@@ 9
uniting 9
compel 9
boring 9
flowers 9
op 9
partakers 9
citizen 9
adv@@ 9
Bezalel 9
absence 9
stream 9
outback 9
handling 9
prevailed 9
ero@@ 9
crow@@ 9
ugg@@ 9
deepens 9
Nepal 9
rose 9
functions 9
recognizing 9
washed 9
windstorm 9
surpassing 9
Will@@ 9
earliest 9
mistakenly 9
pun@@ 9
needless 9
author@@ 9
investi@@ 9
matic 9
aining 9
intimacy 9
sof@@ 9
Eve’s 9
clos@@ 9
Library 9
get@@ 9
sheba 9
slaughter 9
Mairambubu 9
fame 9
neighboring 9
senior 9
confusion 9
recovery 9
kind@@ 9
105 9
stir 9
raged 9
abys@@ 9
Evangelizers 9
metal 9
oper@@ 9
announcement 9
reunited 9
North 9
ograp@@ 9
sections 9
laugh 9
seeds 9
breath 9
Bir@@ 9
We@@ 9
Jeremiah’s 9
AH 9
pronounced 9
ceremon@@ 9
largely 9
persist 9
February 9
isted 9
tactics 9
Devel@@ 9
humili@@ 9
silence 9
inappropriate 9
impl@@ 9
disregard 9
Margaret 9
Individuals 9
requ@@ 9
Circuit 9
displeasing 9
ty@@ 9
audi@@ 9
King@@ 9
Lev@@ 9
traffic 9
neighborhood 9
liv@@ 9
ONS 9
tations 9
LO@@ 9
congregation’s 9
fath@@ 9
heeding 9
Joy 9
reassurance 9
recoun@@ 9
conveyed 9
1960 9
periods 9
frightened 9
surprising 9
Miriam 9
esight 9
Ann@@ 9
bal@@ 9
neighborly 9
entr@@ 9
wept 9
118 9
obligations 9
deceased 9
confessed 9
Pennsylvania 9
FOR 9
Or@@ 9
enced 9
demanded 9
licit 9
direc@@ 9
quest 9
symbol 9
perc@@ 9
river 9
descent 9
forming 9
MO@@ 9
prefer@@ 9
vulnerable 9
Mediterranean 9
cop@@ 9
shrine 9
parall@@ 9
eeded 9
Ger@@ 9
complained 9
instr@@ 9
unning 9
prone 9
Especially 9
awareness 9
transmitted 9
nings 9
itional 9
flat@@ 9
accomplishing 9
exal@@ 9
underlying 9
likes 9
entrance 8
sport 8
hotel 8
approachable 8
umble 8
battles 8
concentrate 8
improving 8
Better 8
recovered 8
argue 8
ase 8
objec@@ 8
ison 8
Tw@@ 8
Jo@@ 8
tres@@ 8
relieved 8
pulated 8
naive 8
et’s 8
Sup@@ 8
dreadful 8
greeting 8
possessed 8
Ezekiel’s 8
Shepherd 8
ising 8
exposure 8
seeming 8
cribed 8
rape 8
Women 8
fab@@ 8
incite 8
sensible 8
fter 8
ount 8
straight@@ 8
beast 8
foregoing 8
elihood 8
Prepare 8
inger 8
slander 8
Tuvalu 8
ore@@ 8
skillfully 8
frag@@ 8
79 8
59 8
decent 8
worksheet 8
eve 8
gence 8
guardi@@ 8
religiously 8
ible 8
Agrippa 8
assign 8
club 8
Russell’s 8
decline 8
hed 8
Toñi 8
Euphrates 8
smallest 8
adversary 8
impulses 8
Scripturally 8
sanc@@ 8
ENCE 8
secretly 8
ensu@@ 8
foreigner 8
province 8
Reflect 8
Christian’s 8
121 8
adjusting 8
liberated 8
RES@@ 8
foremost 8
brochures 8
opposing 8
volume 8
goat 8
sounded 8
trace 8
appreh@@ 8
eastern 8
addressing 8
exiles 8
tin@@ 8
pal@@ 8
relent@@ 8
inging 8
forgives 8
Pi@@ 8
irrit@@ 8
prev@@ 8
MA@@ 8
Showing 8
deepest 8
anding 8
1953 8
upro@@ 8
94 8
transforming 8
fearlessly 8
psych@@ 8
discre@@ 8
PROV 8
fire@@ 8
Author 8
craving 8
ble@@ 8
ev 8
Hope 8
Han@@ 8
poses 8
upholding 8
comparing 8
1955 8
vowed 8
incapable 8
oppress@@ 8
woven 8
oner 8
que 8
preservation 8
lit 8
indiffer@@ 8
tone 8
Bo@@ 8
fors@@ 8
astounded 8
distract 8
influ@@ 8
conclus@@ 8
96 8
reverence 8
abb@@ 8
removing 8
festivals 8
La@@ 8
ocean 8
taunted 8
rabb@@ 8
ult@@ 8
affections 8
author 8
mon 8
Anita 8
Fr@@ 8
101 8
unned 8
Tetragrammaton 8
alized 8
Jonathan’s 8
informally 8
hic 8
Genuine 8
Delphine 8
character@@ 8
Let’s 8
communicated 8
lame 8
prospective 8
Samaritans 8
realizing 8
vengeance 8
diversity 8
summoned 8
expecting 8
barley 8
pregnancy 8
handsome 8
spot@@ 8
prompt 8
85 8
decisively 8
adulter@@ 8
criticize 8
accomplishes 8
Share 8
fan@@ 8
Uncle 8
2018 8
runs 8
barrier 8
attacked 8
grasping 8
mourn 8
Includ@@ 8
hills 8
Appropri@@ 8
defended 8
back@@ 8
rearing 8
Su@@ 8
kills 8
uncertain 8
Abner 8
Conf@@ 8
chron@@ 8
seeks 8
redee@@ 8
dedic@@ 8
dragnet 8
converted 8
submitting 8
embarrassing 8
intentions 8
efly 8
flu 8
testify 8
policy 8
ib@@ 8
ridden 8
insulted 8
blocks 8
nearing 8
unfamiliar 8
photograp@@ 8
rewarder 8
charges 8
l’s 8
repe@@ 8
disappoin@@ 8
stat@@ 8
excessive 8
Babylon’s 8
ateful 8
throwing 8
yield 8
ere 8
kle 8
ster 8
onto 8
utely 8
divinely 8
Col@@ 8
Helping 8
Aramaic 8
Possibly 8
grudge 8
burnt 8
counts 8
film 8
debts 8
workplace 8
schoolmates 8
Syntyche 8
oppressed 8
special@@ 8
drunk 8
relaxed 8
intention 8
game 8
inti@@ 8
Courage 8
character 8
fleeing 8
experts 8
counterfeit 8
neglect 8
splendid 8
confined 8
betrayed 8
volunteered 8
Usually 8
sacrificed 8
abstain 8
catastro@@ 8
Uriah 8
1982 8
computers 8
arer 8
market 8
affliction 8
sla@@ 8
Demetrius 8
bigger 8
unthinkable 8
arian 8
ects 8
golden 8
professor 8
1992 8
lodging 8
draft 8
mess@@ 8
lec@@ 8
pilgri@@ 8
yl@@ 8
picked 8
histor@@ 8
ici@@ 8
LD 8
stressed 8
ree@@ 8
104 8
repro@@ 8
patri@@ 8
Scientists 8
therapy 8
restrictions 8
faithless 8
mining 8
Need 8
writes 8
Neh 8
surprisingly 8
Royal 8
constructed 8
stric@@ 8
dimin@@ 8
directs 8
route 8
hospit@@ 8
fatal 8
Prac@@ 8
warmth 8
fil@@ 8
1944 8
sanctuary 8
ber 8
trade 8
helpless 8
preva@@ 8
Sarai 8
emergency 8
killing 8
speakers 8
resident 8
invaluable 8
mortal 8
.5 8
spee@@ 8
crash 8
flooded 8
ama@@ 8
Antoine 8
foretells 8
Caesar 8
tern 8
medi@@ 8
embarrassed 8
sob@@ 8
ress 8
Wickedness 8
Mee@@ 8
expansion 8
tier 8
inkhorn 8
lar@@ 8
persecute 8
ordin@@ 8
examined 8
stepping 8
nar@@ 8
reduced 8
0,000,000 8
sink 8
Jesse 8
termin@@ 8
skill 8
del 8
appendix 8
nurse 8
Euodia 8
usion 8
obsc@@ 8
gravity 8
mixed 8
parchment 8
smell 8
PH@@ 8
Right 8
songbook 8
characteristic 8
pass@@ 8
pope 8
riding 8
typ@@ 8
unevenly 8
Orig@@ 8
Purpose 8
celebration 8
long@@ 8
angs 8
urious 8
unite 8
Jonah 8
ascended 8
pillars 8
quoting 8
87 8
dig 8
onlookers 8
supp@@ 8
testi@@ 8
JESUS 8
reat@@ 8
cornerstone 8
cloth 8
Rachel’s 8
prey 8
visualize 8
ele@@ 8
sor@@ 8
plan@@ 8
mitting 8
shortcomings 8
196@@ 8
2016 8
On@@ 8
ayers 8
identi@@ 8
fic@@ 8
calcul@@ 8
8,000 8
disrespectful 8
noise 8
1999 8
legs 8
Naz@@ 8
flight 8
Nazareth 8
Macedonia 8
Lives 8
eyewitnesses 8
automatically 8
clean@@ 8
advertising 8
planes 8
Discernment 8
futile 8
stra@@ 8
awak@@ 8
nor@@ 8
applause 8
RED 8
inces 8
1989 8
predicament 8
newborn 8
unloving 8
ei@@ 8
shoo@@ 8
Oholiab 8
grounds 8
disrupt 8
accum@@ 8
theast 8
extends 8
Midi@@ 8
groan@@ 8
receiver 8
Might 8
isions 8
anging 8
ballet 8
institutions 8
Te@@ 8
divisive 8
cm 8
opponents 8
threaten 8
disown 8
prehuman 8
egg 8
ignorance 8
cards 8
sensed 8
continu@@ 8
exer@@ 8
Given 8
climb@@ 8
altogether 8
linen 8
Gener@@ 8
absor@@ 8
bone 8
succ@@ 8
masters 8
restraint 8
Strengthen 8
Abishai 8
bars 8
106 8
disagreements 8
philosophers 8
fragments 8
eed 8
confir@@ 8
Bath 8
positively 8
Ramah 8
minute 8
expanding 8
Irina 8
minimize 8
That’s 8
imitated 8
Themselves 8
brick 8
Florida 8
calamities 8
recipe 8
lord 8
ank@@ 8
1984 8
arguing 8
mistaken 8
Salvation 8
lest 8
AM@@ 8
griev@@ 8
measured 8
predic@@ 8
jo@@ 8
fosters 8
ert 8
graduated 8
curr@@ 8
dness 8
mentioning 8
accusation 8
Dathan 8
Abiram 8
prostitute 8
secondary 8
contending 8
sac@@ 8
watches 8
coins 8
arranging 8
damaged 8
shop 8
pause 8
tasted 8
1939 8
shame 8
priv@@ 8
virtually 8
ope 8
coast 8
persecut@@ 8
treacherous 8
Suffering 8
merits 8
aped 8
Beth@@ 8
dropped 8
class@@ 8
decrees 8
shield 8
Associ@@ 8
Dew 8
uting 8
Sennacherib 8
HE@@ 8
deaths 8
reconciliation 8
beautifully 8
Joy@@ 8
channel 8
una@@ 8
hal@@ 8
Surv@@ 8
somehow 8
Hund@@ 8
Sa@@ 8
recordings 8
circumstance 8
mile 8
,000,000 8
Communist 8
wave 8
indefinitely 8
visitor 8
inding 8
impos@@ 8
Writing 8
sentiments 8
fervently 8
Wendy 8
adulthood 8
interchange 8
profession 8
figure 8
ren 8
chi@@ 8
descended 8
ool 8
roles 8
ANCE 8
wounds 8
predicted 8
ny 8
tain@@ 8
realities 8
kid@@ 8
nearest 8
bak@@ 8
Bas@@ 8
een 8
disposal 8
plying 8
mathe@@ 8
Commun@@ 8
boldness 8
Ful@@ 8
Council 8
insignificant 8
myrrh 8
subsequent 8
ras@@ 8
ania 8
Spec@@ 8
Karen 8
Someone 8
misunderstood 8
Jab@@ 8
endless 8
der’s 8
employed 8
tran@@ 8
eli 8
kers 8
erless 8
1979 8
ital 8
unbaptized 8
jail 8
stressful 8
Côte 8
d’Ivoire 8
fool 8
tened 8
ift 8
misunderstandings 8
overlooked 7
Finding 7
murder@@ 7
Fir@@ 7
impelled 7
Few 7
childless 7
Hur 7
hill@@ 7
fra@@ 7
corners 7
Ben 7
dispute 7
base 7
eks 7
listener 7
rank 7
crowned 7
iles 7
wound 7
sects 7
battling 7
weary 7
centers 7
unconscious 7
drove 7
Obe@@ 7
ine@@ 7
centuri@@ 7
disturbing 7
success@@ 7
Alexandra 7
tense 7
Bill 7
Potiphar’s 7
apping 7
impending 7
Unless 7
wool 7
vent@@ 7
frustrating 7
installed 7
emer@@ 7
Cour@@ 7
Hosp@@ 7
1946 7
Publishers 7
ections 7
Encourag@@ 7
reserv@@ 7
Louis 7
rance 7
sens@@ 7
raging 7
isms 7
bitumen 7
pearls 7
riv@@ 7
alienated 7
consulting 7
figures 7
actor 7
Deluge 7
antidote 7
81 7
notion 7
ree 7
vit@@ 7
Athens 7
ew@@ 7
wonders 7
archives 7
na 7
convictions 7
pt 7
prime 7
exception 7
recommends 7
of@@ 7
$ 7
unfulfilled 7
Problems 7
Colorado 7
Queensland 7
int 7
deser@@ 7
disrespect 7
couple’s 7
Stud@@ 7
recommendations 7
Friends 7
VIOL@@ 7
PE@@ 7
submitted 7
achieved 7
Dictionary 7
cub@@ 7
healings 7
joy@@ 7
ills 7
Design@@ 7
enthroned 7
host@@ 7
dragon 7
mul@@ 7
quo@@ 7
aches 7
76 7
General 7
inhab@@ 7
obliged 7
betr@@ 7
remarks 7
Queen 7
deprived 7
intensi@@ 7
guaranteed 7
inations 7
diff@@ 7
ual@@ 7
degrad@@ 7
know@@ 7
á@@ 7
addresses 7
frightening 7
enh@@ 7
assault 7
stationed 7
techni@@ 7
ox@@ 7
Stadium 7
meditated 7
reinstated 7
1991 7
dozens 7
muster 7
predictions 7
hop@@ 7
hung 7
unkind 7
separ@@ 7
JOHN 7
tie 7
woo@@ 7
compul@@ 7
gras@@ 7
high@@ 7
nal 7
collector 7
Simon 7
winter 7
leavened 7
luxury 7
push 7
practic@@ 7
spokesman 7
stumbling 7
Referring 7
delivering 7
heritage 7
IMA@@ 7
INE 7
Poverty 7
hesitant 7
dele@@ 7
proced@@ 7
strict 7
2,@@ 7
Bless@@ 7
taun@@ 7
ape 7
Appendix 7
uments 7
iter@@ 7
Ribeiro 7
expanded 7
worthily 7
president 7
commit@@ 7
gment 7
1800 7
nation@@ 7
baseball 7
accep@@ 7
chap 7
1957 7
LOV@@ 7
a·gaʹpe 7
puted 7
insults 7
patriarchs 7
initi@@ 7
categ@@ 7
mech@@ 7
08 7
09 7
sci@@ 7
oy@@ 7
asting 7
immense 7
Strong 7
itations 7
RI@@ 7
Child 7
PUR@@ 7
POSE 7
dship 7
Youth 7
Id@@ 7
endeavors 7
Rul@@ 7
isolation 7
ef@@ 7
endearing 7
morality 7
stim@@ 7
reinforced 7
blos@@ 7
tele@@ 7
inactive 7
spot 7
thrill 7
ood@@ 7
astonished 7
amas@@ 7
complet@@ 7
accessible 7
warr@@ 7
saddened 7
omy 7
olding 7
neat 7
Dav@@ 7
prospec@@ 7
depos@@ 7
simpler 7
selfishly 7
shaped 7
aven 7
deepened 7
rebuild 7
Judaism 7
UR@@ 7
potentially 7
expert 7
acent 7
gated 7
Wisely 7
barr@@ 7
sum 7
foot@@ 7
validated 7
furious 7
engine 7
ink 7
plot 7
ation@@ 7
gir@@ 7
half@@ 7
Loyal 7
Serv@@ 7
vig@@ 7
Lana 7
2017 7
attentively 7
interv@@ 7
attrib@@ 7
ken 7
cultivated 7
admire 7
secondhand 7
cooperating 7
clergymen 7
wat@@ 7
77 7
Jeho@@ 7
charged 7
if@@ 7
discreetly 7
simil@@ 7
onds 7
jar 7
Part 7
Cesar 7
California 7
Dra@@ 7
nam@@ 7
Feeling 7
heartened 7
arro@@ 7
let@@ 7
employ@@ 7
Rece@@ 7
Educ@@ 7
leaning 7
COL 7
Barzillai 7
OUR 7
stores 7
publish 7
doll@@ 7
liar 7
proclamation 7
Mano@@ 7
Ammonites 7
dynamic 7
instig@@ 7
quotes 7
scor@@ 7
nourish@@ 7
uttered 7
torment 7
Luther 7
thir@@ 7
emi@@ 7
disc@@ 7
booklet 7
compet@@ 7
ixes 7
fir@@ 7
dro@@ 7
azing 7
inexperienced 7
conceal 7
implied 7
astray 7
majes@@ 7
ound@@ 7
Less 7
Index 7
frontal 7
DOES 7
egg@@ 7
allow@@ 7
Soci@@ 7
apologized 7
I’ll 7
quotations 7
Hannah’s 7
amid 7
barren 7
Co@@ 7
amazement 7
farmer 7
Willie 7
unthankful 7
Sinai 7
analy@@ 7
disabled 7
KING 7
brilli@@ 7
communicating 7
Honor 7
ilities 7
Prove 7
tress 7
embraced 7
ees 7
harbor 7
passer@@ 7
stupid 7
13@@ 7
antitypical 7
illnesses 7
pronoun@@ 7
cements 7
entic@@ 7
night@@ 7
voluntarily 7
tips 7
dless 7
contributing 7
colleagues 7
lessness 7
mined 7
commo@@ 7
Discipline 7
comfor@@ 7
tenderly 7
141 7
enger 7
Meditate 7
estee@@ 7
LY 7
asc@@ 7
stranger 7
pre 7
Columb@@ 7
ruins 7
Tokmok 7
QUES@@ 7
instill 7
Abram 7
exhaus@@ 7
tain 7
question@@ 7
1993 7
archaeologists 7
messages 7
Disfellowshipping 7
ald 7
unch 7
ulations 7
nests 7
Hypoc@@ 7
divor@@ 7
1920 7
BY 7
dignifies 7
enticed 7
Pacific 7
commitment 7
babies 7
ruining 7
supplied 7
1922 7
125 7
88 7
comprehension 7
weigh@@ 7
04 7
secretary’s 7
foresee 7
governmental 7
Kenya 7
courty@@ 7
electricity 7
celebrating 7
lovable 7
soothing 7
Contro@@ 7
efully 7
cultural 7
campaigns 7
brut@@ 7
bath 7
lawful 7
sincerity 7
smiled 7
shi@@ 7
UN@@ 7
aloud 7
dismissed 7
vividly 7
introduc@@ 7
magn@@ 7
Chris 7
immigrant 7
bags 7
qual@@ 7
TEACHINGS 7
domestics 7
recipi@@ 7
obtaining 7
indul@@ 7
jump 7
veget@@ 7
fol@@ 7
imple@@ 7
autom@@ 7
wom@@ 7
justified 7
realizes 7
torn 7
wp16.@@ 7
blow 7
unfor@@ 7
giv@@ 7
transfer 7
Power 7
itute 7
Jairus 7
itted 7
diet 7
74 7
sayings 7
supreme 7
cou@@ 7
suit 7
Advert@@ 7
counting 7
concer@@ 7
uncle 7
cham@@ 7
sday 7
urable 7
soci@@ 7
wartime 7
scrip@@ 7
accidental 7
glance 7
whis@@ 7
questioning 7
precisely 7
Claus 7
testing 7
Denmark 7
moun@@ 7
Wal@@ 7
disloyal 7
puffed 7
Tell 7
celestial 7
Origin@@ 7
gos@@ 7
Richard 7
stepped 7
philosophies 7
eldest 7
potter 7
rampant 7
onally 7
ridic@@ 7
uled 7
Levites 7
affor@@ 7
mountain@@ 7
adolescent 7
rushed 7
beasts 7
thriving 7
irs 7
kest 7
adolescence 7
Manasseh 7
ido@@ 7
satur@@ 7
Bethzatha 7
TY 7
1962 7
Lilongwe 7
fo@@ 7
master’s 7
week@@ 7
hid 7
sluggish 7
EX@@ 7
thly 7
fertile 7
func@@ 7
fee@@ 7
jewelry 7
onomy 7
lyric@@ 7
flir@@ 7
earthquakes 7
antitypes 7
heartache 7
pearl 7
sland@@ 7
Feb 7
condemnation 7
encies 7
frankly 7
ocr@@ 7
magic 7
00,000 7
aud@@ 7
door@@ 7
sung 7
detestable 7
ko 7
1938 7
extor@@ 7
Persia 7
Milton 7
Henschel 7
600 7
th’s 7
ilitating 7
ach@@ 7
builders 7
advert@@ 7
seasons 7
divid@@ 7
fertili@@ 7
utensils 7
Johannes 7
drun@@ 7
acknowledging 7
gun 7
evol@@ 7
sustenance 7
purif@@ 7
star 7
researchers 7
dad 7
eted 7
soil 7
Cul@@ 7
dle 7
displeased 7
utions 7
malleable 7
68 7
Build 7
devious 7
1870 7
captives 7
pioneered 7
progressive 7
fri@@ 7
Battle 7
Bap@@ 7
cries 7
Wicked 7
perseverance 7
commanding 7
thres@@ 7
pris@@ 7
Thousands 7
Exercise 7
gas 7
estry 7
Rudolf 7
Gra@@ 7
ich@@ 7
West 7
candidates 7
ials 7
titles 7
denied 7
confinement 7
purchased 7
Cr@@ 7
deciding 7
argued 7
beings 7
induce 7
diminish 7
existing 7
northwest 7
provoked 7
Understanding 7
insis@@ 7
nel 7
China 7
planted 7
Savior 7
Gehazi 7
hard@@ 7
Mas@@ 7
stretched 7
Minor 7
nobody 7
Riches 7
Tur@@ 7
complaint 7
anim@@ 7
wors@@ 7
critic@@ 7
penetr@@ 7
allevi@@ 7
excessively 7
Ze@@ 7
ignoring 7
thanked 7
treas@@ 7
bottom 7
Jason 7
kets 7
consulted 7
celebrities 7
solidly 7
1945 7
TUR@@ 7
collapse 7
flag 7
teeth 7
ested 7
dishonesty 7
fragrances 7
stretch 7
city’s 7
weekends 7
Similar 7
fearful 7
desert 7
searches 7
Admittedly 7
ett 7
petition 7
Lefèvre’s 7
narr@@ 7
vill@@ 7
Maybe 7
harmoniously 7
ocal 7
Jenny 7
dist@@ 7
amples 7
Jos@@ 7
designs 7
Vulgate 7
Braille 7
hindered 7
minis@@ 7
relax 7
circumcised 7
directives 7
exper@@ 7
pursued 7
treats 7
housing 7
refugee 7
1974 7
depicted 7
enched 7
dire 7
acad@@ 7
Ishmael 7
Success 7
orb@@ 7
phi@@ 7
Remembering 7
underestimate 7
largest 7
ide@@ 7
requested 7
psal@@ 7
licated 7
inscription 7
queen 7
QUESTIONS 7
documents 7
measuring 7
Modern 7
stresses 7
suit@@ 7
corpse 7
oppressive 7
gambling 7
funeral 7
placing 7
Court 7
LU@@ 7
encam@@ 7
carp@@ 7
Sweden 7
trav@@ 7
distorted 7
reds 7
protecting 7
Beh@@ 7
admired 7
Divine 7
preferred 7
traces 7
Am@@ 7
where@@ 7
British 7
tains 7
indigenous 7
fatherless 7
sympathy 7
ron 7
Person@@ 7
accidents 7
Meaning 7
reactions 7
demonstrates 7
Rejoice 7
embar@@ 7
susp@@ 7
prisons 7
lac@@ 7
Uzziah 7
Tract 7
contempl@@ 7
underscore 7
elling 7
borders 7
UD@@ 7
Northern 7
attac@@ 7
aded 7
physic@@ 7
250 7
ork 7
Sept 7
Seeking 7
flexible 7
gatherings 7
mails 7
fam@@ 7
Bu@@ 7
Australian 7
treasured 7
trialsome 7
Forgive 7
heartening 7
fig@@ 7
intrigued 7
definition 7
ant’s 7
fal@@ 7
Mesopotamia 7
beside 7
jailer 7
ker 7
Ever@@ 7
Britannica 7
interrup@@ 7
lia 7
overwhel@@ 7
agonizing 7
marv@@ 7
bishops 7
sustaining 7
sower 7
gri@@ 7
commits 7
vacation 7
ANG@@ 7
TIES 7
ressing 7
storing 7
resp@@ 7
harvesting 7
Alex 7
puzz@@ 7
retired 7
climax 7
expel 7
eptive 7
supportive 7
bribe 7
nur@@ 7
insurance 7
advertis@@ 7
sleep@@ 7
wolves 7
Arch@@ 7
Bro@@ 7
oe 7
Nov 7
trend 7
CC@@ 7
anti@@ 7
Bal@@ 7
beg@@ 7
Review 7
differed 7
mour@@ 7
pect 7
contaminated 7
lasted 7
Alan 7
Considering 7
baker 7
exhortation 7
realization 7
plus 7
sip 7
rav@@ 7
ff 7
trated 7
committing 7
accepts 7
distor@@ 7
Jack 7
enthusiastic 7
earch 7
galaxies 7
estingly 6
tific@@ 6
arous@@ 6
sever@@ 6
eye@@ 6
Soviet 6
sentiment 6
utting 6
holi@@ 6
vacations 6
Ge@@ 6
Syrian 6
honey 6
Jean 6
lookout 6
1980 6
ure@@ 6
foolishness 6
Loy@@ 6
glam@@ 6
tward 6
preserving 6
ation’s 6
ne’phesh 6
energ@@ 6
governed 6
forgot 6
chus 6
assessment 6
injured 6
fet@@ 6
dest 6
prestige 6
court@@ 6
van@@ 6
cour@@ 6
ygamy 6
involvement 6
controversies 6
loo@@ 6
adhere 6
Methus@@ 6
elah 6
tyr@@ 6
tension 6
disdain 6
consisted 6
desp@@ 6
neatly 6
eetings 6
Ro@@ 6
fulfills 6
ne 6
anno@@ 6
tol@@ 6
climb 6
ply 6
claiming 6
unle@@ 6
WHO 6
JEHOV@@ 6
IT@@ 6
faul@@ 6
Cop@@ 6
objected 6
obj@@ 6
Gavin 6
discourse 6
hardened 6
Indian 6
Oce@@ 6
thanking 6
And@@ 6
shoes 6
despise 6
surveillance 6
elec@@ 6
arouse 6
Gardner 6
affection@@ 6
BIB@@ 6
io 6
iro 6
olics 6
environ@@ 6
forbade 6
disagree 6
Increase 6
drastic 6
colum@@ 6
Pers@@ 6
otal 6
operating 6
Vietnam 6
frail 6
Jes@@ 6
Bronx 6
Archaeology 6
Est@@ 6
Bur@@ 6
5,000 6
disturb 6
saves 6
Insight 6
Nsomba 6
rising 6
Yourself 6
1961 6
impartial 6
blamed 6
cycl@@ 6
ial@@ 6
enmity 6
interfer@@ 6
bru@@ 6
smoldering 6
tou@@ 6
contemplation 6
skillful 6
contag@@ 6
refreshments 6
ief 6
empathetic 6
cinnamon 6
interpreter 6
tow@@ 6
educate 6
aden 6
free@@ 6
05 6
Communism 6
adequ@@ 6
woke 6
grass 6
Sp@@ 6
stored 6
simp@@ 6
conflicting 6
aughter 6
Ama@@ 6
stub@@ 6
elabor@@ 6
Under@@ 6
rowing 6
harm@@ 6
credible 6
Examin@@ 6
lower 6
grants 6
plac@@ 6
insecure 6
fervent 6
yg@@ 6
below 6
cooperated 6
argument 6
Ed@@ 6
UL@@ 6
evenings 6
director 6
oph@@ 6
camel 6
Eli 6
tireless 6
gesture 6
kitchen 6
stretching 6
phaz 6
popular@@ 6
packed 6
Some@@ 6
resentful 6
wouldn’t 6
deceitful 6
unwholesome 6
costly 6
sively 6
veh@@ 6
sufferings 6
administer 6
med@@ 6
Bank 6
poin@@ 6
138 6
xi@@ 6
Zion 6
1,500 6
Tenderness 6
alls 6
Zech 6
paper 6
infected 6
baptizing 6
regretted 6
Adria 6
Eastern 6
parti@@ 6
symbolizes 6
bloodguilt 6
uns 6
reasonableness 6
duce 6
forbids 6
brib@@ 6
aiah 6
safeguarded 6
109 6
112 6
envy 6
rele@@ 6
tox@@ 6
sper@@ 6
consider@@ 6
hopeless 6
house@@ 6
tower 6
Undoubtedly 6
rival 6
pel@@ 6
acquaintances 6
regrets 6
unk 6
cro@@ 6
twisted 6
Tro@@ 6
solving 6
som@@ 6
Belfast 6
peacemakers 6
usual 6
chang@@ 6
apologize 6
acknowled@@ 6
fantasy 6
lamps 6
ana@@ 6
tragedies 6
suspicious 6
straw 6
idic 6
signals 6
multitudes 6
symb@@ 6
invaded 6
molds 6
reform 6
presentations 6
truthful 6
Shar@@ 6
discovery 6
beneath 6
swit@@ 6
doves 6
believ@@ 6
verify 6
multiple 6
eding 6
medic@@ 6
glorifies 6
reap 6
tire 6
ivers 6
unt 6
Shulammite 6
showy 6
esmen 6
nighttime 6
TV 6
preparations 6
see@@ 6
1954 6
homosexuality 6
occ@@ 6
weighing 6
pleas 6
Vatican 6
portrays 6
offensive 6
endanger 6
reate 6
ums 6
Rocio 6
tor’s 6
device 6
buc@@ 6
sunset 6
transgressions 6
movement 6
charitable 6
ues 6
obviously 6
sust@@ 6
devout 6
Saturday 6
abortion 6
ii 6
amounted 6
vigilance 6
flood 6
sely 6
populated 6
reportedly 6
ools 6
resting 6
Rob@@ 6
exhausted 6
conium 6
enabling 6
yiel@@ 6
Vancouver 6
accus@@ 6
inculcate 6
Regrettably 6
minimum 6
creates 6
patients 6
Wil@@ 6
gan 6
800 6
demonstrating 6
plagued 6
ancy 6
itedly 6
paralyzed 6
124 6
exclud@@ 6
wheelchair 6
solitary 6
ricane 6
30,000 6
4,000 6
prefi@@ 6
fondly 6
symbolize 6
downpour 6
nut@@ 6
expectedly 6
lighten 6
scoo@@ 6
atively 6
gifted 6
DO 6
fantasies 6
ingu@@ 6
dens 6
travelers 6
dismiss 6
phase 6
win@@ 6
stir@@ 6
Sing 6
farming 6
ounce 6
skir@@ 6
Sing@@ 6
you@@ 6
’ll 6
ultimate 6
MAN 6
Miss 6
schoolteacher 6
fic 6
Sc@@ 6
adap@@ 6
sarcas@@ 6
aim@@ 6
participation 6
sister’s 6
ong@@ 6
Stephanie 6
organizing 6
Six 6
competition 6
Ballet 6
gracefully 6
orous 6
conveys 6
sworn 6
uniform 6
kward 6
unempl@@ 6
uncond@@ 6
pil@@ 6
impress@@ 6
supplications 6
Ricky 6
tural 6
pains 6
nicotine 6
utes 6
Apun 6
ova 6
tranquillity 6
intensely 6
Mic@@ 6
ministering 6
Pavel 6
grip 6
impressive 6
lucrative 6
Hiroo 6
sus 6
sown 6
inestimable 6
ush@@ 6
colos@@ 6
Broadcasting 6
thwar@@ 6
gg@@ 6
unassigned 6
Ontario 6
though@@ 6
wasted 6
competitive 6
ellow 6
etary 6
partial 6
heart’s 6
flame 6
comprehensible 6
ceful 6
rented 6
spice 6
collec@@ 6
anting 6
fer@@ 6
delights 6
pillar 6
evaluate 6
Mel@@ 6
vin 6
ution 6
Gabri@@ 6
forec@@ 6
bit@@ 6
itive 6
Cedar 6
Point 6
inflic@@ 6
essay 6
Words 6
rebelling 6
authenticity 6
coalition 6
hosted 6
suspec@@ 6
scores 6
atheists 6
Ob@@ 6
faint 6
unpleasant 6
thief 6
effectiveness 6
Lidasi 6
lifelong 6
prostitution 6
evalu@@ 6
ZE@@ 6
antichris@@ 6
NOT 6
overconfident 6
parables 6
SAYS 6
entice 6
obo@@ 6
relinqu@@ 6
pressing 6
one@@ 6
finances 6
ette 6
bloodshed 6
ammed 6
elimin@@ 6
avenge 6
epide@@ 6
scourge 6
disgu@@ 6
dramatically 6
subdue 6
resemb@@ 6
trembling 6
Grandpa 6
swallow 6
breathing 6
march 6
attire 6
unimaginable 6
overheard 6
demon@@ 6
wo@@ 6
urance 6
enches 6
observation 6
emigrants 6
bread@@ 6
slanderer 6
ʹ@@ 6
degener@@ 6
stro@@ 6
lump 6
throat 6
employ 6
weakening 6
judicial 6
colored 6
worthiness 6
Lab@@ 6
colors 6
Isai@@ 6
west 6
rests 6
Resurrec@@ 6
pestilences 6
lin@@ 6
logs 6
exclus@@ 6
excelling 6
needing 6
Santa 6
refusal 6
ument 6
polic@@ 6
inborn 6
Significantly 6
companionship 6
schol@@ 6
apathy 6
Josephus 6
relating 6
lights 6
hormone 6
Dar@@ 6
regis@@ 6
pleas@@ 6
Tulun 6
nuns 6
tormented 6
tar 6
Illustr@@ 6
contemporary 6
mud 6
kung 6
fu 6
critics 6
sal 6
comment@@ 6
peril 6
Sim@@ 6
nowhere 6
girlfriend 6
distressful 6
orders 6
mes 6
refresh 6
aler@@ 6
yr@@ 6
ly@@ 6
Wherever 6
prejud@@ 6
Sprout 6
omatic 6
Spices 6
heal@@ 6
sic@@ 6
industri@@ 6
jour@@ 6
repeating 6
denotes 6
bir@@ 6
murderous 6
disrupted 6
unfailing 6
footstool 6
scheme 6
Bul@@ 6
compas@@ 6
construct 6
8,000,000 6
pointing 6
implying 6
rust 6
Samu@@ 6
denounced 6
appoin@@ 6
urt 6
stroke 6
ases 6
disability 6
1924 6
imaginary 6
idolatrous 6
adness 6
nat@@ 6
emic 6
attend@@ 6
wash 6
ageous 6
politic@@ 6
adly 6
trends 6
meaningless 6
Sin 6
bod@@ 6
rooted 6
Mil@@ 6
hast@@ 6
atheist 6
Publ@@ 6
theory 6
blemish 6
controversy 6
bitterly 6
blinded 6
amb’s 6
trust@@ 6
ram 6
retain 6
lamb 6
Rylands 6
Religion 6
knees 6
prim@@ 6
Ash@@ 6
advant@@ 6
prepares 6
utter@@ 6
abst@@ 6
breakfast 6
conqu@@ 6
iss@@ 6
truthfully 6
lining 6
ROM 6
sook 6
oneself 6
anchor 6
Standard 6
soothed 6
Set 6
mers 6
asha 6
dic 6
fondness 6
orial 6
announce 6
burn 6
alternative 6
Emil 6
sch@@ 6
Mut@@ 6
forfeited 6
foreshad@@ 6
entions 6
ain’s 6
2001 6
itting 6
integr@@ 6
committees 6
resurrecting 6
walled 6
lots 6
tas@@ 6
taunts 6
memorable 6
zar@@ 6
Sign 6
icial 6
eveh 6
best@@ 6
Wee@@ 6
valid@@ 6
iny 6
slaugh@@ 6
minate 6
exagger@@ 6
Arabia 6
Tyndale 6
Cal@@ 6
anci@@ 6
marily 6
gaze 6
selecting 6
livestock 6
attendant 6
Shunem 6
Jude@@ 6
reader 6
millenniums 6
SOLUTION 6
affirmed 6
improv@@ 6
alling 6
gener@@ 6
Estonia 6
swim@@ 6
Heart 6
lawless 6
pounds 6
moder@@ 6
purity 6
fores@@ 6
ziah 6
Arab@@ 6
differs 6
beds 6
momentous 6
genetic 6
Pris@@ 6
soften 6
fast@@ 6
widow’s 6
plainly 6
Jer@@ 6
speechless 6
mildly 6
athing 6
adversity 6
ges@@ 6
María 6
doomed 6
commander 6
em 6
Maurizio 6
consis@@ 6
cameras 6
eum 6
triv@@ 6
Happiness 6
loan 6
Pre@@ 6
exploit 6
dam 6
pock@@ 6
leather 6
kes 6
ands 6
conveniences 6
eradicate 6
HU@@ 6
severely 6
Tar@@ 6
infirm 6
vineyards 6
drank 6
preced@@ 6
caregiving 6
restrain 6
battlement 6
avenues 6
captured 6
rebuilt 6
weak@@ 6
thin 6
ames 6
consol@@ 6
complied 6
gradual 6
ü@@ 6
St 6
armor 6
tifies 6
NO@@ 6
Prot@@ 6
Haykanush 6
maneuv@@ 6
myth@@ 6
faculty 6
ced 6
disciplines 6
obligated 6
balsam 6
sn@@ 6
Olga 6
ulous 6
ologists 6
countryside 6
alcoholic 6
bever@@ 6
reassigned 6
Ben@@ 6
7,@@ 6
Smal@@ 6
unlikely 6
befall 6
tour 6
uture 6
ale@@ 6
dishes 6
gest 6
eph@@ 6
misconduct 6
endlessly 6
birth@@ 6
stole 6
itary 6
extensively 6
angel@@ 6
oe@@ 6
elections 6
horror 6
instantly 6
atlike 6
has@@ 6
convic@@ 6
indign@@ 6
arguments 6
een@@ 6
breathe 6
GH@@ 6
collap@@ 6
ublic 6
inordinate 6
thirsty 6
hypocrites 6
reme@@ 6
slowly 6
ledge 6
announ@@ 6
cigarettes 6
resorted 6
Neh@@ 6
emiah’s 6
waves 6
gover@@ 6
composite 6
PUBLI@@ 6
Ages 6
jus@@ 6
wronged 6
Mike 6
risks 6
flu@@ 6
lu@@ 6
hug 6
shipwrec@@ 6
salt 6
ck 6
faulty 6
detests 6
inher@@ 6
detr@@ 6
boost 6
IUD 6
inadequate 6
prompts 6
Mist@@ 6
vine 6
IL@@ 6
eman 6
Reuben 6
frankincense 6
ment@@ 6
wis@@ 6
GE 6
priving 6
engr@@ 6
ossed 6
noma@@ 6
robe 6
extermin@@ 6
Christopher 6
serv@@ 6
distributing 6
passive 6
empower 6
PO@@ 6
plentiful 6
02 6
festival 6
hostility 6
ass 6
infant 6
outl@@ 6
suspic@@ 6
Alona 6
Hu@@ 6
THER 6
tea 6
knife 6
pleading 6
counteract 6
nest 6
rocks 6
invest@@ 6
oting 6
dir@@ 6
Char@@ 6
deemed 6
MAR@@ 6
poss@@ 6
prevalent 6
underground 6
uration 6
confisc@@ 6
videos 6
presumptuously 6
desiring 6
extremity 6
1988 6
robb@@ 6
determining 6
mic 6
Italian 6
otic 6
coinc@@ 6
destroys 6
din@@ 6
intimidated 6
intimid@@ 6
copy@@ 6
nears 6
Sar@@ 6
od 6
elech 6
demonstr@@ 6
prestigious 6
Ma@@ 6
prophesy 6
recipient 6
SAY 6
sched@@ 6
postp@@ 6
Hungary 6
leanings 6
lou@@ 6
Mul@@ 6
undeni@@ 6
ool@@ 6
admonishes 6
grav@@ 6
urely 6
Maureen 6
enslavement 6
trib@@ 6
lav@@ 6
USSR 6
carav@@ 6
intri@@ 6
inds 6
Jaracz 5
aven@@ 5
ef 5
Nadine 5
ft@@ 5
onne 5
Hon@@ 5
after@@ 5
sequently 5
pet 5
Luc@@ 5
Victor 5
Corruption 5
Ana 5
patriarch@@ 5
Nile 5
determin@@ 5
Nee@@ 5
185,000 5
Perrine 5
itiv@@ 5
1942 5
water@@ 5
ron@@ 5
uni@@ 5
knowled@@ 5
Assy@@ 5
rol@@ 5
intelli@@ 5
Christine 5
São 5
Paulo 5
Jan@@ 5
Cur@@ 5
ba 5
angeli@@ 5
lod@@ 5
Caleb 5
Panama 5
Zeal@@ 5
Yury 5
oub@@ 5
wick 5
andy 5
Mac@@ 5
notic@@ 5
athe@@ 5
450 5
Vitaly 5
syst@@ 5
em’s 5
Morris 5
Milan 5
oud 5
Si@@ 5
ker@@ 5
Yankee 5
kinson 5
corrup@@ 5
err 5
Anne 5
Mozambique 5
Raising 5
ama 5
ern@@ 5
apost@@ 5
aggres@@ 5
oto 5
sim@@ 5
icle 5
Sec@@ 5
Ram@@ 5
isters 5
astic 5
opp@@ 5
photo@@ 5
Da@@ 5
don 5
commer@@ 5
rested 5
tee 5
enev@@ 5
imm@@ 5
129 5
Karma 5
eves 5
sent@@ 5
Tob@@ 5
Pat@@ 5
alene 5
Ly@@ 5
mit 5
Filip 5
ona 5
Harold 5
Ros@@ 5
oppos@@ 5
prophe@@ 5
overing 5
Lucy 5
rom@@ 5
clust@@ 5
ATH@@ 5
atitude 5
Tatyana 5
Nim@@ 5
Mikhail 5
5,@@ 5
drag@@ 5
equi@@ 5
Sat@@ 5
cil 5
ship@@ 5
doz@@ 5
fascin@@ 5
olic@@ 5
Victoria 5
deliver@@ 5
Spe@@ 5
Julian 5
Park@@ 5
Creation 5
shak@@ 5
damag@@ 5
Fijian 5
tedly 5
reated 5
bet@@ 5
1981 5
ani 5
bloc@@ 5
1998 5
indic@@ 5
Baptist 5
O’Connor 5
ition@@ 5
alleng@@ 5
yable 5
resc@@ 5
uma@@ 5
pot@@ 5
Portugal 5
Masore@@ 5
Nepalese 5
avail@@ 5
consum@@ 5
nee@@ 5
82 5
Juan 5
conv@@ 5
aste 5
elle 5
tak@@ 5
orge 5
represent@@ 5
Pu@@ 5
erable 5
favor@@ 5
Fe@@ 5
cons@@ 5
ö@@ 5
eff@@ 5
confron@@ 5
MIN@@ 5
AK@@ 5
IST@@ 5
160 5
Diehl 5
uge 5
ached 5
Lily 5
Carol 5
ross 5
amic 5
provok@@ 5
nun 5
tify 5
cand@@ 5
ubs 5
numb@@ 5
ela 5
Rom@@ 5
Karítsa 5
wond@@ 5
Stu@@ 5
aths 5
93 5
pour@@ 5
Protestant 5
alled 5
Jr 5
shad@@ 5
troubl@@ 5
144 5
ao@@ 5
Supp@@ 5
appro@@ 5
deliv@@ 5
House 5
Var@@ 5
isp@@ 5
risy 5
stor@@ 5
oul 5
123 5
grac@@ 5
olake 5
ennial 5
consequ@@ 5
100,000 5
commun@@ 5
sures 5
Corinna 5
Sis@@ 5
ilate 5
Ru@@ 5
rish 5
shor@@ 5
eal@@ 5
atement 5
wand@@ 5
Gary 5
antine 5
Ethiop@@ 5
profession@@ 5
Veng@@ 5
Shi@@ 5
ku@@ 5
Pen@@ 5
iven 5
ones@@ 5
yan 5
transgres@@ 5
strong@@ 5
bing 5
grud@@ 5
Andrew 5
soo@@ 5
los 5
volunte@@ 5
UM@@ 5
bor 5
Hung@@ 5
distinc@@ 5
Pope 5
Philo 5
fug@@ 5
Benef@@ 5
ony@@ 5
oin@@ 5
ink@@ 5
Ella 5
pension 5
Eng@@ 5
Nadia 5
Informant 5
persever@@ 5
actly 5
cri@@ 5
Caribbean 5
cust@@ 5
ener@@ 5
lical 5
itate 5
behavi@@ 5
Bl@@ 5
lob@@ 5
ila 5
Priscilla 5
tsunam@@ 5
exhau@@ 5
eserved 5
refresh@@ 5
240 5
temper@@ 5
Fri@@ 5
ium 5
else@@ 5
hen 5
pursu@@ 5
jum@@ 5
jected 5
just@@ 5
Aust@@ 5
satis@@ 5
escap@@ 5
ristina 5
visual@@ 5
raz@@ 5
wrong@@ 5
ney 5
Adolfo 5
treach@@ 5
pop@@ 5
fun@@ 5
ign@@ 5
‛ 5
hol@@ 5
cere@@ 5
oxide 5
genu@@ 5
Paula 5
Central 5
reci@@ 5
Braz@@ 5
compos@@ 5
Luigi 5
tate 5
mark@@ 5
SI@@ 5
Nora 5
Lauri 5
Ramoni 5
tees 5
ural 5
enn@@ 5
attri@@ 5
reconc@@ 5
signed 5
Nicaragua 5
Maxine 5
Tagalog 5
glo@@ 5
assemb@@ 5
1987 5
arding 5
construc@@ 5
publ@@ 5
References 5
wp17.@@ 5
VE 5
Jennifer 5
ells 5
stead@@ 5
abor@@ 5
Livija 5
Vin@@ 5
forb@@ 5
Tessie 5
Phil@@ 5
great@@ 5
WE@@ 5
Nuremberg 5
mate@@ 5
Mir@@ 5
thes 5
FI@@ 5
ST 5
THRE@@ 5
03 5
pron@@ 5
Ronald 5
dium 5
1997 5
Hollywood 5
find@@ 5
Kumiko 5
contamin@@ 5
Augustine 5
Pharis@@ 5
rior 5
Angie 5
pper 5
prophes@@ 5
Ul@@ 5
perce@@ 5
ND@@ 5
1926 5
antityp@@ 5
Sylviana 5
givers 5
whe@@ 5
asts 5
faith@@ 5
ake@@ 5
Eva 5
ost@@ 5
Sheb@@ 5
engers 5
stre@@ 5
ticles 5
sheet 5
frustr@@ 5
Tabitha 5
600,000 5
tal 5
KE 5
ki 5
Jan 5
big@@ 5
ran@@ 5
ith 5
ems 5
Hi@@ 5
1967 5
ority 5
115 5
cauti@@ 5
wee@@ 5
remind@@ 5
ORI@@ 5
TEND@@ 5
Pax 5
Romana 5
oce@@ 5
Ther@@ 5
peri@@ 5
Kno@@ 5
107 5
nervous 5
hel 5
Michi@@ 5
activ@@ 5
lege 5
cigaret@@ 5
Terms 5
mayor 5
uck 5
Balykchy 5
post@@ 5
gal 5
Nicol@@ 5
ough@@ 5
apples 5
Alb@@ 5
cells 5
Joshu@@ 5
ids 5
org@@ 5
El 5
tfully 5
erings 5
Writ@@ 5
Every@@ 5
househol@@ 5
se’s 5
Reneé 5
astr@@ 5
TER 5
Antichrist 5
Jon@@ 5
lean@@ 5
Vic@@ 5
macy 5
Ric@@ 5
elike 5
ph 5
Mol@@ 5
awa@@ 5
kan@@ 5
was@@ 5
Irene 5
wild@@ 5
domes@@ 5
ys@@ 5
earth@@ 5
Shepher@@ 5
wan@@ 5
Sakura 5
tem@@ 5
Nero 5
deliber@@ 5
Minis@@ 5
Er@@ 5
Disci@@ 5
tirel@@ 5
ʹ 5
67 5
enthusias@@ 5
ae@@ 5
proclaim@@ 5
Palestine 5
bog@@ 5
nesses 5
buil@@ 5
Luis 5
amp 5
ita 5
harv@@ 5
dingly 5
ame@@ 5
tured 5
Coast 5
ables 5
1978 5
Swa@@ 5
Pharao@@ 5
guing 5
Etta 5
chris@@ 5
mou@@ 4
accid@@ 4
tives 4
enty 4
surv@@ 4
1,000,000 4
appear@@ 4
main@@ 4
negl@@ 4
bap@@ 4
attr@@ 4
iously 4
Raquel 4
Hai@@ 4
nth@@ 4
1879 4
ote 4
commend@@ 4
mut@@ 4
Jerome 4
icus 4
ech 4
figh@@ 4
Madrid 4
78 4
Estienne 4
wrec@@ 4
ops 4
Burnett 4
justly 4
ger@@ 4
CT 4
reinfor@@ 4
clergy@@ 4
inge 4
TEACH@@ 4
resor@@ 4
1910 4
uba 4
1913 4
1881 4
Eduard 4
facul@@ 4
utch 4
Gover@@ 4
individ@@ 4
bles 4
Sl@@ 4
III 4
umph@@ 4
wick@@ 4
vel@@ 4
Wood@@ 4
ads 4
life@@ 4
dom@@ 4
estion 4
Sheryl 4
Ta@@ 4
rela@@ 4
acquaint@@ 4
ince 4
Kel@@ 4
idi@@ 4
tice 4
w’s 4
Frederick 4
1994 4
necess@@ 4
Marie 4
v 4
kness 4
entious 4
ond 4
icked 4
intell@@ 4
148 4
Bec@@ 4
Carolina 4
pay@@ 4
Luca 4
ij@@ 4
humb@@ 4
oo 4
found@@ 4
Loraini 4
ou 4
Worl@@ 4
EL 4
mend@@ 4
defe@@ 4
Jerich@@ 4
isi@@ 4
ym@@ 4
pic 4
ait@@ 4
vation 4
porters 4
Robison 4
Shann@@ 4
Dev@@ 4
public@@ 4
uv@@ 4
Georg@@ 4
Stephany 4
Bethel@@ 4
minim@@ 4
insul@@ 4
DO@@ 4
reser@@ 4
serp@@ 4
Drama 4
ourth 4
d’Étaples 4
yal 4
eas@@ 4
mach@@ 4
Fath@@ 4
Annu@@ 4
diam@@ 4
colporte@@ 4
NE@@ 4
enthr@@ 4
Mongo@@ 4
ham 4
rians 4
1947 4
barri@@ 4
ka@@ 4
Aar@@ 4
honda 4
ident 4
Indones@@ 4
ve@@ 4
Nigeria 4
Scotland 4
discipl@@ 4
git 4
San 4
hau@@ 4
itt@@ 4
ught 4
Alexand@@ 4
NG@@ 4
Corinth@@ 4
GO@@ 4
Pittsburgh 4
attle 4
Denn@@ 4
Blossom 4
Sin@@ 4
cot@@ 4
ile@@ 4
gamb@@ 4
lottery 4
affir@@ 4
1963 4
Milky 4
galaxy 4
Lit@@ 4
awar@@ 4
utter 4
Ng@@ 4
Arth@@ 4
sad@@ 4
explan@@ 4
af 4
ush 4
ump@@ 4
Amer@@ 4
Svetlana 4
ner@@ 4
Paraguay 4
fruit@@ 4
overed 4
IVI@@ 4
Tonga 4
1951 4
Cec@@ 4
attered 4
advers@@ 4
3,@@ 4
develop@@ 4
physici@@ 4
resear@@ 4
20,000 4
Mad@@ 4
flo@@ 4
pac@@ 4
Maynooth 4
controversi@@ 4
whol@@ 4
twa@@ 4
step@@ 4
ca@@ 4
pag@@ 4
Oxford 4
remo@@ 4
LE 4
feat@@ 4
bicy@@ 4
Bangladesh 4
2,500 4
conclud@@ 4
school@@ 4
underscor@@ 4
nou@@ 4
AND@@ 4
ester 4
Switzerland 4
wd 4
Gi@@ 4
reinst@@ 4
blem@@ 4
speak@@ 4
eance 4
Dr 4
Fl@@ 4
phere 4
organiz@@ 4
1959 4
glor@@ 4
B 4
som 4
emo@@ 4
Allen 4
shou@@ 4
Typhoon 4
chless 4
etly 4
af@@ 4
emet@@ 4
w15 4
tru@@ 4
dy@@ 4
Zambia 4
PA@@ 4
142 4
Peter@@ 4
sburg 4
esman 4
inten@@ 4
repor@@ 4
ati 4
safe@@ 4
chemis@@ 4
conduc@@ 4
make@@ 4
slander@@ 4
idents 4
Transl@@ 4
1,100 4
rans@@ 4
Costa 4
Lije 4
Min@@ 4
ifies 4
Bruce 4
won@@ 4
resses 4
Relig@@ 4
tual 4
IM@@ 4
ALI@@ 4
groom 4
pressions 4
leag@@ 4
TR@@ 4
ARY 4
Takuya 4
diagnos@@ 4
Marthe 4
ington 4
9,@@ 4
alien@@ 4
bound@@ 4
conve@@ 4
rian 4
illustr@@ 4
embarrass@@ 4
kill@@ 4
Czech 4
erve 4
OR 4
oles@@ 4
ATH 4
cru@@ 4
attenti@@ 4
Do@@ 4
led@@ 4
omb@@ 4
neg@@ 4
neutr@@ 4
knee@@ 4
Atl@@ 4
ization 4
understandings 4
Masako 4
sians 4
desper@@ 4
rer 4
avi@@ 4
Kyung 4
Nab@@ 4
Cleveland 4
counter@@ 4
carbon 4
Mak@@ 4
oko 4
Joe 4
1925 4
sia 4
Ann 4
Can@@ 4
Alexander 4
friend@@ 4
set@@ 4
Congreg@@ 4
cc@@ 4
asi@@ 4
research@@ 4
Yu@@ 4
cy 4
uted 4
Roberts 4
ially 4
mu@@ 4
Any@@ 4
entially 4
Commit@@ 4
Med@@ 4
ua 4
Pent@@ 4
ze@@ 4
oods 4
1915 4
enge 4
1972 4
ior 4
merci@@ 4
every@@ 4
Carin 4
conveni@@ 4
Didier 4
ainst 4
antic 4
lin 4
acquain@@ 4
ich 4
sequ@@ 4
fron@@ 4
Tasmania 4
Il@@ 4
thearted 4
ologist 4
Steven 4
AI@@ 4
scrib@@ 4
Antandroy 4
20@@ 4
dread@@ 4
Makrónisos 4
descrip@@ 4
blood@@ 4
iana 4
cheese 4
intenti@@ 4
astro@@ 4
Gianni 4
pin@@ 4
Ple@@ 4
Patterson 4
bes@@ 4
HO@@ 4
imit@@ 4
Christend@@ 4
recor@@ 4
537 4
Saskat@@ 4
bearer 4
Reli@@ 4
afflic@@ 4
LIB@@ 4
Debor@@ 4
appl@@ 4
ovable 4
Pan@@ 4
0 4
oke 4
emy 4
ogn@@ 4
ha 4
Claudia 4
cement 4
Benj@@ 4
dw@@ 4
Egyp@@ 4
Adams 4
sear@@ 4
ao 4
Kim 4
san@@ 4
Sam@@ 4
frequ@@ 4
So@@ 4
ock@@ 4
cultiv@@ 4
crit@@ 4
ayer 4
LIK@@ 4
Newton 4
146 4
tuberculosis 4
bon 4
Ilias 4
1933 4
young@@ 4
pries@@ 4
24,000 4
therap@@ 4
gor@@ 4
blast 4
eve@@ 4
pill@@ 4
Klein 4
sib@@ 4
quot@@ 4
stud@@ 4
icient 4
Willis 4
num@@ 4
des 4
197@@ 4
ali@@ 4
Hist@@ 4
US@@ 4
Lear@@ 4
Gael 4
Sk@@ 4
dom 4
common@@ 4
Sav@@ 4
put@@ 4
agre@@ 4
yo 4
Steele 4
1936 4
command@@ 4
mit@@ 4
Alice 4
hat@@ 4
Norfolk 4
Mandy 4
phe@@ 4
anian 4
Sm@@ 4
116 4
ire@@ 4
Graz 4
Simeulue 4
itude 4
1935 4
semen 4
Rogelio 4
Mirj@@ 4
sibl@@ 4
rit@@ 4
Koine 4
Filomena 4
tend@@ 4
scour@@ 4
presumptu@@ 4
hous@@ 4
rah 4
Encyclopædia 4
techno@@ 4
Finished 4
Mystery 4
TIMO@@ 4
spe@@ 4
reluct@@ 4
Ant@@ 4
ANS@@ 4
bac@@ 4
immigr@@ 4
claim@@ 4
Add@@ 4
Claire 4
arc@@ 4
Tong@@ 4
weal@@ 4
Grand@@ 4
Zaragoza 4
sa 4
fres@@ 4
Succ@@ 4
200@@ 4
maind@@ 4
נפשׁ 4
Hemsworth 4
daugh@@ 4
NA 4
Lus@@ 4
Aristotle 4
Plato 4
tha@@ 4
Shinto 4
aut@@ 4
Gener 4
Cent@@ 4
Carolyn 4
Haiti 4
remark@@ 4
ause 4
danc@@ 4
concentr@@ 4
1973 4
128 4
Bulletin 4
Melita 4
Streng@@ 4
Tac@@ 4
solation 4
anning 4
ston 4
hood 4
wed@@ 4
hu 4
ga 4
fool@@ 4
atis@@ 4
cent 4
Andr@@ 4
Nathaniel 4
electri@@ 4
alco@@ 4
signific@@ 4
ör@@ 4
Aksamai 4
Henri 4
Francis 4
encoun@@ 4
rick 4
Wallen 4
enses 4
etic 4
612 4
Kent 4
1966 4
ado 4
Siberia 4
Angat 4
lov@@ 4
oneer 4
Propaganda 4
exam@@ 4
meas@@ 4
1932 4
tism 4
hers 4
Amb@@ 4
decl@@ 4
Brook 4
1977 4
posal 4
propag@@ 4
Oksana 4
olog@@ 4
xed 4
Iv@@ 4
erts 4
issu@@ 4
assaul@@ 4
Pur@@ 4
cris@@ 4
Chang@@ 4
Theod@@ 3
etting 3
400,000 3
distingu@@ 3
To@@ 3
shing 3
sentim@@ 3
osy@@ 3
esis 3
Fij@@ 3
nei@@ 3
Sylvie 3
Matthe@@ 3
ually 3
yles 3
Jeh@@ 3
show@@ 3
osa 3
oma 3
emphas@@ 3
ensen 3
val@@ 3
Eddie 3
Jord@@ 3
Sinclair 3
Simone 3
onents 3
WO@@ 3
tel 3
chor 3
gath@@ 3
ordon 3
ece 3
passport 3
Varter 3
Oliv@@ 3
Andre@@ 3
ova@@ 3
bia 3
transpor@@ 3
call@@ 3
Je@@ 3
Bob 3
Ruther@@ 3
aston@@ 3
Sil@@ 3
disrup@@ 3
amy 3
ardo 3
Madele@@ 3
lifel@@ 3
mita 3
q 3
enly 3
ebec 3
porno@@ 3
sian 3
ominican 3
eline 3
lintock 3
powered 3
Panayiota 3
hip 3
Mes@@ 3
mind@@ 3
oss 3
Inga 3
Sci@@ 3
entific 3
anat@@ 3
iter 3
Messi@@ 3
arrog@@ 3
Linda 3
rich@@ 3
ointed 3
2,800 3
Jacqu@@ 3
overe@@ 3
nav@@ 3
Nath@@ 3
nziato 3
1985 3
prosely@@ 3
rej@@ 3
govern@@ 3
Atsushi 3
108 3
Langton 3
oners 3
ushed 3
preh@@ 3
za 3
ange 3
System 3
inculc@@ 3
excell@@ 3
ailer 3
istence 3
fav@@ 3
conn@@ 3
insk 3
Valencia 3
licante 3
Scott 3
Schroeder 3
edia 3
paraly@@ 3
fulfill@@ 3
idly 3
ano 3
endra 3
eces 3
chap@@ 3
Yaroslav 3
spirit@@ 3
orah 3
top@@ 3
mat 3
Ir@@ 3
enri@@ 3
Tok@@ 3
Togo 3
clou@@ 3
Ephes@@ 3
Thailand 3
uch 3
í@@ 3
Som@@ 3
ehow 3
hib@@ 3
arily 3
kol@@ 3
Yuille 3
streng@@ 3
ival 3
mals 3
fty 3
appe@@ 3
elo 3
ali 3
ticip@@ 3
uli@@ 3
burg 3
child@@ 3
Ri@@ 3
WH@@ 3
Nani 3
Rosa 3
mand@@ 3
calam@@ 3
ordvinia 3
fert@@ 3
Super 3
preval@@ 3
atalan 3
Sydney 3
depend@@ 3
travel@@ 3
gs 3
shepher@@ 3
Sandra 3
disput@@ 3
effery 3
Eri@@ 3
truc@@ 3
memb@@ 3
pel 3
Rica 3
rigory 3
derly 3
Thierry 3
Brook@@ 3
pra@@ 3
mbers 3
Vo@@ 3
portr@@ 3
progr@@ 3
Rwanda 3
hyp@@ 3
nake 3
tioned 3
Masoretes 3
erous 3
ite@@ 3
haugh@@ 3
flee@@ 3
Gos@@ 3
aniah 3
ael 3
purch@@ 3
Yos@@ 3
Gar@@ 3
onel 3
othy 3
Tor@@ 3
onduras 3
Nov@@ 3
homosex@@ 3
uals 3
wit@@ 3
Jai@@ 3
Rud@@ 3
elds 3
umptu@@ 3
princi@@ 3
YO@@ 3
fraid 3
Potiph@@ 3
Watch@@ 3
Vicky 3
Meth@@ 3
philosop@@ 3
WBBR 3
Staten 3
void 3
festiv@@ 3
chester 3
Rebecca 3
Wake 3
lot@@ 3
Katharina 3
colleag@@ 3
expec@@ 3
Tay@@ 3
lene 3
ques@@ 3
zi 3
ord 3
yrus 3
quick@@ 3
aly@@ 3
Iz@@ 3
ya 3
Increas@@ 3
Bol@@ 3
depr@@ 3
rem@@ 3
oval 3
Bet@@ 3
ween 3
rine 3
Sakiko 3
1923 3
chment 3
olf 3
AY@@ 3
agasy 3
Babylon@@ 3
Sund@@ 3
Anti@@ 3
bably 3
zaleka 3
worn 3
doctr@@ 3
occupi@@ 3
nee 3
encing 3
athe 3
ti 3
hel@@ 3
attemp@@ 3
Ute 3
sex@@ 3
endee@@ 3
human@@ 3
phr@@ 3
specially 3
macaroni 3
aint 3
Christi@@ 3
edar 3
gn@@ 3
prost@@ 3
extrem@@ 3
sh 3
onso 3
agnos@@ 3
stand@@ 3
FA@@ 3
elebr@@ 3
Sri 3
anka 3
EL@@ 3
SE 3
dred 3
eases 3
ʹa 3
rece@@ 3
wind@@ 3
nit@@ 3
god@@ 3
leti@@ 3
ety 3
dou@@ 3
Sime@@ 3
oblig@@ 3
Flor@@ 3
QU@@ 3
tra 3
amin@@ 3
oli@@ 3
comparable 3
titudes 3
onic 3
shipp@@ 3
Rights 3
YE@@ 3
chess 3
Maya 3
recommend@@ 3
ng@@ 3
odotus 3
ayla 3
Ky@@ 3
Elke 3
Gal@@ 3
sm@@ 3
ench 3
Venezuela 3
quarters 3
strate@@ 3
elibacy 3
myri@@ 3
superi@@ 3
wake 3
Sierra 3
net 3
Edu@@ 3
level@@ 3
stup@@ 3
reques@@ 3
ITH 3
ET 3
FU@@ 3
eyed 3
cooper@@ 3
thank@@ 3
omas 3
distur@@ 3
utenber@@ 3
© 3
ese 3
au 3
spen 3
odo@@ 3
Bern@@ 3
cher@@ 3
esh 3
Contin@@ 3
23@@ 3
Main@@ 3
slav@@ 3
Queen@@ 3
amine 3
Fel@@ 3
consul@@ 3
wald 3
bbie 3
stances 3
Las@@ 3
Kil@@ 3
foc@@ 3
nybrook 3
bond@@ 3
Salvador 3
near@@ 3
omin@@ 3
jud@@ 3
Wycliff@@ 3
exhor@@ 3
udes 3
raq 3
mavir 3
ued 3
desc@@ 3
essor 3
easi@@ 3
Den@@ 3
Christop@@ 3
uth@@ 3
weap@@ 3
Damaris 3
grad@@ 3
certain@@ 3
yn 3
nin@@ 3
yce 3
ghes 3
imb@@ 3
Reference 3
gling 3
ky@@ 3
archae@@ 3
mond 3
ystal 3
angers 3
abus@@ 3
MAT@@ 3
THE@@ 3
ounced 3
ld 3
pression 3
OVER 3
eni@@ 3
ville 3
benef@@ 3
iced 3
Met@@ 3
Skye 3
embarr@@ 3
Wher@@ 3
gues 3
ה@@ 3
onom@@ 3
cau@@ 3
phonograp@@ 3
sis@@ 3
infer@@ 3
rout@@ 3
ept 3
Dannykarl 3
elev@@ 3
Individ@@ 3
eva 3
ja 3
tments 3
scription 3
mob@@ 3
Timor 3
namaz 3
fill@@ 3
rejo@@ 3
decis@@ 3
tra@@ 3
uma 3
ography 3
iah 3
elem@@ 3
Toronto 3
auth@@ 3
Marais 3
Chron@@ 3
sugg@@ 3
OL@@ 3
Tit@@ 3
Div@@ 3
pec@@ 3
ishly 3
Brit@@ 3
asher 3
Mex@@ 3
ican 3
MB@@ 3
clima@@ 3
efinitely 3
va@@ 3
Gleissner 3
ilda 3
ieties 3
Anx@@ 3
valu@@ 3
3,500 3
Ner@@ 3
List@@ 3
oh@@ 3
Afri@@ 3
part@@ 3
ivili@@ 3
mity 3
Jehoshaph@@ 3
lead@@ 3
Gide@@ 3
asion 3
mable 3
am’s 3
agreements 3
PLE 3
Trophim 3
titude 3
helm 3
tment 3
Samoa 3
Poin@@ 3
cent@@ 3
OV@@ 3
ú@@ 3
mansl@@ 3
dili@@ 3
Pon@@ 3
VATICAN 3
hos@@ 3
Security 3
legiti@@ 3
eag@@ 3
emotherapy 3
amoun@@ 3
Sara 3
duced 3
progres@@ 3
tory 3
cleans@@ 3
ulun 3
Carol@@ 3
orable 3
Shim 3
eong 3
bara 3
Nep@@ 3
hulunbuy 3
ʼ@@ 3
TEN@@ 3
folk 3
ili 3
icles 3
accoun@@ 3
eles 3
zig 3
blind@@ 3
Sokuluk 3
oever 3
KA@@ 3
mov@@ 3
rid@@ 3
nas@@ 3
spl@@ 3
rors 3
anish 3
must@@ 3
virg@@ 3
interf@@ 3
idi 3
Sou@@ 3
ax 3
,0@@ 3
ez@@ 3
enni@@ 3
zes 3
Diane 3
Gen@@ 3
spok@@ 3
ik@@ 3
ritre@@ 3
Skalecki 3
destro@@ 3
hon@@ 3
daun@@ 3
Philipp@@ 3
Yeong 3
Sug 3
oth@@ 2
isa 2
accor@@ 2
Tatt@@ 2
tin 2
ularly 2
Protest@@ 2
iah’s 2
Kwa@@ 2
tech@@ 2
198@@ 2
alia 2
auti@@ 2
ago@@ 2
clus@@ 2
parag@@ 2
view@@ 2
present@@ 2
trou@@ 2
ACH@@ 2
reation 2
Sal@@ 2
vat@@ 2
Foll@@ 2
owers 2
courag@@ 2
Fa@@ 2
prom@@ 2
gy 2
phy@@ 2
Colos@@ 2
uscrip@@ 2
ena 2
ete@@ 2
uty 2
estament 2
icide 2
establ@@ 2
esa 2
Sik@@ 2
thwest 2
cel@@ 2
incl@@ 2
press@@ 2
Circ@@ 2
liest 2
second@@ 2
Jac@@ 2
Fin@@ 2
ruption 2
alo 2
osis 2
Knor@@ 2
tom 2
à 2
Maril@@ 2
ustri@@ 2
anth@@ 2
tary 2
shakable 2
olic 2
promp@@ 2
ulti@@ 2
mally 2
Rememb@@ 2
age@@ 2
% 2
teen@@ 2
chur@@ 2
floc@@ 2
Eph@@ 2
Pione@@ 2
reassur@@ 2
ild 2
giveness 2
Ecclesi@@ 2
Lam@@ 2
h’s 2
umbers 2
dier 2
rous 2
Mav@@ 2
opin@@ 2
Up@@ 2
Mamb@@ 2
Jar@@ 2
Cong@@ 2
iety 2
enda 2
surpr@@ 2
mission@@ 2
ilia 2
ores 2
06 2
scrut@@ 2
extra@@ 2
istance 2
reason@@ 2
peror 2
relat@@ 2
cle 2
aples 2
luc@@ 2
& 2
train@@ 2
inspir@@ 2
Franc@@ 2
Fai@@ 2
shee@@ 2
alon@@ 2
ula 2
malici@@ 2
judg@@ 2
I’@@ 2
Anoin@@ 2
Por@@ 2
ota 2
mous 2
repent@@ 2
arly 2
day@@ 2
tranqu@@ 2
Ath@@ 2
olom@@ 2
unintenti@@ 2
ishness 2
chil@@ 2
ae 2
androy 2
sionate 2
iliation 2
07 2
contro@@ 2
hail 2
Wis@@ 2
trend@@ 2
Ishma@@ 2
ishers 2
Hyp@@ 2
mation 2
Mos@@ 2
Tim@@ 2
independ@@ 2
Anto@@ 2
pati@@ 2
cence 2
Inde@@ 2
reti@@ 2
burn@@ 2
prop@@ 2
mbal@@ 2
indness 2
Antio@@ 2
ird 2
QR 2
tenance 2
maintain@@ 2
Tru@@ 2
enza 2
efs 2
forman@@ 2
teach@@ 2
aff 2
Jeze@@ 2
ley 2
dest@@ 2
mos@@ 2
il’s 2
Psal@@ 2
veng@@ 2
celebr@@ 2
Proph@@ 2
emplo@@ 2
tav@@ 2
idol@@ 2
lookers 2
aver@@ 2
alf 2
TA 2
osen 2
ken@@ 2
ki@@ 2
itually 2
Faith@@ 2
scrol@@ 2
ehear@@ 2
ANA 2
ews 2
aval@@ 2
Au@@ 2
illion 2
prep@@ 2
og 2
rolls 2
uk 2
ror 2
dru@@ 2
NGA@@ 2
AR 2
traff@@ 2
lic 2
Pet@@ 2
oly 2
tices 2
pho@@ 2
Zoila 2
crib@@ 2
stool 2
indu 2
IA 2
ene@@ 2
oliness 2
onship 2
ulers 2
nos@@ 2
hes 2
Um@@ 2
mi 2
kel@@ 2
encourag@@ 2
hypocr@@ 2
Doreen 2
Hebre@@ 2
Ve@@ 2
tius 2
Hen@@ 2
there@@ 2
lee 2
may@@ 2
raine 2
illi@@ 2
logy 2
atia 2
elo@@ 2
tee@@ 2
Thi@@ 2
Mom@@ 2
univer@@ 2
dee@@ 2
itage 2
ament 2
lau@@ 2
apps 2
ouse 2
stic@@ 2
turally 2
Luig@@ 2
gy@@ 2
yst@@ 2
strai@@ 2
impris@@ 2
Absal@@ 2
Ku@@ 2
mba 2
ala 2
understand@@ 2
tremend@@ 2
mali@@ 2
oves 2
propri@@ 2
jects 2
Gw@@ 2
elbach 2
satisfac@@ 2
eman@@ 2
estimat@@ 2
anded 2
smo@@ 2
Juda@@ 2
YS 2
Wes@@ 2
tivity 2
saf@@ 2
hi 2
pestil@@ 2
01 2
surviv@@ 2
tality 2
acco 2
tum@@ 2
Rus@@ 2
control@@ 2
Sas@@ 2
cha 2
yi@@ 2
My@@ 2
fund@@ 2
boo@@ 2
erc@@ 2
tha 2
Dr@@ 2
persist@@ 2
ye@@ 2
ola 2
righte@@ 2
onia 2
yona 2
aya 2
mire 2
solem@@ 2
wal@@ 2
smoo@@ 2
Color@@ 2
thin@@ 2
avo@@ 2
Kat@@ 2
liter@@ 2
Maj@@ 2
fore 2
entit@@ 2
takers 2
Sand@@ 2
ה 2
forts 2
oversee@@ 2
itant 2
Ty@@ 2
fe 2
JE@@ 2
ô@@ 2
gent@@ 2
BOR@@ 2
soli@@ 2
Fre@@ 2
secre@@ 2
eball 2
vous 2
cerning 2
diamond 2
Kimb@@ 2
erly 2
mp@@ 2
Thessalon@@ 2
yp@@ 2
estiv@@ 2
Violet 2
worth@@ 2
ul 2
י 2
elines 2
iousness 2
ritical 2
Mai@@ 2
mot@@ 2
zer@@ 2
missive 2
heaven@@ 2
institu@@ 2
atal@@ 2
admon@@ 2
Democratic 2
Ş@@ 2
bot@@ 2
simpl@@ 2
thful 2
Bru@@ 2
adoles@@ 2
imag@@ 2
Siv@@ 2
Ni@@ 2
evertheless 2
enor@@ 2
lement 2
Lang@@ 2
posit@@ 2
econom@@ 2
Sak@@ 2
syn@@ 2
aband@@ 2
compani@@ 2
Gom@@ 2
persec@@ 2
ar’s 2
rement 2
refl@@ 2
cin@@ 2
rius 2
psy@@ 2
ORY 2
Modes@@ 2
brary 2
iak@@ 2
env@@ 2
00 2
country@@ 2
sam 2
erness 2
arch 2
Inc@@ 2
add@@ 2
or’s 2
threat@@ 2
ida 2
Wa@@ 2
surance 2
surve@@ 2
Syd@@ 2
sadd@@ 2
commodations 2
iver 2
Shu@@ 2
eta 2
Ju@@ 2
lev@@ 2
ET@@ 2
Nam@@ 2
asi 2
stance 2
inhabit@@ 2
Wesley 2
199@@ 2
Velik@@ 2
San@@ 2
wif@@ 2
first@@ 2
proval 2
Kathar@@ 2
otel@@ 2
ifically 2
urs 2
bb@@ 2
uters 2
reput@@ 2
AV@@ 2
Nad@@ 2
atu 2
mbo 2
Dic@@ 2
lit@@ 2
entertain@@ 2
astes 2
ensible 2
aka 2
fragr@@ 2
uph@@ 2
Lat@@ 2
ather 2
NO 2
escribable 2
anie 2
transl@@ 2
ilt 2
declar@@ 2
cup@@ 2
Kath@@ 2
puff@@ 2
alty 2
degre@@ 2
tally 2
princip@@ 2
tten 2
responsib@@ 2
erful 2
commod@@ 2
seas@@ 2
acity 2
ala@@ 2
heav@@ 2
atedly 2
Kore@@ 2
ANSW@@ 2
templ@@ 2
assign@@ 2
siv@@ 2
ider 2
erce 2
Fu@@ 2
Eas@@ 2
Q@@ 2
Gab@@ 2
illions 2
indi@@ 2
lication 2
Blos@@ 2
subj@@ 2
tification 2
ires 2
ke@@ 2
nment 2
Read@@ 2
homel@@ 2
Of@@ 2
floo@@ 2
ther’s 2
mala 2
shoul@@ 2
neighbor@@ 2
aic 2
stem 2
je 2
erad@@ 2
Palest@@ 2
Kar@@ 2
ghty 2
nia 2
aka@@ 2
å@@ 2
incap@@ 2
ATE 2
offic@@ 2
yle 2
Eu@@ 1
enber@@ 1
Kw@@ 1
eku 1
anx@@ 1
ternative 1
isual@@ 1
SY@@ 1
Uzz@@ 1
recogn@@ 1
etown 1
agu@@ 1
asl@@ 1
LA 1
appreci@@ 1
j 1
etern@@ 1
makers 1
Avi@@ 1
ache 1
braz@@ 1
Lav@@ 1
isite 1
195@@ 1
guid@@ 1
uva 1
Lou@@ 1
uct@@ 1
cloth@@ 1
nda@@ 1
Sanhedr@@ 1
keen@@ 1
Jacob@@ 1
Max@@ 1
wam@@ 1
phil@@ 1
oth 1
ilead 1
Suff@@ 1
mocr@@ 1
relev@@ 1
prosper@@ 1
draw@@ 1
Gh@@ 1
istics 1
All@@ 1
grow@@ 1
irc@@ 1
IB@@ 1
dex 1
amaz@@ 1
horn 1
envir@@ 1
eship 1
itionally 1
ndem@@ 1
relig@@ 1
ion’s 1
itful 1
Stand@@ 1
olden 1
ó@@ 1
marit@@ 1
hou@@ 1
Prof@@ 1
isc@@ 1
tist 1
prostitu@@ 1
lag 1
candid@@ 1
Retur@@ 1
hap@@ 1
KO 1
overbs 1
ouldn’t 1
erg 1
proclam@@ 1
1900 1
espec@@ 1
yl 1
Simil@@ 1
fa@@ 1
Fam@@ 1
gotten 1
lifest@@ 1
whel@@ 1
ongo 1
eafter 1
consist@@ 1
beli@@ 1
amm@@ 1
secretar@@ 1
Kal@@ 1
Bed@@ 1
17.@@ 1
á 1
idolat@@ 1
anguage 1
tronic 1
shoc@@ 1
Lama 1
Assemb@@ 1
phas@@ 1
athers 1
Revel@@ 1
perman@@ 1
sat@@ 1
ava 1
visa 1
isher 1
restrain@@ 1
1901 1
male@@ 1
evangeliz@@ 1
Jeph@@ 1
Oc@@ 1
Revi@@ 1
Dieh@@ 1
gust@@ 1
pregn@@ 1
angu@@ 1
abled 1
ammite 1
beria 1
larg@@ 1
una 1
isi 1
promin@@ 1
nal@@ 1
ustry 1
rh 1
aan@@ 1
other@@ 1
mia 1
Bud@@ 1
atically 1
arely 1
ONI 1
Simeul@@ 1
Eliez@@ 1
lee@@ 1
ix 1
Hum@@ 1
Zo@@ 1
uti 1
lice 1
dering 1
ASA 1
Ko@@ 1
BB@@ 1
hund@@ 1
urity 1
Sen@@ 1
ainly 1
odus 1
wic@@ 1
Dore@@ 1
atana 1
plat@@ 1
millenni@@ 1
casting 1
fair@@ 1
obli@@ 1
bag@@ 1
cliff@@ 1
pment 1
elik@@ 1
Joseph@@ 1
credi@@ 1
ias@@ 1
Sev@@ 1
Elis@@ 1
abeth 1
lel@@ 1
olf@@ 1
ressed 1
unities 1
perio@@ 1
ule 1
mone 1
fut@@ 1
pread 1
ï@@ 1
ch’s 1
apar@@ 1
hung@@ 1
ANY@@ 1
EE 1
inherit@@ 1
victi@@ 1
slow@@ 1
Viet@@ 1
asy@@ 1
simpli@@ 1
merly 1
camp@@ 1
Kam@@ 1
anda 1
raining 1
nak@@ 1
wheelch@@ 1
fond@@ 1
plag@@ 1
gn 1
cribe 1
ordinate 1
clo@@ 1
ress@@ 1
Tasman@@ 1
ith@@ 1
bach 1
New@@ 1
ata 1
immor@@ 1
Signific@@ 1
neighb@@ 1
sary 1
help@@ 1
IU@@ 1
coin@@ 1
ç@@ 1
oya 1
upri@@ 1
willing@@ 1
wol@@ 1
Ye@@ 1
company@@ 1
aal@@ 1
ris 1
onze 1
ople 1
oci@@ 1
Tas@@ 1
Gol@@ 1
kat@@ 1
iti 1
Europe@@ 1
Nure@@ 1
ITATE 1
highligh@@ 1
É 1
orrow 1
ousy 1
communist 1
illa 1
leness 1
sula 1
Ez@@ 1
unga 1
acle 1
eo 1
deter@@ 1
itual 1
itiz@@ 1
enship 1
agon@@ 1
wak@@ 1
Margare@@ 1
express@@ 1
pest@@ 1
oos@@ 1
rying 1
Kle@@ 1
idable 1
rial 1
asies 1
Pac@@ 1
forfe@@ 1
prac@@ 1
ource 1
thers 1
Nd@@ 1
è 1
amu 1
See@@ 1
Austral@@ 1
Lid@@ 1
Zamb@@ 1
ales 1
atures 1
anni 1
isit@@ 1
trum@@ 1
Wit@@ 1
jew@@ 1
lex 1
î@@ 1
ok 1
sioned 1
Regre@@ 1
sus@@ 1
Mek@@ 1
melo@@ 1
edy 1
י@@ 1
ו@@ 1
prodi@@ 1
ango 1
Vul@@ 1
nerable 1
disp@@ 1
achable 1
regi@@ 1
ulc@@ 1
dign@@ 1
olin@@ 1
rul@@ 1
ı@@ 1
ş 1
vac@@ 1
Kuj@@ 1
Marri@@ 1
isive 1
flex@@ 1
vised 1
Rejo@@ 1
icing 1
Toñ@@ 1
terri@@ 1
gres@@ 1
toria 1
ivil 1
elika 1
preser@@ 1
TIONS 1
Bab@@ 1
mai 1
Shul@@ 1
Cos@@ 1
mail@@ 1
sel 1
fant@@ 1
Kings@@ 1
kar@@ 1
Ano@@ 1
maim@@ 1
expos@@ 1
ica 1
wath@@ 1
Joh@@ 1
USS@@ 1
clesi@@ 1
anean 1
transfer@@ 1
mose 1
chy 1
ri 1
material@@ 1
enne 1
S.@@ 1
Dani@@ 1
deligh@@ 1
Refl@@ 1
lier 1
wrongdo@@ 1
prior@@ 1
ele 1
onetheless 1
Mb@@ 1
ololo 1
essful 1
antido@@ 1
tes 1
lel 1
magnific@@ 1
rewar@@ 1
gures 1
distric@@ 1
metho@@ 1
ific 1
selves 1
kind’s 1
Christ@@ 1
avel 1
Yo@@ 1
evenly 1
awa 1
estivals 1
an’t 1
Chris@@ 1
Sud@@ 1
tionary 1
nocent 1
yat@@ 1
Sus@@ 1
onan@@ 1
blam@@ 1
mor 1
build@@ 1
Jim@@ 1
brook 1
compan@@ 1
ais@@ 1
ambi@@ 1
acher 1
gued 1
Archae@@ 1
tom@@ 1
wet@@ 1
contain@@ 1
aiya 1
resurrec@@ 1
empl@@ 1
Spr@@ 1
perspec@@ 1
trage@@ 1
Cali@@ 1
W’@@ 1
Sign@@ 1
entful 1
Lef@@ 1
ourself 1
happi@@ 1
peac@@ 1
usias@@ 1
urthermore 1
circum@@ 1
Avi 1
vin@@ 1
ford 1
Pic@@ 1
tit@@ 1
inely 1
Year@@ 1
caf@@ 1
shel@@ 1
Sylvi@@ 1
congreg@@ 1
amental 1
ishment 1
Vi@@ 1
stret@@ 1
Canaan@@ 1
vana 1
anz@@ 1
Rama@@ 1
vul@@ 1
YA@@ 1
Hear@@ 1
spor@@ 1
torm@@ 1
ember 1
fort 1
kin@@ 1
eaved 1
iko 1
phoon 1
say@@ 1
underst@@ 1
oni 1
namon 1
END@@ 1
lish 1
nie 1
Taku@@ 1
Ven@@ 1
promo@@ 1
Eun@@ 1
Ron@@ 1
weet@@ 1
obst@@ 1
Discer@@ 1
Rene@@ 1
ferv@@ 1
orig@@ 1
differ@@ 1
cial 1
Anth@@ 1
eral 1
Tab@@ 1
ernacle 1
ā@@ 1
ʼ 1
oving 1
Ill@@ 1
ilty 1
reek 1
smal@@ 1
edonia 1
authentic@@ 1
respond@@ 1
utr@@ 1
arted 1
discer@@ 1
INGS 1
stead 1
mom@@ 1
edness 1
Ó@@ 1
Freder@@ 1
eny@@ 1
Saulo 1
ie@@ 1
Ra@@ 1
ityp@@ 1
fru@@ 1
oa 1
bud@@ 1
estions 1
uela 1
Nis@@ 1
mies 1
Rac@@ 1
mater@@ 1
asu 1
ami 1
pub@@ 1
May@@ 1
excep@@ 1
Rich@@ 1
inement 1
Mid@@ 1
ple’s 1
lifes@@ 1
Pau@@ 1
amina 1
sider 1
amin 1
thorough@@ 1
mosphere 1
arg@@ 1
Maure@@ 1
mang@@ 1
eria 1
Lor@@ 1
Chr@@ 1
marri@@ 1
sound@@ 1
ALY@@ 1
mocratic 1
uu 1
hy 1
imaginable 1
prepar@@ 1
anity 1
osie 1
clam@@ 1
iri@@ 1
good@@ 1
beauti@@ 1
Hay@@ 1
many@@ 1
usal 1
Kit@@ 1
John@@ 1
Azar@@ 1
Ala 1
bapti@@ 1
COUN@@ 1
commis@@ 1
smil@@ 1
dn’t 1
famil@@ 1
mana@@ 1
mey@@ 1
Pot@@ 1
web@@ 1
Ata 1
stan 1
umen 1
ostly 1
Encyclop@@ 1
Kev@@ 1
isely 1
Cla@@ 1
Steph@@ 1
victim@@ 1
deal@@ 1
bel 1
aul 1
undi 1
eteria 1
kw@@ 1
harsh@@ 1
sunam@@ 1
atie 1
aman@@ 1
Emp@@ 1
athy 1
ʺ 1
desir@@ 1
ICAN 1
accompani@@ 1
Wall@@ 1
Clau@@ 1
deep@@ 1
phes 1
mam@@ 1
sibly 1
merch@@ 1
surr@@ 1
ä@@ 1
ndis@@ 1
che 1
ks@@ 1
circumc@@ 1
tegr@@ 1
unthank@@ 1
syl@@ 1
LIA 1
foref@@ 1
auxili@@ 1
Isra@@ 1
phesh 1
ogue 1
Mean@@ 1
bab@@ 1
Ak@@ 1
tus 1
urch 1
Uk@@ 1
situ@@ 1
olot@@ 1
nik@@ 1
Pe@@ 1
Fili@@ 1
marvel@@ 1
anniver@@ 1
letin 1
ableness 1
lum@@ 1
aring 1
and’s 1
mir@@ 1
mok@@ 1
iota 1
idden 1
ima@@ 1
ʽ@@ 1
efin@@ 1
tified 1
cle@@ 1
feit 1
raced 1
ient 1
ó 1
Mesop@@ 1
otam@@ 1
accur@@ 1
esi@@ 1
ege 1
More@@ 1
warm@@ 1
KA 1
thern 1
occasi@@ 1
mistak@@ 1
sar@@ 1
oted 1
eved 1
shre@@ 1
ura 1
Ec@@ 1
ador 1
