. 47866
na 39225
, 34914
wa 22608
: 14505
kana 13138
nĩ 12122
ya 9328
? 8464
- 7838
Yeova 7627
ala 7490
) 7430
( 7412
“ 7026
” 6890
ma 6730
andũ 6306
Ngai 6192
ũndũ 6028
o 5784
ũla 5481
ĩla 5012
mũno 4820
ũsu 4189
ta 3981
maũndũ 3911
ũu 3733
kwa 3705
O 3573
nũndũ 3517
no 3476
kĩla 3441
Yesũ 3304
— 3251
mũndũ 3216
nthĩ 3206
kya 3132
sya 3124
ata 3066
1 3024
ĩvinda 3014
a 3011
Ĩndĩ 2940
Mbivilia 2807
ĩũlũ 2780
wĩ 2654
me 2553
angĩ 2483
; 2361
ũmwe 2265
kwĩthĩwa 2251
vyũ 2219
asu 2197
ĩndĩ 2131
Nĩ 2123
wake 2112
nesa 2090
kwĩka 2071
asa 2048
2 2043
ngelekany’o 1948
vata 1905
e 1899
’ 1896
‘ 1893
Na 1683
3 1647
ila 1595
vinya 1591
twĩ 1544
atĩĩ 1472
wĩa 1468
4 1454
5 1405
ana 1404
tene 1403
ĩsu 1400
make 1384
ĩngĩ 1372
mbee 1359
waĩ 1345
Ĩla 1319
Kwoou 1316
onthe 1316
myaka 1297
Kwa 1294
ndeto 1288
maĩ 1281
kĩ 1275
w’o 1258
6 1243
witũ 1239
nginya 1231
vamwe 1231
kuma 1216
naĩ 1208
ũũ 1186
amwe 1183
! 1167
ethĩwa 1160
mũseo 1152
yĩu 1131
12 1131
ve 1127
Aklĩsto 1124
aĩ 1123
ũvoo 1122
mũnene 1119
ngoo 1117
kau 1108
we 1103
nzĩa 1085
ũtonya 1074
11 1074
15 1064
veva 1064
10 1062
aingĩ 1043
mũĩkĩĩo 1031
Vaulo 1031
yĩla 1029
8 1013
kyaũ 1009
Nũndũ 1009
yĩ 990
ti 989
7 963
maingĩ 958
ma@@ 955
13 954
isu 949
woo 932
matonya 930
14 929
nake 925
Klĩsto 920
Ũsumbĩ 912
9 909
syĩ 898
Nĩkĩ 894
ũngĩ 881
thayũ 860
kwĩ 855
mathĩna 852
yake 847
mũsyĩ 844
syana 836
yonthe 833
mwana 810
17 803
namo 802
mavinda 801
tũtonya 800
Ngũsĩ 797
kĩthito 790
Andũ 778
kĩu 775
16 775
nthĩnĩ 769
vandũ 762
ĩtina 760
wa@@ 749
syĩndũ 747
tũ@@ 741
Soma 730
a@@ 718
aa 716
Ndeto 712
nzika 711
va 708
We 704
nzeo 703
ngwatanĩo 699
kũmanya 697
nĩwe 691
kwondũ 689
katĩ 684
ũ@@ 678
20 678
kĩndũ 670
No 665
Ũndũ 660
kũtavany’a 654
19 653
mũthenya 649
kĩvathũkany’o 649
waku 646
maitũ 641
kwona 638
kwĩkala 629
ũmũnthĩ 627
ĩvindanĩ 626
tondũ 626
18 620
nĩ@@ 609
Mbivilianĩ 608
mwanya 601
wĩva 597
ingĩ 591
mbingĩ 591
24 590
Mt 587
kwasya 585
ndaĩa 580
thĩna 578
ĩno 572
Satani 568
kĩkundi 568
kĩ@@ 566
kũ@@ 565
mũka 560
ĩtunĩ 560
wakwa 559
asyai 553
21 549
wendo 548
kwenda 546
kwĩmanyĩsya 546
moo 545
nĩwa@@ 543
naw’o 540
syoo 532
b 531
Ĩtina 529
Mwana 523
Ako 521
kĩtumi 520
mwaka 520
ĩmwe 519
yaĩtye 518
A@@ 516
22 516
vo 514
vau 513
mate 512
vala 509
nĩma@@ 508
Ethĩwa 507
ĩ@@ 505
me@@ 502
asya 500
twaĩle 497
kũũ 497
Meko 494
ngoonĩ 494
mwingĩ 492
[ 487
] 487
i@@ 485
yĩĩ 482
ka 479
meva 479
mat@@ 479
nĩw’o 476
woni 475
Luka 474
Sav 471
23 471
Ndaviti 470
K@@ 468
kĩkundinĩ 468
kĩthyomo 467
Savuli 465
at@@ 464
yaĩ 463
kũtuma 461
aisye 461
eka 458
ene 456
ĩte 448
kwoou 446
kĩkw’ũ 445
mbaĩ 442
ak@@ 440
kũtũmĩa 439
mwene 438
y@@ 437
amanyĩw’a 437
​ 434
laisi 432
/ 430
kũthi 429
mwĩĩ 426
nĩkĩ 421
kũtetheesya 421
Yoa 420
Nĩ@@ 420
kũsũanĩa 419
wĩkwatyo 419
ũseo 416
nyũmba 414
nd@@ 412
aĩkĩĩku 412
mauta 412
w’a 411
mĩtũkĩ 408
vai 408
Mũndũ 408
mak@@ 407
ũte 406
ie 405
mavuku 399
ngewa 396
eĩtu 396
waĩle 395
athũkũmi 395
yu 393
wĩtawa 393
Ĩvinda 392
ĩsyĩtwa 392
Yoana 390
25 388
Maandĩko 385
mũuo 384
nũtonya 382
mĩao 381
28 381
kũkwata 381
kũatĩĩa 380
mũvea 379
Ve 379
ũĩ 379
Mũsumbĩ 378
N@@ 376
vakuvĩ 376
ũtao 375
mwĩĩtu 372
Vetelo 372
ndĩni 371
ĩvuku 370
kũu 370
mũ@@ 369
syonthe 368
kũla 366
Kuma 366
yĩmwe 364
Aisilaeli 362
ũk@@ 361
makũlyo 361
ũtanu 361
twa@@ 360
nguma 360
Kĩla 359
ũw’o 359
Mose 358
kĩlungu 358
yĩ@@ 357
maũndũnĩ 355
Mathayo 354
syake 354
mũyo 353
T@@ 353
Maũndũ 353
kĩtonya 351
M@@ 344
kaũ 344
n@@ 344
kwĩanĩsya 340
kĩeleelo 339
ĩ 339
Nth 338
kũndũ 337
ya@@ 336
Avalaamu 336
Mwa 334
mũthĩnzĩo 333
aũme 333
maseo 333
mũtheu 333
Sisya 332
kũtũtetheesya 332
Mwĩaĩi 331
ũt@@ 330
ũmanyi 330
Kwasũanĩa 328
Vate 327
methĩwe 327
Ala 327
mũika 326
na@@ 324
sitũ 324
methĩawa 324
ũkethĩa 323
mwĩkalĩle 322
ng@@ 321
ii 319
mũna 319
nũ@@ 318
endaa 315
sy@@ 313
yitũ 312
kyake 309
kũtw’ĩka 309
ĩt@@ 308
wendi 307
yĩva 306
twĩthĩwe 306
Yovu 306
w’onthe 305
Yosevu 305
yoo 304
it@@ 303
i 303
myolooto 302
atũmwa 301
Tũtonya 300
kwonany’a 299
maĩle 298
kũmũthũkũma 297
ũthũku 295
mbesa 294
Atamu 294
ũtwi 293
mav@@ 293
Mavinda 293
e@@ 292
ĩthe 291
atumĩa 291
wasya 290
Ũ@@ 290
Isilaeli 289
wĩ@@ 289
Alo 289
Mũklĩsto 289
kĩveti 288
nĩtũ@@ 288
26 287
atonya 287
elĩ 287
ethĩwe 287
30 285
aĩtye 285
Ũu 283
ũtonyi 283
lĩu 282
aka 281
tei 279
mũminũkĩlyo 279
etĩkĩw’a 279
ũkũ@@ 278
ate 278
kwake 277
kyaĩ 277
awa 275
27 275
kĩanda 272
Aevl 271
kũmanyĩsya 271
Ayuti 270
sya@@ 270
29 270
am@@ 269
mũthũku 268
mingĩ 268
* 268
Ĩthe 267
kwĩw’a 267
imwe 266
Kĩklĩsto 266
ithyĩ 264
Vandũ 264
Timotheo 264
kũvika 263
Nthĩ 262
kũneena 262
nasyo 260
Ũla 256
ĩtwe 254
mwakanĩ 254
maũmbanonĩ 253
kĩmwe 253
mũtũmwa 252
ũthasyo 252
kĩsionĩ 252
kwĩkĩa 251
wĩthĩwe 251
vailyĩ 249
av@@ 248
k@@ 247
nĩmatonya 247
ky@@ 246
weetawa 246
mũũme 246
mana 246
mwĩao 245
Mwei 244
nzaũ 244
Tim 244
now’o 244
32 243
wĩanĩ 242
v@@ 241
kũlilikana 241
tw@@ 240
naitũ 240
aka@@ 239
ĩkũlyo 239
kĩlĩko 239
kũsoma 239
mboya 238
31 238
twĩ@@ 238
33 236
ĩtambya 235
moathimo 235
kwosana 235
inyia 235
nĩme@@ 234
motwi 234
kw’o 233
Nake 233
nĩkyo 232
ũkũmbaũ 231
ĩandĩko 230
mũthya 230
ũthaithi 230
ye 229
ũ 229
kwĩsa 229
Asa 229
silikalĩ 229
nĩkwĩthĩwa 228
nĩweesĩ 227
Vai 227
weekie 227
nakyo 227
nene 226
W@@ 225
Isa 224
ath@@ 224
mb@@ 223
ũv@@ 223
mũlũmu 222
wat@@ 222
ngũa 222
nthembo 221
kya@@ 221
ai@@ 220
makwa 220
Mĩao 220
mũtwaano 220
mai@@ 219
kyu 217
nda@@ 216
anaa 216
ũvũngũ 215
kumya 215
yũkĩte 214
mũvango 213
ndũũ 213
Ĩ@@ 213
mathũku 212
Yelusaleme 212
Ũvu 212
Isaia 211
ĩa 210
an@@ 210
Ma@@ 209
oou 209
vate 209
Mwambĩlĩlyo 208
34 207
atavany’a 207
maendeee 207
kũelewa 206
ik@@ 206
Kĩu 205
tũk@@ 205
kũtethya 205
mũnango 204
wĩthĩawa 204
yaku 204
ka@@ 204
Yakovo 204
w@@ 203
Ũmũnthĩ 202
37 202
ũsyao 202
mo 202
wovosyo 202
moalyũku 201
ĩandĩkonĩ 201
ngombo 201
Ĩvindanĩ 200
ndaĩ 200
any’a 199
kũendeea 198
kĩseo 198
Alomi 198
ĩtonya 198
nĩmat@@ 197
kũt@@ 197
math@@ 196
ngalĩ 196
Vet 196
wĩnyivyo 196
isye 195
weka 195
kwosa 194
nayo 193
manene 193
iwe 193
ũmbanonĩ 192
syaĩ 191
kũv@@ 191
mũsumbĩ 191
mũĩkĩĩku 191
nĩyo 190
Nĩt@@ 190
Ũvuan’yo 190
visa 190
itonya 190
E@@ 189
ũsumbĩki 186
kitũ 186
kelĩ 186
Noa 186
makethĩwa 185
MBATHI 185
mũndũũme 184
Mũthenya 183
al@@ 183
wenyu 183
ũsumbĩ 183
yakwa 183
ete 183
kyonthe 183
mavĩtyo 182
35 182
alaĩka 182
kĩngĩ 181
easya 180
ũlũngalu 180
o@@ 180
Ĩandĩko 179
ũm@@ 179
Mũsyaĩĩsya 178
mavata 178
kũkw’a 178
nĩmo 178
kalungu 177
sukulu 177
esa 177
maka@@ 177
eekie 176
ilĩ 176
Nd@@ 176
wendaa 176
Sala 175
ke 175
metho 175
ĩk@@ 175
ethĩawa 174
aatĩĩi 174
maendeeo 174
Akolintho 174
amũ@@ 173
Ekai 173
nthũku 173
V@@ 172
YA 172
nĩw@@ 172
40 172
Mũtũmwa 172
w’e 171
ne 171
nũseo 170
mĩvango 169
ĩasa 168
kwĩ@@ 167
Yo 167
mĩthenya 167
vanini 167
u 166
kwaĩ 166
mailyĩ 166
atatũ 166
Aev 165
nĩwat@@ 165
kũthũkũma 165
ita 165
naku 165
Twaĩle 165
Y@@ 164
ae 164
syaku 163
atĩ 163
Asu 163
kũnenga 163
twĩthĩawa 163
ũlaalai 163
Ĩvuku 163
ũtethyo 162
Atũmwa 162
nĩy@@ 162
ĩtye 162
kũmantha 161
maku 161
milioni 161
kw’oko 161
eke 161
mawĩa 159
kĩte 159
kĩĩ 159
malondu 159
kavinda 158
ane 158
waisye 157
Nyie 157
kũtavya 157
ũkany’o 157
momanyĩsyo 157
wendete 156
Ũvoo 156
Ana 156
mbau 156
ea 156
Ngelekany’o 156
ũthũkũminĩ 155
nĩwendete 155
Misili 155
as@@ 154
ee@@ 154
kala 154
kingĩ 154
anga 153
man@@ 153
iv@@ 153
ũka@@ 152
nĩtwaĩle 152
Eva 152
kwitũ 152
Lomi 152
mee@@ 151
kũvoya 151
ũmbano 150
ĩvukunĩ 150
kũmĩĩsya 150
Kana 150
ũkwenda 149
anĩsya 149
ĩe 149
Nĩvatonyeka 148
ithyomo 148
u@@ 148
mekalaa 148
Kĩevelania 148
kyoo 148
ũendeee 148
Ũsu 147
ĩv@@ 147
Mbaviloni 147
Ndanieli 147
anie 147
wathani 146
eanĩe 146
wũmĩĩsyo 146
ĩndĩĩ 146
ikundi 144
Kwosana 144
45 144
tũendeee 144
tũik@@ 144
kũsyawa 144
kwĩsĩla 144
ũtavany’a 143
valũa 143
ia 143
kwĩtĩkĩla 143
ĩkũmi 143
twĩke 143
ũth@@ 142
ki 142
ũseũvyo 142
tũte 142
mũtumĩa 142
aandĩkie 142
kwambĩĩa 142
Aisye 142
Mwakanĩ 141
Mwĩĩtu 141
wia 141
I@@ 141
ũtathela 141
nĩvatonyeka 141
mosũanĩo 141
mwaũ 141
twone 140
Mbetheli 140
kũlea 140
kwata 140
yĩt@@ 140
kwa@@ 140
mĩsyĩ 139
ũvonge 139
il@@ 139
tũmanye 139
kũvatiswa 139
kwoo 139
mavainia 139
Aevelania 139
nĩwĩsĩ 138
maũmbano 138
mũt@@ 138
nĩtwa@@ 138
kwĩyumya 137
ek@@ 137
athaithi 137
akũũ 137
m@@ 136
mũnini 136
kũelesya 136
atanu 136
kũk@@ 136
mwaki 136
methĩwa 135
athi 135
yĩtawa 135
syĩ@@ 135
tũi@@ 135
kĩa 134
kũea 134
may@@ 134
Aka 134
Nthimo 134
wĩsĩ 134
nakwa 134
in@@ 134
kũmũ@@ 133
wee@@ 133
kũtata 133
ũthayũũkyo 133
Mũ@@ 133
Amwe 133
ai 133
ona 133
The 133
S@@ 133
anĩa 133
maandĩko 132
kũũtetheesya 132
ndũa 132
aĩle 132
Mũmbi 132
anĩte 132
maik@@ 131
oonanisye 131
ũthũkũmi 131
Ũtonya 130
aw’a 130
Kĩlungu 130
wĩthĩwa 130
uma 130
Kĩkiliki 130
ndũanĩ 130
Sam 129
nĩtũtonya 129
endete 129
asikalĩ 129
mumo 129
kaũnĩ 129
kũth@@ 129
mw@@ 129
sisya 129
inyw’ĩ 129
kwĩthĩa 128
wonaa 128
kyakwa 128
amaitha 128
twaĩlĩte 128
maya@@ 128
ũilyĩ 127
Ngewa 127
Kwĩka 127
ang@@ 127
nũkũ@@ 127
tũt@@ 127
nũũ 127
New 126
kĩva 126
malĩ 126
iw’e 126
anyanyae 126
Ng@@ 125
nyie 125
Mbee 125
kwaka 125
meekie 125
Nĩkyo 125
ũtianĩo 125
um@@ 125
kwananga 125
mea 124
akat@@ 124
yĩngĩ 124
Yu 124
thayũnĩ 124
Myaka 124
mwĩ@@ 124
ũl@@ 124
ngalĩko 124
ĩkaseti 123
ũmũ@@ 123
ekai 123
atongoi 123
ũkethĩwa 123
enda 123
mweũ 123
ũtumaa 122
kyatumie 122
kanini 122
ilungu 122
nĩwendaa 122
monaa 122
ait@@ 122
kĩw’ũ 121
ũta@@ 121
nĩsy@@ 121
and@@ 121
kenda 121
wĩana 121
ũkũmũ 120
ĩtw’e 120
Nyũmba 120
makonetye 120
mĩvĩtu 120
maũvoo 120
mwathani 120
mũthemba 120
mas@@ 120
anĩ 119
38 119
Asyai 119
mekaa 119
41 119
anĩaa 119
kũsũvĩa 119
ũkwate 119
wĩkaa 119
kũtũ@@ 119
Ndevili 118
nũtwendete 118
Wĩa 118
Kũ@@ 118
amina 118
Yak 118
kũtonya 118
ndak@@ 118
Ata 118
mwĩ 117
mathi 117
yonanĩtye 117
mũisyo 117
anene 117
Namo 117
ithyonthe 116
A 116
mwĩanĩe 116
ũtũ@@ 116
ama@@ 116
waĩlĩte 116
L@@ 116
mũthũkũmi 116
kũlika 115
yonanasya 115
akethĩwa 115
ũi@@ 115
Mũnene 115
Valao 115
kĩtumaa 115
wĩona 115
nthakame 115
ite 115
ĩkalũ 114
ũvainia 114
moko 114
kumana 114
Ti 114
kyongo 114
kũnyw’a 114
kũalyũla 113
nata 113
mũtĩ 113
meke 113
Maandĩkonĩ 113
kũmwenda 113
kyama 112
O@@ 112
waitũ 112
Veva 112
ĩnee 112
yĩthĩawa 112
taoninĩ 112
ekaa 112
twĩthĩwa 112
lasima 111
wĩw’aa 111
nĩnĩ@@ 111
twaĩ 111
ũwau 111
ũthwii 110
wayo 110
nĩwaĩle 110
mawoni 110
Eliya 110
yo 110
kĩt@@ 110
39 110
mũv@@ 110
syĩva 110
Avi 109
ĩka 109
mũtanu 109
nĩna@@ 109
kũmina 109
kũya 109
w’ĩte 109
myakanĩ 109
twasye 109
nĩkĩ@@ 109
mĩio 109
ekalaa 108
kw@@ 108
mamũ@@ 108
kũkita 108
mawetetwe 108
Aĩtye 108
ĨTHANGŨ 108
kũsumbĩka 108
mait@@ 108
mendete 108
kyaku 108
Nĩwa@@ 107
mayaĩ 107
nde 107
ela 107
ĩs@@ 107
kũma@@ 106
Mko 106
yaĩle 106
mekwenda 106
mata@@ 106
Samueli 106
nĩtw@@ 106
meko 106
nĩwĩ@@ 105
43 105
ũka 105
kũweta 105
vaa 105
Bible 105
E 105
vaĩ 105
nini 105
kũlũmany’a 105
mũandĩki 105
ũs@@ 104
twa 104
Solomoni 104
ndũk@@ 104
kaĩ 103
onĩ 103
nĩwee@@ 103
oona 103
Saulo 103
matatwa 103
thĩnanĩ 103
Aingĩ 102
mũlaĩka 102
athũku 102
kĩaa 102
36 102
WA 102
elewa 101
matwaanĩte 101
ee 101
kũtũtethya 101
atanamba 101
nĩmav@@ 101
ũkunĩkĩli 101
mwanake 101
twĩsĩ 101
alũngalu 101
wenda 101
mo@@ 100
wav@@ 100
Amelika 100
kĩnene 100
nĩn@@ 100
watho 99
kũeka 99
syũmbe 99
Tata 99
ũkat@@ 99
42 99
tũyaĩle 99
nde@@ 99
et@@ 99
kwakwa 99
umaa 99
kũlya 98
ĩth 98
es@@ 98
Nthĩnĩ 98
Nzĩa 98
ndesa 98
ovisi 98
va@@ 98
is@@ 98
100 98
mũk@@ 98
Yuta 98
kavola 98
ũna 98
kaa 98
ngili 97
ĩle 97
ndonya 97
anasya 97
kũmwĩw’a 97
mbinyu 97
nĩkũtumaa 97
Kĩsũngũ 97
ianda 97
kũtanĩa 96
kwendeesya 96
ataa 96
amũika 96
Mav 96
onaa 96
Enoko 96
syĩtwa 96
ul@@ 96
mĩ@@ 96
mamanye 96
mũũndanĩ 95
kwĩtanĩthya 95
ungu 95
ĩwa 95
Nzama 95
Ĩĩ 95
Kwondũ 95
eeie 95
kũnengane 95
nĩmaĩle 95
Kaũ 95
mũnyanyae 95
mũsyai 95
ũnyanya 95
Masia 95
ĩkasetinĩ 94
myei 94
Ndetonĩ 94
eaa 94
nũt@@ 94
kũnengwa 94
Kwĩ@@ 94
endeea 94
en@@ 94
isionĩ 94
yĩatĩĩe 94
mekale 94
vaasa 93
atĩĩa 93
ngai 93
any’e 93
Meli 93
atheu 93
ol@@ 93
mate@@ 92
wawetie 92
osa 92
kwaku 92
kũka 92
syĩthĩo 92
akw’a 92
nĩya@@ 92
ũkombonĩ 92
ate@@ 92
mũkũũ 92
of 92
ũkũsĩ 92
nĩwĩthĩawa 91
mal@@ 91
Wendo 91
the 91
maana 91
kũĩkĩĩa 91
ũndũnĩ 91
Lilikana 91
ũsili 91
Mat@@ 90
kwĩkũlya 90
elesya 90
weethĩa 90
ethya 90
mũth@@ 90
mwambĩĩonĩ 90
saenzi 90
in 90
ũte@@ 90
nat@@ 90
kwĩanĩa 89
44 89
Kĩndũ 89
ũyĩthĩa 89
asumbĩ 89
aseo 89
ũtũnengete 89
kĩl@@ 89
nĩky@@ 89
Nao 89
Mwaka 89
Amanyĩw’a 88
Mb@@ 88
nzyawa 88
nyamũ 88
ĩie 88
mĩthũku 88
kal@@ 88
Twĩ 88
kũkwatwa 88
wesie 87
tũka@@ 87
mayĩ@@ 87
Elesya 87
inĩ 87
tyo 87
Mo 87
vatonyeka 87
ekala 87
ay@@ 87
1914 87
anĩtye 87
ũtukũ 87
twoona 87
vainia 87
Kwĩthĩwa 87
manyĩsya 87
esĩ 87
Mũta 86
aendeee 86
ĩaa 86
kwelekela 86
nĩwoonanisye 86
I 86
mendaa 86
Ath 86
menyu 86
kĩsio 85
atũmĩaa 85
el@@ 85
l@@ 85
woonie 85
Kĩvathũkany’o 85
ũsũngĩo 85
anĩie 85
nesanga 85
t@@ 85
makat@@ 85
umĩte 85
amb@@ 85
esie 84
mataĩ 84
kĩmũtũ 84
nĩtwĩ@@ 84
methĩĩtwe 84
matukũ 84
amanya 84
thanthatũ 84
mbua 84
syũa 84
H@@ 84
nĩkũtonya 84
kyumwa 84
nĩtwĩsĩ 84
ĩnene 84
Ali 84
ni@@ 83
wath@@ 83
makeethĩwa 83
eeka 83
kwĩthukĩĩsya 83
aeni 83
iveti 83
oka 83
kũsisya 83
kũmũthaitha 83
Sukulu 83
anisye 82
eethĩawa 82
kũlũlũmĩlya 82
amwĩa 82
eie 82
masaa 82
atĩte 82
sikala 82
ith@@ 82
wambĩĩe 82
ũsengy’o 82
nyanya 82
ĩwe 82
Kũt 82
yaĩlĩte 82
kwat@@ 82
kũĩkĩĩthya 82
mũmanyĩw’a 82
nĩwawetie 81
Aavu 81
ũmanye 81
twĩkale 81
wĩthĩĩtwe 81
kĩlĩkonĩ 81
maumĩte 81
tũla 81
mowau 81
th@@ 81
maĩlĩte 81
kĩk@@ 80
nĩm@@ 80
Twa@@ 80
nĩsya@@ 80
Ak@@ 80
mĩtĩ 80
we@@ 80
mawatho 80
ĩĩ 80
mũsyaĩĩsya 80
ĩl@@ 80
kĩe 80
watumie 80
Eteni 79
akw’ũ 79
mũtwe 79
mĩsoa 79
maasya 79
nĩwatumie 79
nguthu 79
ũkya 79
tũika@@ 79
wamũ@@ 79
kwĩmakĩa 79
nĩwambĩĩe 78
Kĩtumi 78
wĩthĩe 78
simũ 78
Ĩtongoesye 78
mwingangĩ 78
kũl@@ 78
etwe 78
Nĩkwĩthĩwa 78
os@@ 78
mĩvothi 78
U@@ 78
aĩlĩte 78
nĩvo 78
w’aa 78
s@@ 78
syenyu 78
kyeva 78
w’ĩka 78
nga@@ 78
matũmĩaa 77
motao 77
ilyĩ 77
ũtũmĩaa 77
ũa 77
ũathimo 77
matetheesye 77
mwolooto 77
mũonza 77
wĩkĩte 77
waĩtye 77
oo@@ 77
ũtetheesya 77
mũthyũlũlũko 77
mosũngĩo 77
ndaa@@ 77
ayĩ@@ 77
mbathi 77
ile 77
matumaa 77
ailyĩ 77
ind@@ 76
ovisinĩ 76
kũasa 76
nyũmbanĩ 76
nĩwav@@ 76
unĩ 76
kũte 76
nĩwoonie 76
ĩlĩ 76
nĩwesie 76
Mak@@ 76
ũtaĩle 75
kav@@ 75
tũte@@ 75
esaa 75
nũkwenda 75
atw’ĩka 75
kũandĩka 75
mũlũngalu 75
nũtumaa 75
ing@@ 75
taoni 74
kwĩana 74
▪ 74
nza 74
Atumĩa 74
nĩmee@@ 74
ndawa 74
manya 74
kũneenea 74
Yonthe 74
mĩmeo 74
ambĩĩa 74
kũmatetheesya 74
01 74
C@@ 74
sũanĩa 74
si@@ 74
Isaka 73
wĩonany’a 73
wak@@ 73
50 73
ĩkĩĩaa 73
Nĩvo 73
tũyĩ@@ 73
ĩtuvi 73
kĩth@@ 73
NA 73
kwanangwa 73
itumi 73
ndwaĩ 73
aitũmĩa 73
ina 73
endie 73
kelĩtu 72
umya 72
France 72
weewie 72
wasyo 72
nz@@ 72
Athũkũmi 72
ko 72
ĩsomonĩ 72
ũkonetye 72
weta 72
kauta 72
amwĩ@@ 72
asyoka 72
kwĩkĩka 72
anĩe 72
asye 71
mũisyonĩ 71
maaĩle 71
atũmĩie 71
mũima 71
wathi 71
nĩv@@ 71
Na@@ 71
Yelemia 71
atie 71
Kũmanya 71
World 71
mesĩ 71
atũi 71
ika 71
yĩana 70
manyĩasya 70
ndya@@ 70
nĩkũ@@ 70
tũyĩsa 70
ku 70
on@@ 70
46 70
Esekieli 70
ananga 70
mesaa 70
ĩsya 70
kwasũanĩa 70
ov@@ 70
atũtetheesye 70
viasala 70
eanĩsye 70
nĩweekie 70
nĩwonaa 70
ĩtatũ 69
mwei 69
ũnga 69
twasũanĩa 69
eng@@ 69
ele 69
anĩasya 69
ĩkĩte 69
kavaa 69
ndũka@@ 69
ema 69
ĩsye 69
waandĩkie 69
eete 69
mĩthĩnzĩo 69
ndata 69
Tũ@@ 69
ngya 69
mĩthenyanĩ 69
Nĩnĩ@@ 69
asomi 69
ĩkalũnĩ 69
ei 69
tũi 68
katatũ 68
Ithyĩ 68
eethĩwa 68
waumisye 68
masyĩtwa 68
ĩvĩtyo 68
im@@ 68
kwatya 68
manyĩisye 68
Matukũ 68
ngito 68
oma 68
nĩtwendete 68
mĩisyo 68
keka 68
itatũ 68
nĩyĩ@@ 68
mũũnda 68
nam@@ 68
kũs@@ 68
wĩvĩto 68
ũng’endu 67
Nĩna@@ 67
ndi@@ 67
maĩkĩĩaa 67
ũkũũ 67
saa 67
Leveka 67
nĩwath@@ 67
ũtonyeka 67
ũkanga 67
alea 67
yeetawa 67
ninyie 67
ngũĩ 67
tweeka 67
mavukunĩ 67
Holy 67
atw’ĩke 67
Aĩ 67
:⁠ 67
an’ya 67
yat@@ 67
Easya 67
asũanĩa 66
kũlwa 66
inya 66
MA@@ 66
oneka 66
ĩthangũnĩ 66
mũs@@ 66
wĩke 66
Germany 66
meana 66
Onthe 66
kyenyu 66
ndũ@@ 66
Syana 66
athembi 66
Nũũ 65
kũmũnenga 65
wĩting’o 65
maendaa 65
aĩe 65
kwĩnyuvĩa 65
kĩlungunĩ 65
woonanisye 65
Esekia 65
ĩkĩĩa 65
yĩthĩwe 65
nĩmethĩawa 65
ũnĩ 65
nthoni 65
wanengie 65
wonanasya 65
nee@@ 65
ĩtu 64
kwĩanana 64
kũseũvya 64
the@@ 64
avika 64
kwatasya 64
makwate 64
amwĩie 64
moona 64
mbalasi 64
endeee 64
eleawa 64
Mami 64
twat@@ 64
Australia 64
ewi 64
kwoneka 64
ũkeethĩwa 64
syĩthĩawa 64
woona 64
wĩkalaa 64
kĩlasi 64
55 64
atũ@@ 64
tũatĩĩe 64
mesa 63
tũkwate 63
ũng@@ 63
anenga 63
kũngĩ 63
ĩthangũ 63
kũmakya 63
– 63
tũth@@ 63
mũtetheesya 63
ndat@@ 63
mũtũi 63
meethĩawa 63
Mũndũũme 63
amisonalĩ 63
thĩnw’a 63
atetheesya 63
ani 63
mũsoa 63
nĩt@@ 63
ilye 63
mayĩsa 63
ũkĩte 63
kũtia 63
syama 62
kĩĩte 62
eteele 62
aima 62
kũtwaana 62
ũtavany’anĩ 62
nũtũ@@ 62
atetheesye 62
Yel 62
tũsũanĩe 62
kũtetheew’a 62
ndyaĩ 62
mavisa 62
Ndũk@@ 62
ewa 62
Kũsũanĩa 62
wo@@ 62
eekaa 62
tũl@@ 62
kwatie 61
ĩmanyĩasya 61
kũlasya 61
mũito 61
Keka 61
ũkiakisyo 61
Mboya 61
thooa 61
ev@@ 61
nĩtũmwendete 61
kũtũmĩwa 61
mũtavany’a 61
nĩmeesĩ 61
Kĩeleelo 61
kwĩlikya 61
Translation 61
thaavu 61
tũkwĩmanyĩsya 61
Kũtũngĩlĩlwa 61
kũthamĩĩa 61
mĩseo 60
ũmb@@ 60
nĩng@@ 60
ĩlĩte 60
Avilivi 60
R@@ 60
Maliko 60
Nyũmbanĩ 60
manyĩĩtye 60
athima 60
MŨ@@ 60
etee 60
ndy@@ 60
Ũmwe 60
nĩwamanyie 60
mambĩĩe 60
ĩkĩĩthya 60
nũm@@ 60
one 60
nitonya 60
G@@ 60
kĩwa 60
anini 60
tũv@@ 60
makav@@ 60
wĩka 60
ngenda 60
no@@ 60
ekale 60
ũwetetwe 60
kĩlomita 60
kũsyoka 60
osaa 59
mũthũkũma 59
mamwĩ@@ 59
kũmũthengeea 59
Ĩsomo 59
B@@ 59
kat@@ 59
mĩtũlyo 59
maatĩĩe 59
ilĩko 59
ĩkaa 59
ntheu 59
kũtumaa 59
ku@@ 59
ĩseo 59
Language 59
ngũlũ 59
48 59
Mũandĩki 59
vaĩle 59
kwĩkalany’a 58
—⁠ 58
W’o 58
mwĩanĩu 58
eew’aa 58
kũilyĩ 58
mathũkũmaa 58
mũwau 58
eewie 58
Angĩ 58
Mũseo 58
D@@ 58
asyokie 58
mambĩĩa 58
nzeve 58
ũiiti 58
nĩnat@@ 58
kũthela 58
kũmũtetheesya 58
ũseũvyonĩ 58
kĩna 58
kwĩvathana 58
watũmĩie 58
Japan 58
woombie 58
atũmĩĩte 58
ĩtomo 58
tũmaũndũ 58
oĩ 58
methonĩ 58
2@@ 58
makwie 58
Naĩ 58
makũ@@ 58
ũtetheesye 57
take 57
Elisa 57
mba 57
ony’a 57
esya 57
angaa 57
awetie 57
ndendaa 57
makwataa 57
makaseti 57
Ĩmanyĩasya 57
om@@ 57
makwata 57
Aeveso 57
ĩkĩĩthasya 57
inda 57
Kikamba 57
Mũtavan’ya 57
masũanĩaa 57
mĩt@@ 57
mes@@ 57
Weeka 57
kũtũnga 57
nĩk@@ 57
Aiee 56
mew’aa 56
siasa 56
65 56
ũngĩa 56
Ngoliathu 56
nenyu 56
Yevitha 56
ew’aa 56
asũanĩaa 56
tweteele 56
z@@ 56
ĩw’a 56
mekĩte 56
meekaa 56
ũtaĩ 56
kan@@ 56
Mũĩkĩĩo 56
ũyĩ@@ 56
wone 56
kĩv@@ 56
ũmĩaa 56
Ĩkaseti 56
Kĩswaili 56
ũvĩa 56
aneenaa 56
mũĩ 56
Nzekalia 56
moseo 56
maili 56
mũthembi 56
mĩĩ 56
kũsũngĩa 55
wesaa 55
mawendi 55
syakwa 55
tũkeethĩawa 55
sinema 55
atĩĩaa 55
masyo 55
Yosua 55
angĩĩa 55
kũkũlya 55
Esek 55
kũnyuva 55
kĩthũku 55
akav@@ 55
ew’a 55
P@@ 55
ĩsomo 55
kũekea 55
akĩ@@ 55
amanye 55
othaa 55
anyanya 55
manengetwe 55
end@@ 54
koti 54
twenda 54
Ĩkũlyo 54
yingĩ 54
mawĩmakĩo 54
Myakanĩ 54
kũtw’a 54
mawonzu 54
amea 54
Makũlyo 54
ika@@ 54
aim@@ 54
ũkwĩka 54
Eka 54
Kelĩ 54
kwendeew’a 54
kũmanyĩw’a 54
Vinya 54
oonaa 54
waa 54
tũkat@@ 54
kwĩlila 54
ĩna 54
Current 54
anengie 54
twee@@ 54
ngathĩĩo 54
ana@@ 54
maneenaa 54
maelesyo 53
nak@@ 53
tamo 53
Tweeka 53
Nayo 53
mũio 53
wamb@@ 53
anangwa 53
kũmũvoya 53
Naaũ 53
kĩmanyĩo 53
Nene 53
John 53
anengwa 53
tũnini 53
tũelewe 53
emwa 53
ĩth@@ 53
ĩsandũkũ 53
kũmũmanya 53
Nũtonya 53
tũtetheesye 53
ĩsaa 53
tũ 53
ũtiĩwa 53
nĩsyo 53
wetete 53
tũneenee 53
Yaĩtye 53
mĩthemba 53
maito 52
ikundinĩ 52
nĩwanengie 52
nth@@ 52
ama 52
Tene 52
amũthũkũme 52
matongoesye 52
Aendeee 52
KŨ@@ 52
ua 52
ĩkomano 52
mamutha 52
met@@ 52
ĩĩa 52
nĩweetĩkĩlile 52
kwongeleka 52
onanĩtye 52
wal@@ 51
ngũsĩ 51
Mwĩ@@ 51
Nĩng@@ 51
eli 51
thĩnĩkĩaa 51
tũĩ 51
kũtetheka 51
ĩthĩwa 51
kwĩyenda 51
tũnengetwe 51
nĩkya@@ 51
tũy@@ 51
nusu 51
wĩthĩaa 51
mũingo 51
matw’ĩke 51
wamanyie 51
ndaka@@ 51
talendi 51
nĩtonya 51
ndiwa 51
neew’aa 51
eleisye 51
nĩtũkwenda 51
mathĩnanĩ 50
Nĩtwĩsĩ 50
makathayũũkw’a 50
ũtetheeasya 50
nĩwĩthĩwa 50
weeka 50
ok@@ 50
nambĩĩa 50
• 50
avya 50
York 50
kwĩkwa 50
andũnĩ 50
any@@ 50
kwĩvitha 50
kwĩyĩ@@ 50
ĩvia 50
omaa 50
Alivai 50
ũmĩ@@ 50
kamwana 50
neewie 50
kwony’a 50
kĩthĩawa 50
matambya 50
Ũthũkũmi 50
mbũi 50
ũnengae 50
enga 50
Matha 50
matwĩe 50
kũeleeka 50
twakwatwa 50
kũlilye 50
Mot 50
yĩtonya 49
angaasya 49
Al@@ 49
ũma@@ 49
kwenyu 49
Inyw’ĩ 49
kũete 49
maaũ 49
mũmaitha 49
ũtee 49
kũũtethya 49
kie 49
thĩny’a 49
thĩ@@ 49
wesa 49
wĩt@@ 49
mesilya 49
Ũw’o 49
kũawa 49
maika@@ 49
kũvindĩĩsya 49
ĩĩsya 49
kwĩsũvĩa 49
nit@@ 49
60 49
maa 49
Mũsomi 49
ũkuvĩ 49
aminĩte 49
mũvaka 49
ndũmu 49
Aũme 49
syĩthĩwe 49
kũvĩndũa 49
nĩwamwĩ@@ 49
aiv@@ 49
mĩvw’anano 49
mũthũkũmaa 48
Watho 48
kũsiĩĩa 48
kwĩkalaa 48
Twĩ@@ 48
waa@@ 48
ndaimoni 48
Aluni 48
akũ@@ 48
nĩkw’o 48
ũtume 48
wet@@ 48
Kĩsesenĩ 48
wakwie 48
angĩĩe 48
kwatwa 48
ĩalyũlĩtwe 48
Mwene 48
jw.org 48
tie 48
2013 48
ĩthya 48
tũkethĩwa 48
Asumbĩ 48
ekea 48
Ndevola 48
la 48
kũkeethĩwa 48
kũthĩnw’a 48
twĩkaa 48
ũmanyĩsyo 48
nĩwamũ@@ 48
ndwĩ 48
Maketoni 48
mone 48
Nda 48
ati@@ 48
ũtatonya 48
ĩkuvĩ 48
ĩkĩla 48
kyaĩle 48
Kĩkundi 48
nĩwaendie 48
nĩmambĩĩe 48
mekala 48
mũĩkĩĩonĩ 48
awau 47
ũtwathĩte 47
ũkw’a 47
Wa@@ 47
an 47
usya 47
wende 47
thĩnasya 47
mamũthũkũme 47
nĩwama@@ 47
Asomi 47
soma 47
on 47
Syĩndũ 47
nĩmath@@ 47
wũmbi 47
masinĩ 47
kũmanyana 47
kwamba 47
1@@ 47
Ũtianĩo 47
kwĩtwa 47
ũnengete 47
ende 47
anĩsye 47
nzĩanĩ 47
Aana 47
tũkwĩka 47
ũtheu 47
ekalile 47
Africa 47
kyalo 47
kũm@@ 47
Wĩ@@ 47
atano 47
kwina 47
Ilungu 47
Kwĩ 47
ĩĩe 47
anĩw’a 47
tũit@@ 47
au 47
syat@@ 46
atha 46
nĩmendete 46
endeew’a 46
mati@@ 46
kũthokya 46
mon@@ 46
ũuu 46
ũkwĩw’a 46
ũkatuma 46
nue 46
mayaĩle 46
kũmwĩkwatya 46
kũmanenga 46
usaa 46
tũitonya 46
kĩie 46
ndalea 46
auu 46
Navothi 46
avany’a 46
ĩkwonany’a 46
anda 46
Yĩla 46
ũnene 46
3@@ 46
ũnenga 46
tũũtavany’a 46
mwa@@ 46
ola 46
us@@ 46
onetye 46
ĩilyĩ 46
ndoto 46
Arthur 45
atia 45
ũito 45
w’oka 45
akam@@ 45
70 45
ũlũmĩlya 45
mayaa@@ 45
kũkoma 45
oonie 45
aĩwe 45
kĩka@@ 45
weew’aa 45
mũĩthi 45
MBEE 45
w’@@ 45
mathamĩĩe 45
meli 45
kũtũnenga 45
nĩyonanĩtye 45
At@@ 45
ange 45
ũsengy’a 45
weekaa 45
maum@@ 45
tũkwataa 45
kyeni 45
kũthaitha 45
ethisye 45
kwĩthĩawa 45
Nzaũ 45
atĩ@@ 45
kũtume 45
mayĩthĩawa 45
wĩw’a 45
Lasalo 45
matũ@@ 45
moonaa 44
ĩtheo 44
mais@@ 44
ĩkie 44
ANDŨ 44
athela 44
Jairo 44
ethasya 44
ũtangĩĩo 44
kũmb@@ 44
Ĩũlũ 44
kũtwaa 44
tũkwenda 44
ndĩk@@ 44
aendeeie 44
kamwe 44
twath@@ 44
mĩkalĩle 44
ĨVINDA 44
nav@@ 44
syaĩle 44
ekie 44
wamwĩ@@ 44
mataĩle 44
atiswa 44
osya 44
nĩtwĩthĩawa 44
Twat@@ 44
nĩmak@@ 44
kũtw’ĩkĩthya 44
kũtongoesya 44
mwalimũ 44
54 44
onanasya 44
monanasya 44
Brazil 44
watavisye 44
mũtwae 43
waaĩle 43
kwatĩte 43
nĩthĩwe 43
amat@@ 43
ũĩkĩĩaa 43
nĩman@@ 43
Kũth@@ 43
ĩkanisa 43
mbĩĩie 43
nĩmo@@ 43
ĩtano 43
mũsyae 43
vu 43
Russell 43
49 43
ĩwetete 43
kũthayũũkw’a 43
mama@@ 43
wanengiwe 43
mũvoya 43
ele@@ 43
oa 43
noona 43
matanamba 43
ndatĩka 43
twĩmanyĩsye 43
nzama 43
ũko 43
nĩwaendeeie 43
Asi 43
nĩwetete 43
angĩte 43
thi 43
onisye 43
nũkwona 43
mũsomi 43
ũthaithinĩ 43
ũmĩa 43
nũtũnengete 43
anĩw’e 43
ĩlaa 43
Woni 43
ũke@@ 43
eew’a 43
kĩvĩla 43
etheeasya 43
yĩeleetye 43
nĩmendaa 43
thĩawa 42
Mũsyĩ 42
tũs@@ 42
ĩkala 42
Kyu 42
tũilyĩ 42
kwataa 42
athani 42
nĩthĩwa 42
wambĩĩa 42
makw’a 42
uv@@ 42
ĩana 42
mavia 42
anga@@ 42
Mũtumĩa 42
indĩĩsya 42
KYA 42
| 42
NĨ 42
yĩtũmanyĩsya 42
Asili 42
Akolosai 42
endeeaa 42
MBIVILIA 42
oonanasya 42
ũasa 42
makwat@@ 42
alyũla 42
ũit@@ 42
Luthi 42
ũtanamba 42
monanĩtye 42
akwata 42
kũkũna 42
many@@ 42
ũkanganĩ 42
kwĩloela 42
nĩwĩw’aa 42
kĩwĩu 42
ayĩsa 42
ĩka@@ 42
nũk@@ 42
atwa 42
ũekeo 42
kwĩkaa 42
yela 42
oonany’a 42
wĩv@@ 42
aandĩki 42
Thĩna 42
kwete 42
amanyĩsya 42
Atavany’a 42
mamanya 42
kũmat@@ 42
anĩĩte 42
Mwa@@ 42
makaũ 42
aĩa 41
atwae 41
kũema 41
aũtetheesye 41
nĩwo@@ 41
ny@@ 41
us 41
nĩkw@@ 41
ti@@ 41
ndakĩtalĩ 41
ey@@ 41
mbĩanĩu 41
nĩnee@@ 41
oo 41
meeka 41
ĩasya 41
Watch 41
Tower 41
ĩvĩtu 41
etye 41
ũthi 41
anĩtw’e 41
mai 41
aneena 41
wĩsa 41
amba 41
moonie 41
ũtav@@ 41
ĩtatwa 41
matheu 41
waw’o 41
kĩtawa 41
atũmĩe 41
ne@@ 41
Av@@ 41
ũngaa 41
ũtalo 41
F@@ 41
w’ĩa 41
England 41
anw’a 41
kũmwendeesya 41
Amisili 41
tũtũmĩe 41
ameie 41
Yĩu 41
ũtũmĩe 41
myako 41
Twasye 41
kũĩa 41
ewe 41
elesye 41
ũlũsani 41
vangĩ 41
Katena 41
weekĩkie 40
mamb@@ 40
Ameie 40
kũalyũka 40
sikũkũ 40
ũkwata 40
endee 40
ĨLA 40
wie 40
Yeosavati 40
kũmĩanĩsya 40
twonany’e 40
119 40
yĩs@@ 40
Russia 40
ũtheinĩ 40
wosanĩte 40
iny@@ 40
ekete 40
kũmũv@@ 40
esĩkĩe 40
atuma 40
ndĩ@@ 40
wambĩĩie 40
nĩwatwie 40
ut@@ 40
angie 40
ũtethye 40
Kĩ@@ 40
mũnenga 40
etea 40
mĩvaka 40
tata 40
mosyao 40
ĩkĩĩe 40
wona 40
Mavuku 40
Europe 40
makakwata 40
naaũ 40
thukĩĩsya 40
kũkomana 40
ta@@ 40
wama@@ 40
eleasya 40
Sũanĩa 40
eta 40
ũtethya 40
waendie 39
onzu 39
Vendekosito 39
wĩs@@ 39
ati 39
nũtũtetheeasya 39
Wĩ 39
Twĩsĩ 39
ũthyũ 39
tũkeethĩwa 39
ũituma 39
endeeie 39
51 39
nĩs@@ 39
ũlau 39
J@@ 39
Ũ 39
kwakya 39
nĩwaumisye 39
kĩawa 39
umb@@ 39
kũtwawa 39
tulakiti 39
aĩ@@ 39
maendie 39
yaa 39
mĩvũthũ 39
Ĩsu 39
w’ĩaa 39
kĩka 39
misonalĩ 39
nĩyĩeleetye 39
ũtesa 39
kũtongoew’a 39
47 39
ookie 39
ũsumbĩnĩ 39
atĩĩe 39
nĩmamũ@@ 39
itha 39
atũmĩa 39
avĩt@@ 39
kĩnini 39
le 39
ĩisye 39
aie 39
maaĩlĩte 39
akw’e 39
twĩkala 39
ũũsoma 39
lilikana 39
kĩthĩo 39
w’ĩkie 39
syĩonany’a 39
wasũanĩa 39
19@@ 39
livoti 39
nĩw’aa 38
awe 38
oosie 38
tweemanyĩsya 38
tũyonany’a 38
mbeenĩ 38
mantha 38
thukĩĩsye 38
oni 38
yĩasa 38
kũaa 38
AN@@ 38
meteele 38
manini 38
h@@ 38
W’onthe 38
eea 38
Yos 38
kak@@ 38
nĩwendeeaw’a 38
Mathĩna 38
kyo 38
kwonanasya 38
Mbalaka 38
twĩw’aa 38
ND@@ 38
wonany’o 38
wailyĩ 38
nyama 38
anĩ@@ 38
weeie 38
wĩoo 38
ũthatu 38
mev@@ 38
ili 38
Nĩtũ@@ 38
oya 38
maa@@ 38
1919 38
Mũt@@ 38
tũta@@ 38
ĩkethĩwa 38
ooka 38
endeesye 38
li@@ 38
meka 38
weesĩ 38
akwa 38
kĩuutani 38
Ithyonthe 38
mbilioni 38
ũkũtetheesya 38
oosa 38
kwĩt@@ 38
meekĩkie 38
waie 38
ũmanyĩsya 37
w’ĩkĩte 37
yendete 37
kweteela 37
mayo 37
nthũ 37
ũkĩ 37
ĩawa 37
kũsinda 37
tia 37
ũaa 37
anange 37
twĩanĩsye 37
endwa 37
kolokolonĩ 37
mbaĩnĩ 37
avanasya 37
mamina 37
langi 37
male@@ 37
aa@@ 37
nĩwal@@ 37
WE 37
was@@ 37
ii@@ 37
kwatye 37
thĩa 37
nĩtwĩw’aa 37
watuma 37
tũmĩa 37
akwie 37
indo 37
nĩmesĩ 37
meanĩsye 37
ony’e 37
Nĩtwaĩle 37
Waĩle 37
ĩlwe 37
Ngwatanĩo 37
Mũthĩnzĩo 37
okya 37
tũmũ@@ 37
ũkath@@ 37
ũvĩaa 37
ese 37
ambĩĩe 37
nũv@@ 37
Tũk@@ 37
Ĩthĩwa 37
Thayũ 37
asyaa 37
Nengane 37
nũmwendete 37
yũmbanĩtye 37
mũmũ 37
naĩnĩ 37
kw’onthe 37
mũsingi 37
ongoeasya 37
Aandĩkie 37
Amũika 37
kwĩthĩwe 37
Sisela 37
asyaĩĩsya 37
nũnengete 36
meũ 36
ũĩkĩĩku 36
ũkilyĩ 36
Mika 36
Vyũ 36
Nĩn@@ 36
akamũ@@ 36
athimaa 36
tetheesya 36
kyũmbe 36
www.jw.org 36
yayaya 36
nĩwatetheeisye 36
Ĩ 36
nĩwe@@ 36
wasoma 36
kũmũtaĩa 36
KA 36
alyũka 36
mũuu 36
ũtavya 36
umisye 36
tũim@@ 36
ngewanĩ 36
mayenda 36
kaingĩ 36
maiv@@ 36
ũkũma 36
Yonathani 36
ongoesya 36
Kolintho 36
kwongela 36
South 36
weethĩawa 36
Inyia 36
Kĩĩmanĩ 36
kwongeleela 36
Ku@@ 36
cha 36
ilikana 36
osete 36
mbaa 36
kũng’ang’ana 36
vitio 36
ndwa@@ 36
maelewe 36
nĩwaeleisye 36
yenyu 36
akasya 35
kũũngama 35
thĩnĩka 35
Ngiteoni 35
52 35
ũsilĩlo 35
aaĩle 35
ĩndũ@@ 35
makasya 35
te 35
Mũtheu 35
ethĩĩtwe 35
ũkĩl@@ 35
yĩthĩwa 35
mayasya 35
amĩ@@ 35
Naw’o 35
onokya 35
ĩva 35
wakwatie 35
kwĩy@@ 35
nĩtwonaa 35
yav@@ 35
Kwĩmanyĩsya 35
weũnĩ 35
nĩmatanĩaa 35
anz@@ 35
noonie 35
twĩka 35
omb@@ 35
Tito 35
kũkua 35
maim@@ 35
tiwe 35
ose 35
makekala 35
aineena 35
makũyũ 35
Ireland 35
tũilea 35
tũũ@@ 35
thĩĩtwe 35
anĩisye 35
ena 35
ũkw@@ 35
kwatĩtye 35
kũekana 35
ilikanaa 35
wanenganie 35
2014 35
ũvĩtũkĩte 35
atw’a 35
nĩtũkwona 35
nyũnyi 35
nĩwĩkaa 35
umasya 34
mekwonany’a 34
nĩkyatumie 34
Vata 34
kwĩkwatya 34
mekal@@ 34
ĩeleetw’e 34
nĩendeee 34
iilyĩ 34
maandĩkĩtwe 34
mũvw’ano 34
ĩĩthya 34
kũmila 34
angĩĩwa 34
Mav@@ 34
kwĩtĩkĩlana 34
wanangĩko 34
ĩlya 34
yũmba 34
uva 34
kumĩla 34
kũkĩa 34
mũtwawa 34
andĩka 34
nĩwatũmĩie 34
iit@@ 34
kaũndũ 34
mbũĩ 34
Loto 34
Nata 34
make@@ 34
ũkav@@ 34
ĩsa 34
kũmũĩkĩĩa 34
yĩte 34
200 34
kũtũtetheesye 34
yoka 34
ũanĩaa 34
kwingĩ 34
kũmwona 34
ndwĩsa 34
etĩkĩla 34
anĩthya 34
anengane 34
savalĩ 34
Brian 34
maendee 34
kawa 34
mbĩ@@ 34
wonanĩtye 34
aalyũli 34
ũvano 34
ava 34
Ũsumbĩnĩ 34
ũmũthũkũme 34
kwĩyũmbanĩsya 34
eth@@ 34
mekwĩka 34
mũsikalĩ 34
twaendeea 34
atavisye 34
akilyĩ 34
maeka 34
aĩaa 34
mũuke 34
kũkĩlya 34
kas@@ 34
mũsyĩnĩ 34
ũti@@ 34
atiwa 34
neena 34
Poland 34
Ĩsomonĩ 34
manthaa 34
mĩs@@ 34
Wĩoo 34
indaa 34
matu 33
matatwaanĩte 33
aeleetye 33
eva 33
ũkũlya 33
andetheesye 33
maumie 33
Ngoki 33
matavanasya 33
kũthyũlũlũka 33
kavuku 33
maeleetye 33
Mũv@@ 33
maitonya 33
noonaa 33
kũvikĩa 33
ain@@ 33
isya 33
nao 33
akeethĩwa 33
Amkeni 33
Mũvango 33
eũ 33
ĩsĩ 33
mũik@@ 33
aeka 33
Katholeki 33
Ĩsyĩtwa 33
engwa 33
matat@@ 33
twonaa 33
alika 33
mamũthũkũmaa 33
kũna 33
ong@@ 33
mbĩĩa 33
malea 33
kwĩw’ĩa 33
Ndi@@ 33
makwatie 33
kũtethw’a 33
mũtavya 33
Lefèvre 33
onete 33
amũtetheesye 33
mwendwa 33
ũtwaanĩte 33
navu 33
wako 33
syoka 33
kũthĩnĩka 33
Bedell 33
matetheeasya 33
yai 33
syumwa 33
avasya 33
kũi 33
aandĩka 33
ongoew’e 33
akũlilye 33
kũit@@ 33
Ngileati 33
kĩendeee 33
kalaa 33
Sy@@ 33
wonete 33
amany@@ 33
nĩmas@@ 33
Ũk@@ 33
Kanaani 33
ũvyũ 33
kum@@ 33
ĩnini 33
twak@@ 33
makath@@ 33
ũũk@@ 33
ethukĩĩsya 33
matav@@ 33
nongi 33
Nĩnĩsĩ 33
ũũ@@ 33
wonzu 32
tũtaĩle 32
tũtũmĩaa 32
nzoka 32
eo 32
eetĩkĩla 32
umie 32
eni 32
yaandĩkiwe 32
Kĩyuti 32
nĩmũ@@ 32
Nz@@ 32
tweethĩwa 32
kwendana 32
waatĩĩe 32
Wathi 32
kyee@@ 32
matatonya 32
kwĩa 32
nĩwak@@ 32
nĩtwat@@ 32
men@@ 32
ũkeka 32
kũnyaĩĩkya 32
su@@ 32
wathanĩte 32
maendeea 32
AT@@ 32
Alaĩka 32
mũl@@ 32
as 32
WA@@ 32
Endaa 32
mũtongoi 32
maitũmĩa 32
onany’a 32
mamũth@@ 32
ũya 32
nĩwanenganie 32
vat@@ 32
onany’e 32
avo@@ 32
oke 32
Daniel 32
nĩnĩsĩ 32
nthoo 32
ũeninĩ 32
mboyanĩ 32
Kĩlisimasi 32
Paul 32
to 32
osanĩte 32
anaw’a 32
Yutia 32
mesie 32
ĩkĩ@@ 32
kĩsesenĩ 32
tũmũthũkũme 32
maandĩkiwe 32
mbeveee 32
matethasya 32
ũkwataa 32
kaati 32
kĩs@@ 32
Mũyuti 32
ũlei 32
kam 32
osie 31
weekiwe 31
kũleana 31
uk@@ 31
kĩlya 31
matũmĩĩte 31
anenganie 31
twav@@ 31
maendeeie 31
ndik@@ 31
kũmav@@ 31
Nat@@ 31
kwĩtya 31
ĩkya 31
wĩtĩkĩl@@ 31
kũmũkĩa 31
tũkwata 31
Kũt@@ 31
nĩmatataa 31
alaa 31
Mo@@ 31
ĩkoani 31
sĩ 31
Mũthya 31
ŨNDŨ 31
Ted 31
mĩongo 31
kũvanga 31
nath@@ 31
mamw@@ 31
mawetu 31
aneene 31
Yosia 31
15@@ 31
Ũmbano 31
Mwathani 31
yĩk@@ 31
tũũsoma 31
ye@@ 31
oaa 31
oombie 31
kũmũt@@ 31
Ũt@@ 31
thukĩĩasya 31
ũvĩe 31
thĩwa 31
Nĩnat@@ 31
ongela 31
mwako 31
ũn@@ 31
twambĩĩa 31
alimũ 31
Mexico 31
ndeke 31
kyalonĩ 31
syonanĩtye 31
Nũseo 31
akwate 31
Kũneena 31
kwatisye 31
mĩna 31
nĩmesie 31
matũmĩe 31
w’anene 31
asi 31
atwa@@ 31
Philippines 31
anang@@ 31
NGAI 31
nĩth@@ 31
ke@@ 31
ĩĩsye 31
siasanĩ 31
kũthooa 31
mokonĩ 31
MA 31
kwĩkĩwa 31
mwanae 30
72 30
waneenie 30
KĨ@@ 30
ũtũĩka 30
ũtuma 30
mwa 30
kũtumbĩthya 30
elaa 30
ũmany’a 30
nĩmambĩĩie 30
amanenga 30
mũtwaanonĩ 30
ekw’a 30
Me 30
66 30
ndatonya 30
Ũsũngĩo 30
elile 30
KYONGO 30
Mũnyanyae 30
asoma 30
wetetwe 30
io 30
twendete 30
asi@@ 30
syonanasya 30
maatĩĩaa 30
maĩtye 30
aathime 30
Mũno 30
ũmanyĩasya 30
masya 30
ũalyũlo 30
Mũik@@ 30
wũke 30
neen@@ 30
kũmamanyĩsya 30
Kũvika 30
thĩnĩ@@ 30
engeea 30
tetheesye 30
nĩwoosie 30
nĩmatetheeasya 30
ũy@@ 30
Ninyie 30
Mũuo 30
eteie 30
kũmba 30
ũsya@@ 30
18@@ 30
kũthangaasya 30
mũthaitha 30
ine 30
nĩmal@@ 30
ndi 30
80 30
144,000 30
Nĩwat@@ 30
mothũku 30
anengetwe 30
nũmũ@@ 30
nĩyat@@ 30
kyeekĩkie 30
twĩw’a 30
anĩwa 30
ũmany@@ 30
yumĩtye 30
kũtũla 30
aith@@ 30
ũthya 30
kũmũth@@ 30
athanie 30
nĩmeekie 30
kĩthing’ĩĩsyo 30
kũthesya 30
kĩtumĩte 30
anu 30
Ath@@ 30
Kaio 30
Lakeli 30
makatw’ĩka 30
ũma 30
tũyĩthĩwa 30
matũ 30
siĩĩe 29
kyonanasya 29
maendete 29
kũtũkwata 29
ũngĩĩte 29
andetheeisye 29
300 29
Maĩ 29
ũlwa 29
tũkekalaa 29
asũvĩe 29
mbanake 29
NTHĨ 29
Th@@ 29
ũngĩaa 29
ilwe 29
ngelekany’onĩ 29
mũlau 29
twe@@ 29
aendeea 29
y 29
ĩw’e 29
nĩtũtũngaa 29
my@@ 29
eteae 29
ali 29
mũvatise 29
avĩta 29
nĩwakwatie 29
kw’okonĩ 29
ũmae 29
Katĩ 29
Vau 29
Twĩneenea 29
matesĩ 29
Wĩona 29
oos@@ 29
ekalĩte 29
anengete 29
main@@ 29
NĨ@@ 29
ndyaa@@ 29
ĩlwa 29
kũtanĩthya 29
maku@@ 29
ndyĩ@@ 29
ngalawa 29
Neemia 29
kũkũ@@ 29
atav@@ 29
b@@ 29
ũnengetwe 29
ngo 29
sua 29
Ũtao 29
yaasya 29
mbeũ 29
twambĩĩe 29
and 29
Anthony 29
Waku 29
kũtindany’a 29
le@@ 29
Nĩw’aa 29
mathaũ 29
mũamba 29
mavĩt@@ 29
Athesalonika 29
etĩkĩl@@ 29
matongoew’e 29
Mĩ@@ 29
nĩkwatumie 29
ũkesa 29
ndwĩ@@ 29
seũv@@ 29
wamanyĩasya 29
twĩt@@ 29
nĩwakwatiwe 29
meewie 29
mavalũa 29
emb@@ 29
David 29
kake 29
matunda 29
kĩseve 29
ũkĩa 29
maisye 28
Ĩkalaa 28
ũmanya 28
tũmanya 28
ang’endu 28
mĩnoo 28
kũathima 28
Amina 28
ĩia 28
mangũ 28
eenda 28
ũtumanu 28
ayenda 28
Kw@@ 28
Nĩtũtonya 28
wĩkĩaa 28
thĩnĩkĩa 28
Maitũ 28
atisiwe 28
memanyĩsye 28
ũvĩ@@ 28
kĩko 28
nĩwambĩĩie 28
kũkũa 28
masya@@ 28
nũwetete 28
wony’a 28
nĩkwa@@ 28
anĩthasya 28
kwatĩ@@ 28
thĩaa 28
ngusanĩsyonĩ 28
omana 28
wathanie 28
2015 28
yumya 28
Kĩkw’ũ 28
eteela 28
mũsoanĩ 28
eethĩiwe 28
mũvoyaa 28
athe 28
mamwendete 28
ũwetete 28
meethĩwa 28
kũtinda 28
mũsyawa 28
vo@@ 28
nĩsyĩ@@ 28
wavikie 28
kũka@@ 28
waendeee 28
maith@@ 28
ũsũanĩe 28
akesa 28
aneng@@ 28
wendeeasya 28
eve 28
meũ@@ 28
eiwe 28
kũvĩta 28
matumie 28
nĩwasyokie 28
nũtũnengae 28
ĩkĩĩthisye 28
ũkwonany’a 28
kũi@@ 28
andĩkĩtwe 28
Vakuvĩ 28
kũvetanga 28
endeeaw’a 28
ĩtĩkĩla 28
makasumbĩka 28
nĩthi 28
tũikese 28
kĩĩmanĩ 28
ambĩa 28
menda 28
twesa 28
Sila 28
Canada 28
yũa 28
wekalaa 28
nyaĩĩ 28
kĩtindo 28
athĩ@@ 28
kũlye 28
eetawa 28
kũkethĩwa 28
Valanava 28
weteele 28
kwĩyũmbany’a 28
mwĩtĩkĩw’a 28
vaseo 28
nĩmamwendete 28
wakyo 28
kũũtetheesye 28
onoka 28
itũ 28
Malawi 28
kũmĩ@@ 28
Math@@ 28
ambie 27
aiweta 27
Nguma 27
Maria 27
ima 27
indĩaa 27
inga 27
wan@@ 27
YEOVA 27
sivitalĩ 27
umĩla 27
masoma 27
ĩnĩ 27
Avalisi 27
twende 27
NG@@ 27
meew’aa 27
itav@@ 27
weethĩiwe 27
yĩwetete 27
kũmũtethya 27
ais@@ 27
ĩĩ@@ 27
nga 27
ekali 27
Ndonya 27
yĩv@@ 27
kwĩanĩw’a 27
ayasya 27
U 27
ekee 27
mbũanĩ 27
iti@@ 27
myanya 27
kotinĩ 27
angĩtwe 27
etĩkĩle 27
ake@@ 27
momb@@ 27
mbulosua 27
ame 27
tũkonany’a 27
nĩkwat@@ 27
Ch@@ 27
Wathani 27
angi 27
Ũseo 27
kũyaĩ 27
nathi 27
likya 27
Kĩthito 27
eki 27
83 27
etheka 27
Endeea 27
ndaaĩtĩkĩla 27
thukĩĩisye 27
mathangũ 27
mayona 27
methoi 27
kũmbany’a 27
Rutherford 27
nĩwaneenie 27
ĩkĩl@@ 27
eyĩ@@ 27
makĩa 27
metu 27
ndaĩle 27
d@@ 27
ndika@@ 27
tũtwĩe 27
watetheeisye 27
Ũmanyi 27
Peter 27
kuaa 27
wathĩte 27
Britain 27
twasoma 27
kwatiwe 27
kũkw’ĩĩwa 27
twĩkũlye 27
1,000 27
kombiũta 27
aĩwa 27
kyeetawa 27
103 27
akatw’ĩka 27
kũsyaĩĩsya 27
tethya 27
yee@@ 27
ano 27
mbie 27
aendie 27
ũseleke 27
Twaĩlĩte 27
Neew’aa 27
vwana 27
4@@ 27
oomb@@ 27
ndĩninĩ 27
mũnyanyau 27
kambinĩ 27
oyaa 27
siana 27
Wĩnyivyo 26
Ũthaithi 26
Ky@@ 26
Ulu 26
maasyaa 26
ekya 26
kũmwĩ@@ 26
ũeleetw’e 26
Knorr 26
onekaa 26
nĩmaneng@@ 26
mũkw’ũ 26
nĩwathanie 26
te@@ 26
James 26
kyuu 26
ũtũnengae 26
ũkĩ@@ 26
ũkũmie 26
lika 26
nithyĩ 26
iik@@ 26
athie 26
amũk@@ 26
eũv@@ 26
endeeasya 26
nĩtũt@@ 26
ĩtũtetheesye 26
Je 26
mĩv@@ 26
kĩtwe 26
un@@ 26
yĩilyĩ 26
sila 26
nĩnath@@ 26
malũmanĩtye 26
avatiswa 26
nĩtwaĩlĩte 26
amu 26
ĩendeee 26
avisye 26
ũmba 26
moonanisye 26
ũtumĩte 26
City 26
kũtũt@@ 26
Ũtanu 26
mawathani 26
kũmũtavya 26
Ũsumbĩki 26
makoani 26
ũny@@ 26
amanyĩisye 26
twakwata 26
ĩkasya 26
nĩmaendie 26
kwĩsiĩĩa 26
nenda 26
ngũ@@ 26
mbĩĩe 26
an’ye 26
nĩwamb@@ 26
themb@@ 26
akwatwa 26
itetheesye 26
atate 26
tũya@@ 26
ĩlawa 26
wov@@ 26
ĩkat@@ 26
Eric 26
ĩkĩĩte 26
elel@@ 26
ĩkĩlaa 26
Ngoo 26
iana 26
Nathani 26
16@@ 26
vetha 26
Kĩ 26
asya@@ 26
400 26
Nũ@@ 26
anengae 26
nĩkĩtumaa 26
asũanĩe 26
mos@@ 26
endanasya 26
mathok@@ 26
ethi 26
maneng@@ 26
aseũv@@ 26
twaneenea 26
ũelewe 26
kũn@@ 26
mena 26
alũmanĩtye 26
atũnenge 26
kwĩyĩkĩa 26
ũtwendete 26
ũtwĩe 26
nĩwatũmie 26
nĩwatavisye 26
aiw’e 26
namanyie 26
yoneete 26
kĩsomo 26
5@@ 26
anake 26
kũũngamĩa 26
nĩwand@@ 26
umw’a 26
Ndũka@@ 26
enĩ 25
alyũlĩte 25
No@@ 25
momũ 25
aeleisye 25
twĩnyivĩtye 25
Kũsoma 25
nĩwonanĩtye 25
matew’aa 25
kyatetheeisye 25
Ũklĩsto 25
wingĩ 25
asom@@ 25
elewe 25
matw’ĩka 25
mavika 25
kyat@@ 25
tũyaĩlĩte 25
kũkĩ@@ 25
anĩaw’a 25
iita 25
eetwe 25
Mal 25
yaa@@ 25
iakisya 25
Mweinĩ 25
meonany’a 25
aithaa 25
Mwĩkalĩle 25
kũtana 25
kĩmwana 25
Nĩwee@@ 25
woonaa 25
andĩkĩte 25
kũvosya 25
Mungu 25
emanyĩsye 25
Kwenda 25
alũmu 25
tũikethĩwe 25
twatũmĩa 25
tũtw’e 25
kũseo 25
Elote 25
Ghana 25
Kũtavany’a 25
nĩwatw’ĩkie 25
amĩĩa 25
nĩwakwie 25
makwatiwe 25
Ĩkũlye 25
yeethĩawa 25
eleetye 25
ĩta 25
wamanyĩisye 25
Nakwa 25
twakomana 25
watũnengie 25
ĩkĩa 25
twathi 25
kĩĩa 25
kũmbana 25
ATA 25
wamo 25
eng’@@ 25
kũmatavya 25
tũmĩ@@ 25
ũeleetye 25
nĩmethĩĩtwe 25
kĩyaĩ 25
nzaa 25
woninĩ 25
mũtonya 25
alyũlĩtwe 25
2012 25
matũtetheesye 25
kũemwa 25
la@@ 25
ova 25
ũthũ 25
Biblia 25
Ĩt@@ 25
kũsyaa 25
mwĩthĩwe 25
Robert 25
wĩkale 25
nũmendete 25
makam@@ 25
ũvĩie 25
waneenaa 25
nũtumĩte 25
ang’@@ 25
taĩaa 25
er 25
kwĩkwatw’a 25
noyo 25
amin@@ 25
manyĩsye 25
kũlw’a 25
ũsũngĩa 25
nũendeee 25
yumisye 25
mũng’endu 25
nĩmoonie 25
ũmĩsya 25
Valũa 25
Indaneti 25
mbĩĩaa 25
syeekie 25
eetĩkĩl@@ 25
mũĩkĩĩe 25
eyũmbanĩtye 25
ũkũmĩte 25
kĩmena 25
etwa 25
Vilivi 25
alũka 25
manzĩ 24
manyĩ@@ 24
Jim 24
kũlikya 24
aielesya 24
ĩthisye 24
masi@@ 24
vi@@ 24
awetete 24
eawa 24
kũtũa 24
Ũũ 24
ndakat@@ 24
matanĩe 24
nĩnamanyie 24
tũyĩka 24
angũlilye 24
metawa 24
maingangĩ 24
kũtũngĩĩa 24
anyuve 24
wĩw’ano 24
kũthaũka 24
Nĩweesĩ 24
Silikalĩ 24
matwa@@ 24
ethye 24
mayĩka 24
Nee 24
aũ@@ 24
nĩwamw@@ 24
ngĩ@@ 24
kyatumaa 24
onanĩtw’e 24
ũkũmaa 24
mawetwa 24
kwetye 24
WĨ@@ 24
kũkatuma 24
atis@@ 24
elila 24
ing’ĩĩw’a 24
ngalama 24
Kĩsese 24
aum@@ 24
nĩwaĩlĩte 24
maneen@@ 24
ũsiĩlo 24
neekaa 24
enyivĩtye 24
ũmĩĩsya 24
w’ĩke 24
53 24
Ũkanga 24
anyuva 24
Ngili 24
ũlũmĩlye 24
umĩlile 24
neekie 24
Mwambĩĩonĩ 24
kambeini 24
nĩnakwatie 24
kũwaa 24
wosa 24
mayĩthĩwa 24
wakwatwa 24
ngũmbaũ 24
ini 24
j@@ 24
matiele 24
ayĩka 24
Waĩ 24
mokĩte 24
amũth@@ 24
esye 24
wetie 24
anengiwe 24
twĩkĩte 24
manyuvĩtwe 24
omĩĩsya 24
mũtisu 24
aneenie 24
mũthyanĩ 24
elya 24
umanĩte 24
syee@@ 24
ũlea 24
ĩkwa 24
ndetonĩ 24
ikethĩwa 24
kũthe@@ 24
mwĩkalĩlenĩ 24
ndaaeka 24
namba 24
Nzek 24
Mwende 24
yũ 24
Wĩkwatyo 24
1950 24
nganũ 24
08 24
Mw@@ 24
nĩwoonaa 24
Charles 24
twĩkĩe 24
yath@@ 24
ũkakwata 24
tũyona 24
kĩtheu 24
kũkiakisya 24
tũkeka 24
kĩw’ũnĩ 24
mambĩĩie 24
asisya 24
wumĩlonĩ 24
etete 24
AKO 24
atethya 24
ũke 24
wathela 24
aĩka 24
twĩkalaa 24
usũ@@ 24
twaatĩĩa 24
makatanĩa 24
Kũvikĩĩa 24
Mũminũkĩlyo 24
SAV 24
thĩnaw’a 24
Indanetinĩ 24
kũkwatya 24
ũtũinĩ 24
waana 24
wawa 24
kĩonany’a 24
masomaa 24
mũemewa 24
.@@ 24
kũthayũũkya 24
Nda@@ 24
ĩtongoesye 24
omanaa 24
eng’aa 24
Kyaũya 24
matũmĩtwe 24
ũsũvĩaa 24
ũkaa 24
w’ĩie 24
aũ 24
kovi 24
mbevo 23
ilĩla 23
nambĩĩe 23
ũalyũku 23
wĩmanyĩsye 23
wĩanĩu 23
wĩkalo 23
ũĩmĩ 23
enz@@ 23
Mavainia 23
nĩmew’aa 23
tũmwĩ@@ 23
ndeesĩ 23
nĩwaekie 23
2,000 23
kĩkie 23
amanyĩasya 23
maingĩvĩte 23
vayaĩ 23
athana 23
kĩkaa 23
Mbaĩ 23
ĩeema 23
kũmbanĩa 23
tethe@@ 23
watumaa 23
kĩvũthya 23
nenga 23
kĩeni 23
ũsome 23
makeka 23
ekĩe 23
etang@@ 23
moomb@@ 23
w’ĩ@@ 23
meyĩ@@ 23
kũmwĩthukĩĩsya 23
monekaa 23
eekĩie 23
etheesya 23
mita 23
ũwetiwe 23
min@@ 23
iyĩ@@ 23
ch@@ 23
kwĩv@@ 23
tũũneena 23
nĩwamũnengie 23
Tw@@ 23
tũiv@@ 23
athi@@ 23
naĩle 23
avoyaa 23
kũmũaa 23
William 23
onie 23
ũtũmĩa 23
elek@@ 23
kũthangaaw’a 23
k 23
mavĩndĩ 23
uta 23
ũsũanĩa 23
kĩthamanĩ 23
makĩ@@ 23
kũtwĩkĩa 23
Kwaekai 23
syath@@ 23
kũsi@@ 23
yũmbanĩsye 23
Yaĩ 23
wĩkũlye 23
Ũtavany’a 23
Don 23
ũtat@@ 23
kwaendie 23
Tũyaĩle 23
w’ĩĩe 23
mayĩsĩ 23
ĩvya 23
syĩtwanĩ 23
ongo@@ 23
mbĩĩw’a 23
nĩmakwatie 23
Tũmĩa 23
makatuma 23
ũthilĩku 23
tũkamanya 23
2000 23
kĩiwe 23
Nasyo 23
nĩweewie 23
Noonaa 23
ũanĩa 23
ĩkonetye 23
Amwĩie 23
Mũsoa 23
ũthũkũmaa 23
nĩnendete 23
vethĩwe 23
Mũthembi 23
Lisitela 23
ilĩkonĩ 23
maandĩkie 23
menyivĩtye 23
ooa 23
Twĩĩmanyĩsya 23
aumya 23
ĩvu 23
tũũneenea 23
kwĩyĩelekany’a 23
nĩkĩtonya 23
iya@@ 23
kũnie 23
makĩĩe 23
elekanw’a 23
ĩianĩ 23
ũkona 23
kũendany’a 23
kũlũnga 23
kĩmako 23
syelĩ 23
aumisye 23
nengĩ 23
ony@@ 23
isi 23
nĩmamanyie 23
kũvĩtũka 23
nĩsyav@@ 23
ũku@@ 23
mooka 23
atĩa 23
nĩkũtũtetheeasya 23
tũitũmĩa 23
moonekaa 23
twĩv@@ 23
s 23
ũe 23
Wasya 23
kwĩyanakavya 23
kua 23
anyaa 23
mboka 23
mew’a 23
German 23
siĩĩa 23
ndũke@@ 23
taĩa 23
etanga 23
en 23
avi@@ 23
Mas@@ 23
Velisia 23
kwate 23
Nthembo 23
ekal@@ 23
nĩwatw’ĩte 23
isio 23
mwĩt@@ 23
amanthe 23
kũmwe 22
nĩwathayũũkiw’e 22
ĩkĩĩ@@ 22
athwii 22
kwailyĩ 22
kakuvĩ 22
kwĩnũka 22
ũkũt@@ 22
kĩwe 22
nĩwaĩkĩĩthisye 22
ĩtumaa 22
w’ĩkĩthya 22
matumĩte 22
een@@ 22
yak@@ 22
wĩanĩasya 22
aya 22
kwĩvĩta 22
maema 22
onekie 22
mathayũ 22
etie 22
atana 22
An@@ 22
avu 22
kũmũtũngĩa 22
ũsi@@ 22
mawasya 22
w’ĩkaa 22
iendeee 22
eev@@ 22
ũima 22
thya 22
mand@@ 22
wanengetwe 22
Kwa@@ 22
kũthonoka 22
mũnyambũ 22
maseũv@@ 22
nengetwe 22
Mal@@ 22
Kyaũ 22
yũmũ@@ 22
twĩkalĩte 22
woosie 22
Kĩveti 22
ũneeni 22
kũveta 22
ovosya 22
yavika 22
wĩyendete 22
eng’ie 22
Ũtwi 22
w’ĩĩa 22
kũandĩkwa 22
ilw’e 22
147 22
andĩke 22
ũngamĩe 22
mekĩe 22
ũkoka 22
mũvoyie 22
ũsomaa 22
wetwa 22
yambĩĩa 22
sye@@ 22
meetawa 22
meet@@ 22
tũkasũanĩa 22
mĩũnda 22
atwĩ@@ 22
kũekewa 22
nengete 22
eleetw’e 22
ume 22
nĩl@@ 22
mũkĩ@@ 22
Ĩmanyĩsye 22
tũsome 22
ngusanĩsyo 22
kwatawa 22
kũvikĩĩa 22
IUD 22
KW@@ 22
tũmwenda 22
ambĩĩie 22
tũkam@@ 22
ĩĩaa 22
oti 22
wetaa 22
wĩe 22
ĩeemanĩ 22
Thomas 22
kwĩmanthĩa 22
andĩkĩa 22
wasyaiwe 22
ũtethasya 22
mavindanĩ 22
kũthasya 22
akas@@ 22
nas@@ 22
kũikethĩwa 22
nĩnĩw’aa 22
ũkam@@ 22
tũmwendete 22
Osea 22
malĩu 22
aeke 22
atan@@ 22
itindo 22
inyĩ@@ 22
nokyo 22
ũmĩie 22
Irish 22
angwa 22
ũsom@@ 22
Akanaani 22
itanĩ 22
61 22
Kaini 22
ithi 22
mekwĩw’a 22
nomo 22
mbai 22
akyasya 22
Tuvaluan 22
ũkambĩĩa 22
Ndya@@ 22
aneen@@ 22
90 22
amanyie 22
ingi 22
Kitabu 22
nĩmakwie 22
kũnz@@ 22
syoombiwe 22
nĩwaveveewe 22
kũvoa 22
ĩthasya 22
kĩsese 22
ũseũvĩte 22
Asia 22
awetaa 22
mawetete 22
Me@@ 22
ekana 22
mũtĩnĩ 22
uĩtye 22
iĩma 22
uu 22
ũthok@@ 22
Mũisilaeli 22
imũtũ 22
ũmanyĩsye 21
nĩwatatie 21
ĩaw’a 21
Shirley 21
themba 21
ve@@ 21
anenge 21
atũng@@ 21
kũtembea 21
mekawa 21
meesĩ 21
ndaaĩka 21
nĩmonete 21
As@@ 21
nĩkũtumĩte 21
Es@@ 21
nĩwookie 21
imwana 21
makom@@ 21
makathi 21
nĩnatwie 21
aandĩkĩie 21
waandĩkĩie 21
kĩtye 21
ongoesye 21
nĩtũkwataa 21
makwatwa 21
wana 21
mũi@@ 21
kĩthekanĩ 21
kũolanga 21
tũtanamba 21
nũtw’ĩte 21
tũke@@ 21
nĩwũkĩte 21
ĩkĩĩthye 21
wati@@ 21
akatũmĩa 21
meyumĩtye 21
isesenĩ 21
mathamĩĩa 21
kĩkatuma 21
yum@@ 21
07 21
Nesa 21
kũvonoka 21
aũnenge 21
Ovisi 21
osye 21
yaisye 21
kĩtoo 21
2011 21
aitha 21
moombiwe 21
ngavana 21
yumĩthĩtw’e 21
é@@ 21
ithũkĩwa 21
ũna@@ 21
matwĩ@@ 21
meũt@@ 21
nĩwaleile 21
yĩonany’a 21
kũlilw’e 21
ĩsiwa 21
ũiv@@ 21
500 21
kũũmĩsya 21
ĩtĩkĩl@@ 21
kũlũngwa 21
aumye 21
tũkekala 21
145 21
maela 21
kĩĩtwe 21
nĩyaĩle 21
amũs@@ 21
nĩmatumaa 21
meyũmbanĩtye 21
aumĩte 21
Septuagint 21
Nĩwĩthĩwa 21
73 21
ad@@ 21
ing’@@ 21
kũĩva 21
Eduardo 21
Naku 21
too 21
kũkwatĩĩa 21
ũtũtetheeasya 21
w’ĩkĩthiw’e 21
kweethĩwa 21
iseũvĩtw’e 21
ũtaa@@ 21
matethye 21
tũu 21
watavanasya 21
kũmeta 21
syĩkaa 21
matetheeisye 21
anĩtwe 21
masũanĩa 21
kũsy@@ 21
mew’e 21
tũkwasya 21
amũt@@ 21
NWT 21
kwĩvw’ĩka 21
nendete 21
Vilato 21
ab@@ 21
sa@@ 21
wakomanie 21
mũkũlya 21
vetawa 21
kĩkĩo 21
nĩwĩkĩte 21
mĩtwaano 21
aĩkĩĩthye 21
ĩĩisye 21
syĩt@@ 21
mwĩwi 21
nengae 21
moke 21
mamũthaithaa 21
ir@@ 21
tũkakwata 21
maikese 21
Vaa 21
maleile 21
etheew’a 21
kũmĩsoma 21
alyũlaa 21
kũvĩtya 21
KA@@ 21
nĩyĩwetete 21
amũkũlya 21
mĩnini 21
Ndĩni 21
thĩie 21
matesa 21
Mbeenĩ 21
Kũmwenda 21
twĩkalae 21
waĩte 21
aithi 21
Nĩnamanyie 21
wamwĩie 21
ũngĩe 21
mũthwii 21
Nth@@ 21
kwĩsũva 21
nĩmaendeeie 21
ũtongoi 21
mekalae 21
Mũtwaano 21
matw’a 21
c@@ 21
aĩthĩwa 21
ame@@ 21
motanu 21
asyaiwe 21
syo 21
kũkitana 21
kũua 21
avũthũ 21
nduuthĩ 21
ũkengani 21
ndũkat@@ 21
tũlungu 20
ũkũtethya 20
ũkwĩmanyĩsya 20
kwongelanga 20
tethye 20
aik@@ 20
ingũ@@ 20
kũvathũkany’a 20
makĩaa 20
somie 20
yĩkĩtwe 20
isa 20
ethukĩĩsye 20
ndwaĩle 20
atumie 20
wĩanĩsye 20
King 20
Version 20
isi@@ 20
tũtate 20
tũthi 20
ũtathimĩka 20
yasya 20
meekiwe 20
kũmony’a 20
mũnengete 20
maume 20
matatwanĩ 20
wĩtĩkĩla 20
Akalatia 20
alau 20
aitavany’a 20
Rose 20
ililye 20
athane 20
ũkwona 20
ĩkĩĩthĩtye 20
matũkwataa 20
tũmũth@@ 20
ũngam@@ 20
nĩmonaa 20
mekĩaa 20
ũkie 20
atwawa 20
Stephen 20
Kũv@@ 20
tũlũlũmĩlye 20
ĩkũlye 20
wawetaa 20
Turkey 20
Society 20
tũngĩ 20
athimĩte 20
ũvatiso 20
French 20
ũtũtetheesye 20
ongo 20
Malaki 20
kuĩte 20
mailea 20
wamwathĩte 20
yatũmĩawa 20
kĩwanzanĩ 20
akeanĩsya 20
Tũt@@ 20
kwĩthiana 20
manengae 20
Neewie 20
amĩĩie 20
weemanyĩsya 20
maitavany’a 20
mosumbĩ 20
Kĩlatinĩ 20
Tweethĩwa 20
mosanĩte 20
nya@@ 20
wookie 20
nengane 20
twose 20
Mũikemakĩe 20
ulut@@ 20
tũkath@@ 20
val@@ 20
c 20
6@@ 20
kũsengy’a 20
kaĩla 20
ĩku 20
matume 20
kamitii 20
aaĩsa 20
Antonio 20
waaĩsa 20
Mũtongoi 20
ũyĩthĩwa 20
w’ĩe 20
kwie 20
tũkwĩw’a 20
ũnyiau 20
yumasya 20
kũmanyĩa 20
ũliku 20
aaũ 20
ndũkwona 20
ineena 20
elete 20
mũinae 20
mwĩĩnĩ 20
nĩnambĩĩe 20
Ene 20
kĩi@@ 20
makamanya 20
anth@@ 20
avoyie 20
Mary 20
tũmĩĩsye 20
Matthew 20
Syo 20
eny’e 20
ũwe 20
to@@ 20
nĩmatatie 20
yaatĩĩe 20
ketawa 20
nima 20
ũsũanĩaa 20
vĩt@@ 20
kĩikethĩwa 20
nĩwavangie 20
mũkengani 20
kũtũma 20
ũtwĩ@@ 20
itho 20
ũkamanya 20
Kũlilikana 20
maelekanĩtw’e 20
athimwa 20
nĩngũ@@ 20
ng’ombe 20
kũsyokea 20
atavya 20
nĩwĩthĩĩtwe 20
omĩĩsye 20
kyeũ 20
Yaeli 20
iandĩkĩtwe 20
nĩw’a 20
eanĩu 20
ũĩa 20
ũũneena 20
twanengwa 20
nĩyĩt@@ 20
ũku 20
amũka 20
mũvungwa 20
makomanaa 20
tu@@ 20
mavikie 20
ũsisye 20
wamina 20
Yoena 20
nũs@@ 20
anyanyawa 20
ũkas@@ 20
ithũkĩa 20
Mwĩao 20
ota 20
anambĩĩa 20
mũtuo 20
makatiĩwa 20
Etĩkĩw’a 20
ũtũtetheesya 20
kũndetheesya 20
ũsĩ 20
amũnenga 20
avye 20
avikie 20
Ĩandĩkonĩ 20
nendaa 20
kĩthĩwa 20
vak@@ 20
etheeisye 20
kũkatha 19
Mũsili 19
matũmĩie 19
tũng@@ 19
isese 19
tũm@@ 19
kũsũanĩaa 19
kanyw’a 19
ndĩwetete 19
sumbĩka 19
Ũthũku 19
Nĩk@@ 19
kũmbwa 19
kũtĩĩa 19
angaaisye 19
andanĩ 19
an’yo 19
ithokoo 19
akeeka 19
angĩe 19
menete 19
kĩng’ee 19
Mĩthenya 19
iie 19
iwetetwe 19
engie 19
asũngĩie 19
metĩkĩl@@ 19
Ĩs@@ 19
mathaithaa 19
91 19
nĩmamb@@ 19
ũngũ 19
Ũĩ 19
ũkuĩtwe 19
kwathana 19
amanyaa 19
Sisyai 19
mya@@ 19
wanang@@ 19
Vala 19
7@@ 19
mwĩkalo 19
nĩmamwĩ@@ 19
LA 19
malike 19
anangie 19
kũthama 19
watwie 19
kũthew’a 19
ĨS@@ 19
YO 19
maluvuku 19
lea 19
twona 19
masumbĩkĩtwe 19
Mũs@@ 19
thĩwe 19
kũkiita 19
kũkũnzwa 19
vuti 19
amũkũlilye 19
Aveli 19
Ndyaĩ 19
nĩtũlũmanĩtye 19
ambĩie 19
nĩnambĩĩie 19
tũsisye 19
syeethĩawa 19
ũkamũ@@ 19
04 19
new’o 19
Nĩneesĩ 19
kũendaa 19
Megan 19
kwĩkal@@ 19
kambunĩ 19
anangĩka 19
nĩwĩtĩkĩl@@ 19
nowe 19
etae 19
Kũtũmĩa 19
twambe 19
endi 19
58 19
ũtavĩtye 19
Ka@@ 19
atũ 19
nĩtwendaa 19
atya 19
vataĩle 19
Tũi 19
somaa 19
tetheeasya 19
twasisya 19
kwĩthwa 19
iti 19
Nĩnendete 19
mũvĩla 19
makanisa 19
mookie 19
Hutter 19
mũnengae 19
weekĩte 19
aanĩtye 19
meekawa 19
wĩkal@@ 19
Twaendeea 19
nĩnaendie 19
angũ 19
mũvĩa 19
oetye 19
oombiwe 19
eti 19
aminie 19
mam@@ 19
ineenea 19
au@@ 19
kĩlilikano 19
eanĩsya 19
lelũnĩ 19
nyiv@@ 19
mamĩ@@ 19
asim@@ 19
une 19
ũsũe 19
is 19
mũtwaani 19
Brooklyn 19
matindĩaa 19
nĩtwambĩĩe 19
Kũmũ@@ 19
ũmĩawa 19
ũnengane 19
ũtanĩa 19
nĩtwee@@ 19
Vwana 19
wavatisiwe 19
akath@@ 19
Z@@ 19
aĩw’a 19
Vo 19
yũmb@@ 19
twathĩtwe 19
etw’e 19
Ũthayũũkyo 19
Hans 19
nĩweekĩie 19
sukulunĩ 19
ũandĩkĩtwe 19
nĩwĩyũmbanĩtye 19
nĩmatumie 19
ania 19
China 19
nĩwamũv@@ 19
Nĩwĩsĩ 19
Maũmbano 19
movisi 19
kĩana 19
kethĩwa 19
kwĩtĩkĩlya 19
twendaa 19
imany@@ 19
mawĩoo 19
akeka 19
like 19
neew’a 19
anya@@ 19
tũĩkĩĩa 19
kanasya 19
ili@@ 19
matavya 19
ĩĩte 19
ũisũanĩa 19
tũin@@ 19
uth@@ 19
kũnĩ@@ 19
endeeisye 19
mũthaithaa 19
wamanengie 19
Kamitii 19
MT 19
tũyĩsĩ 19
maĩsaa 19
meũtũ@@ 19
athaa 19
athe@@ 19
Wakyumwa 19
tũtavanasya 19
Kũm@@ 19
Janet 19
atĩĩie 19
Ũka@@ 19
Woo 19
yayo 19
maumanĩte 19
ndan@@ 19
moo@@ 19
ũanĩe 19
kũekeanĩa 19
maeke 19
vaumĩla 19
ĩthye 19
kũsũvĩwa 19
ĩit@@ 19
62 19
ũkaete 18
ASA 18
kũmanyĩka 18
amũsũngĩie 18
kũthengeea 18
makas@@ 18
angaas@@ 18
ĩeleetye 18
kũitetheesya 18
akũangũ 18
Akiliki 18
semb@@ 18
mekĩ@@ 18
yaumiw’e 18
Kwĩkala 18
Kũmanyĩsya 18
Ĩv@@ 18
kũsũnga 18
eng’isye 18
ĩnga 18
Nakyo 18
nĩno@@ 18
endeew’e 18
kĩkethĩwa 18
amũtavya 18
kũũnenga 18
Nee@@ 18
kamb@@ 18
kũmatethya 18
elekany’a 18
kĩeleetye 18
tũtetheke 18
tũkwona 18
ot@@ 18
kũvĩt@@ 18
Fiji 18
yĩandĩkĩtwe 18
Takethĩwa 18
Nak@@ 18
iitie 18
mathĩnĩ@@ 18
Wa 18
ayonany’a 18
asy@@ 18
Ngombo 18
makauma 18
tw’e 18
nik@@ 18
ũkomo 18
siasya 18
KĨLA 18
ao 18
Mweũ 18
waumie 18
kakalĩ 18
mũkũ@@ 18
eethĩa 18
iĩmanĩ 18
ũme 18
Scriptures 18
kwĩtw’ĩĩa 18
Mar@@ 18
Vilivu 18
mwaĩle 18
endeesya 18
kwĩthĩĩtwe 18
nĩnd@@ 18
atal@@ 18
ũthĩĩsya 18
kũkatumaa 18
umbĩth@@ 18
kũvi@@ 18
aĩse 18
139 18
ũis@@ 18
andĩkĩie 18
kĩvindu 18
wambĩĩisye 18
56 18
nĩtũtetheeasya 18
ali@@ 18
makal@@ 18
ũkũv@@ 18
nĩmendeeaw’a 18
nĩsyat@@ 18
elekany’e 18
kĩya@@ 18
yei 18
ET@@ 18
ngananĩo 18
makeanĩa 18
isitoli 18
yusĩe 18
eleetwe 18
tũtesa 18
wumaa 18
inde 18
1918 18
Nĩwe 18
nĩwasũngĩie 18
ũneene 18
mũnyanyawa 18
nũeleetye 18
ndakalea 18
eet@@ 18
kũsumbĩkwa 18
mũtetheeisye 18
kwaĩle 18
ngamu 18
alĩ 18
ndũkese 18
anĩu 18
waũngamĩe 18
makwatĩte 18
endeeiw’e 18
ndũkethĩwe 18
emiwe 18
ĨTHĨWA 18
ndyenda 18
ingĩv@@ 18
kwĩlĩ 18
lilikanaa 18
’ya 18
eeiwe 18
wi@@ 18
tũtw’ĩke 18
kĩtume 18
Ũv@@ 18
amĩĩe 18
MŨTHENYA 18
itumaa 18
kweethĩiwe 18
kũthata 18
Kwoosa 18
ndĩvi 18
aweta 18
Wovosyo 18
mona 18
ũkwasya 18
tũyĩt@@ 18
ũmĩĩsye 18
tũyenda 18
yĩthĩĩtwe 18
iyaĩ 18
ethw’a 18
ũkavika 18
televiseni 18
mũomonĩ 18
emeewe 18
Ar@@ 18
ũtũt@@ 18
Wenda 18
kĩĩma 18
ĩng@@ 18
engeee 18
kalĩte 18
wendeesya 18
avanga 18
kũthũka 18
eleelya 18
nĩnakomanie 18
ũneenaa 18
thĩniw’e 18
IT@@ 18
weet@@ 18
Mũlaĩka 18
emawa 18
ayũũkya 18
omete 18
nĩneesĩ 18
ũmĩe 18
andĩkĩthisye 18
mayendaa 18
kombiũtanĩ 18
ũlilikana 18
kũmanthĩa 18
ue 18
Ila 18
matataa 18
ĩtheu 18
Kyrgyzstan 18
kwanangĩka 18
kwĩtanĩw’a 18
ilasya 18
ũendaa 18
emanwa 18
Mbenyamini 18
ũsisya 18
Atongoi 18
manyaa 18
ĩlye 18
nyuv@@ 18
Kũndũ 18
mũn@@ 18
watw’ĩkie 18
laiaa 18
kũlĩtye 18
nĩwaandĩkie 18
ilikan@@ 18
umye 18
ũmenete 18
ekeaa 18
andĩkie 18
enzi 18
nũlilikanaa 18
makonanĩtye 18
wamanya 18
kũtũmanyĩsya 18
watũmĩaa 18
nĩnĩt@@ 18
asumbĩke 18
mũtũngĩa 18
·@@ 18
Nde@@ 18
inie 18
syĩthĩwa 18
nĩwaĩ 18
nĩwakũlilye 18
ũtak@@ 18
namany@@ 18
nũtetheeasya 18
kwia 18
p@@ 18
twĩthĩĩtwe 18
ũkwati 18
thi@@ 18
Ũtukũ 18
tũmũmanye 18
kũũv@@ 18
f@@ 18
Tũyĩsa 18
uti 18
nĩwamũtetheeisye 18
aithĩaa 18
kũthĩnĩkĩa 17
ndaat@@ 17
ĩile 17
ũmu 17
wene 17
naendeeie 17
ngũũ 17
Silia 17
136 17
Eĩtu 17
mbingangĩ 17
aũka 17
ngovia 17
Naitũ 17
kĩthĩwe 17
uma@@ 17
ovetwe 17
elikye 17
kĩik@@ 17
ũtonekaa 17
Eekie 17
nĩmawetete 17
ũyĩka 17
atũl@@ 17
avĩtie 17
ngũta 17
kũmũkũlya 17
mawĩanĩ 17
kũmanyĩthya 17
kũmw@@ 17
tũteũtĩĩa 17
wonany’e 17
ngunganĩ 17
manenge 17
NZ@@ 17
kwĩnyivĩsya 17
kwĩsilya 17
monany’e 17
nĩmaendaa 17
maimantha 17
ũtwĩkĩte 17
nũtũmĩaa 17
wamũt@@ 17
waanĩte 17
ũmwendete 17
Witũ 17
matamũkĩaa 17
kũtetea 17
yambĩĩe 17
Nĩtwĩw’aa 17
ilikanasya 17
mende 17
onanisye 17
masũanĩe 17
ũkeanĩa 17
MAŨNDŨ 17
tũti@@ 17
Mboasi 17
kũmath@@ 17
ilungunĩ 17
kũmasũvĩa 17
Mwanake 17
ũtetheeisye 17
Ndyaa@@ 17
mwe 17
kw’oka 17
ool@@ 17
Yeseveli 17
tũseo 17
Kwaeka 17
kwĩw’ana 17
ndĩ 17
kol@@ 17
takethĩwa 17
manyuvie 17
nĩwas@@ 17
tũikaaĩse 17
makothaa 17
Manya 17
Kalilii 17
ũtongoesye 17
kwĩk@@ 17
ũngĩie 17
kĩn@@ 17
nĩmaendeee 17
athok@@ 17
wame@@ 17
ũthe@@ 17
atiie 17
ngamĩle 17
ũatĩĩe 17
itũmĩawa 17
iitwa 17
lelũ 17
ũendete 17
alilikana 17
twonanasya 17
ilea 17
Methĩawa 17
Twasũanĩa 17
Vasaka 17
z 17
nonaa 17
nĩtũmĩ@@ 17
Mũk@@ 17
KUMA 17
masomo 17
aĩsa 17
ũsũvĩe 17
nũsumbĩkĩte 17
andĩkiwe 17
kũsilĩla 17
nũkwendete 17
alike 17
kũa 17
ĩlĩ@@ 17
VI@@ 17
wamw@@ 17
waleile 17
anangaa 17
onza 17
mwĩkĩĩle 17
kũw@@ 17
thĩnĩkaa 17
MŨT@@ 17
ũkeanĩsya 17
woo@@ 17
1,@@ 17
mbũ@@ 17
Nĩnee@@ 17
ũmisonalĩ 17
nĩmaleile 17
wĩnyivĩtye 17
syav@@ 17
asyok@@ 17
wakwatiwe 17
nĩilyĩ 17
ĩko 17
Kĩv@@ 17
ngalĩnĩ 17
Ndi 17
ũvĩt@@ 17
ew’e 17
ũnũ@@ 17
Mũtwaani 17
neenea 17
elema 17
wĩkala 17
ũtanĩe 17
malika 17
twĩyũmbanĩtye 17
elemile 17
ilĩ@@ 17
mũtavye 17
weetĩkĩlile 17
kwendwa 17
asiasya 17
tũisũanĩa 17
ilikany’a 17
Kola 17
Marilyn 17
mũtũ@@ 17
kũthokea 17
kyatuma 17
Cheri 17
syaĩtye 17
Am@@ 17
London 17
kwĩyumĩlya 17
nĩmakwatiwe 17
nĩweeyũmbanĩtye 17
ũsumbĩkĩte 17
nĩweeyumisye 17
nĩwatumaa 17
Franz 17
eana 17
avatise 17
110 17
mĩth@@ 17
ole 17
ing’ĩĩsya 17
nũma@@ 17
mũuonĩ 17
AA 17
ombo@@ 17
Kũvoya 17
104 17
nĩwĩyumĩtye 17
mũvoye 17
nĩwesaa 17
er@@ 17
sa 17
kĩtulu 17
twĩlĩtu 17
nũth@@ 17
Ũkany’o 17
imu 17
amanthaa 17
nĩthĩawa 17
katĩkatĩ 17
nĩmookie 17
any’o 17
aelewe 17
ĩtũmĩawa 17
Kav@@ 17
Nini 17
Ĩk@@ 17
nakw’o 17
ũmĩwa 17
ũsũvĩa 17
Ĩkanisa 17
kavĩsĩ 17
ũlilikanaa 17
Man@@ 17
amũv@@ 17
El@@ 17
antha 17
osi 17
> 17
tweekĩa 17
syĩndũnĩ 17
mũtavisye 17
nĩmanya 17
ndaema 17
nĩtũk@@ 17
ĩlondu 17
makuĩtwe 17
yĩkale 17
twamanya 17
kũmũtia 17
wangangany’o 17
yonĩ 17
ndĩkĩĩku 17
masye 17
ũũtavany’a 17
kũmeka 17
ũsũvĩo 17
emetwe 17
kwĩkwatany’a 17
asũngĩa 17
nũtanĩaa 17
indie 17
ndethĩawa 17
ateũ@@ 17
tũtavany’e 17
ũnge 17
teele 17
wendano 17
kũĩthya 17
kũetee 17
ũsindi 17
valũanĩ 17
waendeeie 17
atũtongoesye 17
waendeea 17
aasya 17
syaandĩkiwe 17
ale 17
vake 17
India 17
mĩnyambũ 17
ndĩthya 17
ĩthaũ 16
tũkaema 16
aniw’e 16
ũngamie 16
ũkũl@@ 16
nũmenete 16
Nĩnd@@ 16
yok@@ 16
ĩtũmĩĩte 16
uku 16
nĩmekalaa 16
ndaaĩ@@ 16
Ũsĩ 16
mataa@@ 16
aaũmae 16
taitũ 16
avĩtye 16
asũanĩie 16
ing’endilĩ 16
kũneen@@ 16
wamũtetheeisye 16
nĩmaaĩle 16
Mbathi 16
angaasye 16
Ta 16
kwo@@ 16
anĩĩe 16
ap@@ 16
kũku@@ 16
wooaie 16
iko 16
weekĩie 16
ũkee@@ 16
nĩsyĩthĩawa 16
matuma 16
nũtanaa 16
Anene 16
Kwasisya 16
aatĩĩe 16
amatetheesye 16
José 16
mũtwa@@ 16
mekalĩte 16
nĩtumaa 16
wos@@ 16
syoonanasya 16
indĩĩsye 16
iy@@ 16
mavoyaa 16
avĩtya 16
ũng’@@ 16
mũsaala 16
ikie 16
n 16
Mũth@@ 16
ambe 16
nĩmesaa 16
yona 16
veonekana 16
YESŨ 16
IS@@ 16
tũkona 16
Sianĩsya 16
nĩwĩtĩkĩlaa 16
kanisa 16
itano 16
ĩndũa 16
athayũũkw’a 16
Kingsley 16
akatuma 16
maĩkĩĩthasya 16
if@@ 16
manyie 16
kwambata 16
athũk@@ 16
ĩlĩĩle 16
yaka 16
anae 16
nĩwĩanĩasya 16
waumiw’e 16
akeng@@ 16
tũtanĩe 16
taa 16
1940 16
nĩkũtũ@@ 16
matũmĩawa 16
mendeeaw’a 16
mekĩtwe 16
makwatĩĩe 16
anĩthye 16
syak@@ 16
nĩtũmanyaa 16
mũtetheesye 16
manyĩte 16
ĩkal@@ 16
ilikene 16
Rico 16
nyaaĩ 16
ongelekile 16
kũũtũmĩa 16
nĩwoo@@ 16
nĩmonanĩtye 16
ũta 16
ilĩlwa 16
umaw’a 16
weemanyĩisye 16
engane 16
Endai 16
wĩvitho 16
Ame 16
eekĩa 16
wambĩlĩlyo 16
ũngĩiwe 16
ũtũmĩĩte 16
ũvangĩte 16
mũtenge 16
nĩtũtataa 16
twĩneenea 16
onan@@ 16
em@@ 16
syok@@ 16
ĩke 16
ũkwĩ@@ 16
ũkĩlya 16
ũthũĩlonĩ 16
usĩe 16
Gwen 16
ĩkĩlya 16
ũthei 16
nĩmatũmĩaa 16
kĩthũi 16
kũkwat@@ 16
kĩvĩlanĩ 16
woonanasya 16
Akali 16
matakĩtalĩ 16
ata@@ 16
kũmwĩa 16
atambĩte 16
andĩkĩth@@ 16
kũũ@@ 16
mina 16
Nga@@ 16
yathanie 16
ũthasya 16
ekanie 16
kĩkat@@ 16
tũil@@ 16
kany’a 16
akambĩĩa 16
kũmak@@ 16
kũthaw’a 16
wasya@@ 16
Nĩmatonya 16
86 16
uka 16
Ũseũvyo 16
umba 16
takeka 16
w’ana 16
Eveso 16
andĩkĩe 16
ũkombo 16
syokie 16
amanyĩsye 16
Yona 16
Kavinda 16
yĩsa 16
syuu 16
ũkwat@@ 16
sũvie 16
kĩta@@ 16
ũyenda 16
waandĩkĩe 16
kũatĩanĩa 16
nĩwendeeiw’e 16
kũmekĩa 16
kũvũthĩĩsya 16
letiũ 16
ĩsũngĩĩte 16
twamina 16
vas@@ 16
wĩenda 16
kwatumie 16
t 16
aseũvya 16
Motalo 16
eethĩie 16
kũũngamya 16
ithamanĩ 16
Ũkunĩkĩli 16
mũtu 16
ĩlĩĩla 16
Isu 16
kũtangĩĩwa 16
ũseũv@@ 16
yĩsilya 16
kwovwa 16
ĩkwatya 16
kavindanĩ 16
tweethĩa 16
kumw’a 16
ing’ei 16
aal@@ 16
tũsomaa 16
Makoki 16
ũkatavanw’a 16
kũthũku 16
kĩlilye 16
methukĩĩsye 16
nĩmaum@@ 16
Le@@ 16
kĩsya 16
Malondu 16
ũnd@@ 16
ŨTONYA 16
tũtũmĩĩte 16
kũkany’a 16
mamanyĩsye 16
twĩs@@ 16
nĩwanengiwe 16
wi 16
iseũv@@ 16
ĩkanisanĩ 16
thukĩ@@ 16
mbũthũ 16
nũtataa 16
nĩmetĩkĩl@@ 16
auma 16
Kĩthyomo 16
Seoli 16
ngwenda 16
yenda 16
kũkanw’a 16
twaweta 16
uni 16
ulu 16
Myolooto 16
kũkenga 16
ĩĩaw’a 16
ĩngĩĩs@@ 16
ĩnyungaa 16
kũnd@@ 16
nĩtũl@@ 16
kũtũth@@ 16
kũkĩl@@ 16
­ 16
wand@@ 16
kũmas@@ 16
nĩtũtanaa 16
kũsu@@ 16
umo 16
Ne@@ 16
Nĩtũtanaa 16
uwe 16
ALA 16
ĨTH@@ 16
ũyona 16
ũkũme 16
ndaaĩsa 16
nĩwatũmĩaa 16
Wycliffe 16
tũitata 16
Mĩthenyanĩ 16
mũnengie 16
nĩneemanyĩisye 15
athimĩka 15
tũngĩaa 15
tũendee 15
aimũ@@ 15
ayona 15
twekala 15
nĩmwĩ@@ 15
elye 15
wasisya 15
wavika 15
wameie 15
twatata 15
Mwolooto 15
kwĩnengane 15
Laavi 15
makilyĩ 15
Mantha 15
atw’e 15
ŨLA 15
mũemeu 15
wendeeaw’a 15
mamũkĩaa 15
ithũ@@ 15
mekwendeew’a 15
mel@@ 15
tethetye 15
kũalyũlwa 15
malikile 15
sitima 15
nathũkũmaa 15
makew’a 15
ithĩte 15
itaa 15
kũtũl@@ 15
akona 15
yũlũlũkĩte 15
ũtulu 15
ĨT@@ 15
oosya 15
nĩmatetheeisye 15
Syaĩĩsyai 15
ndevili 15
nduka 15
ongeleka 15
kwĩkany’a 15
ũkita 15
Metho 15
kũelekanw’a 15
East 15
tũitavany’a 15
matũl@@ 15
al 15
voyaa 15
akwatiwe 15
ĨVĨTU 15
TH@@ 15
yesaa 15
mũsũngĩie 15
wetiwe 15
mũthengeea 15
avĩtĩte 15
YE 15
nĩtũtavĩtye 15
maikal@@ 15
Kethĩwa 15
waum@@ 15
kũmakwata 15
Ĩngĩ 15
athũkũmaa 15
kũvoyaa 15
alyũl@@ 15
w16.@@ 15
Nĩnĩt@@ 15
angya 15
mũmeo 15
naendie 15
kũtha 15
syokea 15
ongeleelwa 15
Kenneth 15
syĩyĩtaa 15
makonany’a 15
kũthok@@ 15
iaki@@ 15
matanĩaa 15
twĩkal@@ 15
ar@@ 15
kyakwatie 15
ale@@ 15
ũtũngaa 15
nĩtũtanĩaa 15
neeneaa 15
aveveewe 15
twatiĩwe 15
mayĩkala 15
kyamũ@@ 15
10,000 15
aendete 15
ŨSU 15
tũyĩkala 15
olo 15
tũteũ@@ 15
Elieseli 15
wathanĩtwe 15
syĩkwonany’a 15
Evalaimu 15
anĩlya 15
athĩte 15
ĩo 15
amanyĩka 15
ũmũ 15
ingũa 15
tũnengawe 15
tũtethye 15
mĩtuo 15
mũthaithi 15
tũeka 15
wĩĩw’a 15
w’ĩkĩthw’a 15
ũtongoew’e 15
2008 15
avatiswe 15
Ũsyao 15
unĩ@@ 15
tũtatonya 15
emeewa 15
nĩnam@@ 15
nĩwandetheeisye 15
ete@@ 15
kũtavw’a 15
matamwĩsĩ 15
09 15
wĩyũmbanĩtye 15
yũũ@@ 15
Twĩasya 15
ĩtaĩle 15
MWAKA 15
ELE@@ 15
W’O 15
Voya 15
nĩwamwendete 15
nũtũthĩnĩkĩaa 15
Spain 15
maikwata 15
kwaĩla 15
twavoya 15
kũĩkĩĩka 15
ĩsoma 15
Atĩĩa 15
71 15
May@@ 15
Nĩmeeyumisye 15
ũtũĩkĩĩthasya 15
wavangĩte 15
nĩeleetye 15
kũtũng@@ 15
elem@@ 15
Spanish 15
atume 15
etheesye 15
neng@@ 15
amanyĩa 15
akoma 15
nũmanengae 15
mamũmanthaa 15
akamanya 15
Kwakũna 15
asumbĩka 15
yatumie 15
mayonaa 15
w’ĩkĩthye 15
angĩĩwe 15
ũnengwa 15
Mwalimũ 15
mayeesĩ 15
wakwata 15
ĩkĩaa 15
evo 15
mũnenange 15
avungwa 15
etĩkĩ@@ 15
makomaa 15
twekalaa 15
aaĩlĩte 15
mũviku 15
Mĩsoa 15
waaĩlĩte 15
Nũt@@ 15
syatũmĩawa 15
mail@@ 15
mwonzu 15
Twĩthĩwe 15
eveee 15
syasyo 15
ake 15
Asyokie 15
kũsilĩlwa 15
wakũlilye 15
iakisye 15
momĩĩsye 15
atwĩe 15
ũmbany’a 15
2009 15
ĩtetheesye 15
anonĩ 15
mũnenge 15
Ang@@ 15
mwaitũ 15
14@@ 15
kũthoosya 15
noĩthwa 15
W’A 15
Ũvonge 15
ndethĩwa 15
ĩtũtetheeasya 15
vĩtie 15
ũmanyaa 15
twasya 15
wae 15
Nav@@ 15
yĩelesya 15
Ĩsũvĩei 15
kyovo 15
tũsinde 15
mwĩtĩkĩli 15
inyie 15
imanye 15
oonekaa 15
kwonaa 15
masyoka 15
aĩthi 15
vath@@ 15
ite@@ 15
kũseng’a 15
ũimũ@@ 15
omĩĩisye 15
Ny@@ 15
etĩkĩlya 15
mambie 15
tũyĩthĩawa 15
aĩi 15
syĩthĩĩtwe 15
EN@@ 15
makekĩka 15
ekĩte 15
twas@@ 15
AK@@ 15
700 15
tũĩkĩĩaa 15
syĩkalaa 15
ũtam@@ 15
atavye 15
ũetae 15
ayĩthĩwa 15
mekĩĩte 15
akaĩi 15
iaa 15
makomete 15
kanza 15
atongoesye 15
mbũa 15
Ith@@ 15
mwĩki 15
ũmĩĩte 15
ũlilikene 15
mũte@@ 15
maatĩanĩe 15
eetwa 15
ũkũta 15
Kwamba 15
mathayũũk@@ 15
Austria 15
maumĩla 15
mũti@@ 15
Ĩtambya 15
kũthangaany’a 15
mũthei 15
ũthangaasya 15
oko 15
anyusaa 15
eman@@ 15
ũkosa 15
Ũl@@ 15
Kĩt@@ 15
wanengwa 15
mamanyie 15
nekalaa 15
kanyw’anĩ 15
seli 15
Ikundi 15
150 15
nes@@ 15
kwatĩkanaa 15
nĩmakothaa 15
aia 14
asyoke 14
tũith@@ 14
etĩkĩli 14
kwĩkana 14
ũtũnga 14
nĩmeetĩkĩlile 14
asumb@@ 14
eanĩa 14
Kĩs@@ 14
atũmĩtwe 14
75 14
malaa 14
wongeleku 14
mũvuku 14
atata 14
Usiai 14
kangĩ 14
kũmy@@ 14
Asalia 14
mwendete 14
ũvĩĩte 14
Ũngĩ 14
mũnengani 14
tũkasya 14
nĩmoo@@ 14
etiwe 14
mayaaĩsa 14
ĩandĩkĩtwe 14
anĩonĩ 14
Lameki 14
mov@@ 14
syũki 14
mavi@@ 14
tweethĩawa 14
kũthokany’a 14
usye 14
nzw’ĩĩ 14
mĩlũngalu 14
elekanilye 14
Alexandra 14
mamatetheesye 14
tiw’o 14
atindĩaa 14
alũsani 14
Kũmũthũkũma 14
ũkwatĩte 14
wendie 14
W’@@ 14
yĩka@@ 14
2004 14
twĩvathane 14
Mbaluku 14
Livoti 14
nĩmaĩlĩte 14
ono 14
ĩkĩie 14
ũtate 14
neekũlasya 14
Madagascar 14
akaa 14
And@@ 14
umiw’e 14
kĩtũmanyĩsya 14
anw’e 14
tiĩte 14
ae@@ 14
aimantha 14
ASYA 14
ŨK@@ 14
twatetheesya 14
ĩiwe 14
manthie 14
umĩtw’e 14
ieleelo 14
Ber@@ 14
Ũathimo 14
03 14
atĩe 14
ĩngwa 14
wĩw’e 14
wavo@@ 14
mbasi 14
athimie 14
ũvuku 14
leile 14
yĩsĩ 14
05 14
Mbaali 14
kũmĩt@@ 14
ũũtuma 14
ndĩi 14
ĩĩie 14
ũmantha 14
nĩmekĩte 14
di@@ 14
w’ĩĩka 14
makuĩte 14
minĩte 14
mũseango 14
matunĩ 14
ũthengeee 14
tethisye 14
mũĩmi 14
tũkav@@ 14
g@@ 14
atũv@@ 14
Michael 14
tũtavye 14
nĩwatũng@@ 14
Twĩw’aa 14
Kĩanda 14
nĩwathanĩte 14
ũkamina 14
nĩtũvĩtasya 14
mbwaũ 14
atiĩwa 14
kĩthyomonĩ 14
Eli 14
r@@ 14
wĩk@@ 14
kyonanĩtye 14
atumanu 14
yailyĩ 14
akĩmwĩa 14
maatĩĩa 14
Esau 14
matw’ĩte 14
nĩmand@@ 14
nenganĩte 14
eng’a 14
nĩmatanaa 14
tũthũkũmaa 14
ri@@ 14
thĩiwe 14
Nĩtũt@@ 14
kũmwĩt@@ 14
nesie 14
anĩwe 14
aniwe 14
Warwick 14
anĩth@@ 14
ũanĩĩte 14
or@@ 14
Kĩlungunĩ 14
itũtetheesye 14
Yĩĩ 14
etheeiw’e 14
mamũmanye 14
yĩkavika 14
ON@@ 14
vaĩlĩte 14
aw@@ 14
ĩsumbĩkĩtwe 14
nĩmw@@ 14
mendeew’a 14
kũsemba 14
eesĩ 14
9@@ 14
nĩmatethe@@ 14
Williams 14
Esa 14
usũa 14
kwatĩĩe 14
tũvila 14
tũũtavya 14
sũvĩa 14
tũkatw’ĩka 14
mathokya 14
ĩndũe 14
kwĩs@@ 14
atindany’a 14
ongel@@ 14
metĩtwe 14
kyamũtetheeisye 14
makesa 14
ũsĩnĩ 14
atetheeisye 14
mũkũũa 14
ndũngalu 14
aleile 14
ivĩla 14
wĩkalĩte 14
esũv@@ 14
mamũtetheesye 14
ũngama 14
ũmĩte 14
oawe 14
kũmũmanyĩsya 14
kũme@@ 14
nĩtwaendie 14
Navali 14
anile 14
twĩw’e 14
tha 14
Eli@@ 14
akatũnenga 14
Wee@@ 14
Hong 14
Kong 14
za 14
Yehova 14
ũtũl@@ 14
wĩtĩkĩlĩtye 14
ũkũmae 14
ũĩkĩĩe 14
anĩsyo 14
kũthi@@ 14
watwĩe 14
inengo 14
kũatĩĩwa 14
Lu 14
matavany’e 14
Visa 14
maeleetw’e 14
onanw’a 14
anamba 14
nĩweet@@ 14
mũka@@ 14
waminie 14
mũomo 14
ũvw’anene 14
nũkũtũ@@ 14
ita@@ 14
Mũmanyĩw’a 14
ũek@@ 14
asomu 14
Nazi 14
Melikiseteki 14
17@@ 14
00 14
ũtw’ĩke 14
waneng@@ 14
nĩtũnengete 14
Gu@@ 14
omie 14
Kũkeethĩwa 14
ongeleela 14
alei 14
mwove 14
kwĩsũvĩana 14
w’ĩĩwa 14
matw’ĩkie 14
matetheesya 14
wasye 14
y’a 14
tũkambĩĩa 14
nĩmetĩkĩlaa 14
kĩvĩtu 14
twana 14
YA@@ 14
kũman@@ 14
ũvithany’a 14
somete 14
Ĩthĩwai 14
nũtwathĩte 14
tũlilikene 14
ikonetye 14
tweew’a 14
monanĩtw’e 14
twaendie 14
atũma 14
In@@ 14
neemanyĩisye 14
kũsembany’a 14
neethĩawa 14
makw’ĩte 14
kwendeka 14
twĩlĩ 14
Avilisiti 14
angĩthya 14
weethĩwa 14
ĩtũtavĩtye 14
ũlũm@@ 14
ung@@ 14
weeyumisye 14
matal@@ 14
kũthaithĩa 14
etheeaw’a 14
umĩl@@ 14
yosanĩte 14
ĩĩwe 14
kwov@@ 14
kĩmbithĩ 14
Esala 14
twĩndũ 14
ũĩkĩĩthasya 14
alyũlile 14
nĩke 14
nũl@@ 14
oneke 14
wanengete 14
ikaa 14
wamũtavisye 14
102 14
ũnenganae 14
ũmĩasya 14
moth@@ 14
zi 14
ndwĩthĩawa 14
eetie 14
AL@@ 14
wathũkũmaa 14
tũna@@ 14
1870 14
tũis@@ 14
maumasya 14
tũimanya 14
twamanyie 14
64 14
iatĩĩe 14
alĩtye 14
nĩthĩĩtwe 14
tũyamba 14
ongeleele 14
Eeie 14
mamanthe 14
mathũkũme 14
Nath@@ 14
thĩnisye 14
kwĩtetea 14
mathayũũkiw’e 14
auĩtye 14
ĩteta 14
nĩnendaa 14
mamanyĩasya 14
Ĩmwe 14
ũmwĩtĩkĩlaa 14
ũtan@@ 14
valatiso 14
aneeneaa 14
twĩyĩ@@ 14
kwĩthima 14
watha 14
tũendeea 14
ĩkeethĩwa 14
h 13
watav@@ 13
nĩmatw’ĩte 13
eleiwe 13
nĩwamanengie 13
yaw’o 13
Nathan 13
ũmĩtye 13
elele 13
Ũkanganĩ 13
es 13
amũnengie 13
metĩkĩlaa 13
yoneaa 13
kyesaa 13
yĩneeneete 13
wingĩvĩte 13
nĩwatataa 13
malilikanaa 13
kwĩvaany’a 13
1949 13
atisĩwe 13
tũkũ@@ 13
kyende 13
kũvithũkĩa 13
Maelesyo 13
amatongoesye 13
ũmanĩtye 13
mae 13
yonee 13
matavasya 13
mambĩ@@ 13
alyũle 13
kanaa 13
nĩtũmendete 13
nĩmendie 13
120 13
ĩkĩle 13
ilaa 13
Ava 13
mesĩkĩe 13
Tafsiri 13
nakwata 13
Neekũlasya 13
tũkĩlye 13
meekĩiwe 13
atethye 13
69 13
ayambĩĩa 13
yĩtaĩwe 13
Sotomo 13
aye 13
ithanĩtye 13
ilikane 13
matũvĩtĩsya 13
tũek@@ 13
vevanĩ 13
kũthayũũka 13
ũtũth@@ 13
ig@@ 13
kwambĩĩsya 13
nĩwaathimie 13
vathei 13
yĩima 13
kũniwe 13
monene 13
masũvĩa 13
amak@@ 13
kũtũsiĩĩa 13
ndetema 13
nĩwan@@ 13
Kũea 13
theka 13
mosilĩlo 13
nzyawanĩ 13
kũtũtongoesya 13
ũneng@@ 13
meũtavany’a 13
kwĩyĩuna 13
tũkomanaa 13
Ndaĩa 13
Mũtũi 13
kwĩyũkitĩa 13
ish@@ 13
yokete 13
mavinyĩ@@ 13
kath@@ 13
meew’a 13
MB@@ 13
makaa 13
nĩmeewie 13
mauma 13
kũmĩatĩĩa 13
andĩkĩwe 13
ngwĩka 13
wĩtĩkĩlaa 13
Twee@@ 13
ookĩla 13
kũkũnĩa 13
esene 13
kĩthimanĩ 13
kĩtaĩle 13
ũkekalaa 13
Kĩk@@ 13
kũtũathima 13
won@@ 13
ũtũng@@ 13
Weta 13
avĩndũa 13
mumya 13
Araceli 13
nĩtwath@@ 13
tũmũthengeee 13
Nĩnĩw’aa 13
kũtaanĩsya 13
anilye 13
Wĩthĩwe 13
asũvĩĩku 13
Wĩthĩawa 13
Ko 13
measya 13
kwaa 13
kasũmbanĩ 13
Mikaeli 13
matongoetye 13
Tei 13
itĩa 13
Ekal@@ 13
ngethĩwa 13
Kolosai 13
wamatavisye 13
oye 13
anĩl@@ 13
ũũka 13
kyonanaw’a 13
akasyoka 13
ikya 13
Amwĩ@@ 13
Kazi 13
kũmea 13
kwĩkathĩĩa 13
ũtesĩ 13
ASYAIWE 13
KYA@@ 13
masia 13
mũvĩanĩ 13
Bar@@ 13
tũkwatĩte 13
kĩy@@ 13
kyamũkwatie 13
enevya 13
kwatwe 13
kũmũkumya 13
iakiw’a 13
nũtetheesye 13
mose 13
twĩmanyĩasya 13
mathĩnĩkĩaa 13
tũthaithaa 13
mũathime 13
eele 13
Tũkaema 13
Kĩth@@ 13
ĩtwĩĩte 13
kwingĩva 13
ũngamĩwe 13
nĩsyaĩle 13
nĩwendie 13
aaĩthe 13
ndesĩ 13
kote 13
ngal@@ 13
manthĩe 13
enaa 13
Mamina 13
ũawa 13
Mũlomi 13
kũtala 13
kũũatĩĩa 13
mũmanye 13
Nĩwendete 13
ile@@ 13
1995 13
ũthĩ@@ 13
ayumya 13
ũmban@@ 13
ũmĩwe 13
Kĩl@@ 13
aima@@ 13
nĩeke 13
kũtangĩĩa 13
nĩwĩthukĩĩasya 13
mĩendele 13
ũkũneena 13
elekele 13
manye 13
wĩyumĩtye 13
vengi 13
Nisani 13
ĩtũmanyĩasya 13
wumo 13
okit@@ 13
ME@@ 13
nĩnĩthĩawa 13
nĩwamanyĩisye 13
atũmĩawa 13
usũĩte 13
alyũkaa 13
tũũnyuva 13
weew’a 13
nĩtetheesye 13
97 13
Yo@@ 13
nĩmathĩnĩkaa 13
ĩtanamba 13
kũmaelesya 13
ũtũmane 13
wĩanĩe 13
yalikile 13
ĩyanangwa 13
wamwendete 13
nyũmũ 13
kũtavanw’a 13
olwa 13
ũitũmĩa 13
makw’ĩĩwe 13
Kal@@ 13
matam@@ 13
Kĩtheokulasi 13
nĩtwonete 13
angye 13
kũmũkatha 13
onya 13
mũvĩt@@ 13
mũtav@@ 13
thayũũkw’a 13
wĩthĩa 13
onokete 13
kũtindĩa 13
MŨNDŨ 13
Nĩneemanyĩisye 13
3,000 13
Kũvindĩĩsya 13
kwi@@ 13
uwa 13
nĩweeyumĩtye 13
kĩthimo 13
matonye 13
itũmĩĩtwe 13
emba 13
makĩĩte 13
wamũnengete 13
una 13
weetĩkĩl@@ 13
yaaĩle 13
ialyũlĩtwe 13
alũng@@ 13
aitata 13
ũtethaw’a 13
ŨT@@ 13
nĩmanengetwe 13
manenga 13
enũka 13
akamwĩ@@ 13
eteaa 13
8@@ 13
ingĩvie 13
Mel@@ 13
ambya 13
130 13
kamwĩlĩtu 13
tũyaĩ 13
onz@@ 13
Nĩw’o 13
ngetha 13
ũkyũka 13
Isita 13
tetheetye 13
nin@@ 13
makaendeea 13
ongelekete 13
mekalile 13
ũatĩĩa 13
wamũk@@ 13
ũwaĩte 13
wasumbĩkĩte 13
aisũanĩa 13
mwambĩlĩlyo 13
mũandĩko 13
tũitethya 13
Monaa 13
ĩngaa 13
nũkwĩw’a 13
Yeliko 13
nĩwalũmanĩtye 13
vovu 13
nĩmekaa 13
nĩmaekie 13
ĩĩw’a 13
syoonanisye 13
Nĩs@@ 13
twĩyĩelekany’e 13
tũitetheesya 13
motianĩo 13
eĩka 13
kĩkwonany’a 13
alikile 13
kwath@@ 13
itulu 13
wavoyie 13
umany’a 13
AEVL 13
ongele 13
kũwĩka 13
vethĩawa 13
kumĩthya 13
kũthia 13
ĩsavu 13
ũendee 13
neesĩ 13
asyaĩĩsye 13
moka 13
endanĩte 13
atavanasya 13
mawetaa 13
kwatĩtwe 13
wĩsaa 13
ĩĩka 13
ũkũ 13
mbeke 13
malilikene 13
mũtandĩthya 13
anĩĩtye 13
Eekaa 13
Car@@ 13
mũsumbĩki 13
ĩkĩe 13
kĩlye 13
kũmwony’a 13
nĩkĩte 13
amatavya 13
mbĩka 13
Ndũa 13
ũngamĩte 13
89 13
imĩte 13
nĩyatumie 13
Ndũkakĩe 13
atũmie 13
Ambaviloni 13
waiwe 13
akathayũũka 13
anangwe 13
masyokie 13
wathaniwe 13
Nĩv@@ 13
os 13
mũtalatala 13
105 13
l 13
ndit@@ 13
mathĩte 13
ISA 13
Kwĩsĩla 13
ineng@@ 13
neemanyĩasya 13
mĩsoanĩ 13
yawa 13
mathoo@@ 13
ndune 13
ngamũ@@ 13
kĩatĩĩe 13
waweta 13
Mbeth@@ 13
ongelile 13
ndonaa 13
atũmbie 13
yas@@ 13
meyendete 13
ngĩs@@ 13
andĩkwa 13
kĩit@@ 13
enev@@ 13
Jacob 13
yĩendeee 13
57 13
matavye 13
twĩkũlya 12
Oonanisye 12
ũngilye 12
mwambĩĩo 12
wataviw’e 12
ũmanyĩisye 12
mako@@ 12
sũv@@ 12
akal@@ 12
tũsyaĩĩsye 12
matetheew’e 12
ũneen@@ 12
maisũanĩa 12
nzamanĩ 12
aai 12
ngalĩkonĩ 12
ũyonany’a 12
aat@@ 12
waekie 12
nĩwĩkalaa 12
mbano 12
mail 12
ingangĩ 12
Avisalomu 12
kũmal@@ 12
Mũethiovia 12
kũkwatĩanĩa 12
amine 12
tũuĩtye 12
nĩnaekie 12
IN@@ 12
ngw@@ 12
mavĩtya 12
ũtũmanyĩasya 12
WUMĨTE 12
mũtethya 12
mbĩie 12
vatathelete 12
namwĩa 12
wendonĩ 12
mend@@ 12
Wũmĩĩsyo 12
wĩtĩtwe 12
Mwĩ 12
kũmĩv@@ 12
anakav@@ 12
ĩlwaya 12
twĩenda 12
MŨTH@@ 12
mũo 12
omanie 12
nĩwamũk@@ 12
Aasuli 12
akanĩ 12
92 12
atisawa 12
nĩkĩeleetye 12
ekwa 12
makasilĩlwa 12
okiw’e 12
emu 12
Ulimwengu 12
athanĩte 12
de 12
ĩika 12
wiĩe 12
amo 12
ĩĩasya 12
kũtetheesye 12
kũmũsũvĩa 12
ũkany’a 12
nako 12
ANĨ 12
1930 12
nĩmekĩaa 12
maeleasya 12
amwĩw’a 12
Mũtune 12
atũmĩwa 12
amũtetheesya 12
ONĨ 12
yanĩ 12
kũtatwa 12
ũteũtĩĩa 12
maveva 12
mũsili 12
mĩaonĩ 12
kĩvoya 12
ike 12
tũeke 12
ũtũmĩ@@ 12
ĩsanĩe 12
Ndwĩsa 12
onye 12
atavw’a 12
ũũvoya 12
wĩth@@ 12
mbeange 12
kũamũ@@ 12
ũkekũlya 12
itu@@ 12
kũkiakiw’a 12
tũmw@@ 12
akĩmea 12
angu 12
2002 12
nĩmatetheesye 12
Moavi 12
endetwe 12
mĩsavivũ 12
Wasũanĩa 12
AV@@ 12
w’ĩkĩ@@ 12
nĩĩ 12
akama@@ 12
1900 12
twamwĩ@@ 12
enwa 12
ũlilikan@@ 12
Is@@ 12
two@@ 12
uĩte 12
ũngamya 12
akekala 12
elew’a 12
tweekaa 12
kĩtetheesye 12
wekalile 12
nĩsyatumie 12
Tũi@@ 12
andĩkaa 12
yendaa 12
ĩĩi 12
nĩweeyoneie 12
Felisa 12
nĩmekwenda 12
W 12
thaa 12
kĩtũ@@ 12
Kolinelio 12
ũngame 12
mbĩĩiw’e 12
ũsyaasya 12
eli@@ 12
waneeneaa 12
wakũlilw’e 12
kee@@ 12
Ee@@ 12
ũũm@@ 12
yamb@@ 12
nĩmatanie 12
mum@@ 12
matũm@@ 12
nenange 12
ũkũm@@ 12
ĩei 12
1800 12
Mũnyũ 12
Republic 12
Puerto 12
ũtia 12
waumĩla 12
nĩmaekete 12
twingĩ 12
ĩvanĩsya 12
Maswali 12
ongelete 12
Ndika@@ 12
Mc@@ 12
ĨA 12
el 12
ou 12
Athaithi 12
olwe 12
volisi 12
ĩvĩndĩ 12
thĩnz@@ 12
yĩsĩkĩe 12
omanĩte 12
nĩwame@@ 12
elelwa 12
yo@@ 12
ndaasa 12
wakomana 12
T 12
kũnaa 12
anyuvĩtwe 12
tha@@ 12
masasya 12
uie 12
ũtw’ĩte 12
ũmbanĩ 12
kyaũya 12
meethĩie 12
mang@@ 12
Su@@ 12
atanĩa 12
son 12
ĩsoki 12
tawe 12
ovosye 12
ithaa 12
ũtanaa 12
Kulusi 12
kyeethĩawa 12
wĩsũva 12
mesanĩ 12
ndia 12
Mavindanĩ 12
atavĩtye 12
ndam@@ 12
amwona 12
tũsyaanĩw’e 12
ingith@@ 12
silikalĩnĩ 12
kũvindya 12
ngath@@ 12
900 12
Nĩenda 12
Nĩnambĩĩie 12
Nĩnendaa 12
w’an@@ 12
inyĩla 12
kũng’@@ 12
meeiwe 12
manyĩth@@ 12
imanyĩasya 12
Nĩnendeeiw’e 12
nĩmaatĩĩaa 12
tũtesĩ 12
aumie 12
mũsya@@ 12
Mũsamalia 12
nĩwaĩkĩĩe 12
kwĩyonea 12
etawa 12
1931 12
kumany’a 12
133 12
mũthok@@ 12
syaa 12
inyw’onthe 12
ndaaĩle 12
kam@@ 12
manengete 12
ũkew’a 12
makũa 12
kĩsi@@ 12
mawa 12
mũthũkũmae 12
mĩkate 12
kyal@@ 12
aitũtetheesya 12
yaandĩkĩtwe 12
moonany’a 12
ngwatĩlĩlyo 12
twakwatie 12
nĩwasũanĩaa 12
kũnoa 12
mavoyae 12
ĩngawa 12
YO@@ 12
nĩwang@@ 12
seũvĩtye 12
wĩkĩĩte 12
mookĩte 12
sekondalĩ 12
nĩmakwatawa 12
twĩse 12
ĩvw’a 12
Ukraine 12
ũimanya 12
kũvũthw’a 12
ikwonany’a 12
athũkany’a 12
kũkĩla 12
ũneenany’a 12
ĩkalaa 12
ĩkĩsya 12
mũthengeeu 12
athoo@@ 12
asyawa 12
kũthĩny’a 12
syaneeniwe 12
nĩtũs@@ 12
alyũke 12
matwaana 12
twamũvoya 12
mĩtwe 12
kũti@@ 12
kwonw’a 12
wĩkĩtwe 12
Mũũme 12
84 12
vatheu 12
ũthokya 12
kũtũ 12
malũlũmĩlye 12
ũng’ei 12
meĩka 12
maiatĩĩa 12
JW 12
twĩsa 12
Sevina 12
kũsola 12
asomie 12
SA@@ 12
onga 12
avũ@@ 12
twavika 12
Nĩmwĩ@@ 12
ala@@ 12
kũlũlũmĩĩlya 12
ilika 12
manthĩa 12
Italy 12
mĩi 12
yoneie 12
Naseng’ie 12
mũtũng@@ 12
ũkũlye 12
nda 12
ĩlenĩ 12
atavasya 12
10@@ 12
kũthambĩa 12
kwonza 12
ĩthĩtye 12
makangaa 12
ur@@ 12
matũng@@ 12
wandavisye 12
2006 12
ekeie 12
Mark 12
timũ 12
aana 12
nĩmakwataa 12
makamũ@@ 12
kyaendeeie 12
masyaĩĩsye 12
nĩwamũtavisye 12
onasya 12
sel@@ 12
athimiwe 12
ĩtũmĩĩtwe 12
mũkwenda 12
nĩmaĩkĩĩaa 12
mathĩnaw’a 12
ĩve 12
kwĩl@@ 12
tethasya 12
ũlũmĩl@@ 12
yaalyũlilwe 12
mathembonĩ 12
nĩmatwie 12
ũyĩsa 12
ũngamĩa 12
ulya 12
Mosũngĩo 12
Ĩkal@@ 12
oli 12
yunivasiti 12
ilĩĩla 12
kĩalanĩ 12
maneeneaa 12
nũsũvĩaa 12
matangĩĩwe 12
endany’a 12
tumasya 12
ail@@ 12
malelũ 12
68 12
aĩawa 12
otie 12
Maisye 12
ote 12
makwatawa 12
ũneenea 12
1513 12
makambĩĩa 12
inaa 12
anyuvie 12
movisinĩ 12
kĩkw’ũnĩ 12
tũlya 12
akie 12
mamũthũkũmĩte 12
ambaa 12
wathelile 12
inyĩle 12
wĩyĩ@@ 12
inzi 12
ayĩkala 12
matũĩkĩĩthasya 12
ndu 12
kũtila 12
mĩnene 12
kyamatetheeisye 12
Lama 12
esi@@ 12
avoya 12
sieva 12
ũtatonyeka 12
makakwatwa 12
kĩthembeo 12
makatavany’e 12
nĩmanengete 12
ethe@@ 12
Buddha 12
kũvingũa 12
Amosi 12
makatũa 12
waendaa 12
wau 12
kũoleka 12
yaĩĩk@@ 12
kũtumbĩthw’a 12
ĩthaw’a 12
thiĩ 12
ũtoetye 12
ũlũlũmĩlya 12
mathĩtwe 12
nim@@ 12
63 12
Wallkill 12
ũwetaa 12
makekalaa 12
mathe@@ 12
manemane 12
kavila 12
nĩkyat@@ 12
mbĩlĩlya 12
kũneng@@ 12
tũkekũlya 12
Sh@@ 12
Margaret 12
avetwa 12
ndakese 12
wakonetye 12
tũkeekaa 12
maiendeea 12
naa 12
malũngalu 12
angangany’a 12
etya 12
oko@@ 12
p 12
Twamina 12
nĩwoona 12
BCK 12
nĩtũmĩĩte 12
tweekie 12
kũtenga 12
Twaatĩĩa 12
anyanyau 12
nĩkĩũtũtetheesya 12
atwaa 12
Naomi 12
­@@ 12
kwĩnza 12
kũthũkĩĩa 12
ũnenge 12
Kyo 11
somea 11
tũvoyae 11
mũtavĩtye 11
kũtwenda 11
aianĩsya 11
1971 11
sil@@ 11
Twekala 11
wĩtũ@@ 11
kĩng’ei 11
kanw’a 11
twĩyũmbanĩsye 11
Aalani 11
aikw’a 11
uaa 11
Yolotani 11
Noĩthwa 11
walikile 11
Qu@@ 11
ndaamũ@@ 11
wakw’a 11
wĩkĩe 11
ũlũmanĩtye 11
ndũkusaa 11
ako@@ 11
nũtethasya 11
ano@@ 11
watũ@@ 11
eku 11
ou@@ 11
ŨMB@@ 11
kũũmĩa 11
ĩlĩtwe 11
tũneene 11
tũũvoya 11
ove 11
atw’ĩkie 11
Sa@@ 11
kĩanĩe 11
kũmũkwata 11
mwĩsũkũũe 11
onw’a 11
nyw’a 11
kiwe 11
kĩyĩ@@ 11
wambe 11
Asyaĩĩsya 11
Mũnengani 11
akaananga 11
ĩithela 11
Jimmy 11
kũtũekea 11
kũmwĩw’ĩa 11
kũvĩndũka 11
athwa 11
tũmwende 11
SYA 11
eekĩiwe 11
maikethĩwe 11
Tuvalu 11
ĩtũ@@ 11
kũkathwa 11
Asuli 11
Mũmaitha 11
Ye@@ 11
neethĩie 11
yũlũlũkĩtwe 11
kũtav@@ 11
kũmona 11
ũtũsũvĩaa 11
kũvũa 11
tũmũkũlye 11
ĩkye 11
sw 11
Mpya 11
tũtat@@ 11
ũlũmu 11
mbomu 11
matethekie 11
1943 11
eekĩwa 11
7,000 11
nĩtũv@@ 11
maimanya 11
Tony 11
tũvi@@ 11
kĩĩe 11
ndola 11
KWĨ@@ 11
ũim@@ 11
moosie 11
mũeni 11
ũnyuvĩte 11
ĩsyai 11
kũseũva 11
Samuel 11
ũyĩw’a 11
weza 11
ũtavasya 11
AĨ 11
END@@ 11
ŨM@@ 11
wĩĩka 11
mataviwe 11
andĩk@@ 11
kũvetewa 11
nasye 11
tũendete 11
aku@@ 11
ũkama@@ 11
manthĩaa 11
onanaw’a 11
manengwa 11
osea 11
nĩkũetae 11
kanisanĩ 11
akũni 11
kalĩ 11
kũmũelesya 11
weekĩiwe 11
aiee 11
ĩtũnengete 11
atũmĩĩtwe 11
Nĩngũ@@ 11
Meeka 11
ũkeethĩa 11
tũtongoew’e 11
Thesalonika 11
kwĩyĩelesya 11
wanake 11
kũtwĩ@@ 11
ũsoma 11
mbe 11
1,600 11
matavanĩtye 11
x@@ 11
Kwoona 11
kwos@@ 11
tũtekũeka 11
kwanang@@ 11
ongeleeile 11
kũthyũmũa 11
tũteto 11
ũtindĩa 11
yam@@ 11
tũiatĩĩa 11
ethekaa 11
Kyama 11
ngam@@ 11
kwĩke 11
iĩte 11
syĩke 11
meyumye 11
alĩte 11
Ongeleeile 11
nĩweetĩkĩl@@ 11
x 11
akathayũũkw’a 11
asyokete 11
nditonya 11
mamanyĩĩtw’e 11
mamwendeeasya 11
kwoonanasya 11
iitaa 11
kũkat@@ 11
ĩte@@ 11
aĩĩe 11
nende 11
ingo 11
elu 11
,@@ 11
wĩanĩtye 11
Aatĩĩi 11
syĩtawa 11
ayũũkw’a 11
thĩn@@ 11
ũmonaa 11
Susan 11
nĩwatanĩaa 11
mũthelu 11
iiv@@ 11
Delphine 11
mũkatw’ĩkĩthye 11
wombie 11
wangangan’yo 11
w’ĩk@@ 11
ĩsandũkũnĩ 11
MŨĨKĨĨO 11
Lu@@ 11
eaw’a 11
nũkwĩ@@ 11
yesie 11
Ũs@@ 11
THĨNA 11
kakundi 11
Vijana 11
Huuliza 11
kwĩyĩthĩa 11
nĩwaisye 11
weekanie 11
maianĩa 11
tũthok@@ 11
op@@ 11
anasye 11
nũathimaa 11
mũvũthũ 11
nĩwonanasya 11
ũsũa 11
nũsi@@ 11
tũmb@@ 11
atwĩie 11
nĩmatũmĩie 11
AS@@ 11
kyaendeee 11
nũnengae 11
ũtethetye 11
kũmĩtũmĩa 11
mamanyĩsya 11
neenaa 11
nĩkalaa 11
,000 11
Kũvikĩa 11
athĩtwe 11
Mboyanĩ 11
tũkaeka 11
Aamaleki 11
atethe@@ 11
kĩneen@@ 11
nĩwonete 11
George 11
kũvikya 11
nĩmeethĩawa 11
Ndioteleve 11
maendeeaa 11
ũnya@@ 11
ũkasumbĩka 11
Mumo 11
mũtavasya 11
nĩwamũtũmie 11
kwĩwa 11
vatiele 11
thĩĩla 11
aivoya 11
akathayũũkya 11
ilĩle 11
kũkitwa 11
mbokanĩ 11
masinakokenĩ 11
yĩwetetwe 11
ũlũmĩilye 11
mwambĩlĩlyonĩ 11
oov@@ 11
Tavoli 11
ndanamba 11
etheetye 11
Ev@@ 11
nĩmeetĩkĩl@@ 11
wend@@ 11
uteny’e 11
Noonie 11
kwĩkua 11
nĩmaandĩkie 11
w’ĩkĩthisye 11
mu 11
lia 11
nĩsĩ 11
mĩvĩa 11
othi 11
mamwĩthukĩĩsye 11
ĩndũkie 11
noosie 11
mekwĩmanyĩsya 11
141 11
yĩtaĩle 11
kũituma 11
mavu@@ 11
watatie 11
mausũsye 11
nyaĩĩk@@ 11
kĩsululu 11
esĩle 11
ndailyĩ 11
Nzevania 11
aelesya 11
sokonĩ 11
kyayo 11
nĩwakanisye 11
avul@@ 11
wekala 11
ũkiakisye 11
tũsũvĩe 11
maw’a 11
mekĩkĩte 11
mũkeethĩwa 11
mũĩkĩĩaa 11
mookaa 11
Onany’a 11
aũkaa 11
akavyaĩa 11
Kaingĩ 11
atindan’ya 11
tũkas@@ 11
ĩĩile 11
matet@@ 11
KWASŨANĨA 11
kalata 11
maminie 11
ikeethĩwa 11
ndis@@ 11
ũngĩwa 11
Kwosa 11
ũthangaau 11
Kwĩmakĩa 11
twaa 11
ĩkĩka 11
eleeka 11
ĩngĩĩsa 11
tũkwat@@ 11
mĩito 11
mayĩkĩa 11
nĩne@@ 11
mwathie 11
maivatiswa 11
nĩkale 11
thekee@@ 11
kalae 11
Nue 11
makwatĩtwe 11
kũvũthya 11
kĩneeneete 11
twĩona 11
Kevin 11
tweemanyĩasya 11
ũekete 11
uĩa 11
nũmbendete 11
Walter 11
anwe 11
w’ĩwe 11
iũtetheesye 11
codex 11
ũkavetanga 11
natw’ĩka 11
matavĩtwe 11
ndala 11
mamwĩkaĩlaa 11
aithe 11
ethetye 11
makusaa 11
Kaisali 11
Korea 11
ũsumbĩke 11
kaitũ 11
omboa 11
kĩkũtha 11
tw’onthe 11
nĩtwĩkaa 11
naeka 11
Katatũ 11
wĩsĩkĩe 11
yonaa 11
kũtatĩka 11
veetawa 11
amũtavisye 11
Ohio 11
mavw’anene 11
nĩwavoyie 11
ungwa 11
asyo 11
andĩkĩaa 11
nĩtũmanyĩasya 11
nũĩkĩĩaa 11
Wamina 11
Twĩkaa 11
ĩĩwa 11
Kwona 11
ithũkĩiwe 11
ũmũa 11
maw’o 11
mawũĩ 11
Veonekana 11
amũ 11
nĩkwate 11
wonisye 11
anyaĩĩk@@ 11
evithĩte 11
matethe@@ 11
Riana 11
aendee 11
Samalia 11
matethetye 11
avĩndũ@@ 11
watwĩ@@ 11
eemanyĩsya 11
Kamb@@ 11
imũthũkũme 11
Ndũketĩkĩle 11
ekalae 11
atanie 11
Vaĩ 11
Sav@@ 11
syĩsĩ 11
aũngama 11
amw@@ 11
nĩwakomanie 11
Nĩtwoona 11
aini 11
mbĩa 11
nĩmonanasya 11
wamũs@@ 11
ũmanyĩw’a 11
Mbesaleli 11
nĩmesĩte 11
umanaa 11
Nepal 11
kĩtei 11
nĩkaa 11
’e 11
ũeleawa 11
wĩthukĩĩasya 11
kyaĩtye 11
Dublin 11
nĩmoosie 11
nĩmatw’ĩkie 11
mũmbi 11
masyaanĩw’e 11
kũmew’a 11
makwete 11
LI@@ 11
yũmũ 11
mot@@ 11
akũlya 11
nĩwati@@ 11
Avakuki 11
tũmbĩtwe 11
amanth@@ 11
Ũthasyo 11
nĩmethĩwa 11
ic@@ 11
wasũanĩaa 11
amona 11
ũlũlũmĩlye 11
Kũthũkũma 11
nĩwaneng@@ 11
ndũlea 11
kũandĩkĩa 11
iakiasya 11
1970 11
anĩthisye 11
nĩtũũneenea 11
kũmumya 11
elenĩ 11
yusũĩte 11
wamũtũmie 11
nenge 11
kũnyungunyĩsya 11
kũtũk@@ 11
yumanĩte 11
alũsi 11
Twaĩ 11
ũmya 11
tũyĩw’a 11
angĩĩie 11
ĩthiw’e 11
kusũsya 11
likye 11
F 11
yayayanĩ 11
oe@@ 11
ũvani 11
UKU 11
nĩwanengete 11
ũtanambĩĩa 11
mavali 11
AMWE 11
andĩkawa 11
mamine 11
kakwa 11
MAV@@ 11
makyasya 11
w’ĩĩwe 11
MAVINDA 11
vul@@ 11
makona 11
maũũ 11
ũtwony’a 11
wĩĩ@@ 11
wathamĩĩe 11
uve 11
ami 11
oyu 11
nyuvĩte 11
umbũla 11
kũũkwata 11
ilĩka 11
watwa@@ 11
etetwe 11
Book 11
akililye 11
aneenea 11
tũtana 11
nĩmakwatĩte 11
Iveti 11
wanenga 11
onyeka 11
TI@@ 11
tũkaatĩĩa 11
kyatumĩte 11
nieleetye 11
mayendete 11
ETHĨWA 11
masũvĩe 11
mol@@ 11
ilĩlaa 11
waaĩ@@ 11
ũmũkũlye 11
ũyĩkwate 11
itetheesya 11
niũtũtetheesya 11
wonasya 11
sukuma 11
Mawoni 11
meethĩa 11
kĩke 11
ithũkũma 11
ome 11
oc@@ 11
yũmbany’e 11
manyĩĩtw’e 11
ĩkatuma 11
eme 11
ithyomonĩ 11
ango 11
Mũtĩ 11
kũiv@@ 11
meũth@@ 11
enete 11
Yĩt@@ 11
makĩe 10
nenganae 10
meenda 10
nitumaa 10
Weethĩwa 10
eũvya 10
Johnny 10
akonany’a 10
Mũvea 10
tũkundi 10
ing’ĩĩsye 10
tũivika 10
atũt@@ 10
some@@ 10
nĩmavĩndũkie 10
ngitĩ 10
Twĩthĩawa 10
akaema 10
yonea 10
nũmany@@ 10
ĩkĩĩku 10
masemb@@ 10
tik@@ 10
w’ĩĩkaa 10
kwendaa 10
kũng@@ 10
tũlũmanĩtye 10
ki@@ 10
Ndũkethĩwe 10
ũtas@@ 10
nyivĩtye 10
minie 10
kete 10
mamweteelaa 10
yaakĩtwe 10
Zion’s 10
yawetie 10
tũũmanyĩsya 10
tũikeke 10
avind@@ 10
emanyĩsya 10
atisa 10
wamanyĩĩtw’e 10
mesĩle 10
mũinawa 10
ũyambĩĩa 10
w’ĩkĩthw’e 10
watongoesye 10
Tũkwataa 10
nĩtwak@@ 10
Ithyomo 10
Saa 10
maendeesye 10
kũmĩelewa 10
ũthembi 10
ũtanĩaa 10
1937 10
atanĩte 10
twal@@ 10
ĩkĩw’a 10
ĩndũka 10
atũmiwe 10
akaeka 10
kũaany’a 10
Toñi 10
Ngomola 10
Moalyũku 10
VET 10
ME 10
vanene 10
yavikie 10
nĩmamanyĩte 10
Vaiĩ 10
ũkonanĩtye 10
asome 10
kũthaũkĩa 10
Nekalile 10
makomanie 10
Wendi 10
kĩthingitho 10
kĩlĩ@@ 10
tũmanyĩsye 10
ũũt@@ 10
Masetonia 10
mamũkwatĩte 10
kũkatũtetheeasya 10
ndetheeasya 10
amanenge 10
kĩkĩte 10
saii 10
mũtiani 10
tũimũ@@ 10
America 10
mũneen@@ 10
wasyaĩwe 10
ukunĩ 10
mavanga 10
nĩtumĩte 10
mayaĩlĩte 10
anĩawa 10
w’ongo 10
maũtetheesye 10
Ũkesa 10
ndaaona 10
ĩwetetwe 10
mavuti 10
Amb@@ 10
umĩlĩĩile 10
H 10
kumĩlya 10
yĩth@@ 10
mbyũ 10
vethĩwa 10
waũ 10
nĩtwav@@ 10
ĩanĩ 10
wĩtĩkĩlya 10
elekanw’e 10
607 10
Ũkai 10
yaseũv@@ 10
atiiwe 10
masũvĩaa 10
1958 10
angiwe 10
Gr@@ 10
yaweta 10
utya 10
makw@@ 10
kũmo@@ 10
mũveveee 10
ũtw’ĩka 10
mũkuvĩ 10
eninĩ 10
aisũvĩa 10
aema 10
Kel@@ 10
atatwaanĩte 10
wanange 10
Asatukai 10
ĩkanaa 10
ongelange 10
mawonany’o 10
w’ĩkĩth@@ 10
Lav@@ 10
kũtetewa 10
alĩka 10
esũkũũe 10
nĩmasya@@ 10
Ni 10
ĩtya 10
ooaie 10
ito 10
akwete 10
maw@@ 10
ĩanĩe 10
wathie 10
Kũk@@ 10
nĩwosanĩte 10
nũkwĩtĩkĩla 10
kwĩw’anĩa 10
yũl@@ 10
nĩweka 10
voya 10
kasĩlanĩ 10
nĩmamanyaa 10
nĩweew’aa 10
Ndũkat@@ 10
ngol@@ 10
Mbesa 10
kambunĩnĩ 10
one@@ 10
nasũanĩaa 10
sis@@ 10
tayo 10
TA 10
WOO 10
Middle 10
oyie 10
Ũkũmbaũ 10
Asamalia 10
VO 10
Mũkeethĩwa 10
ũũmanyĩsya 10
tũmatetheesye 10
mayĩt@@ 10
ndyĩsa 10
ũiendeea 10
Kwalilikana 10
kũlũmya 10
EL@@ 10
vĩta 10
Ufalme 10
ant@@ 10
mũtũlu 10
kwĩn@@ 10
atongoew’e 10
nĩmatumĩte 10
aki 10
nũsũanĩaa 10
mayee@@ 10
Nĩmat@@ 10
wooniw’e 10
atai 10
ulũĩla 10
angaaw’a 10
Ũth@@ 10
ekalanasya 10
Ong@@ 10
tũimũthũkũma 10
ĩkũeleeka 10
meth@@ 10
kuie 10
ũlũmĩlw’a 10
woonekaa 10
alo 10
kĩtũtetheeasya 10
wasomaa 10
itũmĩaa 10
nĩtũngaa 10
enge 10
ũthĩtye 10
ũkathela 10
mayaaĩtĩkĩla 10
Andiokia 10
waeleisye 10
Asikalĩ 10
man 10
w’ĩĩ@@ 10
6,000 10
nĩmanengiwe 10
weeyĩ@@ 10
aeiwe 10
kĩmaamai 10
oe 10
kyathĩ 10
ndũtonya 10
Vondio 10
Ĩka 10
Wak@@ 10
kũvũĩwa 10
mũtavonĩ 10
kũsomaa 10
United 10
yĩelekany’a 10
ũtatwaanĩte 10
etĩkĩlye 10
ndũm@@ 10
indĩte 10
Portuguese 10
asili 10
makanisanĩ 10
thĩnzĩo 10
1941 10
umĩlya 10
ndeekaa 10
kwoswa 10
muutĩa 10
oto 10
makasetinĩ 10
ngũ 10
kũvĩvw’a 10
nengwa 10
alawa 10
kũvetwa 10
asavĩte 10
itetheeasya 10
Euotia 10
Ki@@ 10
nĩnoonie 10
mamũkwatie 10
wũmbo 10
avatisiwe 10
Mũvaka 10
usw’a 10
2,@@ 10
Ekaa 10
ĩndũkaa 10
kũmũsiĩĩa 10
mũky@@ 10
ũkasũvĩaa 10
ongelanga 10
tekinolongyia 10
mũndũnĩ 10
ĩthaaa 10
ũkasũanĩa 10
nĩwamendete 10
2005 10
ũman@@ 10
ũũkya 10
ndav@@ 10
mĩomo 10
kĩle 10
manyaĩĩkasya 10
Twaendie 10
asumbĩkĩte 10
meekĩie 10
waũni 10
maelewa 10
Nzev 10
ũngĩĩa 10
mendene 10
ndyaaĩsa 10
nakwatwa 10
amwĩkwat@@ 10
mavathũk@@ 10
nĩmalũmanĩtye 10
kũsomea 10
keana 10
asumbĩkĩtwe 10
simũnĩ 10
ĩthĩwai 10
asinĩ 10
mavangĩte 10
kũathimwa 10
kwon@@ 10
kũvu@@ 10
ũtendaa 10
Ĩvukunĩ 10
iseve 10
mũatĩĩi 10
kĩnengo 10
ngũkũ 10
kũnth@@ 10
kũnya@@ 10
tũĩkĩĩe 10
manth@@ 10
kĩkw@@ 10
kathamanĩ 10
avĩndũiwe 10
mbĩlĩl@@ 10
nzawa 10
ũthw’a 10
Twatanie 10
ũtony@@ 10
anak@@ 10
tũnenge 10
mbalavu 10
118 10
kumb@@ 10
ũkũnengete 10
nĩwaseũvisye 10
ũlũmĩ@@ 10
kolokolo 10
nĩwamũathimie 10
nĩweanĩie 10
akanenga 10
ngakũtethya 10
yĩkethĩwa 10
ĩimanĩ 10
ũeke 10
Nthakame 10
kũis@@ 10
Kũatĩĩa 10
eleki 10
ĩlile 10
neeneete 10
manenange 10
ĩkaai 10
ilya 10
ndetheesye 10
Mĩv@@ 10
Kũu 10
nemo 10
nĩka 10
matendete 10
kũseũv@@ 10
aendaa 10
sanzũ 10
KGB 10
maetae 10
ambata 10
tũkesa 10
thĩnaa 10
atataa 10
Nĩwĩthĩawa 10
mokit@@ 10
umbũlaa 10
moosa 10
tũkatanĩa 10
ndaĩlĩte 10
ambĩĩsya 10
atonyeka 10
namanya 10
Antoine 10
mekĩke 10
NE@@ 10
mayũa 10
taku 10
manangaa 10
0,000 10
Mbethi 10
indanasya 10
maneena 10
naa@@ 10
athimĩtwe 10
kũtaĩa 10
aimanya 10
anai 10
nĩmaumasya 10
ioo 10
ndaaũlwa 10
kyath@@ 10
Tatenai 10
Martin 10
takwa 10
ũalyũli 10
nĩmũthũkũme 10
ikĩte 10
Ndaa@@ 10
ndoonaa 10
tũiendeea 10
umũ@@ 10
kũleela 10
MIN@@ 10
maimũthũkũma 10
makaanangwa 10
nĩtwĩkĩaa 10
st@@ 10
elekanĩtw’e 10
yĩkat@@ 10
kĩlasinĩ 10
aminwa 10
Twenda 10
nĩũtuma 10
Taze 10
ũthyũlũlũkĩte 10
imb@@ 10
oisye 10
kalya 10
ĩanĩsya 10
mũnyao 10
ũtwa@@ 10
ndekalaa 10
w’ane 10
Kya@@ 10
aimwĩa 10
woneke 10
kĩandĩkĩtwe 10
Wasoma 10
ilikanile 10
ituĩ 10
twathok@@ 10
nũeleawa 10
aanĩsya 10
ton 10
oasya 10
vaku 10
naendaa 10
ũvĩana 10
elela 10
mooaiwe 10
KO 10
kwĩvetangana 10
Mĩsyĩ 10
kũtũtavya 10
Anna 10
kũtaĩwa 10
monete 10
maandĩkĩwe 10
Avikaili 10
ĩsi@@ 10
kĩilyĩ 10
ndwaa@@ 10
nyivĩsye 10
Ĩno 10
wĩĩthĩwa 10
wĩtũmanyĩsya 10
amath@@ 10
weemanyĩasya 10
etangwa 10
nokw’o 10
syendete 10
wĩkĩa 10
Kwĩlilikany’a 10
w17.@@ 10
nĩnĩtanĩaa 10
atei 10
nĩtũendeee 10
ũmũtavye 10
sal@@ 10
kyatũmĩawa 10
mũasa 10
kũyĩ@@ 10
akamũnenga 10
ethukĩ@@ 10
noa 10
lũlũ 10
ũkitĩa 10
nĩmavoyaa 10
makeetan’ya 10
kĩlo 10
wavangie 10
ndũkolwe 10
tate 10
yanang@@ 10
kũsom@@ 10
Lĩu 10
sumbĩkĩte 10
ikisye 10
Mũsumbĩki 10
matiie 10
Wasisya 10
mwĩthĩanu 10
ũmĩiwe 10
anath@@ 10
aume 10
ŨKA@@ 10
mbĩ 10
nĩtũĩkĩĩthĩtye 10
kĩituma 10
asyĩ@@ 10
oaana 10
mwĩkal@@ 10
ũtongoesya 10
nĩwamũt@@ 10
ĩvanĩsye 10
Encyclopedia 10
Atũ@@ 10
wĩanĩsya 10
Re@@ 10
Island 10
Greece 10
nĩka@@ 10
kĩkekĩka 10
manengiwe 10
Mairambubu 10
akaweta 10
mũnengane 10
athataa 10
Ngenda 10
atĩka 10
kũlaw’a 10
sũvĩaa 10
ĩseũv@@ 10
ũngĩĩtwe 10
Ambĩie 10
alyũli 10
umaal@@ 10
yaendeee 10
ayũka 10
kyũma 10
makak@@ 10
nĩyatetheeisye 10
anya 10
Polish 10
Ndwaĩ 10
ĩtetheeasya 10
theea 10
ĩĩkĩte 10
1952 10
MAT@@ 10
moombanĩe 10
weene 10
ima@@ 10
Kamwana 10
atĩanĩe 10
ilomo 10
kũlilikanaa 10
nĩmeekĩie 10
mana@@ 10
meũmanyĩsya 10
theesya 10
ndukanĩ 10
Nzetekia 10
ovoisye 10
kiakiasya 10
Mũtonya 10
Wenyu 10
2007 10
wũmb@@ 10
ĩĩtw’e 10
kũtũkiakisya 10
2003 10
lik@@ 10
oleka 10
ũtenekee 10
emie 10
WĨ 10
wĩũka 10
tũtethasya 10
maalyũle 10
Kavindanĩ 10
maumanaa 10
kwaĩkwa 10
akavetanga 10
nthwii 10
Kwaĩ 10
NY@@ 10
namũ@@ 10
Ama@@ 10
Nĩtwĩ@@ 10
ndakamũ@@ 10
tũnengete 10
kũvul@@ 10
akoka 10
Any@@ 10
endany’e 10
atiwe 10
ES@@ 10
kũkuwa 10
ũkaendeea 10
ũmbendete 10
02 10
etheew’e 10
Western 10
masavu 10
mavonokie 10
mũvĩtĩsya 10
yasyo 10
ũthayũũk@@ 10
nĩtwĩmanyĩasya 10
ĩvĩte 10
Ũnĩ 10
Nĩtwa@@ 10
kũitoetye 10
akan@@ 10
mamanyĩw’e 10
athangaaisye 10
nĩwam@@ 10
alyũlwa 10
nĩwũmĩĩasya 10
Nasyaĩwe 10
nĩmatũtetheeasya 10
kĩoo 10
nĩwaaĩle 10
wĩtya 10
Maũndũnĩ 10
ĩthi 10
eile 10
kambi 10
oniw’e 10
1956 10
ĩy@@ 10
ing’ĩĩasya 10
kate 10
nĩnak@@ 10
mamanthaa 10
indĩĩasya 9
Tyo 9
nĩwathayũũkisye 9
ũlilikanasya 9
itaĩle 9
ĩtũĩkĩĩthĩtye 9
1948 9
waaisye 9
angile 9
amai 9
atandĩthya 9
nĩtwakwatie 9
ũithela 9
ailea 9
ond@@ 9
’a 9
Euvalati 9
ũmũth@@ 9
ũnaĩ 9
atetheeiw’e 9
vethĩĩtwe 9
yaaĩsa 9
ikath@@ 9
seũvya 9
andĩkĩ@@ 9
makee@@ 9
thĩĩte 9
Ũthwii 9
endeangĩe 9
D 9
International 9
NO 9
akola 9
itaĩ 9
usi 9
ndee@@ 9
Tũya@@ 9
nũnd@@ 9
matei 9
ũtũkiakiasya 9
kũmũk@@ 9
mekae 9
ombie 9
ngelek@@ 9
mekĩa 9
kwesaa 9
wasyokie 9
nũkw@@ 9
Votivali 9
alikĩlĩĩla 9
tũtavya 9
aĩkĩĩa 9
mũtavan’ya 9
mau 9
135 9
wũkĩte 9
Nayu 9
ndaathayũũkw’a 9
meeyumĩtye 9
esawa 9
itũmĩa 9
asyaĩwe 9
yoonanisye 9
Ndũkaa@@ 9
Isi@@ 9
wawetwa 9
Nĩwaĩle 9
kũmenda 9
ŨV@@ 9
ndeew’aa 9
tweetĩkĩla 9
elikya 9
ũmawa 9
ũkye 9
Nĩtwaĩlĩte 9
yaaĩlĩte 9
akeethĩawa 9
atwie 9
mũnyuve 9
YAĨTYE 9
mũsũvĩi 9
kũtea 9
mũthanganĩ 9
Nũkũ@@ 9
syambĩĩe 9
esilasya 9
Akiliva 9
ĩlasya 9
amanĩ 9
kyak@@ 9
nakwatie 9
Mĩaonĩ 9
maĩkĩĩthye 9
MYA@@ 9
Esita 9
ethaw’a 9
angĩĩaa 9
etewa 9
kũiitwa 9
aithae 9
KŨM@@ 9
nĩwatũtiĩe 9
ũne@@ 9
kyoka 9
vaaya 9
isululu 9
aan@@ 9
eena 9
emakĩe 9
M 9
ndaleaa 9
Tũitonya 9
ũli@@ 9
amũsũngĩa 9
ngwat@@ 9
woombiwe 9
ithama 9
kwĩtũ@@ 9
matonaa 9
Aeleetye 9
Kĩsio 9
thokisye 9
kũseũvw’a 9
Ĩvia 9
uthisye 9
nĩenda 9
2.@@ 9
ithu 9
94 9
Haykanush 9
oyete 9
TIM 9
Nesie 9
nĩĩw’a 9
asũngĩe 9
mũnyanya 9
avany’e 9
nĩwaendaa 9
mamũthaithe 9
ũnyw’a 9
Paris 9
tũkavoya 9
ich@@ 9
ant 9
kũwetwa 9
asungi 9
ndaam@@ 9
ANY’A 9
ĩtongoew’e 9
2010 9
ingũĩa 9
mamanyĩe 9
kũmĩs@@ 9
wambie 9
yonany’e 9
99 9
ikonĩ 9
mali@@ 9
kwĩyĩima 9
akomana 9
olile 9
nĩmatav@@ 9
kũum@@ 9
Kĩmũtũ 9
ũĩte 9
wĩthukĩĩsya 9
Kyrgyz 9
atũm@@ 9
nĩwatanie 9
wonie 9
woomb@@ 9
Kwekũlye 9
kũmena 9
vaitonyeka 9
Nĩwendaa 9
aitavya 9
syatumie 9
Blessing 9
ĩthw’a 9
syaisye 9
nĩkala 9
ndũl@@ 9
Jinsi 9
nĩwatavasya 9
ĩviku 9
namwĩ@@ 9
akũna 9
memanyĩasya 9
ndũkaa@@ 9
mũta@@ 9
lĩs@@ 9
nĩmathok@@ 9
kwaumĩla 9
nĩmakomanie 9
thĩn’ya 9
matambĩte 9
kũaana 9
kwelel@@ 9
ũnengie 9
kũya@@ 9
Mĩtĩ 9
Ambayo 9
Tulakiti 9
tũmanyĩasya 9
atat@@ 9
vakethĩwa 9
tũneen@@ 9
woov@@ 9
weeyumya 9
asilaa 9
matalaa 9
mambe 9
wamak@@ 9
aangĩ 9
itĩ 9
mũtũngĩaa 9
Navu 9
meelila 9
lilaa 9
maimũ@@ 9
alũkile 9
mang’ang’@@ 9
aseng’@@ 9
tũikal@@ 9
yon@@ 9
Ũtonyi 9
nĩnav@@ 9
tũkw’a 9
ithonĩ 9
akaumya 9
Ũmanyĩsyo 9
wosaa 9
tũma@@ 9
maetawe 9
wendeaa 9
kwĩanĩwa 9
Nũm@@ 9
aimina 9
Ũneeni 9
aleaa 9
manyĩw’a 9
ndianĩ 9
Federico 9
akwat@@ 9
metĩkĩw’e 9
kũkonanĩtye 9
mũvĩtĩsye 9
mavũĩ 9
kye@@ 9
mey@@ 9
ingy@@ 9
ende@@ 9
tũtena 9
kwanangĩa 9
tũku@@ 9
tũkak@@ 9
etha 9
manambĩĩa 9
kũmwa@@ 9
ũngye 9
Syonthe 9
iĩa 9
Elias 9
ũw’onĩ 9
Twavika 9
yĩi@@ 9
yeũ 9
Ita 9
asemb@@ 9
tũũmatavya 9
Kũneenea 9
nũtũsũvĩaa 9
twavĩtya 9
kwĩyĩĩvanĩsya 9
aseng’ie 9
metũĩkĩĩthya 9
ndaakw’a 9
Kĩalamu 9
Aka@@ 9
ũkw’e 9
meũmantha 9
omee 9
ooisye 9
ũkithathi 9
wooaiwe 9
eenea 9
uut@@ 9
nĩtwaendaa 9
ũmĩsye 9
nĩmathĩnaw’a 9
mĩthelu 9
ũol@@ 9
mũkate 9
isha 9
ent@@ 9
ndaasya 9
nalilikana 9
tũkwĩkĩa 9
ĩvĩtĩte 9
imoni 9
masind@@ 9
malilikanae 9
wavindĩĩsya 9
ngi 9
ũanĩĩa 9
anei 9
ũthĩnĩkĩaa 9
kũsya@@ 9
Ĩtukũ 9
ethwa 9
Make 9
800 9
kũmaekea 9
ũsyaĩĩsye 9
katonya 9
Ũtethyo 9
namina 9
kĩtoonĩ 9
nĩtetheeasya 9
keetawa 9
kaĩle 9
Ulia 9
walilikana 9
kũmanthĩthya 9
wasũanĩie 9
ũkananga 9
ĩtunda 9
omĩĩasya 9
ũkĩth@@ 9
ũũkana 9
re 9
mavĩtu 9
mendanĩte 9
kamota 9
thwa 9
mũthĩni 9
wananga 9
atiele 9
mĩkĩĩle 9
atave 9
nĩmaalyũkile 9
meũtũmĩa 9
kyeethĩiwe 9
wetawa 9
tũlee 9
nasomie 9
Nasaleti 9
Sin@@ 9
waanie 9
ũtavanasya 9
Mũika@@ 9
anĩlw’e 9
wĩto 9
makomanĩte 9
matata 9
woonany’a 9
amwĩthukĩĩsya 9
amekĩie 9
kũtelemya 9
wathok@@ 9
Tweekĩa 9
ũlũmĩĩlye 9
makwatwe 9
ĩũtetheesye 9
kũkengwa 9
br@@ 9
ũnz@@ 9
kũti 9
aithawa 9
ĩndĩnĩ 9
Tal@@ 9
anengawe 9
neethĩwa 9
maitanĩa 9
ekĩĩte 9
kũĩvanĩsya 9
ithingitho 9
maikethĩwa 9
masomeete 9
meanĩasya 9
kũtwĩa 9
Mũsikalĩ 9
anĩlye 9
waĩlu 9
Manene 9
watw’a 9
wamanengete 9
ateũkĩa 9
makue 9
ilikanilye 9
kũmũtanĩthya 9
ĩkĩwe 9
ũsyoka 9
matosanĩte 9
kũsembea 9
nĩtwonanasya 9
elo@@ 9
maminĩte 9
kĩtuu 9
asũanĩĩte 9
akak@@ 9
ũkakw’a 9
watũmbie 9
ũvĩwe 9
aiya 9
nĩweemanyĩisye 9
watwendie 9
eisye 9
mateũ@@ 9
amũnenge 9
kũlasimĩthya 9
ũmau 9
nĩmoonanisye 9
yĩvĩtĩte 9
ũkit@@ 9
itongoew’e 9
vaandĩkĩtwe 9
kũik@@ 9
yũ@@ 9
ũwa 9
Syĩtwa 9
ũkanengwa 9
ooaa 9
nĩkyonanĩtye 9
Mashahidi 9
kwe@@ 9
inge 9
nĩtwoona 9
atiw’e 9
nũkũthĩnĩkĩaa 9
Nĩmw@@ 9
kũlikĩlĩĩla 9
ũtethisye 9
neenete 9
kaĩlile 9
mũĩkĩĩthisye 9
kũnyaĩĩka 9
yeesĩ 9
mathela 9
ololo 9
kũvota 9
thiana 9
mawĩ@@ 9
ũkeethĩawa 9
waandĩkiwe 9
50,000 9
mosete 9
ANG@@ 9
anĩiw’e 9
nĩmandetheeisye 9
kũuna 9
maalyũlaa 9
tak@@ 9
aseango 9
yĩvĩte 9
amie 9
elekanĩtye 9
ũsũngĩaa 9
etĩkĩlaa 9
Amy 9
kũinga 9
ũthele 9
syĩsĩkĩe 9
Awetie 9
nĩlilikanaa 9
kwaĩwa 9
ũũl@@ 9
Atanamba 9
asyae 9
kũmũatĩĩa 9
ũtaweteka 9
amasũngĩie 9
tũswii 9
mekei 9
nĩmaĩ 9
twamũ@@ 9
wok@@ 9
mawĩvĩto 9
nĩwamũthayũũkisye 9
nũmanyaa 9
maikw’a 9
maleaa 9
ainĩ 9
tw’a 9
Ooliavu 9
nguvĩ 9
mwĩthĩwa 9
N 9
Hungary 9
kũtwony’a 9
aĩanĩa 9
ũlilikany’a 9
nĩmatũngaa 9
itũmanyĩasya 9
nthimo 9
okie 9
ũngũũ 9
kũvangĩĩa 9
mũe@@ 9
wĩtĩkĩle 9
kũmwĩsũva 9
ũvĩng@@ 9
8,000 9
thĩana 9
kĩmbithĩnĩ 9
1999 9
Nathanaeli 9
meũneena 9
wũkaa 9
0@@ 9
nĩwetie 9
Mũmanyĩsya 9
nĩwambĩĩa 9
kweekĩkie 9
w’ĩĩaa 9
matanie 9
ũneenete 9
Vethesita 9
ũlike 9
kĩtheka 9
kũelew’a 9
kũmũthayũũkya 9
ĩkesa 9
kũy@@ 9
mũny@@ 9
kalatali 9
Matheu 9
malũme 9
nĩmanya@@ 9
nũnũ@@ 9
maumye 9
anwa 9
kanisye 9
amwendete 9
weethĩaa 9
ĩkithathi 9
tũngĩa 9
itul@@ 9
ũũkaa 9
ĩvi@@ 9
Kũs@@ 9
nũvangĩte 9
ac@@ 9
kũkwatanw’a 9
ingĩva 9
Maendeeo 9
thok@@ 9
mevathane 9
nĩwaemiwe 9
yololo 9
mwai 9
tũkaendeea 9
ndasũanĩaa 9
atavangĩte 9
ĩkatwĩa 9
manenevete 9
enekee 9
makatangĩĩwa 9
ũvĩi 9
tu 9
nyivya 9
andethisye 9
meũv@@ 9
106 9
ũmĩkaa 9
Library 9
ilikany’e 9
ũil@@ 9
Il@@ 9
waonĩ 9
naĩlĩte 9
kũtavwa 9
mamwendeesye 9
navatiswa 9
enyiv@@ 9
ũnenevete 9
sumu 9
Syũmbe 9
ud@@ 9
Irina 9
Rudolf 9
mũit@@ 9
ane@@ 9
aelewa 9
hu@@ 9
Kavuku 9
maitetheesya 9
thĩĩa 9
Nĩma@@ 9
yakyo 9
ũkal@@ 9
yathanĩte 9
ndeleva 9
Luigi 9
ivangĩtwe 9
kwathanĩtwe 9
TE@@ 9
matũmĩa 9
mesĩlĩte 9
mamy@@ 9
Syumwa 9
onokie 9
mĩaa 9
tweeyumya 9
ĩvianĩ 9
nzũi 9
asũvĩ@@ 9
yũmban@@ 9
nĩmasũanĩaa 9
emete 9
twathũkũmaa 9
ũmendete 9
weanĩie 9
nĩmany@@ 9
nũmũnengete 9
Ũtatũ 9
ĩkonanĩtye 9
ũĩkĩĩthyo 9
ngeethĩwa 9
ũanĩ@@ 9
Kũĩkĩĩa 9
tũtav@@ 9
mamav@@ 9
yatũmĩiwe 9
yũnĩ 9
ũvoonĩ 9
Ai@@ 9
kyam@@ 9
angĩĩ@@ 9
Vo@@ 9
ũtavye 9
kamela 9
atalaa 9
mayonany’a 9
Manyĩsya 9
Joseph 9
ũmin@@ 9
aatĩ@@ 9
kũmũthokya 9
maweta 9
thembonĩ 9
kĩyaĩle 9
maatĩ@@ 9
som@@ 9
endene 9
twatwaana 9
ĩsiwanĩ 9
ongele@@ 9
kwovosya 9
tũtume 9
makwatye 9
aatĩĩaa 9
nĩtũkwete 9
nĩwoonete 9
aĩie 9
nĩtũatĩĩaa 9
1960 9
ũkw’ĩĩwe 9
atĩtwe 9
ũtwĩĩte 9
akamina 9
mayĩsaa 9
Mbalasi 9
tũmĩanĩsye 9
eĩ 9
Mũkiliki 9
nĩwathokiw’e 9
ĨŨLŨ 9
mũvothi 9
Wendy 9
maitata 9
anyw’a 9
NGĨ 9
Esaa 9
nũthĩnĩkĩaa 9
watata 9
wanĩ 9
eewe 9
Nĩw@@ 9
matamũthaithaa 9
nĩweew’ĩaa 9
yu@@ 9
Mosũanĩo 9
Nendaa 9
Communist 9
ũngĩ@@ 9
ĩtaa 9
kaũkenge 9
kũmwĩkĩa 9
wanz@@ 9
wete 9
Valũanĩ 9
ngel@@ 9
THE@@ 9
yakĩtwe 9
angonĩ 9
nĩwamak@@ 9
Siv@@ 9
tũmwendeesye 9
Shane 9
kũtũmwa 9
mathaithe 9
ĩvye 9
eny@@ 9
mamanyĩĩte 9
aneeneie 9
Melita 9
tũyĩmanyĩsya 9
twaendaa 9
kũkatũtetheesya 9
kwĩta 9
ũkatũtetheeasya 9
moonanasya 9
twĩyumye 9
Ĩkĩĩa 9
Mee@@ 9
angĩ@@ 9
meũtuma 9
menetwe 9
mom@@ 8
nĩĩkĩĩaa 8
ũtwĩanĩe 8
Mĩvango 8
mayambĩĩa 8
mekũlasya 8
aninĩ 8
MWANA 8
nyinyia 8
Motwi 8
nasũanĩa 8
manatw’ĩka 8
wĩthĩ@@ 8
nũsyokete 8
okitaa 8
ĩkaanangwa 8
mbũsĩ 8
It@@ 8
itulunĩ 8
nĩa 8
kũkananĩa 8
maandĩkonĩ 8
weekĩka 8
akee@@ 8
tũneng@@ 8
matũv@@ 8
Kĩĩma 8
Ethiovia 8
mũmb@@ 8
ANY’@@ 8
makililye 8
maseũvĩtw’e 8
kĩlile 8
Nzamanĩ 8
ethiw’e 8
Nĩtũkwataa 8
atwaĩte 8
Methusela 8
waetie 8
ndiũ 8
onok@@ 8
mataaĩsa 8
kũũkũlya 8
ndũkethĩwa 8
akĩth@@ 8
ph@@ 8
ow@@ 8
syam@@ 8
neethĩa 8
ithany’a 8
yesa 8
kũsiw’a 8
kwatanĩtye 8
syĩtũmanyĩsya 8
nũtũtavĩtye 8
imwa 8
mambĩie 8
kwĩsaa 8
waneen@@ 8
kwosea 8
theu 8
kũmanthaa 8
Louis 8
Perrine 8
mũvyũ 8
elik@@ 8
79 8
mayĩkĩka 8
59 8
nĩngũmwĩa 8
amendete 8
Kwakya 8
kũmwĩta 8
nĩwaetie 8
ongelek@@ 8
meona 8
Ndaĩ 8
aemwa 8
nĩkũlũlũmĩlasya 8
Kũtethya 8
ĩkomanonĩ 8
ũlũmĩlasya 8
UM@@ 8
ATH@@ 8
mamwĩw’aa 8
Wĩv@@ 8
ũkũluma 8
kasũmba 8
Bronx 8
MANYĨ@@ 8
umĩlilye 8
meekĩte 8
nĩkyaĩle 8
kanĩ 8
makĩĩa 8
twalilikana 8
Matonya 8
Kwĩthĩawa 8
Amaitha 8
Ũtanamba 8
umĩtye 8
Katika 8
Una@@ 8
mĩk@@ 8
syatw’ĩka 8
thei 8
onze 8
elemu 8
76 8
makũnaa 8
ineen@@ 8
tũieka 8
wandũmie 8
nũekeaa 8
ũmũthengeee 8
nĩwathok@@ 8
athat@@ 8
onde 8
mũtalasini 8
sianĩsya 8
1953 8
aendanasya 8
Latin 8
ĩkav@@ 8
kw’ĩte 8
akwatwe 8
mũalyũli 8
waalyũlĩte 8
NTH 8
ũtũmĩwe 8
mambaa 8
kweethĩawa 8
Mũandĩkĩthya 8
wam@@ 8
Be@@ 8
kyesie 8
mũnĩ 8
á@@ 8
matalawa 8
kũatĩ@@ 8
ũthamĩĩe 8
wĩkwatĩtye 8
Milan 8
1955 8
am 8
Methonĩ 8
nĩwoomb@@ 8
nĩtũmwĩ@@ 8
anĩĩsya 8
kũteth@@ 8
tũemwa 8
Si@@ 8
anangĩke 8
nĩnonaa 8
ũtethe@@ 8
kumaala 8
ce 8
ũteka 8
Kĩkundinĩ 8
ũkũnengwa 8
ũkoona 8
kũthanga@@ 8
waneeneie 8
Simoni 8
wakw’ĩĩwe 8
kũngũlya 8
aĩke 8
kyendekaa 8
tũtanĩaa 8
mũnou 8
athũkũme 8
matangaso 8
Nik@@ 8
aandĩkĩe 8
anangĩkie 8
ũthaw’a 8
Sitivini 8
ũtaĩo 8
twĩkwata 8
ed@@ 8
1990 8
Russian 8
amanyĩĩtw’e 8
kũimanyĩsya 8
ilia 8
kũmeanĩsya 8
indwe 8
Mesovotamia 8
nĩwasya@@ 8
meũtetheesya 8
nũman@@ 8
nĩkyee@@ 8
nĩmaatĩĩie 8
esĩla 8
mathoko@@ 8
kwongelwa 8
w’ĩkei 8
ũitata 8
kũkal@@ 8
kũmũsyokea 8
aũmĩa 8
tũikemakĩe 8
vatonya 8
wathayũũkiw’e 8
uku@@ 8
ngo@@ 8
amĩĩaa 8
Ũkya 8
Kyalo 8
tũteũmanya 8
nĩweethĩawa 8
kũveva 8
Tetragrammaton 8
yĩi 8
1,500 8
evu@@ 8
ĩasye 8
ũkenda 8
umĩlĩla 8
ũtal@@ 8
ĩkilyĩ 8
baseball 8
akaũtetheesya 8
nĩnĩmanyĩĩtye 8
kĩl 8
kĩkeanĩa 8
University 8
WEND@@ 8
a·gaʹpe 8
kwĩva 8
ĩvuti 8
nĩwaneenaa 8
WĨTHĨAWA 8
ũkwathĩte 8
mbaale 8
mũkau 8
ũmbe 8
Majibu 8
Yafanyayo 8
85 8
mwĩa 8
ũtũv@@ 8
lit@@ 8
ũkatana 8
ũkasya 8
Wĩthĩwa 8
Cor@@ 8
matan@@ 8
Wat@@ 8
2018 8
tũkw’ĩte 8
mũongo 8
wumĩte 8
ikĩa 8
matiĩte 8
mũlũmangu 8
mĩĩkĩĩo 8
Ndyĩ@@ 8
utwa 8
kũlũng@@ 8
atiso 8
waumya 8
ũkũmanyĩsya 8
soo 8
wendeesye 8
tũkatataa 8
matetheke 8
ĩvĩa 8
iyaa@@ 8
nayu 8
mũthaũki 8
nzi@@ 8
Vat@@ 8
endane 8
watethisye 8
ĩngĩĩswa 8
yĩtaĩwa 8
Avineli 8
nũlũmanĩtye 8
nĩweenyivisye 8
mbaĩlu 8
syĩtĩkĩl@@ 8
maimany@@ 8
ũsũvĩonĩ 8
kũmũetee 8
Mũsyai 8
aiandĩka 8
nĩmatwendete 8
tũtanĩa 8
tweewa 8
nĩtwĩke 8
walea 8
neti 8
kĩika@@ 8
avĩtiwe 8
tũmanthe 8
akakwatwa 8
ũkatetheesya 8
maũngye 8
masisye 8
Nĩmeesĩ 8
at 8
kyumĩte 8
vayo 8
ũanĩie 8
Ũndũnĩ 8
mũnyuvie 8
anakavye 8
ilo 8
aimanyĩsya 8
ra 8
ilwa 8
mekwona 8
ni 8
endeaa 8
makaĩĩte 8
nĩkwonany’a 8
tiie 8
nĩmathe@@ 8
kĩsye 8
masom@@ 8
avoa 8
Lana 8
loele 8
syal@@ 8
kĩũtuma 8
thoketye 8
ĩtaĩ 8
nĩmendeeiw’e 8
asisye 8
yũmbanĩsya 8
Eunice 8
ũva 8
nĩmaumisye 8
mane@@ 8
kũtũĩkĩĩthya 8
Cesar 8
Kum@@ 8
ondinĩ 8
andĩkĩthya 8
aĩte 8
Mu@@ 8
nĩmemanyĩasya 8
ũyaĩ 8
nĩtweesĩ 8
usisye 8
Nĩwonaa 8
nĩmatwa@@ 8
Sinitike 8
maiea 8
Fai@@ 8
ũvoya 8
atavikĩtye 8
nanengiwe 8
kyaandĩkĩtwe 8
MWĨĨTU 8
ũkwendeew’a 8
ũaani 8
ĩĩw’e 8
naaĩle 8
Atavisye 8
ũtala 8
mũendo 8
kũmũkiakisya 8
Ik@@ 8
maaw’a 8
atũngĩĩe 8
mie 8
nĩtwaendeeie 8
iyĩthĩawa 8
umaalile 8
nĩnanengiwe 8
nĩtũtw’ĩte 8
ooawa 8
Wil@@ 8
w’ĩkĩa 8
Nineva 8
vana 8
tũvoye 8
1982 8
kũndethya 8
ũendeea 8
kyavikĩa 8
mbete 8
metũ@@ 8
ũlũmĩlaa 8
engete 8
tũtataĩĩe 8
oyea 8
twaekea 8
aly@@ 8
aililikana 8
syoomb@@ 8
ũtwĩkĩaa 8
nĩva@@ 8
yamina 8
mevithanĩtye 8
matevithanĩtye 8
aĩlikya 8
kũkolany’a 8
umbĩ 8
nĩwatũmiwe 8
evu 8
mbĩĩisye 8
ũlũngal@@ 8
tũimantha 8
ngũngũ 8
kũkumya 8
maĩkĩĩa 8
olok@@ 8
ũkonany’a 8
kĩlw’e 8
ũvĩĩawa 8
ĩatĩĩe 8
98 8
syendaa 8
tũkew’a 8
ũtetheke 8
kũtw’ĩĩka 8
ũvya 8
kũyĩsa 8
127 8
matie 8
meekwatasya 8
kũthemba 8
Cy@@ 8
Royal 8
akũe 8
Neena 8
kwĩkya 8
mbisũ 8
eee 8
nũũ@@ 8
eveeie 8
wai@@ 8
kweũ 8
tũkekaa 8
kũnĩtwe 8
Wakwa 8
mokitaa 8
kyalya 8
eny’a 8
nĩtũmũ@@ 8
wony’e 8
iika@@ 8
kũmomĩĩsya 8
Mamb@@ 8
twamw@@ 8
Aa 8
1944 8
ooaiwe 8
ithya 8
nĩtwe@@ 8
nĩwakw’ĩĩwe 8
ũsumb@@ 8
nĩwanengetwe 8
kũtiĩwa 8
wangangany’a 8
aisyoka 8
nĩyĩs@@ 8
kũtal@@ 8
twĩĩw’a 8
ũmalwaya 8
tũũtetheesya 8
Ũtumaa 8
ũthokisye 8
kũmbanw’a 8
Salai 8
ungũo 8
ũtethekaa 8
athayũũk@@ 8
weevĩtie 8
yelĩ 8
ngatho 8
nĩtũkwĩmanyĩsya 8
1993 8
menz@@ 8
masindano 8
kũmesya 8
Aandĩki 8
SUMBĨ 8
kalika 8
tũkalika 8
aũngye 8
angang@@ 8
ũseng’@@ 8
aĩkĩĩthisye 8
waaĩw’a 8
NGA@@ 8
nĩmatonyeka 8
Pacific 8
welekele 8
w’anĩthya 8
Kaĩ 8
yausũĩte 8
onea 8
kũsũvĩaa 8
nĩkũũtũtetheesya 8
twĩthi@@ 8
makatetheesye 8
ũtiĩe 8
sumbĩkie 8
akomete 8
indany’a 8
tũkw’e 8
kĩkavũ 8
eyumĩtye 8
ndwĩkaa 8
nĩmavatisawa 8
kũmon@@ 8
ũvike 8
mek@@ 8
Mekaa 8
ũmĩisye 8
ĩthũku 8
mwak@@ 8
wĩkie 8
ĩtumĩte 8
tũkwatwa 8
andũa 8
alũa 8
Mend@@ 8
nĩkweethĩiwe 8
Nĩnesie 8
ũsũngĩwa 8
mĩyimbyo 8
ĩae 8
mbingĩlo 8
angw’a 8
J 8
nĩnavangie 8
nĩyav@@ 8
Kũnengane 8
eeyumya 8
matik@@ 8
0,000,000 8
amantha 8
’@@ 8
kũlilikan@@ 8
ĩvaa 8
ew’ĩte 8
nĩtwĩw’ĩte 8
mathoketw’e 8
nĩwamatavisye 8
meũthĩna 8
nĩmakomanaa 8
Chris 8
enye 8
ro@@ 8
ineeneete 8
Manoa 8
yaum@@ 8
masome 8
tavany’ai 8
Egypt 8
nĩnasyokie 8
manengane 8
kũtũlwa 8
ũmye 8
syoona 8
meũmũ@@ 8
amanyĩiw’e 8
atavany’e 8
masinde 8
ĩmaĩlĩte 8
Mayaĩ 8
matwie 8
mbĩĩw’e 8
nĩwathĩnĩkĩaa 8
kũtũkany’a 8
Enda 8
amas@@ 8
maandĩkaa 8
ũkũn@@ 8
nĩmavatisiwe 8
nĩmamendete 8
kũtũtetheeasya 8
mamũsyokee 8
moombanĩte 8
87 8
tũelewa 8
Sch@@ 8
inenga 8
Mos@@ 8
kĩthetheesyo 8
maineena 8
kĩkotonĩ 8
naendeee 8
kũĩvwa 8
kĩtambaa 8
kũmin@@ 8
ĩny@@ 8
kwĩtĩkĩlwa 8
ũlũlũmĩlasya 8
elemya 8
ũelekanĩtw’e 8
onyekie 8
ũtũtethasya 8
nal@@ 8
umbĩke 8
twalea 8
Tũyĩsĩ 8
nĩwanyuvie 8
ĩkĩĩie 8
akamb@@ 8
Tũika@@ 8
atũtiĩe 8
matho 8
Itindo 8
ũteũ@@ 8
mũsinda 8
Athani 8
196@@ 8
omo 8
elio 8
nĩmatatĩte 8
woonete 8
2016 8
kũlek@@ 8
Nĩngũlilikana 8
imanga 8
kĩũtũ@@ 8
wamwonie 8
tũũm@@ 8
mokite 8
Masũanĩaa 8
ĩyonany’a 8
atatonya 8
Tulun 8
ndaaweta 8
Val@@ 8
yatetheeisye 8
avĩte 8
aika@@ 8
twĩkae 8
nĩo 8
kwatany’a 8
ũkũmĩthw’a 8
watiie 8
uko 8
Manase 8
taw’o 8
KAL@@ 8
1989 8
Isumaeli 8
kyaaĩle 8
osane 8
aumĩtye 8
maeemanĩ 8
ũyĩt@@ 8
Atĩ 8
Takuya 8
kũmũkũna 8
waumĩlile 8
yumye 8
akakw’a 8
Nikolai 8
ũsiĩĩa 8
nĩmaeleawa 8
nthalĩku 8
athimwe 8
nĩyĩneeneete 8
ans@@ 8
nĩmes@@ 8
meekĩaa 8
waandĩkaa 8
malelũnĩ 8
ndeenĩ 8
mosa 8
makaatĩĩa 8
itiani 8
etawe 8
matwĩke 8
enũkie 8
r 8
ballet 8
600 8
th 8
kwĩyũaa 8
mũvi@@ 8
kũelekany’a 8
Ũwau 8
kĩtandanĩ 8
meie 8
matavisye 8
syĩkale 8
sendimita 8
Dor@@ 8
kũthokw’a 8
nĩmwĩsĩ 8
Akũlilye 8
atangĩĩe 8
niwetete 8
Nĩtwat@@ 8
Wesa 8
yĩyaĩ 8
ation 8
THE 8
ũtũngĩa 8
meĩtwe 8
umwa 8
tweewie 8
NDETO 8
kĩkav@@ 8
Ongeleele 8
ithũkĩie 8
tũnengwe 8
ngome 8
matanĩa 8
nĩweeka 8
tũsamũ 8
Yese 8
kwĩsũvana 8
ũlũmĩte 8
wavoya 8
kĩvindunĩ 8
suka 8
enyanĩ 8
makathela 8
tũũtũmĩa 8
masyoke 8
imanyĩo 8
atĩĩwa 8
kĩendee 8
IA 8
kĩthembeonĩ 8
atũth@@ 8
mekĩkaa 8
ĩthyo 8
twĩlika 8
savalĩnĩ 8
manengie 8
mũtũmĩ@@ 8
tũsũanĩa 8
makamb@@ 8
nĩmeyumĩtye 8
TU@@ 8
IKA 8
Florida 8
meaa 8
aneenewa 8
ikile 8
1901 8
unga 8
MO@@ 8
1984 8
kĩna@@ 8
enyu 8
se@@ 8
nĩwasyaisye 8
seũvisye 8
wĩkũlasya 8
sye 8
twoosa 8
mathaũnĩ 8
metaa 8
Tyndale 8
Golden 8
Age 8
twakw’a 8
yoomb@@ 8
matethekete 8
syo@@ 8
atavanisye 8
Ngeasi 8
nĩmatavanw’e 8
ithyoka 8
akiita 8
Nĩwoonanisye 8
atwaiwe 8
akatũathima 8
kũmũĩkĩĩthya 8
wamũekeie 8
ũlilikane 8
Mavika 8
ivai 8
kũkitĩa 8
Ndathani 8
Avilamu 8
twĩĩ@@ 8
onokye 8
ĩtĩsya 8
thangaasya 8
ũkatw’ĩka 8
ũneena 8
nĩmekal@@ 8
kũmatũmĩa 8
Jason 8
nĩnaendeeie 8
seũvĩsya 8
elemaa 8
aval@@ 8
kwaw’a 8
ng’@@ 8
Jenny 8
TENE 8
1939 8
onan’yo 8
kũtũũmĩsya 8
avw’a 8
kũvw’ĩka 8
mavu 8
yetu 8
ũkũĩkĩĩthya 8
kĩvendela 8
thĩl@@ 8
yũlũlũka 8
twanengiwe 8
ekalany’a 8
anzo 8
nĩweanĩisye 8
ett 8
syaĩlĩte 8
akwatye 8
tũvoyaa 8
amya 8
Sua 8
Ũandĩko 8
kũendeesya 8
kwee@@ 8
ileaa 8
ĩkĩtwe 8
isovu 8
Mũthũkũmi 8
kũtengwa 8
mũaanĩko 8
ambĩte 8
kũũngam@@ 8
Ilungunĩ 8
maumaa 8
imo 8
NDĨ@@ 8
ũkaya 8
ndũkatĩa 8
twonie 8
History 8
1974 8
kwatĩĩaa 8
mamany@@ 8
natw’a 8
ũnee@@ 8
masũvĩ@@ 8
mataatĩĩaa 8
wanyuva 8
anĩka 8
La@@ 8
nũtwaanĩte 8
tũvuku 8
amatethya 8
nĩmaleanile 8
yĩtaa 8
wĩanĩĩtye 8
okite 8
aingangĩ 8
yathelile 8
akuĩte 8
avukw’e 8
,000,000 8
asimĩthya 8
ANA 8
w’ĩo 8
nuns 8
tũkĩ@@ 8
ic 8
ũtataĩĩwe 8
likilye 8
kũkũlw’a 8
mine 8
twene 8
wavĩtya 8
nũtũthoketye 8
tũineena 8
Nĩona 8
nzeango 8
Ekalaa 8
Amin@@ 8
kĩthama 8
ũkũtavya 8
115 8
mombĩtwe 8
nĩtwe 8
NĨT@@ 8
nũtũtethasya 8
yoonanasya 8
mũkaawanĩ 8
meeyumisye 8
momanyĩsyonĩ 8
KĨKW’Ũ 8
maeleawa 8
meene 8
mũthanga 8
matatalĩka 8
meũm@@ 8
Nas@@ 8
KATĨ 8
alyũkile 8
mũthũkũme 8
komb@@ 8
matatie 8
nĩwambie 8
mevu 8
Nzyawa 8
mathĩnaa 8
elekela 8
oloka 8
tũmũtaĩe 8
Vatonyeka 8
tetheeisye 8
ingwa 8
kaseo 8
ũvai 8
makalika 8
mũu@@ 8
ũvumba 8
ũkua 8
tũmũthũkũmaa 8
mbuĩ 8
kwamb@@ 8
tũiema 8
avota 8
mamĩt@@ 8
takat@@ 8
Karen 8
alyũlilwe 8
Nĩtũtanĩaa 8
Yavini 8
ũthuku 8
kyanake 8
nĩwaandĩkĩie 8
angũnĩ 8
Hu@@ 8
ũnyuvĩtwe 8
niendeee 8
nthwau 8
wamwathie 8
ĩsinakoke 8
makũlilye 8
1979 8
yaanang@@ 8
ndakae 8
wasy@@ 8
Ndakĩtalĩ 8
ũneenewe 8
ungunyĩ@@ 8
nĩyathanĩte 8
tũike@@ 8
kĩkavũnĩ 8
Alan 8
mũtetheeasya 8
mamũv@@ 8
mathokasya 8
wamũnengie 8
kĩng’endilĩ 8
Côte 8
d’Ivoire 8
est@@ 8
kũthĩnĩ@@ 8
He@@ 8
masũngĩie 8
tũimũnenga 8
anyiv@@ 8
than@@ 8
kũtaa 8
navika 8
akeluvi 7
Asyokete 7
ore 7
anyuvĩte 7
nĩwaalyũlile 7
ũtw’a 7
kĩsa 7
naminie 7
noosa 7
aĩla 7
NDŨ 7
wamwĩtie 7
kũkwatĩ@@ 7
kũĩma 7
kũũa 7
wamũkwatie 7
amumya 7
atataĩĩe 7
Uulu 7
kalĩmanĩ 7
makev@@ 7
Tũngĩ@@ 7
kũkathĩĩa 7
asiĩĩa 7
nĩmemanyĩĩtye 7
sũanĩaa 7
nĩwendetwe 7
nakomanie 7
nĩmanyĩsye 7
oth@@ 7
ger 7
naũ 7
vay@@ 7
ũtwonasya 7
nĩwatũnengie 7
tweew’aa 7
kyandetheeisye 7
mokita 7
Atũmĩaa 7
nĩmakĩaa 7
C 7
G 7
Catholic 7
ay 7
kĩlĩĩle 7
kũmũtũmĩa 7
thĩny’o 7
endeei 7
oolilwe 7
matataĩĩe 7
kũĩsanĩa 7
nĩnavatisiwe 7
ingĩvĩte 7
ekũlye 7
Ũlei 7
myambĩlĩlyo 7
ũkatata 7
kũkusya 7
kwonana 7
Tũik@@ 7
ave 7
kũatĩĩaa 7
wang@@ 7
nĩngwenda 7
twĩĩmanyĩsya 7
Bill 7
waaĩwe 7
kũkaĩa 7
matonekaa 7
Ro@@ 7
ad 7
ũkiaki@@ 7
ũmũĩkĩĩe 7
waleanile 7
yĩtĩte 7
wonetye 7
kũmĩeka 7
syumanĩte 7
tsunami 7
tem@@ 7
SE@@ 7
etw’ĩka 7
aithũkũma 7
1946 7
Kũkũ@@ 7
ang’ang’@@ 7
nĩkwata 7
ũngile 7
mĩuke 7
elilĩte 7
twanewa 7
mũthũkũmĩte 7
vos@@ 7
ũtaĩkĩĩaa 7
manz@@ 7
kũlulut@@ 7
tũũ 7
ĩvawa 7
kĩũsumbĩ 7
matw’ĩkĩte 7
imwende 7
mũmanyĩsya 7
kwĩyĩosya 7
kũtalwa 7
asilĩlwe 7
Usia 7
78 7
ũnyuvaa 7
Ũka 7
ndĩlĩsyanĩ 7
kũneenaa 7
IE 7
umĩĩsya 7
ũandĩko 7
Twak@@ 7
ndakaema 7
atũman@@ 7
Jordan 7
kũtetheanĩsya 7
nĩsyonanĩtye 7
Ndũkatate 7
Mũvinganĩsya 7
Colorado 7
kũlaalaa 7
maol@@ 7
mene 7
ũnyuva 7
nĩweethĩiwe 7
Queensland 7
5,000 7
meanĩsya 7
ũmĩanĩsya 7
Mũka 7
Ĩkũmi 7
af@@ 7
tũũweta 7
wawetiwe 7
NG’@@ 7
AWA 7
Dictionary 7
nĩweanĩsya 7
Syama 7
ũi 7
Met@@ 7
wasindie 7
kũith@@ 7
ũtũli 7
Masyĩtwa 7
mũkũnga 7
ũtamb@@ 7
nĩmatavanisye 7
uanw’a 7
manake 7
ndee 7
ũvĩtĩtye 7
iakiisye 7
mayaeleawa 7
kĩsũanĩo 7
kũvithũkĩwa 7
Pr@@ 7
weethĩie 7
ũneenewa 7
ekotiĩtwe 7
mĩtheu 7
elinĩ 7
onetw’e 7
kũlilikany’a 7
ũĩkĩĩthĩtye 7
Tweew’aa 7
twavikie 7
kwaekai 7
twati@@ 7
P 7
Meekie 7
Ũla@@ 7
ũkũnyuva 7
eleelye 7
mamanyĩie 7
nĩwekalaa 7
mbĩth@@ 7
isumb@@ 7
AEV 7
watw’ĩka 7
nĩmamw@@ 7
kũmamanya 7
kũsyĩ@@ 7
nĩnonete 7
Kingdom 7
nĩwamũeleisye 7
End@@ 7
akĩtwe 7
tũsyaĩtwe 7
NTH@@ 7
Stadium 7
malikaa 7
MWA@@ 7
1991 7
tũtethekaa 7
ar 7
ŨTETH@@ 7
wasũngĩie 7
metĩkĩlane 7
Sal@@ 7
mavath@@ 7
ayĩw’a 7
engaa 7
akaete 7
ndaaĩtĩkĩlya 7
aidia 7
koo 7
kũlũlũmĩla 7
syaumie 7
nĩwathamĩĩe 7
amũtwa@@ 7
matwendete 7
Go@@ 7
ateũtĩĩa 7
nĩwaalyũkile 7
kĩũũyũ 7
mavĩndũka 7
makũlya 7
wambĩ@@ 7
mũiiti 7
wĩkwat@@ 7
96 7
manyĩaw’a 7
ũmaĩle 7
eanĩie 7
endai 7
Aaron 7
matha@@ 7
kũtũetee 7
Yes@@ 7
nthangaau 7
athaithaa 7
wii 7
neanĩwa 7
oi 7
manya@@ 7
Anita 7
Nadia 7
malũm@@ 7
imanya 7
inyĩĩa 7
waalyũlile 7
anĩthaw’a 7
KWAKŨNA 7
oanĩ 7
akamea 7
tũvĩt@@ 7
wĩmanyĩasya 7
alwa 7
138 7
kũlulutĩka 7
kũol@@ 7
tiĩa 7
wĩtĩkĩ@@ 7
nĩmooaiwe 7
likasya 7
nĩmang@@ 7
mĩte 7
kwelelũkw’a 7
maikakwatwe 7
athanaa 7
weesĩkĩe 7
Nĩvethĩwa 7
umu 7
ikat@@ 7
Ũtathela 7
ĩlila 7
kũthĩna 7
watie 7
ndũkakw’e 7
mamo 7
1957 7
ineenawa 7
kũmakatha 7
vĩtĩte 7
akaendeea 7
yĩkĩaa 7
ũvyũvu 7
nĩwoonekie 7
Karma 7
kũsila 7
kĩtũmĩawa 7
Mũnyanyawa 7
neene 7
ongoew’a 7
oy@@ 7
alilikane 7
eanĩte 7
ongwa 7
vonthe 7
avanisye 7
Saenzi 7
WENDETE 7
KYAĨ 7
mũvoyae 7
mũtindany’a 7
nĩyaĩlĩte 7
ĩtumbĩ 7
ndĩsa 7
mendekaa 7
ũtana 7
ndim@@ 7
mũthangaau 7
mathembo 7
wathikĩtwe 7
nĩnĩmũtũngĩaa 7
sav@@ 7
mũthokye 7
wusũĩte 7
Vietnam 7
Avisai 7
nĩtũũ@@ 7
nĩweethukĩĩisye 7
ũtĩĩa 7
Uj@@ 7
ji 7
angĩthisye 7
kĩvalo 7
atethekaa 7
navikie 7
kwĩsiĩanĩa 7
sek@@ 7
nĩyath@@ 7
nĩwĩkĩaa 7
Kũmantha 7
tũtwaanĩte 7
elee 7
aleana 7
twasomaa 7
tye 7
aamu 7
ĩi@@ 7
avikĩte 7
kailyĩ 7
YĨ 7
indĩlĩle 7
nĩwatũm@@ 7
tũlũmany’e 7
w’anĩthw’e 7
up@@ 7
yĩkaa 7
Kũtetheesya 7
malilikana 7
walika 7
amwĩkĩa 7
ũkomonĩ 7
nĩwonanĩtw’e 7
tũneenaa 7
wombiwe 7
ũkwendete 7
atwai 7
eĩ@@ 7
mũthokisye 7
Ũneen@@ 7
manenganae 7
memanyĩĩtye 7
lĩ@@ 7
Kwonany’a 7
tũkosa 7
akw@@ 7
nĩsyaendeeie 7
kĩthũinĩ 7
Mũthengeei 7
akamũthengeea 7
St@@ 7
nĩmathamĩĩe 7
yũmũĩte 7
mũneenee 7
2017 7
kũvang@@ 7
Per@@ 7
ũianĩa 7
Aan@@ 7
onan’ye 7
nĩtw’ĩke 7
nĩmosanĩte 7
watethasya 7
maeetwe 7
nĩtonye 7
mwandanĩ 7
mainengwa 7
nĩtũũm@@ 7
wĩmanyĩsya 7
ũiemwa 7
ithw’a 7
Col@@ 7
mũtulũĩle 7
mũthengee@@ 7
ithũkũmaa 7
wĩtano 7
eetiwe 7
ovota 7
kũsama 7
nĩkĩtumĩte 7
California 7
ĩkwe 7
ĩthĩtw’e 7
yũmbanasya 7
maend@@ 7
engeeaa 7
Ii 7
atanĩe 7
ndwĩthĩwa 7
Uhai 7
mathi@@ 7
ĩĩtye 7
Nĩtwendaa 7
kũeleanwa 7
awetetwe 7
Shule 7
kĩlaalai 7
twĩkũlasya 7
Nambĩĩe 7
nĩmwa@@ 7
ndendete 7
Wathanthatũ 7
kũnewa 7
Nĩtũmwendete 7
Mbalisilai 7
asembete 7
aũe 7
Portugal 7
nĩneew’aa 7
tũikwenda 7
mũĩkĩĩthya 7
nĩmavikie 7
nĩtũmũtũngĩaa 7
maaĩsa 7
wose 7
sawa 7
manthe 7
amũtongoesye 7
syaalyũlilwe 7
yũũa 7
maseũvĩtye 7
mayĩtĩkĩlaa 7
nĩwasũanĩie 7
4,000 7
meetĩkĩla 7
thĩnw’e 7
Nenyu 7
wĩanĩĩte 7
kĩwanza 7
sumbĩke 7
win@@ 7
tũsũni 7
Yaisye 7
ec@@ 7
Ngalĩ 7
twatũmĩaa 7
VE 7
nũtatĩte 7
aneeneiwe 7
zo 7
Ndo@@ 7
Mĩs@@ 7
thano 7
nĩmatavanasya 7
NĨKĨ 7
kũek@@ 7
ikw’a 7
1992 7
nũn@@ 7
watũtiĩe 7
syathyũlũlũkĩte 7
nĩkĩla 7
WAĨLE 7
twaa@@ 7
isyo 7
ũũtũmĩa 7
Willie 7
itũtetheeasya 7
ũmav@@ 7
watũnenga 7
tũikwata 7
mamanyĩaw’a 7
Diehl 7
yũmbĩtwe 7
nĩmatethasya 7
Kũmũmanya 7
waval@@ 7
iitũmĩa 7
ainawa 7
Nĩnatwie 7
waumasya 7
wamĩ@@ 7
ndendeeaw’a 7
eenyivya 7
nasoma 7
Biblical 7
nĩwatethisye 7
ngundi 7
nũendeeaa 7
kwĩtĩka 7
avikya 7
Mwĩĩ 7
ũkũsũanĩa 7
ngakwĩkĩa 7
kũmethukĩĩsya 7
ukũnĩ 7
ũmwaĩle 7
Ũkethĩwa 7
mũvĩtu 7
nĩmoombanie 7
mũtumĩu 7
masyaa 7
Ndũke@@ 7
twalika 7
twaeka 7
uvwa 7
ndekaa 7
Ũtw’ĩte 7
ĩsyei 7
imanyĩsya 7
yeekie 7
eyũmb@@ 7
nĩtweteele 7
waseũv@@ 7
aĩĩwe 7
maeema 7
twĩĩthĩwa 7
atesa 7
Nic@@ 7
mathĩnasya 7
Mũsiĩĩei 7
lainĩ 7
ũmũthĩny’a 7
Eliu 7
ndaak@@ 7
nĩwaeleiwe 7
1500 7
ekalangile 7
Kamitiinĩ 7
atielye 7
ũtamwĩsĩ 7
alũsinĩ 7
asembany’e 7
Avalamu 7
mokaa 7
nĩtũtũmĩaa 7
ndatũlasimĩthasya 7
kai@@ 7
ci@@ 7
ón 7
syatũmĩiwe 7
kũnĩte 7
Atũmĩie 7
ũtambĩĩe 7
nyeki 7
tũmũthaithe 7
avangĩte 7
ĩtũmĩa 7
Kũtenga 7
Maingĩ 7
Nĩnav@@ 7
ũtand@@ 7
ũnav@@ 7
mũthokya 7
uo 7
yoonaa 7
kĩlilikanonĩ 7
wamwĩaĩe 7
umbĩ@@ 7
twasya@@ 7
ndyĩkala 7
ũmwendaa 7
engeeie 7
umaala 7
nĩwamũvoyie 7
sũsũ 7
wĩw’anĩthyo 7
Nĩwĩw’aa 7
tũkatũmĩa 7
1922 7
Cedar 7
Point 7
weetiwe 7
kũmasũanĩa 7
ũanĩonĩ 7
meyũmbanĩsye 7
nĩnĩmwendete 7
ũkĩla 7
mawet@@ 7
eendeea 7
makaeka 7
nĩkĩs@@ 7
Kenya 7
Ngoonĩ 7
ũlũ 7
mekalanasya 7
ũmũtũngĩa 7
ĩtasya 7
Maĩle 7
wathoo@@ 7
Lidasi 7
kwĩkalanga 7
aekana 7
maithi 7
maneeneete 7
kũkengana 7
wamanyĩ@@ 7
Nĩtũkũthi 7
elo 7
nĩwatavanisye 7
Takatifu 7
alũlũmĩlye 7
husu 7
ĩkũyũ 7
thĩnĩkie 7
SŨNGĨO 7
ũkiakisya 7
Natelemile 7
kũmũtetheesye 7
kĩkale 7
kũtũmĩaa 7
ũkũũa 7
Con@@ 7
LIA 7
mũtanĩthasya 7
kũmew’ĩa 7
Mũikolwe 7
Tũyaĩlĩte 7
Mũike@@ 7
kaĩlaa 7
yĩit@@ 7
ungaa 7
athayũũkya 7
Ya@@ 7
nĩmaumie 7
ndaaũmba 7
thĩe 7
nĩwĩsaa 7
syayo 7
eekũlasya 7
wp16.@@ 7
mamwĩke 7
yetĩkiw’e 7
itiwe 7
Kũũ 7
Yailu 7
maetiwe 7
ũmaka 7
ũmbĩtwe 7
w’anĩth@@ 7
ĩtesa 7
az@@ 7
Velia 7
kũtũngĩa 7
iakisyo 7
ũmbwa 7
omu 7
ndek@@ 7
kũmathokya 7
ĩalyũlwe 7
ũkak@@ 7
ũleela 7
mayĩkaa 7
wĩtũlilikany’a 7
kũthũkũm@@ 7
ũsilaa 7
ũkwĩkĩa 7
kĩthimi 7
tũkee@@ 7
meemanyĩisye 7
vinyanĩ 7
ũkaetee 7
nĩyũmbanĩtye 7
iyĩsa 7
thokasya 7
eend@@ 7
aitũnenga 7
nũtũmanyĩasya 7
Makwie 7
aisũngĩa 7
lasim@@ 7
kae 7
Claus 7
Denmark 7
makĩyenda 7
mayĩmanyĩsya 7
thek@@ 7
nĩneetĩkĩlile 7
kwĩthĩanu 7
kumaa 7
uanisye 7
motato 7
nĩkũtethasya 7
itoetye 7
nĩmakusaa 7
nũng@@ 7
amal@@ 7
Nĩnatanie 7
vangĩĩa 7
ndal@@ 7
Kw’oko 7
fu 7
makomano 7
mamwĩtasya 7
kasandũkũ 7
seango 7
Ũtavany’anĩ 7
nyaĩĩkya 7
matana 7
mese 7
amatavisye 7
ũtetheew’e 7
ũkĩle 7
nĩyonanasya 7
thembo 7
itonekaa 7
kũmũ 7
amwĩsũva 7
waĩkĩĩthisye 7
ndeũtĩĩa 7
ũkũthokya 7
ŨKU 7
1962 7
Lilongwe 7
kumwa 7
mĩimũ 7
atũnengie 7
nũkũelewa 7
Maya@@ 7
ndaĩkĩĩaa 7
inĩte 7
mavike 7
nthei 7
kũthima 7
aitw’ĩka 7
usũĩtwe 7
tũsũanĩĩte 7
akatetheesya 7
kĩlonzo 7
ũmwĩ@@ 7
Senakelivu 7
00,000 7
nĩwaatĩĩie 7
mũĩkĩĩth@@ 7
ũĩe 7
isasi 7
syokeie 7
ANI 7
Tweemanyĩsya 7
Milton 7
Henschel 7
meeyumya 7
mbaali 7
Mũĩthi 7
inawa 7
thukĩĩw’a 7
ũngya 7
tũisyoka 7
Nĩndonya 7
kũsemb@@ 7
Tũyaĩ 7
alya 7
kũmamina 7
wĩkwatasya 7
Johannes 7
nũmwe 7
omĩanĩsye 7
kũnenge 7
matũaa 7
waandĩkĩtwe 7
maitethya 7
Mbingĩ 7
amũvoyie 7
KANA 7
angũlya 7
nĩtũmĩaa 7
Mamwĩie 7
Kyongo 7
ndethetye 7
alyũkĩte 7
nyioka 7
katane 7
Mowau 7
oombĩtwe 7
AM@@ 7
ũmũtetheesye 7
ũelesye 7
mesengyi 7
watũmĩa 7
twatw’ĩka 7
Twekalaa 7
nũathimĩte 7
kũtũsũngĩa 7
ndwĩsĩ 7
atũmĩkaa 7
makatana 7
enza 7
Vic@@ 7
ALO 7
kĩĩo 7
nĩsyambĩĩe 7
nanga 7
nthwa@@ 7
nĩwatw’ĩkĩthiw’e 7
Christian 7
nũwetetwe 7
Mũvoye 7
weteka 7
ikwataa 7
ĩsyĩtwanĩ 7
Mbaasa 7
tũimũkũlya 7
ĩseũvĩte 7
Vainia 7
omea 7
kũtũv@@ 7
Gra@@ 7
weekĩtwe 7
yanangwe 7
kĩũneenewa 7
mala 7
st 7
lei 7
manyuve 7
kũmũthaithĩa 7
ithie 7
num@@ 7
Michi@@ 7
w’ĩkĩkaa 7
ter 7
Richard 7
kũmbĩa 7
watũmiwe 7
kĩendeeie 7
Kũlya 7
mawaĩte 7
ũtetheetye 7
nĩkwaĩle 7
kũny@@ 7
masinda 7
amanyĩke 7
vatavĩtĩte 7
ũkanĩtye 7
yĩtũtetheesya 7
manyuvaa 7
nĩyambĩĩe 7
maitw’ĩka 7
ũtũi 7
mũmin@@ 7
ainengane 7
ũthayũũkyonĩ 7
nũmat@@ 7
yaaa 7
ũvĩwa 7
kũtũs@@ 7
nĩtũtumaa 7
Nĩnĩmũtũngĩaa 7
maemawa 7
Endee@@ 7
kũmĩĩasya 7
nĩwambĩĩisye 7
kĩwetetwe 7
Ndyeesĩ 7
itw’ĩke 7
Asũngĩie 7
wĩkalonĩ 7
kũmbona 7
ĩtũtongoesye 7
waneena 7
twĩĩ 7
nĩye@@ 7
Jennifer 7
esumbĩka 7
ER@@ 7
1945 7
ũvange 7
mavwana 7
yamũ@@ 7
IL@@ 7
ĩkumi 7
nĩnesie 7
kwĩw’ĩwa 7
Akw’ũ 7
WE@@ 7
natie 7
atasya 7
kũing@@ 7
twanyuva 7
nũtonyeka 7
elwe 7
maĩkĩĩthĩtye 7
umi 7
makalea 7
nĩwawetete 7
Chinese 7
eetĩkĩlile 7
makaw’a 7
mũye 7
ũlũnga 7
manyĩthĩtye 7
syokaa 7
mamũĩkĩĩaa 7
kĩku@@ 7
Kũtanĩa 7
ũkwendaa 7
umĩlĩle 7
Nĩnambĩĩe 7
aleele 7
syũanĩ 7
twoonaa 7
neeka 7
ĩtisye 7
nĩnĩtataa 7
Vulgate 7
wamũtũ@@ 7
mũvithe 7
nĩsyalikile 7
avw’an@@ 7
mamũkũlilye 7
ĩtume 7
Taoni 7
ndinalĩ 7
athayũũka 7
metĩkĩle 7
kĩkombe 7
athamĩĩa 7
kũmwĩka 7
Um@@ 7
Takeka 7
kĩyĩsa 7
EV@@ 7
ĩima 7
enyivya 7
loela 7
ũitanĩa 7
Wakat@@ 7
Twasisya 7
Twonanasya 7
ĩsũanĩa 7
Cr@@ 7
waaĩka 7
avũthĩĩsye 7
savuli 7
wendetwe 7
Mũtangĩĩi 7
KU@@ 7
our@@ 7
Olga 7
avalũka 7
ndii 7
alile 7
Plato 7
nĩweelilile 7
aui 7
kyambĩĩa 7
Moathimo 7
tũkaelewa 7
mekw’a 7
Vaitonyeka 7
Sweden 7
alilikanile 7
ĩvuso 7
je 7
nĩmawetaa 7
itũmĩĩte 7
nĩmũtonya 7
mayamba 7
ndaaenda 7
syĩkũ 7
myeũ 7
WONI 7
kyas@@ 7
akanasya 7
tũkatavany’e 7
ilĩtye 7
Wendano 7
ũvĩngaa 7
nĩmaleaa 7
mũm@@ 7
tũkakw’a 7
tũwetie 7
tũyambĩĩa 7
ĩtũmĩaa 7
kyumwanĩ 7
makeethĩawa 7
engiwe 7
LĨSTO 7
ũsyaĩtwe 7
ndakesa 7
indiwe 7
ingũĩe 7
tũkalilikanaa 7
aneenawa 7
asanga 7
LILIKANA 7
Lo@@ 7
waumĩte 7
nĩwambĩ@@ 7
etĩtwe 7
kwingĩv@@ 7
yeekiwe 7
syĩkĩe 7
g 7
esĩlaa 7
wathayũũkisye 7
nĩmatethekete 7
Neko 7
syĩmanyĩsye 7
ĩelete 7
tũikakw’e 7
alilikanilye 7
Northern 7
Ethĩawa 7
nĩsyĩthĩĩtwe 7
nĩmatũmĩĩte 7
syĩv@@ 7
sing@@ 7
embete 7
tũineenea 7
ũkwĩsa 7
aelekanilye 7
Vatican 7
ĩtwĩkĩĩte 7
kĩthĩĩtwe 7
maithĩna 7
natũmĩaa 7
eey@@ 7
ũlũmĩĩlya 7
yĩtũka 7
tũmũĩkĩĩe 7
KWA 7
ĩmanyĩsye 7
nĩmeeyumisye 7
nĩtanĩaa 7
Ndũũ 7
Maũmbanonĩ 7
ũmũsya 7
yĩka 7
tweeyumisye 7
Syĩ@@ 7
elee@@ 7
ĩkĩtw’e 7
kĩthokoany’o 7
ũmamanyĩsya 7
twĩthĩawe 7
ĩlu 7
atala 7
iĩe 7
LO@@ 7
aveta 7
Britannica 7
kingangĩ 7
usũsye 7
Ĩtonya 7
watethya 7
syaseũvaw’a 7
Aeni 7
anea 7
ũkatũmĩa 7
Maũvoo 7
aĩtwe 7
Alona 7
tũkwatwe 7
watw’ĩte 7
mambisovu 7
aiendeea 7
einĩ 7
ũmĩtũlĩte 7
ombe 7
amy@@ 7
Alex 7
atind@@ 7
nou 7
onokisye 7
tũsumbĩkĩtwe 7
anyuviwe 7
Jack 7
ory 7
aanĩw’a 7
twatũmiwe 7
tũkalilikana 7
alyũlawa 7
ja 7
inyuva 7
mũkũangũ 7
avike 7
tũtw’ĩte 7
ambĩaa 7
weteela 7
atũnengete 7
il 7
kamwanya 7
ian 7
anangiwe 7
kũtwĩthukĩĩsya 7
mathũkũmĩte 7
KU 7
MATH@@ 7
kũmwinĩa 7
ikam@@ 7
ANY@@ 7
wĩkiwe 7
Kwitũ 7
moae 7
kĩvalũa 7
nĩnendie 7
weanĩisye 7
kũvukya 7
Kũkũlya 7
ookĩlile 7
nyaĩĩkasya 6
ndamb@@ 6
ĩkĩtye 6
nĩwavĩndũie 6
avosya 6
ndakaeka 6
kũtũlikya 6
maikwataa 6
tũmwĩkwatye 6
oviwe 6
ũman’ya 6
kĩkonany’a 6
ũkavoa 6
mũaani 6
ndekwenda 6
Ũng@@ 6
kyanz@@ 6
ũnũkwasya 6
wokit@@ 6
umbũl@@ 6
nĩnaĩle 6
ũkatũtetheesya 6
syumĩte 6
kasandũkũnĩ 6
ũlĩte 6
kũĩkĩĩthw’a 6
makyo 6
Jean 6
atawa 6
ĨAA 6
atwendete 6
kyatũ@@ 6
enie 6
kũthũkũmaa 6
kũtethasya 6
maũngamĩe 6
wathĩnĩkaa 6
mwambĩlĩĩlyo 6
ne’phesh 6
To@@ 6
MWĨ@@ 6
nĩwali@@ 6
aithĩnĩka 6
elemilye 6
anangĩa 6
LE@@ 6
kũmwĩnyivĩsya 6
nĩtwamanya 6
aũngamĩe 6
kĩtetheeasya 6
yũmũa 6
iakĩisye 6
ũimantha 6
ũũnĩ 6
twoosie 6
ong 6
lo@@ 6
syendekaa 6
kũtumĩte 6
nĩnĩthĩĩtwe 6
ĩthukĩĩsya 6
w’ũ 6
kund@@ 6
mũnyũ 6
angĩle 6
ũwetwa 6
eũvĩtw’e 6
ainy@@ 6
iva 6
maumĩĩasya 6
ũmbie 6
wanengane 6
isiti 6
ũlwe 6
w’anĩte 6
nĩwatethekie 6
Gavin 6
wamũkũlilye 6
nĩwakĩaa 6
nũkũemwa 6
mavatisiwe 6
mavange 6
mombanĩtw’e 6
nĩnoonaa 6
syavika 6
Mom@@ 6
anyĩsyo 6
avi 6
makome 6
nĩwaneeneie 6
Gardner 6
yĩkonetye 6
iro 6
any’ai 6
isil@@ 6
indu 6
natwaiwe 6
weeĩtwe 6
masumbĩkĩte 6
kũthiana 6
nĩmamũĩkĩĩe 6
ũvĩndũ@@ 6
maisyoka 6
imaa 6
ALY@@ 6
Ni@@ 6
nĩkũtetheeasya 6
mathamĩĩie 6
ŨMĨ@@ 6
atalĩka 6
imwelekele 6
Panama 6
nĩmeeyumĩtye 6
nĩwaanangie 6
Nsomba 6
SO@@ 6
meetĩkĩlile 6
1961 6
kalea 6
vathelile 6
ovaa 6
twatwa@@ 6
nasya 6
kĩvĩsĩ 6
tũkamwenda 6
mesumbĩka 6
lũnga 6
ũanĩ 6
mosaa 6
ũĩsaa 6
andũkũ 6
wĩthukĩĩsye 6
watũng@@ 6
mwambĩlĩlya 6
kĩsĩkĩe 6
wĩkalae 6
akeekĩa 6
amũmanyie 6
ũmĩw’a 6
aitethya 6
nĩmaekaa 6
nĩwasembie 6
yĩis@@ 6
ĩlumaita 6
Vitaly 6
thee@@ 6
twĩmakĩa 6
natw’o 6
elikasya 6
Oliv@@ 6
mũkĩe 6
kwĩananw’a 6
nũtũĩkĩĩthĩtye 6
nĩmũk@@ 6
wanyuvie 6
wanyuviwe 6
mang’@@ 6
ũivindĩĩsya 6
atũla 6
nũtwĩw’aa 6
an’yai 6
mwĩkaa 6
mathayũũkaw’a 6
nĩwavuanisye 6
aĩkĩĩe 6
yumĩsye 6
wathaninĩ 6
wekiw’e 6
amatongoesya 6
uri 6
kũtũngwa 6
kũsiĩĩwa 6
Di@@ 6
nĩtwathok@@ 6
kinson 6
kũtawa 6
makethĩawa 6
twĩkwatĩtye 6
wanenganiwe 6
mau@@ 6
amũtũmĩie 6
nĩmaeaa 6
meendeea 6
nũka@@ 6
mwĩtĩkĩl@@ 6
kũthambw’a 6
ũsyĩ@@ 6
tũtetheew’e 6
tũikas@@ 6
mamũtia 6
moovetwe 6
livasi 6
ilit@@ 6
kĩkwendeka 6
eeaa 6
ũkũk@@ 6
ũitw’ĩka 6
eekiwe 6
ime 6
atongoeasya 6
masy@@ 6
tũyasya 6
kũitonyeka 6
1994 6
aw’e 6
Par@@ 6
mamũvĩngaa 6
Vati 6
ũkile 6
wooka 6
ũkamũth@@ 6
vathanaa 6
ũkwina 6
Mag@@ 6
Saioni 6
nĩsyendete 6
lumu 6
ewie 6
ũngamaa 6
ũnĩ@@ 6
ngatavany’e 6
nakwataa 6
makyenda 6
wamanyĩiw’e 6
kyũmbanĩsyonĩ 6
nĩwoombie 6
mũkĩmamanyĩsya 6
nalikile 6
kũvyũ 6
aatĩĩie 6
Adria 6
asimĩkie 6
kũtianĩa 6
mũtate 6
meethĩiwe 6
nũsyendete 6
kĩtũĩkĩĩthasya 6
TI 6
thĩnĩtye 6
ũnenenĩ 6
wamwĩt@@ 6
148 6
tũkemanyĩsya 6
se 6
kũtumb@@ 6
watũm@@ 6
andavisye 6
kũnyivĩa 6
athũkanasya 6
tũisũvĩa 6
ũolange 6
ũa@@ 6
mawetiwe 6
aalai 6
ell 6
syaasya 6
Pat@@ 6
neemanyĩsya 6
Sik@@ 6
indimalu 6
matwaanie 6
mayoonaa 6
metĩkĩiw’e 6
menyivasya 6
kũkethya 6
nĩkũt@@ 6
nie 6
nĩyathanie 6
ũĩmi 6
malikĩte 6
kĩnyun@@ 6
ũtambĩte 6
Mes@@ 6
mũvw’anano 6
Lucy 6
maseũvasya 6
Tel@@ 6
nĩwathayũũkie 6
wathamĩĩa 6
nĩmalikile 6
kũtũngĩwa 6
aumaala 6
ũthũkũma 6
amatetheeisye 6
akasumbĩka 6
nũkũendeea 6
nĩmakwatĩtwe 6
thoko@@ 6
ĨK@@ 6
Nim@@ 6
ũseng’ya 6
melekele 6
Mikhail 6
atũĩkĩĩthĩtye 6
kũmathokea 6
tũmĩte 6
mbĩnĩ 6
athelete 6
ekiw’e 6
anakavĩte 6
twĩth@@ 6
akatũtetheeasya 6
nĩmaaĩlĩte 6
kũsĩĩa 6
Ũmbanonĩ 6
matamesĩ 6
atĩĩae 6
kaũvavathĩ 6
aikwata 6
nĩnĩũvĩta 6
nĩkwendaa 6
matwaiwe 6
makavetewa 6
kĩi 6
watavw’a 6
twoo 6
ũathimaa 6
mbathe 6
kwĩlingya 6
wĩyumye 6
kyasumbĩkĩtwe 6
nĩmamũk@@ 6
ĩndĩno 6
nĩweekaa 6
all@@ 6
mũkethĩwa 6
Ac@@ 6
kũkũsĩĩa 6
metĩkĩ@@ 6
akamũv@@ 6
nĩweeyĩ@@ 6
ndyĩthĩwa 6
ĨV@@ 6
meyĩtaa 6
makokite 6
Julian 6
anangĩte 6
mũsamo 6
nĩmakũlilw’e 6
ovwa 6
nĩmaemawa 6
amũsulami 6
amwĩĩte 6
kwĩyonany’a 6
meewa 6
iin@@ 6
1954 6
kĩkatumaa 6
wĩla 6
twĩanĩe 6
newe 6
enenganie 6
ivaũũk@@ 6
matendaa 6
kũtw’ĩĩa 6
nũthok@@ 6
indwa 6
kũnyiv@@ 6
77 6
ũtĩsya 6
nũtũv@@ 6
onokasya 6
wavatiswa 6
ethekie 6
diamond 6
kĩnd@@ 6
nĩwaveveeiwe 6
mũend@@ 6
iwanzanĩ 6
ũtw’e 6
Rocio 6
tũyĩlikasya 6
akua 6
kavyũ 6
ĩma 6
aĩkĩĩaa 6
nĩvethĩwa 6
nĩkĩtũ@@ 6
oonĩ 6
makavonoka 6
wĩta 6
mayaaĩle 6
nĩtũnengetwe 6
w’ei 6
uduma 6
theokrasi 6
okea 6
nĩwavĩtisye 6
ndakathi 6
KŨL@@ 6
angaau 6
avĩndũka 6
yĩtwĩĩte 6
nĩyĩthĩĩtwe 6
mokany’o 6
Masoretes 6
mayaaeka 6
okoo 6
amaa 6
ithyelĩ 6
Twingĩvĩsye 6
onio 6
omane 6
Tetheesya 6
Vancouver 6
nĩwamekĩie 6
nĩw’e 6
uthya 6
nĩnakũlilw’e 6
Ĩka@@ 6
wĩw’ĩaa 6
wasomie 6
atila 6
nĩmanye 6
eleel@@ 6
twĩvika 6
ĩveny’a 6
ĩsalukya 6
nĩtav@@ 6
natũmiwe 6
ũngĩwe 6
ndũkeke 6
kw’ĩĩe 6
matwonasya 6
nĩtũng@@ 6
umĩlĩile 6
ũnganaa 6
nyuvie 6
eetya 6
mũkwatu 6
Ũalyũlo 6
malilikanilye 6
wavu@@ 6
kũtũvĩngĩĩsa 6
twĩkĩĩte 6
yaandĩkawa 6
nĩmekwendeew’a 6
malĩs@@ 6
ĩthũkũmaa 6
alukw’a 6
indĩlĩĩle 6
syĩkĩte 6
kũtavan’ya 6
ongelaa 6
neetĩkĩla 6
asetinĩ 6
tiyo 6
maũngeme 6
tũkatata 6
ũkooka 6
ĩkwenda 6
tweekwa 6
tũthĩnĩ@@ 6
nĩekane 6
kũminwa 6
voyai 6
kũmaũmĩsya 6
nũndetheesye 6
mũendele 6
kwanakavya 6
kĩmwiĩa 6
ũmũsũvĩaa 6
vatũmĩwa 6
kwĩkĩana 6
Ĩyĩkalyei 6
Wendonĩ 6
ũnywi 6
yĩkaweta 6
ũkamba 6
mamĩs@@ 6
athimĩkaa 6
maitwaana 6
kyatw’ĩka 6
katil@@ 6
unĩkaa 6
akatavany’e 6
angaasie 6
syaumĩte 6
syokete 6
matũtethetye 6
mbĩĩsya 6
Way 6
nengie 6
kwonzya 6
Carol 6
kwĩtĩkĩlĩka 6
twiĩwe 6
Kuj@@ 6
nĩwathĩnĩkie 6
metanĩaw’a 6
akaelewa 6
tũng’ang’@@ 6
aĩth@@ 6
SI@@ 6
Stephanie 6
Ballet 6
ũkatetheka 6
nthe@@ 6
nĩwamũkanisye 6
matekaa 6
nĩwatetheeiw’e 6
ũmũthũkũmaa 6
syawetwa 6
waaa 6
ekalĩla 6
kũaly@@ 6
nĩwakiitiwe 6
nĩnalikile 6
nĩkũtũtethasya 6
ĩmwĩt@@ 6
Ricky 6
mi 6
nũtũngaa 6
emeea 6
ũĩkĩĩthya 6
akamantha 6
ĩnyiv@@ 6
kũthatya 6
Apun 6
kũndilikana 6
kĩte@@ 6
maumĩlaa 6
ayũũkisye 6
nĩwalilikanaa 6
twĩk@@ 6
isũanĩa 6
kũtũmĩ@@ 6
ĩtwĩ@@ 6
ndũnyivaa 6
nĩwĩs@@ 6
andĩki 6
akamũkĩa 6
Pavel 6
ndaalea 6
nĩtwatwie 6
ikasya 6
Hiroo 6
kyendete 6
kũtiĩa 6
nũemawa 6
Tũendeangĩe 6
tũthũkũme 6
nĩwakind@@ 6
umbĩthĩtw’e 6
144 6
Tokmok 6
yĩkavonoka 6
weetie 6
enevete 6
ĨKŨLYO 6
oete 6
waũnĩ 6
Broadcasting 6
Paraguay 6
Ontario 6
wakanisye 6
veethĩwa 6
vonanĩtw’e 6
maaisye 6
so@@ 6
nũmb@@ 6
Don@@ 6
ald 6
UL@@ 6
kũsĩĩe 6
kĩĩle 6
WENDA 6
makathayũũka 6
nĩwamwĩkĩie 6
kũthũkũmĩa 6
tũkolwa 6
matak@@ 6
nĩkĩthĩawa 6
nĩkĩwetete 6
w’ĩki 6
twĩtĩkĩle 6
nũmanengete 6
ongiwe 6
vaikethĩwa 6
twasyaiwe 6
Iv@@ 6
syonekaa 6
ĩkw’a 6
ikonanĩtye 6
ũlĩka 6
meũsũanĩa 6
itesa 6
momĩanĩsye 6
nĩmoonaa 6
kĩtuĩ 6
vin 6
navoya 6
makwetye 6
nĩmoomb@@ 6
alũnge 6
masoesi 6
katano 6
kwĩkaĩla 6
thĩka 6
ilĩkangano 6
mwathe 6
nũetae 6
nĩweetĩkĩlilye 6
nũemetwe 6
maumya 6
06 6
kũvĩtĩla 6
146 6
ndakoawe 6
kĩoko 6
nĩmeethĩie 6
kũtataa 6
kai 6
mayĩw’a 6
mamũthĩnasya 6
ĩtatwanĩ 6
mean@@ 6
kũtũalyũla 6
wasũngĩaa 6
inganĩsya 6
thĩnĩiw’e 6
mokitĩaa 6
ĩkĩlĩtw’e 6
nũtwonasya 6
omano 6
De@@ 6
aĩmi 6
Corinna 6
namanyĩĩte 6
ooe 6
kyona 6
wendekaa 6
R 6
oae 6
iz@@ 6
mawĩkal@@ 6
ũkwete 6
thew’a 6
mavatiswe 6
itũlilikanasya 6
mũtyĩsĩ 6
K 6
mũtwai 6
ũvĩngĩĩswa 6
Vayaĩ 6
Yaku 6
nĩtũatĩĩe 6
ŨKĨ@@ 6
mekwasya 6
ataĩwa 6
nĩmaandĩkiwe 6
kũtũmanyĩasya 6
kũmũthing’ĩĩsya 6
ovoamu 6
Ũkeethĩwa 6
etu 6
uvi 6
viasalanĩ 6
kũtũlũnga 6
ũteĩsa 6
nĩtũũmũ@@ 6
nũvw’ĩkaa 6
ĩlanga 6
eekĩaa 6
ĩthĩawa 6
taana 6
ũngamĩi 6
tũmwana 6
Costa 6
Rica 6
embany’a 6
ĩsĩkĩe 6
yanangĩka 6
Twesie 6
ingĩve 6
mus@@ 6
ũsumbĩko 6
kwĩvanga 6
kĩtet@@ 6
emo 6
lilikany’a 6
ũngũlũlũ 6
ũthĩĩasya 6
OV@@ 6
muun@@ 6
ndyĩsĩ 6
syonany’e 6
maveveewe 6
ũvĩngĩĩse 6
Ũsĩnĩ 6
kwĩtongoesya 6
oyeaa 6
nĩendaa 6
ndambũka 6
nĩĩkwatya 6
kathĩĩa 6
mwaĩlu 6
kyeo 6
116 6
Sea 6
Her@@ 6
makũlilw’e 6
nĩsyeanĩie 6
kũũt@@ 6
twoonie 6
ũũs@@ 6
YAK 6
ĩlĩĩlaa 6
nĩthukĩĩsye 6
74 6
kũthĩnĩa 6
nĩweetĩkĩlanile 6
mavikĩlaa 6
ũkũa 6
ũkekĩka 6
kwĩthing’ĩĩsya 6
Vovu 6
maũ 6
ndyaĩle 6
anthau 6
tũmũvoye 6
mbu 6
nĩkĩt@@ 6
kũmũmantha 6
mũkũũe 6
angũlasya 6
ateĩvangĩte 6
Santa 6
nĩwakuie 6
aekane 6
Yĩsilya 6
alilikan@@ 6
makakw’a 6
kethĩwe 6
masyaawa 6
thayũũkĩtw’e 6
ambĩlĩl@@ 6
watũmie 6
mayendeeaw’a 6
Josephus 6
aĩei 6
ũyĩmanyĩsya 6
ũisyoka 6
umbĩthw’a 6
sukumaa 6
ililikanaa 6
atu@@ 6
eewa 6
kundinĩ 6
wamũv@@ 6
nĩwathĩnĩkaa 6
matũlaa 6
Lije 6
ĩvĩt@@ 6
Vekala 6
syumĩtw’e 6
kĩĩie 6
Mĩt@@ 6
ũvĩĩku 6
kung 6
ndakĩaa 6
alĩku 6
tũtethe@@ 6
Informant 6
maalyũkile 6
Watu 6
tav@@ 6
keki 6
nũkwataa 6
waaona 6
woos@@ 6
maseũvaw’a 6
kũmũelewa 6
nĩmanyĩasya 6
ũkiakiasya 6
Elizabeth 6
tũkwatawa 6
ndaketĩkĩla 6
wĩse 6
ũsinde 6
ndyendaa 6
ũkaũtetheesya 6
ũseũvĩtw’e 6
ingũe 6
nĩwavatisiwe 6
maialyũla 6
amwĩtie 6
ingĩ@@ 6
mũthatu 6
athaũki 6
w’ĩkĩkanaa 6
Belfast 6
tũkamba 6
kĩasa 6
ĩtĩkĩlaa 6
kũthaithwa 6
tũeleawa 6
weekĩwe 6
amũkaa 6
wakw’ĩte 6
ũtaaĩthĩwa 6
ũtanyivaa 6
sky 6
indĩa 6
wĩyoneete 6
kũwetetwe 6
Bethel 6
ell@@ 6
ĩkĩlanaa 6
Tũkesa 6
athim@@ 6
mainge 6
ĩng’alatanĩ 6
athatie 6
nĩkal@@ 6
8,000,000 6
eemanyĩisye 6
yie 6
asumbĩkaa 6
ataviw’e 6
mbakĩ 6
alĩs@@ 6
twĩvw’ĩke 6
makaiwa 6
makanewa 6
atu 6
maike@@ 6
twĩneena 6
1938 6
siĩĩaa 6
syũmbĩtwe 6
ũkwendeka 6
amwĩkwatya 6
Li@@ 6
weekwa 6
mbĩte 6
1924 6
tũũsũanĩa 6
ũndonyethasya 6
kũetae 6
kĩwango 6
atiĩtwe 6
ũatĩĩaa 6
atethekie 6
manyĩiw’e 6
andwa 6
methi 6
asyokee 6
nĩsyokete 6
masembanasya 6
kũkũĩĩsya 6
mbene 6
maekane 6
Ĩthangũ 6
itume 6
atenge 6
kũkilya 6
atesĩ 6
yeanĩa 6
oovwa 6
twavĩtĩw’a 6
meanĩe 6
kĩneenawa 6
Rylands 6
kũmũsilĩla 6
Luther 6
nĩwamatetheeisye 6
uĩtwe 6
ĩtũtavasya 6
maũngama 6
kũtĩsya 6
mekwe 6
ĩmatetheesye 6
akaĩkĩĩthya 6
nĩmeũ@@ 6
mendeeiw’e 6
waat@@ 6
manyaĩĩkĩte 6
manyuv@@ 6
kwĩyosea 6
asinda 6
kyathĩnĩ 6
andetheesya 6
ndatĩkanĩ 6
nitetheeasya 6
nĩwaleanile 6
ikendi 6
ũnyivu 6
kũndavya 6
West 6
kũũmina 6
syeekaa 6
Ũkiliki 6
ũtangĩĩonĩ 6
makavetwa 6
ulutĩka 6
nĩmaeleetye 6
Yela 6
yĩkĩa 6
atatie 6
ud 6
mavikĩe 6
kĩtaĩ 6
ũvĩanĩ 6
itane 6
alanĩ 6
MANY@@ 6
2001 6
angas@@ 6
kĩti@@ 6
umĩlĩĩla 6
nĩyas@@ 6
mataĩkĩĩaa 6
kĩoonĩ 6
kwĩkĩĩa 6
asũvĩa 6
makuawa 6
Nora 6
maek@@ 6
ANĨA 6
nĩmatetheeiw’e 6
waveveewe 6
ũthũkũme 6
ndũth@@ 6
ndũtalĩlaa 6
makatavany’a 6
yũlũlũkonĩ 6
Arabia 6
atumĩte 6
ĩiweta 6
mwanawa 6
isyaawa 6
ũmaitha 6
ũtata 6
Maxine 6
nĩtwoonie 6
tũtana@@ 6
kĩthuma 6
waumĩlilye 6
kaĩndũ 6
ũkĩlyonĩ 6
nũkũtetheeasya 6
nĩtwĩyumĩtye 6
manyĩĩte 6
ũkũmĩth@@ 6
tondu 6
Estonia 6
atũmĩiwe 6
tumye 6
ina@@ 6
Tweewie 6
Rachel 6
ielekanĩtw’e 6
syesie 6
lin 6
mathokye 6
With 6
kũsindana 6
aanĩaw’a 6
twitũ 6
nũmanyĩte 6
awetwa 6
matethya 6
nĩnĩtanĩĩte 6
nĩwavoisye 6
ry 6
eekĩka 6
eae 6
ũvĩtya 6
Esther 6
Sinai 6
ĩneen@@ 6
aminĩĩe 6
kũĩvĩa 6
Livija 6
tũnga 6
nĩmathũkũmaa 6
ũema 6
itheka 6
tũsemb@@ 6
Balykchy 6
María 6
nakomana 6
Twoona 6
iia 6
engani 6
etangie 6
ũtũlu 6
yĩiweta 6
mauĩtye 6
vundi 6
matũmwa 6
koini 6
tũvote 6
ũtethw’e 6
THAYŨ 6
alee 6
meũthi 6
kathĩĩaa 6
etĩkĩsye 6
ũtamesĩ 6
Ĩtuvi 6
Maurizio 6
maũmĩa 6
On@@ 6
600,000 6
omwa 6
ũtũk@@ 6
kũmũlikya 6
ũthĩn’yo 6
Juli@@ 6
mamwonaa 6
Simeulue 6
Ronald 6
ũmanthe 6
ũtwĩkĩa 6
nosyo 6
ŨŨ 6
maalyũlile 6
kũa@@ 6
Ta@@ 6
nĩmaneen@@ 6
ueli 6
syamũ@@ 6
konthe 6
atethasya 6
Watchtower 6
nĩnalilikanile 6
eanĩisye 6
tũũv@@ 6
etange 6
mwenyu 6
nĩwĩanĩĩe 6
maliku 6
malilikan@@ 6
tũkathi 6
ndũkaye 6
woneka 6
aseũvye 6
maimanyĩsya 6
wĩĩ 6
ooniw’e 6
Columb@@ 6
nĩwaumie 6
nũtũathimĩte 6
ndũema 6
olokasi 6
Joy@@ 6
St 6
ũteth@@ 6
est 6
kũnyuvwa 6
ikeanĩa 6
ayĩs@@ 6
teth@@ 6
mũtwaie 6
nũkũv@@ 6
kũlyo 6
syamathyũlũlũkĩte 6
mataa 6
wathokisye 6
uni@@ 6
nũndetheeasya 6
otoni 6
ndikwenda 6
anyae 6
angaasa 6
aũngeme 6
Ribeiro 6
isya@@ 6
enengane 6
athate 6
akũa 6
elwa 6
taĩe 6
ge@@ 6
tũkakwataa 6
ng’endu 6
maemanwa 6
7,@@ 6
makwĩ@@ 6
Tavany’a 6
atw’ĩkĩthw’a 6
mbul@@ 6
Wĩkal@@ 6
ataa@@ 6
itavanasya 6
ũngilw’e 6
syaw’o 6
kũvetea 6
ũmĩanĩsye 6
ĨKĨĨAA 6
ianĩ 6
mũsel@@ 6
twakathwa 6
Elis@@ 6
syaseũvĩtw’e 6
yĩnĩ 6
nziũ 6
ũũtetheesye 6
ũlile 6
utani 6
syende 6
Ph@@ 6
etewe 6
yĩtumbĩthaw’a 6
hormone 6
nĩtũkanĩtye 6
ekĩa 6
syĩs@@ 6
kwambaa 6
maikũlya 6
aimatetheesya 6
amũkwata 6
ĩlĩka 6
ũlũmĩle 6
aninangi 6
angĩthĩtye 6
ĩiw’e 6
evenĩ 6
ũthũmũonĩ 6
kũmaetee 6
leemu 6
ũtũnenga 6
ũũngĩ 6
kũtheu 6
wainie 6
amwathie 6
anyuvaa 6
kũtwa@@ 6
mũika@@ 6
maikeke 6
kĩkĩ@@ 6
yamũtetheeisye 6
tũikalike 6
atũtetheeasya 6
kwĩnenga 6
ng’athĩ@@ 6
kĩtw’e 6
umĩlaa 6
maekie 6
Pennsylvania 6
yathela 6
Ol@@ 6
physic@@ 6
mũnyuv@@ 6
nĩyĩthĩawa 6
akiwe 6
nĩtũmwĩkwatĩtye 6
vaiĩ 6
Church 6
avangie 6
aũtongoesye 6
Ser@@ 6
akũũa 6
kũmomb@@ 6
asemba 6
mawĩthyũlũlũko 6
mũsavivũ 6
ingithĩka 6
yaanangiwe 6
uveni 6
nĩmawetie 6
mayaaendeew’a 6
kĩkonetye 6
kũlũngw’a 6
unĩko 6
mamũĩkĩĩe 6
kũyũ 6
twesie 6
twavatiswa 6
eleekaa 6
twaumie 6
mũi 6
nĩsyosanĩte 6
tũyĩkaa 6
isũvĩaa 6
Christopher 6
twoonany’a 6
ovie 6
ũtwiĩe 6
ovo@@ 6
woombaa 6
aany’a 6
tũmwe 6
kumĩthw’a 6
nĩtũmũĩkĩĩe 6
andia 6
ũkũmanaa 6
ũtavanw’e 6
nĩmamwĩkwatĩtye 6
Reneé 6
simba 6
kũsaanĩw’a 6
Nor@@ 6
ũthengi 6
ũthũkĩte 6
wakwataa 6
ũngamĩaa 6
Mediterr@@ 6
kwĩsũanĩa 6
twĩĩsa 6
kwĩtĩkĩl@@ 6
kũvoyea 6
ũkũth@@ 6
maieka 6
syonaa 6
likaa 6
kw’ĩĩwa 6
myamũlo 6
Tũs@@ 6
ŨTIANĨO 6
ieleetye 6
mũthilĩku 6
kũsĩĩie 6
kĩtuma 6
nĩwamũl@@ 6
ff@@ 6
ũkĩe 6
ombokangu 6
nĩmeũkwata 6
nũtũl@@ 6
eyumya 6
ĩtĩkĩlya 6
ikĩaa 6
kalungunĩ 6
ol 6
Mol@@ 6
kelele 6
meyoneete 6
ũtethekete 6
kũĩĩa 6
atiswe 6
w’ĩĩkĩte 6
kĩumo 6
nĩkũtwĩkĩaa 6
amwĩkĩe 6
makekale 6
watũmĩtwe 6
wavĩt@@ 6
Mĩth@@ 6
undi 6
wavandie 6
yĩkanenganwe 6
Mai@@ 6
kũtũtethasya 6
atholeki 6
kĩtutya 6
itaya 6
wovano 6
anisa 6
tũyaa@@ 6
nĩwamũĩkĩĩe 6
ũanĩae 6
esũva 6
kwatethisye 6
iak@@ 6
ũmanthaa 6
matavwa 6
67 6
yal@@ 6
malek@@ 6
kĩtumbo 6
ũeka 6
Wĩw’anĩthyo 6
ndikese 6
Committee 6
meanĩie 6
nĩwaeleawa 6
kũlikana 6
nĩmamũtiie 6
mati 6
nĩyĩtonya 6
kwĩthĩana 6
akengani 6
ukũ 6
nĩwakwata 6
ngie 6
ũũmantha 6
wanyuvĩte 6
andĩko 6
kũketha 6
mũtumanu 6
makatũmĩa 6
masyokee 6
nĩmethukĩĩasya 6
nĩtwĩtĩkĩlĩte 6
kĩtu@@ 6
mekwata 6
anĩlw’a 6
kwoa 6
elekanasya 6
meeie 6
makũsĩĩe 6
masyokea 6
Etta 6
hi@@ 6
Jaracz 5
ĩki 5
Nadine 5
ion 5
isũ 5
onne 5
arr@@ 5
ethiovia 5
aven@@ 5
1980 5
seo 5
Victor 5
English 5
Eu@@ 5
oninĩ 5
sumb@@ 5
tũtũmĩ@@ 5
ukĩ@@ 5
ub@@ 5
1942 5
ũkĩĩa 5
Christine 5
Jan@@ 5
Cur@@ 5
ha 5
wanyuv@@ 5
Eddie 5
Estienne 5
Scotland 5
Bur@@ 5
aĩnĩ 5
Tonga 5
Yury 5
id@@ 5
twavĩt@@ 5
athĩ 5
Assembly 5
sol@@ 5
eveewe 5
450 5
uli@@ 5
Maj@@ 5
Morris 5
ner 5
ũtanĩ 5
bia 5
Yankee 5
Ed@@ 5
tũmĩaa 5
ũkaema 5
syaneen@@ 5
Mozambique 5
ern@@ 5
Fa@@ 5
ĩng’@@ 5
Marie 5
ei@@ 5
101 5
thĩawe 5
yae 5
endeka 5
Eastern 5
Nin@@ 5
ĩlo 5
some 5
ses@@ 5
umbĩthya 5
wai 5
112 5
nĩweenyiv@@ 5
Ter@@ 5
alene 5
Filip 5
Harold 5
ust@@ 5
Tatyana 5
aasa 5
win 5
5,@@ 5
era 5
Stephany 5
inĩa 5
minĩ 5
Victoria 5
vĩ 5
ĩm@@ 5
so 5
avan’ya 5
ent 5
1981 5
States 5
ilikano 5
1998 5
ho@@ 5
ASYA@@ 5
Mwĩkal@@ 5
rop@@ 5
ũthũmũ@@ 5
Langton 5
Sara 5
melo@@ 5
30,000 5
ĩtĩte 5
git 5
Pap@@ 5
orge 5
Yak@@ 5
anewa 5
ĨLE 5
tum@@ 5
sh@@ 5
Blossom 5
Mya@@ 5
nũka 5
Asya@@ 5
ĩsyo 5
2,500 5
ĩmi 5
160 5
ber@@ 5
tũvo@@ 5
ie@@ 5
kwĩth@@ 5
any’onĩ 5
kĩke@@ 5
The@@ 5
kũvind@@ 5
Karítsa 5
alukya 5
nicotine 5
Katharina 5
ris@@ 5
1920 5
ĩu 5
3,@@ 5
Vi@@ 5
Wake 5
mũlũm@@ 5
thembi 5
esi 5
aseti 5
ĩĩawa 5
100,000 5
communist 5
gen@@ 5
od@@ 5
Park@@ 5
Bangladesh 5
ĩĩsyai 5
sula 5
Switzerland 5
ag@@ 5
ĩsilya 5
yet@@ 5
Gary 5
BIB@@ 5
makatha 5
Ven@@ 5
ula 5
engy’a 5
kwongel@@ 5
mok@@ 5
ʹ@@ 5
Tav@@ 5
uri@@ 5
ndũ 5
ĩndũk@@ 5
Bal@@ 5
lim@@ 5
Philo 5
uthu 5
ũsani 5
1,100 5
land 5
aithĩa 5
Ella 5
mamanyĩ@@ 5
.5 5
ĩsumb@@ 5
ũanĩo 5
L 5
ĩanĩa 5
silĩla 5
Juan 5
ũthũkũ@@ 5
inakokenĩ 5
evee@@ 5
mbulos@@ 5
onge 5
Vil@@ 5
enange 5
Nam@@ 5
240 5
nĩwavo@@ 5
tea 5
hell 5
ass@@ 5
wel@@ 5
V 5
SY@@ 5
ristina 5
Adolfo 5
re@@ 5
Students 5
QR 5
Roman 5
lee 5
mĩkal@@ 5
ĩto 5
Emil 5
Paula 5
wongelek@@ 5
semba 5
Del@@ 5
each 5
ir 5
Te@@ 5
angĩĩo 5
Lauri 5
Ramoni 5
per@@ 5
tĩkĩlile 5
dar@@ 5
1923 5
Siberia 5
Tagalog 5
athime 5
Bir@@ 5
ken@@ 5
Irene 5
kun@@ 5
References 5
wp17.@@ 5
Tasmania 5
Mirj@@ 5
eveeiwe 5
Vin@@ 5
gh@@ 5
Tessie 5
Phil@@ 5
anyuv@@ 5
Nuremberg 5
ĩĩla 5
andie 5
send@@ 5
Y 5
uutani 5
mil@@ 5
1997 5
Hollywood 5
Professor 5
ombo 5
Kumiko 5
S 5
Augustine 5
ekane 5
Fu@@ 5
nĩmale@@ 5
Yu@@ 5
Zoila 5
ü@@ 5
1926 5
Sylviana 5
ilĩl@@ 5
ach@@ 5
Vet@@ 5
Doreen 5
wom@@ 5
evitha 5
LU@@ 5
Bel@@ 5
Maya 5
alyũku 5
enganie 5
og@@ 5
SŨNG@@ 5
imin@@ 5
Er@@ 5
ĩtyo 5
1967 5
3,500 5
Klein 5
kĩng’@@ 5
sin@@ 5
ato 5
ũmie 5
Pax 5
Romana 5
We@@ 5
asimĩthasya 5
ĩi 5
w’ũnĩ 5
lĩlyo 5
ard 5
Tract 5
Mike 5
Ti@@ 5
ululu 5
atum@@ 5
Mandy 5
thanĩtwe 5
awanĩ 5
Alb@@ 5
Mek@@ 5
1935 5
nia 5
250 5
Kat@@ 5
Kil@@ 5
Isaac 5
El 5
thĩĩo 5
Wesley 5
Democratic 5
ũlũmĩla 5
tũlilikany’a 5
gh 5
ndĩv@@ 5
kũli@@ 5
mĩend@@ 5
ũkenge 5
endekaa 5
ũmany’e 5
umĩa 5
tũkal@@ 5
ŨL@@ 5
none 5
usũsya 5
ũmĩĩtwe 5
Zaragoza 5
UN@@ 5
aiwe 5
Aristotle 5
1988 5
mũkat@@ 5
siv@@ 5
Kimb@@ 5
Ger@@ 5
ler 5
ambĩ@@ 5
po@@ 5
95 5
alĩnĩ 5
Sar@@ 5
ts 5
od 5
ũnyuv@@ 5
aũkĩa 5
Ben@@ 5
ũkomb@@ 5
Kent 5
mũtal@@ 5
Luis 5
Angat 5
avivũ 5
Archaeology 5
Review 5
sim@@ 5
Bri@@ 5
Maureen 5
isual@@ 5
1978 5
Israel 5
USSR 5
ob@@ 5
ũky@@ 4
Soviet 4
Un@@ 4
400,000 4
kit@@ 4
KE 4
Kam@@ 4
Aas@@ 4
1,000,000 4
ngan@@ 4
Raquel 4
Hai@@ 4
Vak@@ 4
1879 4
ŨS@@ 4
ĨO 4
185,000 4
X@@ 4
Jerome 4
Alice 4
São 4
Paulo 4
ba 4
Protestant 4
Madrid 4
be@@ 4
Sinclair 4
Burnett 4
Est@@ 4
mathokea 4
Ver@@ 4
Insight 4
stroke 4
1910 4
1913 4
lum@@ 4
1881 4
Communism 4
Eduard 4
ova@@ 4
or 4
Pol@@ 4
yaĩa 4
Bob 4
Sheryl 4
Anne 4
Frederick 4
ill@@ 4
American 4
kwatĩĩa 4
Madele@@ 4
Bedell’s 4
ze 4
ang’ana 4
Iny@@ 4
enn@@ 4
ological 4
Robison 4
Luca 4
copper 4
tal@@ 4
Lit@@ 4
Panayiota 4
EL 4
Ĩyĩ@@ 4
nee 4
endilĩ 4
Jonathan 4
Inga 4
Shann@@ 4
yĩtumbĩth@@ 4
ũathima 4
isit@@ 4
Linda 4
flu 4
honda 4
2,800 4
alu 4
Jacqu@@ 4
Nations 4
my 4
ũnyiv@@ 4
olot@@ 4
ain 4
O’Connor 4
gar@@ 4
1985 4
awa@@ 4
inyu 4
mĩl@@ 4
1947 4
Atsushi 4
108 4
82 4
Pl@@ 4
Indones@@ 4
suk@@ 4
Nigeria 4
Dead 4
mako 4
mbal@@ 4
San 4
Demetrius 4
Global 4
Acts 4
Nani 4
otonĩ 4
Pittsburgh 4
Denn@@ 4
aman@@ 4
ö@@ 4
ter@@ 4
off 4
ũtũman@@ 4
tao 4
1963 4
Miss 4
Lily 4
iri@@ 4
indi 4
School 4
nyuva 4
ndethe@@ 4
kũsind@@ 4
eveli 4
Jr 4
Svetlana 4
nĩkĩl@@ 4
Cop@@ 4
ilik@@ 4
kũĩv@@ 4
Togo 4
matongo@@ 4
1951 4
ŨTE@@ 4
arry 4
20,000 4
Mad@@ 4
é 4
sũva 4
Maynooth 4
Mill@@ 4
lar@@ 4
evi@@ 4
oye@@ 4
Yuille 4
Oxford 4
malwaya 4
93 4
Jesse 4
’ye 4
ĩtha@@ 4
FU@@ 4
enc@@ 4
yũv@@ 4
eenyiv@@ 4
wol@@ 4
1959 4
ilĩlwe 4
Allen 4
Mor@@ 4
nĩmeet@@ 4
vet@@ 4
ren@@ 4
mul@@ 4
w15 4
w’ĩ 4
142 4
Sandra 4
Peter@@ 4
sburg 4
Ve@@ 4
Cec@@ 4
engyi 4
Japanese 4
Lat@@ 4
kũmany@@ 4
nĩwavĩndũ@@ 4
Caribbean 4
ĩthukĩ@@ 4
engana 4
Marthe 4
ũle 4
Mil@@ 4
kĩmw@@ 4
ington 4
tianĩo 4
del 4
kwĩsi@@ 4
mbĩlĩ@@ 4
ulunĩ 4
Ũkũ@@ 4
9,@@ 4
aeli 4
ĩkonĩ 4
go@@ 4
ũnyi 4
menyiv@@ 4
Czech 4
mathyũlũlũkĩte 4
PS 4
Sil@@ 4
oll@@ 4
ins 4
Atl@@ 4
eteelaa 4
Masako 4
Vicky 4
ria 4
kũlũlũmĩlasya 4
Kyung 4
sook 4
Sime@@ 4
Cleveland 4
Greek 4
Standard 4
ing 4
mutha 4
1925 4
lene 4
Ann 4
Rogelio 4
umbĩka 4
THĨWA 4
planets 4
gan 4
Iz@@ 4
Roberts 4
Pope 4
bi@@ 4
onia 4
Bol@@ 4
Central 4
AY@@ 4
1915 4
right 4
1972 4
North 4
ondu 4
Didier 4
Mũl@@ 4
ary 4
elika 4
RO@@ 4
Steven 4
theesye 4
atũmĩ@@ 4
20@@ 4
Makrónisos 4
red 4
tũtwa@@ 4
God 4
cheese 4
ũnda 4
ũngeme 4
ovu 4
Spices 4
don 4
Sakiko 4
Gianni 4
Veth@@ 4
san@@ 4
Patterson 4
IWE 4
ndũnĩ 4
sembie 4
U.S.A 4
kĩlaa 4
537 4
Saskat@@ 4
Tar@@ 4
okonĩ 4
avuk@@ 4
sy 4
Dannykarl 4
0 4
ice 4
ĩmanyĩsya 4
Kath@@ 4
81 4
phi@@ 4
Claudia 4
kwĩyũmb@@ 4
dia 4
Adams 4
Wath@@ 4
Kim 4
Sam@@ 4
ũlya 4
Miriam 4
tũtavĩtye 4
ũmbi 4
lose 4
ias@@ 4
ak 4
Newton 4
Elke 4
Velik@@ 4
Ilias 4
1933 4
ũtheng@@ 4
24,000 4
Tr@@ 4
Wh@@ 4
apps 4
128 4
by 4
Willis 4
197@@ 4
anyawa 4
und@@ 4
Gael 4
MAN@@ 4
B 4
Steele 4
thĩny@@ 4
1936 4
Ages 4
1987 4
Bern@@ 4
Norfolk 4
omonĩ 4
23@@ 4
etema 4
Bul@@ 4
scroll 4
Sm@@ 4
Sya@@ 4
ananĩa 4
Mist@@ 4
elbach 4
Graz 4
vaik@@ 4
tĩkĩl@@ 4
KWA@@ 4
men 4
ngav@@ 4
usu 4
rick 4
Koine 4
anat@@ 4
Filomena 4
hi 4
kale 4
ĨKĨ@@ 4
ST@@ 4
ngung@@ 4
Rwanda 4
Encyclopædia 4
ayũũka 4
kĩlĩĩla 4
Finished 4
Mystery 4
Damaris 4
tim@@ 4
KŨLYO 4
Paradise 4
Reg@@ 4
mũku@@ 4
amwĩlĩtu 4
mbo 4
Jehovah 4
11@@ 4
mũtũmie 4
arc@@ 4
twĩl@@ 4
him@@ 4
ethee@@ 4
ngus@@ 4
Joshua 4
Gre@@ 4
200@@ 4
נפשׁ 4
Hemsworth 4
kanĩtye 4
elilile 4
Shinto 4
Ann@@ 4
Nzev@@ 4
Carolyn 4
Haiti 4
um 4
Sakura 4
ette 4
pl@@ 4
Nero 4
1973 4
erly 4
avil@@ 4
Bi@@ 4
Bulletin 4
Violet 4
Marais 4
ʹ 4
ston 4
OR@@ 4
Claire 4
Carol@@ 4
ga 4
mwan@@ 4
insurance 4
Andr@@ 4
Nathaniel 4
yumwa 4
sia 4
Benjamin 4
ör@@ 4
Carin 4
kũvũ@@ 4
Gleissner 4
Palestine 4
Mũny@@ 4
anyau 4
Aksamai 4
eleke 4
Francis 4
ĩkĩĩth@@ 4
Wallen 4
ort 4
kov@@ 4
612 4
Nicol@@ 4
mbĩlĩĩlyo 4
1966 4
ado 4
nyivĩsya 4
1932 4
rich 4
wathi@@ 4
Ste@@ 4
13@@ 4
Brook 4
Nicaragua 4
1977 4
kathĩ@@ 4
Coast 4
ũngalu 4
Oksana 4
tr@@ 4
kũĩkĩĩ@@ 4
Hel@@ 4
ũvĩtĩsya 4
Diane 4
see 4
Theod@@ 3
Christop@@ 3
SŨ@@ 3
sen@@ 3
mũneng@@ 3
osy@@ 3
mĩa 3
waya 3
Ge@@ 3
Sylvie 3
Athens 3
Jes@@ 3
Simone 3
198@@ 3
chor 3
les 3
ordon 3
passport 3
Varter 3
ibu 3
Andre@@ 3
III 3
aul@@ 3
eth 3
televis@@ 3
ardo 3
Fr@@ 3
astic 3
avũthĩ@@ 3
ebec 3
agua 3
mũĩkĩĩ@@ 3
Deborah 3
aiwa 3
art 3
ominican 3
lintock 3
Strong 3
Inter@@ 3
Ndav@@ 3
Loraini 3
Id@@ 3
Kar@@ 3
ũkũũe 3
ker@@ 3
Sat@@ 3
eko 3
Ovis@@ 3
iter 3
Hor@@ 3
ũngal@@ 3
eleva 3
Pet@@ 3
All 3
d’Étaples 3
ens@@ 3
im 3
kũkol@@ 3
121 3
Persian 3
Akal@@ 3
Annu@@ 3
nziato 3
ert 3
Angie 3
Mongo@@ 3
kĩma@@ 3
Nepalese 3
iitiwe 3
alu@@ 3
Wood@@ 3
emee@@ 3
124 3
elle 3
root 3
word 3
ensen 3
yomonĩ 3
System 3
Alexand@@ 3
ah 3
nama@@ 3
insk 3
icus 3
ovia 3
Valencia 3
licante 3
tra 3
Scott 3
Schroeder 3
Milky 3
galaxy 3
helm 3
ĩlĩl@@ 3
endra 3
Ruth 3
Jud@@ 3
Mik@@ 3
hol@@ 3
cu@@ 3
int@@ 3
Yaroslav 3
LE 3
aleti 3
mũtũ 3
yunivas@@ 3
Ba@@ 3
Frank@@ 3
Shar@@ 3
Carolina 3
Thailand 3
tekinolongy@@ 3
ere 3
d 3
bbie 3
mĩkĩ@@ 3
ĩkĩĩthyo 3
eonĩ 3
isyonĩ 3
ester 3
att@@ 3
ist 3
vir@@ 3
Gi@@ 3
burg 3
antine 3
ed 3
Rosa 3
ase 3
ordvinia 3
gravity 3
Super 3
Typhoon 3
yan 3
atalan 3
Scrolls 3
Sydney 3
ATH 3
los 3
iliki 3
lov@@ 3
ial@@ 3
kĩmb@@ 3
Bo@@ 3
effery 3
Eri@@ 3
uthĩ 3
ilĩlo 3
rigory 3
YE@@ 3
Thierry 3
Bruce 3
Brook@@ 3
ings 3
likile 3
mu@@ 3
nyuvĩa 3
Suk@@ 3
ling@@ 3
Mis@@ 3
Yos@@ 3
Gar@@ 3
onel 3
othy 3
Tor@@ 3
onduras 3
kwĩw’ĩ@@ 3
iakĩ@@ 3
avati 3
ult@@ 3
ney 3
gr@@ 3
off@@ 3
Meth@@ 3
ine@@ 3
Br@@ 3
asher 3
WBBR 3
Staten 3
chester 3
Rebecca 3
hap@@ 3
kũtemb@@ 3
San@@ 3
eleeile 3
Tay@@ 3
Alexander 3
bir@@ 3
mbing@@ 3
Amis@@ 3
onalĩ 3
ungunyĩsya 3
Cal@@ 3
ikĩtye 3
Gener 3
ayũũk@@ 3
agasy 3
mũthũkũ@@ 3
for 3
Aal@@ 3
kũkũ 3
zaleka 3
Jer@@ 3
tion 3
Antandroy 3
Zambia 3
Va@@ 3
tamb@@ 3
Will@@ 3
Mic@@ 3
Ute 3
ĩng’al@@ 3
undinĩ 3
nyũ 3
macaroni 3
ST 3
AND@@ 3
ONI 3
it 3
ick 3
HU@@ 3
che@@ 3
onso 3
sw@@ 3
LIB@@ 3
ARY 3
tũteth@@ 3
imũ 3
wanza 3
ty@@ 3
Orig@@ 3
Ancient 3
Sri 3
anka 3
Cath@@ 3
alyũlo 3
dred 3
ʹa 3
ystal 3
mamwĩt@@ 3
Flor@@ 3
US@@ 3
oani 3
mp@@ 3
eango 3
Tabitha 3
European 3
Court 3
Human 3
Rights 3
aiaa 3
chess 3
ago 3
odotus 3
ayla 3
kanie 3
ep@@ 3
astro@@ 3
engy@@ 3
Ĩsũvĩ@@ 3
Venezuela 3
Ndĩ@@ 3
ninĩ 3
Sin 3
pp@@ 3
ot 3
be 3
lad@@ 3
ĩmanĩ 3
Sierra 3
Ulimweng@@ 3
go 3
Sas@@ 3
ĩngĩ@@ 3
ALI@@ 3
par@@ 3
lu 3
Man 3
Mũtũ@@ 3
mag@@ 3
kĩny@@ 3
utenber@@ 3
spen 3
indanĩ 3
Or@@ 3
kũtethe@@ 3
Valley 3
kĩtalĩ 3
tol@@ 3
emy 3
viti@@ 3
ũmĩĩasya 3
Queen@@ 3
Fel@@ 3
Council 3
Bu@@ 3
wald 3
ngaa 3
lands 3
her@@ 3
nybrook 3
Salvador 3
Luc@@ 3
tũngaa 3
Syria 3
raq 3
IC@@ 3
Ethiop@@ 3
mavir 3
yoke 3
Priscilla 3
AI@@ 3
ilĩku 3
Drama 3
Creation 3
ham 3
mwath@@ 3
mbĩĩ@@ 3
yn 3
v 3
Antichrist 3
Indian 3
yce 3
ghes 3
w’anĩ 3
Ant@@ 3
Reference 3
mond 3
nis@@ 3
Sing 3
Out 3
fully 3
otinĩ 3
Wal@@ 3
Great 3
ville 3
She@@ 3
Skye 3
matangas@@ 3
ה@@ 3
hulunbuy 3
andũkũnĩ 3
andĩthya 3
uc@@ 3
Life 3
kwĩw’@@ 3
Yearbook 3
Rob@@ 3
athũkany’o 3
Em@@ 3
yũlũlũk@@ 3
Italian 3
kambe@@ 3
eline 3
Grand 3
Timor 3
namaz 3
way 3
car@@ 3
mba@@ 3
TS 3
carbon 3
oxide 3
kũle@@ 3
ithela 3
ography 3
Lus@@ 3
ez@@ 3
Joe 3
ath 3
Toronto 3
sivit@@ 3
Chron@@ 3
nun 3
ĨNA 3
ade 3
mbĩlĩlyonĩ 3
Mut@@ 3
f 3
twĩe 3
ilda 3
nĩngũm@@ 3
Henri 3
makĩo 3
lege 3
ym@@ 3
aonĩ 3
oh@@ 3
Joy 3
oti@@ 3
LIK@@ 3
ndũũme 3
hal@@ 3
yl@@ 3
Trophim 3
Dr 3
Mũneng@@ 3
Ngom@@ 3
ward 3
ily 3
nĩwamũth@@ 3
Samoa 3
Christmas 3
VATICAN 3
angel@@ 3
om 3
Security 3
yaĩĩkasya 3
ail 3
emotherapy 3
ĩalyũl@@ 3
ush@@ 3
ndĩl@@ 3
Kais@@ 3
ug@@ 3
Thi@@ 3
w 3
Shim 3
eong 3
lav@@ 3
Can@@ 3
ambw’a 3
bara 3
Georg@@ 3
ith 3
107 3
eles 3
zig 3
cells 3
Sokuluk 3
tic 3
ational 3
Avi@@ 3
aani 3
TO 3
State 3
ib@@ 3
idi 3
Ili@@ 3
Sou@@ 3
Propaganda 3
ees 3
Ram@@ 3
Har@@ 3
yũlũlũko 3
ge 3
ritre@@ 3
Yel@@ 3
Skalecki 3
talo 3
aiti 3
Tur@@ 3
Yeong 3
Sug 3
ves@@ 2
Ind@@ 2
Jo@@ 2
Am 2
Tatt@@ 2
ann@@ 2
ut 2
Nile 2
Matthe@@ 2
ws 2
sake 2
Caleb 2
uba 2
kĩthe@@ 2
General 2
ev 2
Sl@@ 2
Tri@@ 2
umph@@ 2
ths 2
Lev@@ 2
hai 2
Et@@ 2
Faith 2
Beli@@ 2
sp@@ 2
qu@@ 2
ple@@ 2
thay@@ 2
avanw’a 2
dark 2
mer 2
ute 2
ovi@@ 2
109 2
Youth 2
dra@@ 2
nĩwathayũũk@@ 2
utch 2
ndin@@ 2
Jac@@ 2
maind@@ 2
multiple 2
cler@@ 2
osis 2
indi@@ 2
unt 2
Max@@ 2
Baptist 2
ũvĩta 2
Timothy 2
ans 2
à 2
amũkĩaa 2
ileati 2
bit@@ 2
Up@@ 2
ongi 2
ants 2
unda 2
ver@@ 2
bs 2
kĩthoko@@ 2
mind@@ 2
AND 2
ey 2
Kul@@ 2
syokee 2
All@@ 2
Co@@ 2
indĩl@@ 2
kwĩkwat@@ 2
cl@@ 2
edia 2
Ecclesi@@ 2
tical 2
asung@@ 2
Rom@@ 2
sad@@ 2
ũkũman@@ 2
ATI@@ 2
orah 2
any’@@ 2
mwĩs@@ 2
sun@@ 2
wĩĩte 2
ust 2
Se@@ 2
oul 2
fur@@ 2
123 2
disc@@ 2
í@@ 2
pe 2
Ezekiel 2
CO@@ 2
lottery 2
Franc@@ 2
ilee 2
ils 2
tele@@ 2
grap@@ 2
etangana 2
ace 2
mis@@ 2
bog@@ 2
bo@@ 2
bu@@ 2
Free 2
alls 2
kũnde@@ 2
ew@@ 2
tor 2
ill 2
Cher@@ 2
Testament 2
CC@@ 2
DO 2
NOT 2
androy 2
gan@@ 2
umwanĩ 2
Wis@@ 2
syaseũv@@ 2
manyĩo 2
ĩlanĩ 2
KAT@@ 2
he 2
Gos@@ 2
zone 2
servant 2
ĩvangĩte 2
ef 2
ru@@ 2
Stu@@ 2
ricane 2
andy 2
AD@@ 2
Nov@@ 2
esti@@ 2
ũsũ 2
Dec@@ 2
ence 2
Rud@@ 2
Do@@ 2
129 2
Antio@@ 2
chus 2
ulũĩle 2
Ĩth@@ 2
dis@@ 2
ulak@@ 2
Simon 2
Zeal@@ 2
de@@ 2
angĩĩi 2
twe 2
influ@@ 2
tethyo 2
ao@@ 2
ũki 2
ites 2
Pos@@ 2
ĩkanĩ 2
den@@ 2
ef@@ 2
old 2
Psal@@ 2
II 2
thees@@ 2
IM@@ 2
House 2
Pent@@ 2
uch 2
88 2
Corruption 2
der 2
oloo@@ 2
ĩĩs@@ 2
ĨTE 2
ologist 2
Kai@@ 2
kunĩkĩli 2
ron@@ 2
ilioni 2
endee@@ 2
Let 2
Be 2
mi@@ 2
emane 2
War@@ 2
ur 2
isanĩ 2
yao 2
brick 2
Out@@ 2
line 2
tents 2
solation 2
uk 2
Bl@@ 2
anĩo 2
ire 2
MBIVI@@ 2
OF 2
FI@@ 2
ES 2
kaĩ@@ 2
Associ@@ 2
estry 2
mou@@ 2
thayũũk@@ 2
id 2
an’@@ 2
Ben 2
rer 2
una@@ 2
Ul@@ 2
pi@@ 2
yũlũl@@ 2
BIBLE 2
sumbĩ 2
ack@@ 2
Early 2
Christianity 2
neet@@ 2
ear@@ 2
umanu 2
out@@ 2
ij@@ 2
Gospel 2
According 2
tius 2
Hen@@ 2
eleele 2
Arab@@ 2
Appendix 2
depression 2
ys 2
Jan 2
logy 2
125 2
LILIK@@ 2
’o 2
tuberculosis 2
bon 2
isia 2
blast 2
ster@@ 2
dam 2
Gideon 2
tũsya@@ 2
itage 2
ONYA 2
thayũũkyo 2
ũvana 2
Ru@@ 2
social 2
ids 2
ks 2
Mũthengee@@ 2
vis@@ 2
Times 2
PH@@ 2
pool 2
aleanile 2
ene@@ 2
ũmĩt@@ 2
odo@@ 2
Ros@@ 2
Levit@@ 2
Is 2
akel@@ 2
anian 2
chemis@@ 2
try 2
uli 2
Rome 2
nyambũ 2
own 2
thĩanu 2
he@@ 2
New@@ 2
Nis@@ 2
more 2
Ash@@ 2
Cent@@ 2
ius 2
zar@@ 2
British 2
Mus@@ 2
eum 2
et 2
So@@ 2
tũmĩawa 2
etinĩ 2
TIMO@@ 2
aimu 2
lat@@ 2
Grandpa 2
isp@@ 2
ani@@ 2
atavĩtĩte 2
Pen@@ 2
ous 2
qui@@ 2
ewanĩ 2
ilikal@@ 2
ada 2
azi 2
Hosp@@ 2
manyĩthya 2
yi@@ 2
aĩthe 2
tas@@ 2
anyivaa 2
Ũmũ@@ 2
ance 2
ה 2
soul 2
sic@@ 2
rit@@ 2
temb@@ 2
ky 2
meo 2
CH@@ 2
lack 2
yg@@ 2
ô@@ 2
Fri@@ 2
Sarah 2
angũl@@ 2
rine 2
cere@@ 2
pal@@ 2
ly 2
edonia 2
gi@@ 2
ũngũl@@ 2
ps 2
’yo 2
Bas@@ 2
ash@@ 2
King@@ 2
vous 2
per 2
Tong@@ 2
ongoi 2
iver@@ 2
worth 2
thayũũkiw’e 2
kũkit@@ 2
apping 2
Tac@@ 2
lob@@ 2
Thay@@ 2
ul 2
elines 2
Battle 2
hu 2
Des@@ 2
Char@@ 2
itable 2
anning 2
Benefit 2
Service 2
Worldwide 2
otiĩtwe 2
akĩ 2
ndale 2
Divine 2
Name 2
Hebrew 2
ony 2
Ş@@ 2
orb@@ 2
yĩtwa 2
Bru@@ 2
un 2
NDETE 2
ating 2
Pro@@ 2
ha@@ 2
Trinity 2
Tit@@ 2
anic 2
pic 2
mbũ 2
tre@@ 2
van@@ 2
ologists 2
cot@@ 2
WHO 2
ivili@@ 2
anc@@ 2
kar@@ 2
Sak@@ 2
DE@@ 2
Theocratic 2
gor@@ 2
mũkwat@@ 2
ju@@ 2
evelania 2
any 2
eh@@ 2
August 2
eeny@@ 2
pope 2
ograp@@ 2
Science 2
oyae 2
Organiz@@ 2
ty 2
engee@@ 2
Ful@@ 2
Ab@@ 2
ens 2
Sp@@ 2
nĩtwĩtĩkĩl@@ 2
arm 2
ENYA 2
ology 2
Andrew 2
nal 2
else@@ 2
ist@@ 2
pension 2
hard 2
thĩo 2
Syd@@ 2
ocr@@ 2
onekana 2
ithathi 2
PO@@ 2
leti@@ 2
Ju@@ 2
nĩsyok@@ 2
Nep@@ 2
rent 2
Sk@@ 2
inner 2
endu 2
ovo 2
nĩtũvĩt@@ 2
enti@@ 2
ury 2
ũni 2
Old 2
ingi@@ 2
pro@@ 2
199@@ 2
U.S 2
wart 2
iliv@@ 2
Sim@@ 2
itiinĩ 2
gu@@ 2
Kathar@@ 2
uĩ 2
reg@@ 2
een 2
tic@@ 2
hard@@ 2
uck 2
all 2
enter 2
ĩkĩlile 2
Mon@@ 2
ough 2
ates 2
ilĩk@@ 2
wis@@ 2
WO@@ 2
Sai@@ 2
atinĩ 2
Mer@@ 2
ten 2
mar@@ 2
mũsa@@ 2
esh 2
Fili@@ 2
pin@@ 2
ũkũthi 2
say@@ 2
ũmina 2
abu 2
hes@@ 2
THAY@@ 2
Mir@@ 2
let@@ 2
galaxies 2
ĩsyonĩ 2
Bro@@ 2
gg@@ 2
m 2
ĩkom@@ 2
Eas@@ 2
Fijian 2
Gab@@ 2
ĩlĩlwa 2
Ad@@ 2
ang 2
vaku@@ 2
kw’ĩĩwe 2
wende@@ 2
esyo 2
war@@ 2
Lor@@ 2
raine 2
ive 2
ude 2
aalaa 2
ble 2
ĨTU 2
theo 2
amp 2
Mac@@ 2
mill@@ 2
Christ 2
Kit@@ 2
key 2
Ear@@ 2
mũsyĩ@@ 2
tho 2
waano 2
Day 2
ĩtat@@ 2
ers 2
ber 2
sunam@@ 2
sumbĩkĩtwe 2
ANĨO 2
clust@@ 2
å@@ 2
ish 2
ilaeli 2
ilĩkang@@ 2
enber@@ 1
uso 1
Jerusalem 1
day’s 1
utĩa 1
ON 1
centuri@@ 1
esis 1
ũthũ@@ 1
Bud@@ 1
etown 1
alia 1
agu@@ 1
sumbĩkwa 1
ĨTYE 1
tel 1
kamw@@ 1
eba 1
asl@@ 1
king@@ 1
lod@@ 1
ba@@ 1
j 1
Han@@ 1
wick@@ 1
enh@@ 1
ounds 1
Je@@ 1
esenĩ 1
Far 1
ars 1
Congreg@@ 1
ations 1
Their 1
ners 1
Veng@@ 1
gy 1
maj@@ 1
ther@@ 1
matter 1
energy 1
faith 1
RI@@ 1
cel@@ 1
ako 1
Lou@@ 1
cas@@ 1
tle 1
Things 1
Jacob@@ 1
Gover@@ 1
nor 1
uvĩ 1
atise 1
bank 1
accounts 1
kĩthim@@ 1
Bank 1
counts 1
Lam@@ 1
forbidden 1
book 1
row 1
water@@ 1
sli@@ 1
Where 1
Are 1
Nad@@ 1
age@@ 1
Earth 1
sea 1
ĩthwa 1
dex 1
ature 1
ingitho 1
atĩlĩlyo 1
wango 1
ores 1
ape 1
olake 1
ungunĩ 1
ennial 1
ó@@ 1
ũkiak@@ 1
ATE 1
hidi 1
ndem@@ 1
Pi@@ 1
eter@@ 1
marit@@ 1
Witness 1
When 1
Rul@@ 1
maendee@@ 1
isc@@ 1
anakavya 1
bit 1
mĩno@@ 1
Ir@@ 1
wumĩl@@ 1
law 1
ning 1
VINDA 1
ood@@ 1
gs 1
ular 1
dy@@ 1
stro@@ 1
PA@@ 1
liv@@ 1
erg 1
cell 1
memb@@ 1
yl 1
mud 1
won 1
Mũsya@@ 1
once 1
con@@ 1
sin 1
EE 1
over 1
kyũmban@@ 1
hen 1
ste@@ 1
lie 1
Vul@@ 1
fin@@ 1
17.@@ 1
Aar@@ 1
á 1
bod@@ 1
Jai@@ 1
Inde@@ 1
anguage 1
tronic 1
Publ@@ 1
ishing 1
inak@@ 1
xing 1
advertise 1
ird 1
Religion 1
ics 1
formation 1
pop@@ 1
ze@@ 1
amini 1
mia 1
cer@@ 1
fund@@ 1
Uli@@ 1
ore@@ 1
bish@@ 1
ised 1
sat@@ 1
ition@@ 1
kwĩling@@ 1
state 1
ĩlonĩ 1
ping 1
yĩkav@@ 1
ONE 1
ulun@@ 1
ram 1
Oc@@ 1
tar@@ 1
den 1
bud@@ 1
Samaritan 1
nel 1
Conv@@ 1
ention 1
ainst 1
alf 1
Dis@@ 1
abled 1
pounds 1
ũvĩngĩĩs@@ 1
beria 1
lin@@ 1
science 1
fic@@ 1
non@@ 1
True 1
Tim@@ 1
saw 1
utter 1
ngũmb@@ 1
ild@@ 1
oini 1
vol@@ 1
Ap@@ 1
PR@@ 1
IMA@@ 1
HO@@ 1
UR@@ 1
ING 1
THRE@@ 1
TUR@@ 1
ENT 1
ensive 1
care 1
ch 1
Philip 1
ow 1
ix 1
zi@@ 1
pho@@ 1
KĨ 1
’s 1
lice 1
Islands 1
sus 1
IT 1
del@@ 1
Ko@@ 1
des@@ 1
undu@@ 1
NO@@ 1
TH 1
BB@@ 1
grounds 1
well 1
cre@@ 1
ital@@ 1
Prot@@ 1
ection 1
ety 1
covered 1
Kũtũng@@ 1
Hung@@ 1
arian 1
MAR@@ 1
pe@@ 1
az 1
ering 1
Eno@@ 1
fell 1
Aust@@ 1
vev@@ 1
ĩsyanĩ 1
stu@@ 1
Fl@@ 1
Shul@@ 1
ung 1
illi@@ 1
Joseph@@ 1
fi@@ 1
lead 1
ran@@ 1
por@@ 1
abeth 1
Aval@@ 1
ost@@ 1
akati@@ 1
Hi@@ 1
barley 1
elibacy 1
Relig@@ 1
ious 1
itions 1
Vol@@ 1
gl@@ 1
site 1
WĨTHĨ@@ 1
manĩ 1
chi@@ 1
pel@@ 1
Caribbe@@ 1
had@@ 1
har@@ 1
Sign 1
ouse 1
spar@@ 1
ency 1
unguny@@ 1
studies 1
yr@@ 1
pur@@ 1
ple 1
ï@@ 1
tac@@ 1
mũũnd@@ 1
EN 1
Encyclop@@ 1
you 1
rob@@ 1
kũ 1
lac@@ 1
ilikalĩnĩ 1
ario 1
© 1
evithanĩtye 1
Exodus 1
far@@ 1
God’s 1
Love 1
domin@@ 1
kũĩs@@ 1
ock 1
bach 1
er’s 1
ĩkatĩ 1
Samu@@ 1
LĨ@@ 1
SUMB@@ 1
ins@@ 1
on’s 1
los@@ 1
sary 1
Terms 1
itonyeka 1
Ũvu@@ 1
ç@@ 1
Ũseũv@@ 1
ũsũv@@ 1
yĩkan@@ 1
ran 1
ĩĩei 1
mbe@@ 1
manuscripts 1
pic@@ 1
mũaan@@ 1
ists 1
Tob@@ 1
acco 1
ũlyo 1
ombok@@ 1
FROM 1
OUR 1
UD@@ 1
My@@ 1
inger 1
ris 1
SE 1
service 1
convention 1
Hannah 1
isol@@ 1
kĩneng@@ 1
got 1
Nure@@ 1
star 1
SŨANĨA 1
É 1
ous@@ 1
ekinolongy@@ 1
ond 1
Titus 1
ained 1
tun@@ 1
inakoke 1
Shi@@ 1
rocks 1
iss@@ 1
sh 1
Ez@@ 1
car 1
ments 1
ren 1
pression 1
ema@@ 1
ck 1
ital 1
eni@@ 1
eld 1
polit@@ 1
ater 1
anthatũ 1
ĩkĩĩthw’a 1
Pac@@ 1
nei@@ 1
form 1
tab@@ 1
lets 1
evel@@ 1
kyavi@@ 1
mayor 1
oph@@ 1
Young 1
People 1
Ask 1
What 1
Will 1
Do 1
My 1
ny 1
Pan@@ 1
thers 1
è 1
lot 1
JE@@ 1
bishop 1
aũki 1
maee@@ 1
W’Ũ 1
gent@@ 1
Austral@@ 1
Zamb@@ 1
ales 1
anni 1
Examin@@ 1
des 1
maitha 1
Den@@ 1
ise 1
ukw’a 1
eball 1
î@@ 1
Tok@@ 1
elemil@@ 1
of@@ 1
mũnya@@ 1
ox@@ 1
ds 1
ok 1
flat@@ 1
bed 1
churches 1
live 1
black 1
curr@@ 1
Awake 1
wanda 1
י@@ 1
ו@@ 1
fir@@ 1
Second 1
ough@@ 1
April 1
ex@@ 1
icle 1
ext@@ 1
illion 1
olong@@ 1
Vas@@ 1
symp@@ 1
athetic 1
nervous 1
system 1
Mwe@@ 1
:@@ 1
Brit@@ 1
Dar@@ 1
cent 1
board 1
ı@@ 1
ş 1
Government 1
navig@@ 1
ator 1
Jos@@ 1
Eng@@ 1
atic 1
Minor 1
northwest 1
ongwe 1
mbiwe 1
enganwe 1
Contin@@ 1
gres@@ 1
sive 1
theesyo 1
Raising 1
responsible 1
children 1
▸ 1
Halls 1
hel 1
trad@@ 1
ize 1
ulami 1
atanĩ 1
Ple@@ 1
ancy 1
undo 1
Gabri@@ 1
sou@@ 1
ards 1
ghts 1
BE@@ 1
’S 1
oce@@ 1
ica 1
pr@@ 1
olom@@ 1
Joh@@ 1
strong 1
fil@@ 1
ters 1
thĩni 1
Enoch 1
loo@@ 1
ũmbanĩtye 1
enor@@ 1
chy 1
aten 1
somonĩ 1
rius 1
oli@@ 1
enne 1
din@@ 1
S.@@ 1
TION 1
CE 1
JO@@ 1
Dani@@ 1
cou@@ 1
env@@ 1
sci@@ 1
national@@ 1
w’ano 1
umbĩki 1
kalyei 1
kwend@@ 1
Scientists 1
To 1
Whom 1
Work 1
En@@ 1
trusted 1
sc@@ 1
ock@@ 1
lel 1
usũs@@ 1
ism 1
dy 1
Sand@@ 1
Smal@@ 1
ley 1
Queen 1
wĩu 1
circ@@ 1
numb@@ 1
tee 1
add@@ 1
ming 1
aling 1
se’s 1
Heart 1
nec@@ 1
urt 1
kwĩan@@ 1
Ital@@ 1
soon 1
eela 1
ift 1
Christ@@ 1
Jewish 1
ida 1
cor@@ 1
heart 1
disease 1
aint 1
omi 1
Mbal@@ 1
Pri@@ 1
y’s 1
Increase 1
Chris@@ 1
Sud@@ 1
Ly@@ 1
Kwo@@ 1
co@@ 1
nocent 1
ANCE 1
Sus@@ 1
unc@@ 1
link 1
step 1
kĩmbi@@ 1
dh@@ 1
appendix 1
Str@@ 1
tal 1
Our 1
uscrip@@ 1
ra@@ 1
rule 1
oasi 1
ells 1
real 1
yawanĩ 1
surance 1
field 1
ster 1
ector 1
sk@@ 1
tur@@ 1
fal@@ 1
Spr@@ 1
iĩwe 1
Cali@@ 1
ver 1
calcul@@ 1
ink 1
ost 1
ances 1
AS 1
TER 1
ast@@ 1
air 1
err 1
brain 1
say 1
atĩĩi 1
Dav@@ 1
ies 1
ames 1
ford 1
Educ@@ 1
IST@@ 1
ER 1
GH@@ 1
Tru@@ 1
economic 1
thly 1
bor@@ 1
Dic@@ 1
Sc@@ 1
ungũ@@ 1
EV 1
onic 1
tin 1
Rama@@ 1
union 1
tin@@ 1
ĨTHĨ@@ 1
Coun@@ 1
dr@@ 1
uke 1
imanĩ 1
Jar@@ 1
Soci@@ 1
Rep@@ 1
lic@@ 1
nest 1
Lab@@ 1
our 1
Jesus 1
His 1
bro@@ 1
wn 1
theast 1
asion 1
colum@@ 1
ns 1
world 1
powers 1
cin@@ 1
ises 1
lips 1
apples 1
ú@@ 1
Fam@@ 1
res 1
cafeteria 1
entr@@ 1
mit@@ 1
GE 1
AN 1
will@@ 1
trust@@ 1
Third 1
ich 1
servants 1
Anth@@ 1
Abigail 1
Tab@@ 1
ernacle 1
joy@@ 1
stick 1
leather 1
Pau@@ 1
emet@@ 1
ery 1
reek 1
via 1
smal@@ 1
Emperor 1
kind@@ 1
Solomon 1
Sunday 1
can 1
itt@@ 1
col@@ 1
pit@@ 1
itary 1
tric@@ 1
ider 1
acqu@@ 1
ew 1
Res@@ 1
earch 1
fri@@ 1
ff 1
yone@@ 1
Freder@@ 1
Protest@@ 1
dancing 1
kin@@ 1
rec@@ 1
fu@@ 1
ingĩvĩsye 1
MAN 1
RE@@ 1
PUBLI@@ 1
anisanĩ 1
neg@@ 1
em 1
uela 1
kũkũnz@@ 1
March 1
mater@@ 1
Ü@@ 1
Mount 1
Ever@@ 1
Rich@@ 1
Sing@@ 1
sĩla 1
Mid@@ 1
High 1
Com@@ 1
mission@@ 1
fug@@ 1
anti@@ 1
Near 1
Q@@ 1
ethi@@ 1
Maure@@ 1
pper 1
dies 1
ech@@ 1
ph 1
eff@@ 1
ical 1
him 1
emi@@ 1
Comfort 1
acy 1
TEND@@ 1
Chr@@ 1
ys@@ 1
tom 1
lu@@ 1
stor@@ 1
PI@@ 1
Galilee 1
For@@ 1
Babylon’s 1
sion@@ 1
e’s 1
Ex@@ 1
posit@@ 1
Words 1
hy 1
Does 1
Not 1
Stand 1
hold 1
eb@@ 1
& 1
SU@@ 1
wr@@ 1
inangi 1
gas 1
IB@@ 1
tina 1
ambi@@ 1
,0@@ 1
thĩthya 1
planet 1
ulũ@@ 1
hand@@ 1
endela 1
umaita 1
mor@@ 1
UMĨTE 1
Hay@@ 1
nĩkĩli 1
First 1
walimũ 1
John@@ 1
Ric@@ 1
Z 1
Ó@@ 1
AR@@ 1
str@@ 1
onom@@ 1
COUN@@ 1
CI@@ 1
Martha 1
inter@@ 1
clock 1
Mp@@ 1
maso@@ 1
ndu@@ 1
Father 1
estiv@@ 1
thayũũ@@ 1
Department 1
Justice 1
Gospels 1
rose 1
kany@@ 1
antic 1
Mũmin@@ 1
iau 1
Cla@@ 1
yimb@@ 1
ban@@ 1
oyanĩ 1
oki 1
Fij@@ 1
ians 1
bel 1
whis@@ 1
mary 1
ls 1
abor@@ 1
Swa@@ 1
ival@@ 1
com@@ 1
own@@ 1
fun@@ 1
yana 1
iva@@ 1
kũele@@ 1
GI@@ 1
gold 1
Wall@@ 1
auti@@ 1
ess@@ 1
wit@@ 1
super@@ 1
hib@@ 1
eso 1
cul@@ 1
moral 1
values 1
felt 1
yetĩk@@ 1
spap@@ 1
ũinĩ 1
Mul@@ 1
house 1
MW@@ 1
Lord 1
ord 1
olf 1
tong@@ 1
ather 1
phesh 1
psy@@ 1
ĩlyo 1
Happiness 1
Wisdom 1
ach 1
ũkũmi 1
Vond@@ 1
erc@@ 1
cal@@ 1
prin@@ 1
zz@@ 1
Mediterranean 1
Oce@@ 1
hon@@ 1
deb@@ 1
cards 1
allow@@ 1
kũmi 1
media 1
Lik@@ 1
thĩnĩ 1
nine 1
okol@@ 1
Yav@@ 1
yimbyo 1
cam@@ 1
ation’s 1
mari@@ 1
company 1
iota 1
onyethasya 1
▲ 1
cop@@ 1
ʽ@@ 1
lam@@ 1
Your 1
tified 1
ainia 1
ó 1
addic@@ 1
Every@@ 1
day 1
Writing 1
ron 1
soci@@ 1
Universal 1
AH 1
ĩse 1
thern 1
ngĩ 1
hur@@ 1
ank 1
pre@@ 1
ter’s 1
court 1
Philipp@@ 1
kw’@@ 1
elike 1
ing’o 1
atika 1
thĩna@@ 1
eal@@ 1
ams 1
Ze@@ 1
Ec@@ 1
ador 1
ura 1
