, 810673
. 791890
na 587304
ya 551880
wa 437763
kwa 275289
ku@@ 231488
wa@@ 173369
katika 169181
u@@ 157001
“ 152278
” 148728
kuwa 143291
za 137343
m@@ 133033
: 131844
ma@@ 129777
la 126046
kwamba 124895
M@@ 114894
? 109430
ali@@ 108673
hu@@ 102099
ni 98984
a 93305
o 88862
Mungu 85598
Yehova 78080
i 76386
ha@@ 75709
K@@ 72704
ki@@ 70897
U@@ 69404
Kwa 69057
— 68504
p@@ 66667
watu 65999
a@@ 65034
ia 64547
wali@@ 63280
j@@ 63243
am@@ 62725
- 62716
o@@ 61957
i@@ 60385
n@@ 59682
ili 58792
tu@@ 58619
A@@ 57862
ak@@ 57112
k@@ 55815
sana 55782
cha 55341
S@@ 55118
hiyo 54090
kama 53504
at@@ 52035
; 51793
e 51580
ili@@ 51086
y@@ 51026
N@@ 49999
hivyo 49904
t@@ 49773
z@@ 49549
au 49335
v@@ 49028
in@@ 48874
zaidi 47280
H@@ 47055
an@@ 46318
as@@ 46084
wakati 44679
yake 44655
wake 44344
hivi 44298
u 44006
Biblia 43765
ana 41546
Yesu 41195
s@@ 40758
l@@ 40716
T@@ 40563
ika 40458
ar@@ 40111
ani 39867
weza 38949
it@@ 38822
kum@@ 38761
us@@ 38735
Ku@@ 37380
ta@@ 37270
kuwa@@ 37184
un@@ 37132
ab@@ 37021
kwenye 36571
wenye 36428
W@@ 36110
um@@ 35825
f@@ 35823
hilo 35784
ik@@ 35428
sababu 35388
po@@ 35278
nini 34995
we 34990
fanya 34965
zi 34962
ka 34734
isha 34553
mambo 34345
kweli 34285
zo 34228
mb@@ 33902
e@@ 33827
wan@@ 33758
kus@@ 33643
b@@ 33631
im@@ 33628
mtu 33241
juu 33213
hi@@ 33167
is@@ 33029
! 32807
g@@ 32554
vya 32171
ini 32157
uli@@ 32131
tu 32009
) 31856
huo 31764
ua 31701
si 31441
mi@@ 30834
1 30803
fulani 30627
d@@ 30442
‘ 29770
’ 29736
kazi 29560
li@@ 29424
I@@ 29320
ali 29297
aka@@ 29024
L@@ 28728
on@@ 28715
wana@@ 28684
kufanya 28606
ad@@ 28548
J@@ 28498
( 28384
yenye 28016
Hata 27586
yo@@ 27560
wao 27483
ana@@ 27447
pia 27371
ambayo 26962
moja 26935
vi@@ 26866
eni 26572
Ni 26555
ang@@ 26376
ap@@ 26208
ona 26091
kutoka 25881
fu@@ 25827
af@@ 25778
nili@@ 25773
kup@@ 25690
mmoja 25647
miaka 25645
en@@ 25596
yo 25575
yao 25460
kuhusu 25422
al@@ 25324
ano 25319
iwa 25274
kila 25162
es@@ 25087
up@@ 25085
hali 24980
njia 24964
ji@@ 24960
E@@ 24843
ko@@ 24750
ambao 24680
Y@@ 24672
P@@ 24650
nyingi 24426
ya@@ 24316
gani 24313
ea 24184
w@@ 24169
zwa 24131
jambo 23943
ch@@ 23537
B@@ 23439
D@@ 23306
siku 23298
ut@@ 23189
2 23073
ko 23005
oni 22939
alikuwa 22933
hata 22932
wengine 22681
ikiwa 22662
pamoja 22608
Katika 22323
ing@@ 22223
hayo 22198
mat@@ 22157
kuj@@ 22140
Je 22042
Lakini 21994
ari 21988
kut@@ 21933
Wa@@ 21714
we@@ 21693
onyesha 21617
em@@ 21587
ama 21563
ele@@ 21425
ji 21198
ame@@ 21159
wote 21092
wengi 21068
pa 21068
ishi 20892
amb@@ 20701
r@@ 20648
mba 20646
jinsi 20541
C@@ 20239
vyo@@ 20203
to@@ 20178
3 20146
Ma@@ 20008
mara 19902
5 19870
moyo 19752
h@@ 19738
kit@@ 19721
:1@@ 19697
kubwa 19623
fu 19571
lakini 19540
ita@@ 19509
ka@@ 19457
if@@ 19439
wame@@ 19395
mwenye 19315
om@@ 19302
ud@@ 19082
ny@@ 19041
ung@@ 18960
il@@ 18948
yetu 18942
enda 18928
hi 18878
and@@ 18840
ishwa 18808
kuf@@ 18715
Ki@@ 18699
id@@ 18541
watoto 18519
zi@@ 18515
je 18494
sh@@ 18478
aj@@ 18473
4 18389
ina 18376
ja 18265
mwaka 18243
Mashahidi 18242
R@@ 18221
hawa@@ 17836
aka 17544
6 17526
ur@@ 17410
iri 17356
V@@ 17297
ina@@ 17293
anza 17283
8 17212
asema 17177
te@@ 17147
A 17042
wale 17018
aji 16996
Na 16900
habari 16814
ag@@ 16793
Ali@@ 16779
G@@ 16756
yote 16737
vu 16655
F@@ 16573
si@@ 16536
tuli@@ 16532
ndani 16515
jua 16381
mw@@ 16307
kuu 16286
ata@@ 16273
O@@ 16186
ema 16181
una@@ 16154
ti 16069
or@@ 16059
asi 16034
iliyo@@ 16001
Wakristo 15936
po 15921
le@@ 15908
ke@@ 15901
uni 15889
yangu 15883
wala 15707
ara 15689
wetu 15659
maisha 15641
er@@ 15634
hitaji 15536
walio@@ 15530
kwanza 15520
wat@@ 15494
ki 15338
uka 15305
sha 15260
Nili@@ 15250
huko 15201
muda 15135
aa 15060
zao 15057
wanao@@ 15056
ta 15018
ho@@ 15000
fan@@ 14987
ir@@ 14871
cho@@ 14871
ze 14868
ye@@ 14864
nchi 14757
1@@ 14723
sehemu 14692
wi 14662
familia 14653
hao 14604
9 14587
wap@@ 14518
maj@@ 14478
eleza 14462
] 14379
[ 14352
7 14319
ma 14260
awa@@ 14230
iko 14215
ju@@ 14195
inayo@@ 14176
umu 14158
huyo 14131
karibu 14115
wako 14097
cha@@ 14056
umb@@ 14031
shu@@ 14023
kawaida 13989
ib@@ 13936
ulimwengu 13906
uta@@ 13905
Paulo 13884
kim@@ 13878
che@@ 13857
nguvu 13841
huenda 13791
faa 13704
op@@ 13678
vile 13674
baada 13664
:@@ 13640
na@@ 13578
ambaye 13504
maji 13453
hizo 13432
ub@@ 13396
ajili 13386
sa@@ 13359
wata@@ 13324
pata 13278
kat@@ 13275
hisi 13268
endelea 13222
lili@@ 13124
ul@@ 13090
yako 13079
maana 13065
pokuwa 13054
oma 13049
tuna@@ 13040
hat@@ 13035
har@@ 13030
bila 13027
yeye 13012
vyo 12969
:2@@ 12936
kutu@@ 12864
husu 12861
wana 12813
kati 12805
iki@@ 12759
th@@ 12738
kuli@@ 12733
re@@ 12611
kun@@ 12609
zake 12602
mwan@@ 12562
roho 12513
abu 12512
nyingine 12501
kupata 12458
mfano 12451
wanadamu 12441
wangu 12430
walikuwa 12427
Kristo 12350
zia 12301
upendo 12246
eli 12220
weka 12164
2@@ 12137
imani 12130
kili@@ 12097
chu@@ 12069
wen@@ 12064
ita 12056
kis@@ 12056
adi 12034
chini 12012
ikia 11978
naye 11971
ala 11953
ep@@ 11943
kiroho 11941
tena 11922
lin@@ 11921
maneno 11894
4@@ 11829
kabisa 11801
kuto@@ 11778
ati 11771
zo@@ 11746
mp@@ 11712
kam@@ 11699
aliye@@ 11669
ish@@ 11644
amani 11633
sasa 11599
zili@@ 11582
Ufalme 11472
ime@@ 11456
mahali 11455
Z@@ 11420
hili 11358
isi 11324
hadi 11310
nyumba 11268
uma 11250
mwa@@ 11246
unga 11216
la@@ 11204
ungu 11186
a, 11149
ig@@ 11068
onekana 11039
leo 11038
uj@@ 11024
me@@ 11020
mengi 11019
fa@@ 10971
za@@ 10952
kutumia 10946
kuta@@ 10833
izi 10823
ba@@ 10802
amini 10798
kub@@ 10764
te 10731
tumia 10694
el@@ 10671
amu 10671
yanayo@@ 10635
hus@@ 10633
end@@ 10624
asa 10599
uzi 10574
st@@ 10463
3@@ 10456
saidia 10444
ibu 10421
apaswa 10414
I 10406
uliwa 10379
isa 10361
yaliyo@@ 10335
kuv@@ 10282
ilikuwa 10254
kuna 10254
sha@@ 10235
ti@@ 10200
uk@@ 10187
isho 10156
ito@@ 10147
mbo 10115
ile 10057
mbe 10039
nao 10023
awa 9962
kik@@ 9952
ndugu 9920
any@@ 9910
yali@@ 9893
ume 9883
ifu 9838
zote 9832
ha 9829
kufa 9795
15 9782
alisema 9776
6@@ 9774
ato@@ 9772
inge@@ 9764
mit@@ 9694
iza 9689
mwa 9648
ye 9618
shaka 9607
/ 9605
kuliko 9577
inda 9568
lazima 9556
alipo@@ 9529
aki@@ 9520
fany@@ 9460
wezi 9429
muhimu 9417
kubali 9382
iga 9373
aki 9306
bali 9294
ume@@ 9290
kia 9289
wazazi 9267
hii 9263
zima 9248
waka@@ 9235
tun@@ 9208
Watu 9202
12 9158
asi@@ 9112
5@@ 9111
umri 9085
10 9053
pe@@ 9026
i, 9015
ng@@ 8973
kutaniko 8940
19@@ 8911
kuji@@ 8907
und@@ 8855
anaye@@ 8847
mad@@ 8773
jina 8768
uliza 8757
Hivyo 8752
ulio@@ 8739
.@@ 8737
vitu 8725
pat@@ 8716
waki@@ 8700
iti 8691
zenye 8678
mwingine 8674
kud@@ 8631
itwa 8627
kana 8615
lake 8610
tum@@ 8601
ata 8600
tofauti 8583
wak@@ 8578
map@@ 8550
pekee 8529
mwisho 8510
yak@@ 8506
sik@@ 8464
mu@@ 8456
akiwa 8455
kitabu 8452
toa 8445
ao 8431
he 8410
11 8407
mbele 8389
haki 8388
ambazo 8380
kiwa 8377
kab@@ 8374
hasa 8357
tiwa 8340
akili 8312
unao@@ 8298
sema 8266
ndoa 8250
14 8225
mbalimbali 8189
ug@@ 8184
kabla 8172
Wakati 8167
Baada 8163
mimi 8154
harib@@ 8153
ge@@ 8140
dunia 8136
kujifunza 8128
jiji 8111
huu 8101
chang@@ 8058
mar@@ 8034
walio 8020
ende@@ 8006
hamu 7994
dhambi 7987
wazi 7976
of@@ 7959
taka 7951
hapo 7947
ra@@ 7945
kuja 7943
Ikiwa 7940
ri@@ 7935
ani@@ 7889
wam@@ 7886
karne 7886
mkubwa 7884
nik@@ 7871
kusema 7870
adhi 7854
ilia 7842
ambalo 7828
Bwana 7815
zinazo@@ 7799
kupitia 7782
aliwa@@ 7773
8@@ 7768
Neno 7763
Mar@@ 7758
yana@@ 7748
matatizo 7746
go@@ 7738
ie 7729
Mwan@@ 7713
zetu 7705
fuata 7695
su@@ 7684
wo@@ 7682
Ingawa 7626
to 7625
atu@@ 7625
ambia 7618
jifunza 7608
ke 7606
io 7597
di 7594
lenye 7591
nyumbani 7590
mag@@ 7587
ru@@ 7574
dha@@ 7569
mtoto 7544
ondo@@ 7534
shi@@ 7530
usi@@ 7529
ze@@ 7517
bora 7514
kuona 7513
anga@@ 7498
kiasi 7489
20 7461
gazeti 7448
mwenyewe 7422
maoni 7397
vit@@ 7394
hari 7393
Na@@ 7385
ungu@@ 7383
toka 7381
kwa@@ 7379
uhai 7375
mis@@ 7366
ac@@ 7359
furaha 7340
chakula 7335
7@@ 7318
mak@@ 7304
anda 7282
hekima 7274
mo@@ 7245
kumb@@ 7221
Kikristo 7220
13 7200
sim@@ 7199
nd@@ 7190
Kama 7187
fanywa 7172
sisi 7169
ingine 7169
cho 7164
ind@@ 7138
li 7137
eneo 7135
vizuri 7127
yale 7124
Hu@@ 7112
aina 7107
usi 7106
atia 7100
tumaini 7052
duniani 7046
apo 7035
le 7026
ikiri 7017
sab@@ 7013
damu 7011
uru 6996
ango 6988
kifo 6982
ule 6968
ga@@ 6951
zam@@ 6943
wewe 6942
kujua 6939
Baba 6938
anga 6938
ate 6927
zilizo@@ 6922
kutoa 6909
y 6897
shauri 6892
sifa 6887
ura@@ 6885
umia 6872
uki@@ 6859
hisia 6856
eng@@ 6852
hicho 6849
da 6837
ong@@ 6835
zazi 6831
ongoza 6828
baadaye 6815
he@@ 6788
In@@ 6784
mpya 6779
iriwa 6778
dini 6766
kuo@@ 6756
tumikia 6752
uwezo 6736
Huenda 6736
ingi 6731
ho 6728
do@@ 6722
kusudi 6704
Mi@@ 6685
lililo@@ 6682
wanafunzi 6668
bu 6663
sheria 6659
ambapo 6615
kitu 6610
ovu 6603
:3@@ 6603
neno 6597
0@@ 6596
mk@@ 6585
’@@ 6582
ongo 6582
Wak@@ 6567
idi 6556
kutokana 6553
kas@@ 6540
ni@@ 6535
iki 6534
ikana 6531
Pia 6530
nzuri 6483
bado 6481
zina@@ 6444
hatua 6435
199@@ 6431
was@@ 6428
hir@@ 6425
takatifu 6399
9@@ 6383
ja@@ 6377
kwenda 6375
waweza 6373
ulimwenguni 6366
kula 6366
Kisha 6359
jamii 6346
enzi 6313
ari@@ 6307
baba 6307
ikiria 6303
alia 6303
16 6288
ne 6287
azi 6286
jaribu 6282
uv@@ 6281
mwen@@ 6279
17 6273
tab@@ 6270
vita 6260
wasi@@ 6257
ange@@ 6253
iba 6249
Bila 6249
zama 6242
Basi 6235
wange@@ 6222
angu 6219
hatari 6211
esha 6209
lugha 6206
hubiri 6203
penda 6197
hai@@ 6196
do 6196
nyakati 6178
acha 6177
enga 6173
wakiwa 6151
ako 6147
isi@@ 6143
Daudi 6135
t 6118
hakika 6108
mbali 6095
yule 6086
Shetani 6086
mv@@ 6085
Israeli 6075
chukua 6074
tak@@ 6066
ane 6066
wenyewe 6047
zaji 6042
mkono 6034
milele 6022
kutia 6018
umba 6017
u, 6012
Una@@ 6010
kuishi 6007
elekea 6002
iv@@ 5985
zungumza 5981
ulia 5975
22 5969
keza 5956
0 5955
hum@@ 5931
upande 5928
ere@@ 5925
Yo@@ 5919
kosa 5914
man@@ 5909
Yohana 5904
19 5888
yat@@ 5885
ach@@ 5870
andika 5869
Mas@@ 5868
Kus@@ 5868
makala 5861
tayari 5860
arisha 5860
mama 5832
jibu 5832
18 5829
alivyo@@ 5827
sa 5824
aje 5820
mwili 5817
linalo@@ 5815
yan@@ 5806
njema 5795
ri 5790
akam@@ 5783
kumbuka 5761
Vi@@ 5759
bar@@ 5754
mt@@ 5750
kamwe 5745
mke 5743
lo@@ 5738
ro@@ 5721
kadhaa 5716
vijana 5708
Yeye 5699
kundi 5691
msaada 5688
ada 5678
ulikuwa 5674
far@@ 5673
wili 5669
zuia 5663
atu 5654
hali@@ 5653
eka 5632
siri 5627
lea 5619
ba 5612
mali@@ 5596
matokeo 5595
mafuta 5589
O 5588
huduma 5585
mbili 5578
zaliwa 5575
ic@@ 5570
an 5570
hutu@@ 5562
lia 5550
kib@@ 5547
chunguza 5546
b 5544
adili 5539
a. 5537
ath@@ 5534
se@@ 5523
kuhubiri 5515
amua 5503
Wan@@ 5490
iwe 5482
ufa@@ 5481
be@@ 5480
kale 5477
aidia 5467
Wali@@ 5453
Ha@@ 5451
wanaweza 5449
Wana@@ 5442
uri 5412
ele 5408
aribu 5400
Petro 5399
kadiri 5397
kar@@ 5395
kea 5390
ataka 5375
huru 5370
kuonyesha 5366
paswa 5342
ingia 5335
wazee 5330
ndiye 5324
asilimia 5323
tii 5323
Wat@@ 5313
weza@@ 5292
bidii 5292
Tuna@@ 5274
kul@@ 5262
Ta@@ 5262
00 5248
keo 5247
yen@@ 5244
lewa 5241
mbinguni 5241
nj@@ 5226
amba 5225
hani 5222
Ili 5222
hakuna 5219
kidogo 5216
wazo 5215
onyes@@ 5215
ale 5214
An@@ 5209
uka@@ 5203
o, 5202
afu 5172
ms@@ 5163
gu 5157
ongo@@ 5155
unaweza 5154
Zaburi 5148
idadi 5146
wanawake 5135
chache 5123
wawili 5116
uhusiano 5116
are@@ 5110
The 5107
onjwa 5102
anya 5098
pote 5095
on 5090
mas@@ 5090
ila 5087
et@@ 5071
Hilo 5063
huku 5062
una 5059
tatu 5043
kush@@ 5043
iliana 5037
msingi 5027
inaweza 5023
hes@@ 5011
nime@@ 5007
wag@@ 5005
Mathayo 5001
saa 4996
di@@ 4990
kur@@ 4983
nani 4978
adamu 4977
iliyo 4977
ibada 4975
andiko 4969
tamaa 4965
Ba@@ 4965
ev@@ 4943
yoyote 4940
baadhi 4937
dawa 4929
Marekani 4923
aliye 4920
ambua 4919
W.K 4918
kusaidia 4917
kidini 4912
afya 4906
tia 4894
mbaya 4885
hud@@ 4885
ulizi 4884
changa 4877
ira 4874
kuendelea 4874
fufu@@ 4873
elewa 4862
tumwa 4856
hakik@@ 4855
ugonjwa 4845
nchini 4843
ongezeka 4843
shangwe 4826
n 4822
chana 4821
uku 4819
halisi 4815
pewa 4812
angaza 4803
uta 4794
ifa 4794
so@@ 4792
od@@ 4787
fundisha 4783
ndege 4775
chochea 4769
ile@@ 4767
haya 4767
ima 4765
Wayahudi 4759
s 4754
usha 4745
24 4742
alim@@ 4741
ati@@ 4739
lilikuwa 4736
rahisi 4735
yame@@ 4734
mamlaka 4726
ndiyo 4723
sala 4715
sauti 4715
kilicho@@ 4712
thamini 4709
anasema 4695
tatizo 4689
wekwa 4682
21 4677
tegemea 4667
wanyama 4666
mab@@ 4661
yansi 4659
wani 4658
To@@ 4653
ol@@ 4652
fun@@ 4642
Zaidi 4630
enye 4623
mapema 4622
mwana 4619
abii 4614
Tuli@@ 4608
Mfalme 4606
basi 4603
pokea 4601
iliza 4600
mwanamke 4600
Maandiko 4594
mta@@ 4594
mbo@@ 4588
NW 4588
Bar@@ 4580
mfalme 4580
namna 4577
oja 4576
endo 4569
kui@@ 4569
wisha 4567
hanga@@ 4553
Kan@@ 4550
miwa 4550
kimwili 4540
Mtu 4539
weli 4531
zee 4528
serikali 4527
Mara 4521
ai 4520
ambavyo 4511
Mo@@ 4509
ndio 4508
,000 4506
KI@@ 4505
kin@@ 4502
isha@@ 4498
yeyote 4497
kil@@ 4488
uza 4485
Mimi 4485
ef@@ 4482
taf@@ 4482
tokea 4481
sta@@ 4480
utumishi 4478
zoea 4475
Musa 4468
mpaka 4467
fadhili 4463
wanaume 4461
kwake 4458
badala 4457
kataa 4454
ambacho 4450
ono 4445
c@@ 4440
nami 4437
hiriki 4433
habu 4428
kanuni 4426
er 4418
oko@@ 4417
hahidi 4412
hudhuria 4409
ungwa 4401
mengine 4400
mrefu 4400
omo 4400
pi 4390
haraka 4389
zani 4377
av@@ 4375
aye 4372
wanapo@@ 4368
ine@@ 4358
kupat@@ 4358
ania 4356
vili@@ 4355
eno 4350
unza 4348
vif@@ 4348
kinacho@@ 4344
Mat@@ 4344
yaliyo 4340
kulingana 4337
ma, 4337
ilioni 4333
kusoma 4332
zuri 4331
ini@@ 4328
weze@@ 4328
mg@@ 4310
ga 4306
Badala 4304
huwa@@ 4302
haku@@ 4301
kichwa 4292
kufikia 4292
aza 4291
hughuli@@ 4283
ajabu 4282
jia 4282
engo 4276
pesa 4273
yasi@@ 4265
thamani 4264
30 4264
kan@@ 4263
uko 4262
yaani 4259
kuka@@ 4258
rangi 4258
mwingi 4258
ongeza 4249
mkuu 4248
asili 4244
eza 4243
mfumo 4243
mzuri 4240
Mwana 4240
Waisraeli 4231
Si@@ 4229
eso 4229
da@@ 4227
chunguzi 4227
ingawa 4224
karibuni 4223
huwa 4222
Jambo 4222
kwan@@ 4214
Kila 4211
imu 4211
indwa 4209
unda 4205
kisha 4198
kumi 4192
huz@@ 4190
Mkristo 4189
ndivyo 4187
New 4178
mume 4178
utia 4174
ujao 4173
ebrania 4169
zamani 4166
chake 4165
mwanadamu 4157
macho 4154
tumiwa 4149
thibit@@ 4146
kumw@@ 4139
anisha 4137
ayo 4137
ham@@ 4134
Siku 4133
hisha 4132
kip@@ 4129
anaweza 4119
historia 4110
kile 4109
kazini 4107
shwa 4104
bin@@ 4100
indi 4098
kusanyiko 4091
fedha 4081
dogo 4076
yenu 4071
miongoni 4067
WA 4051
hai 4047
unge@@ 4047
Is@@ 4047
dada 4043
uf@@ 4039
azim@@ 4038
elfu 4037
Sasa 4036
shi 4036
* 4029
hukumu 4019
ukurasa 4011
dhidi 4009
watumishi 4009
mataifa 4008
chap@@ 3992
apata 3985
mikutano 3981
vun@@ 3979
vyote 3975
uda 3972
aliyekuwa 3970
kuru@@ 3970
mbia 3968
hara 3965
chi 3964
alip@@ 3956
nayo 3955
ujuzi 3948
25 3947
waliokuwa 3945
usa 3945
Ch@@ 3939
aliandika 3936
mingi 3931
rafiki 3930
esi 3921
tuki@@ 3921
tunaweza 3920
lime@@ 3909
e, 3907
uo 3904
tengene@@ 3903
of 3887
uu 3883
izwa 3882
ungua 3880
fanye 3877
maishani 3874
Isaya 3873
Kup@@ 3872
tume@@ 3871
Man@@ 3869
leta 3869
nje 3867
inga 3867
oro 3865
onya 3862
aktari 3860
atizwa 3858
sawa 3857
am 3857
ike 3852
maswali 3847
200@@ 3845
hita@@ 3845
zin@@ 3842
nit@@ 3834
tegem@@ 3833
mam@@ 3831
lina@@ 3824
umu@@ 3818
• 3817
ou@@ 3816
afiki 3816
kielelezo 3815
(@@ 3815
War@@ 3813
she 3812
kabili 3811
mabaya 3808
tangu 3806
makao 3798
ulio 3798
endeleo 3797
uhakika 3793
ishe 3791
wowote 3790
zidi 3788
andikwa 3788
kupita 3783
mli@@ 3780
mia 3774
maeneo 3773
anishwa 3773
pole 3773
dar@@ 3772
awe 3771
kuna@@ 3766
Yerusalemu 3766
arib@@ 3757
ongozi 3753
milioni 3752
udi 3749
chenye 3748
jeshi 3748
shule 3747
haribu 3737
walipo@@ 3729
zako 3723
zangu 3722
gu@@ 3721
jitahidi 3720
wali 3718
ond@@ 3714
ifanya 3714
mig@@ 3712
fikia 3711
namo 3707
iny@@ 3706
shamb@@ 3703
umbe 3703
U 3697
vibaya 3696
hizi 3692
husiana 3691
zito 3687
nafsi 3686
safiri 3685
tolewa 3681
pas@@ 3675
Kulingana 3668
itu 3668
wasio 3667
had@@ 3666
:4@@ 3666
engene@@ 3662
Mambo 3661
ziwa 3658
ndi@@ 3655
mbingu 3652
vis@@ 3651
ujumbe 3649
and 3644
itia 3643
aliyo@@ 3638
usiku 3632
pos@@ 3632
jika 3630
funzo 3624
50 3621
kuelekea 3620
in 3618
kuny@@ 3617
twa@@ 3615
kamilifu 3612
ii 3610
unguza 3610
hika 3609
ziki 3609
vip@@ 3608
iti@@ 3597
mtume 3597
asa@@ 3588
kuu@@ 3587
atimaye 3584
maanisha 3580
makubwa 3579
23 3579
kuondo@@ 3576
endwa 3572
zime@@ 3571
Bwana@@ 3571
ne@@ 3570
Kuna 3566
mapenzi 3565
AN@@ 3565
matendo 3562
zungumzia 3560
anapo@@ 3557
Mak@@ 3554
nilikuwa 3542
ababisha 3539
je@@ 3539
mali 3531
endele@@ 3525
nina@@ 3525
Ili@@ 3522
unabii 3521
Tun@@ 3518
alo 3515
zu@@ 3512
moto 3504
uc@@ 3501
mazuri 3499
es 3497
kuwapo 3495
ok@@ 3494
Mis@@ 3492
andishi 3491
gari 3489
udu 3485
uhitaji 3474
hwa 3473
safi 3472
sal@@ 3472
kuwasaidia 3471
bus@@ 3470
umisha 3468
taifa 3468
hofu 3450
ikali 3449
jitihada 3445
Ro@@ 3439
kusu@@ 3435
endezwa 3431
kipindi 3429
ed@@ 3427
tuta@@ 3426
mi 3420
nyo@@ 3419
aba 3411
hur@@ 3402
ukiwa 3402
barab@@ 3400
faida 3397
elea 3394
Me@@ 3393
tajwa 3389
undisha 3383
Mag@@ 3380
apat@@ 3374
poti 3364
ivyo 3361
marafiki 3359
yaweza 3356
emi 3356
lile 3354
hirika 3353
mu 3350
dai 3344
asiri 3343
fura@@ 3343
alipokuwa 3335
ande 3330
ika@@ 3328
ake 3317
E 3314
ith@@ 3313
mwanamume 3311
pa@@ 3310
is 3310
tokeza 3310
ris@@ 3310
Sheria 3302
kibinadamu 3301
vigumu 3299
Mwa@@ 3299
husisha 3298
uko@@ 3297
uhuru 3295
Ina@@ 3294
zoni 3293
iliyopita 3291
zim@@ 3290
shirika 3285
He@@ 3285
,@@ 3281
mafundisho 3276
kijana 3272
kiny@@ 3265
i. 3263
tukufu 3258
hidi 3251
diwa 3251
dhi@@ 3250
urahia 3247
zisi@@ 3242
mik@@ 3241
fikiria 3239
kondoo 3233
fanyakazi 3232
pili 3231
utendaji 3231
adili@@ 3229
kutana 3226
kikundi 3225
ine 3225
sia 3225
kid@@ 3219
Afrika 3213
Muumba 3209
ataka@@ 3207
kufuata 3207
hufanya 3205
ubu 3201
hiwa 3195
saf@@ 3190
refu 3182
Wakorintho 3180
linzi 3179
kuelewa 3172
□ 3170
chagua 3170
mji 3170
sura 3169
waaminifu 3166
ahadi 3162
walimu 3160
badiliko 3160
vitabu 3159
kufu@@ 3157
uaji 3155
king@@ 3154
him@@ 3153
BWANA 3152
kuacha 3149
hibiti 3143
iya 3143
amaanisha 3141
ome@@ 3139
Leo 3139
l 3137
​ 3135
zawadi 3135
liki 3134
inasema 3133
ngumu 3133
mfupi 3130
hewa 3129
Kitabu 3128
o. 3124
Ulaya 3124
Eli@@ 3120
vil@@ 3120
icha 3118
egem@@ 3111
izo 3111
angam@@ 3110
gopa 3108
timi@@ 3104
mili@@ 3103
amri 3102
pig@@ 3099
gund@@ 3096
We@@ 3094
tur@@ 3092
mip@@ 3090
iria 3090
moyoni 3089
Hiyo 3087
ikiana 3085
haya@@ 3083
sikuzote 3083
Waf@@ 3079
kom@@ 3077
kutokeza 3077
Ulimwengu 3074
Ib@@ 3070
lolote 3070
washiriki 3067
afunzi 3064
Yakobo 3061
barua 3055
bo@@ 3053
ataifa 3052
mtazamo 3052
biashara 3050
tambua 3049
kif@@ 3045
kibinafsi 3044
Baadaye 3042
LI@@ 3041
iso 3038
uadilifu 3038
angalifu 3038
sita 3037
kutimiza 3036
jana 3036
aliwa 3035
chi@@ 3033
zit@@ 3027
Wengine 3027
maskini 3025
dhabihu 3021
kulikuwa 3021
unua 3015
tembea 3014
amuzi 3014
28 3013
huri 3013
vy@@ 3010
shua 3009
jiwa 3008
tunapo@@ 3007
Luka 3006
yalikuwa 3005
hup@@ 2998
ufu 2992
poteza 2991
ongozo 2991
hariki 2989
Wao 2988
akika 2980
malaika 2980
ard@@ 2977
hapa 2975
alamu 2974
Un@@ 2974
one 2968
wo 2968
kamanifu 2964
chezo 2964
uaminifu 2964
Ufunuo 2964
Ny@@ 2963
ec@@ 2961
No@@ 2957
wezesha 2953
abudu 2953
peke 2951
zingira 2945
wany@@ 2945
mbi 2943
wawe 2937
ash@@ 2935
Ya@@ 2930
ufalme 2928
yekevu 2927
thi 2927
Timotheo 2925
futa 2924
tani 2920
waj@@ 2920
alo@@ 2918
Hakuna 2916
Ndugu 2914
hawa 2912
kuz@@ 2911
ngu@@ 2909
mny@@ 2907
wango 2907
ungo 2906
u. 2906
vid@@ 2896
40 2895
ishia 2895
kisi@@ 2894
inganisha 2890
hekal@@ 2890
uli 2890
ilo 2889
uwe 2889
jeuri 2885
heshimu 2881
kusik@@ 2878
eme@@ 2877
baraka 2876
jaa 2876
ende 2873
kwao 2869
engwa 2869
Uingereza 2868
ukosefu 2868
ora 2866
adui 2866
ishonari 2866
let@@ 2865
zile 2864
hub@@ 2864
furahia 2860
ngono 2859
ripoti 2859
kubali@@ 2858
tuba 2858
CH@@ 2857
mim@@ 2857
yes@@ 2856
onwa 2854
onyeshwa 2854
vilivyo@@ 2849
picha 2847
vinavyo@@ 2847
mav@@ 2844
ter@@ 2840
kamili 2839
heshima 2839
miezi 2838
ikio 2836
ip@@ 2834
thibitisha 2829
hema 2826
ue 2822
akis@@ 2821
ishara 2821
Nyakati 2816
endeza 2814
ilivyo@@ 2810
nara 2808
umla 2807
olojia 2806
uku@@ 2805
Tunaweza 2804
Adamu 2804
hukua 2803
kuepuka 2802
ithi 2800
fad@@ 2799
mwenzi 2798
karib@@ 2796
mka@@ 2794
irani 2791
umilia 2791
gi@@ 2791
kutafuta 2789
wambia 2784
joto 2783
kua 2783
tam@@ 2782
kutenda 2781
hal@@ 2781
ninyi 2779
uzito 2778
Matendo 2773
zea 2772
zilizo 2767
uti@@ 2766
kand@@ 2762
yu 2760
badili@@ 2759
tar@@ 2756
mwezi 2750
tembelea 2749
evile 2747
ras@@ 2746
inavyo@@ 2746
maadili 2745
jawapo 2744
oyo 2743
nafasi 2740
Ndi@@ 2736
mno 2733
Mw@@ 2732
Was@@ 2732
ena 2729
kutosha 2729
utawala 2726
Up@@ 2724
atizo 2722
ukumb@@ 2719
As@@ 2716
enea 2712
viwango 2712
maendeleo 2710
en 2709
ansa 2706
Ndiyo 2706
zoezi 2706
julikana 2706
tafuta 2705
msimam@@ 2704
binti 2704
ongezea 2700
athiri 2700
gha@@ 2699
msi@@ 2697
unapo@@ 2696
eleka 2692
katikati 2691
de@@ 2691
Ana@@ 2689
makosa 2689
lazim@@ 2689
fikira 2688
chochote 2687
zung@@ 2687
one@@ 2686
Watoto 2684
letu 2681
aya 2679
kuru 2677
ene@@ 2676
pindi 2674
jerumani 2673
abisha 2673
hasira 2673
angeweza 2672
Soma 2669
zina 2668
awali 2666
labda 2666
kuta 2664
Kigiriki 2664
mz@@ 2663
aha 2663
Mb@@ 2662
Abrahamu 2661
ge 2660
uwongo 2659
wafuasi 2654
eli@@ 2651
tes@@ 2647
tokana 2646
nim@@ 2645
kute@@ 2644
elimu 2642
rekeb@@ 2639
ama@@ 2637
▪ 2636
ukio 2636
isiyo@@ 2635
wasio@@ 2635
kwetu 2634
said@@ 2633
Al@@ 2631
kutano 2626
husema 2626
ndogo 2626
magonjwa 2625
Nini 2624
aja 2623
lo 2622
kanisa 2620
eti 2619
mahitaji 2617
kufa@@ 2616
afsi 2615
198@@ 2613
mwaminifu 2613
Sam@@ 2612
waziwazi 2612
safari 2609
gramu 2601
andaa 2599
omba 2597
Mwenyezi 2596
mwo@@ 2596
lililo 2594
liwa 2593
himi@@ 2593
halifu 2593
maini 2592
usu 2589
anzisha 2588
painia 2588
kali 2587
kodi 2587
Kwanza 2586
mdogo 2586
ghu@@ 2586
tend@@ 2581
kina 2579
vyenye 2579
karibia 2578
maumivu 2575
Mtume 2574
ifun@@ 2574
kupendeza 2572
AM@@ 2572
mikono 2572
mwenendo 2571
zungumzo 2569
min@@ 2567
uamuzi 2567
sahihi 2565
mo 2564
hif@@ 2564
His@@ 2562
chan@@ 2561
san@@ 2544
igo 2544
dia 2529
uwe@@ 2523
ia, 2515
iwa@@ 2505
26 2504
anat@@ 2497
29 2496
La@@ 2494
vic@@ 2492
fur@@ 2491
d 2472
And@@ 2456
PSA@@ 2456
zing@@ 2444
lis@@ 2441
UN@@ 2438
tr@@ 2438
elezo 2430
h 2428
0,000 2427
ito 2420
atifu 2418
inyi 2418
chungu@@ 2416
hili@@ 2413
ale@@ 2407
Bab@@ 2406
falme 2396
27 2392
al 2391
inia 2389
kina@@ 2389
ore@@ 2384
AT@@ 2382
sam@@ 2381
33 2378
nia 2377
angu@@ 2375
Ga@@ 2373
k 2371
Ne@@ 2367
amba@@ 2367
us 2360
wi@@ 2349
zeti 2345
ikir@@ 2344
Se@@ 2343
En@@ 2334
18@@ 2324
Ar@@ 2321
che 2313
ato 2310
shiriki 2308
her@@ 2307
mil@@ 2306
Wal@@ 2305
sp@@ 2299
Weng@@ 2295
por@@ 2288
hemu 2286
31 2275
e. 2265
tan@@ 2261
erem@@ 2257
wis@@ 2257
UK@@ 2247
anz@@ 2244
pi@@ 2242
the 2235
Dani@@ 2233
tumishi 2231
EZ@@ 2209
pend@@ 2208
sis@@ 2205
kad@@ 2192
emb@@ 2187
IN@@ 2184
ida 2183
SA@@ 2180
Mu@@ 2171
eria 2164
hana 2162
onge@@ 2161
ob@@ 2155
juli@@ 2153
pro@@ 2150
icha@@ 2143
Kat@@ 2143
Beth@@ 2138
chwa 2138
des@@ 2137
ilifu 2133
g 2132
Am@@ 2124
husi@@ 2121
ambo 2118
sig@@ 2117
kutan@@ 2117
au@@ 2114
aswa 2112
sib@@ 2112
usal@@ 2111
kusany@@ 2089
tim@@ 2087
Mal@@ 2085
uke 2078
insi 2068
angali@@ 2066
baya 2056
eshi 2053
r 2049
itu@@ 2034
el 2033
m 2029
ingereza 2025
194@@ 2020
ush@@ 2017
fi@@ 2017
Sa@@ 2013
amin@@ 2010
umo 2007
hab@@ 2005
Hal@@ 2005
ten@@ 1985
tor@@ 1983
Bo@@ 1982
60 1980
sil@@ 1968
aburi 1960
York 1960
70 1959
shang@@ 1952
has@@ 1952
Ho@@ 1949
32 1946
wal@@ 1944
poli@@ 1933
:5@@ 1931
JO@@ 1929
go 1926
yewe 1914
So@@ 1914
timiza 1913
S 1910
ust@@ 1907
35 1892
sin@@ 1890
sefu 1886
mach@@ 1880
ate@@ 1876
pita 1874
aul@@ 1873
Ser@@ 1873
yari 1869
ku 1868
ivu 1858
fupi 1840
ikwa 1828
Fam@@ 1821
Po@@ 1820
jam@@ 1818
evu 1813
Australia 1812
kawa@@ 1811
iriki 1796
yahudi 1789
Amer@@ 1779
mir@@ 1779
Har@@ 1778
zungum@@ 1775
uti 1773
c 1767
himu 1767
ch 1755
fund@@ 1753
telev@@ 1745
Ab@@ 1742
the@@ 1739
itahidi 1730
ashara 1729
pes@@ 1728
sul@@ 1723
Re@@ 1723
chag@@ 1711
haa 1705
simam@@ 1694
gem@@ 1690
Ye@@ 1690
ongeze@@ 1685
sub@@ 1678
idia 1670
37 1646
AR@@ 1644
RO@@ 1643
hospit@@ 1632
ek@@ 1624
olo@@ 1622
GEN@@ 1618
pe 1617
parad@@ 1616
Sh@@ 1610
EN@@ 1606
mal@@ 1605
no@@ 1596
Im@@ 1594
ndo@@ 1584
ogo 1583
lif@@ 1582
ome 1581
Uli@@ 1575
Ind@@ 1570
siku@@ 1569
14@@ 1564
bid@@ 1559
bad@@ 1558
34 1554
10@@ 1553
Jap@@ 1552
amp@@ 1551
20@@ 1551
:6@@ 1546
she@@ 1542
ful@@ 1535
Je@@ 1533
Tr@@ 1525
hu 1523
Her@@ 1521
tuku@@ 1508
Pro@@ 1507
bur@@ 1504
uni@@ 1498
-@@ 1492
kwen@@ 1488
de 1460
Tim@@ 1453
:7@@ 1449
Ra@@ 1447
․ 1447
as 1442
kumu 1438
MAT@@ 1436
bu@@ 1434
'@@ 1429
195@@ 1427
15@@ 1414
ugu 1412
me 1411
kristo 1407
fal@@ 1401
gra@@ 1399
ISA@@ 1398
w 1397
1,@@ 1397
Israeli@@ 1394
100 1391
wenye@@ 1391
Ge@@ 1388
Jan@@ 1386
UM@@ 1379
pr@@ 1378
hor@@ 1374
JER@@ 1370
mf@@ 1369
sea 1361
fir@@ 1360
fundisho 1360
jo@@ 1360
John 1359
z 1357
Bra@@ 1352
gop@@ 1349
Sep@@ 1348
keb@@ 1346
div@@ 1340
Bible 1335
EV@@ 1331
ar 1328
Jo@@ 1328
Af@@ 1318
Fr@@ 1314
shir@@ 1312
tal@@ 1310
et 1307
ame 1306
or 1304
son 1295
ingana 1295
Parad@@ 1293
197@@ 1293
husiano 1291
oto 1287
hiv@@ 1279
NUM@@ 1278
epuka 1276
Br@@ 1275
co@@ 1274
kurasa 1266
mata@@ 1265
Bad@@ 1249
Lo@@ 1246
EX@@ 1246
for@@ 1245
adilifu 1240
thel@@ 1240
Society 1235
exic@@ 1235
M 1232
Le@@ 1225
habihu 1225
Sim@@ 1225
pop@@ 1218
hia 1214
ber@@ 1214
lit@@ 1212
fauti 1209
kee 1202
vir@@ 1197
afun@@ 1195
DE@@ 1172
lote 1163
·@@ 1162
tari 1156
th 1154
Jam@@ 1147
sid@@ 1146
D 1145
C 1141
_@@ 1138
Hi@@ 1137
Kik@@ 1137
hib@@ 1131
ton 1131
– 1129
Go@@ 1124
land 1121
cy@@ 1119
clo@@ 1119
x 1117
● 1114
Kit@@ 1113
achi@@ 1105
x@@ 1103
ghuli@@ 1091
iani 1085
wer 1081
ve@@ 1078
Pe@@ 1076
elelezo 1076
p 1072
our@@ 1069
World 1065
fano 1058
toto 1054
apo@@ 1046
se 1043
hihi 1038
ereza 1035
Par@@ 1033
Be@@ 1032
war@@ 1031
fikir@@ 1026
ation 1023
mid@@ 1017
nde@@ 1016
ci@@ 1014
tem@@ 1010
Ulimweng@@ 1008
jwa 995
St@@ 995
um 991
pote@@ 989
kal@@ 983
okeo 980
wil@@ 975
CO@@ 971
ure 964
win@@ 949
hil@@ 941
mweng@@ 941
vib@@ 935
ity 935
zamo 934
é@@ 924
ezi 921
qu@@ 920
tas@@ 897
bi@@ 887
fe@@ 884
naf@@ 881
Fe@@ 872
Za@@ 870
temb@@ 868
man 867
ter 865
heshi@@ 858
ongoni 857
be 852
ary 848
Bro@@ 838
msa@@ 835
ent@@ 821
dang@@ 819
000 817
Fa@@ 816
ry 816
anc@@ 815
maka@@ 813
wafu@@ 809
bro@@ 808
N 805
R 804
T 791
Q@@ 791
nam@@ 785
United 785
mer@@ 783
du@@ 782
She@@ 778
pl@@ 777
eho@@ 770
J 764
ly@@ 764
ing 763
illi@@ 763
ational 759
Ad@@ 752
jawa@@ 751
tho@@ 748
Th@@ 745
ther@@ 744
ser@@ 742
fri@@ 742
ʹ@@ 735
br@@ 735
B 729
jer@@ 728
ord@@ 725
per@@ 724
amoja 724
States 720
On@@ 709
L 704
rika 700
Con@@ 696
kima 693
bab@@ 687
dr@@ 683
tin@@ 679
© 679
ite 677
uju@@ 673
lish@@ 670
Solom@@ 670
mes@@ 670
enti@@ 666
á@@ 665
ondoo 663
’s 663
V 661
í@@ 660
Da@@ 660
lev@@ 654
ong 651
akati 650
f 648
Watchtower 642
aga@@ 639
are 629
les 629
é 629
ans@@ 627
main@@ 625
laya 624
itihada 623
U.@@ 613
you@@ 611
men@@ 610
ph 607
ph@@ 605
sion 603
TH@@ 601
nif@@ 600
ers 596
vol@@ 596
im 595
James 595
emp@@ 595
ill 592
wor@@ 591
Per@@ 590
vie@@ 581
ent 579
den 577
il 576
ard 575
David 574
)@@ 572
v 570
H 568
ah 567
vig@@ 566
st 564
fo@@ 558
dha 557
tume 554
weng@@ 554
ly 552
sen@@ 552
ol 551
Or@@ 548
De@@ 548
asili@@ 547
WAN@@ 546
chote 546
tro@@ 545
ore 545
P 544
ok 544
ence 540
lar@@ 536
gr@@ 536
F 532
OR@@ 529
Yerusal@@ 528
Americ@@ 526
wez@@ 525
prof@@ 524
ife 523
ER@@ 519
tre@@ 516
Uni@@ 513
ugha 513
Su@@ 512
sel@@ 508
Paul 507
yoni 506
ts 506
orintho 506
Nd@@ 505
est@@ 501
ago 499
hand@@ 498
lik@@ 495
ed 489
akazi 488
hel@@ 488
rel@@ 486
mon@@ 478
kaz@@ 477
ily 476
ws 474
re 474
imi 473
nyumb@@ 471
ere 470
der@@ 470
hak@@ 467
bl@@ 463
Jose@@ 463
act 463
ano@@ 459
ekani 458
adu@@ 456
Joh@@ 455
ical 454
ver@@ 453
Yes@@ 453
W 452
ill@@ 450
Ke@@ 450
so 448
ist 443
mask@@ 443
mbing@@ 442
ve 440
wazi@@ 439
ice 438
ce 438
die 437
ric@@ 435
The@@ 435
hudi 434
ck 433
par@@ 432
â@@ 431
Austr@@ 430
dom@@ 429
meng@@ 428
at 427
ü@@ 425
K 424
prot@@ 420
ase 419
age 419
ire 415
Gre@@ 414
by 413
gen@@ 407
ther 404
est 402
tern@@ 402
Ger@@ 402
it 402
Dau@@ 399
Tho@@ 399
Com@@ 399
no 396
sy@@ 395
ibit@@ 394
ung 393
ide@@ 391
@@ 391
aminifu 391
ear@@ 390
sho@@ 389
aro@@ 388
kind@@ 386
G 381
Eng@@ 380
kno@@ 377
Do@@ 375
ir 374
hard 372
ad 372
akini 371
Chris@@ 370
oug@@ 369
ess@@ 368
dun@@ 368
laka 367
ell 363
ss 362
org@@ 361
ort 357
◆ 354
Peter 353
mwanam@@ 352
sing@@ 352
Jes@@ 351
anifu 351
Wais@@ 349
gl@@ 348
ven@@ 346
ld 346
mbali@@ 346
ó@@ 345
beg@@ 341
ʹ 341
ith 341
Y 340
fic@@ 340
od 338
ek 338
tion@@ 337
Kul@@ 334
ur 330
Ca@@ 329
Kig@@ 328
gy 327
æ@@ 326
sur@@ 323
ste@@ 323
yl@@ 321
ã@@ 320
Math@@ 319
las@@ 319
all 319
Sp@@ 318
ens 316
ty 313
raeli 311
ifunza 309
lic@@ 308
Ing@@ 308
Gen@@ 306
ans 305
ver 304
umani 304
umivu 302
ut 302
Yak@@ 302
fil@@ 301
ner 300
ory 298
ys@@ 298
Scriptures 295
spit@@ 294
dis@@ 291
ace 290
than 290
bas@@ 289
bel@@ 286
ham 286
way 285
Bib@@ 284
Ex@@ 284
outh 282
bor@@ 280
red 279
mor@@ 278
& 277
Wor@@ 272
wn 271
onom@@ 271
ll@@ 269
fr@@ 264
ic 264
nor@@ 263
lish 260
ö@@ 259
con@@ 254
ian 253
shar@@ 251
ikati 250
leg@@ 249
tion 248
for 245
endaji 245
ath 243
ide 243
ant 241
use 241
sla@@ 240
King 239
ps 238
ack 237
ise 236
bir@@ 236
ance 234
fer@@ 233
sk@@ 232
reg@@ 231
car@@ 229
Catholic 227
tle 227
Jud@@ 226
ishani 226
ish 225
book 225
ustr@@ 223
emu 222
cr@@ 222
suf@@ 220
abo@@ 219
_ 218
ank 218
res@@ 217
ex@@ 217
maga@@ 216
Israel 215
emo@@ 215
tom@@ 215
str@@ 212
ds 212
è@@ 211
ations 211
wongo 210
id 209
vo@@ 208
langu@@ 207
ute 206
don@@ 206
poin@@ 204
pp@@ 204
tic@@ 202
tel@@ 201
soci@@ 201
ward 200
my 200
ñ@@ 199
Whi@@ 195
res 194
ick 192
⁠ 191
ld@@ 191
ak 188
—@@ 187
oper@@ 187
funuo 186
ks 184
vel@@ 184
prop@@ 183
sto@@ 183
ast 177
ref@@ 173
/@@ 172
Jerusalem 171
ick@@ 170
tor 170
hon@@ 168
ins 168
mate 166
right 165
und 164
pur@@ 163
dam 163
enc@@ 161
Rom@@ 161
ons 161
uth 161
ls 161
Today 160
pati@@ 159
fre@@ 159
inc@@ 157
Christian 156
% 155
ars 154
ô@@ 153
hada 153
God 153
ment 153
From 153
gre@@ 152
him 151
X@@ 151
tra@@ 150
ies 150
ew 150
atur@@ 148
ot 148
dem@@ 148
Afric@@ 146
her 146
ial 146
Mwenye@@ 145
ä@@ 145
old 144
mala@@ 143
ç@@ 143
igh@@ 143
vers@@ 140
ll 140
▫ 140
ated 140
raf@@ 137
ú@@ 137
sight 136
ach 136
How 135
serv@@ 134
maye 133
Rev@@ 132
men 130
any 130
ents 129
á 129
off@@ 129
É@@ 128
ese 128
ys 128
ning 128
With 128
ł@@ 127
tures 126
wic@@ 125
inst@@ 125
can 125
ways 125
our 125
Isa@@ 124
Jehovah’s 124
Ac@@ 123
bre@@ 123
my@@ 123
lig@@ 123
kevu 123
lec@@ 123
q@@ 122
ings 122
erc@@ 122
í 122
some 122
Witnesses 122
lea@@ 121
minifu 120
ates 120
tes 120
well 120
itud@@ 119
Kingdom 119
ery 118
ting 116
low@@ 116
Christi@@ 115
Your 115
ement 115
tic 114
atis@@ 114
cl@@ 113
over 112
der 112
dies 112
pres@@ 111
some@@ 111
ous 110
ran@@ 109
→ 109
ones 109
loy@@ 109
sac@@ 107
ty@@ 107
val@@ 106
ulimweng@@ 106
em 106
eld 106
X 105
cour@@ 104
jud@@ 104
y’s 104
ture 103
sol@@ 103
ism 102
| 100
cas@@ 99
ween 99
habi@@ 99
list@@ 98
✔ 98
dren 98
◯ 97
them@@ 96
rang@@ 96
tain@@ 96
into 95
tri@@ 95
ree 95
fl@@ 95
out 94
bap@@ 94
tern 94
○ 93
People 93
fin@@ 93
Euro@@ 93
All 93
brania 93
hig@@ 91
thy 91
ters 91
uro@@ 91
ness 90
ous@@ 90
tal 90
ca@@ 89
ource 89
ature 88
j 88
oun@@ 88
Tru@@ 87
fol@@ 86
@@ 86
hudhur@@ 86
cor@@ 86
ā@@ 86
It 84
ling 84
ges 84
thr@@ 84
sel 84
spe@@ 84
wish 83
Matthew 82
memb@@ 82
ever@@ 81
obo 81
@@ 81
ten 80
ind 80
ust 80
ants 79
ition 79
tain 79
rec@@ 79
An 78
king 78
chur@@ 78
ody 77
Sat@@ 77
ess 77
lic 77
Soci@@ 76
let 76
ord 76
wr@@ 76
tro 76
ʼ@@ 75
med@@ 74
Á@@ 74
ple@@ 74
❑ 73
sum@@ 73
even 73
zawa@@ 73
line 73
ouse 72
hus 72
 72
 71
q 71
over@@ 71
iku 71
tury 71
nch@@ 70
lab@@ 70
yp@@ 70
Greek 70
ution 70
Yor@@ 69
onal 69
ë 68
col@@ 68
zine 68
chil@@ 68
ns 68
;@@ 68
day 68
ce@@ 68
 67
ê@@ 67
dic@@ 67
Abra@@ 67
out@@ 67
 66
Bec@@ 66
ms 66
dom 66
ation@@ 66
pre@@ 65
%@@ 64
ople 64
els 64
can@@ 64
ḥ@@ 64
Paul@@ 64
sup@@ 64
ince 63
Jesus 63
att@@ 63
cop@@ 63
ves 62
Is 62
fel@@ 62
dra@@ 62
fles@@ 61
Z 61
à 60
thers 60
see 60
als 60
tions 60
long@@ 59
wel@@ 59
ple 59
cal@@ 59
take 58
thor@@ 58
By 58
an’s 58
¢ 58
ities 58
famili@@ 57
pla@@ 57
semb@@ 57
­@@ 57
bec@@ 57
low 57
ight 57
had 56
saw 56
Christ 55
= 55
↓ 55
orin@@ 54
Be 54
arly 54
cent 54
com@@ 54
live 54
ally 54
Timothy 54
more 53
ground 53
zation 53
ses 53
nec@@ 53
ugh@@ 52
add@@ 52
dre@@ 52
[@@ 52
sin 52
page 52
cul@@ 52
God@@ 52
rest 52
cer@@ 51
duc@@ 51
acc@@ 51
fer 51
tiv@@ 51
ences 51
up 51
app@@ 51
Q 50
y, 50
ë@@ 50
Law 50
"@@ 50
life 49
▸ 49
aul 49
ú 49
om 48
pic@@ 48
° 48
bac@@ 48
eld@@ 48
ries 48
s. 48
On 48
inal 48
even@@ 47
Our 47
ough 47
ines 47
reli@@ 47
God’s 46
end 46
lands 46
shall 45
­ 45
" 45
ven 45
ches 45
lem 45
loc@@ 45
house 45
per 44
smo@@ 44
own 44
pra@@ 44
Eg@@ 43
inst 43
ative 43
ond 43
cro@@ 43
formation 43
ages 43
ual 42
ep 42
You 42
gg@@ 42
ering 42
Ö@@ 42
t’s 42
kibin@@ 42
iness 42
tical 41
risto 41
+ 41
Isra@@ 41
> 40
essi@@ 40
← 39
Sol@@ 39
ited 39
ists 38
very 38
® 38
jus@@ 38
head 38
less@@ 38
cla@@ 37
ef 37
œ@@ 37
situ@@ 37
stu@@ 37
left 37
try 37
able 37
č@@ 37
ces 37
set 37
Hebre@@ 36
ision 36
its 36
cen@@ 36
ving 36
ality 36
trans@@ 36
ive 36
tac@@ 36
from 36
how 35
❖ 35
Wh@@ 35
s, 35
cc@@ 34
ʽ@@ 34
formed 34
ken 34
anci@@ 34
now 34
tive 34
occ@@ 34
yes 33
ń@@ 33
cre@@ 33
ה@@ 33
What 33
ruc@@ 33
flo@@ 32
Let 32
sle@@ 32
ors 32
ft 32
side 32
rif@@ 32
ised 32
Acc@@ 32
nor 32
י@@ 32
sing 31
That 31
if 31
He 31
ה 31
C.@@ 31
kind 31
@@ 31
↑ 31
ends 31
his 30
sion@@ 30
zing 30
uals 30
ular 30
ign 30
ulation 30
peri@@ 30
ety 30
fish 30
Kwan@@ 30
' 30
■ 29
Word 29
ail@@ 29
gro@@ 29
blo@@ 29
Are 29
ו@@ 29
Jehov@@ 29
ø@@ 29
resp@@ 28
rain 28
under 28
ances 28
crip@@ 28
Can 28
plan@@ 28
imag@@ 27
rep@@ 27
pri@@ 27
thir@@ 27
ians 27
wing 27
chea 27
here 27
claim@@ 27
ible 27
ted 27
WANA 27
ult 26
We 26
̆@@ 26
like 26
say 26
cap@@ 26
produc@@ 26
beli@@ 26
sec@@ 25
dif@@ 25
ater 25
@@ 25
No 25
In 25
ever 25
with 25
water 25
inter@@ 25
ï@@ 25
@@ 25
dec@@ 25
ding 25
reas@@ 24
led@@ 24
Moses 24
Jehovah 24
ely 24
ū@@ 24
esti@@ 23
fec@@ 23
ishon@@ 23
ş@@ 23
One 23
Lord 23
nment 23
Ã@@ 23
fam@@ 23
eds 23
ved 23
ó 23
 23
cam@@ 23
ship 22
ying 22
off 22
tice 22
rom 22
iah 22
oub@@ 22
whe@@ 22
tru@@ 22
gir@@ 22
ems 22
Š@@ 22
taken 21
When 21
ð@@ 21
aries 21
õ@@ 21
tou@@ 21
fort 21
# 21
es, 21
⇩ 20
ating 20
back 20
oney 20
stor@@ 20
ht 20
ī 20
war 20
Matthe@@ 20
‘@@ 20
sage 20
Why 19
tural 19
t, 19
avo@@ 19
☞ 19
Do 19
orig@@ 19
Egyp@@ 19
work 19
arri@@ 19
bs 19
minis@@ 19
❏ 19
š@@ 19
ples 18
ject 18
Luke 18
eas@@ 18
vid 18
other 18
ease 18
born 18
light 18
My 18
ould 18
Isaiah 18
Í@@ 18
cle@@ 18
@@ 18
irc@@ 17
star@@ 17
!@@ 17
΄ 17
ough@@ 17
spir@@ 17
?@@ 17
sive 17
ques@@ 17
ciples 17
ī@@ 17
esp@@ 17
zed 17
è 17
exc@@ 17
pow@@ 16
each 16
ą@@ 16
less 16
prin@@ 16
ý@@ 16
under@@ 16
É 16
Witn@@ 16
ished 16
ä 16
‛ 16
cat@@ 16
aring 16
ned 16
@@ 16
read@@ 16
ś@@ 16
 16
Timothe@@ 15
His 15
ties 15
sons 15
ful 15
ę@@ 15
ehova 15
ï 15
Their 15
wide 15
not 15
aching 14
ž@@ 14
▼ 14
sure 14
standing 14
obe@@ 14
doc@@ 14
ging 14
LOR@@ 14
@@ 14
 14
once 14
ign@@ 14
å@@ 14
circ@@ 14
ʼ 14
cur@@ 14
To 14
ext 14
thus 14
loo@@ 13
whi@@ 13
itive 13
form@@ 13
Now 13
view 13
char@@ 13
righ@@ 13
ered 13
.K 13
thin@@ 13
ã 13
spec@@ 13
ö 13
sou@@ 13
▶ 13
verse 13
reat@@ 13
After 13
ands 13
Ł@@ 12
▿ 12
▵ 12
pain 12
Not 12
ł 12
sed 12
ă@@ 12
ods 12
led 12
strong 12
flu@@ 12
deli@@ 12
C.E 12
ehov@@ 12
ours 12
Jews 12
▾ 12
Who 12
◀ 11
⇨ 11
itions 11
]@@ 11
syst@@ 11
ø 11
comm@@ 11
comp@@ 11
bad 11
iled 11
til 11
nation 11
stre@@ 11
š 11
ked 11
à@@ 11
with@@ 11
ß@@ 11
ā 11
eve 11
Christians 11
ause 11
fore@@ 11
medi@@ 11
ý 11
far 11
Psal@@ 11
ied 11
le’s 11
adv@@ 11
ths 10
pub@@ 10
Ó@@ 10
sci@@ 10
Acts 10
Catho@@ 10
Ž@@ 10
Å 10
Ü@@ 10
get 10
fac@@ 10
ect 10
î@@ 10
has 10
&@@ 10
itn@@ 10
◇ 10
− 10
histor@@ 10
trad@@ 10
inted 10
⁄@@ 9
ined 9
wid@@ 9
change 9
tation 9
reali@@ 9
peace 9
moun@@ 9
milli@@ 9
sex@@ 9
tains 9
This 9
lished 9
ò 9
jec@@ 9
ē@@ 9
ility 9
Ż@@ 9
Ä@@ 9
ired 9
hat 9
oura@@ 9
dev@@ 9
evil 8
ements 8
ening 8
three 8
yed 8
after 8
Î@@ 8
¢@@ 8
Å@@ 8
eness 8
down 8
ü 8
greg@@ 8
form 8
’t 8
ught 8
cri@@ 8
hear@@ 8
lies 8
upon 8
ining 8
$ 8
vered 8
ments 8
forth 8
ň 8
too 8
trac@@ 8
equ@@ 8
tors 7
sma@@ 7
clas@@ 7
trib@@ 7
ù 7
@@ 7
¬@@ 7
Â@@ 7
@ 7
above 7
tell 7
earth@@ 7
religi@@ 7
thing 7
› 7
According 7
pris@@ 7
For 7
heav@@ 7
illing 7
word 7
So 7
coun@@ 7
common 7
▲ 7
\ 7
cond@@ 7
year 7
proc@@ 7
dri@@ 7
bet@@ 7
lear@@ 7
Scrip@@ 7
tant 7
Ś@@ 7
― 7
fied 6
aper 6
death 6
̩@@ 6
ices 6
ē 6
number 6
coming 6
long 6
four 6
Ç@@ 6
second 6
fore 6
appe@@ 6
time 6
At 6
̧@@ 6
cou@@ 6
Č@@ 6
č 6
ě@@ 6
uses 6
ľ@@ 6
ㅇ 6
portun@@ 6
Read 6
such 6
ǒ 6
child 6
issu@@ 6
indic@@ 6
fy 6
Son 6
truc@@ 6
mater@@ 6
tance 6
$@@ 6
close 6
night 6
Revelation 6
look 6
hope 5
@@ 5
hold 5
system 5
writ@@ 5
order 5
were 5
woman 5
ring 5
ι@@ 5
ged 5
part 5
ε@@ 5
ř@@ 5
direc@@ 5
church 5
Æ@@ 5
ż@@ 5
ㅅ 5
¡ 5
ability 5
educ@@ 5
ask 5
Á 5
two 5
@@ 5
wh@@ 5
iting 5
got 5
felt 5
ş 5
both 5
self 5
crib@@ 5
Timo@@ 5
position 5
was 5
then 5
ō 5
who@@ 5
Ḥ@@ 5
blems 5
gener@@ 5
served 5
ached 5
human 5
itude 5
Romans 5
new@@ 4
head@@ 4
come 4
keep@@ 4
adaye 4
last 4
ided 4
È@@ 4
ious 4
ards 4
◗ 4
ẹ@@ 4
ď@@ 4
Ñ@@ 4
ς 4
ν@@ 4
σ@@ 4
נ@@ 4
פ@@ 4
ש@@ 4
ׁ 4
@@@ 4
ń 4
They 4
ligh@@ 4
pose 4
turn 4
ㅗ 4
spo@@ 4
Watch@@ 4
valu@@ 4
ć 4
ㅁ 4
ㄱ 4
away 4
™ 4
ō@@ 4
home 4
ㅏ 4
➤ 4
pers@@ 4
stand@@ 4
this 4
work@@ 4
Does 4
influ@@ 4
*@@ 4
parents 4
̇@@ 4
enly 4
Ú@@ 3
ạ@@ 3
high 3
¿ 3
ident 3
ė 3
‹ 3
ing, 3
γ@@ 3
κ@@ 3
ν 3
that 3
human@@ 3
you 3
only 3
Then 3
wom@@ 3
giv@@ 3
Ô@@ 3
city 3
sear@@ 3
put 3
help@@ 3
· 3
× 3
These 3
conf@@ 3
world 3
oned 3
const@@ 3
told 3
Since 3
assig@@ 3
spirit 3
ŏ@@ 3
å 3
little 3
rema@@ 3
Those 3
pt 3
π 3
elation 3
prob@@ 3
Ş@@ 3
Satan 3
new 3
ő@@ 3
ū 3
days 3
nations 3
Father 3
ἰ@@ 3
ㅣ 3
atten@@ 3
wed 3
ḍ@@ 3
Ō@@ 3
happ@@ 3
Ø@@ 3
Ā@@ 3
idence 3
lasting 3
As 3
also 3
hand 3
young 3
table 3
million 3
While 3
Consid@@ 3
ened 3
During 3
contin@@ 3
others 3
tly 3
ß 3
ω 3
Of 3
esses 3
concer@@ 2
experi@@ 2
But 2
known 2
י 2
says 2
faith 2
alone 2
rather 2
dead 2
article 2
ẹ 2
ò@@ 2
ì 2
wise 2
ύ@@ 2
ο@@ 2
ώ@@ 2
used 2
moral 2
offic@@ 2
serve 2
stand 2
Ē@@ 2
ś 2
natur@@ 2
ž 2
children 2
against 2
`@@ 2
ㄴ 2
few 2
tower 2
cont@@ 2
great 2
full 2
Creator 2
·@@ 2
face 2
women 2
bene@@ 2
report 2
exp@@ 2
μ 2
read 2
ǔ 2
Jerusal@@ 2
mean@@ 2
̗@@ 2
☒ 2
many 2
Some 2
ְ@@ 2
ֹ 2
ṭ@@ 2
natural 2
area 2
ר@@ 2
ı@@ 2
century 2
have 2
ㄹ 2
arding 2
transl@@ 2
÷ 2
ť@@ 2
⇧ 2
provid@@ 2
service 2
body 2
ŭ@@ 2
ㅡ 2
ㅓ 2
π@@ 2
fect 2
ė@@ 2
isions 2
commun@@ 2
comple@@ 2
thous@@ 2
requ@@ 2
reading 2
disci@@ 2
but 2
ĕ@@ 2
thinking 2
#@@ 2
μ@@ 2
ṣ@@ 2
̃@@ 2
tered 2
=@@ 2
ought 2
Ω 2
works 2
û@@ 2
play 2
states 2
¥ 2
using 2
selves 2
sent 2
ţ@@ 2
Ṭ@@ 2
teach 2
̀@@ 2
ȧ@@ 2
hund@@ 2
does 2
ply 2
‐ 2
based 2
fru@@ 2
control 2
æ 2
place 2
©@@ 2
cus@@ 2
first 2
There 2
‵ 2
care 1
Ń@@ 1
„ 1
succ@@ 1
occasi@@ 1
Ọ@@ 1
ọ 1
apost@@ 1
Κ@@ 1
ρ@@ 1
Ë@@ 1
mind@@ 1
blood 1
personal 1
father 1
ḱ@@ 1
reve@@ 1
knowled@@ 1
mission@@ 1
support 1
did 1
소 1
đ@@ 1
ọ@@ 1
ched 1
liter@@ 1
➋ 1
serving 1
tting 1
they 1
ô 1
gover@@ 1
Proverbs 1
È 1
artic@@ 1
ㅕ 1
rote 1
ected 1
viol@@ 1
ģ@@ 1
along 1
prove 1
grou@@ 1
fact 1
ŕ 1
ously 1
ㅎ 1
ק@@ 1
ל@@ 1
ד 1
¸@@ 1
ready 1
̆ 1
interest 1
>@@ 1
사@@ 1
랑 1
ㅌ 1
¹@@ 1
¹ 1
menti@@ 1
takes 1
Ą@@ 1
case 1
where 1
hous@@ 1
today 1
made 1
ingdom 1
ㅜ 1
ㅔ 1
ᾶ@@ 1
ό@@ 1
υ 1
family 1
n’t 1
ă 1
⁄ 1
when 1
went 1
person 1
earth 1
deter@@ 1
ǒ@@ 1
material 1
enced 1
which 1
ented 1
ousness 1
상 1
means 1
daugh@@ 1
uted 1
῾ 1
phys@@ 1
pped 1
ẓ@@ 1
been 1
whole 1
will 1
Í 1
¦@@ 1
ㅑ 1
ṇ@@ 1
α 1
א 1
problems 1
목 1
fav@@ 1
ć@@ 1
Ä 1
Ε@@ 1
Υ@@ 1
Ρ@@ 1
sible 1
Ẹ@@ 1
ù@@ 1
Č 1
feet 1
example 1
ź 1
physical 1
Corinthians 1
곰 1
while 1
ㄷ 1
ɔ@@ 1
see@@ 1
destro@@ 1
numb@@ 1
later 1
ㅋ 1
mother 1
ㅂ 1
ㅊ 1
miles 1
Ø 1
anima@@ 1
exam@@ 1
heaven 1
among 1
people 1
ested 1
point 1
â 1
return 1
good 1
give 1
course 1
given 1
things 1
history 1
And 1
real 1
prac@@ 1
necess@@ 1
reflec@@ 1
organi@@ 1
chall@@ 1
temple 1
ʽ 1
ά@@ 1
δ@@ 1
α@@ 1
λ@@ 1
ָ@@ 1
ֹ@@ 1
{@@ 1
} 1
country 1
associ@@ 1
matter 1
ㅠ 1
Ê@@ 1
love 1
illustr@@ 1
ə@@ 1
Even 1
ő 1
expla@@ 1
À 1
heart 1
contro@@ 1
ď 1
ů 1
ㅛ 1
ㅍ 1
ì@@ 1
small 1
⇦ 1
uring 1
Psalm 1
world@@ 1
every 1
crim@@ 1
forts 1
holy 1
Ō 1
§@@ 1
according 1
vari@@ 1
magazine 1
coura@@ 1
may 1
h’s 1
through 1
ㅈ 1
▴ 1
Α@@ 1
lead@@ 1
soon 1
Ò 1
best 1
ů@@ 1
If 1
religious 1
arrang@@ 1
 1
ently 1
ז@@ 1
speak 1
ately 1
consid@@ 1
around 1
Δ 1
Α 1
buil@@ 1
witn@@ 1
eyes 1
pray 1
τ@@ 1
➊ 1
Many 1
years 1
conven@@ 1
û 1
