, 835911
. 800471
the 755624
of 465135
to 443913
and 376674
in 294934
a 286068
that 201372
“ 168284
” 164644
is 163181
ed 141601
: 140102
for 121533
ing 114678
? 109871
on 107069
s@@ 106488
es 99368
I 99161
re@@ 97950
with 97068
was 96290
be 96095
it 95104
as 94532
are 90106
you 89521
s 88206
his 85795
The 85348
not 84306
t@@ 83334
— 83169
y 81865
or 81056
in@@ 80455
- 79733
have 76753
t 76103
er 74834
c@@ 72895
​ 72288
we 71235
he 70374
an 69474
p@@ 67055
by 65893
e 65124
will 63427
S@@ 62313
from 62300
b@@ 61600
ers 60086
d@@ 60049
they 59714
their 59643
f@@ 57865
at 57536
g@@ 57397
en@@ 55358
one 54965
e@@ 54896
al 54714
ts 54544
r@@ 54490
er@@ 53216
God 52422
Jehovah 52240
o@@ 51958
this 49917
C@@ 49801
who 49763
us 49457
it@@ 49430
all 49417
al@@ 49256
m@@ 49031
n@@ 48761
st@@ 48672
l@@ 48546
our 48270
can 47302
ation 47261
were 46252
ted 45830
A@@ 45139
E@@ 45058
v@@ 44870
un@@ 44077
your 43969
an@@ 43808
ly 43546
ar@@ 43400
as@@ 42194
had 42020
; 41074
on@@ 41011
Bible 40926
’s 40748
ate 40712
Jesus 40710
es@@ 40056
ad@@ 39545
or@@ 39019
my 38863
i@@ 38629
what 38226
has 38182
them 38126
P@@ 37929
de@@ 37885
L@@ 37728
do 37517
ac@@ 37216
con@@ 37069
y@@ 36940
In 36903
at@@ 36234
w@@ 36184
ent 35764
M@@ 35751
D@@ 35253
people 34973
ro@@ 34960
u@@ 34879
a@@ 34498
dis@@ 34318
li@@ 33813
H@@ 33686
’ 33291
tion 32916
el@@ 32869
when 32805
th@@ 32800
about 32584
lo@@ 32100
m 31949
him 31888
T@@ 31714
se@@ 31663
What 31202
im@@ 31054
time 31007
pro@@ 30976
but 30903
1 30692
R@@ 30294
ity 30021
would 29830
out 29807
h@@ 29754
) 29663
I@@ 29546
may 29279
ec@@ 29181
le 28817
ated 28770
O@@ 28354
! 28335
ti@@ 28320
B@@ 28269
ic@@ 28160
th 28126
me 28075
more 28053
Jehovah’s 27439
d 27309
so 27241
tr@@ 27116
God’s 27073
is@@ 26902
k 26512
( 26055
G@@ 26028
ex@@ 25841
life 25761
k@@ 25697
qu@@ 25666
sp@@ 25664
some 25373
F@@ 25155
And 24771
ur@@ 24756
n 24724
ting 24664
W@@ 24623
co@@ 24601
its 24523
l 24506
her 24499
id@@ 24354
did 24354
le@@ 24234
many 24012
be@@ 23971
also 23902
been 23773
ra@@ 23361
ence 23332
able 23327
A 23245
me@@ 23105
up 23085
those 23048
It 23041
ter@@ 22972
N@@ 22703
2 22666
em@@ 22613
ter 22597
He 22417
ve 22366
en 22326
us@@ 22175
man 22156
per@@ 22097
there 22074
which 21784
ous 21767
How 21706
op@@ 21612
am@@ 21593
such 21563
ho@@ 21392
ch@@ 21378
mo@@ 21185
other 21147
no@@ 21136
ine 21133
even 21023
than 21006
king 20942
ul@@ 20639
no 20510
for@@ 20480
h 20379
ag@@ 20374
pre@@ 20293
ri@@ 20206
ab@@ 20144
3 20109
5 20070
se 20067
ol@@ 20054
su@@ 19984
into 19976
par@@ 19744
:1@@ 19697
ons 19619
to@@ 19590
J@@ 19546
if 19546
ance 19518
il@@ 19462
we@@ 19368
But 19300
said 19250
ch 19225
ally 19214
ment 19054
p 18951
We 18926
est 18838
ma@@ 18825
how 18795
‘ 18687
way 18680
4 18322
ar 18280
ful 18161
Witnesses 18160
years 18114
day 18109
these 18028
te@@ 18004
la@@ 17953
red 17911
ge 17705
good 17671
po@@ 17643
work 17619
ations 17535
6 17487
ings 17433
w 17415
b 17411
bo@@ 17362
end@@ 17358
help 17320
ne@@ 17294
ty 17294
This 17094
ary 17085
ev@@ 16882
1@@ 16852
8 16814
pres@@ 16684
should 16495
ant 16490
children 16455
ess 16423
des@@ 16302
ness 16259
world 16164
make 16160
ice 16045
When 16001
could 15982
over 15924
ut@@ 15864
ent@@ 15831
ying 15788
pe@@ 15780
c 15747
They 15686
things 15647
ning 15564
she 15525
says 15472
end 15439
only 15426
ks 15421
dec@@ 15379
ver@@ 15306
does 15200
shall 15143
first 15093
For 15076
z@@ 15014
] 15011
[ 15003
ha@@ 14975
made 14974
ir@@ 14945
like 14933
ely 14894
go@@ 14890
ved 14867
then 14829
ents 14687
gr@@ 14687
ws 14649
love 14604
pl@@ 14585
led 14567
ed@@ 14523
because 14475
9 14456
com@@ 14372
ep@@ 14232
come 14226
7 14218
ig@@ 14085
most 14078
ls 13983
sa@@ 13916
tra@@ 13898
Christian 13787
If 13775
rec@@ 13760
ds 13755
:@@ 13688
K@@ 13649
si@@ 13524
fe@@ 13505
ob@@ 13415
el 13405
any 13355
ther 13338
2@@ 13321
so@@ 13321
ther@@ 13311
te 13279
As 13265
age 13246
ies 13194
used 13194
being 13132
od 13067
family 13048
earth 12958
:2@@ 12930
st 12808
U@@ 12803
very 12794
ess@@ 12773
well 12693
ap@@ 12661
after 12649
others 12646
les 12608
sion 12563
just 12504
und@@ 12475
man@@ 12456
You 12446
ou@@ 12444
now 12442
In@@ 12415
ci@@ 12345
sh@@ 12317
ang@@ 12253
take 12249
4@@ 12194
ating 12178
tre@@ 12165
before 12157
tions 12095
di@@ 12074
war@@ 12065
and@@ 12057
need 12013
do@@ 12011
Paul 12004
cre@@ 11980
two 11953
see 11930
times 11897
wor@@ 11893
car@@ 11817
Christians 11812
ke@@ 11737
mis@@ 11729
ters 11717
ad 11680
gre@@ 11656
ite 11652
use 11576
ph@@ 11558
br@@ 11549
know 11529
x@@ 11511
hi@@ 11433
ast 11383
tu@@ 11358
Kingdom 11342
r 11301
men 11284
Why 11283
lic@@ 11281
ten@@ 11280
ce 11258
where 11232
gu@@ 11225
o 11206
ali@@ 11186
3@@ 11163
har@@ 11117
str@@ 11108
must 11104
am 11083
sed 11050
example 11040
new 10976
x 10964
ta@@ 10952
ked 10908
av@@ 10897
ef@@ 10862
ves 10838
he@@ 10785
ver 10767
ru@@ 10756
V@@ 10730
res 10697
wa@@ 10661
ill@@ 10653
um@@ 10651
ise 10637
own 10601
over@@ 10590
up@@ 10565
reg@@ 10540
g 10466
ure 10457
faith 10456
spirit 10452
om@@ 10446
ss 10411
6@@ 10387
ill 10382
ones 10381
ing@@ 10380
S 10371
Christ 10360
much 10337
give 10333
et 10285
pa@@ 10260
ned 10225
if@@ 10196
comm@@ 10194
parents 10166
tic@@ 10165
year 10152
thing 10149
ah 10111
ical 10090
become 10087
through 10069
.@@ 10063
ps 10062
ep 10014
comp@@ 9966
sis@@ 9881
als 9864
fore@@ 9843
ever 9808
pos@@ 9792
found 9757
get 9724
15 9714
ge@@ 9709
sho@@ 9686
Mo@@ 9606
mar@@ 9605
inter@@ 9603
5@@ 9594
sur@@ 9507
fo@@ 9455
fa@@ 9436
land 9430
od@@ 9429
ined 9388
tly 9372
words 9347
tive 9344
19@@ 9283
death 9279
ear@@ 9260
true 9258
another 9256
id 9252
cho@@ 9208
heart 9185
spiritual 9174
/ 9166
cl@@ 9156
congregation 9146
ati@@ 9139
each 9113
10 9094
ris@@ 9079
pas@@ 9071
ic 9046
great 9045
ered 9016
vi@@ 9012
pri@@ 9011
jo@@ 9002
So 9000
mb@@ 8970
Th@@ 8923
enti@@ 8883
self 8866
12 8841
against 8777
ue 8771
fac@@ 8759
came 8758
ling 8750
ia 8732
emp@@ 8724
mat@@ 8719
One 8716
go 8715
ities 8713
name 8685
exp@@ 8660
ily 8644
cr@@ 8643
upon 8621
vis@@ 8616
unto 8605
That 8568
our@@ 8560
E 8555
book 8516
yed 8504
part 8491
say 8476
af@@ 8451
though 8443
less 8437
fin@@ 8430
ality 8405
Al@@ 8405
young 8373
ans 8364
ord@@ 8355
gro@@ 8354
might 8353
Mar@@ 8306
ands 8293
human 8257
ently 8252
igh@@ 8247
person 8234
ze 8228
ins 8216
sec@@ 8205
long 8191
ser@@ 8187
every 8184
ties 8183
read 8181
11 8179
8@@ 8113
ak@@ 8093
place 8081
home 8067
down 8024
called 8020
14 8005
out@@ 8000
study 7996
anc@@ 7993
Re@@ 7987
find 7985
cen@@ 7953
right 7929
tic 7906
ars 7896
sto@@ 7891
ten 7871
reas@@ 7869
ind@@ 7859
iv@@ 7846
s, 7834
fi@@ 7804
acc@@ 7792
zed 7785
sel@@ 7773
Some 7747
wn 7730
To 7728
feel 7721
often 7711
same 7710
However 7708
sub@@ 7701
7@@ 7685
told 7656
mon@@ 7648
ial 7644
il 7643
buil@@ 7642
ates 7627
ga@@ 7620
ry 7594
j@@ 7568
truth 7556
rel@@ 7553
ement 7499
clo@@ 7478
ors 7475
ach 7441
ight 7405
under 7398
old 7388
under@@ 7384
put 7375
trib@@ 7360
off@@ 7359
low@@ 7352
conf@@ 7349
among 7343
ition 7340
gra@@ 7301
never 7293
John 7286
set 7285
son 7279
fully 7267
pr@@ 7261
days 7255
bl@@ 7242
back 7242
There 7229
happ@@ 7219
0@@ 7206
keep 7182
too 7150
let 7129
the@@ 7128
word 7123
writ@@ 7119
today 7117
three 7101
you@@ 7088
At 7041
gi@@ 7016
13 7002
ong@@ 6992
serve 6978
Then 6949
20 6930
cor@@ 6909
ged 6909
ard 6900
bre@@ 6885
dr@@ 6873
pp@@ 6856
Do 6854
ses 6833
ens 6826
ened 6821
tal 6811
tor@@ 6805
After 6802
inc@@ 6791
sta@@ 6790
away 6779
ide 6766
ld 6756
ere 6738
water 6736
himself 6725
iti@@ 6723
lin@@ 6714
ture 6713
while 6710
during 6709
became 6706
any@@ 6703
live 6678
min@@ 6644
still 6638
ven@@ 6627
ug@@ 6627
els 6626
side 6617
means 6613
Jo@@ 6607
:3@@ 6604
fer@@ 6604
low 6588
promis@@ 6586
appro@@ 6571
tain 6567
9@@ 6546
hear@@ 6543
house 6534
act 6531
fir@@ 6530
ular 6522
res@@ 6521
why 6505
sin@@ 6500
requ@@ 6494
ld@@ 6485
usi@@ 6479
ple 6475
sing 6464
dem@@ 6448
light 6435
Be@@ 6423
Word 6422
given 6409
app@@ 6406
da@@ 6393
brothers 6390
want 6361
eng@@ 6352
expla@@ 6333
course 6320
Israel 6311
199@@ 6296
ect 6287
spec@@ 6284
tain@@ 6281
century 6281
view 6249
ative 6242
pub@@ 6234
Con@@ 6218
My 6213
ious 6210
wrote 6205
sure 6204
wal@@ 6199
without 6199
Com@@ 6193
began 6179
22 6169
ory 6162
pris@@ 6152
cap@@ 6127
ual 6116
accep@@ 6112
por@@ 6098
important 6087
vo@@ 6084
col@@ 6080
ca@@ 6068
between 6066
Is 6065
ments 6059
hu@@ 6043
show 6041
cal@@ 6021
later 6017
apostle 5998
jud@@ 5989
she@@ 5984
wing 5981
direc@@ 5981
et@@ 5974
17 5969
ke 5967
tiv@@ 5961
au@@ 5960
ving 5940
however 5940
learn 5931
0 5928
sy@@ 5923
ough 5923
Pro@@ 5913
16 5910
00 5888
eas@@ 5887
oned 5877
ited 5861
pe 5858
ges 5845
loc@@ 5845
ys 5820
New 5819
ns 5811
took 5794
sha@@ 5789
ani@@ 5786
bur@@ 5781
ir 5779
cha@@ 5776
both 5768
gl@@ 5765
ision 5759
re 5754
themselves 5750
mind 5750
David 5741
ef 5730
sig@@ 5727
ve@@ 5710
gave 5705
ages 5703
wife 5700
article 5696
list@@ 5693
cro@@ 5685
ational 5681
On 5677
living 5676
mor@@ 5672
worship 5666
By 5664
hand 5664
prac@@ 5657
power 5628
rema@@ 5624
let@@ 5622
hope 5615
inst@@ 5611
encoura@@ 5611
ding 5609
iness 5604
tri@@ 5603
order 5591
ants 5585
spo@@ 5579
’@@ 5558
18 5556
With 5544
bel@@ 5542
Lo@@ 5535
Many 5535
wise 5533
number 5531
ref@@ 5525
mer@@ 5511
her@@ 5499
exc@@ 5482
little 5477
eli@@ 5471
nor@@ 5462
sal@@ 5458
expres@@ 5441
ish@@ 5438
ni@@ 5437
child 5424
onal 5423
ever@@ 5420
tice 5419
men@@ 5398
ism 5389
food 5376
ough@@ 5362
pur@@ 5356
fact 5347
doing 5341
knowledge 5318
went 5311
news 5307
blood 5301
faithful 5291
19 5291
teach@@ 5285
known 5284
city 5277
jec@@ 5263
every@@ 5261
Peter 5255
ature 5254
St@@ 5253
look 5250
tend@@ 5244
tac@@ 5243
face 5243
father 5242
ways 5235
few 5232
mit@@ 5216
mother 5209
ist 5202
service 5200
dre@@ 5182
bro@@ 5179
off 5179
ship 5167
religious 5156
No@@ 5156
always 5155
succ@@ 5152
She 5147
ust 5146
full 5144
resp@@ 5144
gener@@ 5143
ward 5136
making 5135
adv@@ 5131
peace 5131
whom 5131
lar@@ 5126
These 5122
ish 5120
His 5114
streng@@ 5107
serv@@ 5103
sla@@ 5101
pra@@ 5099
produc@@ 5089
plac@@ 5087
ili@@ 5085
holy 5073
bir@@ 5071
try 5061
obe@@ 5042
ining 5040
ace 5038
ution 5020
Father 5020
together 5017
An@@ 5014
something 5006
ously 5000
thr@@ 4998
Matthew 4985
Yet 4984
tually 4977
,000 4971
ths 4970
bless@@ 4965
Chris@@ 4963
olo@@ 4961
und 4961
Our 4959
gy 4957
ste@@ 4957
div@@ 4951
dra@@ 4944
believ@@ 4942
add@@ 4939
ater 4930
form 4926
ists 4911
emb@@ 4904
ministry 4899
really 4891
C.E 4891
concer@@ 4882
provid@@ 4878
cle@@ 4876
Ar@@ 4875
cop@@ 4869
ek 4869
body 4867
women 4863
Z@@ 4863
sol@@ 4854
form@@ 4850
ond 4841
ired 4840
asked 4837
wond@@ 4836
think 4831
increas@@ 4827
ening 4825
eho@@ 4823
problems 4811
continu@@ 4810
possible 4809
them@@ 4807
Psalm 4806
ake 4806
having 4798
tur@@ 4788
stor@@ 4778
Ne@@ 4774
high 4762
dly 4759
fri@@ 4755
ell 4755
ner 4753
preaching 4746
kind@@ 4739
bring 4735
pla@@ 4722
Jud@@ 4719
O 4719
pers@@ 4705
standing 4700
Ro@@ 4697
world@@ 4691
felt 4688
left 4687
fort 4686
consid@@ 4685
prot@@ 4685
24 4682
since 4678
ond@@ 4646
Even 4637
ches 4629
ences 4618
ither 4614
erful 4606
ree 4604
vers@@ 4602
again 4594
coun@@ 4589
appreci@@ 4588
cul@@ 4587
stud@@ 4582
result 4579
activ@@ 4577
humans 4566
soci@@ 4566
lead@@ 4564
vel@@ 4556
better 4552
loo@@ 4542
tor 4528
tru@@ 4527
ms 4526
woman 4518
percent 4516
doc@@ 4516
last 4514
All 4513
rely 4504
ung@@ 4495
point 4489
chang@@ 4488
poli@@ 4487
beg@@ 4485
21 4483
loy@@ 4481
uni@@ 4480
hab@@ 4479
dev@@ 4476
appe@@ 4473
fic@@ 4471
care 4467
y, 4464
ians 4463
school 4458
reason 4458
sear@@ 4457
tes 4452
prophe@@ 4443
ests 4435
toward 4434
Bo@@ 4432
tical 4431
N 4430
Ma@@ 4429
30 4426
Satan 4421
Fr@@ 4420
hur@@ 4419
f 4416
Tr@@ 4414
believe 4411
done 4407
nor 4407
ce@@ 4406
ack 4405
Y@@ 4398
ingly 4391
hon@@ 4390
small 4389
lives 4387
died 4379
vic@@ 4378
sacrif@@ 4378
ong 4377
stu@@ 4376
Yes 4364
lished 4359
ze@@ 4354
ase 4334
different 4332
tes@@ 4329
enc@@ 4328
Se@@ 4328
future 4322
hard 4320
Hebre@@ 4318
ering 4318
organi@@ 4317
rep@@ 4313
shi@@ 4305
i 4304
stre@@ 4300
deed 4300
ances 4300
sive 4295
who@@ 4284
nam@@ 4271
experience 4270
ort 4270
Scriptures 4266
around 4264
early 4260
lish 4258
marriage 4258
ard@@ 4258
King 4249
individ@@ 4244
until 4243
earth@@ 4243
No 4234
includ@@ 4233
tel@@ 4233
brought 4233
From 4222
heav@@ 4222
personal 4220
reali@@ 4217
using 4215
pic@@ 4213
jus@@ 4211
cannot 4208
disciples 4207
served 4207
thought 4207
him@@ 4206
ask 4196
loving 4189
develop@@ 4187
system 4185
ele@@ 4183
arly 4179
Ex@@ 4179
author@@ 4176
Thus 4174
um 4173
’t 4166
hor@@ 4151
best 4142
thers 4137
fre@@ 4137
present 4133
e, 4133
follow@@ 4130
ome 4128
tro@@ 4126
far 4118
vir@@ 4117
dic@@ 4109
servants 4107
commun@@ 4101
peri@@ 4099
cause 4099
wer 4093
25 4082
wat@@ 4076
here 4071
Let 4064
* 4062
Afric@@ 4061
ately 4058
fect 4057
United 4054
learned 4052
turned 4050
witn@@ 4049
viol@@ 4043
head 4043
going 4035
Your 4034
fl@@ 4033
fear 4033
thous@@ 4030
ol 4027
needed 4022
describ@@ 4020
health 4017
consider 4016
offer@@ 4016
ud@@ 4010
exam@@ 4008
haps 4007
ea 4004
four 4003
TH@@ 4002
World 4001
kind 3998
trans@@ 3997
religion 3993
pleas@@ 3990
friends 3988
wel@@ 3987
helped 3984
ub@@ 3976
fore 3966
D 3960
Per@@ 3959
ject 3959
ath 3957
husband 3950
fr@@ 3946
Moses 3944
wh@@ 3943
happy 3939
occ@@ 3939
ile 3923
De@@ 3921
const@@ 3921
yet 3920
eyes 3910
vari@@ 3909
spe@@ 3908
der 3908
zation 3907
joy 3905
issu@@ 3901
certain 3899
saw 3899
law 3896
fellow 3896
evil 3893
rul@@ 3892
pow@@ 3889
om 3888
sin 3883
million 3879
200@@ 3876
ick@@ 3876
mp@@ 3876
y’s 3870
char@@ 3869
ind 3868
sent 3862
sci@@ 3859
ign 3857
giving 3848
following 3848
t’s 3847
50 3846
ib@@ 3844
stand@@ 3844
along 3839
ian 3831
matter 3829
LORD 3829
pati@@ 3828
(@@ 3828
comple@@ 3821
moved 3821
Br@@ 3821
tal@@ 3817
lec@@ 3816
ligh@@ 3814
speak@@ 3813
• 3808
Because 3802
war 3801
money 3798
bus@@ 3795
seen 3794
fec@@ 3793
someone 3788
taken 3786
tors 3785
member 3782
Son 3781
ety 3781
fu@@ 3775
purpose 3774
change 3773
turn 3773
cer@@ 3769
ems 3769
members 3763
next 3761
according 3759
vie@@ 3758
He@@ 3758
don@@ 3755
bor@@ 3739
s. 3737
hand@@ 3737
questions 3735
sk@@ 3732
prayer 3729
ruc@@ 3725
especially 3725
person@@ 3723
meetings 3718
thus 3717
discus@@ 3717
Je@@ 3716
nations 3710
pione@@ 3710
Who 3708
one@@ 3701
ach@@ 3698
Jerusalem 3696
chi@@ 3694
ut 3694
perfect 3691
answ@@ 3688
vered 3682
tered 3680
Lord 3678
ancient 3677
resurrec@@ 3676
Isaiah 3674
:4@@ 3665
including 3665
Although 3661
associ@@ 3660
oun@@ 3659
close 3657
illing 3654
yourself 3645
Now 3643
deli@@ 3643
continue 3642
ices 3642
pop@@ 3633
em 3631
plan@@ 3629
tle 3629
anima@@ 3629
To@@ 3629
minis@@ 3629
reading 3628
wo@@ 3628
hel@@ 3623
awa@@ 3620
ric@@ 3620
reve@@ 3617
states 3615
tim@@ 3613
thy 3611
ll 3611
Ch@@ 3607
,@@ 3605
support 3604
experi@@ 3597
cas@@ 3597
sen@@ 3596
emo@@ 3596
large 3595
T 3593
Since 3591
prin@@ 3591
night 3585
equ@@ 3582
cond@@ 3579
lands 3570
Proverbs 3568
den 3568
born 3564
language 3560
ched 3558
bad 3551
less@@ 3550
du@@ 3546
speak 3543
heaven 3540
wisdom 3539
righteous 3537
soon 3533
fine 3532
dies 3530
half 3527
table 3526
dom 3525
ak 3523
Par@@ 3522
share 3518
Gre@@ 3517
med@@ 3516
tion@@ 3515
mean@@ 3512
indic@@ 3509
enjoy 3503
essi@@ 3493
understand 3490
23 3488
wr@@ 3483
Ger@@ 3481
ran@@ 3475
received 3474
According 3474
ards 3472
cou@@ 3471
Of 3470
fru@@ 3465
illi@@ 3463
ire 3462
eld@@ 3461
main@@ 3458
es, 3455
ulation 3448
trad@@ 3446
free 3444
mankind 3439
situation 3434
case 3434
ied 3434
ck 3434
itu@@ 3432
Greek 3429
doub@@ 3428
elders 3426
new@@ 3424
pi@@ 3418
quali@@ 3416
serving 3416
ould 3415
iting 3411
fur@@ 3410
position 3410
star@@ 3410
ected 3408
Americ@@ 3406
beli@@ 3398
relationship 3395
Ab@@ 3392
wide 3391
tern@@ 3389
ful@@ 3387
Sp@@ 3375
As@@ 3373
wicked 3370
uc@@ 3369
leg@@ 3368
ll@@ 3363
teaching 3363
ousness 3363
talk 3362
attend@@ 3362
whole 3360
tance 3355
Gen@@ 3355
transl@@ 3352
my@@ 3352
pped 3352
Euro@@ 3349
lies 3348
vol@@ 3346
assig@@ 3340
likely 3334
val@@ 3333
counsel 3331
brother 3329
itions 3328
problem 3328
Go@@ 3327
ident 3323
makes 3321
ph 3321
crip@@ 3315
ised 3315
mind@@ 3304
bi@@ 3302
control 3301
difficult 3297
saying 3291
answer 3290
Bib@@ 3287
dead 3287
ented 3285
heard 3284
ably 3282
Ra@@ 3281
outh 3278
real 3278
pt 3271
ility 3270
hil@@ 3266
tom@@ 3264
challeng@@ 3260
While 3259
famili@@ 3257
lasting 3252
needs 3251
ation@@ 3250
clas@@ 3248
taking 3241
cont@@ 3239
feelings 3236
coura@@ 3236
head@@ 3236
trac@@ 3227
sense 3226
Abra@@ 3223
onom@@ 3223
duc@@ 3222
baptized 3216
resul@@ 3214
invit@@ 3214
work@@ 3212
five 3210
So@@ 3204
respect 3202
dang@@ 3201
Eng@@ 3201
ually 3199
sid@@ 3195
therefore 3194
attention 3194
sons 3191
influ@@ 3191
ring 3186
desire 3186
mate 3180
heavenly 3179
ible 3175
asi@@ 3175
sum@@ 3173
care@@ 3173
pain 3172
group 3168
wish 3167
□ 3166
ided 3158
ularly 3158
moun@@ 3158
States 3153
special 3148
est@@ 3146
near 3145
bac@@ 3145
zing 3144
avoid 3144
wanted 3144
hous@@ 3143
accomp@@ 3142
tting 3139
fied 3137
appoin@@ 3133
cam@@ 3130
comes 3126
affec@@ 3126
nation 3121
Corinthians 3118
message 3114
offic@@ 3114
gif@@ 3114
Jews 3110
sing@@ 3107
lead 3105
gir@@ 3101
ease 3100
cur@@ 3098
posed 3097
question 3097
page 3093
tern 3090
provide 3086
n’t 3084
mi@@ 3083
countries 3082
Ho@@ 3081
Egyp@@ 3078
daugh@@ 3078
ail@@ 3077
wed 3073
line 3073
prove 3073
apost@@ 3073
effec@@ 3070
strong 3069
Those 3067
knew 3065
educ@@ 3063
liter@@ 3063
nif@@ 3062
orig@@ 3061
mean 3060
nothing 3059
great@@ 3057
information 3056
oper@@ 3054
help@@ 3051
country 3048
magazine 3043
sou@@ 3042
sex@@ 3039
ability 3039
On@@ 3036
arding 3035
coming 3034
uses 3033
once 3032
rain 3029
Sh@@ 3027
im 3026
some@@ 3024
Are 3021
aring 3017
mil@@ 3014
ours 3012
mission@@ 3012
whether 3012
ples 3010
arri@@ 3004
tell 3003
simply 3003
ago 2999
receive 2999
ute 2998
aper 2997
prophec@@ 2996
40 2995
wrong 2995
ken 2995
ested 2992
yl@@ 2990
Can 2988
anointed 2985
learly 2984
Israelites 2984
ye@@ 2983
filled 2982
cus@@ 2981
follow 2979
account 2979
ished 2975
Wh@@ 2974
28 2973
consci@@ 2969
second 2967
lish@@ 2960
works 2958
sever@@ 2955
feet 2954
verse 2949
tation 2947
public 2946
see@@ 2944
During 2942
within 2941
Revelation 2940
reli@@ 2936
ath@@ 2935
ground 2934
eld 2934
married 2921
Creator 2920
enjo@@ 2920
prof@@ 2918
move 2918
Luke 2912
ached 2910
ries 2909
drin@@ 2909
conven@@ 2908
past 2908
Not 2908
's 2908
exerc@@ 2906
ourselves 2906
destro@@ 2905
involved 2900
command@@ 2899
ber@@ 2897
ements 2893
suffering 2893
ank 2891
ery 2889
held 2884
reports 2884
respon@@ 2884
Y 2883
Ad@@ 2882
common 2881
Such 2880
area 2878
ought 2878
opportun@@ 2875
iled 2873
Timothy 2873
months 2872
hund@@ 2869
lif@@ 2867
Watchtower 2862
t, 2862
already 2862
An 2859
illustr@@ 2858
stand 2858
uted 2857
ple@@ 2857
Po@@ 2853
enced 2852
fer 2842
gives 2840
taught 2840
necess@@ 2839
ike 2829
cour@@ 2825
le’s 2824
are@@ 2819
certainly 2818
dri@@ 2817
ick 2817
bas@@ 2816
R 2816
isions 2816
circum@@ 2816
ces 2815
suf@@ 2815
benefit 2814
clear 2813
righte@@ 2812
recog@@ 2811
Sam@@ 2809
history 2806
local 2801
Bab@@ 2793
eting 2791
tures 2789
becom@@ 2786
eness 2780
Acts 2780
ging 2779
truc@@ 2778
thinking 2775
ife 2775
miles 2774
similar 2771
moder@@ 2771
wan@@ 2771
maj@@ 2769
high@@ 2762
got 2760
privile@@ 2757
tural 2755
valu@@ 2755
Wor@@ 2754
survi@@ 2751
spiritu@@ 2751
ines 2749
flo@@ 2748
itive 2747
church 2747
tou@@ 2747
fav@@ 2744
started 2744
based 2731
ends 2730
En@@ 2725
Na@@ 2725
wake 2723
There@@ 2723
dedic@@ 2722
sugg@@ 2719
Does 2718
Un@@ 2716
esti@@ 2716
formed 2716
Today 2715
government 2713
lost 2712
tains 2711
invol@@ 2710
Be 2708
Their 2707
bu@@ 2707
disci@@ 2707
ate@@ 2706
ically 2706
instruc@@ 2704
Tru@@ 2701
ore 2700
satis@@ 2700
occasi@@ 2696
hold 2695
interest 2693
leave 2692
yo@@ 2690
atu@@ 2686
principles 2684
ot 2684
inal 2682
ok 2681
nd@@ 2680
ing, 2679
conduct 2677
Fa@@ 2677
longer 2676
soul 2675
takes 2673
neigh@@ 2673
cat@@ 2673
fulf@@ 2672
even@@ 2668
claim@@ 2668
forth 2667
chil@@ 2662
trust 2656
thir@@ 2655
responsib@@ 2655
Read 2654
sle@@ 2654
reflec@@ 2652
smo@@ 2652
die 2647
att@@ 2646
material 2644
aries 2644
physical 2642
return 2641
ource 2641
moral 2639
amb@@ 2638
Romans 2633
medi@@ 2631
partic@@ 2629
estab@@ 2628
determin@@ 2627
Eli@@ 2627
mili@@ 2626
crim@@ 2623
worshi@@ 2622
you, 2622
uals 2619
PSA@@ 2618
LORD@@ 2616
natural 2616
false 2615
fles@@ 2614
pray 2613
Bro@@ 2612
arrang@@ 2610
ods 2610
vit@@ 2607
play 2604
0,000 2604
proc@@ 2603
keep@@ 2593
18@@ 2591
heal@@ 2590
prepar@@ 2582
forts 2581
above 2580
rest 2580
righ@@ 2578
fy 2577
call 2576
action 2574
198@@ 2574
temple 2574
evidence 2574
attitude 2573
wil@@ 2573
menti@@ 2573
wid@@ 2572
Consider 2572
ign@@ 2571
showed 2571
de 2568
teach 2568
read@@ 2567
alone 2565
appear@@ 2565
rather 2562
report 2560
imag@@ 2549
James 2548
lear@@ 2547
fish 2544
Solom@@ 2544
Le@@ 2541
an’s 2541
Catholic 2539
ham 2536
esses 2529
poin@@ 2523
Jose@@ 2522
CH@@ 2522
AN@@ 2521
ame 2519
per 2518
sil@@ 2516
Law 2513
na@@ 2512
semb@@ 2507
dam 2507
People 2504
ingdom 2504
sight 2502
ty@@ 2496
Ha@@ 2489
clud@@ 2484
26 2475
▪ 2467
ki@@ 2461
mir@@ 2459
milli@@ 2451
dom@@ 2442
ene@@ 2438
God@@ 2438
ik@@ 2434
29 2433
fal@@ 2430
h’s 2428
Witn@@ 2421
gen@@ 2420
U.@@ 2418
sea 2418
ere@@ 2413
tin@@ 2407
pat@@ 2403
Tim@@ 2403
there@@ 2398
ly@@ 2394
mag@@ 2391
20@@ 2391
Me@@ 2388
prop@@ 2384
nment 2380
ord 2377
ext 2373
cy@@ 2370
Ser@@ 2364
spir@@ 2363
congreg@@ 2357
27 2349
ous@@ 2328
u 2326
der@@ 2321
whi@@ 2319
bar@@ 2318
33 2317
gover@@ 2315
repor@@ 2308
eds 2307
Ke@@ 2306
tem@@ 2302
cla@@ 2301
iah 2296
pray@@ 2295
ome@@ 2286
ith@@ 2283
ide@@ 2280
dar@@ 2278
Q@@ 2272
sim@@ 2270
RO@@ 2268
Uni@@ 2267
31 2264
nec@@ 2253
lig@@ 2249
Or@@ 2244
ung 2239
Pe@@ 2227
bab@@ 2222
idence 2208
Sat@@ 2184
kno@@ 2183
hospit@@ 2174
Sim@@ 2171
Scrip@@ 2160
pend@@ 2160
chap@@ 2158
tab@@ 2156
thel@@ 2151
far@@ 2151
Dani@@ 2150
hili@@ 2144
oub@@ 2143
60 2143
Paul@@ 2132
kil@@ 2128
la 2126
Sa@@ 2124
win@@ 2116
IN@@ 2112
e. 2108
JO@@ 2098
mid@@ 2096
Isra@@ 2086
ari@@ 2081
z 2079
scho@@ 2074
ive 2067
ese 2060
yp@@ 2053
Jap@@ 2050
chur@@ 2037
artic@@ 2029
ult 2014
ans@@ 2011
mas@@ 2008
70 2003
atten@@ 2002
preci@@ 1995
benef@@ 1989
lic 1982
194@@ 1979
V 1978
lev@@ 1977
said@@ 1972
tant 1968
sib@@ 1966
32 1960
York 1956
vid@@ 1953
can@@ 1952
shar@@ 1944
fam@@ 1941
ini@@ 1939
che@@ 1939
35 1931
sia 1931
:5@@ 1927
esp@@ 1920
Fe@@ 1910
Su@@ 1904
king@@ 1896
SA@@ 1894
dia 1890
â@@ 1884
suffer@@ 1883
ina 1881
tho@@ 1875
ustr@@ 1864
blo@@ 1863
ye 1857
L 1853
Ca@@ 1852
sac@@ 1835
@@ 1834
differ@@ 1828
enly 1825
ba@@ 1819
sible 1814
erem@@ 1812
aching 1811
Am@@ 1810
ine@@ 1809
fan@@ 1809
'@@ 1808
gem@@ 1807
parad@@ 1804
Da@@ 1801
hat@@ 1799
CO@@ 1798
lab@@ 1780
Wat@@ 1778
know@@ 1777
KI@@ 1766
adu@@ 1765
saf@@ 1759
H 1758
devel@@ 1757
reat@@ 1755
anci@@ 1751
ush@@ 1743
your@@ 1741
ur 1738
ready 1723
14@@ 1712
umb@@ 1711
Man@@ 1709
ok@@ 1708
bap@@ 1706
ore@@ 1700
Bar@@ 1698
langu@@ 1690
․ 1689
circ@@ 1686
giv@@ 1686
histor@@ 1677
10@@ 1674
tas@@ 1672
ane 1671
fil@@ 1665
of@@ 1663
-@@ 1662
grou@@ 1662
GEN@@ 1661
C 1659
Is@@ 1654
37 1632
ile@@ 1629
ale 1620
ER@@ 1613
Yo@@ 1609
1,@@ 1607
pose 1606
EV@@ 1598
feel@@ 1597
Christi@@ 1595
15@@ 1578
Bra@@ 1577
fun@@ 1570
ys@@ 1557
ton 1554
Ind@@ 1553
accoun@@ 1548
tun@@ 1548
Society 1545
cent 1545
:6@@ 1545
34 1544
EZ@@ 1539
faith@@ 1522
itude 1521
crib@@ 1515
tar@@ 1514
zi@@ 1511
Ge@@ 1503
ham@@ 1499
We@@ 1498
Ac@@ 1489
na 1488
ume 1483
impor@@ 1470
achi@@ 1458
phys@@ 1455
:7@@ 1449
100 1446
ugh@@ 1444
ash@@ 1435
hal@@ 1433
G 1420
F 1417
195@@ 1416
Her@@ 1412
DE@@ 1412
thor@@ 1407
prob@@ 1407
suppor@@ 1404
AR@@ 1395
ek@@ 1393
OR@@ 1391
EX@@ 1390
ISA@@ 1386
aul 1386
$ 1385
ta 1383
sup@@ 1382
Sep@@ 1377
Jan@@ 1374
M 1374
JER@@ 1372
exic@@ 1369
EN@@ 1367
mater@@ 1339
NUM@@ 1334
@@ 1332
sul@@ 1330
wis@@ 1329
religi@@ 1323
dren 1319
je@@ 1319
ada 1316
mu@@ 1313
She@@ 1313
Parad@@ 1306
ama@@ 1302
MAT@@ 1298
ouse 1295
ques@@ 1295
Har@@ 1290
bene@@ 1287
contro@@ 1284
ne 1282
numb@@ 1269
197@@ 1269
sion@@ 1267
uth 1267
fol@@ 1262
Do@@ 1260
Australia 1254
The@@ 1254
deter@@ 1252
ip@@ 1251
ody 1250
Mas@@ 1246
ft 1245
ma 1244
ith 1240
conduc@@ 1237
UK@@ 1236
receiv@@ 1229
Mat@@ 1227
memb@@ 1222
Fam@@ 1221
hig@@ 1219
amp@@ 1219
selves 1209
situ@@ 1208
gg@@ 1204
io 1202
whe@@ 1200
kab@@ 1198
ndi@@ 1195
·@@ 1190
Ba@@ 1189
AT@@ 1188
La@@ 1183
Vi@@ 1182
org@@ 1181
ana@@ 1174
priv@@ 1172
ught 1170
divid@@ 1169
v 1167
eded 1159
tam@@ 1158
diffic@@ 1157
mal@@ 1153
ew 1139
wic@@ 1139
las@@ 1135
tan@@ 1128
Mal@@ 1127
zin@@ 1123
bs 1119
fund@@ 1118
wo 1118
ya 1116
husb@@ 1116
long@@ 1112
shua 1107
temb@@ 1100
with@@ 1098
eve 1092
ule 1088
knowled@@ 1086
● 1082
W 1082
ana 1078
é@@ 1075
His@@ 1070
Im@@ 1067
uring 1059
ano@@ 1057
bad@@ 1056
ust@@ 1055
Isa@@ 1050
Hi@@ 1047
ame@@ 1038
rang@@ 1036
maga@@ 1034
mbo@@ 1033
ka@@ 1032
ially 1028
wom@@ 1026
ju@@ 1026
Wal@@ 1021
led@@ 1010
vig@@ 1009
Austr@@ 1006
ven 1005
a, 996
kid@@ 995
Hal@@ 961
And@@ 958
fel@@ 955
amin@@ 953
hib@@ 952
avo@@ 946
syst@@ 946
ita@@ 946
LI@@ 942
chan@@ 939
itud@@ 938
Wa@@ 928
B 921
reco@@ 918
Mak@@ 918
abo@@ 909
mach@@ 908
Ta@@ 904
human@@ 899
sa 899
telev@@ 896
ras@@ 894
ende@@ 888
Hu@@ 887
ng@@ 885
shu@@ 871
ina@@ 861
sma@@ 860
was@@ 854
yes 852
inted 849
aro@@ 847
cri@@ 844
lik@@ 841
ja@@ 836
za@@ 836
mes@@ 825
san@@ 823
mig@@ 822
Whi@@ 817
AM@@ 816
000 808
Af@@ 801
hir@@ 800
Jerusal@@ 799
Mis@@ 797
wen@@ 795
ania 793
ama 783
wi@@ 783
ku@@ 782
Joh@@ 780
K 775
rif@@ 770
apo@@ 766
Catho@@ 766
ie 766
ʹ@@ 766
J 759
UN@@ 754
dif@@ 744
flu@@ 744
Up@@ 741
Mu@@ 739
% 732
P 730
Si@@ 730
é 730
Soci@@ 725
isi@@ 724
erc@@ 716
formation 713
proph@@ 712
U 697
zi 692
Acc@@ 691
© 679
Israeli@@ 677
í@@ 676
ince 674
á@@ 672
uli@@ 670
relation@@ 668
lea@@ 664
thin@@ 662
nia 661
ply 660
icha@@ 652
Beth@@ 647
eria 646
hes@@ 643
irc@@ 641
raf@@ 637
simil@@ 636
ti 635
angu@@ 632
oney 628
ka 626
sel 623
Mag@@ 621
ano 619
sage 617
vili@@ 614
Tho@@ 613
Ye@@ 607
countr@@ 602
Jes@@ 592
da 591
pes@@ 586
greg@@ 581
mak@@ 579
ishon@@ 574
sab@@ 570
– 568
bid@@ 567
anda 563
ato@@ 558
contin@@ 550
kin@@ 549
Bec@@ 545
lit@@ 544
Ga@@ 544
ny@@ 538
Rev@@ 530
alo@@ 523
yes@@ 522
ena 516
atur@@ 508
ata 506
ai 502
orin@@ 502
una@@ 499
Mi@@ 495
che 494
kit@@ 485
li 483
uf@@ 482
ko@@ 481
tum@@ 480
hat 479
ongo@@ 478
hum@@ 472
nit@@ 470
War@@ 467
marri@@ 466
aul@@ 465
ki 464
tak@@ 461
aga@@ 453
certain@@ 451
ba 450
yo 448
pa 447
ara 444
sha 443
ha 441
aj@@ 439
ü@@ 437
atis@@ 430
natur@@ 425
cc@@ 423
has@@ 423
kis@@ 415
ale@@ 408
X@@ 406
ya@@ 402
chu@@ 396
au 389
hu 382
zo@@ 380
Rom@@ 379
æ@@ 377
vil@@ 373
cho 371
mam@@ 371
oma 371
ida 364
spit@@ 363
lis@@ 361
◆ 358
 356
ʹ 356
° 355
@@ 353
ko 353
lo 351
q 351
ween 350
inst 350
ó@@ 349
til 348
lake 346
ua 345
tower 345
)@@ 342
zili@@ 340
lia 340
& 338
a. 337
ã@@ 335
dhi@@ 335
kwa@@ 334
za 331
i, 330
toge@@ 329
ri 326
awe 324
nj@@ 322
ona 319
hi 317
mali@@ 313
fad@@ 311
ime@@ 307
uro@@ 300
ato 300
jam@@ 298
ita 296
anz@@ 295
vid 288
pig@@ 286
X 286
ora 284
ause 283
ii 282
ht 281
hiv@@ 280
' 280
ila 280
hus 277
zu@@ 276
ga 276
po 272
Ki@@ 270
Ali@@ 268
ö@@ 265
Psal@@ 261
sam@@ 258
uti@@ 258
kar@@ 257
bin@@ 256
uk@@ 256
ito@@ 255
Sol@@ 248
lem 239
di 238
wag@@ 238
uma 238
ala 236
Paulo 234
chi 233
shir@@ 233
Creat@@ 230
ito 227
yan@@ 226
è@@ 224
blems 224
ja 217
/@@ 215
ari 214
ji 214
wa 213
si 210
eme@@ 210
ñ@@ 209
etings 208
mad@@ 207
oura@@ 205
ira 204
hia 204
ini 203
Watch@@ 202
bapti@@ 198
map@@ 197
tury 194
mab@@ 190
Ib@@ 187
had@@ 187
arib@@ 182
hai 179
dun@@ 177
Ya@@ 177
Consid@@ 175
ms@@ 174
iwa@@ 174
kat@@ 172
ali 169
q@@ 169
vib@@ 167
timi@@ 167
inda 163
oug@@ 162
@@ 161
wi 156
ç@@ 155
hana 155
uv@@ 155
zine 153
zing@@ 152
ô@@ 150
ording 149
Kat@@ 148
tu 148
ä@@ 147
una 146
leo 144
ciples 143
Timo@@ 142
ambia 142
hili 141
ni 140
ú@@ 137
ika 136
iti 135
Was@@ 134
bec@@ 133
ł@@ 130
ani 130
hus@@ 130
iko 129
isa 129
▫ 129
UM@@ 126
bet@@ 126
á 126
alia 126
ele 126
asa 125
hak@@ 124
inia 123
Ku@@ 122
 122
Corinth@@ 121
í 120
pole 119
aka 117
verbs 116
atia 115
ji@@ 114
mim@@ 114
;@@ 114
mbia 113
ati 112
vile 111
kim@@ 111
Kit@@ 111
Yor@@ 111
o, 110
Za@@ 107
✔ 106
ema 105
ima 105
@@ 103
Matthe@@ 103
uke 101
 101
itn@@ 101
ho 100
ʼ@@ 100
tro 98
Ing@@ 98
pia 98
Tun@@ 97
| 97
uri 95
aki@@ 94
yen@@ 94
ao 94
Yes@@ 94
ople 93
uj@@ 93
shi 93
@@ 92
j 92
akis@@ 91
aba 91
%@@ 91
É@@ 87
 87
Musa 83
⁠ 83
kee 82
enda 81
mbo 81
ande 81
ā@@ 81
asi 81
Kan@@ 79
hara 79
anga 78
Q 78
i. 78
_@@ 78
yat@@ 77
→ 76
aki 75
nch@@ 74
Á@@ 74
ondo@@ 73
Jam@@ 73
ango 72
ata@@ 72
oto 72
Wan@@ 71
hai@@ 71
oni 70
kan@@ 70
Z 70
kal@@ 70
”@@ 70
mala@@ 70
mia 69
hud@@ 68
anat@@ 67
ê@@ 67
aka@@ 66
ë 66
eni 66
Ana@@ 66
ḥ@@ 66
taf@@ 66
espec@@ 65
ilia 65
omo 64
ako 64
oro 64
Ny@@ 64
¢ 64
ura@@ 63
o. 62
à 61
wana 60
wam@@ 60
◯ 60
rika 58
ili 58
ku 57
hilo 57
uli 57
Israeli 56
lili@@ 56
resur@@ 56
wak@@ 56
atu 55
jer@@ 55
nde@@ 55
tia 54
zo 54
mo 53
= 53
portun@@ 53
iga 53
amba 52
cha 51
lea 51
isha 51
mba 51
tuli@@ 51
asili@@ 51
ë@@ 51
ia, 50
kul@@ 50
endo 50
ú 50
rece@@ 50
# 50
"@@ 49
eli 49
Leo 48
rote 48
iny@@ 48
unge@@ 48
isha@@ 48
ulia 48
Eg@@ 47
aya 47
hub@@ 47
 46
mi 45
kup@@ 45
ende 45
idi 44
kad@@ 44
uru 44
emi 44
anza 43
 43
u, 43
iri 42
amu 42
Ö@@ 42
❑ 41
kud@@ 41
ʽ@@ 41
pi 41
idia 41
mli@@ 41
kut@@ 41
indi 40
○ 40
hali@@ 40
gha@@ 39
@@ 39
kia 39
+ 39
> 38
® 38
Bad@@ 38
ika@@ 38
eno 38
kam@@ 37
vip@@ 37
uda 37
↓ 37
č@@ 37
iba 37
uko 36
dha 36
ilo 36
inga 36
anya 36
ma, 35
eti 35
aza 35
iki 35
" 34
je 34
zit@@ 34
iki@@ 34
igo 33
gu 33
esha 33
ה@@ 33
kas@@ 32
ń@@ 32
iso 32
י@@ 32
ו@@ 32
rom 31
ה 31
C.@@ 31
habu 31
❏ 31
!@@ 30
▸ 30
uta@@ 30
ø@@ 30
iya 30
laya 29
ongo 29
← 29
Jehov@@ 29
kur@@ 29
£ 29
awa 28
udi 28
onya 28
fu 28
$@@ 28
kina@@ 27
onge@@ 27
̆@@ 27
Kig@@ 27
Mara 27
ï@@ 27
Math@@ 27
emu 27
Kus@@ 27
Mb@@ 26
uti 26
uu 26
kina 26
‛ 26
sema 26
mbe 25
ulio 25
mara 25
Una@@ 25
usa 25
lime@@ 25
ono 24
nim@@ 24
adi 24
WAN@@ 24
LOR@@ 24
nik@@ 24
Ã@@ 24
ū@@ 24
iza 23
ş@@ 23
Š@@ 23
Mwan@@ 23
❖ 23
■ 22
mw@@ 22
alo 22
ę@@ 22
obo 22
ð@@ 21
õ@@ 21
ume@@ 21
Biblia 21
kum@@ 21
ó 21
kea 21
macho 21
alip@@ 21
unga 20
sisi 20
è 20
?@@ 20
ą@@ 20
eza 20
ambo 20
jana 20
☞ 20
@@ 20
zia 20
uku@@ 20
⇩ 19
kuta 19
Ili@@ 19
ī 19
unda 19
ī@@ 19
‘@@ 19
Í@@ 19
ungu@@ 19
š@@ 19
Kik@@ 18
ghu@@ 18
ogo 18
yu 18
u. 18
ndo@@ 18
Kul@@ 18
⁄@@ 17
ange@@ 17
ý@@ 17
imu 17
ä 17
alim@@ 16
uta 16
yote 16
chea 16
inge@@ 16
bu 16
ʼ 16
umu 16
vy@@ 16
mali 16
safari 16
ś@@ 16
kun@@ 16
mwo@@ 16
uka@@ 16
@@ 16
ž@@ 15
ifa 15
Amer@@ 15
mu 15
muda 15
WA 15
asa@@ 15
↑ 15
amba@@ 15
à@@ 15
kib@@ 15
ï 15
uo 15
− 15
dha@@ 15
zim@@ 14
Ł@@ 14
abu 14
toa 14
uni 14
habi@@ 14
gund@@ 14
É 14
å@@ 14
elation 14
zee 14
kub@@ 13
uka 13
ł 13
ubu 13
isi 13
Nd@@ 13
aye 13
izo 13
usi 13
hali 13
ã 13
uko@@ 13
ungu 13
Tuli@@ 13
ē@@ 13
unza 13
▿ 12
▵ 12
@@ 12
anga@@ 12
ă@@ 12
Ó@@ 12
ö 12
tari 12
enga 12
hari 12
eshi 12
Ina@@ 12
udu 11
ø 11
ehov@@ 11
mama 11
hita@@ 11
yak@@ 11
acha 11
kus@@ 11
endele@@ 11
š 11
ß@@ 11
mg@@ 11
Wak@@ 11
Ż@@ 11
apo 10
sana 10
ngu@@ 10
umo 10
mt@@ 10
kom@@ 10
umba 10
ehova 10
Å 10
Ü@@ 10
dai 10
ā 10
î@@ 10
◇ 10
▶ 10
ý 10
kuru 10
aa 10
fano 10
usha 10
Ä@@ 10
tani 10
ugu 9
asili 9
⇨ 9
yali@@ 9
thi 9
kali 9
iwa 9
Ž@@ 9
uju@@ 9
uwe@@ 9
 9
iku 9
Dau@@ 9
azim@@ 9
vu 9
ŏ@@ 9
oko@@ 9
uzi 9
ishi 8
ē 8
kif@@ 8
keb@@ 8
Î@@ 8
wanyama 8
hika 8
chache 8
ivu 8
shamb@@ 8
ò 8
Å@@ 8
hif@@ 8
ezi 8
uki@@ 8
hao 8
Waf@@ 8
@@ 8
kuz@@ 8
twa@@ 8
hema 7
jiji 7
eka 7
_ 7
@ 7
[@@ 7
kua 7
.K 7
kuru@@ 7
gari 7
oja 7
egem@@ 7
Mwa@@ 7
imi 7
uku 7
oyo 7
zam@@ 7
mik@@ 7
Ś@@ 7
― 7
lote 6
̩@@ 6
¦ 6
kik@@ 6
ù 6
kana 6
Hilo 6
ü 6
akam@@ 6
ingia 6
kale 6
¡ 6
umbe 6
azi 6
Č@@ 6
č 6
ě@@ 6
ľ@@ 6
ㅇ 6
ufu 6
¢@@ 6
ǒ 6
esi 6
ō@@ 6
Ḥ@@ 6
ň 6
kand@@ 6
€ 6
ʺ 5
sala 5
kula 5
yari 5
wala 5
wali@@ 5
huru 5
Kup@@ 5
ι@@ 5
~ 5
ayo 5
ε@@ 5
ř@@ 5
Ç@@ 5
eso 5
Æ@@ 5
ż@@ 5
ㅅ 5
hani 5
Á 5
peke 5
æ 5
aha 5
⁠@@ 5
NW 5
nini 5
⁄ 5
\ 5
@@ 5
¬@@ 5
Yohana 5
ş 5
Yehova 5
ō 5
msi@@ 5
bora 5
pewa 5
himu 5
vya 4
sik@@ 4
Ú@@ 4
itu 4
umu@@ 4
wazi 4
zea 4
È@@ 4
Â@@ 4
ẹ@@ 4
Kwan@@ 4
namo 4
ς 4
­ 4
wale 4
ν@@ 4
σ@@ 4
Kuna 4
נ@@ 4
פ@@ 4
ש@@ 4
ׁ 4
@@@ 4
ungo 4
moto 4
adhi 4
ㅗ 4
Ô@@ 4
ć 4
kuo@@ 4
ㅁ 4
shwa 4
mk@@ 4
kuna@@ 4
ㄱ 4
™ 4
zile 4
hudi 4
▾ 4
tuba 4
uza 4
hii 4
wana@@ 4
itia 4
ㅏ 4
iani 4
tuta@@ 4
usu 4
sura 4
Yak@@ 4
huz@@ 3
mz@@ 3
а@@ 3
в@@ 3
kuv@@ 3
haki 3
Ndi@@ 3
¿ 3
ė 3
ṣ@@ 3
Ñ@@ 3
γ@@ 3
κ@@ 3
ν 3
΄ 3
Baba 3
kwa 3
hwa 3
Bwana 3
pata 3
&@@ 3
chag@@ 3
Luka 3
× 3
zote 3
å 3
huri 3
ń 3
kumb@@ 3
­@@ 3
π 3
Ş@@ 3
ı@@ 3
ő@@ 3
kaz@@ 3
©@@ 3
hiwa 3
angu 3
ū 3
ἰ@@ 3
ㅣ 3
ḍ@@ 3
Ō@@ 3
Ø@@ 3
uliza 3
elea 3
chini 3
kutia 3
➤ 3
aje 3
ĕ@@ 3
toka 3
leta 3
hasa 3
hizo 3
vif@@ 3
̇@@ 3
apat@@ 3
¥ 3
ň@@ 3
ß 3
ω 3
kuta@@ 2
ibu 2
maka@@ 2
poti 2
aji 2
п@@ 2
р@@ 2
и@@ 2
н@@ 2
י 2
ẹ 2
ò@@ 2
ì 2
ď@@ 2
ύ@@ 2
ο@@ 2
himi@@ 2
ώ@@ 2
ataka 2
Ē@@ 2
kazi 2
ansa 2
ž 2
hawa@@ 2
₦ 2
ㄴ 2
œ@@ 2
ithi 2
kuja 2
Afrika 2
evu 2
yana@@ 2
pote@@ 2
ifu 2
ereza 2
μ 2
ǔ 2
familia 2
̧@@ 2
msimam@@ 2
̗@@ 2
Ni 2
hup@@ 2
ְ@@ 2
ֹ 2
ṭ@@ 2
Jehova@@ 2
risto 2
Ulimwengu 2
enzi 2
ㄹ 2
÷ 2
⇧ 2
hizi 2
mwan@@ 2
Soma 2
ŭ@@ 2
ㅡ 2
~@@ 2
ㅓ 2
π@@ 2
amani 2
Timothe@@ 2
pita 2
dada 2
Í 2
#@@ 2
μ@@ 2
mav@@ 2
uwe 2
wani 2
hiyo 2
=@@ 2
Ω 2
*@@ 2
raeli 2
iliana 2
bali 2
û@@ 2
kush@@ 2
umani 2
ţ@@ 2
Uli@@ 2
Ṭ@@ 2
hata 2
laka 2
ȧ@@ 2
hadi 2
› 2
‐ 2
ʽ 2
wasi@@ 2
mno 2
apata 2
umia 2
imani 2
Na 2
usal@@ 2
WANA 2
Ń@@ 1
unapo@@ 1
historia 1
„ 1
Б@@ 1
ж@@ 1
ю 1
м 1
є@@ 1
м@@ 1
о 1
о@@ 1
е@@ 1
с@@ 1
т@@ 1
и 1
х@@ 1
і@@ 1
д@@ 1
і 1
Ọ@@ 1
ọ 1
afu 1
Κ@@ 1
ρ@@ 1
Ë@@ 1
Weng@@ 1
nani 1
Kwa 1
ingi 1
ś 1
fany@@ 1
소 1
đ@@ 1
ọ@@ 1
kip@@ 1
mji 1
^@@ 1
hada 1
dini 1
ô 1
zani 1
kumu 1
nili@@ 1
Mungu 1
È 1
elezo 1
tumwa 1
tii 1
zao 1
ㅕ 1
amoja 1
weng@@ 1
hapa 1
hutu@@ 1
hemu 1
angalifu 1
ㅎ 1
kuna 1
ק@@ 1
ל@@ 1
ד 1
¸@@ 1
huwa 1
sita 1
̆ 1
nara 1
사@@ 1
랑 1
ishwa 1
ㅌ 1
penda 1
ť@@ 1
Ą@@ 1
sawa 1
ongoni 1
yako 1
< 1
ㅜ 1
ㅔ 1
ᾶ@@ 1
ό@@ 1
υ 1
ekani 1
ă 1
Wali@@ 1
iria 1
Daudi 1
tuna@@ 1
awali 1
ǒ@@ 1
yeye 1
mambo 1
kitu 1
kidogo 1
watu 1
Kama 1
ungwa 1
상 1
liki 1
Mwana 1
zina 1
chana 1
anaye@@ 1
fikia 1
kuwa 1
mtu 1
zima 1
tuku@@ 1
weka 1
ẓ@@ 1
kwan@@ 1
ambao 1
¦@@ 1
unua 1
ziwa 1
ㅑ 1
kuli@@ 1
ṇ@@ 1
α 1
א 1
목 1
roho 1
hawa 1
ć@@ 1
mask@@ 1
}@@ 1
Ä 1
angam@@ 1
enye 1
Ε@@ 1
Υ@@ 1
Ρ@@ 1
isho 1
Ẹ@@ 1
Č 1
ź 1
☒ 1
dawa 1
ḥ 1
Badala 1
곰 1
gani 1
adamu 1
Bila 1
ㄷ 1
ɔ@@ 1
mbili 1
ㅋ 1
ㅂ 1
ㅊ 1
Ø 1
nje 1
zama 1
shang@@ 1
wao 1
zime@@ 1
â 1
wawili 1
uaji 1
Ndiyo 1
inyi 1
ondoo 1
omba 1
aina 1
ė@@ 1
mv@@ 1
toto 1
chall@@ 1
chwa 1
walimu 1
ukio 1
ά@@ 1
δ@@ 1
α@@ 1
λ@@ 1
ָ@@ 1
ֹ@@ 1
{@@ 1
} 1
Petro 1
ㅠ 1
Ê@@ 1
ə@@ 1
zung@@ 1
 1
utia 1
ő 1
bado 1
À 1
ů 1
ㅛ 1
ㅍ 1
wali 1
ì@@ 1
⇦ 1
tatu 1
izi 1
jia 1
mbi 1
akini 1
weza 1
wisha 1
jaa 1
Ō 1
§@@ 1
uaminifu 1
Sheria 1
ziki 1
ㅈ 1
▴ 1
gop@@ 1
Ò 1
vita 1
moyo 1
yale 1
ů@@ 1
aja 1
Δ 1
Α 1
ovu 1
ashara 1
τ@@ 1
kutano 1
û 1
yao 1
