.
,
the
to
of
:
?
and
“
”
-
a
in
that
bona
—
we
is
)
(
for
his
Jehovah
you
’
​
be
I
was
with
not
he
will
‘
have
as
our
us
are
on
it
1
God
can
Jesus
begodu
The
ukuthi
uJehova
from
who
what
;
they
!
do
by
their
What
Bible
or
abantu
njani
him
2
about
God’s
had
this
your
all
them
people
were
uZimu
would
at
How
did
when
3
one
an
Jehovah’s
khulu
In
time
my
has
help
4
how
kufuze
may
life
kodwana
5
so
those
ngayo
uJesu
We
He
6
lokho
but
me
15
more
her
le
12
also
love
10
u
Kodwana
7
khona
good
8
some
11
no
b
ke
9
14
make
if
kaZimu
]
[
into
should
way
many
When
wathi
could
izinto
13
been
out
work
umuntu
But
things
17
does
need
It
lo
such
kuhle
16
Paul
others
na
up
bakhe
faith
isikhathi
other
there
nanyana
example
y@@
namkha
indlela
even
ngombana
UJehova
18
said
Why
she
Kingdom
abanye
first
For
spirit
congregation
A
If
world
day
z@@
years
As
They
Christians
earth
family
than
because
phambili
l@@
20
Funda
Kubayini
19
know
ephasini
man
see
Read
these
njengombana
Christian
koke
s@@
made
namtjhana
must
S@@
This
says
ab@@
brothers
ang@@
ku@@
Israyeli
B@@
You
njalo
naye
nabo
spiritual
like
only
ng@@
kwaphela
Nanyana
nje
uthi
Yeke
Njengombana
UJesu
children
uPowula
which
ngendlela
22
heart
being
take
might
lakaZimu
kwakhe
24
iBhayibheli
21
give
become
true
kuJehova
ung@@
feel
Witnesses
la
i
come
then
And
That
So
b@@
use
well
lakhe
U@@
kaJehova
un@@
Christ
words
name
Ng@@
learn
over
al@@
as@@
m@@
e
own
boke
am@@
show
just
before
ama
kangangani
ngokuthi
Nokho
N@@
new
after
lapho
yoke
23
ngebanga
now
keep
W@@
ngitjho
nokuthi
woke
ones
zoke
times
ukuba
bang@@
very
labo
ngemva
•
important
leyo
bakaJehova
death
abanengi
why
men
kunjalo
much
truth
Qala
another
person
Word
el@@
faithful
abe
two
kwethu
Do
az@@
Ngalokho
any
n@@
*
Ngemva
eng@@
kwalokho
end
umsebenzi
want
find
u@@
es@@
David
each
L@@
ukwenza
say
25
To
kuZimu
zakhe
Satan
great
parents
ministry
John
ay@@
bonyana
U
K@@
/
right
ukuphila
kw@@
amaKrestu
read
serve
today
ez@@
Lokho
through
uy@@
bese
young
yini
kuye
bek@@
athi
in@@
study
eli
an@@
beb@@
28
ezinengi
loyo
However
godu
found
njeng@@
Ngokwesibonelo
is@@
its
told
ngo
never
able
part
apostle
30
en@@
enza
worship
sing@@
e@@
um@@
kwamambala
One
kobana
ub@@
M@@
w@@
hlangana
where
nabantu
Khuyini
means
though
em@@
wife
himself
i@@
kung@@
news
il@@
get
most
After
preaching
uku@@
ong@@
ngesikhathi
ibizo
E@@
kubayini
oku@@
service
gave
noku@@
Father
same
beku@@
holy
against
go
Abantu
zethu
consider
wakhe
okufuze
elders
aba
no@@
27
let
kube
akhenge
ka
iqiniso
amezwi
wrote
ing@@
mind
live
used
put
ebandleni
think
place
ele
doing
wethu
A@@
servants
course
ul@@
kukuthi
I@@
Yini
human
article
o@@
long
yena
disciples
too
UZimu
sakhe
ob@@
namhlanjesi
became
Uku@@
marriage
bab@@
peace
ne@@
29
set
eb@@
home
im@@
At
given
helped
anointed
eni
omunye
ela
ngoku@@
view
ways
ngalokho
am
during
amandla
King
26
baz@@
lokhu
Moses
Peter
uz@@
later
nab@@
nang@@
33
on@@
Some
hope
Kghani
every
aku@@
us@@
came
31
She
Israel
ib@@
Abanye
iinkhathi
ak@@
wab@@
azi
began
days
ani
often
back
Let
still
always
egade
siy@@
Scriptures
away
akhe
qobe
Kufuze
Um@@
iindaba
kwesikhathi
ako
understand
om@@
future
something
needed
living
iy@@
By
iphasi
sib@@
loku@@
ezimnandi
humans
k@@
year
Ngitjho
ezulwini
brother
be@@
fellow
lethu
ngaphambi
ask
serving
Israelites
ana
ey@@
felt
prayer
old
Y@@
Nengabe
loke
ing
son
Z@@
bakaZimu
power
Our
Then
O@@
iz@@
siz@@
ithando
bay@@
si@@
Psalm
sin
kaJesu
wenza
word
endaweni
ubujamo
malungana
nek@@
ocwengileko
whom
ise
kungenzeka
ile
woku@@
kwabo
See
heaven
IBhayibheli
Many
really
Godu
NW
s
loving
angekhe
personal
joy
koku@@
Matthew
abantwana
isa
together
babo
nofana
ath@@
questions
meetings
There
ala
soke
asked
abafundi
making
learned
wa@@
Even
lokha
nabanye
benefit
someone
best
His
down
32
lokuthi
kwakho
▪
indaba
look
wabo
umoya
My
bethu
ourselves
nom@@
Gen
counsel
aw@@
three
noJehova
Son
Is
asi@@
book
among
yoku@@
happy
wa
possible
full
gade
enze
le@@
Yes
ebantwini
R@@
zabo
husband
Because
ema
Ab@@
ad@@
er
Yet
No
iminyaka
purpose
sisters
century
sibe
under
themselves
esing@@
isibonelo
noZimu
ini
care
close
34
ababelethi
d@@
ed
ngazo
fact
ever
last
Kwathi
uSathana
experience
knew
reason
relationship
Isaya
With
kub@@
continue
ukufunda
wokutjhumayela
Job
sure
share
Kwamambala
Krestu
called
Adamu
face
baptized
ngaphandle
waba
hand
T@@
without
both
house
while
wanted
kumbi
ithi
sis@@
kungaba
support
ol@@
took
nengabe
H@@
result
message
ahl@@
father
order
wicked
ilanga
40
lakaJehova
iBhayibhili
On
elikhulu
abab@@
enjoy
phasi
os@@
different
imitate
yeke
bam@@
nguZimu
bad
friends
oz@@
ow@@
we@@
avoid
Rhu
UPowula
eka
bas@@
done
abang@@
language
matter
ezinye
ula
omkhulu
hard
saw
37
se@@
ith@@
bring
neb@@
Abraham
er@@
abaz@@
indawo
ar@@
ban@@
age
nathi
ekuphileni
organization
kiyo
nes@@
D@@
kghani
preach
abadala
married
knowledge
bes@@
Adam
cannot
gift
Consider
wam@@
ku
av@@
situation
C@@
id@@
All
Isa
lead
difficult
desire
mother
toward
ezing@@
kibo
Ngaphezu
babantu
mean
lives
better
ebeb@@
Ngiziphi
thinking
king
g@@
ukwazi
receive
needs
ngezinto
ye@@
woman
babe
trust
soku@@
esi@@
ihl@@
wisdom
ebek@@
however
strong
kutjho
bekang@@
ufuna
upon
ek@@
zakaZimu
t@@
iindlela
emsebenzini
thina
c@@
try
msinyana
having
ers
sister
giving
abo
weni
ye
F@@
abazalwana
problems
answer
abas@@
heavenly
believe
indoda
wise
wakho
between
nak@@
Lokhu
child
moved
sele
a@@
teach
ik@@
yourself
aph@@
again
pray
free
incwadi
Jerusalem
r@@
Sing@@
feelings
remain
es
kwaba
respect
New
ane
mankind
ingasi
few
35
decisions
endleleni
Your
thought
eyes
Those
These
angeze
speak
went
f@@
Ung@@
uzoku@@
kithi
esikhathini
budisi
000
Although
nayo
G@@
elwa
nawo
ezi
Joseph
wrong
1914
Kungenzeka
ate
C.E
likely
food
kindness
IzA
follow
phakathi
whether
yakhe
IINGOMA
bekufuze
kind
ileko
Begodu
qala
isi
change
loyal
Isaiah
real
iincwadi
question
eku@@
next
Kunalokho
left
iinqunto
received
ngasuthi
apostles
ukubona
sheep
United
Indlela
sin@@
zakaJehova
especially
died
nem@@
kuy@@
special
loved
ngokobana
Law
ngom@@
wants
ransom
aboFakazi
elithi
talk
Of
iswa
spiritually
act
resurrection
ethi
From
righteous
besele
pioneer
teaching
Omunye
Acts
Luke
lithi
amanengi
kum@@
account
gives
attitude
little
esiz@@
ukukholwa
ag@@
ngani
nations
Instead
sacrifice
members
P@@
system
ngaye
elo
SONGS
city
ukuthula
kwenza
Jews
watlola
eke
qualities
kangaka
perfect
ikholo
Rom
taking
wena
soon
ipilo
Timothy
th@@
known
past
kunye
ling@@
v@@
o
Bek@@
ubuhlobo
kh@@
law
self
y
nakho
tell
similar
senze
aban@@
ka@@
Who
bez@@
ngubani
yet
Watchtower
ngoJehova
naku@@
Ngebanga
elitjha
bami
fully
bekube
point
examples
uPitrosi
ngaso
kwami
abal@@
followers
following
principles
ibandla
sent
provide
esimini
ukwenzela
nging@@
sense
af@@
certain
Bona
akh@@
clear
nge@@
forever
uka
bathi
prayers
isizo
far
fine
Phela
khenge
promise
Iye
comes
dis@@
willing
Does
amb@@
Rha
’s
until
saying
esihle
O
kuz@@
kwa@@
shows
number
Thus
reading
going
zabantu
remember
kanengi
ukudla
it@@
ukuz@@
makes
honor
Satan’s
States
45
around
wami
ukub@@
sons
privilege
comfort
uth@@
lawo
heard
bey@@
case
taught
decision
Alo
righteousness
ngakho
iv@@
prophecy
slave
money
endabeni
yona
nation
elwe
sethu
nawe
abatjha
Lord
false
p@@
IRhubo
bew@@
sihlale
allow
off
nez@@
got
zing@@
ezihle
amadoda
ubuhlungu
Daniel
ngezinye
conduct
kom@@
World
matters
stay
opportunity
eside
nesikhathi
greater
bal@@
Heb
ngokomoya
cause
Paul’s
nini
ekhaya
ami
courage
mina
circumstances
rule
h@@
yethu
esithi
thus
mentioned
nguJehova
Bethel
land
truly
using
attention
li@@
nokobana
ithabo
ir@@
Umuntu
Rather
turn
promises
imali
kwakaJesu
early
eBhayibhelini
UM@@
strengthen
re@@
esi
ali
eling@@
enye
Eve
nazo
inspired
elder
ancient
everlasting
strength
temple
coming
serious
prophet
ube
Wathi
iKosi
if@@
qangi
ihliziyo
t
Romans
phambi
at@@
Abrahamu
ukudlula
nalokho
akho
small
wona
ngiy@@
Inga
accept
tle
blessings
apply
started
Noah
war
izwa
brought
afuna
ting
draw
present
akhuluma
inga
ukuthini
wom@@
body
Umpostoli
intando
helps
khulukhulu
Cabanga
kept
isi@@
Genesisi
okung@@
nor
ale
ithemba
ation
information
Mat
lokuthoma
Ngo
j@@
control
weqiniso
Uy@@
material
everything
Are
whole
sil@@
ig@@
atjho
uDavidi
esib@@
blessing
nange
standards
events
bekung@@
Bese
Am@@
ngokuvumelana
umlayezo
religious
ibe
freedom
ezimbi
lakho
Corinthians
women
bakho
ukuya
understanding
lis@@
Like
move
Today
zoku@@
ndawonye
elela
meeting
iph@@
ts
bazoku@@
kul@@
four
wal@@
khuyini
hl@@
nguye
kizo
iswe
kuthi
Ngombana
obey
individuals
kwakaZimu
Eqinisweni
suffering
school
isiluleko
usa
showed
ngiz@@
maintain
since
kusukela
Matt
sins
elako
ngab@@
38
kun@@
promised
waz@@
kilokho
kwam@@
E
wokuthoma
ithuba
Beku@@
ngoZimu
eth@@
direction
iim@@
field
ed@@
congregations
imibuzo
nami
kwabantu
Will
ekonzweni
V@@
Ps
liy@@
older
ukuze
During
oy@@
ukela
prove
group
James
beng@@
ated
appreciation
angels
ekulu
kuqakathekile
Sam
friend
dead
inikela
second
meaning
led
ziy@@
couple
fear
Can
ezis@@
Matewu
Now
Revelation
ehl@@
nomunye
isako
ted
Be
new@@
listen
works
return
nalabo
wathoma
tribulation
sithi
Did
Scriptural
41
determined
involved
ud@@
nothing
eminengi
thing
affect
advice
uM@@
religion
helping
2012
Ngokukhamba
THE
iya
unity
eze
amanye
confidence
and@@
interest
ngokupheleleko
sakaZimu
or@@
esizeleko
wezulwini
bath@@
enarheni
effort
health
Since
Abrahama
umzalwana
wabantu
near
Hebrew
along
focus
including
ph@@
anything
itjengisa
Would
lived
uza
anyone
hear
mate
nezinto
Still
happened
okuhle
naw@@
Proverbs
ngendaba
ethileko
states
seen
While
umusa
doubt
Isibonelo
wephasi
Creator
hearts
ukuhlala
served
way@@
okw@@
ngeze
regarding
written
Amezwi
assignment
phezu
night
umpostoli
ngaphasi
perhaps
Ngoku@@
activities
sim@@
isono
umthetho
kimi
encouragement
Greek
lula
B.C.E
evidence
wonderful
lost
kangangobana
othileko
witness
Uthi
mhlamunye
IBhayibhili
covenant
deep
uph@@
experienced
spoke
sizoku@@
azoku@@
Just
efforts
leave
else
IKHASI
ability
once
already
labantu
awo
please
ur@@
stand
alo
Jwanisi
zeBhayibheli
choose
umma
nendlela
kwe@@
ngokukhamba
provided
ukukhuluma
iliZwi
ubufakazi
okuthileko
goal
umbuzo
appointed
inengi
encourage
glory
36
issue
Ngesikhathi
ethu
end@@
ziz@@
wako
okungapheliko
country
nam@@
itjh@@
atjengisa
kingdom
Such
Devil
effect
Genesis
uk@@
easy
benza
Brother
awa
nesibindi
rather
start
izimvu
BakaJehova
thoughts
appreciate
zeBhayibhili
eza
ifumana
reach
Mhlamunye
desires
benze
Christ’s
precious
amaJuda
imperfect
noJesu
kiwo
discipline
ukufa
ma
kwanga
taken
esikhulu
iinceku
worshippers
grow
responsibility
Solomon
powerful
obek@@
believers
clearly
offer
kwaka@@
isiqunto
atjh@@
esifundweni
ika
sakho
ten
50
ngabo
iwe
Ngikho
certainly
based
humble
ngu@@
omuhle
branch
created
training
ayo
explained
continued
ngesikhatheso
kuwe
ok@@
sakaJehova
Im@@
tried
lapha
longer
uJwanisi
named
influence
yabo
nel@@
discuss
lokobana
Nje
isifundo
pages
here
amabili
ilwazi
flesh
Or
nezinye
ngamandla
Njeng@@
athoma
oni
ehle
actions
working
page
nasi@@
langa
st@@
AmaKrestu
sakaJesu
complete
ngam@@
changes
ind@@
born
zib@@
simply
nomuntu
answers
ahlala
head
aka
earthly
Em@@
umBuso
bahl@@
letter
alone
uKrestu
abangani
abalandeli
ipi
chapter
mathupha
kus@@
happen
ayi
bebang@@
inarha
foretold
emihlanganweni
ithanda
humility
ola
od@@
Later
endure
Their
ngalo
gain
39
uDavida
njengom@@
imisebenzi
regularly
ekufuze
blood
May
goals
esis@@
nges@@
Ngisiphi
imagine
USathana
aka@@
lib@@
etha
respond
Akhe
baptism
rest
ehliziyweni
emhlanganweni
die
al
Bible’s
everyone
hold
People
baba
abathembekileko
Kun@@
yom@@
ngokuzeleko
kuhlanganise
iin@@
ready
umKrestu
wazi
ababili
azange
abath@@
nokuthula
Kor
meet
realize
position
physical
stop
42
umb@@
decided
Not
Egypt
phela
available
ba@@
udade
wanikela
wakhuluma
ilimi
ila
ukuthembeka
wabona
closer
Namhlanjesi
First
Mary
bekan@@
trials
ngu
amukela
build
Keep
kwakaJehova
ule
happiness
aya
iza
aphila
Eks
recorded
kungakhathaliseki
nas@@
ngawo
ilungelo
ngabantu
nabodade
yokuphela
44
explains
isigaba
practical
enzela
whose
akwenza
isebenzisa
senza
stated
yabantu
lami
illustration
emb@@
kude
eli@@
value
knows
Also
ina
eJerusalema
showing
accepted
zi@@
bel@@
common
sifuna
umfazi
ihlangothi
ngem@@
nobujamo
Korinte
pioneers
Roman
encouraged
allowed
conscience
ukucabanga
akutjho
asiza
ilizwi
ha@@
public
zakho
anda
action
lom@@
okukhulu
Messiah
authority
ngo@@
uke
raised
PAGE
ezihlukahlukeneko
mumuntu
ngathi
Asa
large
hands
call
ent
ngikho
Have
eleko
single
zona
vital
wenze
izono
ukum@@
divine
visit
ukung@@
warning
ngokw@@
wang@@
amala
Cor
forgive
lot
IzAga
role
sacrifices
kuzokuba
instance
praise
enjalo
ngis@@
tjh@@
kwenzeka
kwabanye
Kung@@
languages
Indeed
abam@@
bakaJesu
high
ubuntu
eleni
reasons
sabo
daughter
considered
asebenza
personality
efanako
Jewish
regular
ekuthomeni
sibone
ic@@
heavens
prayed
teachings
greatest
proved
okwenza
form
sexual
Nasi@@
Before
ngil@@
2@@
ethembekileko
iinthombe
isipho
ukutjhumayela
harmony
ekela
okumbi
iinhliziyo
oph@@
prepare
layo
convention
offered
seeking
43
watjela
light
kutlhogeka
umnqopho
less
akwazi
ngi@@
akhamba
ukuy@@
nomusa
Therefore
fulfilled
speaking
worked
regard
history
tells
months
Perhaps
uma
Beng@@
qinisa
ahead
develop
quickly
bekaz@@
local
Nathi
Is@@
sovereignty
ating
isinqophiso
Ngiy@@
changed
munye
UL@@
ukuhlakanipha
encwadini
ngamunye
enjoyed
seek
Eva
umbono
saka@@
sikhathi
100
ukul@@
Babylon
examine
York
protect
fight
several
Ngezinye
Jwa
okunengi
umntwana
uhl@@
esim@@
kilo
beautiful
water
eyi
servant
Inengi
70
amazizo
according
kuth@@
ebey@@
creation
zis@@
judgment
wela
eBethel
enemies
Prov
umndeni
forward
ukusiza
anga
elelwa
overseer
emihleni
lesson
amatjhuguluko
abay@@
challenges
expect
circuit
clean
enough
publications
amagadango
esikolweni
ama@@
akukafuzi
US@@
ngib@@
nabangani
iko
Sarah
faced
ef@@
deal
earlier
bekazi
kancani
integrity
Jeremiah
litho
Ababelethi
open
assigned
uze
60
eminyakeni
benefits
ingcenye
ac@@
ezo
therefore
2013
alela
articles
described
elis@@
esizako
se
kukobana
problem
learning
ia
oth@@
namandla
2011
daily
eqakathekileko
J@@
elele
isiza
Hlangana
worldwide
pheze
Ngesikhatheso
kanye
yokuthoma
publishers
ngokuthembeka
kilabo
isandla
Most
loves
ago
esiy@@
Mark
grateful
65
Moreover
q@@
ne
Isi@@
kuqakatheke
wonder
pain
ney@@
Ngubani
resurrected
Memorial
kwab@@
okwenzeka
Labo
uf@@
government
paragraph
nabantwana
Naw@@
within
ipha
Uz@@
knowing
meditate
guidance
choice
en
reflect
yinto
kulapho
mazombe
kwaka
fulfillment
ukufumana
takes
positive
ngokungapheliko
shepherd
elinye
ikosi
Jehova
Enye
area
ze@@
invited
carry
amakhulu
turned
provides
amaqiniso
kufanele
eki
ukusebenzisa
interests
wamambala
myself
eembili
include
eph@@
indima
books
Hebrews
behind
iso
kwephasi
esilandelako
ho@@
lam@@
seem
English
Kusukela
iimbusiso
situations
Hall
eziz@@
getting
ukuhl@@
emva
challenge
blessed
iye
ukubusa
sami
liz@@
angel
salvation
athanda
relatives
occasion
Msinyana
izenzo
proper
ent@@
ly
isela
umfanekiso
office
watjengisa
begin
bulula
Mina
met
kwathi
deeply
force
bear
sith@@
negative
ezwa
umbuso
looking
abapostoli
izoku@@
Jacob
itjela
okutjhiwo
amakhasi
Ithando
convinced
realized
ukuzwisisa
becoming
eBhayibhilini
Kho
yokuphila
ngeendlela
acabanga
aza
students
phezulu
46
ies
addition
iindawo
uMatewu
ning@@
ngin@@
neng@@
yam@@
abamaKrestu
Watch
obuhle
Ngaphambi
poor
siph@@
sometimes
ize
attend
Internet
esin@@
alive
job
ekele
Efesu
express
held
eat
wath@@
ukuth@@
lin@@
sifunde
ebez@@
kuJesu
esifaneleko
isahluko
iinarha
Abadala
psalmist
any@@
lobuKrestu
ezintweni
command
pressure
imiraro
completely
interested
Khumbula
umphumela
teaches
Tim
iweko
further
period
yi
wana
siza
Others
k
iny@@
Koke
families
baph@@
nabodadwethu
concern
quality
ekwenzeni
kubudisi
New@@
True
uMosi
UK@@
revealed
Ngiyiphi
literature
uses
weBhayibheli
lakaSathana
ezib@@
iinkambisolawulo
entire
imitlolo
neen@@
khumbula
alwa
Kokuthoma
foreign
seems
explain
steps
womBuso
Ngokufanako
millions
nikela
elihle
arrangement
subject
five
kings
obung@@
laws
Samuel
Nek@@
Saul
paradise
ezi@@
imb@@
laka@@
baf@@
ngebizo
tree
Translation
yokuthi
Eliya
results
actually
amehlo
119
traveling
asebenzisa
ene
bekam@@
trying
specific
oma
okulungileko
personally
akha
khuthaza
race
elweni
inda
afunda
ngokuba
esinye
ihlangano
eendaweni
friendship
neem@@
shown
esil@@
iimpendulo
offspring
sp@@
beyond
ro@@
lo@@
train
despite
bak@@
UR@@
uJosefa
akghona
carefully
ukuqakatheka
amalanga
Life
ine
hlala
amba
Similarly
In@@
sihl@@
okunjalo
expression
sek@@
Think
rich
Remember
ikh@@
asil@@
Kuliqiniso
behalf
inceku
Elijah
short
loyalty
kokuthoma
added
zami
leaders
ifunda
Siy@@
ibona
ter
tr@@
walk
ukuziphatha
chosen
verse
Hence
ap@@
ekile
eny@@
olo
nethando
nob@@
wayo
amalunga
Iziy
David’s
lamambala
ona
accounts
studying
Kungebangelo
Another
amabanga
patience
ezinjalo
sab@@
understood
member
sel@@
anikela
akhuthaza
necessary
flock
progress
umtjhado
parable
EL@@
eso
emihle
asi
cultivate
valuable
som@@
Really
Love
bad@@
Clearly
uswa
ngethando
simple
seb@@
side
line
utjh@@
idumo
wawo
asking
Kazi
NG@@
azizwa
edorobheni
alisa
countries
Governing
arrived
elib@@
wokobana
undeserved
throughout
Imagine
overcome
crowd
speech
awara
An
wokuphila
ngomnyaka
Body
whatever
yakho
approach
amanzi
55
amathuba
uzizwa
enzi
garden
Each
recognize
een@@
epini
godly
athe
sazi
seven
zomBuso
feeling
ev@@
territory
angaba
kukhona
kuzoku@@
Thimothi
spend
forgiveness
beginning
ukulalela
iimbonelo
test
isitjhaba
keeping
sick
n
iimfundo
Iz@@
ezin@@
eminye
uSolomoni
wasebenzisa
Incwadi
kwang@@
Dut
nani
truths
basis
individual
priests
reward
kwayo
destroyed
ukw@@
eenarheni
isana
ngomoya
avela
esinengi
building
zil@@
bekas@@
kuf@@
key
six
lessons
acts
Australia
oya
Joshua
umdala
favor
spent
ngehliziyo
Though
Tower
webandla
engozini
uzwa
above
kokuthi
iintjhaba
lab@@
ikulumo
indeed
wives
abona
48
azo
okutjho
various
Great
sokuthi
elin@@
expressed
alinga
hours
source
int@@
okuth@@
baw@@
chose
filled
firm
iqala
atjela
returned
usi
kuhl@@
voice
ngokwakhe
prison
practice
imithetho
ilo
wahl@@
elani
okuz@@
amabandla
obedient
inc@@
zith@@
destruction
wesi
enga
bafuna
fruit
saka
Drama
week
importance
zim@@
preached
affection
evening
Paradise
Witness
School
bav@@
seBhayibhili
answered
eduze
shall
3@@
vele
wait
Liqiniso
mercy
modern
contrast
ekako
qinisekisa
centuries
vision
ibanga
conditions
ngez@@
eg@@
wan@@
eem@@
uDanyela
abaf@@
yobuKrestu
esivela
alis@@
itlhoga
libe
zomseme
atha
church
neither
cabanga
caused
bekafuna
ikonzo
zizoku@@
sex
abi
success
Isaka
sign
Kw@@
apha
mumoya
confident
Kuthiwani
kwe
Al@@
ngelanga
esidlulileko
approval
est
strive
ations
abathanda
saba
esele
sacred
final
ezisilapheleko
appropriate
Kungakhathaliseki
effective
Na
ande
seed
places
kikho
experiences
eventually
Lokha
ukulunga
Ukuba
image
react
attack
baku@@
careful
iimfundiso
nomthelela
ukukhonza
related
bo@@
okhu
encouraging
Pit
focused
education
sharing
AL@@
over@@
hour
kweminyaka
Soon
exercise
aware
compassion
yathi
Ub@@
abela
Efa
ngomusa
aqala
ese
urged
dedicated
yebandla
reveal
guide
isabelo
wezi
qeda
immorality
ikhuluma
ukukhamba
omutjha
sona
neighbor
iingilozi
Ngiliphi
Pitrosi
write
anger
missionary
immediately
battle
household
isele
Boke
Was
ulula
Elitjha
ngcono
zam@@
uMosisi
ance
sound
kubonakala
nasi
Nangabe
kuba
suffer
boFakazi
door
Edeni
entertainment
ug@@
Umoya
ume
bread
vumela
Ning@@
observe
Isaac
praying
ebujamweni
record
emimbi
Ama
for@@
watch
mistakes
usi@@
danger
yinye
abantwababo
aspects
yomuntu
th
ukulotjha
activity
uny@@
aqalana
IzE
ubaba
imininingwana
thousands
eziqakathekileko
soul
kuv@@
Pet
united
uba
ebeng@@
surely
eqinisweni
emndenini
iimnyaka
agree
ibh@@
morning
lack
lona
forth
Ibizo
Malungana
kweqiniso
lose
ezimbalwa
natural
isibindi
komunye
ezimbili
abanakwethu
Th@@
sikhuluma
abaph@@
azib@@
IsAmbulo
Un@@
weli
esitjha
attending
seemed
kutjengisa
weso
obo
Cabangela
ihloko
abakhethiweko
othi
nguJesu
justice
published
Beb@@
temptation
followed
Eden
ahla
bless
cope
akhona
fire
beliefs
Ku@@
umela
brings
lokuphila
army
ant
nokub@@
mis@@
emba
protection
nokwenza
yang@@
unjwa
et@@
sincere
Akh@@
l
uzokuba
naboFakazi
text
conversation
imitjhapho
sebenzi
refers
offering
ngokwenza
amathathu
ingozi
bahlale
original
zom@@
ekhe
kwawo
zeal
isithembiso
ngim@@
aye
Into
reasonable
m
attended
ates
least
waboFakazi
Dan
seBhayibheli
kwem@@
Nange
Students
itjho
enz@@
thanda
ihlathulula
ec@@
pay
Judah
uthukisa
angaz@@
condition
ic
kabuhlungu
Tjheja
Soke
kunalokho
nangoku@@
iLizwi
parts
ifundisa
iinqophiso
alele
elana
energy
nokuba
nakathi
meant
ep@@
sort
Ukwenza
According
1919
onjalo
Abanengi
ifuna
naso
ethe
esithileko
former
ingilozi
benging@@
successful
Armageddon
basi@@
okul@@
moral
Despite
Jer
grew
abakhulekeli
one’s
Ask
included
ukunikela
easier
akaz@@
town
wenu
ngapha
involves
abavela
kwez@@
ezikulu
weminyaka
enemy
zin@@
About
umtlolo
atjhumayela
Young
Iqiniso
uye
amane
event
Roma
Indoda
bahlala
wekadeni
response
enter
birth
Gal
ze
passed
universe
sing
Ephesians
responsibilities
bathoma
areas
lands
nomndenakhe
forget
sokuthoma
akam@@
zealous
of@@
waya
ngaphezu
late
wabe
aba@@
Num
ade
ew@@
ark
genuine
instead
anxiety
siv@@
dedication
abahl@@
ame
eya
okub@@
gifts
ukhuluma
sokobana
har@@
Ngimiphi
bebaz@@
ezingokomoya
isihloko
arh@@
51
akhange
angas@@
fulfill
ephasinapha
prophecies
isib@@
ukhona
imiTlolo
AM@@
p
walking
refuge
spoken
op@@
survive
prospect
relates
privileges
anc@@
umba
esihlokweni
step
opportunities
paragraphs
khonza
uDeveli
IKosi
Iim@@
Awa
remained
uBaba
ulala
kuph@@
Holy
nephasi
Nang@@
note
Ngakelinye
wazizwa
beBhayibheli
persecution
Ang@@
akholelwa
lil@@
looked
ikolo
ngilokho
ukukhulekela
pride
prepared
andela
unga
concerned
ezim@@
Where
ngamezwi
salokho
nokuphila
UB@@
fruitage
zevangeli
nomoya
evil
enziwa
wele
njengo@@
improve
eGibhide
Akhenge
iimbuzo
okufanako
Sin@@
wethando
omumbi
Kuy@@
abalungileko
ngomunye
sam@@
putting
ikela
priest
ubona
IS@@
lalokho
ngokub@@
patient
overseers
Izinto
sif@@
uyazi
failed
ar
akholwa
eight
indodana
Okhunye
uS@@
abafazi
awe
sid@@
treat
waiting
esihl@@
azesiweko
nobudisi
Angekhe
noM@@
ayib@@
ukele
consequences
ena
calls
phatha
usebenzisa
aj@@
yesikhathi
afundisa
uw@@
nangabe
abenza
siphila
slaves
visited
akan@@
kuhlekuhle
ikululeko
immoral
ngeenkhathi
ngoJesu
picture
parent
class
neku@@
nabafazi
yamambala
standing
lies
ekuseni
yenza
emtjhadweni
namhlanje
violence
killed
uhlale
St@@
ubumbi
faithfully
Rome
Iin@@
scriptures
produce
mar@@
rejoice
AboFakazi
Over
tion
pioneering
discussed
referred
lang@@
warned
ofuna
studies
translation
uThimothi
resist
tjengisa
ukuphela
yephasi
ngathoma
kanti
required
amukele
Kh@@
iveza
ipendulo
disciple
includes
miles
pursue
bekwaba
ulwa
Teach
akhetha
bekasolo
etjh@@
nalo
pornography
trained
elderly
exactly
idea
yeBhayibheli
Ar@@
ebew@@
accurate
angan@@
omb@@
demonstrate
ekho
More
conclusion
abonakala
appear
engaphezu
war@@
nan@@
accomplish
za
zephasi
kwenu
ings
nalokha
okungenzeka
amagama
waph@@
T
Thina
itj@@
sifunda
wezo
wafumana
Bang@@
tjela
yourselves
Look
appeared
esiph@@
ES
ukuzwa
80
boku@@
itself
notice
Ngimaphi
nesi@@
youth
akw@@
isivumelwano
save
edlulileko
lie
mnyaka
Luka
ngokuz@@
iseni
fail
Ngimuphi
iingcenye
ij@@
acceptable
ezithileko
discreet
ge
decide
komuntu
demons
opposition
insight
aneni
lizoku@@
nge
almost
views
display
minds
ngokukhethekileko
saved
affected
weBhayibhili
don’t
oneminyaka
hurt
batjh@@
security
nal@@
uv@@
Siz@@
Con@@
younger
Could
pleased
ahlela
he@@
okhunye
azith@@
uhlala
sitjengisa
ngel@@
esiphila
ngaphambilini
niz@@
ex@@
andula
verses
comments
imiphumela
ot@@
fall
ian
state
talking
singaz@@
courageous
ngesi@@
opened
Rev
ness
Isihlokwesi
isekela
esiBusako
ukuthobeka
ence
nasing@@
yindlela
cut
UD@@
Ez@@
lomBuso
18@@
onakala
half
secular
komndeni
watjho
ogade
afumana
ahlale
ilifa
Through
ngaphakathi
AR@@
ukusebenza
khudlwana
ohl@@
2010
nature
esikhundleni
yab@@
commanded
ngokunqophileko
iimfanelo
ngaba
pl@@
ambalwa
wokuthi
type
instructions
ukuph@@
EN@@
IzEnzo
zi
sinful
angal@@
kindly
Philippians
ti@@
wafunda
isiqhema
busy
ngibe
namanye
room
qale
isifiso
presence
batjho
indla
Mar@@
rhelebha
sem@@
AN@@
beloved
khuluma
Passover
rulership
dl@@
nobuhlobo
story
kunoku@@
akuth@@
de@@
kuku@@
ezibudisi
month
ngeqiniso
ngekhe
suffered
yaba
igadango
afraid
wathatha
IRhalani
yem@@
ekelwa
umthwalo
ezihl@@
car
noKrestu
heartfelt
recreation
kwa
nabazalwana
UJ@@
refused
ehlanganweni
anisa
Loyo
obunjalo
und@@
sees
wakhetha
nokho
abh@@
elithileko
ngeen@@
abad@@
strengthened
listening
ip@@
bazi
nethemba
El@@
owenza
ngimuphi
man’s
72
nekholo
als
akhumbula
zawo
Hezekiah
kwanje
500
limited
built
existence
assist
Abraham’s
amaphayona
mature
ut@@
otjh@@
onethando
either
ngokuhlakanipha
abantwabakho
abafowethu
Nevertheless
assured
Esinye
4@@
riches
guard
seeing
IK@@
naphezu
ole
sitjh@@
akul@@
Namtjhana
Ngendlela
esith@@
Kwanga
Wena
waw@@
abahlala
sh@@
unomphela
okuf@@
play
organized
ary
invitation
UN@@
relief
jw.org
boy
term
marry
Being
direct
usually
closely
devotion
esifanako
world’s
emabandleni
break
iwa
feels
ngikuphi
rely
naku
bafunde
IN@@
U.S.A
ity
AB@@
ering
par@@
ifundo
iNdodana
communication
wokwenza
ezithembekileko
choices
ukuthanda
avumela
believed
prevent
Nak@@
iku@@
nasele
ubunye
Ekuthomeni
iNdodanakhe
abafuna
viewed
ngisiphi
Her
athatha
meal
ous
ucabanga
obu@@
ummoya
engaba
uMariya
ebe@@
succeed
wala
elel@@
emehlweni
basic
Family
Ezekiel
ngomthandazo
ulela
awake
setting
Akhucabange
sizimisele
Kutjho
stopped
abanjalo
loss
Gilead
Ngokw@@
describes
nokukholwa
ond@@
49
esiku@@
enzele
wine
freely
France
ekelwe
zenu
satisfaction
kuya
kud@@
join
I’m
qu@@
UDavida
7@@
bekal@@
andisa
nokufa
ba
neentjhijilo
umuzi
Si@@
political
sik@@
zakaJesu
kuphi
declared
ohlala
sikghone
eyenza
ecwengileko
million
seng@@
sizabe
adds
homes
illustrate
andla
abangela
elelwe
funda
womuntu
enu
ezinjeng@@
ike
discouraged
amad@@
walo
izwe
iingaba
promote
ezil@@
kutjh@@
inikele
lotjha
worse
per@@
abav@@
khamba
governments
isil@@
War
ended
points
bacabanga
bl@@
ukukwenza
translated
leading
worth
ch@@
delight
iinthelo
ngokung@@
kwenye
Nas@@
teachers
esik@@
bekuz@@
afana
wes@@
Uzoku@@
Efe
ally
Kanti
ngathana
OF
receiving
zaka@@
eenhliziyweni
caring
iRhubo
ekutheni
lesi@@
lasting
abazesiweko
kusenza
association
S
esikhathi
box
ihlanganisa
umlando
greatly
destroy
ulako
distress
indlu
efaneleko
moving
witnessing
helpful
drawn
directed
AK@@
Esikhathini
ngeBhayibheli
pure
wak@@
ayith@@
pha@@
groups
Isihloko
nakancani
spread
sabantu
obedience
ara
bu@@
wakhuthaza
spirituality
emotional
lim@@
cr@@
nokuz@@
aphasi
Juda
akhonza
Naku@@
asiz@@
Faith
Khona
te
Mosaic
akub@@
siragele
gone
facts
cases
zibe
isile
acted
izandla
uzaku@@
ty
ngokuphila
66
animals
patiently
hlanu
endurance
kaPowula
iingazi
uMesiya
nanamhlanjesi
aze
ukutjengisa
had@@
utha
isithombe
Sometimes
bekay@@
Gospel
ES@@
ake
Canada
workers
pass
akal@@
eendabeni
ground
cities
iinhlobo
bearing
Parents
uSawula
eye
tjheja
embi
–
eS@@
Once
pleasure
aspect
ngiyiphi
Messianic
divorce
contact
ikelela
asib@@
iselwa
easily
tive
kwezinye
ngob@@
rejected
mb@@
lokuba
essential
witnesses
ekh@@
asith@@
khul@@
Woke
iyo
ngethabo
uJakopo
injustice
ubone
road
ikelwa
ahlekelwa
Eminyakeni
ngaz@@
letters
conclude
big
umntwanakho
isiqubuthu
non@@
afika
afumaneka
telling
wad@@
studied
values
EM@@
opening
epheleleko
ili
Elisha
mhlokho
ejele
ill@@
beban@@
Make
RE@@
reveals
Samyela
okungeziweko
ngokomseme
weeks
atj@@
alalele
baka@@
South
practices
uc@@
okuhl@@
principle
womndeni
Bobani
ekukhulekeleni
umzamo
ngizoku@@
besi@@
wahlathulula
tongue
creatures
Ezinye
okuthula
unique
report
EK@@
engasisiza
uya
ebekufuze
umvuzo
beying@@
akhula
kamnandi
aragela
iw@@
expressions
Kron
asolo
esonweni
sikwazi
siw@@
warm
becomes
ngiyo
feet
established
abanakwabo
bebandla
iinthembiso
maKrestu
tj@@
km
ekileko
Ik@@
music
extent
Isikhathi
ovela
ngesibindi
kini
applied
IL@@
seriously
akunye
nombono
eenkhathini
Be@@
ngelinye
disfellowshipped
okungokomoya
forgiving
ngibo
esif@@
ubudisi
apho
abantwaba
etja
aq@@
ithatha
ukile
applying
trial
afuni
pro@@
ikhasi
ibuza
Only
njengomuntu
uR@@
ukuthatha
quite
contribute
iba
wenakhe
bewung@@
treasure
raise
nama
challenging
emotions
kaSathana
continues
kangako
Questions
master
nay@@
con@@
reject
c
nemiraro
ngokusuka
kade
besib@@
ngokuqinisekileko
AmaKhosi
zazo
83
ukubulunga
sokuba
ekuhlanganyeleni
amount
linye
measure
oba
Umma
Sadly
issues
fell
isihlengo
nomsebenzi
othembekileko
Germany
ucabange
isiyeleliso
ambo
anyana
TH@@
kaKrestu
lem@@
correct
bond
eager
ngomBuso
difference
person’s
ov@@
Lukasi
engokomoya
ngokukhanyako
eleli
evidently
litjho
anikele
subjects
ors
nina
determine
lalela
proud
engi@@
naka@@
sizwisise
bekab@@
Should
Ngiz@@
Amanye
marhamaru
up@@
raro
laka
legal
Sib@@
47
student
uzob@@
iseluleko
sathi
Second
drink
UDavidi
umthandazo
ubukhosi
ukud@@
daughters
indicate
details
ngiziphi
third
ngabanye
bom@@
Nging@@
isani
Ukungezelela
ayoku@@
Iphasi
treated
responded
willingly
njengoku@@
siphile
ufunde
ukh@@
Here
bafumane
Likewise
ngaphambili
neenlingo
uleka
ngal@@
Ngaphandle
Europe
wini
companions
selfish
wahlala
IliZwi
joined
teenager
impressed
inheritance
eqakatheke
allows
Duteronomi
eB@@
Indaba
theocratic
angena
ya
represented
ubh@@
soldiers
Danyela
akhulume
epilweni
Kunokobana
aveza
ingisa
iimfiso
olungileko
athembekile
perform
somuntu
eliZwini
touched
magazine
Kanengi
beast
concerning
Levites
Worship
Whether
sitlhoga
veza
Ind@@
Finally
akuthabela
ill
ekhasini
ezith@@
likewise
cares
ragela
zayo
descendants
ukuqalana
entered
er’s
aside
emibili
manner
deliver
Africa
reaching
outside
send
avuma
liv@@
asinikela
sebenzela
elisa
bani
53
ngelimi
iphazimulo
yes
active
identify
decades
rebellion
solo
def@@
54
icabanga
Qobe
listened
placed
wild
expected
Jesu
ukwamukela
abatjhumayeli
welo
yami
5@@
judge
Jehu
concerns
idl@@
res@@
gratitude
assistance
nabang@@
ical
Abela
ist
OM@@
umraro
proof
amath@@
laba
Note
increase
ayil@@
difficulties
bekum@@
front
bobabili
isweni
conventions
1950
utjengisa
eating
Ph@@
hearing
indodanakhe
joyful
obu
Iziyema
iinhloko
bebab@@
lifestyle
ulunga
uli
uyise
sa@@
ima
nangokuthi
fill
Ngikuphi
asenza
abilities
Land
Russell
aziko
engage
athandaza
honest
kuliqiniso
ngeendaba
ebeku@@
emzini
oqakathekileko
yamala
eM@@
violent
msinya
temporary
ihle
waragela
phila
kokubili
waf@@
dangerous
ah
wem@@
nomfazi
umnyaka
bar@@
committed
awa@@
sifumane
Eph
teacher
claim
kwanjesi
vela
prophets
isikhuthazo
requires
ebusuku
compared
ying
ase
finally
ezivela
bokuthi
her@@
engisa
sicabange
viewpoint
Enoch
Exodus
lith@@
veke
ezif@@
buy@@
rise
ikelwe
tl@@
wav@@
cha@@
request
kwama
iintjhijilo
andaba
iinzuzo
search
probably
tw@@
athembekileko
wez@@
wisisa
win
aqale
ifund@@
nguSathana
ihlelo
zihl@@
occur
atlola
og@@
struggle
namunye
wickedness
abele
wathumela
sleep
ayikho
esingakwenza
Ngibuphi
ahlangana
miracles
lik@@
anxious
scripture
bekazoku@@
Abantwana
statement
Arhabi
ious
April
ben@@
ikambo
okungaphezu
okho
couples
elitjhumi
ifundiso
uBabethu
isibusiso
Spirit
qakatheke
Umzalwana
iintlhogo
ngenye
6@@
waveza
weak
trusted
avumele
Catholic
Israel’s
ELA
umele
career
Q@@
recent
girl
ite
isiphelani
nesib@@
ukuphayona
cabangela
iinlingo
ngithi
ngokuhl@@
Ak@@
abangaphezu
kukulapho
Am
abazi
hospitality
discussion
sifune
IsAm
Namkha
alib@@
Neng@@
walked
elinjalo
okwenziwa
Israelite
ingan@@
umndenakhe
ou@@
Umsebenzi
73
apha@@
akuhl@@
missionaries
tempted
anjalo
instruction
High
lithando
oyedwa
Baba
poverty
ukileko
ukulibalela
iri
Ngokwenza
andakanya
occurred
Hebheru
uzokwenza
hlangano
nobuntu
Good
emfanekisweni
umyalo
ideas
Yena
Noah’s
atlhoga
Jobho
asis@@
Two
fleshly
Inogo
Abazalwana
ukulawula
bethe
phendula
vane
Sovereign
ses@@
tender
kwakaKrestu
size
angry
Every
naz@@
bakaKrestu
Well
sight
Ahab
emuka
sibalekele
main
abatjh@@
akwenze
nib@@
provisions
surprise
enzani
tlhoga
zab@@
phayona
eternal
isikhatjhana
represent
ses
abak@@
www.jw.org
elungileko
Take
siyazi
el
formed
dealings
Kwesibili
kaMosi
obukhulu
isibawo
ngokuphumelelako
ER@@
Promised
ezintathu
considering
lihl@@
Ngin@@
awul@@
reached
ngetjiseko
iinkulumo
resolve
ngeem@@
okuthoma
akukafaneli
eentathu
iphi
nanini
dla
presented
ukuhlanganyela
growing
eleleko
gradually
evident
sew@@
gods
path
endlini
asihl@@
discern
uSara
sc@@
Kub@@
critical
normal
TO
anakho
ome
IN
abaku@@
due
arise
2014
uzimisele
ikele
uYise
uJobho
ruling
opheleleko
akekho
izokuba
balinga
yama
widow
adultery
military
alemuka
nokuhl@@
yokuhlala
rec@@
Ukuphila
Ne@@
ha
ekupheleni
Version
UPitrosi
guided
aso
tions
bung@@
appears
Bab@@
iwo
shepherds
dear
OK@@
sinners
run
chapters
isiweko
ikhamba
benefited
ngan@@
England
eemnengi
Deuteronomy
ma@@
sen@@
kukwenza
inani
generous
stronger
general
endaba
osele
ethela
una
zizinto
iphaseli
bephasi
angab@@
speaks
Nathan
thank
qalana
Pharaoh
yi@@
khetha
Kuz@@
omncani
nebandla
imu
thetho
associate
ehloko
Ukuhl@@
owa@@
nearly
was@@
eqadi
ngokutjhaphulukileko
Regarding
ulele
esihlokwenesi
wokuba
responsible
amaHebheru
ithabisa
yingcenye
refer
although
aneminyaka
wakh@@
ifunde
ongo
nama@@
yez@@
Among
kuyinto
esiv@@
landela
kiso
ufumana
sig@@
primary
akutjhoko
akhul@@
ish
sal@@
kune@@
Ngokuqinisekileko
Kwaba
akas@@
UMtjhumayeli
bokuthoma
Under
amalimi
COVER
provision
elingokomoya
travel
aphi
quoted
ement
silalele
ej@@
sibonelo
kwamenza
man@@
ere
opha
Okufundiswa
asik@@
bringing
hol@@
thankful
yesiHebheru
dumisa
suggestions
wenethu
ngobujamo
Luk
invite
Sizoku@@
sea
kazi
aphumelela
ekw@@
itlhogomela
ngifuna
evela
Ngelinye
esid@@
id
sizokuba
Ekugcineni
elil@@
iingidi
ekwa
major
uNowa
Christianity
nomkakhe
1@@
sebenza
bakghone
umhlatjelo
isintu
Having
bokobana
iink@@
nokung@@
thi
umhlambi
nehlakaniphileko
nqopho
songs
Ukub@@
hle
Give
abathi
bawo
isize
ufumane
modest
Ngayo
ethemba
eyadlulako
names
throne
invisible
ilungiselela
ophasi
Ama@@
mere
satisfying
sithembekile
zokuphila
amab@@
elim@@
urhulumende
bayo
ngomuntu
abasiza
ngabona
Y
Abel
reality
okum@@
abahlongakeleko
Knorr
gr@@
enziwe
Kuhlekuhle
yokwenza
Furthermore
sakaPowula
reminded
Re@@
sinned
adl@@
particular
shared
eliz@@
Father’s
qiniseka
bafumana
ikhumbula
edition
legatja
mental
Sea
noted
yawo
amalungiselelo
onakalisa
advantage
Phil
90
abul@@
appearance
sought
recognized
determination
pha
land@@
motivated
obudisi
traveled
ngokum@@
impossible
baya
remind
merely
forces
imikghwa
secure
successfully
ful
nokuth@@
idela
ING
bekahlala
ondla
iinsebenzi
str@@
ebizweni
ters
Nawe
afunde
khonokho
osesemutjha
As@@
Ngathoma
didn’t
wama
athaba
ngokuthula
onile
sevangeli
business
outstanding
abawa
oc@@
forms
●
October
bobani
ON@@
abone
inner
yePhasi
ending
Kubonakala
reference
angaphezu
bangani
15@@
grown
kwel@@
accomplished
inta
separate
connection
developed
abatjhadileko
athulula
uyaz@@
ukuthokoza
izwisisa
IZ@@
dealing
izenzakalo
sikwenze
occasions
sang@@
kunokuthi
umnqophwakhe
amakghono
h
HO@@
athu
wabeka
ny@@
besing@@
behavior
iphe
nabafundi
ihlobo
September
amavesi
kwes@@
enging@@
62
ukutjhada
naloyo
kokub@@
mates
yokub@@
umqondo
wesi@@
ukug@@
ekufeni
social
nesiz@@
culture
asisiza
grief
linga
aphile
untu
wisana
okozela
peaceful
akubona
II
amalungelo
tlhogomela
kween@@
kokufa
Kosi
series
bakholelwa
ukutlhogomela
ende
angakghona
ngomsebenzi
61
exists
assignments
Ngathi
singakghona
ngeb@@
humbly
ubusuku
UG@@
siqale
eNew
appreciated
ngas@@
ekeni
ondo
akuf@@
ngith@@
endeavor
halelwa
kuthiwani
seventh
Britain
qina
uNuwa
recall
Kungaba
esikunye
pattern
superior
constantly
manifest
neighbors
illness
ahlathulula
inde
deeds
ukuyenza
engeziweko
higher
abancani
Afrika
Amadoda
ween@@
ukuzinikela
fl@@
yokobana
iphendula
sathoma
sebenzisa
Kus@@
sikhumbule
advance
providing
Mexico
Japan
awu@@
nokhunye
consideration
describe
wel@@
Robert
ide
osi@@
ism
enzako
Il@@
eentweni
izipho
thousand
ehla
ngezinga
car@@
declare
yesibili
harm
ngenze
Go
etjengisa
kungasisiza
kezinye
Thi
wazo
uMbuso
Picture
July
ingomuso
ngomnqopho
iphila
akusiza
izo
basebenzisa
amanga
azokuba
ministerial
nil@@
batjhumayela
significant
52
abisa
imihlangano
Never
namadoda
ivikela
dress
leso
inv@@
designed
adjustments
inside
sisuke
writing
ukutlhaga
carried
kunokobana
dwelling
iphethe
onamandla
factors
YiBhayibhili
andl@@
indele
lob@@
ezisekelwe
irhubhululo
mistake
isiyalo
encwadi
lif@@
Whatever
igunya
contains
namazizo
comforting
wabuza
Eksodusi
isibili
umhlangano
beneficial
Ecclesiastes
leqiniso
eziph@@
allowing
IB@@
ahle
umonakalo
husbands
esiqakathekileko
ans
powers
slavery
ends
performed
ngokungeziweko
akhi
kwenzeke
kwenze
engiz@@
court
research
esem@@
ukuthandaza
address
weemnyaka
influenced
singing
mighty
nangom@@
environment
cono
associated
alalela
aphakathi
ikel@@
ess
keeps
youths
namezwi
thwalo
stake
wabawa
acting
ngengomuso
imizamo
Joseph’s
tjho
ayenza
nelwazi
iinyanga
Both
engcono
hundreds
offers
worthy
Learn
observed
leaving
Ruth
growth
Without
akwenzako
Ib@@
Colossians
umzimba
ingly
ngasikhathi
Flood
onisa
Jak
eLizwini
bed
ibeka
M
grasp
aziwa
bazib@@
tjhumayela
associates
Pentecost
njengabantu
preceding
useful
Pheze
indicated
ri@@
purposes
potential
ngek@@
Brazil
Aku@@
yedwa
esiw@@
Mount
released
sencwadi
remarkable
Bew@@
enzeka
ebe
esibindi
Ubaba
amth@@
AN
zalo
adjust
Asiriya
goes
ungaz@@
ezine
Him
zikh@@
EZ@@
instructed
wheat
ents
Society
encani
Ukufunda
hay@@
Halls
okuvela
surprised
Ukufumana
asize
reaction
Njani
eleke
njenge@@
kilokhu
ukufundisa
isimu
bafunda
ry
yakwa
Awake
white
uzabe
ain
ngalabo
program
Has
esinamandla
abuy@@
ure
imigomo
uL@@
iimb@@
wahlongakala
ukutjh@@
amal@@
global
akwa
vikela
ukulingisa
No@@
recalls
amadala
Njengo@@
Explain
osi
wish
nobunye
eencwadini
plans
uyasithanda
ngoba
Ukukholwa
kwelanga
ely
wakghona
nepilo
kwalo
yikosi
nokw@@
umThetho
uqala
zange
ikambiso
ukuyoku@@
healthy
Hlathulula
ukutshwenyeka
Naphezu
emithathu
ofisi
wani
unye
sifumana
emiTlolweni
ngokuzithandela
sun
ukuzaliseka
sit
khula
ezako
uK@@
bazizwa
Esihlokwenesi
amaphuzu
akus@@
Baz@@
Wab@@
besiz@@
eWolweni
enc@@
khumbuza
cover
stayed
benu
enakhe
amaphilo
namuphi
ubuhle
kungenza
residents
bakhona
engiy@@
isazi
bekolo
Kwanje
heal
process
Ad@@
handle
site
uki
Ex@@
ngiliphi
alwe
indodakwakhe
qualified
aki
jam@@
uzoz@@
journey
landu
ahlanganyela
wis@@
Kunokuthi
neencwadi
les@@
9@@
ulo
ukufika
ukubhajadiswa
sang
Akakho
babona
elimbeli
bewa@@
abelo
asin@@
emoyeni
|
56
aleli
utjho
uzom@@
zaba
Lapho
ED
umkhumbulo
emalangeni
alert
izazi
athathe
City
writers
uJeremiya
preparing
Akunakuzaza
63
ukubeka
ikhambo
Kuyakhanya
angenza
yeen@@
kabili
akhethekileko
writer
Nehemiah
esenza
delivered
alelako
isirhawu
Nisan
Yenza
kuzosisiza
upha
noticed
103
izizwe
wokuphela
Ukuthi
mention
Michelle
singaba
assurance
directly
ozoku@@
Phakathi
khamb@@
di@@
ukuzithabisa
Thim
Ngilokho
singas@@
leBhayibheli
asiphe
exciting
abambi
Aaron
causes
arhelebha
acknowledge
UThemba
conviction
ziin@@
nakakhuluma
mamandla
bag@@
gathered
brotherhood
kwazo
epilo
sizokucoca
bangas@@
ungaba
Ephasini
iinkhonzi
ukulandela
anako
uMzalwana
uJobhi
abroad
akuk@@
Esi@@
Other
Children
osa
ator
cost
nentando
ukuv@@
akufumana
akhethiweko
rules
senzeni
financial
ial
Notice
Esewu
inter@@
wars
umlandu
uJ@@
Lord’s
umtlhago
contrary
ezimalungana
wesikhathi
uFakazi
apart
nethabo
isiphelo
sit@@
emp@@
isebenzise
particularly
ezid@@
ukuthembela
kwal@@
eziphathekako
Ukuth@@
Kungombana
escape
zithi
ered
ukanisa
ilungiselelo
repentant
ds
irh@@
inhabited
requirements
ethando
onda
weRoma
Corinth
uthela
Tjh@@
WE
ukubalekela
walemuka
construction
ngokusebenzisa
sikh@@
akghoni
ubudala
ethempelini
sayo
umphorofidi
bakhamba
ivela
kwenziwe
ngawe
elith@@
nabadala
background
kukuphi
nokul@@
god
iphuzu
Ukulandisa
irhelebho
international
alise
communicate
ijima
elivela
raga
ukuf@@
siyenze
wakhamba
belong
unyelwa
sub@@
granted
ruler
2009
ay
atjelwa
hal@@
nasiz@@
village
bekub@@
owathi
sitjheje
content
inclined
divided
ipha@@
akhulumi
sword
baphila
ought
singaqiniseka
Asia
worry
indicates
Aroni
aleni
obeying
Photo
abomakhelwana
ephasineli
uD@@
pleasing
eemb@@
stood
yiKosi
umukghwa
imbi
.@@
Gade
moment
Ukung@@
iJerusalema
itjele
phone
Ac@@
ukus@@
highly
clothing
elikhethekileko
yesimini
Bay@@
silingise
peoples
dangers
embe
asim@@
84
ngezenzo
anelisa
begotten
ized
etjenziswa
induduzo
ibhoksi
abandoned
isikolo
admonition
ad
under@@
akhiwa
happens
emphakathini
ango
eT@@
Lazarus
Martha
neendlela
heavy
turning
wendawo
ezandleni
uzi
employment
wezwa
rewarded
g
69
adlula
ter@@
okukhulunywa
umel@@
meditating
yama@@
holding
namaKrestu
writings
ilunga
paid
elane
illustrations
ISA
liphayona
lovingly
UZ@@
ufunda
lingisa
ihlonipha
Umfazi
Zimu
ekub@@
intended
Nasenza
sibona
enzileko
phathi
ons
isebenza
asetjenziswa
Wenza
resources
Judas
En@@
wokub@@
Thessalonians
mildness
citizens
asks
out@@
isith@@
pre@@
ngiwo
involve
list
iing@@
ilela
sinye
indisa
afumane
Sil@@
wrongdoing
udisi
terrible
abaw@@
Esau
Zechariah
facing
ezilitjhumi
review
ungodly
othanda
Benging@@
Hannah
ably
wokuth@@
produced
Kuyatjho
obutjha
serves
December
nokum@@
athela
reports
yokuba
abafowabo
eeng@@
iphatha
relate
bakhuluma
sir@@
ikhuthaza
usako
yesi@@
sikhulume
treatment
slow
betha
kwafuze
Okuqakatheke
izulu
Adam’s
onipha
all@@
ngey@@
ngokufunda
wesigodi
Arthur
andele
ikhona
bur@@
Umnqopho
nokuhlakanipha
angaku@@
ative
abuyela
region
Akhesithi
sisebenzise
nendoda
lomndeni
azibuza
ER
red
limitations
enzeni
quick
ekugcineni
fund@@
exercising
bakh@@
anjeng@@
Sis@@
afani
wat@@
calling
asela
Umb@@
d
buy
Bathi
umsebenzakhe
generation
uhlathulula
nababelethi
eba
trouble
arrangements
Peace
Friend
isel@@
lez@@
ingo
ments
watjh@@
oda
uthanda
asleep
copies
motivate
kabutjha
ngalokhu
abaFundi
Study
co@@
ono
drawing
wondered
wag@@
200
company
ihla
nesifiso
aged
Jas
faithfulness
sithande
magazines
0@@
singal@@
Ipendulo
Uyini
Amagedoni
ks
angak@@
August
Es@@
elimbi
lelo
sebenz@@
oned
86
abama
assembly
elincani
royal
etlhagwini
encourages
ambe
gathering
eq@@
Committee
uZimethu
ulu
ned
Umbono
moves
bakwa
spending
ps
ard
esinalo
abaphila
Apreli
ears
ikghono
okufika
Dis@@
pe@@
visiting
ezima
schedule
setjenziswa
balekela
Nasing@@
oko
abangaba
hadela
300
siba
womtjhado
carrying
date
Markosi
gold
z
Nom@@
onako
ning
oil
umkami
emezwini
olisisa
dr@@
ezwe
zokuzithabisa
litjh@@
sikhamba
Ngokukhanyako
sobukhosi
refuse
balanced
zang@@
ukwakha
amakhosi
wenakho
sithathe
agreed
glorious
agcina
wavuma
thereafter
tjha
represents
emlandweni
quit
araga
wayelelisa
usela
ukako
lay
bakghona
goodness
amakholwa
awuth@@
75
Ngis@@
zif@@
yenu
sesi@@
abar@@
Eric
plan
Karen
relations
visits
abathathu
hajadiswa
Arimagedoni
waqalana
HA@@
prize
wokuhl@@
isifungo
isihl@@
wesifunda
none
prophetic
Emaswapheleni
unywa
akath@@
afune
ebh@@
song
isenzakalo
arha
ngenza
finish
yomndeni
umth@@
wama@@
Bekube
Nomsa
ihlala
sad
aphendula
era
abon@@
Mar
aqalene
akakho
union
ta
Cain
ngokuph@@
beth@@
siqiniseke
attitudes
protected
babone
modesty
amahle
Almighty
ngaph@@
isazelo
painful
stress
bomuntu
disaster
abafundisi
imaza
hlanganisa
choosing
Iindaba
eL@@
resulted
tribe
umlingani
Rahab
Zoke
distance
engakalungi
ukuzenza
wisa
ngokul@@
sed
ngekhulu
kuhlanganisa
Brooklyn
lakaJesu
siphi
attacks
ebizwa
emikhulu
people’s
abundance
Mil
father’s
atlole
izintwezi
sitjengise
willingness
Sikhuluma
isikhundla
atlhogomela
oli
talks
les
Wakhe
zem@@
adanisa
iselwe
okuv@@
Umthandazo
akuz@@
ISIHLOKO
mouth
ri
ngilabo
figurative
society
across
partner
ship
ukubekezela
amaRoma
tendency
cl@@
akhambe
vast
esibonelweni
aqiniseka
Nawufuna
silindele
esig@@
repeatedly
amandlakhe
increased
marital
remove
Yiba
abandon
ukuqala
embeka
pointed
abalupheleko
kunom@@
regret
Solomon’s
defend
abanga
watchful
aphezu
unikela
broken
tired
firmly
safe
isebenzi
unom@@
heads
impl@@
baby
vow
printed
Elders
esikhuluma
remaining
imisela
low
uj@@
treasures
abakhonza
pagan
khulekela
darkness
belief
trusting
abosingazimu
virgins
ities
aletha
ukukhumbula
abundant
uB@@
ukusuka
harvest
nebizo
pristi
air
beqiniso
today’s
isola
exist
engan@@
beBhayibhili
asithanda
umfundi
Ufuna
seen@@
bazaku@@
wen@@
HL@@
UT@@
rightly
Ucabanga
osezulwini
AS@@
cry
ebantwaneni
ababonisi
unbelieving
Ngil@@
bazwisise
Ngathana
wob@@
ently
ukukghodlhelela
Austria
nendaba
atjhiwo
iinkulungwana
obubudisi
baqalana
Maye
ngafunda
otj@@
discovered
Septuagint
differ
angay@@
okuhlangabezanwe
ufakazi
ofanako
weza
ver@@
ukungabi
sitjhumayela
aging
bekuy@@
kusiza
disease
Ngebangelo
ofisini
umlilo
waters
amadodana
sikhambe
meaningful
umbhino
imi
obeyed
religions
imperfection
120
victory
Unlike
esifunda
approached
referring
ukulandisa
siqalane
Micah
atjengise
ukukholelwa
tjhada
Sim@@
understands
drew
merciful
camp
literal
sithandaze
awenza
Ministry
nobuhlungu
remains
Surely
isisa
umbe
ezincani
comforted
akuv@@
scholars
Se@@
waphendula
qualify
hatred
abuya
itshwayo
conflict
den@@
dwell
damage
Ing@@
urgency
heed
Web
elula
Kuhle
liqiniso
strengthening
abasi@@
Happy
atjheja
urh@@
asabela
ukwa
Siyazi
clay
ilalela
sizibuze
bangaz@@
N
aid
thelela
2008
Peter’s
methods
iswako
las@@
Pro@@
zoMbuso
amasotja
tjhatjalaliswa
baphile
hates
fan@@
strangers
child’s
rar@@
loyally
iqal@@
144
erarako
Umtlolo
D
yamaKrestu
ifundise
ony@@
touch
official
emntwini
habits
ereg@@
amabizo
ezizoku@@
iphend@@
iMitlolo
hate
abantwabo
medical
nomkami
rh@@
isiphorofido
besek@@
ists
weaknesses
alitjhumi
ikho
nga@@
anise
inz@@
ungakghona
hel@@
Person
abakhulu
Doing
noSathana
Mal
tly
district
nomnqopho
wisisi
headquarters
alunga
onywa
straight
ivumela
eliminate
serpent
householder
eregisa
amhl@@
kusi@@
spirits
yeBhayibhili
neenceku
ngafumana
hur@@
Imibuzo
inge
UMosisi
excellent
abakhuluma
dala
weKosi
yokuth@@
leader
walinga
spouse
commit
ukuk@@
Jephthah
model
authorities
esit@@
beling@@
abeka
ubu@@
Neku@@
expects
siku@@
Hl@@
UC@@
sekela
hala
ziph@@
UKrestu
Ukuz@@
bekath@@
Ikholo
limit
H
sisiza
ngendlini
believing
Ukwazi
amak@@
ezitjengisa
Ungam@@
wedding
ice
amazing
uN@@
kunengi
kusaba
athwa
inzalo
ulinga
unamandla
azimisele
umbi
Udade
ubab@@
I’ve
analo
familiar
omKrestu
siye
Girigi
U.S
zenyama
wide
ezilungileko
poured
acabangi
ifumane
imicabango
ngalinye
Creation
Christendom
nalapho
iimnqopho
supporting
athileko
admit
kuzokwenzeka
Jakopo
alelwa
abuyele
wavumela
8@@
abakhohlakeleko
sihlala
ngif@@
sokuth@@
ikisana
ekubeni
ances
yokuhl@@
angakwenza
kamva
indela
lesi
umkakhe
abakh@@
okufumana
amatjha
Bekazi
Jor
obana
uthuka
Jeremiya
reflected
ingaz@@
ezingaphezu
eziseBhayibhelini
atl@@
neminyaka
outcome
lokwenza
zwa
wesihlengo
wakwenza
kwangenza
tears
seKosi
wacabanga
mountain
minister
finding
compare
KW@@
Bal@@
inhabitants
Shortly
fast
cared
American
ebanga
ified
reliable
Ki
ANG@@
audience
de
kill
severe
cold
notes
America
sake
qondo
enjoying
ens
igama
ongakala
glad
Gideon
zitjengisa
athululela
mankind’s
ously
pho@@
cruel
replied
eemnyakeni
disappointed
ible
leads
Le
warfare
qoph@@
thinks
Neb@@
warnings
drinking
embalwa
store
wamukela
kob@@
ihloso
yokutjhumayela
enj@@
Oktoba
guilty
iq@@
azaku@@
elusi
motives
ithola
numerous
eminyaka
wealth
eCanada
beza
ekutjhumayeleni
pr@@
qotjhiswa
la@@
kutlhoga
wisely
ithempeli
Service
145
asebenzise
endured
ines
ngibuphi
Abafundi
miracle
fundisa
German
iRhalani
commission
ling
nine
nehl@@
bul@@
abise
inherited
utlhoga
Lamb
ages
abuse
corrupt
require
kwenziwa
comfortable
attendance
overwhelmed
AZ@@
umbelethi
aml@@
effects
chief
nibe
Latin
standard
ukufuna
sickness
ngokuya
afa
akghone
ayela
sa
eKosini
recently
reminders
yeqiniso
release
reasoning
animal
ebuhlungu
bebas@@
zid@@
Ayikho
IS
asitjela
esincani
private
otjhwa
Car@@
dream
calm
Work
baragela
abaqalana
KaZimu
ubungani
nokutjhumayela
umkhumbi
otjha
January
atjhade
akhulunywa
azana
concluded
so@@
to@@
Lev
sicabangele
wokul@@
ihlo
bazokuba
akufunda
wilderness
89
olakala
eleka
unable
iimvakatjhi
abuza
IM@@
sey@@
eent@@
Wal@@
Ubujamo
kenye
balalele
uzwe
AND
cont@@
endawo
lisizo
esiKhumbuzweni
Ex
kunini
UmKrestu
amaBhayibheli
usisa
significance
Ngi@@
r
isiphetho
ngokujayelekileko
devoted
nakas@@
OR@@
web@@
ubuka
Hezekiyeli
epha
lid@@
ISithalasokulinda
naka
leen@@
WHAT
judged
uhlungu
isikhozi
nomuzi
trip
pursuing
athinta
Ukufa
akutlhogeki
ebudisi
Umlando
abathobekileko
ukuthuthukisa
translations
nelanga
apparently
season
Br@@
physically
herself
believer
persecuted
La
foolish
ngokuqinileko
uyab@@
compassionate
welcome
UJosefa
ekuhl@@
alako
feed
neengilozi
Prayer
Ma@@
sacrificing
yayo
eko
obunye
create
esinjalo
wabikezela
isise
kwendlela
unobangela
akwakhe
esikhatjhana
eFrance
wasiza
uyasi@@
wathandaza
ngok@@
nanje
sur@@
weng@@
ngepilo
ukuzimisela
emalungana
neminye
commandments
nesandla
asisize
kuhlala
eNarheni
phumelela
yokucabanga
ngokudephileko
habit
LakaZimu
bakhetha
fumana
amasiko
qhema
bamambala
isolated
wafuna
ukusekela
Sazi
izambatho
atlolwa
endlela
bekangan@@
acabange
KwebeRoma
zimba
Philippines
Out
alandela
Recall
unya
zenza
repentance
bangela
qede
suddenly
sibulunge
played
Know
Ireland
ngokuth@@
yinceku
itewu
ekhabo
elweko
neenkambisolawulo
mat@@
Rhubo
prejudice
Tr@@
umlinganakho
Yoke
Qu@@
March
ekeli
lesiGirigi
zomoya
uzokufumana
qalene
hand@@
im
stories
foundation
aqalane
ilung@@
UNG@@
sokwenza
f
bazo
eziv@@
Help
Sh@@
balance
ngehl@@
abakhe
ngilo
non
enable
objective
uthe
gl@@
ezulu
Umbuzo
imbewu
smoking
losing
abafileko
healed
rendered
kunetlhogeko
ngokus@@
ngihl@@
esek@@
firstborn
lezinto
ANA
ada
EB@@
umisa
basebenza
saz@@
Akukafuzi
obe
ukugula
mild
supported
ened
tjhiya
erega
phambilini
lama
akamisa
qal@@
ofakazi
ili@@
goats
affairs
iingoma
reads
ezingakalungi
ngesinye
isiko
stars
secret
vakatjhela
elethwa
solid
lesikhathi
ant@@
An@@
mark
Sc@@
ch
ingaba
sav@@
sawo
UmBuso
isithelo
incani
nelungelo
yes@@
emkhumbulweni
kungas@@
asing@@
ulukela
It’s
cooperate
sold
onjani
kungabi
imithandazo
Sithalasokulinda
fed
kaMosisi
afaka
abanikela
é@@
wokuziphilisa
idlula
kuMatewu
clothes
corruption
Ed@@
broke
raising
ngananyana
Alex
azizwe
armies
ukulungisa
ra
awulela
idorobho
nemiphumela
earnestly
Nakhibe
endl@@
kweemnyaka
uLukasi
bangaba
weBethel
stick
ngay@@
Omkhulu
deepen
iinthunywa
1,@@
ikhul@@
ekuz@@
tjhatjhalazi
abane
tests
ayik@@
okukhulunywe
uMthetho
ukuw@@
covered
ulindele
abayi
ton
ibutho
amsiza
ekhethekileko
kholwa
abamb@@
belongs
enela
kingdoms
kusese
reign
isimemo
64
iimbunjwa
sicoce
preserved
iinhl@@
okusemandlenethu
abazoku@@
wakwa
sikhumbula
okufundiswa
fighting
ivangeli
eziqakatheke
Awazi
planet
wephaseli
okuthatha
atjhidela
Draw
kwenzekani
ithabela
ukulisa
repent
umbana
ruin
iinkanuko
anawo
ngokuzimisela
lela
sokuphela
afundise
eagerly
eneko
uzo
Come
preserve
bekuzokuba
atjha
satisfied
somoya
anele
io
bengeze
il
akuthanda
atjhiya
91
nokufunda
Umphumela
ited
noJ@@
wabuye
blind
ezihlanu
cor@@
Njengom@@
oro
arranged
Esihlokweni
majority
ants
sicabanga
ngokukholwa
asele
enduring
iinkolo
rel@@
wakala
niy@@
ify
Chron
ngeenhliziyo
khonzi
wamtjela
Okwanje
sizizwe
ukubuyela
ibalela
reminds
engqondweni
abantwabakhe
ukuzibamba
et
Sophia
balapho
namalanga
publisher
neemb@@
ra@@
x@@
crime
itjhiya
Eng@@
jeng@@
nangemva
khumbulo
yokuz@@
ngokudluleleko
akho@@
ours
Jon
ulwe
threatened
bakwazi
esondweni
thabisa
thanks
os
Ul@@
enabled
abhalelwa
listeners
applies
oyo
umnikelo
For@@
neenkhathi
okoza
tered
root
baye
Biblical
kubandakanya
establish
reflecting
begins
sidzimelele
aphuma
asifundisa
ruled
campaign
nemali
bride
zaka
AD@@
sw@@
earnest
isiThala
khali
unikele
wokuz@@
brief
zakanokutjho
elif@@
ebekaz@@
Ngib@@
batjengisa
kunabantu
umporofidi
obtain
permanent
dec@@
om
tend
ukuthoma
scholar
Kuthe
solve
sitjho
removed
neenhlobo
71
unrighteous
assures
skills
W
ukulwa
ekukholweni
guilt
uqale
yingozi
ntwana
khulunywa
isilingo
uphi
kukh@@
buyela
Bekang@@
umi
priesthood
differences
isiwe
ange
inaba
kukufa
Try
ngalendlela
awula
ekuth@@
variety
ngayiphi
lig@@
kaDavidi
ezelela
add
Nes@@
maintaining
bafundi
sol@@
br@@
ngehloko
lenu
bekakhuluma
azela
Nami
ekiko
eness
Bekufuze
neutral
uSomnini
ngemali
anikelwa
Readers
ekelele
iingidigidi
azwisisa
acc@@
bathembekile
Kunjalo
Elinye
hlobo
amaz@@
Absalomu
peer
kholelwa
uzow@@
eyodwa
Man@@
developing
nezenzo
elelako
uT@@
ezenzeka
esitjh@@
involving
ebesele
seku@@
influences
ithoma
properly
ikhakhazisa
mountains
Ngom@@
Oku@@
property
eliph@@
muntu
ikarisomraro
itjhumayela
sithabe
bekadeni
livela
isikwa
ali@@
ening
uH@@
acknowledged
phamb@@
finished
AL
104
detail
Col
ithinta
esingaz@@
iinkareko
iimveke
waso
weeds
lamaKrestu
osela
newly
izing
fr@@
ahlanganisa
restore
urgent
ede
angani
kweenyanga
IT@@
talents
umuthi
ukuthabisa
esibili
iimraro
phumela
uMarkosi
HOW
Mtj
kuphela
addressed
ukusaba
bezing@@
ekuph@@
khulisa
miss
nakufuze
mentions
Khenge
ezifumaneka
bus
bangal@@
elihl@@
okutjh@@
Eku@@
copy
Phaphama
uzoy@@
bodies
ukubhema
umo
600
itl@@
nangendlela
nomphumela
OB@@
distant
isane
adosa
abalingani
aniswa
blesses
anamandla
wear
umngani
ID@@
eenhl@@
x
esaba
ukuzidela
ayini
bekazimisele
abambalwa
ihlekelele
ezihlakaniphileko
isizi
abangakapheleli
qine
esab@@
uzizwe
athele
yindawo
bob@@
bengiz@@
error
abeni
temptations
ahluk@@
aqal@@
Ukucabanga
Nasi
uthembekile
tools
amathambo
gandelela
95
Nerh
zealously
silinge
trees
athabela
yezinto
wokwakha
ahlukahlukeneko
ukhulume
19@@
ukuveza
yephasini
opinions
ements
pursuits
sakwa
yokuziphatha
133
Says
athini
noJwanisi
zemibuzo
yiphi
uswe
igugu
400
kinanyana
ihliziywakhe
azisa
churches
qiniso
beyin@@
eP@@
ilize
siyoku@@
prominent
ihlale
anani
lephasi
aga
Pharisees
marvelous
ongayenza
Kuqakatheke
njengeKosi
struck
oM@@
Ban@@
emthandazweni
IC@@
mo@@
routine
ezisithandathu
139
walalela
amaWolo
iseka
atjhuguluka
1955
batlhoga
uMbumbi
UF@@
huge
lowly
amenza
fearing
YOU
kwabafileko
Per@@
osibonelo
ment
umene
icabangela
phath@@
pressures
iimphumela
akade
uphala
ately
restored
khanya
ukukhulumisana
atjhaphulula
stone
yomBuso
abuye
demonstrated
imifanekiso
607
Jonathan
rescue
esigadungileko
vusa
PAGES
ngifunde
traits
tic@@
kuzokusiza
discussing
privileged
UMosi
dealt
ukhumbula
ose
kib@@
jamela
enengi
bus@@
WHEN
anabo
enzakalo
ukuhlula
AMAKHASI
noPowula
ngayinye
caught
amileko
odwa
worshipped
nesirhawu
hab@@
Brothers
57
ambi
angasi@@
elingangani
Nanamhlanjesi
ongaz@@
neth@@
kuma
ignore
Faithful
mbala
universal
iki
isebenz@@
ngesibonelo
fitting
Antonio
relative
courageously
ire
Its
kwezepolotiki
PS
2006
Ruler
JEHOVAH
kusesengaphambili
International
Le@@
Nasiz@@
liph@@
priority
obub@@
kancanikancani
Kwesinye
Deborah
unina
144,000
aborhulumende
glorify
Hlala
sana
kusisiza
ukun@@
naban@@
Zimethu
avumelani
governing
accord
akar@@
adlala
ikhaya
ong
fallen
ofana
kuthabisa
Ngelanga
isizukulwana
readily
officials
Lot
akatjh@@
indl@@
Year
iind@@
amanaba
bayoku@@
zezinto
ngehla
azwa
worshipping
oke
ngoMbuso
isigwebo
Empire
embela
wabhajadiswa
angis@@
ahlongakala
enywa
Bey@@
itjhebiswano
commendation
ambisana
msebenzi
November
zekolo
kufunda
surrounded
ni@@
Death
ulul@@
iinkolelo
yalo
kokuth@@
ubeka
Ngibawa
alelisisa
siphapheme
Ukuthula
victim
ngiv@@
ihlathululo
ual
atlolwe
approved
risk
elile
abali
akalindeli
wabatjela
neemfundiso
uni
hlang@@
eziqalekako
mbonisi
ti
task
sorts
uzokuth@@
possessions
watching
Kuqakathekile
beauty
replaced
ukupha
ikareko
hlakanipha
realm
anom@@
ukulitjalelwa
initial
Michael
Esther
worried
udadwethu
earth’s
ded
bezwa
degree
approaching
engi
aqeda
ISIGUBUZESO
shepherding
umn@@
apho@@
ngabovu
der
total
kwesinye
bekuzoku@@
opinion
Galatians
umsebenzethu
Titus
soneso
isim@@
akhulekeli
Jude
arhamaru
inherit
layezo
accepting
qunta
enom@@
uzokuhlala
comm@@
ie
oqakatheke
Close
etjhana
Lindiwe
depth
yodwa
ilaka
ibiza
ass@@
nakw@@
ezivuthiweko
uragela
dep@@
intense
ngoKrestu
habhadiswa
bekutjho
forgiven
97
opposite
sinikela
Mbumbi
coca
ezikhuluma
uqalene
unguZimu
letting
gained
ipho@@
umbusi
nakaz@@
isenzo
neNdodanakhe
wenabo
ithande
esingayifunda
vuma
ngesizo
wile
inakhe
yokuzikhethela
bathanda
njenganje
isig@@
imihla
bebazoku@@
akhulu
2000
upbuilding
ked
ithathe
sides
ians
miraculously
okufana
watlolela
nesing@@
ality
sivumele
Eksodosi
tlolo
Making
athembeki
esimbi
emthethweni
scene
130
thande
with@@
lul@@
Thetho
Kwenzeka
esihlalweni
ekul@@
street
indalo
ging
June
Uyazi
utho
kungebanga
nepi
shoulder
ukutjho
eliy@@
wo
ihlonipho
Fr@@
ukhamba
ethwa
features
conversations
gather
Book
sisono
urge
akathi
hlanganyela
obul@@
Cameron
Ibandla
Eventually
uselwa
yekadeni
Wang@@
elilandelako
phathwa
okoz@@
Ngomnyaka
zobuKrestu
Niz@@
utjha
1918
kungasi@@
maintained
symbolic
UMtj
nomma
Com@@
hayela
Angeze
relationships
Ukuthobeka
lithemba
delighted
enceku
khalima
akahl@@
sela
ngicabanga
kuvela
namalunga
ubulungiswa
esikholwa
wrath
abo@@
Judge
akhuthaze
kwesikhatjhana
ILizwi
wehl@@
ehlukahlukeneko
KuJehova
center
oliva
ukuku@@
Everyone
zeen@@
ukucoca
phi
silwisane
aphela
elandelako
comment
ohlakaniphileko
eliqinileko
Emihleni
uJakobosi
resurrect
zomuntu
iseli
ms
akabi
ily
bekamumuntu
comp@@
French
esizoku@@
eC@@
colporteur
BIBLE
STUDY
uyisela
Leviticus
Umdala
17@@
lokuth@@
perfection
2015
nasifuna
KwebeKorinte
ngephasi
Mbala
sisize
Jehoshaphat
Gu@@
reg@@
warns
respected
elid@@
sibawa
esifiso
priorities
sanctified
atjhentjha
judges
ezikhonzako
umahluko
kaMesiya
azenza
esisekuthomeni
sisebenze
identified
boat
emangweni
gets
asekela
Ukul@@
njengokungathi
additional
inturhu
leg@@
anel@@
thrown
abagulako
hla
ition
1949
Kufanele
ifaka
namadimonakhe
une
Bes@@
hlangan@@
bacabange
ehlakalo
zepi
Ukw@@
perfectly
fe@@
worldly
ongak@@
uJesefa
sl@@
ekholweni
Thesalonika
bamb@@
ivesi
cre@@
ayis@@
bekungasi
Barak
pleasant
project
beKorinte
testimony
seGiliyadi
contain
bebam@@
kungcono
kunezinto
mold
saf@@
ner
do@@
ongakwenza
Samariya
ihlangana
Levi
ngethemba
onto
umelela
bazizwe
RO@@
gh@@
suggested
LE@@
zima
oppression
ngeliZwi
angweni
okh@@
kobujamo
yakhona
khulumisana
ngento
appointment
identity
loya
emuntwini
1952
ikho@@
onileko
amag@@
wasabela
distressing
Gibhide
itlhogeko
quiet
Arhostosi
udl@@
ituthuko
ozizwa
olive
zesikhatjhana
rejoicing
initiative
ict
ivikele
ngezandla
itha
bewub@@
ess@@
belongings
aziz@@
singleness
col@@
sesibili
whenever
umkayo
enzelwe
amahlanu
kungebangelo
sakghona
engapheliko
ftn
eN@@
uGenesisi
UJEHOVA
inabo
walisa
grave
Kube
ites
angakhenge
ref@@
azuza
awule
moya
fit
tent
ethandweni
okufuna
ery
adopted
Egyptian
admits
um
110
uko
te@@
ambiso
countless
Kanana
bekaqiniseka
che@@
efana
WA
eRoma
ekhonzako
kwemvelo
eyenziwa
athuthuka
impact
ungu
ema@@
imihlobo
lizokuba
blame
render
fundamental
generosity
nokuph@@
brochure
bamala
throw
1995
angakatjhadi
arms
obekileko
resolved
embula
abazizwa
kwath@@
womoya
alelwe
appeal
ekholo
58
okungcono
Filipi
assure
bekutlhogeka
jealous
bekubudisi
conscious
asizwa
arar@@
Leader
emthini
bekahl@@
innocent
Sisera
emtlolweni
andana
minded
yiBhayibheli
umane
itjheja
usebenzise
Nguye
ephi
Kuyafana
sob@@
ude
nangesikhathi
imimoya
shed
ekelo
confronted
Granted
idi
valley
anj@@
obunengi
eful
threat
ulisa
oloyi
Deut
buya
Italy
nokuziphatha
memories
AT@@
sizwa
ovuthiweko
sincerely
yesiThembiso
existed
esikutlhogako
asiy@@
att@@
ithand@@
Kuthi
expand
khuthaz@@
lando
enti@@
ebebang@@
unguphazwa
abasebenza
izahluko
uJakobho
looks
kuKrestu
uG@@
thandazo
ImiTlolo
cherish
batjhumayele
survived
burden
yebeRoma
ukugandeleleka
weem@@
imisele
intana
Nazi
nehliziyo
nomb@@
irar@@
developments
ehlukileko
rain
zokuthoma
ikazisa
qinise
ahluko
lama@@
lokub@@
iimbono
funa
ongan@@
enjeng@@
ach
Rebekah
searching
ekude
male
neqiniso
iphayona
forced
alim@@
okuthi
akab@@
avele
pres@@
ikar@@
ABANTU
nguM@@
earn
Ch@@
andleni
owab@@
BE
kinds
thatha
entrusted
imibuso
azibona
usiso
ministers
Charles
orobho
uyabathanda
pictures
ngokuyihloko
ore
yobutjha
ear@@
awuk@@
athande
noR@@
atjhada
thelo
reported
disobedience
orho
thandaz@@
akhethwa
ahlang@@
captivity
umumuntu
nakazaku@@
inyanga
ukuragela
alekela
asebenzelana
upset
ngath@@
iragela
ukukhetha
deliverance
Egyptians
Kukhona
ukuqeda
nguFakazi
neemfiso
load
mdala
itjhaph@@
ulani
abaqalene
hardships
sizokufunda
kungasikade
emotionally
kufike
uveza
attempt
ukobana
ezom@@
iqeda
ungisa
ubo
ST@@
rev@@
eternity
Sifundani
thandi
economic
usinikela
ongokomoya
esandleni
ezoku@@
ifundako
Gospels
yoku
amp@@
distracted
Ezra
inyoka
houses
amthanda
nendawo
mail
website
khe@@
wenyama
bat@@
elingokomfanekiso
IP@@
kokuhlongakala
profound
anya
uduka
ched
ilihlo
uzib@@
1958
signs
Har@@
kunikela
itjheje
ehlisa
ngehlonipho
asif@@
sizokubona
umaneka
possess
ghodlhelelela
besin@@
ROM
uthoma
agandelela
Kings
ward
ncani
Ihl@@
iindakamizwa
unj@@
bakhonza
encounter
ibandlululo
omusa
anab@@
ns
umthelela
oyihloko
ically
Kol
dust
ifihlo
umz@@
eziphilako
Iinthombe
team
ngimiphi
omo
Ngokuya
AC@@
kwatlhogeka
sokub@@
nelinye
visions
etj@@
assemblies
izinga
Ngokungafani
esinakho
sithanda
indefinite
ukuqinisa
lying
okozisa
computer
asa
okufa
khew@@
Church
afund@@
finds
yo
Russia
directions
izakhamuzi
TV
umehluko
nakabona
Umbuso
Judea
suka
andulo
esingangani
esibudisi
fields
ayazi
Use
umoyakhe
uzo@@
ngimaphi
athabe
komBuso
Upon
qophisa
owakhe
ezingeni
sithembele
po@@
enge
commands
isiz@@
Us
entabeni
ebaleni
umnakwethu
atjhugulula
isekelo
peers
yehlangano
Ana
hor@@
ngesandla
ished
ory
egatjeni
emaswapheleni
playing
clergy
yamaJuda
walokho
somtjhado
beyim@@
companion
fundisi
nakanjani
elling
arr@@
uyam@@
nabas@@
conducting
awulwa
our@@
ris@@
continuing
senses
asiv@@
Anna
Par@@
Much
Earth
ngokuziphatha
sibusiso
ngaziphi
ikhumbule
asazi
Five
ekhona
kungakafuzi
ards
tax
ura
wathini
nekabona
explaining
abanesono
emaKrestwini
tabernacle
Andrew
unclean
kuzabe
lesibili
Bethlehem
alung@@
nomraro
Become
Kolose
tribes
AbaKhokheli
Evening
reply
indile
oniph@@
okuqinileko
bewu@@
102
fac@@
iinyeleliso
comforts
ngasinye
kokubusa
emitlolweni
beFilipi
akhethe
aphatha
bunjani
Linga
refreshing
fears
bekatjho
waphila
remote
bekacabanga
holo
alindele
singath@@
su@@
ngokutjh@@
torture
dying
bazabe
cancer
ied
sivumela
extended
silandele
onakali
postoli
iinlwana
ATH@@
flee
por@@
Brian
entitled
atjhi
images
greed
ephakemeko
ngokurhabako
abangak@@
regardless
nekas@@
interesting
ime
isibalo
atjiswa
ukusebenzela
aneliseka
Isiluleko
hated
ziv@@
ngamalimi
amu
Philippi
Thousand
missed
rid
OL@@
hidden
uyaku@@
phathe
banikela
lambo
visible
nokudla
L
itjhani
lit@@
amela
beka
nokukhulekela
bakhul@@
nesith@@
Imitate
asid@@
Rh@@
Ngiyazi
135
akuzwisisa
zokuziphatha
ipilwakhe
talked
avoided
nethuba
Umfanekiso
dlula
uyela
est@@
avikela
Mb@@
ING@@
extra
kunabanye
alabo
onga
mhl@@
wherever
engaging
ebenza
emaphilwenethu
Ukuhlakanipha
ethabo
calamity
ear
zombili
embusweni
qakathekile
ue
constant
alazi
engqondo
nananyana
ngokusimangaliso
nemithetho
discussions
kheb@@
weneso
thrilling
Nakwenzeka
ngizizwa
sihlole
bebal@@
ON
eK@@
yesiGirigi
94
afisa
uso
emjarhweni
joyfully
Senza
isiqinisekiso
crushed
dlala
island
radio
azil@@
aneli
lilo
types
Knowing
dzimelela
eyo
ngokom@@
nc@@
ukhetha
kusafuze
Evela
settle
Davida
etlolwe
Hlalani
pour
inye
inyama
Gog
Ukutjhumayela
associations
ingokomoya
wathembisa
lokuz@@
badly
unselfish
iinkhulu
ikwazi
kuzokwenza
appealing
izipi
wesono
ordered
susa
com@@
ekusizeni
amasondo
ngokwamabhayi
isivikelo
ukukh@@
ipho
video
intentions
obani
enzisa
itjengise
destination
tlhala
specifically
writes
nabaz@@
drugs
eyasiza
associating
Rule
iswesi
Nations
anayo
ebang@@
ulule
Gary
sizindle
say@@
athulul@@
USolomoni
ngiyoku@@
ran
kuthiwa
Azange
96
ikhumbuza
sokuphila
Ekhabolakhona
esigodweni
ukana
Ohio
conducted
engwa
ehliziyo
Ngasikhathi
Nge@@
ekolo
khambela
kwabonakala
Akekho
marriages
leemnyaka
phakade
ngokwenyama
beyib@@
zakaSathana
Iincwadi
Nab@@
akusize
77
national
anz@@
kalikhomba
Bekuthi
abeli
babelethi
usebenza
kumaKrestu
Marriage
angam@@
ekulotjheni
nesono
lomuntu
kk
twice
intelligent
ngomqondo
ngesineke
iinzathu
ISambulo
urges
wamaRoma
yob@@
porofido
ged
ching
ifying
Iinqunto
anakhe
iingqondo
ubeke
anymore
irhelebha
fanekiso
entjha
wokw@@
satisfy
IZe
Priest
tries
kufana
kwamanikelela
okana
George
plant
lezo
osisiza
okukuphela
wafundisa
midst
ISam
bazimisele
grain
depends
uku
weekly
kuthoma
adla
umntwanakhe
tor@@
elelisa
iling
wezulu
ngazizwa
iinyawo
acabangela
zekadeni
leBhayibhili
imbela
down@@
Iinhloko
ekampeni
nabafowethu
ithandako
Daniel’s
angelwa
ngobunye
lean
Uzizwa
uJoshuwa
sama@@
Goliath
els
percent
2004
debt
1940
Again
eenk@@
ukufikelela
wafa
atjhadileko
Noku@@
anis@@
sabela
okuy@@
izele
sikhethe
adzimelela
AmaRhalani
bebazi
Next
atshwenyeka
amatje
Meal
spec@@
ungam@@
akhamb@@
begade
INI
awus@@
primarily
Kwenzekani
ukuvikela
akufunako
bathatha
abodade
Eb@@
akwabo
achieve
kgh@@
helper
abasesebatjha
ungula
utmost
northern
zamala
sethando
khandela
besil@@
asenzele
Ob@@
kufund@@
iinzukulwana
ring
iinkambiso
kwesi@@
itlhogako
sheba
abasekela
description
obstacles
umbonisi
okuph@@
unfaithful
funds
Besele
comparison
izi
tors
Vangeli
aphambi
sithabele
waqinisekisa
hlathulula
ebeying@@
likhuluma
Stephen
smile
hide
newayini
tjhad@@
isiphephelo
Iingilozi
lal@@
aqinisa
maphayona
IinKronike
abafundisa
hina
uthelela
Bekung@@
avumelana
lawlessness
olwa
PH@@
ingeni
ukuphikisana
Judges
protects
HE@@
subjection
nephasini
bama@@
We@@
displayed
esifundeni
imibono
esinawo
okhuluma
Ingilozi
the@@
hoped
phazimulisa
Christmas
min@@
Abangani
nearby
everywhere
pp
imitating
backing
khathalela
angath@@
pos@@
qakathekileko
hlonipha
limi
Dead
hlambi
iint@@
sokutjhumayela
e’s
kokuba
Ngizoku@@
okukholwa
awub@@
onjeng@@
beli@@
bakhambe
emezela
indi
proves
hodileko
yeendlela
Nan@@
fornication
eliqakathekileko
nesihl@@
middle
nesineke
nesibonelo
eBhabhiloni
Lizwi
Lo
Which
Aw@@
discernment
Ag@@
passing
current
umagazini
isithunzi
ekululeko
106
Indawo
atjheji
supply
asenze
expectation
imithandazwethu
Umtjhado
promotes
hob@@
effectively
ilungiselele
ikholelwa
hu@@
Samantha
Ubu@@
itjhada
nokusebenzisa
sending
aliz@@
tlola
cried
Isabel
akajayeleki
Kwam@@
banom@@
116
amahlelo
Absalom
akaph@@
ick
billions
imindeni
feature
babuyele
bebafuna
ebegade
weba
siyamthanda
Leli
thorough
idla
Isithombe
Lesi
imperfections
it’s
mamezwi
passage
andise
iphathi
USipho
ukhethe
temper
bathathe
memory
abalalelako
air@@
Ihlangano
doubts
esiKolweni
Nesiz@@
portion
gentle
ngokweqileko
Bhayibhili
harmful
weaken
IZenzo
Ngeenkhathi
top
ukwenze
umtloli
attain
iminikelo
iriya
singay@@
bakhulume
acoca
evolution
Umrhubi
silver
Nothing
murder
lathi
elwazini
attracted
zinengi
exposed
contained
worshipper
bones
continually
isitjhijilo
isokana
qedwa
nesinye
wisise
custom
Hez
nakithi
59
ius
rights
lokutjhumayela
depend
athome
uHezekhiya
William
ongenzasi
north
ace
uzisa
bayaz@@
refugees
iqakatheke
enamandla
happily
ehlakaniphileko
wengisa
ngokufanako
ukuhlangana
iimporofido
Spiritual
ngokutjhumayela
besim@@
Singaz@@
libalela
wind
Af@@
izabelo
ves
67
baragele
terms
izoni
movies
zob@@
enjwa
compl@@
uRussell
angela
Mor@@
ngeminyaka
izela
sufficient
awela
iphile
ifunako
akatjheji
Singafundani
ingi
location
patsi
Kuth@@
amatjhumi
reasoned
Babelethi
umako
akha@@
yefanelo
kufumana
enzo
78
UMar@@
nesil@@
Ithemba
tendencies
lesser
akeme
arrive
azako
Ngal@@
nesifundo
amtjela
ukwamukelwa
Bar@@
enduka
ngiph@@
Grand
solution
rewards
running
emaphethelweni
fathers
community
welfare
ababa
osenza
ezingaba
Sara
UDanyela
enturhu
repeated
eseb@@
akutjela
Endabeni
imiz@@
akhulile
bekwa
felokazi
leKosi
troubled
opposed
empire
extreme
yenziwe
accused
mhla
ukuhlukanisa
singam@@
remembered
uyay@@
hom@@
Jotjhuwa
nakuziwa
proving
kwezinto
elwandle
woMbuso
nd@@
sisebenzisa
emhlweni
ejayelekileko
mid
atmosphere
kufikela
nabanakwethu
cur@@
ebuhlotjeni
icabang@@
Pilate
sithunywa
ikara
ingcoco
imitation
weapons
otherwise
hardly
Continue
hliziyo
Iinceku
Nina
valid
draws
EC@@
holds
fazi
ah’s
mon@@
oloyana
ekhuluma
aqinisekisa
kwathiwa
kulung@@
ethwe
Katolika
umlayo
Branch
stones
umphefumulo
humankind
ekuf@@
KaJehova
owenziwa
bomBuso
ewula
Were
zaliseka
G
iyela
ifumene
andi
tlhogeka
bekuyinto
abag@@
besis@@
ibizelo
ofaneleko
zakhona
Time
umthelo
Ilanga
ungiselela
92
okus@@
Manje
kan@@
esibusako
sokufa
leya
1,000
cer@@
nabomakhelwana
garment
walls
exc@@
super@@
alinde
yiBhayibhili
alungisa
obuntu
lion
Josefa
asaba
Ath@@
Nasele
persons
Throughout
arrival
Ilandiswa
hujiswa
kulula
horse
lilungelo
sets
net@@
waku@@
extremely
Umusa
nengcenye
bathabile
yokul@@
abizwa
Nawung@@
chance
per
fish
ethele
ezenza
waited
eD@@
kaJ@@
Kul@@
Ephesus
enda
bamukele
drive
iqale
akheth@@
Aban@@
emakhulwini
nokulunga
silwele
aphe
wango
hundred
akafaneli
won
ahluleli
umbiko
eme
yindoda
Giving
neKosi
Anthony
okhe
bomtjhado
kungabonakala
bafune
Job’s
antly
tjhidela
Angithi
aphathwa
yekhabo
obeke
isitjela
iron
ivuko
ays
Eccl
unyelwe
anaba
UNowa
limits
Mal@@
alotjha
zenzeka
muhle
Ith@@
ngibawa
observing
abafund@@
nep@@
eendleleni
capable
ulweni
isek@@
Reign
nekathi
object
Trust
K
eentjhabeni
ekhotho
Theocratic
ngiso
ngokulunga
UP@@
ngokwaneleko
nokuthembeka
laboFakazi
fulfilling
zephaseli
Esikhundleni
arose
1931
turns
ezikude
lesithathu
sokufunda
announced
ezele
Early
commissioned
uselela
esikwenzako
bebahlala
eziza
Samuweli
miraculous
amagugu
akukho
agade
150
akhela
returning
cup
stumbling
resentment
umlomo
sath@@
asithandathu
Ebujamweni
Barnabas
sama
kingship
tjhaphulula
seated
India
deeper
childhood
prophesied
nen@@
Master
adosela
teens
okwatjhiwo
tjele
okwenzekako
discusses
reside
reflects
minutes
uSamyela
bendawo
Joromiya
previous
irhelo
nokufundisa
Chronicles
focusing
claimed
iwani
ofunda
ungas@@
Red
inom@@
amas@@
analyze
1999
omuso
okuyinto
eyiKulungwana
izembatho
Pray
nandi
schools
mourning
ngeng@@
children’s
emnden@@
causing
bekunjalo
abayeni
UJobhi
factor
uzako
Ungab@@
Please
adlul@@
wh@@
68
kho@@
iinqhema
namad@@
lesiHebheru
malunga
pilgrim
Trinity
wafika
famous
esibhedlela
ombono
sibawe
Ngafunda
ipilwami
ayenze
yathoma
ak
Ngapha
isehlakalo
ubuthakathaka
belethwa
ida
Singaqiniseka
life’s
umgomo
zabanye
exact
viewing
C
dry
ur
Kiyo
motive
ngomfanekiso
nis@@
147
Korea
umnotho
Ukuthembeka
ics
sustain
singatjho
posed
failure
strike
Things
enzeke
alekele
oppose
unyanwa
themb@@
iimthetho
ikisa
ack
ngokweemali
khonapho
worker
Bh@@
peaceable
udorhodere
Concerning
itjhaba
silinga
bound
ikazi
ilako
ngokubuyelelweko
kwamalanga
planning
wasi@@
1953
wayoku@@
iT@@
akafuni
ndeni
fled
onelo
uNerhemiya
amez@@
anxieties
abanawo
ayitjho
Whom
somango
Power
isin@@
abili
ambawa
vula
disc@@
possibly
amambala
ezela
sentence
wabumba
cultivating
abangelwa
context
De@@
ngifunda
ebel@@
settled
sez@@
vuzo
emnyango
unako
science
Name
nange@@
ezitja
sitting
ezitjh@@
yokubusa
highlighted
Amandla
Umlayezo
ikezela
He@@
okoze
fic@@
F
overly
bathabela
esabelweni
Nasifuna
ukutjhidela
ease
emihlanu
ngakghona
okunganani
1956
organizations
stumble
ululela
khuthaze
application
hes
obene
ezosisiza
bow
Ye@@
ures
isweso
zitjh@@
epilwenami
okwanje
lic@@
thokoza
Eduardo
liBhayibheli
ambuza
jobs
popular
uMarta
asikhuthaza
ulungiswa
grand
alinge
wasebenza
esiThaleni
Source
uNathani
imin@@
ubuki
hair
isif@@
examination
Waba
emakhaya
atjele
unexpected
nento
umndenakho
bangan@@
SO@@
akusinjalo
beke
umtato
baj@@
discouragement
akama
abhajadiswe
eleth@@
Bhayibheli
esifumaneka
Bo@@
charge
Nesenza
ungileko
preachers
imba
ubuso
punishment
Testament
ibala
Uth@@
safety
ilitje
nabapostoli
aphath@@
publicly
vuswa
AND@@
rewarding
utjheje
ongakholwako
kunanyana
wenesi
sitjhidele
wek@@
burned
credit
meditation
Ungakghona
ubabakwakhe
nekareko
likened
TR@@
Jairo
iS@@
izwi
Elijah’s
sekudlule
qunto
beentjhaba
Ngo@@
ifanelo
kuzosenza
usib@@
upright
sebenzelana
Col@@
opposers
uJehu
miphi
bought
faces
alongside
nokuy@@
angelic
safeguard
isiNgisi
saya
eklasini
onakalise
kwathoma
Ger@@
doctor
kweBhayibheli
Kwanjesi
uyini
Ngeze
iziqu
onakale
afterward
abeke
elwako
Jericho
ambula
jani
wengileko
nesilingo
ikhamb@@
ngekani
bengib@@
utjwala
Thanda
ngiye
phulusa
nakang@@
ukutjheja
uLuka
alandelako
uml@@
tjhaba
atlhogeka
sulwa
idele
been@@
kokwenza
phorofidi
abalotjha
hedere
ikelele
eswa
wholesome
cabangisisa
ach@@
agela
wi
inteka
sisi@@
reassuring
nesiquntu
ugu
kusesenjalo
bamaKrestu
elelo
ihliziywakho
aphethe
OKU@@
Pictures
ozi
officer
Get
itjhumi
productive
angeni
ngeenlimi
ikambisolawulo
nesinqophiso
ngomtjhado
possession
nokus@@
azokwenza
anza
shortly
liwa
okudlula
ukulwisana
pleasures
ondle
bac@@
contributed
abileko
Kutlhogeka
kuveza
esikhatheso
ibo
ding
si
esen@@
angisiza
ahlulela
esihlakaniphileko
duduza
Using
ayin@@
kangangokuthi
akarela
esiqalana
wangesikhathi
omKhulu
kubulula
bit
iqakathekile
emali
nyanga
footnote
thrilled
devote
ukwenzani
uzokub@@
ir
nemicabango
guides
ngokwethu
aphelelwa
ababaleki
executed
lazo
bakwenze
kukuba
ELI
News
sk@@
commandment
acquire
uJohn
Mormon
texts
Rhalani
azaliseka
emab@@
alin@@
linamandla
Philip
proceeded
oka
law@@
khulum@@
access
adi
Thereafter
abadosiphambili
ride
Serving
Malawi
reputation
thombo
observes
wavuswa
siveza
kukhulunywa
fourth
Sa@@
Wathoma
angil@@
ngokudla
sisipho
J
mngani
womnyaka
hospitable
At@@
okuncani
tested
ogulako
onisi
Solo
promoted
isahlulelo
asinikele
zezulwini
pleases
lokul@@
Sathana
abhela
oath
onel@@
akuph@@
uKnorr
zokuth@@
busisa
Kesinye
akhiwo
assume
jamisa
amadorobho
andelwa
badala
kuletha
Ukuf@@
ikha@@
engeze
ukuzikhakhazisa
bufakazi
ukulinga
highlight
ndenakhe
ell
bebasolo
aphayona
ahloniphe
Flp
neBhayibheli
gaining
esiqakatheke
Congregation
February
exp@@
wayi
baqalene
nokulalela
abel@@
vu
freed
River
TI@@
Pr@@
printing
amukeli
Us@@
isiHlopha
ebesing@@
emisebenzini
engilozi
increasing
uyakhumbula
honored
tract
envy
ezenziwa
aselwa
khuthalele
Show
patriarch
emv@@
liked
Third
experiencing
timing
iled
Numeri
ist@@
ngemihla
hohlwa
bahlangana
bayazi
wamb@@
umeli
alcohol
sinikele
nenye
Eli@@
kha@@
ngokuvamileko
can@@
elide
virgin
okufunda
118
iana
ISI@@
iinyembezi
paying
eliKhulu
iimzamo
Ingcenye
akusing@@
mkhulu
ujam@@
emzimkhulu
ababilaba
tobacco
atjhumayele
obufanako
metal
anuka
ilungele
plenty
attractive
ishing
Maria
Evelyn
alif@@
akgh@@
sekupheleni
warn
technology
Ukubona
ohlozela
sikghodlhelele
bangakghona
usinikele
undoubtedly
nehlonipho
kwebizo
imprisoned
hing
iinluleko
donations
ipumelelo
iinhlupheko
steadfast
elikhuluma
friendships
readers
widely
alisebenzisa
Tho@@
Me
sites
singahlala
believes
nakhibe
extraordinary
anye
rendering
ikoloyi
totally
Canaan
kokuhl@@
samaKrestu
ekukhulunywe
ombe
isiporofido
THIS
wamala
mal@@
sabapostoli
expl@@
wekhulu
UJwanisi
moon
pur@@
notho
bengin@@
abathandekako
Ivesi
marked
uleni
akapheleli
Lingisa
Eemnyakeni
Any
kheth@@
akutjh@@
uzos@@
abelethwa
asifuni
uvumela
Janabari
speaker
disasters
ilungisa
amar@@
itlhogomele
abulawa
amakhilomitha
bub@@
nekakhuluma
abusa
adang@@
propaganda
umayeza
fiery
umtjhapho
nawung@@
services
kweem@@
deserve
angaliso
Khew@@
ifumaneka
sports
elikhomba
okwazi
wenziwe
y’s
azibekela
exchange
ngeenyawo
busa
absolutely
uthathe
neenhl@@
esa
bathande
sm@@
wekolo
iintwezi
wipe
bakw@@
birds
execution
tless
abangakatjhadi
lilanga
owath@@
Heart
bekangas@@
Joy
akwenzileko
ars
hungry
reproach
End@@
guests
nemimoya
volunteers
sinesono
Kwab@@
previously
onela
Shepherd
nokud@@
amehl@@
Compare
behave
abangakholwako
surface
selected
ESI@@
ngaya
walabo
nomthetho
exercised
izaku@@
Ipi
101
suitable
harsh
initially
offended
eemnyaka
ikgh@@
Ukuzindla
ibone
zeem@@
athembisa
uthwa
isifuba
Day
Galilee
intandwakhe
epolotiki
kuthabela
storm
outlook
qubuthu
idolatry
wedwa
rara
2,@@
Above
ahlelwa
ngihlale
projects
noke
Department
njengamaKrestu
condemned
ihlang@@
sithembeke
osebenza
lovers
INDLELA
inthanethi
Actually
au@@
yenze
lokuzikhethela
amabutho
ari
abatjela
replace
bazokuth@@
ukutjhentjha
Eureka
wekonzo
ivumele
iimthwalo
AG@@
Herod
feared
ivumelwano
literally
nend@@
sizuze
hears
Ungas@@
table
iTlolo
atjwa
moments
anam@@
mas@@
tshwenya
akay@@
nabantwababo
bears
azin@@
Khulu
Josh
elungelo
rulers
ayitlolela
eMitlolweni
ongoing
ukelwa
Namhlanje
ngokunikela
ajama
iyi
vain
eleleni
elinembileko
okuthaba
pieces
1930
imagined
electronic
ifanekisela
bengubo
ngokwamazizo
ngokulalela
Ungal@@
andule
ukuthabela
eda
Truth
taxes
Ikulumo
hatjha
topic
Jordan
akusim@@
Ikosi
nokumbi
uthuk@@
othandekako
del@@
iimthandazo
iveke
Nakube
embisa
okholwa
iinhloni
akazi
esifuna
Turkey
statements
esemncani
avuka
ahlali
qunt@@
Malachi
sizib@@
ayeli
bezulu
nenturhu
ebesi@@
yal@@
transformed
exert
adzimelele
London
ebugqilini
kuhlakanipha
zalwana
everyday
eliswa
othobekileko
ugul@@
ining
kwamaKrestu
ngemisebenzi
a’s
itje
ngami
isikhatheso
ekufundeni
abulawe
Korah
sic@@
ineminyaka
lokuhl@@
uGidiyoni
grows
examining
State
odanakhe
happier
kusenze
kabanye
athumela
umkh@@
okuthabela
wabanikela
materially
sat
ets
silise
1957
ren@@
aphandle
akatjhadi
iwako
esikhulume
ngalemuka
abarhuweleli
positions
weakness
Ukraine
idelana
elitjh@@
deserves
ezitjha
uyakwazi
empty
anzekileko
engib@@
anzi
ziintanga
foreigners
engin@@
kuzokufuze
wo@@
singaku@@
Bumbi
depressed
fun
Pres@@
Zibuze
sithome
Ram@@
engiku@@
inj@@
itjhugul@@
crowds
follows
Years
nokugandeleleka
ugulula
conflicts
ukuthola
phathisa
abaphathi
eliphezulu
ukulahlekelwa
P
ukwazisa
nguPowula
obuth@@
indlala
sitshwenyeke
garments
eziy@@
ukutjela
ithokoza
gu@@
iting
litjengisa
ifundela
iselele
115
engcenye
ilungise
lokung@@
umbu
operation
respects
soldier
ikhandla
abomagazini
That’s
adult
apostate
unded
Looking
wabuyela
sibabantu
Umthetho
unywe
kghona
participate
online
Akhesicoce
1513
ipilwakho
usuke
nangapha
yakade
ungath@@
amaf@@
siqinise
ajam@@
anyela
noyedwa
generally
phrase
oso
bany@@
revealing
sipha
abalekela
beletha
engokomfanekiso
noSara
execute
udu
iimsebenzi
instruct
ongokomfanekiso
handed
Yew@@
abangakwenza
impression
ululwa
altar
akaZimu
games
waban@@
imithwalo
police
danisa
ngokwakho
alimi
Fil
mine
unmarried
ebes@@
usise
Esibusako
nganasi
99
falling
edwa
ilalele
Khumbuzo
unnecessary
epilwenakhe
IY@@
hesitate
overwhelming
inyana
nesizi
zizakhamuzi
njengento
Kwa@@
sokuthobeka
highlights
Josephus
requirement
umula
amazi
basabela
jamelana
ERS
TRY
isiph@@
okwenzani
Old
recalled
GOD
atlhogomele
ukghone
sizokwenza
16@@
esimalungana
unfair
isolo
enjoyable
bezi
benzeni
Dawn
KuZimu
abatloli
kwalabo
hohl@@
await
dosiphambili
afe
nobulungiswa
atshwenywa
illustrated
domestics
neenk@@
bantwana
ukuzindla
daka
andul@@
njengo
trans@@
nendodakwakhe
81
sinethemba
witnessed
abula
Index
gcina
eja
sitjhumayele
sorry
Abapostoli
zivela
atshwenyeki
kwaso
ingas@@
uyelela
welanga
uzokusiza
Isigaba
Her@@
siqalene
nencwadi
akat@@
nemisebenzi
kumagazini
relied
introduced
enting
Babylonian
wadla
yokukhulekela
ekghono
Thessalonica
ngokwabo
Isiporofido
tering
itjeng@@
equipped
20@@
customs
perspective
uJotjhuwa
Singatjengisa
ilwa
umelele
sizizwa
nasenza
ezibuyelelwe
sengathi
sell
beyiz@@
happening
bafundisa
idzimelele
alikhomba
KOR
nesis@@
immediate
Sathi
usiphe
neendaweni
Iinhlokwezi
iinhlubuki
isizwe
lingo
tur@@
anje
aphetha
ilisa
abisako
ungal@@
iWolo
yazo
wesibili
asirhelebha
baqala
owaziko
ekuphumuleni
ngokwalokho
cho@@
ubula
changing
Zak
mel@@
amakhophi
sebenzakhe
singab@@
Sunday
Wabuye
embekileko
Nowa
angene
Golden
illustrates
dosa
Ibhoksi
ter’s
Nikela
Times
akazela
zamo
submit
omisa
dark
ived
imizi
ihlanganisi
sokudla
eliv@@
w
87
offerings
amathele
madoda
lokufunda
yokulotjha
ziindaba
bre@@
Rico
learner
aphele
nokwazi
olweni
development
average
UKU@@
adjusted
akuzwa
ngamaKrestu
wabonakala
uzibuze
sephasi
voluntary
umaneke
hospital
translate
ikanuko
End
lokubusa
unless
atlolela
akhuthazwa
ezinto
emak@@
tu
ere@@
uyavuma
mad@@
wefanelo
lowo
akhulako
uZakariya
deceptive
Jeho@@
liliZwi
okhamba
fruitful
Hope
sisebenza
okuqakatheke
beat
Med@@
yik@@
wall
wage
banamhlanjesi
akatjhela
uphold
Iing@@
sinner
ebenzela
inte
ENI
Further
wavusa
akaza
ulungisa
angele
sehl@@
ezibuhlungu
Umphorofidi
ehlabathini
coc@@
kunento
odanami
athuthukisa
emandleni
struggled
ahlulelo
Elizabeth
expressing
nokuya
prominence
okukhona
possibility
ya@@
tlhoriswa
amed
athokoza
Assembly
Bengiz@@
ukutjhugulula
Alice
sizokukghona
agreement
chariots
portions
eSewula
umberego
Ilizwi
uDuteronomi
awuf@@
obus@@
counted
UNomsa
akuba
approachable
ISWA
Especially
son’s
yokuph@@
bamukela
ngemibuzo
okufunwa
akusilula
komnyaka
je
li
Iinhl@@
uLazaru
apostasy
Avoid
ongal@@
Ithabo
passages
ajame
Ngamunye
>
Asi@@
Neh
publication
Ezekiyeli
Kolo
bazokufumana
kulokha
umnakwabo
stor@@
neemraro
kuzokufika
Eminye
Zinengi
qalisele
siya
Faro
wokulunga
akeni
Man
ziinceku
Mat@@
smoke
endoda
ngokwayo
ngihlala
diligent
kokw@@
’@@
elwazi
ethandekako
mor@@
warmly
zimelela
ngid@@
phefumulo
cast
abisi
correction
ongakghona
ungay@@
distributed
iraga
iimbuso
esikufunda
Mariya
Maintain
epi
me@@
Bibles
nalokhu
unusual
commended
ithini
Topiya
ongas@@
nebantwini
oniphe
injalo
Khonapho
assembled
Rutherford
ful@@
atic
weight
baqalane
Yoku@@
sorrow
indlebe
2,000
ukubandula
nePi
kab@@
deaf
fundiso
esikwaziko
akhako
Describe
Scripture
Illustrate
ekum@@
ngend@@
cabang@@
War@@
CO@@
resulting
IR@@
Eli
Human
jame
doctrines
akhonze
kwabapostoli
ebumnyameni
favorably
esingakghona
azeka
ukubukela
Lystra
onde
akulungele
oye
wenduduzo
strongly
onyana
ikghona
elilodwa
lithuba
okuthiwa
asiph@@
ngeenkambisolawulo
ser@@
yeKosi
Solomoni
Jotj
Tract
Tetragrammaton
weentjhaba
sokul@@
Ukusebenzisa
prisoners
Hans
athand@@
Nd@@
lacking
orhulumende
imis@@
leaves
uzu
kuphele
oswa
ANS
remnant
transferred
Evidently
hohlwe
foremost
han
va
nesifuna
appoint
uJuda
UTH@@
endula
amezwakhe
ikelo
kuneen@@
tha
ukulungele
except
neembuzi
ngokwekolo
ngekholo
obvious
kunal@@
ukuphendula
olelo
ight
udukela
ubul@@
aphambili
Ev@@
ukuzihlanganisa
adults
zabapostoli
anjani
convince
foot
Josiah
Lefèvre
Ngaphasi
nehlangano
respectful
isiKhumbuzo
kwakhanya
Kwebe
2007
Liyini
Leyo
tjhugulula
divorced
an’s
ebutjheni
led@@
regain
annual
nomndeni
abom@@
uFaro
sizi
esingal@@
aqalisela
ngehloso
ulalela
ngobusuku
idlala
she@@
ikonzwakhe
ndlela
richly
husband’s
topics
thombe
enya
osith@@
headed
MATTHEW
amazulu
babuyela
weighty
ukukhanya
ngizo
abantwabenu
olandelako
Kuyathabisa
hino
repair
tribulations
Ukutjh@@
detailed
thandaza
khathi
emincani
elements
okufaka
ahlele
ephasina
inspiring
kwamezwi
ukwaneliseka
ngombono
ongakatjhadi
ibawa
akalungi
branches
zibuze
namatjhuguluko
HEB
umjarho
victims
permit
nguKrestu
thereby
umphathi
welcomed
ute
iindleko
enziswa
Seeing
amaph@@
programs
nakezwa
Spain
angazi
representatives
1943
contemplate
Republic
qiniswa
wazib@@
tracts
Ip@@
athululwe
uthabela
tic
uguluka
Bakhe
neembusiso
Nebuchadnezzar
UMariya
Ghana
cleansing
doctors
Nakunjalo
ekus@@
claims
uyal@@
simthande
aqede
136
kwesibili
holwa
ngamalanga
waj@@
inwa
buth@@
ibalele
ithandaza
Happily
elangeni
ambile
planned
black
awath@@
pet@@
Ukuhlala
ULindiwe
akad@@
AW@@
Ihliziyo
relatively
headship
imp@@
proclaimed
outworking
ngikhambe
conquest
IT
kwafika
television
Wycliffe
silinde
selfishness
nomBuso
esitjengisa
afi
esiligugu
Dad
struggling
ukurhelebha
izindlu
abek@@
ngokuhlala
desired
zimelele
kungan@@
ukungena
basebenzise
ish@@
wamaKrestu
Jobhi
ngokunabileko
acquainted
Umtloli
population
ikhethela
angen@@
athemba
ihliziywethu
Je@@
ukufana
eni@@
esizokucoca
ukulala
tsh@@
puts
imil@@
aqinise
suggests
exemplary
improper
abile
kesinye
Iimb@@
onomusa
Often
elenza
iingozi
kweBhayibhili
strengthens
wokurhaba
larger
njengoM@@
kwema
weS@@
elaphi
appreciates
izAga
COR
esingatjengisa
abacabanga
deb@@
Nuwa
missing
yaqobe
engaz@@
uzan@@
esikhamba
stands
bathaba
kwakaSathana
lacked
ifanekiso
esicoce
uduze
bantu
Ukukhulekela
ukusisiza
ezisisekelo
capacity
trap
conquered
shield
abanom@@
Mas@@
siqunto
wabiza
discover
10@@
ick@@
babawa
Zib@@
producing
odana
ung
aphumelele
ibonakala
ukazi
silahle
Three
usis@@
fin@@
desirable
afundi
ngiw@@
ngomlayezo
khule
icabangele
Singaba
mthombo
1941
definitely
Iink@@
zokulunga
Kuzokuba
tri@@
itjhwa
Thomas
iimhlatjelo
Listen
okungasisiza
saving
ukuza
owodwa
attempted
imikhumbulo
itjhaphulula
eJarimani
begged
UZIMU
enjoyment
towns
kang@@
unyiswa
elicwengileko
kunezinye
1970
wabab@@
abanjani
proclaim
EP@@
ghodlhelela
gula
Asingabazi
hit
Bengihlala
esikufundako
bor@@
equal
ion
ezifana
sisabelo
ngemithetho
aphelele
sisekele
rebellious
creature
ikeli
ins
manuscripts
Encwadini
kuyatjho
Mad@@
apheli
hopes
balotjhe
kwento
ovu
etjenziselwa
uP@@
ekuziphatheni
ayihl@@
·@@
oliphayona
ekadeni
basebenze
okuthabisa
Jezebel
Jeremiah’s
itlolo
Ngokuvumelana
ikezelwa
ulungile
Ukulalela
friendly
aphezulu
aphil@@
asono
2003
Ngisi
rhatjha
anethemba
azini
mbuso
uzindle
Amad@@
composed
ohlukileko
sicabangisise
zubhula
nyanya
iveseli
isakalela
ayenzako
Kulapho
abakwenzako
amatshwayo
kwenz@@
okwenz@@
ukuqiniseka
behl@@
nokuzwisisa
red@@
imikh@@
eless
Ukus@@
ikelako
wahlela
zommoya
pen@@
ai
respecting
akhulela
otha
wayala
sizokuhlala
athululele
admitted
bafundise
price
itempeli
ezimbilezi
accident
900
sokuthula
ESIFUNDWAKO
silindile
bengis@@
jamele
asiqinisekisa
asc@@
fun@@
Sy@@
ibizweli
ekukhonzeni
rem@@
engim@@
uda
iimhlangano
jama
arrested
bunjesi
wakha
ukutjhidelana
anukela
priceless
lel@@
emhlatjelweni
Ngamanye
angib@@
kwamanye
Siphila
kwebandla
Way
umhlobo
khe
singabi
avoiding
tjengise
ths
amazed
fowethu
tim@@
uJoromiya
kungakusiza
bekangafuni
abunane
eyihloko
Gentiles
ngelizwi
1960
abatjhugululi
Library
ukujamelana
eleki
ebabelethini
asifumana
uzwisise
ezizokwenzeka
creative
translators
1990
uman@@
utj@@
wokutjhugulula
bewuzoku@@
apholisa
98
qaleka
athemb@@
sithuthukise
ikile
overlook
basize
oroyi
Zimami
entjh@@
territories
aduduza
ented
azwisise
intombi
siblings
somBuso
doctrine
hoping
kwephaseli
76
Eze
esingaba
ebesiz@@
owaba
yangekhenu
directing
respectfully
explanation
kulungile
qinisile
color
Sp@@
considerable
skin
zini
weigh
bekenza
centered
Encwadinakhe
prayerfully
Ukuze
burning
inspiration
Within
ect
auxiliary
ebekung@@
anini
zez@@
ubani
namasiko
family’s
ngalitho
imadaniswa
nesikhatheso
entweni
ezikarisako
qa
brotherly
dedicate
neutrality
endulo
length
highest
outset
sabona
omeni
Ipilo
tremendous
ngimi
wenziwa
uzokw@@
Amerika
nesikh@@
yephaseli
asebenze
sihloniphe
yokum@@
ensure
sinom@@
Buso
wanamhlanjesi
khulumako
zesi@@
located
ntambama
qh@@
KaPitrosi
atshwenyeke
UThimothi
itjiseko
ukukhohlakala
generously
usiwe
historical
iving
esizini
uphumelele
waqunta
ukutjhigamela
alimaza
likhulu
Gehazi
NguZimu
yenyama
itjalelwa
kwelinye
Manasseh
eregise
races
ingana
cultures
amat@@
esifund@@
unrepentant
Little
art
Thanks
atjhej@@
ukungas@@
Consequently
mth@@
obeka
qinisekise
Eenkhathini
indeni
CON@@
ebenz@@
tab@@
Ebandleni
ombi
Ngabona
amakghon@@
angala
uluka
wife’s
Abas@@
theth@@
kuyenzeka
kunjani
zwisa
aling@@
umnganakho
amaLevi
forgives
heritage
uzosisiza
rebelled
ukutjhatjalaliswa
uring
Kunoku@@
amatshwenyeko
aKrestu
njengomdala
beyis@@
atjhad@@
kuses@@
ngeemp@@
eBhabheli
akunalitho
akweli
telephone
feeding
umthombo
akube
badness
souls
somehow
ahlezi
Khulekela
atjhinga
uzwisisa
scale
enami
atheng@@
sky
umenzi
angi@@
prior
bengi@@
edly
angokomoya
mnandi
ijim@@
wanikelwa
imoni
ephile
ezikh@@
yabanye
ngeg@@
majadu
ngokuthobeka
amv@@
ukungatjhadi
iN@@
umelusi
atjhadi
ekung@@
sensitive
offices
INdodana
compromise
akatjhele
elethwe
ENT
nasiqalene
lad@@
bezwe
ngilise
mate’s
corrected
offense
presentation
ives
elikutjhoko
sokukhuluma
siyaqiniseka
flow
relevant
ithetho
ilibalela
botjhwa
lingani
punished
othe
silungise
method
Novemba
Ngokuhlukileko
avakatjhela
Watlola
Sebenzisa
esibizwa
zimb@@
Thess
ungazizwa
zakwa
Millions
elifanako
sitjhaba
akutjengisa
umelana
kumele
NE@@
ngesihlengo
inti
completed
emadorobheni
uMar@@
rebel
kaMatewu
umninimuzi
delay
isihlokwesi
ngomlando
aqalwa
akaJesu
empowered
izako
uqal@@
athathwa
akaniphe
addiction
ngen@@
safumana
okhethekileko
Singal@@
bebay@@
ophe
Baal
iingqila
qopho
zizokuba
nokuzinikela
loud
ngelihlo
ubalekele
bazalwana
awazi
webo
holwe
atjhumi
uthakathaka
commend
Asa’s
Waz@@
yombuzo
emsebenzinakhe
iimphorofido
aragele
aliseka
traditions
unge
emBusweni
abhajadiswa
iPhasika
JW
Pharaoh’s
athululwa
lips
wamaJuda
Kuyadanisa
Ngokudanisako
obuhlobo
Ngesinye
ological
Lib@@
namath@@
ati@@
ekonzwenethu
anak@@
bebangan@@
Lo@@
bezinye
esithandathu
omvu
Naboth
brain
Kungasikade
erh@@
kungab@@
unjwe
kudlule
2005
hag@@
umani
supplication
sec@@
Ap@@
kil@@
owned
ilimu
backgrounds
isikhulu
athembela
njengab@@
pas@@
inqophisa
Silas
Siyafunda
shadow
700
Speaking
njengomndeni
okoMtlolo
aneleko
conquer
nikelwa
abelusi
ethuba
jamelela
Mother
duties
ithol@@
MATEWU
ngilinga
teenagers
materialism
nesiqhema
ihlanganise
tjhado
enables
abangaz@@
ell@@
tor
okom@@
considers
khumba
Nazareth
striving
Additionally
dignity
re
Likely
aim
Zim@@
eH@@
Iminyaka
Mary’s
ained
okuphila
Ngicabanga
measures
strange
buhlungu
homeland
Richard
qualifications
commercial
unwise
athembele
onakalako
amthabisa
onom@@
tear
127
afford
tenderness
ngokubekezela
Don’t
andakanyeka
media
2001
tere
bitter
FOR
phas@@
libizo
qophise
mBuso
imib@@
unrighteousness
Answer
ihlanganyela
displaying
ekolweni
declaring
besikhathi
star@@
isisekelo
bereaved
Japani
ababusi
simthanda
Umhlangano
isihlopha
openly
obumbi
cure
ingoma
principal
yihloko
adinwa
ambelela
Leso
Meditating
akhandela
Umfundi
favorable
ikholwa
eziyi
receives
Sam@@
relying
avikele
noYise
ngitjh@@
ert
kungaku@@
UmTj
wenzani
ukghwa
zakade
neeng@@
bebath@@
angang@@
parables
tjhentjha
firsthand
uqalane
Umporofidi
amalungu
UBongani
inclination
hlanganweni
amukeleka
Anointed
amahl@@
anek@@
uyakuthanda
akaJehova
apostates
emuva
cloud
ambona
abahlonipha
Ling@@
wokuph@@
Kwesithathu
ored
bathabele
esitjhabeni
ash
105
ilandela
prefer
umrhubi
Whoever
fortify
rhelebhe
izehlakalo
ethabisako
abakhambako
okuzoku@@
akhumbuza
ibale
wangezelela
asenzela
ANI
maturity
amazizwakhe
entering
bomseme
IsiThala
ikhuth@@
beGibhide
Wangezelela
disastrous
SUBJECT
tjhapho
emihla
objec@@
ezifaneleko
nasis@@
lingwa
bazokuthabela
Umndeni
endodana
ste@@
esingayenza
equ@@
isizathu
kaSolomoni
sibeke
confirmed
abulale
imikarisomraro
Bobabili
avumi
unela
silent
Bill
hi@@
umbeneko
edere
eyikulungwana
imini
faneleko
nabafundisi
igh@@
gracious
otjhade
recommended
lebandla
ULA
odan@@
nekghono
ved
exile
implies
bawa
Living
ziphi
confirm
Pl@@
molded
wahlula
inzuzo
akwezi
AP@@
inclinations
worthwhile
asebenzela
ESINGAPHANDLE
taste
ngokuv@@
okwakha
deceived
Greece
produces
similarly
agula
proclaimers
ukisa
Akukho
uphila
ifan@@
79
kubadala
uJafta
lakaKrestu
sanctify
qophe
imith@@
afundela
kubona
ekwakheni
kuk@@
DNA
Ukuthanda
JOHN
emphasized
morally
La@@
itho
Ka@@
sworn
hodwe
amnikela
linganakho
khuth@@
obun@@
adjustment
alaz@@
row
lenza
ode
umsebenzabo
balwa
ming
navane
uyahlathulula
Hearer
ayibona
udlhayela
lobu@@
ekusekeleni
Esing@@
Lef
disposition
iimphakamiso
tlhaga
boys
ingileko
eria
ikulum@@
driver
preacher
gadesi
belin@@
eGermany
roads
card
itlol@@
ezicwengileko
isik@@
Simon
begun
nabal@@
nya
Chinese
visitors
hlanganiswa
mission
prayerful
porofidi
njenges@@
enzasi
sabadala
liveza
ibandulo
lingan@@
Madanisa
qinisek@@
wamsiza
plants
ngenyanga
sindisa
alize
Disemba
basiza
check
nomkhumbulo
singathomi
ungenza
fer
Akun@@
kokul@@
Ngikhumbula
abakholelwa
thoroughly
Qalani
nin@@
Levitikusi
1980
iletha
engekhe
jealousy
uncleanness
Serve
owenze
stable
Nangambala
contr@@
surrounding
wathola
worst
hohlakeleko
adversities
phazimulo
usithanda
identifies
wokung@@
tempt
ebebas@@
uthu
unseen
uvela
forbidden
ilemuko
Mom
Na@@
KuThimothi
yabapostoli
akes
uleki
Bethelites
UMLANDO
sokw@@
ufike
emihl@@
Purpose
yokusebenzela
ukuhlola
somusa
Joshuwa
ukuhlathulula
indelwe
diligently
abalalisa
count
Inthanethi
Amalunga
ngemiTlolo
abafunda
ains
ngeembonelo
appreciative
yeartext
Dor@@
wakaZimu
esewula
Ecuador
akwami
awi
clearer
akhohlisa
avuthiweko
atory
teen
inakho
akalindeleki
conf@@
earthquake
okulwa
abuth@@
glorified
Abantwaba
Mis@@
cell
engazi
originally
AKO
esingokomoya
fair
Bath
avusa
kokubelethwa
itude
wearing
namaph@@
European
cleansed
iyini
bank
immortal
coun@@
ngamagama
zokuba
angakalungi
watched
asesemncani
enzile
khon@@
suppose
Box
ukufaka
avumeli
elikhohlakelekweli
alweni
Thembela
Az@@
Yibani
aphilako
Ukuthembela
wahlangana
liphi
abalalela
IUD
fought
kam@@
AV@@
depicted
APH@@
timely
Nonetheless
ihloyo
clo@@
akwa@@
neengazi
uzol@@
okufanele
eGibhida
ny
ukulu
regrets
HAVE
Njeke
phaphamtjhini
iminy@@
nomntwana
vi@@
Neither
sis
amano
Ndodana
ulelwa
arrives
orderly
bekhabo
nith@@
ezimamala
gro@@
isidumbu
unomusa
truthfulness
treacherous
lomsebenzi
obizwa
ngombuso
sokuhl@@
differently
Mitlolo
nokutjh@@
grandmother
ihliziywami
indication
ngobuntu
enyanga
iphisa
endlu
itjha
ukukhuthaza
kwavela
akwat@@
judging
ikhetha
nekang@@
kuphila
ihlangan@@
Isihlengo
lets
occurs
amthemba
one@@
ABELETHELWA
ust@@
babhalelwa
sobabili
ingeka
Inceku
banengi
chariot
125
amafutha
ngokuzithoba
abhad@@
Nabo
wendoda
nokungakalungi
emnandi
ozib@@
Qiniseka
theme
Last
endule
hat@@
Phasika
okwemvelo
esekhona
ukuhlela
athola
nesele
besith@@
Ubuntu
umfowethu
emikh@@
abakhuthaza
atjengiswa
hinder
forgave
nalithi
Imitlolo
wesintu
arm
Ngesizo
ayi@@
etheko
abangakghona
ukuthandana
eR@@
bi@@
ahlonipha
kukuhlakanipha
ambis@@
akunamuntu
ukhul@@
abani
Langelinye
laid
engakusiza
nokuhlala
obufakazi
Iv@@
,000
Ngaso
aqiniseki
rhayilwa
KwebeFilipi
naziza
Ungavumeli
ifa
ukungapheleli
Uzimisele
Wa@@
iintambo
uyakghona
alala
trustworthy
rhobholo
Ukuph@@
athako
athabisa
1974
ties
lokum@@
basib@@
esithanda
IF@@
osingazimu
ipharadesi
Rachel
ekha@@
elelweko
noMariya
unscriptural
aries
Following
njengal@@
elizele
pharadesi
remembering
kwat@@
ving
sokukhonza
kunem@@
itshwenya
meek
sexually
Amaphayona
favorite
esinazo
ijayele
Spanish
title
creating
qinis@@
sixth
abuzwa
omu
Reading
landisa
use@@
abarholi
Pheresiya
Find
apartment
hum@@
eqa
Jesefa
ive
psalm
hlatjelo
amancani
Kwaphela
ukumiseleka
extend
elingapheliko
bekuku@@
fails
weny@@
unyana
umnganakhe
mamanzi
njengesi@@
abomma
esihlangana
netjhebiswano
wobu@@
yield
gladly
amadimoni
brother’s
sions
Galatiya
ilindele
bakhethe
ingalanga
wazibuza
esisekelo
Kor@@
elizoku@@
adumisa
elethi
yoMuntu
ngomoyakhe
ranks
terrified
abatjengisa
unelungelo
kwebeRoma
uzise
kobuKrestu
Febherbari
kungatlhogeka
Hel@@
authorized
interfere
lakaSathaneli
themba
maybe
Davidi
wobuKrestu
kokufunda
abahlakaniphileko
ezibabantu
egadungileko
sithokoze
enethu
gandeleleka
attacked
itlola
ithandazela
lay@@
neenqophiso
abangan@@
yokw@@
hema
heading
ebeyis@@
searched
uthabe
prevented
legally
celebrate
esikhethekileko
waphetha
threw
expecting
kutlolwe
eyalandelako
listed
Nic@@
Wakhuluma
Khewucabange
zuza
mKrestu
ITH@@
onisana
kulilungelo
uluke
temporarily
ayensi
Had
85
isikepe
kaJwanisi
esono
ukungazwani
engasi@@
zesikhathi
ekhenu
engcenyeni
eyenzeka
ethula
ahluka
olisise
khath@@
ann@@
harder
Potter
East
weep
wabhina
khumb@@
aying
Assyrian
Cor@@
mostly
arriving
nesiqalene
leminyaka
kaM@@
eParadeyisini
qunte
okuqakathekileko
atelela
emag@@
abadosa
lekhomba
captive
wed@@
mag@@
khohlisa
Sel@@
sessions
combined
saNtambama
odl@@
engasiza
BEK@@
azwakalako
alaleli
athulule
ngibone
akwe
yobu@@
lwana
isit@@
isebenzisela
ald@@
nambili
okwahlulela
ngomuso
1879
independence
lifesaving
hed@@
bewu
1993
ngama
uMma
absorbed
sebenzise
njengelifa
esingaphelisi
Nesil@@
iinkhumbuzo
enthusiasm
awaiting
ijame
Ngekhulu
rarulula
ukanise
sokuz@@
admonished
Besides
enwa
umile
sokum@@
endlel@@
mbusi
ngalisa
honoring
azithola
consistent
epheze
emuko
Marcus
uphe
Om@@
kwethando
ukuzenzela
epha@@
azihl@@
abanalo
vigilant
isibopho
Abab@@
EBhayibhelini
em
epe
intention
weighed
74
lithabo
unwa
injustices
Jul@@
starting
EKA
82
Anglo
ebandla
alahl@@
yihlangano
uel
kez@@
lar@@
balahlekelwa
Pacific
welwa
memorial
thandazela
ombuso
vary
lokukhonza
usize
kunabo
LINGA
prosperity
capital
endulwa
roof
add@@
Seku@@
Lakho
senu
grandparents
samambala
abathand@@
muphi
Jephthah’s
abalekele
ukuzidlula
Khamba
senceku
AS
akhambi
kakhe
Ze@@
hohlisa
elinabileko
collec@@
komoya
meantime
uphele
amsize
1997
ukunqotjhiswa
awun@@
rholi
ination
alapho
alwakhe
embonweni
scientists
agazini
esingeziweko
aphaza
errors
leisure
frustrated
eding
ches
contentment
Tuvaluan
singafunda
Powula
kungatjho
akuqala
lethando
Understandably
declaration
ulile
nganakho
107
Whenever
lines
Umrhalani
dlul@@
rejoiced
fanelekela
oniphi
1948
on’s
atlhaga
civil
esingakufunda
Nawenza
ubawe
nezing@@
sacrificial
ethabisa
connected
ezifanako
sicoca
Septemba
ekutjhoko
ikhambe
yenzeka
financially
ature
longtime
stage
TJH@@
ngamanye
akhiwe
nase
starts
watjheja
ngokwazi
amitha
alini
Ba@@
avume
yala
fores@@
nakwenzeka
0,000
valued
wephasini
fare
ngehliziywakho
eleliso
ce
kat@@
abaneenhliziyo
yokufunda
omalungana
Thala
Origin
khany@@
Wabe
Ones
ngiku@@
fixed
amadodanakhe
kweKosi
manage
JESUS
silemuke
wholeheartedly
akaKrestu
ekukhulunywa
eNtabeni
Seek
emine
Cornelius
ubuKrestu
Tj@@
nekufeni
emphasis
wafela
Komndeni
ʹ@@
eKorinte
simplified
waraga
intimate
Yearbook
Ngaz@@
,@@
abantwabethu
athana
zenze
engo
gar@@
Franz
loc@@
azik@@
silingisa
bazinikele
unjalo
ALA
neenzukulwana
uyas@@
esingay@@
sion
distractions
lisitjela
log@@
Malaki
Elija
akunakuzaza
North
reassure
zathoma
athembeke
phorofido
141
ifunela
questioned
obuseduze
umanako
succeeded
kobukhosi
san@@
afanako
belis@@
00
athabile
ayedwa
umndenami
umpristi
izwisise
wanting
farm
ikiswano
advancement
ekosini
14@@
necessities
nasitjhumayelako
jayele
expensive
pit@@
origin
uMninimandla
nobaba
hin@@
holelwa
nonina
amajadu
Sifunda
erego
onz@@
go@@
UBaba
kuzob@@
Okung@@
uzosibusisa
simplify
ngoM@@
habhadis@@
planted
nobusuku
Gaius
waqala
unyurha
partial
akathabi
asibonelo
Bantu
bekubonakala
emhl@@
siphethe
Sar@@
founded
hajadiswe
sitjhidela
sikinyeka
IA
lisi@@
boldly
ukuphumelela
Ungalibali
driving
khulumi
ngahlangana
sitjhijilo
amumuntu
volunteer
heat
yemvelo
Singamlingisa
aqalisele
tradition
noB@@
nokulotjha
azenzako
Standard
ridicule
UZakhele
ve
asuka
reserved
isikh@@
ikaziseka
ngokufa
aniswe
eneli
Elihu
UMandla
abaqala
elunya
Khambani
ukugandelelwa
1961
grant
bengil@@
Maybe
obtained
lathoma
adala
bekakholelwa
zemvelo
zepolotiki
ngabelwa
Easter
ahlula
genuinely
sibonile
alwela
abathileko
noth@@
abahle
nasikhuluma
kufika
Pe@@
epumalanga
khupha
iywa
umnyanya
elidephileko
Izazi
ukudzimelela
njengaye
obela
nikelo
Rose
nokuf@@
afaneleki
umsana
awunikela
afike
Ihloko
etho
akav@@
END@@
afaniswa
umhl@@
ab
ening@@
lesihlengo
ukudana
kin@@
spared
Babethu
amf@@
wokufundisa
Numbers
ikhambisana
okha
History
romantic
ngizizwe
honghoyila
Pennsylvania
embrace
amahlandla
Jon@@
ano
PR@@
nalezo
kulungwana
fundi
akuthokoza
asililitho
ukubulala
sign@@
researchers
sizokufumana
vana
Together
iding
ulawa
nguwe
ira
uzokul@@
eyaneleko
ngef@@
worthless
advanced
ezilandelako
grooming
nangezenzo
Khok
owang@@
aqakathekileko
indodakazi
hot
introduction
abazokuba
kokuz@@
ufune
emin@@
Ngith@@
Isifiso
jour@@
female
$
wane
nomndenakho
nizoku@@
abakhona
healing
ukuthokozela
yours
thinta
board
realistic
falls
ass
base
opens
ihlukile
akanandaba
expectations
zokwenza
ehlangothini
siphumelele
don@@
nebutho
esikh@@
ePharadesi
lied
thembe
ngokufaneleko
injury
wathaba
nawus@@
itja
OK
umphakathi
aweni
forefathers
remembers
taditjha
uRabega
ukuyokutjhumayela
Publications
ngesiqunto
unbelievers
uyaw@@
hi
beyisolo
bekangekhe
kathathu
amaqhinga
namab@@
phristi
abala
iimthandaz@@
Archives
Ukuphela
girls
phambene
nasil@@
nangelanga
Pharadesi
Ep@@
bobuKrestu
ababunane
limaza
umise
CH@@
ubawa
ipikiswano
Abatjhumayeli
Mic@@
uncircumcised
excited
yenzeke
akhelene
Pol@@
Must
LY
wokutjh@@
athembeka
ngeNdodanakhe
itlolwe
Abad@@
aboni
honesty
imbala
Kubafundi
nekw@@
steal
Truly
bekezela
Ungakhohlwa
Jonah
ukwaziswa
obh@@
esingazifunda
kuza
Rem@@
khub@@
proclaiming
UJobho
incwajana
neg@@
eGiliyadi
ukubhabhadiswa
uri
AmaJuda
ugulul@@
unjust
PRO@@
ibon@@
ekuhlakanipheni
hypocrisy
wemvelo
atlhogeki
wavela
IND@@
akathembeki
Caesar
siyal@@
Pha@@
Onesmus
esihloko
ukuphathwa
Christian’s
nakath@@
wembula
abangakhenge
steward
Woku@@
facilities
Umnqoph@@
unknown
plain
esiyenzako
station
ukhali
1951
ine@@
khu
sikholelwe
pregnant
okuhlala
ubuthongo
njengoZimu
etempelini
amathela
134
Prophecy
character
sithokoza
Sermon
aziphatha
OS@@
owe
endod@@
nobukhosi
wangitjela
kaDavida
nikele
sleeping
sithabela
ulwela
kwaz@@
ency
nelemuko
depression
Zion’s
okupheleleko
namiphi
nasek@@
John’s
Over@@
balotjha
athandazela
Anne
noteworthy
Singafunda
wokutlhogomela
ngamatje
somewhat
ukuqinisekisa
ukuvuswa
Accordingly
ekwaba
bekazizwa
Nasil@@
classmates
ahlul@@
ekutjh@@
heartwarming
abanikele
iimangaliso
usolo
lika@@
dosela
aps
isiv@@
kutjengiswe
abaziko
river
olide
buried
baqiniseke
uZimakho
elik@@
abandula
R
onitjhwa
neenlwana
okudla
uyamthanda
ezingasisiza
uSawulu
ephumelelako
siragela
1800
Jesse
ezik@@
Bekatjho
MAT
guiding
mthetho
khumbul@@
ngikghone
iKosethu
bakosontjhaba
icabango
reminder
nqophisa
sibuye
walayela
status
affects
jengom@@
kunamhlanjesi
epilwenakho
ilungile
praising
ukubawa
pace
abangakalungi
dominant
EMBA
womabili
enzeki
Habakkuk
ebukhosini
revised
ail
umsebenz@@
ngokuqiniseka
Kong
KumaHebheru
ukuvuka
ech
punish
Di@@
silalela
skilled
Ocwengileko
kufuna
intervene
uphendula
eban@@
ezinjengalezi
akhele
Naye
uzakuba
accommodations
emizini
emakhulu
onwa
onward
nakwezinye
wezimvu
nomkayo
emblems
esiqinileko
oFakazi
kweengidi
ukuvumela
bengekhe
ngokutjheja
qakatheka
ngaboFakazi
iimcabango
Song
atho
abatlhagako
inyaza
simb@@
rejecting
ambatho
ukholelwa
supportive
items
char@@
elibizwa
nakube
abumbe
Suppose
Lalela
umona
elingeziweko
yalokho
Follow
akhupha
ukulwana
omele
eziligugu
alandeli
isililo
erege
uqakatheke
ided
Wom@@
satanic
Canaanite
sisolo
eliligugu
aphend@@
criminal
ues
nihl@@
nomona
sihlule
cal@@
baphumelele
atjhidelene
iimtjhapho
Asafa
Sith@@
tjhaph@@
umnono
asikho
Emfanekisweni
ebengi@@
namadodanakhe
ulung@@
ahlwa
kurh@@
unendaba
tow@@
distract
ezonweni
Put
emphasize
containing
imvu
Ancient
sakaMosisi
uF@@
ord@@
bekangazi
spreading
Nib@@
eBrooklyn
ngeenkolelo
MATT
lokufumana
Grace
okulunga
esenziwe
Izenzo
practiced
elitjhugululwe
elsewhere
ekonzwenakhe
Macedonia
elinamandla
Titosi
UMesiya
Wise
osiphambili
ukuzizwa
nemihla
ising
set@@
ibhudango
shy
Humans
bathabe
Nabhothi
religiously
akhambisana
nor@@
mislead
MY
akhanya
arara
TION
bekazokuba
abahlanu
idelene
accompany
uthele
ebekang@@
HISTORY
wokufunda
asiduduza
nokucabanga
esinqophiso
3,000
esiya
nengomuso
wangekhulu
sizokukhuluma
ujame
abandla
ngelunya
ading
iribe
uno
umayelako
utitjhere
neendawo
UmThetho
uqinise
subtle
unkind
igi
praised
increasingly
ARE
ilwandle
nokusiza
ekisa
zalabo
beRoma
ko@@
weRhubo
waziwa
ithuli
abusive
Gibhida
wekhabo
agr@@
market
ABELETHWA
deliberately
butjh@@
abakutjhoko
colporteurs
empeli
ndenami
asithinta
Kilokhu
nodade
chi@@
AY@@
numbers
akamise
sitjhadile
afundiswa
Someone
anqophise
ukhonza
buyisela
zaboFakazi
atjhatjhululwa
iah
abiza
uthembisa
ulungwa
bafund@@
drop
lav@@
atjhukumisela
nemikghwa
exclusive
ipengu
ekud@@
azuzisa
ngeembusiso
namakghono
Writing
ekwe
deception
ngaliphi
occasionally
elitjho
embekile
repented
IIN@@
bebandleni
nommoya
yendawo
njengabo
kokum@@
itjha@@
uKayini
Kwang@@
uhle
1947
khulume
efund@@
bhedere
kumane
sharp
party
elise
eenkambiswenilawulo
bazokub@@
wakhona
EF@@
ukukusiza
safely
ngokuf@@
anik@@
nababona
yaph@@
njengeen@@
alokho
adapt
hem@@
pursuit
abavuthiweko
obenza
rider
amathulusi
ukuthwala
bafika
tery
ARTICLE
plague
idinga
ukubonakala
qali
Saul’s
okutjengisa
ELO
enem@@
namely
ngamabanga
sihlolisise
kungombana
zethando
omakhelwana
imvumo
Isono
ubude
ihlanganwakhe
khibe
recover
iimpahla
Sydney
kuyafaneleka
akutlhoga
ngale
okhonza
row@@
ubuk@@
GOD’S
ukudumisa
athwe
qothwa
2.@@
Bebang@@
Naku
azifumana
udzimelele
umtjhadwabo
obanisa
leth@@
fir@@
112
zone
ukukhula
survival
wengile
zikhuluma
ariyada
ehlela
ngokukhuluma
motivates
wengeke
athandana
bengifuna
enakho
azalise
88
distinguish
Thank
ingise
disobedient
bondage
singazuza
ngaphetjheya
lilunga
ahlanganyele
Kwakhe
trad@@
abanethemba
Let’s
ijimisa
Somnini
Volume
andakanye
esiqala
IV@@
Ubuhlobo
afundisako
Ver@@
UH@@
bekuba
Isil@@
eenhloko
contributes
udlul@@
alith@@
wakade
ahlongakale
ngazi
isid@@
emasondweni
tasks
Yesithembiso
Waf@@
adangisa
imithi
1996
ngaleyo
bumbi
anan@@
spring
ngamanzi
Until
Very
judgments
ulale
amlandu
litshwayo
qalile
ekez@@
hazi
Guard
Devil’s
Paolo
nomthandazo
unana
ifun@@
kug@@
opho
Uyabona
abangafuni
umkhumbulwakhe
azazi
shame
weKorinte
despair
perceived
supports
nelaka
belonging
maJuda
Gr@@
kubonakale
afaneleko
thandako
winds
umfundisi
sealing
weakened
formerly
erate
Langa
khes@@
epilwenethu
tragedy
oca
UY@@
ekhohlakeleko
abaphorofidi
akhambisani
usiza
kusinikela
improved
Singakghona
sidisi
uMikha
ebekay@@
asotja
balo
NGAYO
ukan@@
istic
Tjengisa
wokusiza
bekakwazi
singeze
Earlier
phola
abambe
ihlola
lezulwini
omnengi
bekus@@
eBrazil
ony
wabhabhadiswa
abuk@@
YEAR
tjhumayeli
800
akaw@@
sabelwa
yaboFakazi
ngamaqiniso
umk@@
UJakopo
iphil@@
abathabileko
lokw@@
afundisi
phaphama
lesintu
sibekezele
nangalokho
siqalana
Ontario
uMninimandlawoke
fundela
Encyclopedia
channel
bangaku@@
ahlakaniphileko
izintwezo
atjheje
Lis@@
eliqakatheke
MAR@@
falsely
appl@@
iveze
abaFarisi
balise
emsebenzinethu
ambela
lokubona
kar@@
ngobunengi
passion
Okukuphela
examined
concept
rob@@
spiritism
USolani
imv@@
iselani
elesi
ebeyiz@@
ulusi
ancani
kulalela
discerning
amatjh@@
Jean
yango
ngikh@@
industry
obangela
angasisiza
tion@@
kwaph@@
wamnikela
longing
hohlakele
eseBhayibhelini
banikele
nakenza
khuthazana
iselelwa
wePhasi
US
amthokoza
afiki
Four
ikez@@
ayid@@
keenly
endodeni
singenza
isokaneli
yaz@@
wakubona
irr@@
udango
khambisana
ngomb@@
zes@@
abathinta
afternoon
bekaw@@
wealthy
labor
kwakaPowula
aluphele
ordinary
ignored
sokuya
Bhayibhelini
atja
ukusil@@
Yise
tempered
ETH@@
esirhawu
watjhumayela
ikha
exercises
extensive
ukeleni
beliy@@
uzimu
Ubufakazi
eMexico
ophila
star
lalo
Ur
Christine
kaFaro
atjhwa
angeli
anim@@
uphile
ongela
bangene
ubulo
ekuzalisekeni
ngamehlo
Nathani
ungazibuza
kunomuntu
cam@@
engaged
lamb
emvelo
ngingas@@
nekosi
Days
ee@@
abalikhomba
ath
ekonz@@
wabanye
zithoba
kwezono
usibonelo
neendaba
ifake
emukile
uyang@@
ziba
Persian
kweenkhathi
usiswe
haughty
Isib@@
mentally
kudlula
190@@
itjalelwe
kiloyo
hellfire
wokwazi
njengephayona
itjhad@@
njengesiqhema
iziy@@
contributions
onikela
ungang@@
Assyria
val@@
Nofana
UMB@@
ows
IIM@@
Sizokucoca
abatjhadikazi
Or@@
bakade
ezipheleleko
anal@@
iyele
akunam@@
Comfort
bangena
emaph@@
wakw@@
odo
bem@@
stuck
ngacabanga
seKonzo
kwekwezi
nokugandelelwa
unjani
isingani
emberegweni
aman@@
leli
Honor
udukele
joni
yesono
bathandaze
bunje
okufundako
igandelela
nj@@
nakafika
Asking
accurately
qedi
phikisa
Ubunye
13@@
pick
igatja
iinth@@
singathi
drama
Mika
uzokuhl@@
incela
rescued
ngokuy@@
ock
ikonzwethu
diseases
paths
abhala
keen
legs
ozimisele
itjhukumisela
ephela
ekutjengiseni
adangiswa
secondary
symbolized
Kungamuphi
,000,000
iwayini
athathu
anyisa
umnyango
ngendoda
yokukhuluma
nesig@@
okhokho
ngokuthanda
USara
eje
bazokuvuswa
sayings
abahlukahlukeneko
Pay
bodwa
lotjhe
nompostoli
Ngazizwa
eqinileko
osek@@
Jarimani
lesiHlopha
owed
neemp@@
adopt
kweemb@@
ehliziywenakhe
frequently
gross
Jerusalem’s
Kungebanga
phaphamele
wakwaJuda
khumbuzo
Kibo
ho
Dictionary
eemfundisweni
odade
Ngab@@
wayini
esikuf@@
uMuntu
damaged
nasin@@
ukondla
tsunami
unite
babeka
khuthazo
ikam@@
Isith@@
misuse
yehl@@
wishes
enslaved
confidently
print
tire
Coun@@
ENG@@
igolide
obujamo
sizokudemba
aleki
nokubusa
expresses
Giver
ahlangabezana
itlhog@@
ukunqophisa
nawufunda
ozokuba
esirhogweni
nekonzo
imvelo
tragic
manifested
flight
ezili
awutjh@@
aqali
akhamuzi
abafuni
rep@@
ngeenhl@@
usikhuthaza
summer
abeze
ukulinda
olupheleko
Bruno
uthome
124
hadlha
focuses
lobuzalwana
dlh@@
ngokunembileko
amanceba
omnyaka
siny@@
ich@@
iinc@@
listens
apped
ric@@
esekelwe
likh@@
Asaph
afaneleka
secretly
igadang@@
ilosofi
enzelwa
ophilako
abanzima
sible
oporo
kwamaswaphela
organize
yethando
kwepi
njengel@@
angabi
bed@@
obediently
sinda
arhuwelela
ngeenk@@
sounds
akhulumako
difficulty
dana
sebenzabo
esilingweni
bofakazi
Ezek
ebengiz@@
ound
Sept
selling
EN
ngesono
View
lonely
anywhere
umv@@
characteristics
Bazoku@@
Loving
Utjho
impart
informed
namaMerika
iimfungo
UNuwa
ngokuhlukana
ngoSeptemba
ayiv@@
voices
zenzeke
messages
siqakatheke
ran@@
Happiness
section
itheth@@
Always
irara
Samson
crown
iinlaleli
hok@@
simahla
nekuziwa
okwab@@
esitjhadileko
umfelokazi
elikarisako
ngeKosi
ication
elitloliweko
wamaNgisi
esitolo
akhuthazako
abanjengo@@
1989
greedy
Isipho
wokuzidela
ababona
reconciled
Millennial
Bengazi
URobert
entirely
Inter@@
Babylonians
seriousness
esizungu
Ilwazi
ifika
abanjeng@@
fugitive
shout
lalabo
Full
kusikhathi
uzweni
Iyini
managed
devastated
intwa
agand@@
kuzibamba
ubufebe
agcine
wazwisisa
emsemeni
146
umfowabo
Philistines
Mosisi
yokukhonza
somfazi
indis@@
azithoba
kuRhalani
samukele
abatjhumayela
ham
wileko
ezibunane
tically
okuzako
banethemba
iimniningwana
rooms
emnyakeni
uruwuru
abez@@
indul@@
deed
iti@@
ngeemfundiso
Humility
scope
kwamva
isekako
wathembela
code
ngokunjalo
zisi@@
ongweni
rains
movie
ebudisini
namadimoni
ephileko
aking
records
singakwenza
oppressed
Pierce
ebesihlala
ancy
amavunda
azwisisi
yeb@@
ukuzalisa
balingisa
cited
osirhelebha
igand@@
undu
UMatewu
nelwandle
yokulunga
Wor@@
seeds
requests
enabo
naleyo
unbeliever
dressed
Judasi
usiswa
esitlolwe
tshwenyeka
imizam@@
wandle
mbatha
INqabayokulinda
indodakazakhe
preparation
pose
Filisti
grand@@
ngezomseme
hell
alungiselela
exquisite
necessarily
bahlanganyele
ngeengazi
bakhonze
lomtjhado
esibelethweni
Magog
bore
cherished
kunengqondo
akhuliswa
Ir@@
lokuya
lokutjengisa
ukubuza
otjhadileko
Beth@@
yokung@@
sikul@@
nemihlanganweni
bekufike
prospects
awatjho
ezeni
neph@@
yek@@
endima
marrying
isAmbulo
homphyutha
omthandako
sikhonza
ngithandaza
vows
citizen
petitions
iphilisa
route
zikhona
thr@@
nakaqeda
eyaziwa
logical
Paulo
Arne
walahlekelwa
ukusahlela
sor@@
lifted
ebebaz@@
ahlukana
bangesikhathi
persuaded
iness
ukucabangela
emlonyeni
esizoy@@
akukalungi
esisodwa
okufaneleko
absolute
Bengifuna
Asifuni
Phambili
reduced
kuBaba
aphendule
uGoliyadi
function
ental
nyango
ators
IINHLOKO
agadangiswa
sengozini
ngesipho
uphethe
kuncani
Right
Isihl@@
crisis
imithethokambiso
angatjho
nangaphambi
ukuphatha
okwenyama
qhinga
balemuke
abobaba
rare
ngehliziywakhe
ephandaba
ukuny@@
nokuthandaza
select
aveze
low@@
lezandla
nombuso
thanksgiving
fault
basaba
emth@@
exalted
Ukuvuswa
undo
leRoma
okwamazizo
AKH@@
Ngiwuphi
Hutter
tjhatjhululwa
obutjhideleneko
decisive
eyomileko
umjikelezi
hatjh@@
protective
itjhugulula
elekile
Provider
ifanisa
nokuzindla
obuthileko
ekhulwini
Str@@
nakwabanye
edorobh@@
emasimini
ukudlala
qalisisa
obha
nqophwakhe
awuz@@
injured
abangokomoya
amaLefi
ukeli
LoMbuso
abamukela
batjhade
mothers
ngafuna
likhaya
EX@@
sithabile
climate
hohlakali
Rec@@
okghona
njengoJesu
nevalo
akaqakatheki
horses
ati
wany@@
amele
judicial
nyaka
ozenza
heart@@
Ten
ukghwari
ukwe
enjiswa
Paragraph
Ummoya
entaba
aining
ekareko
kwehl@@
Megan
omdala
exhorted
emuki
kumnandi
othabisako
hall
inferior
rhola
uyele
zokobana
spies
ukudosa
ple@@
wenami
silwe
yalabo
height
watjhada
ithandela
salo
yenzalo
disobey
ades
EZIFUNDWAKO
anelisako
emzimbeni
ukelako
bakulungele
kuzuzisa
Akhuluma
rose
space
ahli
nec@@
wekululeko
dated
shortages
leprosy
ivumel@@
angeziweko
Oh
andaza
akhulisa
khulekeli
Yurobhu
SI
nguBaba
udlala
Benjamin
balandele
Benza
traps
isondo
asuse
umntwanabo
wagandelela
kokuph@@
uHana
emrarweni
zakarhulumende
123
ulelwe
abeza
can’t
bavela
Iimbuzo
nabulungiswa
abatjhili
Ngokujayelekileko
outright
Iimpendulo
Uri
Wolo
engisebenza
molding
Jim
elelise
ongakele
Finiyasi
ngesithembiso
athululako
Kwezinye
1945
invites
spite
abanekareko
kwaqobe
ariy@@
kelinye
alahle
governor
idols
orobha
ebunane
abapristi
esihlala
qalane
inyelela
practicing
ekarisako
ukuphetha
fo@@
siyavuma
andakanyekileko
ahlekisela
lak@@
flour
Nani
complex
uhlola
ENT@@
kaR@@
med
INARHA
kwangisiza
hale
lanamhlanjesi
KIYO
curious
ests
port
ingwa
WENI
Ngokuzithandela
whereas
Sid@@
izes
Isiph@@
tro@@
abulunge
iinhluthu
ondlo
oning
akafuzi
iga
anikelwe
sad@@
usiweko
Mon@@
treating
alungana
likhona
crossed
AMB@@
ngep@@
amlalela
bekasebenza
badosa
Akukafaneli
nangineminyaka
Ukudla
progressed
athomi
ahlongakele
Isiphorofido
avuswe
amambi
Baptism
uqiniseke
ekezelela
awatjela
abekezela
bangabasiza
Nini
reap
enesihloko
secretary
weapon
nabarholi
frequent
roots
tress
250
kaNowa
sisekela
mmoya
anniversary
Haiti
abatlhogomela
Long
badle
nabakhambisani
Inani
SOME
iraro
Don
uthembele
zizokwenzeka
encwadinakhe
staying
ngelwazi
2002
buf@@
1992
Madagascar
itjhej@@
ekezela
ilangelo
ebonakala
nemiz@@
kubangela
kwebe
complained
sitjhidelane
Paris
ngang@@
ousness
bazokuhl@@
EV@@
atjhiye
ibuye
rent
Walter
enhance
wokum@@
kungakafaneli
enjiswe
imidlalo
dlalo
engele
abantwabami
deceive
Kungayiphi
Abelusi
kukhanye
sikwenza
kweJerusalema
yakwaJuda
aphulusa
nekululeko
okozele
ekwezi
codex
oversight
vakatjh@@
ongaba
edorobhenelo
abalaleli
INT@@
Offered
separated
Umbiko
Everything
khawulo
iinhlekelele
142
ilokhu
eleleka
silotjha
silwela
singafundani
ngabi
Jew
worries
sakaKrestu
Amaz@@
ugululwe
akunikela
Imali
v
tiny
Kusemtarini
diagnosed
alusi
Ky@@
ebelis@@
owabo
anjesi
ahlukanisa
wabhalelwa
meditated
kuzakuthi
nokutshwenyeka
pera
enzekako
uzokubona
numbered
unongorwana
abenze
gandelelwa
bathome
ambisene
graduated
ukuhlubuka
alungise
ehluko
lekonzo
Kom@@
haya
answering
Sitjengisa
Choose
esemutjha
couldn’t
nakaneminyaka
asiling@@
tlhog@@
ngineminyaka
emidlalo
wokuthula
kwer@@
eneso
troubles
ephe
arhabi
NAKU
ikos@@
desperate
eendlebeni
evangelizer
ngokomthetho
Head
Cheri
akakhethi
ukuphumula
Buswakhe
okungakalungi
Professor
Kosethu
indicating
ongekhe
clar@@
akusi@@
eliphefumulelweko
esses
tation
iimp@@
ology
efula
incident
umongo
iphath@@
references
kwamakhulu
akhuthaz@@
enzisi
Yankee
earthquakes
abazalwanaba
ern@@
nesid@@
esandla
Jerusalema
indeli
usaba
circ@@
uthatha
loneliness
wesivumelwano
accompanied
okufundisa
owner
Taze
lingaba
jayelana
ngomseme
ox@@
Li@@
Back
British
asephasini
nesiqunto
Meanwhile
ifuni
uzong@@
gogo
itjheji
prov@@
sticking
nabantwabakho
akhohl@@
kwatjho
kungathiwa
ombo
wambusisa
CAN
yok@@
ORIGIN
asiqinisa
Lapha
sanyana
Kindness
waqobe
scattered
contribution
qotjhiswe
nev@@
indeleko
ifisa
sanctification
rage
Tuvalu
strict
rebels
neenhlupheko
ngeBhayibhili
ezokwenzeka
babuza
Preaching
guarantee
eYurobhu
Jan
Nekunjalo
lomhlolo
wadala
enjengale
duty
comparing
celebrated
suggest
sakh@@
njengoJehova
anjelwa
positively
khumbi
1994
1998
ebhe
handled
ebuntwaneni
bangenza
1.@@
iinthiyo
atlhogekako
azom@@
Japanese
RHU
siyelele
avunyelwa
ention
anzekile
ngenyama
1922
bekathi
sizenze
ophakemeko
bekasi@@
ences
atjhe
amathemba
inviting
amnandi
ngevuko
naturally
threats
bekela
acoc@@
festivals
Iint@@
stewards
discourage
ISI
anazo
kweNdodana
unyayelwa
advantages
Bel@@
abakha
abasebenzisa
ulalele
helpless
indlwakhe
oyile
ethabweni
kubandakanye
kusil@@
Nengis@@
bafumene
ibal@@
njengekosi
kwangaphakathi
Nesis@@
Fund@@
off@@
waphefumulela
vumelana
prosperous
Certainly
okusemandlenakhe
bathandaza
1939
1965
ukutlhoriswa
anced
babhajadiswa
iinhloso
ater
nomhlangano
descendant
akhambela
esihlengeleni
zomphakathi
kufunde
broad@@
nokungapheleli
bobukhosi
uzele
outcry
eend@@
ikaz@@
DO
immense
cing
god@@
alisana
imiyalo
kulum@@
ELWA
ayiph@@
design
iphumelele
chaste
Isivumelwano
kuJwanisi
elimini
umelelo
ngokwemvelo
neemfuneko
alila
kubeka
ifundileko
idolo
bazokuphila
ingqondo
ukulemuka
uyenze
defeated
Isaiah’s
osusiweko
saqobe
forgotten
promising
aphenduka
amuk@@
Ol@@
waphuma
Kuyavunywa
Gentile
WHY
ziqakatheke
kabuthaka
The@@
kutjhidele
widespread
yas@@
satjho
adeni
qu
ngeemb@@
hubezi
Shinto
arises
actual
ora
awaken
goma
abalilako
lalapho
wengubo
nenarha
uzokuthaba
uzokuragela
lifetime
Ig@@
breaking
NGAWO
ukuzuza
ayelelisa
Ngamezwi
OUR
nengqondo
sakaNuwa
weGibhide
abelako
alikho
yeem@@
ubonakala
UMNYAKA
ivakatjhela
film
nakum@@
obuhl@@
tents
ahleli
gan@@
COUNTRY
sithand@@
esingan@@
iphumela
athululi
Suffering
Araceli
itjhid@@
kwakaMesiya
ngokuzibuza
ipumuzo
abangam@@
batlhogomele
uva
ngemiraro
Centuries
Kezinye
ezithi
kheng@@
southern
efundisweni
aneleka
longed
uleke
Abatjha
eengqondweni
oneemnyaka
engenza
uthandaza
akusiku@@
Emhlanganweni
liphasi
Potiphar’s
Gift
uJairo
singaphetha
ger
ngebangelo
abayenzako
income
kwaf@@
nemindeni
nuclear
esephasini
azele
stressed
balandeli
ungo
chooses
1954
wafaka
Ukutjengisa
inwe
embise
ambatha
ids
attempts
Philistine
match
Ubab@@
utjhwa
Elsebeth
Regardless
Bengin@@
rhayila
José
ithoba
fifth
wathokoza
bold
ebenzi
press
sakhamba
ongandlebe
wendaba
awukho
forming
Bezalel
ifana
reduce
thor@@
Mag@@
shine
ozesiweko
Henry
Against
adli
Martin
Umagazini
Teacher
nedumo
abalwa
ebewung@@
amatlawu
uduzwa
ukhumbule
aliswe
Of@@
target
uzokusebenzisa
Akhesibone
dece@@
abazimisele
hypocritical
hathi
iM@@
apa
ipahla
Sen@@
wholehearted
drug
Khonokho
Kuye
uweli
villages
tably
scarlet
Fred
alingisa
ukungenela
belonged
neemfundo
akuthi
objects
Eunice
LO@@
amlingisa
umBumbi
permission
ebekahlala
womusa
un
ebunyeni
odi
jamiselela
counseled
zal@@
disposed
Psalms
sacrificed
tifying
kwamsiza
ahlule
Warwick
uGogi
Att@@
Minor
ongathanda
assisted
uphelele
famine
neenkambiso
bekangatjho
ukumisela
129
elekileko
aphorofidi
namathuba
honors
ukuvuma
Thes
abahluleli
esey@@
UJESU
kusith@@
sizom@@
systems
siyabathanda
Naka@@
eji
zwe
du@@
drow@@
awaits
nawuz@@
esiqongolweni
uHezekiyeli
gid@@
afflicted
aw
beze
ain@@
sinelungelo
oneness
ikeleza
actively
anisako
alities
Vumela
abuko
TS
hlangabezana
okozi
OD@@
azoy@@
UJesefa
cross
Ukhona
obligation
umnqoph@@
alani
misleading
yokuthembeka
uthini
esini
ukutjhuguluka
streets
iinhloli
icweng@@
ped
nakezinye
amaboda
Ungaz@@
souled
Ngokuphambene
esiqalene
tomb
ngizaku@@
atjhadile
wendabuko
ajadu
jayel@@
nakufika
ngehlangothini
seemingly
options
Njengabantu
akubalekela
gidinga
akhuth@@
isebenze
vangeli
fairly
billion
uburotho
hoduluko
guards
sithabisa
ongay@@
window
wood
abamthandako
ungafumana
ulation
ugg@@
19th
esinabo
idini
honestly
Worldwide
ham@@
ethnic
uous
kokuvuswa
uded
eregiswa
igamela
nehlalakuhle
neenthombe
kwananyana
nabapristi
Izenzakalo
odanabo
session
mba
Sanhedrin
uC@@
iimphathimandla
king’s
holelwako
wokuv@@
Prom@@
Benefit
Ngihlala
eenkolweni
loliweko
ezilikhomba
snare
Taiwan
egadangiswa
accomplishing
atjha@@
indlel@@
ions
widows
dies
Thandaza
USED
nangezinto
arhuweleli
nesimini
akusiyinto
art@@
ngaqunta
nabam@@
Portuguese
ngeveke
scenes
enzelani
resting
Dibhora
Phinehas
Tyndale
resisting
ngokukhonza
gates
nokuk@@
woman’s
amukelwa
mixed
abapheleleko
namabandla
BORN
arag@@
ngev@@
ebenzise
neent@@
athathi
uMaria
fi@@
kunam@@
zekholo
ulungwe
intimacy
transportation
level
south
devastating
ngifumane
ban
engiw@@
Canaanites
ngobumbi
ligh@@
Joel
seasons
ARTICLES
pity
iBhabhiloni
conce@@
uzisako
thethe
IMitlolo
Grave
Boaz
neenthelo
Siyaqiniseka
quar@@
AF@@
atloli
Kuzakuthi
globe
shape
batjengise
5,@@
aliseki
hagala
EZIZOKUVUNYWA
okwelapha
zeemb@@
Something
abanjwa
ikululekwethu
nangis@@
asondo
helebhe
uthabile
sizaku@@
ezimvu
uduz@@
Okuhle
Zechariah’s
ubukhulu
submissive
abanakho
wengqondo
basekela
wabizwa
transform
aming
kuno@@
cred@@
ukufundelwa
indiswa
ts@@
kuzuze
silotjhe
alwisana
almighty
impress
Ambulo
armor
approaches
zimbi
Okwenza
sac@@
lepi
khumbule
Unga@@
ukubhadela
kuqal@@
Umkhangiso
Taking
ekuthunjweni
anelekako
lobokazi
ezithabisako
challenged
sahlala
oneni
ukhambe
ihluke
siq@@
lehl@@
amehlwakhe
komthetho
kuBabethu
atjhaphuluka
batjhadile
ezingafaniko
kuma@@
Amaph@@
ekuk@@
elingan@@
Sodom
fresh
atjhugululwa
bekungaba
direc@@
approve
phuluka
wesithombe
itjhoko
akanqophi
tlhago
ukuhlonipha
ndenakho
ngokusemandlen@@
Uriya
akghono
adana
lilize
nged@@
ngobu@@
pholisa
anqophisa
hod@@
outlined
nebas@@
aphamb@@
UMbuso
basesebancani
perceive
Kiwo
umntazana
wabakhuthaza
Tjhaba
Aba@@
teenage
deterior@@
disagreements
ukwahlulela
1946
ukukhandela
university
akaniphile
emthonjeni
imitjhaph@@
sokuvuna
oMbuso
None
abakhetha
sentenced
sephasini
nekh@@
neenkulungwana
ibizwa
engas@@
Ngiloyo
Along
empathy
Liy@@
sola
Singam@@
Asazi
noSilasi
oseminyakeni
emhlophe
asithembise
thand@@
itshweny@@
eemp@@
abakhul@@
nesenza
isisiza
Ngokuth@@
njengokutjho
bangafunda
Kamva
nationality
okungaba
kokudla
TE@@
ngokucabanga
Busi
wokukholwa
UBabethu
ezint@@
eemthathu
umgom@@
Abaf@@
10,000
Answers
alik@@
asekele
ebesis@@
bakha
akulindele
bube
ziinthunywa
kukuz@@
ezingeziweko
komhlangano
ayithandako
andulwa
wagcina
yabarhuweleli
yomfazi
kusiz@@
ebebazoku@@
hy@@
baqinise
egunya
esisifumana
twisted
balisa
KaJwanisi
Khatholiki
embryos
’ll
imilandu
kweza
esinayo
ungiselelo
uliweko
bamlotjhe
kwendawo
ematjhumi
ivumelana
EMBER
mfazi
Hlopha
ubizwa
sino@@
besiy@@
fundise
separation
inzwa
ships
Iinkhathi
ngizom@@
burg
kuthome
Rejoice
kuthatha
aliswa
kukuhle
busiswa
alwele
esitjhumayela
lizele
abalinga
eliphakemeko
walapho
waphefumulelwa
athuthukise
iqizo
uthukiswa
alelisise
sizoz@@
mumusa
ayiz@@
ameni
onzo
bamasondo
ehlelweni
okufund@@
akhuthazeka
mid@@
praises
iziyweni
Ifundo
omotheka
itjhiye
ngokulandelako
UMzalwana
abanayo
rightful
osil@@
Abantwabo
seme
uthuthukise
giver
kunazo
bamhl@@
divisions
kghodlhelela
grieving
lihlathulula
neighborhood
nakafuna
lekadeni
independent
Ngafumana
pe
ngoSathana
minor
nguMesiya
ikohlakalo
simbathe
emTlolweni
ngokwendlela
oze
usekela
tjhana
odorhodere
mphumela
bekasebenzisa
cocwa
wapha
imisebenz@@
lot@@
emkhumbul@@
convey
bebacabanga
owazi
imbo
igwayi
qotha
dem@@
Ngim@@
bazokuhlala
dread
Ezimnandi
Bazinikela
ample
usifundisa
abotjh@@
uzokufika
faults
ngent@@
sisekelo
abawe
yokuThoma
amasokana
iimbawo
eliko
babhajadiswe
atheli
Ukuthandaza
eemhlanganweni
Bad
ezingasi
linked
ahlongak@@
homba
esivulekileko
betho
ummakhe
amanabakhe
Jerikho
ebizo
Law@@
ONE
renewed
emakhasini
yeBrooklyn
ikhukhumeza
Sibawa
ophumelelako
hostile
okutlolwe
ululi
shock
uqeda
sha@@
Pos@@
anzana
namanzi
ail@@
assisting
failing
exclaimed
kwakaSolomoni
okutlhogekako
nakuphela
achiev@@
wazinikela
1979
sikuth@@
parallel
obab@@
Sabbath
abasephasini
yezulwini
nendleleni
iindingo
siphendule
ukusebenzelana
sources
batt@@
uyoku@@
rig@@
izweni
bengisolo
sikhonze
itjhugulule
roles
ubuhloko
abaporofidi
versions
umtjhini
kaJosefa
ezenzweni
okuhlukileko
hagele
educated
acqu@@
tool
sifundile
Ngifunde
convincing
ebezis@@
ephefumulelweko
waphumelela
KGB
hid
awasebenzisa
Shirley
Kilabo
smaller
ibandakanya
ast@@
kunob@@
Ngifuna
esithembiso
iK@@
akhaza
itjhatjh@@
109
udadwabo
ambileko
itjhini
acy
Isazi
rate
azibandakanyi
Hana
elipheleleko
ikul@@
sekufeni
wangena
1982
isini
ngommoya
reasonableness
ubuye
eleza
kaDanyela
excuse
nent@@
Ay@@
engana
Nasifunda
nazi
1977
Zedekiah
Ihliziy@@
akwesi
Gerri
beyizoku@@
Sarah’s
ult
nomrhobholo
okungakafaneli
anu
ukusikinyeka
Ihlathululo
akhethwe
ikwa
abhula
distorted
wamth@@
ulungelo
waqiniseka
apheliko
ndenethu
andulwe
baraga
Yourself
comple@@
ikhula
kuPowula
lamaswaphela
otjhisa
ngendlu
okuhlwengileko
antichrist
sent@@
arrange
conform
lhogo
Sinesibonelo
ly@@
uJehotjhafathi
athani
afanel@@
iindlebe
ane@@
noJobho
vuka
aband@@
utjhumayela
umndenethu
rush
movement
inethu
nabodadwabo
kubufakazi
mirror
ezenziwe
uzokubusisa
ekulingweni
Ibanga
oyi
households
itjhideza
east
wokufumana
newub@@
aligugu
dominated
abaleka
afunyanwa
ums@@
nabatjhumayeli
tjhumay@@
Uyakhumbula
sudden
kur@@
abeleth@@
Willingly
heavily
armed
erg@@
excitement
span
wages
kwengqondo
Sizabe
racial
Ikonzo
pays
kaZakariya
iins@@
bengihlala
ukuzithoba
now@@
akufika
examines
uqakathekile
Ingabe
isabula
hodako
neemphumela
V
lol@@
owathoma
Nor@@
ofund@@
bazith@@
1933
UJohn
unyiswe
iphoso
lek@@
demanding
usil@@
nokuphikisana
NguJehova
asebenzi
benefiting
isinikela
enjani
ipilwethu
IG@@
Ngenza
abonwa
isiKolo
holweni
concentrate
akghodlhelela
elini
atholakala
honesthearted
ubusisa
bekh@@
ball
Okufuze
qophiso
RHA
sebele
abaj@@
abaphilako
washed
nobabakwakhe
leadership
Might
ngepil@@
scientific
cani
asikhumbuza
eletha
ATION
shocked
essing
Ngiyathokoza
efundo
ikhethako
ababizwa
ezikhohlakeleko
wegatja
sibuyele
alihl@@
ezelele
penalty
asiko
Linda
ekufundiseni
Endaweni
iqinisa
ukuzibuza
IBHAYIBHELI
rotho
ngePentekoste
ild@@
nokuthobeka
floor
Wabona
let@@
Messiah’s
zingaba
abakutlhogako
00,000
fre@@
nomtjhado
amakh@@
Ukukhuluma
ential
ahlulwa
politics
bayenze
abatlhoga
Share
zwisisa
sizinikele
zig@@
sahlela
otjhe
angisize
aqina
ekusebenzeleni
horns
motivation
1978
bewaz@@
azoz@@
qili
leS@@
uzozizwa
kaYise
mantanzi
spir@@
Okuthabisako
alingana
njengamaphayona
lamaJuda
conc@@
Ngokunjalo
tloli
der@@
akhethi
ubuz@@
yesibanda
upho@@
itlhag@@
KwebeKholose
ethenjisiweko
eds
uphuma
liar
aneemnyaka
permanently
tical
108
amanab@@
tjhini
esibathandako
impartiality
kwenzela
okomTlolo
Lives
ord
hotel
ories
anaso
kumb@@
kuzokutjho
eentabeni
aporofidi
ngaku@@
eencekwini
inexperienced
Intsha
ingani
Nesib@@
uyazibuza
rav@@
elithabisako
iriy@@
Uyahlathulula
till
neentlhogo
oth
irag@@
isilinganiso
nehliziy@@
akele
evekeni
historian
isokho
emib@@
azizo
stumbled
akunanto
sihlengo
tempting
phathelene
vulnerable
ngeth@@
eliphasi
watjhugulula
nakaph@@
approves
ngokuqakatheka
Akhesikhulume
sisenzo
akwenzi
sikhona
defeat
wording
reliance
ese@@
march
womzimba
belil@@
sigqila
ziingqila
7,000
itions
nim@@
useni
arako
covering
iimfesi
bangabi
uyiselwa
Zef
imazako
ilungiswe
Eph@@
ukumbona
qhenyana
grounds
deny
eenthembisweni
zeembuzo
weeping
Dec@@
uphapheme
zik@@
nic@@
lofty
Besing@@
osekhasini
laz@@
Sifuna
phaseli
sizwe
uthelelwa
oj@@
resident
satjhada
ard@@
ekuv@@
wokudumisa
emas@@
urhisa
qalisela
azinikele
EMB@@
lokucabanga
gho@@
na@@
thieves
umr@@
Ngizizwa
uselele
dali
Ungaph@@
wamaswaphela
abelethi
Mosi
njengez@@
ubeni
reacted
wazibonakalisa
consol@@
iphuluso
Mc@@
ngesihle
efumul@@
Nepal
ebu@@
ko
iMvana
bathand@@
imala
experts
wasn’t
ntazana
okhambako
ngokwalo
fol@@
itjhi
grievous
cease
nekufuze
div@@
atlhagako
ulali
Doris
revol@@
uBhar@@
ukgh@@
ngaphezulu
obekang@@
perish
ambisa
wanda
bebazimisele
ibuzo
adango
eGhana
abangasimaJuda
gre@@
LUKE
arisomraro
confess
angin@@
SE@@
Nov
ukurarulula
lift
atlhoriswa
Otherwise
kunes@@
elene
asibona
Tlolo
ubuth@@
bewab@@
lhorisa
liwe
Ly@@
nomlinganakho
magnificent
Prov@@
ziveza
Abanakwethu
atlhogako
confront
overjoyed
abadosi
Ebantwini
Indima
wake
nekub@@
Salvador
ugululwa
akak@@
kunez@@
bazuza
abakhulileko
ristina
Samaria
bekathanda
bezim@@
ulusu
pel
beziz@@
Blessed
1987
soil
Bekubudisi
drove
ezingenza
Ngath@@
bazuze
solely
njengesib@@
athy
odlhelo
ikusasa
okuthandaza
Jael
incense
amatlhuwo
ngelangelo
newspaper
lendawo
ukuthandazela
uMalaki
enduke
anekisela
okulandelako
esipheleleko
ngekolo
figure
Alexander
uzokuqeda
isiGirigi
sat@@
nden@@
kuthiwe
esigodlweni
ngeent@@
divide
efumaneka
Wanikela
ophela
izEnzo
Kinanyana
ongeze
akhohlwa
walandela
kunanini
kutlhogeke
iland@@
obutjengisa
aqakathekile
enjoys
qe
noBabethu
Kunengi
exerts
Far
ntwanakho
ekulumo
alungiswa
doub@@
singamlingisa
Mumoya
ukuzaza
ukuj@@
advised
nebang@@
zemindeni
iinkinga
bathembeke
alungileko
shares
Tal@@
angasebenzisa
6,000
odeni
uthandaze
buye
bakwenza
iBhabheli
noMar@@
weg@@
Bulunga
sithole
evangelizers
kuze
appreciatively
wasizwa
ezisa
NjengamaKrestu
eenz@@
obuy@@
ngengozi
bone
wase
ebo
saboFakazi
uburego
okulalela
kungasi
newung@@
eemali
intently
angakusiza
okwatlolwa
ululwe
disloyal
angayenza
aliseke
neighboring
materialized
amd@@
Mesiya
nokuphela
Abafundisi
elelekileko
alandele
bakhumbula
ides
ukubasiza
akusiyo
Victor
elanako
ired
kumenze
men@@
mutual
shwayo
standpoint
inamandla
style
eluleka
bonile
siyaz@@
worrying
atjhumayeza
akuMatewu
yel@@
iplanethi
unlike
condemn
Ngokuhlakanipha
nebandleni
ulusa
largest
AZI
consume
emad@@
ezinamandla
Fiji
angana
ukulungiswa
collect
imprisonment
ap
ezeka
bengizizwa
doors
ekwenza
Rep@@
deserved
ebebaphila
ukuthemba
epharadesi
I’ll
yeJerusalema
angalelwa
obuph@@
unisisa
okunye
siyaku@@
iinku@@
khanyo
recommend
kungabangela
akavunyelwa
Suddenly
imihl@@
ikiswa
ahlanganiswa
Bhabheli
empt@@
reassured
materialistic
Mbuso
Uk@@
complain
Zange
Lett
Iph@@
iB@@
abaseleko
Bengim@@
afazi
wokubhoda
iragele
chronic
wesiHebheru
womb
umkhumbulwakho
inikelwa
aliqiniso
kuyakhanya
abakufund@@
ands
yenengi
yeS@@
esiphakemeko
ukuvusa
kayo
imitators
burial
wadzubhula
ANSWER
ongakalelwa
wafund@@
nakwabo
namaphayona
nesifunda
QU@@
intent
aved
amaphepha
singene
asese
UDeveli
abhina
vessels
tongues
phathise
nokuphikiswa
yokufa
ufund@@
HOL@@
reconciliation
ghodlhelelele
commented
caution
lihlale
enced
Wenze
occult
sho@@
ol
uRutherford
okuse@@
lovely
ifihla
structure
ivinyo
uhlanganisa
emuke
okhohlakeleko
abakunye
phuluswa
abazitlhogako
ngiya
tactfully
omy
okusemandlenakho
nemikhulu
oqala
Ekupheleni
persevere
tolerate
alima
nomlayezo
azelo
ges
resurrections
rapidly
destructive
obum@@
indeleke
nakilabo
rarako
ational
ekulandiseni
truck
ie@@
baqunta
accompanying
ngemsitheleni
Mbusi
yanamhlanjesi
nakuz@@
akhambisa
endodakwakhe
Lithi
LE
o’clock
mod@@
expelled
sizosisiza
Kuzoku@@
trips
noPitrosi
kuyindlela
dogs
khuthazwa
iliyoni
uMdali
Bekafuna
amnikele
equip
persis@@
neenlimi
alaphi
bakholelwe
indlelakhe
ivame
obumaphorodlha
vessel
Sure
Teaching
vine
azid@@
engasenza
umph@@
psalms
ezikhethekileko
usisiza
uthole
Assyrians
edephileko
Persia
sanamhlanjesi
Secret
naba
PHA@@
Ziyema
esifana
uJonathani
bafake
Iyabuza
kwamandlethu
sivela
Mik
ber@@
claiming
preferences
esihlengweni
sivume
consolation
wencwadi
akarwa
sihlathulula
disobeyed
Relate
bengiy@@
author
yekhomba
esic@@
neenhliziyo
akusibo
ukumazi
93
Amos
Ukukhetha
awas@@
iintanga
wale
Nakungenzeka
imoya
misled
carries
122
aji
Worth
wasib@@
impartial
Insight
guidelines
nomndenami
modestly
emhlambini
usebenze
tel@@
mnene
bafa
ihlukanisa
khonze
vumo
clouds
rented
platform
esizenzako
inyam@@
emis@@
ikeni
hometown
iinyoni
uMbhabhadisi
unjelwa
intensely
Applying
kuyingozi
ust
eenhloni
undermine
tjeng@@
atjhatjalaliswa
121
ifumanako
khohlakala
gir@@
Izebeli
qinile
uzwi
ws
uyaqiniseka
iinkhali
indwe
ekhethu
ebonakalako
azinikela
ungiswa
akufundako
iimbotjhwa
akhelwana
accordingly
qed@@
qubuka
athandwa
athando
besizoku@@
iinhlangano
wezinto
joys
piece
akukholelwa
Umraro
eJuda
emperor
labazalwana
ngabomu
akatelela
THAT
Set
islands
Baptizer
Working
amabh@@
amazizwethu
iminqopho
alisekile
describing
nyanda
eleleke
atjala
ilingisa
ngamabomu
shrine
ekelako
akela
Uyal@@
shwenya
kuthuthukisa
kwekhulu
Can@@
andeni
ver
esenziwa
ekeleni
ink@@
sithatha
fore@@
nokuthanda
utter
imikhumbulwethu
bacoca
travelers
noMesiya
ibekela
umarhamaru
Tell
dearly
okomoya
inqu@@
uqine
disregard
Nesifuna
sus
crush
omidi
grandfather
Mhl@@
nodadwethu
ePhilippines
ald
ukuberegisa
sed@@
yokusebenzisa
zokul@@
nong@@
umBuswakhe
neglect
iqhinga
hardworking
alls
kwesiphorofido
owas@@
akhule
nobody
kokobana
somb@@
zikhamba
uJosiya
aphendukiko
electr@@
akwamukela
makhosi
oniphekileko
circumcision
excessive
uncertain
esenzweni
ping
Ungathomi
joint
Hlangano
omi
Dr@@
Bawa
ekhulu
orders
othabileko
nokubekezela
erc@@
emiraro
obudala
mother’s
wetj@@
Ty@@
heirs
esilulekweni
eligugu
violate
uduza
akamizwa
Kenneth
bazinikela
balalela
ingwe
somnyaka
wesiHlopha
bazwisisa
onyaka
enyameni
lezi
Kungakho
holisa
tol@@
ekambweni
omseme
oyakhe
bebathi
ashamed
Mvana
amaGibhide
ats
UThandiwe
emuk@@
nomzalwana
remembrance
ebulula
blocks
yeendaba
ivele
ngemgodini
itjhuguluko
locked
uthande
ngendawo
anisi
adanise
purposed
nobu@@
Wendy
Ziy@@
kwehliziyo
tes
iindl@@
criminals
Abalandeli
ayisebenzisa
negandelelo
eveza
amuphi
mbono
Christlike
onganamkhawulo
nokungabi
sithandazele
singazith@@
foot@@
nokuzimisela
ongcono
Yom@@
boundaries
nabad@@
fulness
endearing
Siyavuma
Kikho
nganami
beseb@@
nekolo
lekholo
ukurh@@
isidlo
Obviously
iimndeni
kwabenza
Umkami
sadness
nesizungu
wangisiza
eva
JWANISI
bokuba
cards
Singazuza
laso
tjhukumisela
Markus
isekele
Isifundo
Zephaniah
nomnakwabo
yomtjhado
pel@@
prisoner
kweb@@
ekwazini
ocabanga
Ingcoco
aphambilini
stream
imbele
hunger
iphiwe
nasibona
umelako
Commun@@
FROM
bridegroom
okubusa
kokufika
nendodanakhe
waste
products
emini
ahlangan@@
Ephraim
foods
akusiy@@
commonly
ege
amagatja
tjhaphuluka
okungakafuzi
inactive
ikelekile
habako
enraged
alungelo
watchfulness
indodanakho
jany@@
537
ithumela
cleaning
labor@@
bekuf@@
usele
eliswe
ot
bebad@@
ukumb@@
sifike
ufanekisela
embele
Amosi
ank@@
Sekuminyaka
ners
uCharles
overcoming
Samaritan
akatjho
refrain
pil@@
ukuzivikela
dependent
surprising
endless
incomparable
ummoyakhe
baka
honghoy@@
tively
neNdodana
vindication
Beban@@
ge@@
weneli
ekuthiwa
neembono
okusemandlenabo
eliyi@@
kezepolotiki
lend@@
generations
doesn’t
ngiloyo
ngoJulayi
Story
fierce
bomkhumbulo
eembonelo
ukiwe
balungile
ahluke
ngeqadi
nekhula
Baruch
otitjhere
progressive
central
ehlakal@@
ngesikepe
bewam@@
ugandelela
wazisa
rivers
ihlela
seduze
shar@@
esiphefumulelweko
singaqalana
ji
prevail
gradu@@
ngibona
kusasa
yokuBusa
icit
ty@@
azim@@
kwekolo
ihlolisise
siyith@@
Alb@@
zehlangano
Kungaziphi
Ezivela
ifies
leT@@
obunokuthula
icky
ukhula
1981
Lethu
esayensi
silandela
ukulungiselela
Marilyn
nelizwi
okubudisi
incite
weKomidi
yeGatja
Angels
1924
Modesty
owal@@
emanzini
ihlazo
deadly
Poverty
yanga
PIT
ahlangene
repeat
Jah
andlululo
akemeko
iles
soft
warmth
nabaph@@
nengi
UDaniel
sesifuba
ukulinganiselwa
koM@@
sokusebenzela
ungule
ngamag@@
Emakhulwini
ukusilaphala
bekhenu
ayinikela
pains
Khatholika
esontweni
yindaba
phulusi
waqalisela
mtjhumayeli
enam@@
unikelwe
ebenging@@
Abafowethu
ution
repair@@
emtjhad@@
learns
lhoris@@
jana
rob
iction
elisi
kwakh@@
imvana
kukhamba
unprecedented
packed
uthabise
bonds
abhali
responds
consult
atheni
anamhlanje
ebeling@@
akazimiseli
breath
enqophileko
eziphathelene
umelani
undergo
simaKrestu
kokuzaza
Soku@@
Int@@
des@@
massive
ijimi
anne
Interestingly
kokubhabhadiswa
Zarephath
alisizo
Amoni
waphakamisa
ngokulandelana
imitjhado
beyiy@@
ukukhulisa
asebenzisana
shrewd
itjhentjho
Stop
ailing
wathembeka
chores
mak@@
Hol@@
mainly
ukuthuthuka
babodwa
ayokutjhumayela
itional
simthokoza
Naz@@
imizimba
Members
thembisa
eled
nelimi
bathokoza
initi@@
asitjengisa
iniwe
namat@@
Ever
eengcenyeni
flocks
fect
bapho@@
controlled
atje
yokufumana
newspapers
ngokubona
esinethemba
abathemba
disciplined
dishonest
blow
Gre@@
Khe
kuzokwenzekani
izitho
double
KaJakobosi
UJehu
ukulwela
IZA
lendlela
other’s
distinct
oyise
Uthe
mhlana
Jo@@
ayokuhlala
obele
ithethokambiso
ingen@@
obe@@
alungele
feast
etjiseko
appealed
ekani
kwend@@
wokuya
mihle
nekhambo
yokwakha
ikani
iselela
okuphilako
omela
blinded
hesit@@
balandela
adle
emadolweni
ephelo
qiniseki
door@@
itjalo
Amaphilo
uhlathulule
akanyiswa
Ethiopian
indodakhe
ithandiko
komkhumbulo
apheleli
uhlobo
eri
obungokomoya
Akhuzibuze
amandl@@
walila
abangcono
phofu
expenses
PHIL@@
Ifundiso
athandaze
ngokuthileko
unitedly
yokuf@@
bathembele
avul@@
kufundisa
umtjhayeli
eziphakemeko
siboFakazi
pat@@
amarh@@
ulunge
iphathe
Amalanga
laph@@
Maker
1966
umthandazwakhe
fellowship
slaughter
ames
NjengoJesu
abenzi
1971
electricity
Sennacherib
amph@@
ngabantwana
captives
kilweli
vin
uzinikele
Tjhidela
Iiny@@
abulula
conquering
ebakhe
ises
walks
ungubani
adhere
uthand@@
ubulelesi
elweli
akufuna
analitho
sihlangana
cooperation
icate
awele
Isiqunto
icts
yoked
skep@@
pheliswa
expose
iseleni
uzokwenzani
okubuhlungu
ekos@@
Puerto
tjhayeli
Pentekoste
esia
aldari
aneliswa
kubani
izokwenzeka
angik@@
Ingasi
ont@@
lisebenzisa
ekezele
komb@@
uthumeleko
trait
ahlongakeleko
rain@@
jima
zana
Steve
wamatalende
shwenywa
astrologers
ple
ngeenthembiso
typical
kutjhiwo
bakhohl@@
weather
ebekazoku@@
iintjalo
1988
uniting
gwetjwa
esizoz@@
phik@@
wanyekele
bekaneminyaka
atlhuwo
kaLevitikusi
tal
sikhuthazo
Sm@@
izalisa
Esta
atjhaphulukile
akibo
communicated
Sizokufunda
ukuzib@@
eyewitnesses
okuthabisako
hung
wisisako
edlula
Kar@@
rod
balingise
peacefully
conveyed
gate
rock
Wazi
Elisha’s
wokuphulusa
Afterward
pressured
follower
uqinisa
NoJesu
disappointment
babeke
besihlala
Court
Stadium
WOK@@
Roald
giant
sithaba
erly
uyalemuka
watha
ehlala
Umvuzo
obaba
mraro
esicabanga
Sitlhoga
sithobeke
owaphila
wrongdoer
medi@@
ithandaz@@
nef@@
vineyard
regions
abezwa
ukususa
onakaliswa
ifike
obupheleleko
akhalima
hajadiswako
mpostoli
Benin
Nges@@
neenqunto
itjhapho
akang@@
bangesikhatheso
jomani
domestic
dictionary
ahlob@@
sower
uzokuletha
uyalandisa
umakhiwo
figuratively
ngamuphi
silingeka
endukako
esizukulwana
etlhogekako
atlhogi
scribes
ezitlolwe
washing
email
wehlangano
sokuhlunguphazwa
Language
Bewuyini
oqinileko
akusi
Ukuziphatha
malicious
wokugcina
20th
nokwaneliseka
luleko
energ@@
singak@@
kuYise
Bhayibhilini
ekhesakhuluma
azenzileko
oqalene
itlolela
jamo
yemimoya
ENZ@@
bephasini
link
imitated
bhujiswa
define
1937
uhlukile
ekusilingekeni
touching
emic
JHA@@
EKO
okuthinta
Hong
stating
nabath@@
kubusa
ekukuphela
checklist
nelithi
onganasono
endulako
Allow
ayala
zuzisa
nendima
ification
sas@@
idorobha
Frederick
obukhethekileko
amafilimu
ezingokwenyama
bezib@@
esibekiweko
Albert
vicious
bakhumbule
ukumisa
umrhalani
basically
nqoph@@
uRute
akwakho
Iveseli
slides
agandelelekile
sebenzini
Ikolo
Ukulunga
entrance
ithandazele
ukwala
amthandako
ruined
obuqinileko
ahlubuka
Iingidi
ght
iliso
uZimenu
w17.0@@
1944
okuzokwenzeka
Morris
ayithanda
employed
Ngaba
njengamakhosi
pop@@
ots
comprehend
pair
webe
simlotjhe
Funa
saqunta
repay
kwenzako
kaGenesisi
ex
abaya
part@@
ograph@@
sithoma
asibekela
Uriah
1976
owatlola
ngasosoke
ngezenzakalo
kuhlale
ororha
hlolokazi
kwahl@@
Mil@@
merit
Barbara
noDavida
nobufakazi
frustration
keepers
isoli
El
obekile
yokuzithabisa
nakwethu
baqale
ivelela
eniz@@
iinkwekwezi
Intando
imihlatjelo
aku
Jr
mistreated
Luther
lisikhuthaza
1963
itation
ahlanu
urt
iinkh@@
schoolmates
formation
leem@@
athumba
wakhula
agu@@
ten@@
balwe
atlol@@
bekamthanda
kami
ngemitlolo
far@@
Res@@
akhohlwe
prem@@
abafumana
prey
cond@@
onwakhe
realization
bengazi
Religion
abavusiweko
repl@@
wadela
kwey@@
kubenza
bekav@@
Dalia
form@@
isiphorofidwesi
ugululi
welwe
Del@@
custom@@
appointments
Akhese
baqal@@
afihl@@
iyeli
BE@@
sikub@@
ifuneko
beg
unworthy
presents
ukuhlukana
afilimu
andako
abacwengileko
bangaw@@
ungela
nesizo
tempeli
Thinking
umalusi
isikhuthaza
singafumana
bala
OSI
itjhidela
lasi
iva
wabulala
Ser@@
Tony
kwephasini
kwakaDavidi
ibuso
lesiNgisi
Nakanabako
Zimisele
balung@@
hlathululela
acknowledges
Reflecting
Carmen
athululo
interpre@@
libalele
ELE
ikazise
yesAmbulo
isotja
seSithalasokulinda
renounce
Praetorian
liyatjho
elizwakalako
Lezi
locally
ngezelela
128
imikhuba
abasaba
ukwakhiwa
ambisane
ungomunye
okumalungana
hurtful
emkhulu
wounds
asibek@@
nanzi
ntaz@@
isitjh@@
umthanda
baban@@
nokuqakatheka
ziya
EL
yamadoda
hood
uyakubona
immortality
Naomi
uzokuph@@
ahlathululela
©
Amavesi
batjhugulule
uthuke
njengeenceku
nango@@
ukuzith@@
akuthandako
krestu
ukungaz@@
makhoboka
wacabangisisa
ezizako
phonograph
obile
imadanisa
uhluke
lomusa
sakaJeremiya
ulating
Imiraro
colored
inyo
Ben@@
hlophe
ulun
watjhiya
kuhluke
Prove
grass
seza
arholela
abafana
nesitjhaba
ea
ngiragela
arholi
Niy@@
wakhonza
nekungenzeka
inikelwe
distr@@
usebujamweni
kuhlangana
ovusiweko
rhalani
sizihlole
akhalim@@
umrholo
eyaba
bazakuzuza
yomunye
esahlukweni
Isirhawu
kwek@@
evaluate
besisolo
namak@@
yatjengisa
entity
bakufumana
bazokudla
neS@@
umhlabelo
abhabhadiswa
isindiso
ope
lightly
Ukwenzela
Wenzani
ukusetjenziswa
obeni
bamaJuda
niye
bengim@@
Christendom’s
ngow@@
eqiniso
cleanse
flood@@
een
isikhathesi
okungena
icabange
atjhugulule
uthwe
kuyakghonakala
esizi
FAITH
yeSambulo
uqalana
osihl@@
okwamenza
toler@@
zibamba
usiseke
alism
balahl@@
ikis@@
okungikho
ilandele
balindele
bear@@
obufana
Matjhi
neenhloni
emseni
oseduze
bogaboga
kunesikhathi
product
nemikh@@
esikhamb@@
sihlawulele
umBusi
ekulung@@
abakholwako
ukunyiswa
ibuth@@
eziyihloko
Su@@
adv@@
foreigner
horarhi
slide
Akusi@@
prompted
nalinye
Korneliyasi
aud@@
Nerhemiya
abuzwako
nokuzaza
ubuhl@@
Ukusebenza
akhilomitha
Lor@@
akalo
dro@@
ikako
omma
ngomhlaka
zihlanganisa
meals
elinengi
maphi
kiswesi
yokudla
zomusa
ngomlilo
Nazar@@
wemb@@
otjhi
flowers
earned
unduzela
anyiswa
obasiza
uZimakhe
Beyond
ukukwata
loaded
yiNdodana
burnt
ukutjhiya
materials
nabalandeli
countr@@
aful@@
spoil
okungan@@
atjhay@@
Nangis@@
AGE
ABOUT
Brithani
lho@@
inganisa
ivumelanisa
ababul@@
porofid@@
USomnini
ngebh@@
aphakemeko
3,@@
esimthandako
kwabadala
keys
ul
ngamad@@
Free
Appreciate
Island
anomusa
kunokuthileko
ngisebenza
atjhoko
dlha
bekhaya
Sambulo
upheka
wesihlopha
khundla
oversee
olf
AY
ilele
ukuhluka
buyekeza
lihlala
Vele
uDibhora
pen
slowly
ods
Josiya
Abigail
emez@@
itjhay@@
umbungu
Ndodanakhe
esibatjhumayezako
badzimelele
thunywa
Blurb
iqinisekisa
demand
philosophy
dramatic
Part
permitted
elinjani
sikubona
kungakwenza
abahlali
wabulawa
UKUPH@@
ezidlulileko
ased
lokufundisa
aphol@@
thirst
khuthalela
nabab@@
oldest
ulate
ngokuzwakalako
nokubeka
tin@@
tactics
theory
sesib@@
nesisa
ngepilwakhe
kaJobho
abaleleko
disfellowshipping
neli@@
elled
ave
el’s
aloud
ukumsiza
iinq@@
eyunivesithi
ikeleni
nokukhuluma
favored
esaneleko
libh@@
emtarini
gweba
ahlekileko
Akhesi@@
astic
ezimatjhumi
wekhaya
stirred
ekwakhiweni
wadlula
Ef@@
syndrome
wetjwa
quietly
nekonzweni
simlalele
okomfanekiso
gatherings
Abe
ziny@@
iliqiniso
owamukela
disrespect
fika
jar
Changes
observance
PEOPLE
yokusiza
uzani
Ukuzwisisa
nabaf@@
ignorant
ukubuswa
ulithando
asser@@
ngeph@@
nabomkabo
kukhuthaza
domin@@
ngesiph@@
mndeni
akavami
asikapheleli
Ragela
aphikisana
ukungalaleli
UTholakele
kuc@@
abososayensi
subjected
Amehl@@
figs
ukhohlakali
kwamukela
sive
asabele
elez@@
hurts
lilitho
rhaba
nehlelo
INYE
nabenza
singavumeli
Paradeyisi
bafana
Uph@@
wu
ngobuhle
PSALM
ungezelela
nokuhlanganyela
head@@
ngababelethi
bobulili
namaJuda
okungenza
eyalandela
ibekele
ngokufuna
Abakhethiweko
irarwethu
ngabuyela
iselo
engezela
tlhogonyelwa
ukuphuma
threatening
sikhul@@
bayaku@@
bewul@@
onakele
hind@@
nabazaku@@
uzokususa
somThetho
bazokubusa
convent
asizuzisa
Ngokuthabisako
ongakale
dating
kwango
agcini
onqotjhiswa
FUND@@
wasibekela
azise
uzithanda
Khulukhulu
yan
accepts
Yenzani
emela
sala
waqinisa
nokunikela
yoni
HLANG@@
catch
sebujamweni
ugululela
Jer@@
uphuka
Greater
endeavoring
uGayusi
uMbusi
Ek@@
ngokusebenza
contrad@@
1923
wakholwa
siyikhumbule
entjhi
aditjha
ngokuphepha
zek@@
isisebenzi
ponder
sirh@@
wokucabanga
neJerusalema
okunabileko
engwe
imibungu
uBh@@
ukaniswa
ilitho
ikisane
elizako
kodwa
nobungani
ELizwini
Ababonisi
nguyise
kwakghoneka
ody
okuba
below
nasifunda
umelelako
splendor
submission
iphetjhana
seize
conver@@
baze
sijamelane
zamambala
sesiy@@
abako
okuzithabisa
Wat@@
esteem
alwane
desperately
ejwa
kutjhumayela
wakalisa
eMasedoniya
besides
Lefi
seRoma
thwalela
iseki
rha@@
tlol@@
elelani
rural
andlulula
ancestors
uliwe
Sawula
sakaDanyela
iinz@@
nokusaba
badose
solved
nobuthakathaka
kuzakuba
limb@@
ziim@@
njengezakhamuzi
Sin
omile
uLefèvre
Zuza
abahlanganyela
ndenabo
kuGenesisi
nangib@@
sion@@
ongabonwako
intanisi
Ngalemuka
mazizo
engqond@@
efuna
ukubhina
ngendl@@
abasese
okwaneleko
den
uruguru
indodanami
bengicabanga
iphele
PET
abangamlotjhiko
yatjela
idlul@@
kuyatlhogeka
ut
ngokwenzeka
onak@@
ukulila
institu@@
pp@@
iinqabo
balinge
radi@@
ububusi
throwing
bangekhulu
isithunywa
rebuild
Hezekiah’s
humbled
zeminyaka
ads
sesifikile
Go@@
ukhosi
sifundani
idlule
kaJafta
Giliyadi
kusisize
spot
baziphathe
rabb@@
ders
nakhu
sivikelo
nekufika
silence
kis@@
skillfully
mer@@
nomnyaka
Toward
Wallkill
yipi
Azariya
njengaboFakazi
akuphe
charged
yeNtabeni
alotjhe
esivumelwaneni
yeemb@@
lithini
Men
Author
ngemiphumela
otho
furn@@
bekuthi
akamagazini
eLwandle
umndenayo
hoboka
okunguye
agandelelwa
moun@@
speed
nepumelelo
Ukukhonza
confessed
siphele
arch@@
etjenz@@
Cr@@
emphasizes
introduce
emsebenzin@@
rising
KWAMI
athe@@
bewun@@
likhula
isithiyo
bacabang@@
singasil@@
Jafta
stat@@
Lu@@
Pap@@
sethwesi
enty
nginanyana
weaker
holid@@
ve@@
Amen
ngokuhlukileko
Loyal
range
ibetha
ukulifunda
neenth@@
Isabelo
wenezi
zimisela
emukisa
fearful
qedile
skillful
UKUPHILA
acweng@@
ife
isileko
awufike
certainty
child@@
instances
ret@@
abekwe
post
malanga
Iimbonelo
characters
Kuf@@
ukwandisa
umkhuba
kuyintando
kusebenzisa
Singakubalekela
abathandi
holiness
ent’s
n’t
Ngokukholwa
ukweba
111
atjhaphuluki
usihl@@
imit@@
abajameli
unhappy
wodwa
dominate
cured
weGolide
ngokuthokoza
strayed
akubeka
waves
weJerusalema
isibilesi
Naboth’s
win@@
gang
sick@@
bekaqala
inst@@
fills
BY
zizosisiza
iinkoloyi
supposed
patriarchs
Nero
.5
estimate
anelise
fruits
Iinhliziyo
neemnyaka
bokuth@@
kungenze
akuthabisa
obuya
defenses
HEB@@
zokutjhumayela
í@@
Siza
womsebenzi
ikaziswa
amkhulu
apathy
ump
tened
umphath@@
Courage
ahlelo
obisa
PO@@
Pilato
esikhethiweko
leJerusalema
jezisa
abyss
yamaswaphela
Wephasi
bakhuthaza
uration
amazizwabo
ezibonakala
abafisa
ithuthukisa
Loke
ekamp@@
arily
waziveza
ukubambisana
isoni
ebhoksini
olo@@
bulwelwe
Amezwakhe
compares
baboFakazi
abangakathembeki
okuletha
jele
simthembe
stupid
izuzisa
esizitlhogako
oy
engal@@
uvumele
bekwenza
tjala
heeding
iphelele
akufundisa
dispute
Goliyadi
CD
inami
komsebenzi
iqu@@
ture
stealing
ukusenza
elaka
God@@
ebebahlala
yed@@
ukuthaba
wafudukela
okufakaza
itjhade
prime
householders
Ber@@
abatha
Ukubusa
bitterness
wahla
nakab@@
uRarhabu
ukwanda
lists
op
elwelo
gom@@
kokuthandaza
umuza
ular
IUDs
Isiqhema
uthukise
farmers
rebuilding
personalities
usisize
revision
akhweli
banjalo
sazaliseka
sifundisa
yamva
ubathanda
Watjela
grandson
nezokuzithabisa
Des@@
nemini
parties
ngumma
unjulwa
nangathi
laugh
nasim@@
surviving
isebenzisako
IPENDULO
libuye
izokul@@
lulukela
National
amandlethu
njengomb@@
sazo
JEHOVAH’S
Rob@@
requested
ekhodi
foweth
Stand
othatha
VER@@
iimali
kwaJuda
zimelelise
disputes
zomzimba
walithanda
da@@
bazakuba
ngak@@
zanamhlanjesi
efumulelwe
oseleka
izamo
ii
indigenous
uyathaba
Jacob’s
ukumlotjha
ured
kungakalindeleki
adoda
iimf@@
simazi
Angis@@
kutlhogako
zifuna
namaqiniso
babuya
dlulisela
document
akhesithi
eziweko
alana
batlola
noBaba
Ant@@
ide@@
Mer@@
kusize
elevated
Id@@
staff
attached
Focus
akhabo
False
lelesi
alil@@
orhodere
ebudaleni
Ilaria
Patterson
ibiz@@
Reve@@
Alexandra
ukukhohlisa
ax
ugulule
unjiweko
iinsetjenziswa
wished
Azariah
alike
Develi
nyefula
angenele
golden
bekanom@@
tenderly
ugqila
nokuthembela
ukuvelela
Tur@@
akubawa
inini
greaters
abalitjhumi
qila
Kuba
alaza
constitu@@
Andrisi
employer
umanaphi
Levite
bezisolo
abazokuvuselwa
sanctuary
emn@@
abasabela
Uzokuba
Ihlelo
awako
Ningaz@@
MB@@
fing@@
eFilipi
inspection
esifunde
disown
Keeping
angalisako
incwadakhe
foretell
Seed
nanging@@
zisuka
mehlo
aphorodlha
odanakho
fly
ululo
ESIK@@
ukumbatha
ungathanda
uHezekiya
ibusisa
delegates
understandable
collection
ekhamba
ambama
nokuthokoza
ezilisizo
baphethe
ilinde
ethuneni
UHana
sifiso
ngomphefumulo
Yakhe
scroll
ukuthela
uzosinikela
multitude
odakazi
emndeninakhe
ngesiHebheru
Kwakho
commander
ukulatjhwa
kungasiza
ega
Gogi
Scrolls
esihlwengileko
1938
Ngokuthembeka
legacy
nakungasinjalo
wesa
kwenzeni
nonakwakhe
ungaku@@
ukuthenga
IYA
uluphele
wagula
ngokuthatha
bamth@@
zeentjhaba
Soviet
ngothi
esikucabangako
nangokomoya
dlule
wabelethwa
ikhandle
scenario
Amal@@
iVangeli
commits
UTJH@@
Sheol
Immediately
wamadoda
akuboni
endalweni
fuel
bavuke
au
PROV
emith@@
Several
enabantu
recovery
passengers
flood
otja
kukade
yakwa@@
zephasini
horsemen
itjhere
payment
block
irho@@
tled
ukusola
kweNdodanakhe
unane
imele
iment
yokuya
ezwi
á@@
heartening
equipment
sesihlengo
naphakathi
hills
angakahlosi
plagues
wayibeka
umay@@
disciplines
wenceku
copper
ails
Decisions
pregnancy
ukutlola
abalimi
criticism
arguing
olis@@
lokuveza
Ekul@@
amaphaphu
convenient
etic
ngebelo
emikghweni
eziyingozi
abarhubhululi
ah@@
amehlwethu
Ukuya
wavula
ngitjhumayela
ngilalele
kungakghoneka
etlhogeko
tjhutjh@@
wamphendula
lingas@@
iphendule
akhulumisana
sekoroyi
oring
proverb
roaring
fewer
Abafazi
fer@@
kwePi
nights
mach@@
astray
uyabazi
aphefumulelweko
fishing
siqiniseka
announcement
unpleasant
ithandazo
kuzom@@
bapostoli
ebengiy@@
insisted
ngokutjhejisisa
uyakuthabela
isiHebheru
reaches
bahlanganyela
umakhelwanakho
iPi
uzokwazi
laleli
Banengi
khumbuze
ivalo
babambisene
eknoloji
PHI
onelungelo
nekwenzeka
uthako
huj@@
Train
indaw@@
uswako
ils
evamileko
offend
prof@@
B
bekatlhoga
ihlukan@@
osib@@
umbileko
kufundako
archae@@
uMary
akhulileko
Ngokulandelako
UGary
ugijim@@
testing
ngesib@@
lakaJudasi
EG@@
ikulumiswano
refreshment
ijamele
attentive
ezijayelekileko
atjhwile
ngokunganakuzaza
ó@@
Susan
phathiswe
besono
ugand@@
Esith@@
cina
oku
ikhonza
fanelekeli
yihl@@
amafa
imeni
sithandaza
pa
budget
horr@@
arrows
hit@@
obstacle
ilokho
Abalungileko
isebenzela
anelekela
latest
hoda
ukubunjwa
orh@@
Self
namakhosi
eyamsiza
ebeyim@@
ngathaba
nawuthi
esuka
shelter
version
ukuvakatjhela
tshwayo
zikhakhazisa
hlangabeza
Kubudisi
nakibo
yangamalanga
joining
justify
proselytes
uSomandla
yekhaya
wabusisa
vo@@
complaint
oyenza
12@@
imakhiwo
uJudasi
sibambe
sifikelele
kunawo
banakwethu
periods
ED@@
lalele
WHO
lingiswa
closed
Hlu
Jud@@
Ngabelethelwa
nalikhuluma
undwa
ier
alanga
Chris
Religious
lokuzithabisa
farmer
ky
qophileko
Hon@@
boMbuso
wamad@@
yz@@
Hagar
amasimu
njengem@@
idosela
ukubamba
vakatjhi
nemitlolo
sisabele
bayavuma
egeda
circumcised
nesik@@
coco
machine
yomthetho
esiphorofidweni
ket
esiseduze
yokutjh@@
obohlobo
ills
eighth
sokung@@
To@@
imiyalwakhe
ukubhalelwa
encies
zisebenza
obliged
nokuv@@
eldest
ethembeni
afunga
indodakaz@@
sicabangela
Gradually
abakhamba
ibhizinisi
ilahla
pol@@
zubhulwe
ebafundini
ikhohlwe
sini
izin@@
eenhlokweni
progressing
ngamal@@
Kwadlula
nezakhamuzi
defense
kulumo
sou@@
gand@@
wamatlawu
abikezela
bh@@
Victoria
atjhisa
atjhaph@@
ekuminyaka
ngesikh@@
ungweni
Iphuzu
uwelela
kweendaba
kulethe
itary
bekungasi@@
closest
camps
ezingasi@@
endawen@@
unreasonable
ulise
yokufihla
esisiza
Setting
eJ@@
UKUB@@
andlakhe
lakaSomnini
hozi
Middle
blood@@
11@@
awasiza
bekathembekile
ukusizwa
imadlana
nehlanganwakhe
afowethu
obuhlukileko
embeke
bekakhamba
instill
kwayi
purchase
umtjhumayeli
skill
asiyelelisa
inden@@
ebekwenzeka
Nesif@@
ozako
Isandla
confusion
bangay@@
dlhisa
buyisana
erfully
elelane
treats
ikubeka
bunjalo
akusibulula
impelled
ukumthabisa
enzakal@@
ights
eks
kwamad@@
Sur@@
uthaza
sivikela
waphelelwa
nicotine
akuya
captured
atjhugulukiko
calmly
emKrestu
hole
ahlathulule
Uhlala
altogether
ngamadoda
latter
ngepi
aplanethi
wamemezela
Ra@@
zebandla
wathandazela
sirhelebha
riding
AH
kuyabonakala
umnandi
tjhumayeza
ogaboga
Themselves
zibona
asivumela
linaba
owasiza
displays
Itjh@@
Certain
tified
Njengo
emajele
ihloniphe
umusakhe
iindima
imagin@@
uduzo
Savior
ogo
babab@@
ough
UZakariya
tjhe
nanjeng@@
bebangekhe
enzekileko
abozimu
wokubukela
Ukum@@
wep@@
demanded
uthaka
sigand@@
akhath@@
courts
ngithabe
yembeleko
Singathomi
Qin@@
crying
anjwe
ungab@@
esicwengileko
xes
devour
Santa
betrayed
HU
ngokuhlanganyela
receptive
pal@@
Amehlo
engakafaneli
yearn
owenziwe
ulekile
ambisolawulo
4,000
acquiring
ebuntwini
singakwazi
eziko
advances
ngabhajadiswa
concentration
Jona
kezokuzithabisa
ngizwisise
whoever
afanekisela
pan@@
wavikela
umnyama
ukut@@
sunset
ayel@@
aswaphelo
African
ubhululo
ayele
Singabasiza
ukumkhonza
Sew@@
Ud@@
bazokubona
uments
isambatho
nangokuth@@
Eastern
Fundisa
Nangineminyaka
ayokub@@
usipha
Kyrgyzstan
ebenzisa
elimazako
efisa
ukuhlonitjhwa
kutjeng@@
sakaDavidi
Irenaeus
uLoti
kwethemba
symbol
increases
asebenzako
phaphamela
anethu
umbako
Respect
nithi
aqunta
otlolwe
bicycle
ngokud@@
emmoyeni
regards
nesiluleko
omlando
risti
enjisiweko
Association
Umkakhe
infancy
abalala
shop
verb
goods
kaJobhi
bavume
Ngiyaku@@
angasenza
ngokusekela
hayeli
batjela
implied
declares
wobumbi
kungasenza
hardship
Mir@@
correc@@
umhlathi
kuvele
twana
nehlathululo
kwamanzi
yeGibhide
ebuthweni
onya
azokwenzeka
striking
bavumelana
aziwako
Meyi
nakutlhogekako
messenger
noJakopo
transformation
ams
daunting
onikelwe
ngabe
ungacabanga
bavumele
abanokukholwa
accountable
Getting
1916
upbringing
khuthala
ezu
unthinkable
qinisekileko
tomorrow
Okutjho
ithandwa
azisako
eMadagascar
restr@@
ayikalungi
Inc@@
handling
Anyone
reminding
Timothy’s
shut
pred@@
ikol@@
kwebe@@
Kil@@
uSisera
ibangela
ebeyenza
ngithabile
bavikele
azwe
lower
Bekaz@@
tjhaphuluko
ongenza
Ngomqondo
nesim@@
ukuphulusa
esifubeni
atjengisi
emo
ebenze
iviny@@
hon@@
eliseduze
beliz@@
occupied
intaba
cycle
njengalokha
isigiri
OKUBUZWAKO
mango
nekaz@@
atsh@@
eenkhathi
cautious
kokwazi
akwenu
nouris@@
awenzako
athol@@
ior
uyekeza
immigrants
Scientists
embatha
Asiz@@
asezulwini
lotjhi
vumel@@
Luc@@
combat
Live
ehlobo
convictions
refusing
onawo
ebumbini
amukelekako
asilibalele
cleanness
yipharadesi
kucabanga
azibeki
suffers
math@@
Melchizedek
Exercise
book@@
adephileko
unzi
usweni
kungekho
esizizwa
uSamsoni
deciding
ignorance
eplasini
ISO
assault
apparent
obutjh@@
khulumeli
Ful@@
ngicabange
wakutjengisa
akunikele
kaJakopo
uthembeke
uzile
efully
samadoda
yokulwa
iloz@@
Carolina
isifundisa
bokufelwa
yendlela
recognizing
ukuzithemba
yokutjengisa
err@@
alingani
sikhuthaza
sibasize
uzokuzuza
Namibia
akhathalela
Ey@@
nesabelo
eBhabhele
ebhe@@
kwekholo
ram
kwabanengi
forsake
andelako
batjhidelane
adding
ambele
school@@
siwenze
MANY
flourish
imig@@
nokuzibamba
execu@@
ote
Gen@@
aphathe
xing
onipho
iphefumulelwe
cop@@
injomani
endeni
jadujadu
umakoti
isilulekwesi
eliTjha
ambelele
fath@@
ekuthuthukiseni
arheni
Friends
uthuthukisa
Babusisiwe
angaza
plot
sikghona
amo
sakwazi
alibalele
lisenza
App@@
successor
esisebenza
pointing
kwezomnotho
adjusting
indec@@
abatjhadi
abavikela
IST@@
usitjela
enzuzo
ngendalo
Return
esting
supplies
ifihl@@
classes
eaten
apristi
compelled
2017
tling
Fil@@
ibhesi
uyiselela
Abantwabakho
umtlomelo
plane
ubuzesa
esingazibuza
Felisa
misery
kho
andwa
omuntu
dozens
Eve’s
atives
Universal
ziphatha
Care
eengazini
eenquntweni
azinikeleko
THEIR
yincwadi
ukuzoku@@
bright
impatient
yesi
karisa
ngamafutha
individually
partners
Hmm
bathuthukise
ngig@@
Rel@@
ululele
Nasek@@
kaK@@
ér@@
ision
ukumhl@@
magn@@
Bridegroom
qedelela
umkhweli
ulek@@
zomndeni
idumisa
LUKA
143
ngamakhilomitha
nif@@
amabhayi
sengiy@@
realities
Keon
largely
engokomthetho
aliphayona
advancing
angazizwa
spr@@
sisizwe
nokusebenza
basil@@
atjhabalalisa
anamhlanjesi
politic@@
Jehotjhafathi
yesimbi
elaneni
synagogue
lesine
steady
siqala
emlayezweni
ulungele
fascinating
hayisikobho
celebration
akufakazela
sisoke
aqakatheke
neenkanuko
iJordani
Isin@@
embarrassed
neenkhulu
Research
entjho
treatments
1991
anezi
fas@@
nesiqubuthu
shrines
organs
awkward
uzith@@
abangaphasi
sithembe
Bekan@@
kuvumelana
nabatjh@@
izibulo
wamanzi
yekolo
sizith@@
shr@@
annihil@@
leaven
akuhlala
bonakala
5,000
otjaniswa
uwe
Akunamuntu
ngoDisemba
okarisako
ultimately
step@@
frag@@
mer
snow
athobekile
osinikela
1942
nomukghwa
ondl@@
Iimfanelo
oms
Nesith@@
irhatjh@@
reluctant
sentiments
khuba
inyelele
abaphikisi
uzokunikela
orobheni
abaphatha
ifumanele
elitjheli
ologists
Kunom@@
arana
ubusa
bigger
ehlonipho
Asis@@
ebeli@@
ekusebenziseni
Credit
Ngokuz@@
eMbusweni
hurled
affections
placing
contacted
atjhukumisa
akuzwisisi
encwad@@
Litjho
anyef@@
ivulela
inganiswa
flu@@
akara
anzwa
komNdeni
sakade
ijam@@
sizukulwana
Iimthandazo
Besib@@
Asiya
akusil@@
Strengthen
medicine
wezandla
ngeenkambiso
sustained
var@@
workmates
nephazimulo
arhole
Scenario
Review
kujayelekile
bayal@@
yabantwana
Nal@@
Ungay@@
empower
usion
Indalo
atjhaphulule
izweli
Organization
coast
iselweko
UMEL@@
Singay@@
ephephileko
prophesy
usakhe
Nesing@@
restricted
Isiphelo
esineke
Tesalonika
oCwengileko
zokuhl@@
nalapha
Sister
Nakhu
angazange
imirar@@
ubudlelwana
Juni
Pa@@
pt@@
plays
Kungakghoneka
oppressive
Nesiqalene
depr@@
weengazi
suicide
embarrassing
sekuthiwa
Cre@@
akhucabange
sikhuthazane
akwenzeki
ngiyazi
Plan
evenings
cro@@
ahlathululwa
Tjhayina
slaughtered
KwebeGalatiya
wawuphendula
ngomtato
performing
abadududu
forb@@
roving
Khe@@
organizational
khipha
ileni
Jan@@
waziko
pioneered
ngoMesiya
iimphoso
Kuyazwisiseka
UJafta
nakathoma
aphakamisa
nenyama
spare
hating
ization
kugula
akude
ngeend@@
sizihl@@
obhajadisiweko
odumileko
nezambatho
enabileko
ekhambweni
holela
mayelana
titles
Cy@@
Ahaz
eZ@@
utjheja
angafuni
ziinkulungwana
esizidlula
vowed
ayenzileko
ziw@@
nekathoma
kaHezekiyeli
simpl@@
ababulanzi
ubon@@
yesithathu
distraction
okusehliziy@@
Cultivate
beg@@
enesi
Singatjho
alungu
Khesari
siling@@
ukuzisola
emat@@
tani
zokub@@
okoda
unaba
desol@@
Ngaqunta
alile
uvusiwe
akham@@
bebung@@
abamfunako
ANDA
khisibe
ukusela
asithi
ekukhetheni
amtjh@@
Apparently
phathimandla
ETHU
Mus@@
khethileko
cwengisa
abatjhad@@
ukubuthelela
ido
wathanda
Leads
bekaphila
fil@@
eembonelweni
neenkolelo
arareka
elwakhe
kweenhl@@
abazithandako
mobile
bazokul@@
cling
simajadu
sizokufika
Iindlela
bomndeni
okwa@@
bebatlhoga
thandazele
umazi
invaluable
stimulate
ombanganarha
engifuna
Eliyezeri
sika
zobu@@
fights
uzwako
Single
okwezulwini
Finland
uNebukadinetsari
nenceku
briefly
neengozi
umbene
neenqhema
akghon@@
eseli
ifumani
ngokutjengisa
Ikambiso
scrolls
ongazimbi
lasted
babalekele
phay@@
relaxed
ubumnandi
wakuveza
measured
sekuphele
mus@@
deceased
Aaron’s
ngeencwadi
Need
And@@
rad@@
pre
AbaFundi
ongathi
ihlule
pic@@
ague
Iimbusiso
eTj@@
ithabelako
uncontrolled
ngesidleni
kokukhuluma
ukutlhala
idigidi
kwatjengisa
Pri@@
Newufuna
Salvation
walinda
NgoM@@
discrimination
admir@@
surgery
ique
imal@@
swear
nobumbi
akwenzele
ngapheleli
Mhlokho
ngabawa
connec@@
ngomfazi
QUESTIONS
lawu
AT
San
Stay
etheni
zimelelisa
Singakulingisa
zepilo
dynamic
khulamungu
isihlalo
onakal@@
eBhetlehema
elingeze
tlolela
ised
indim@@
Igama
engis@@
ngitjhumayele
sizokwazi
esigabeni
nesikhuthazo
1983
ukulinganisela
okhethiweko
Nengineminyaka
singazizwa
Iimfundiso
balinde
Ngiyaqiniseka
iNcwadi
Ziquntathu
jus@@
translator
ANCE
Mel@@
qabo
kwalapho
Janny
Appreci@@
aded
Scripturally
Up
zaso
lokuthanda
mercies
coping
netlhogeko
phorofid@@
trivial
Lat@@
bewus@@
akwethu
Ngezwa
ngamehl@@
abahlongakalelweko
ukur@@
instructors
ukungam@@
ibuze
ift
downhearted
estimated
zesondo
waporofida
ls
sobering
odanenakhe
siqinisa
zokufunda
engay@@
ubulunge
esiphethweni
sezulwini
umsanyana
fleeing
pris@@
cutting
edl@@
songbook
ather
Fac@@
bezis@@
240
omsulwa
etlhoga
exhausted
kokukholwa
esiluleko
alahlwa
signal
abhombo
watches
Akhange
Catholics
pursued
Talk
noyise
cour@@
amdala
flow@@
extrem@@
kwakhona
esithombeni
kubek@@
abatjhiya
ngobuhlobo
akwaziko
isenza
bewuy@@
demonstration
sidumise
apheleko
lebizo
indefinitely
iqede
Abaz@@
Iy@@
West
elekw@@
udlhadlha
uzuze
ehliziy@@
photo@@
ising@@
Government
translating
nakungenzeka
sendlela
contemporaries
njengendoda
unawe
ondweni
kufaneleka
nande
bebakhamba
yibani
uthiweko
anes@@
liberated
nakwamanye
ABANYE
Abantwab@@
supplied
ngefundiso
angi
morality
potter
sokubusa
ebukhohlakalini
Ngathandaza
useless
contributing
emnyanyeni
Imibono
Julian
singathoma
Nim@@
irhagele
fear@@
Val@@
corulers
saw@@
womntwana
nebafuna
kwangena
ulungise
obungani
emaphilwenabo
eleliswa
uzokukghona
umnin@@
Abrahamic
alusa
uManase
namag@@
nobuhle
esiku
nakazakuthi
KwakaZimu
kwabazalwana
Josué
lovukazi
emig@@
obunjeng@@
Fakazi
sihlangane
apping
ongithumileko
ebeliz@@
kwesib@@
nasikhetha
lobujamo
needy
ekel@@
Sandra
alibali
Ungaw@@
Kwami
awenze
Bardet
nehloso
abukele
Don@@
isibonakaliso
comfor@@
ngezwa
ngatjhada
sithobekile
eep
wakhulela
Komunye
nekuph@@
ense
uHerodi
eMbusi
Ifihlo
awaited
denjwa
obunamandla
enmity
discouraging
flirting
Zihl@@
balib@@
ngekonzo
nesses
wokwamukela
umIsrayeli
baphumelela
kuminyaka
strip
Ragelani
lokuph@@
ungathi
transgressions
Frost
sokulotjha
procedures
ongam@@
kwakha
ow
Kunini
isilwana
yokufundisa
kunek@@
akhwele
asitlhoga
Estonia
abulunga
bewang@@
dlulisa
treasured
Ukubulunga
borne
efum@@
samabanga
desiring
lomoya
abamaJuda
eku
kuzo@@
bahlang@@
somewhere
ngehliziy@@
picked
Fabian
aphapheme
homu
ikoroyi
Kuyasithabisa
bekuhl@@
ebelethwe
warrior
Oly
phambukisa
nabafuna
nawenza
rever@@
ulileko
utjhade
ongakalungi
baphikisana
addressing
Modern
esintwini
pleaded
simthokoze
Cho@@
festival
okwamukela
zas@@
ehloso
Simply
kungak@@
ngemitjhapho
ukuzibandakanya
ikulungele
ungaqiniseka
tambama
relieved
ayifunako
aqiniseke
wamema
emaWolweni
Isiqubuthu
push
umalanga
Izakhamuzi
idelako
Beli@@
ukuthintana
perseverance
amaphetjhana
iinkhundla
sinokuthula
sebenzethu
tles
decreed
vehicle
endeavored
etjenziswe
shi@@
behliziyo
Isibili
lomhlangano
adher@@
afake
wesib@@
sizokuthaba
ukuzibona
ign@@
bayab@@
irhelebhe
bazalise
kokuhlangabezanwe
umamandla
PER@@
ouse
Desig@@
sikhulu
omagazini
Ngom
ukukhalinywa
uphendule
sigcine
destroying
distinction
wiso
amadaniswa
sekadeni
burn
author@@
AD
ibholo
symp@@
despised
disi@@
unani
spirit’s
okutlhogeka
sokusiza
Personal
exhortation
Zinzolwazi
Few
ohliso
abudisi
Wol@@
uRarheli
enticed
hamb@@
itjisakalo
nokubulala
tone
oswakhe
ngibuyele
ngimb@@
jailer
eyamukelekako
kuFaro
uwedwa
Place
ababoFakazi
uragele
iNd@@
weBrazil
enriched
aduduzeka
eSouth
Embonweni
eans
tjho@@
abutho
tlolwa
tjhutjhiswa
nice
ipahlakhe
okumnandi
esithathu
phikisi
restoring
buthakathaka
demands
pul@@
endures
emiz@@
khangisa
nangokuz@@
Iimp@@
ucabangela
Ziz@@
bahluk@@
esithabisako
Kora
committing
jayelekile
burdensome
Amy
kukudla
establishing
ilethela
Nearly
ephisa
elizeleko
Isazelo
abulala
eded
ingab@@
ulelesi
wadosa
Pen@@
Ngokuyihloko
protecting
olog@@
siyeleliso
slept
eWarwick
ATHI
fanelo
wor@@
Indodana
alwanaba
regretted
zencwadi
ILE
ender
Dep@@
enyama
uraga
agijima
abazokuphila
akura
waleni
Jes@@
othenjisiweko
EPH
wambuza
prohib@@
qiniseke
apocryphal
wuruwuru
obuf@@
ership
She@@
him@@
Umthombo
Udadwethu
Jab@@
injelwa
akuthola
iwomakazi
ombuzo
Amalekites
ekulwisaneni
ukho
amav@@
Spec@@
Eliezer
bekalinga
ungabi
atjhiy@@
amile
shoulders
transgression
kiboFakazi
Marta
youthful
iphawu
ayithabela
sizindla
suggestion
engab@@
raises
ziinhloni
fertil@@
liLizwi
ukani
normally
ematendeni
besikhamba
utshwenyeke
corner
mkakhe
wobuphephelo
delightful
demon
ngabadala
wasinikela
volume
enthusiastic
Nathan’s
Priscilla
disi
disposal
kwabantwana
buzoku@@
meat
ikileko
Thompson
Kusi@@
eJapan
lifuna
eNor@@
asipha
bekusafuze
Amat@@
closeness
abahlangana
ukumlalela
ukhuthaza
ebengu
sizokucabangela
uyaqala
prev@@
ilinga
kweenthembiso
singcono
kusale
abekako
heartache
sof@@
ilutjha
ngungazimbi
wrongs
ngendodanakhe
Mo@@
imikhawulo
camp@@
Sengathi
ngamaziz@@
severely
wamuk@@
fundisani
interrupted
pping
gospels
wadlala
etjhi
Busa
andlu
pled
ukutjhabalalisa
beKosi
rides
crucial
phakamiso
inganiselwe
ikhethele
esiHebheru
nabay@@
quest
palace
ernando
ebuk@@
lolwa
Wasabela
Ge@@
agandelele
ngena
evesini
nabakhulekeli
Caleb
asikh@@
kills
iinini
ikhakhazise
Nehemiya
slander
ezikunye
blem@@
Imi@@
kweyoku
odadwethu
onini
extending
Wisely
ingela
ngemanzini
iyelelisa
uhlezi
ulekwesi
nik@@
emthandazwenakhe
HER@@
nabuphi
eable
Hezekhiya
Akurari
ziimbonelo
atjelwe
bafaka
icating
babuye
participation
kweent@@
Akhew@@
Nawuz@@
ru@@
casual
stability
noBharinabhasi
masters
eSikolweni
beyiph@@
bathuthuka
amagulo
ebebam@@
elifana
asithabisa
ukwanelisa
nomthwalo
proclamation
ukuwadlula
recognition
Kancanikancani
ezani
honorable
nesithunzi
aphelelwe
hlangany@@
anyelwe
ifaki
neys
uswakhe
njengabantwana
eswe
tjhijilo
disorder
Cond@@
resol@@
cherubs
yokuzithandela
gadangisa
Divine
nokudana
ngokwesibonelo
ithome
wafanisa
noMosi
okozako
onj@@
pond@@
hosts
singaw@@
eparadeyisini
inganiselwa
wef@@
Ungacabanga
umnene
138
awuthanda
nasithandazako
grandchildren
Haran
abasib@@
Enoch’s
afanisa
yikankere
ukutlhoga
ngokuthumela
ink
fra@@
ukuvukela
batjhuguluke
onakaliso
wabal@@
notable
neemfanelo
eenhlungwini
Queensland
funako
bitterly
nokuzilungisa
Ann@@
ifundisani
nokuvuswa
khwenyana
esikghona
legitimate
nabodadwenu
ngithabela
uMikhayeli
nomz@@
oper@@
ley@@
atshweny@@
vis@@
samaswaphela
wengekile
ungathomi
ngehlangano
ster
sihlanganyele
Ish@@
surroundings
ividiyo
California
naziphi
usenza
batjheje
Ngabo
sifisa
qakatheki
oked
ithathako
andlen@@
njengesipho
acabang@@
kungath@@
Supreme
zizokuzaliseka
iyalo
siyay@@
ngesiNgisi
eliminated
corrupted
arhola
kukodwa
Ngithokoza
sizokuhl@@
ngiragele
uqede
ngakelinye
alifa
ekuzaliseni
pit
akwenzela
zobuntu
squ@@
obuhlukahlukeneko
anganikela
azol@@
kuM@@
grudge
warhuwelela
atjangelwa
akoti
umakhelwan@@
Elaine
kunel@@
somuthi
enslavement
ilemuka
competitive
ILEKO
sivele
ded@@
afula
khethekileko
hede
Sizizwa
angikho
wings
enzwesi
relieve
isiquntu
swa
aqalile
arthritis
blasphem@@
adversity
accomplishments
considerate
ikezele
useduze
flying
refresh
dishonor
athath@@
rebuilt
Florida
wesikhuthazo
aches
Irina
Nehemiah’s
van@@
badl@@
ephazimulako
ncenga
uyelele
Var@@
adaniswa
kufaka
kaSawula
phahl@@
kuzokutlhogeka
asesem@@
hlangabez@@
IKHOLO
coordinator
abasithandathu
angiz@@
zibandakanya
indise
unethemba
clothe
ilileko
NES@@
Person@@
ungene
copyists
bangazizwa
tes@@
cwengiswa
singasisiza
andulelwa
roll
wasola
ngemil@@
1920
anding
Margaret
nasicabanga
komntwana
abazabe
cov@@
ngeeng@@
ebulungelweni
ihlatjelo
waqeda
Lom@@
rail@@
ekhambako
mangaliso
delivering
mon
azibuze
Nakho
yamanzi
besif@@
uduva
ambulwa
wethabo
esikol@@
khalime
hedlela
itjhiy@@
esithembisweni
avuna
tshweny@@
Ref@@
fanek@@
operate
owabumba
outer
satlola
sever@@
wasted
aints
lokulotjha
ebeyenziwa
sebenzisana
ukhuth@@
Medo
emininingwana
Jese
ukumis@@
amaqanda
ud
ijil@@
differs
2016
linganami
balemuka
itjhaphuluko
Gnostic
yaka@@
abaphristi
esiyifunda
Precious
loses
uru
zihlale
okwenzako
athukwa
unduly
Ihloso
nokuhlonipha
aliny@@
drank
yomb@@
unleavened
nabomma
ilungu
Johannes
possessed
intweni
Marshall
drought
enani
umkhulu
okusem@@
awatlolela
hear@@
yokutlhogomela
ibandela
IMITATE
Wisdom
wenzeni
apostoli
atelele
ngasebenza
Did@@
ikhandela
nomlandu
funde
emaz@@
lakaJosefa
derive
atanyiswa
Lef@@
unguphaza
heg@@
teeth
amavidiyo
ehlanganwenakhe
ilawula
isiq@@
akwata
livestock
ihlathululela
kokuphila
amukelako
esihlanganyela
fond
idlale
akuthembisileko
Bhayibhel@@
esende
kuzosi@@
androy
iphulusa
wrongdoers
enzakalwesi
bangab@@
emirarweni
kuthanda
kibomakhelwana
tjhej@@
minding
igomo
dol@@
adlali
elisenza
ibili
condemnation
bol@@
Learning
ebekaphila
quotes
uthokoza
promoting
cabango
PUBL@@
wahlanganyela
eastern
uzokufa
iswezo
ngokujamelene
kuDavida
khathini
akubiza
kungisize
obuKrestu
’re
intellectual
Colorado
eliyihloko
removing
thethwe
ngamtjela
ous@@
nekazaku@@
nibenze
bekungan@@
pleasantness
lilela
ufika
lifana
elokho
iyatjho
osayensi
stim@@
bafudukela
bekayindoda
hali
partake
1929
bayakuthabela
umble
angalela
Ahazi
Fear
baphelelwe
owaz@@
imaze
view@@
contin@@
Uhl@@
andy
watjelwa
akuzwako
UHezekhiya
Apollos
realizing
Kukhulamungu
killing
Hughes
mfundisi
Pryce
nut
bon@@
egede
kwamandla
atlhog@@
umhlolokazi
basith@@
nezono
lisisiza
é
ngeLizwi
amahlangothi
banned
heir
ium
zama@@
umm@@
blameless
ubudlhadlha
ebeyib@@
Julayi
athabele
addresses
Kizo
engaku@@
bathengisa
alamela
insignificant
phe
Krestwini
nguJwanisi
Thoma
Hor@@
ebekub@@
njengezimvu
esisebenzisa
ingako
Point
atjharag@@
namadodakazi
videos
wokuthatha
engifunda
enisa
abundantly
sezinto
ekhula
okuthuthuka
ekhambo
ugebengu
badla
ando
uSamuweli
ukwethembeka
ongakafaneli
Imihlangano
consum@@
gems
counts
University
aziboni
boring
sinjalo
yangenza
Sino@@
nendodana
ón
emf@@
ihlula
stepped
plainly
Reflect
batjhiye
memor@@
Sondo
ishes
ihlezi
manslayer
liqalisele
greeted
Thobiya
persist
ngconywana
via
Ananias
policy
Akusinjalo
obukghoni
Initially
imela
wanginikela
iKos@@
accep@@
Vietnam
1881
curse
iimbuzi
ezikhambisana
emrhobeni
Wicked
ngisebenze
overcame
tra@@
ajayele
akhaya
bagcina
terror@@
lakhona
esine
kid@@
iinkolodo
participating
akatjha
iVesi
uWilliam
Akhwila
dire
promptly
nangabantu
nomnakwethu
du
app@@
bekayazi
HUL@@
aliens
ngitjhentjhe
nguS@@
beseku@@
ukwenziwa
ebeban@@
1926
kinson
cheerful
erubhi
restoration
aqalise
ador@@
barely
Ngakhulela
nokuncani
fur@@
descended
pec@@
ukuwenza
IL
Comm@@
Hosiya
alter
Kulungile
emezele
Ngizokuba
siqinile
eTaiwan
undi
cooking
nokugula
unnoticed
harbor
ayihloko
ingena
retirement
FUL
parent’s
eliphazimulako
adesi
Zakhe
Seven
ahleka
calcul@@
uncle
1962
ngokubeka
esizwisisa
unda
Vulgate
ahlulele
bing
ministering
elius
clas@@
ested
aunt
enib@@
osiph@@
ikisi
pret@@
ubuph@@
embulwa
uBharakhi
liber@@
nguJ@@
resort
bafikelele
fits
Isibindi
ngew@@
Kukuphi
Ukufundisa
imiph@@
Mowabi
welana
sihlanganyela
alethe
’S
defended
conclusions
ifumeneko
alienated
Judaism
wamkhuthaza
kubhajadiswa
ukufeza
grac@@
grasping
betrayal
Ngakwelinye
Idumo
cat@@
emlilweni
lady
prisons
ebusweni
sibh@@
altern@@
rholo
bayang@@
batshwenyekile
shocking
weB@@
journal
ombeni
nemikhumbul@@
ebebalapho
Hag
Nengineemnyaka
Uf@@
moment@@
sizokutjengisa
Columbus
safunda
jalo
questioning
weT@@
acabangele
ngomhlatjelo
akheka
obligations
siyinto
wokuthokoza
osekela
waneni
lobuphephelo
litlolwe
abazinikeleko
yatlola
asifundise
balwele
Prac@@
neemsebenzi
INTO
Sal@@
undertone
indwa
tjiseko
kwathonywa
reprove
ipoto
loliwe
ilayela
seban@@
nasiya
tyr@@
band
ePumalanga
akusiwo
yepilo
ento
umnganami
fatherly
kuThimothi
host
discipl@@
itshwenyeke
submitted
weak@@
AKHO
pronounced
rhubi
Newenza
sisith@@
desert
Abodade
fanele
avel
makhe
etjisakalo
ason
tragedies
Zing@@
persecute
imizwa
ikhumb@@
asesematjha
Festival
Hos
ND@@
ahlath@@
nesifundweni
lyrics
Convention
ngamala
wenarha
rhol@@
sabazalwana
contrasts
paper
1870
weJarimani
izinisi
umkhanyo
akweso
Nangu
predicament
Yelelani
featured
ezirarako
khalinywa
manaba
bekufanele
nokukhohlakala
ududu
ukuvikeleka
esingasifunda
ikhulume
1984
vivid
sikholelwa
ubela
yanikela
ivuma
border
emnqophweni
wakwaMagogi
baqiniseka
Buddh@@
nokubhajadiswa
recipe
inenu
wamenza
beem@@
Togo
cou@@
trade
uNathan
okuzaza
tied
round
ngakhamba
kuqinisa
akhiweni
hence
namabuthwakhe
ayelwa
isimilo
usebenzela
zizabe
ngamaph@@
entjhe
wonders
enzima
Ahab’s
osithabisa
Zakariya
justified
eral
phambeneko
wehle
depart
itjelani
uDavide
pictured
sook
USSR
bazoz@@
ehlakalwezi
abafowenu
Meeting
akhesicoce
eliseBhayibhelini
Russian
emahl@@
uluswa
amounts
khumbulwakho
prompt
anta
esizathu
abha
ekoloy@@
acknowledging
mob
165
gidingwa
akutlhogako
umal@@
naba@@
Fundi
abangezwako
igamele
nesithi
owaziwa
establishment
nendodakaz@@
sizuzisa
nakhona
angakholwako
Watjho
greeting
Singabukrestu
ziingilozi
iseke
ebekasolo
acabangisisa
Matthew’s
dal@@
abodorhodere
njengomunye
dephisa
keeper
awareness
wabasiza
Surv@@
atshwenyekile
ubhi
LakaJehova
Neighbor
ungasisiza
KUBAYINI
Waph@@
nayithi
komKrestu
ove
wavakatjhela
nenze
iphuzweli
asibusise
commemorate
ukusib@@
kusesen@@
guarantees
LIFE
ngemin@@
Genuine
ikeleka
ington
sowing
ngiyanitjela
kuragela
asibulula
ebesil@@
ica
lodging
basela
isabo
sifaka
obhuza
ithandathu
mphristi
ongangani
newborn
engikuf@@
eV@@
ajamele
sokuph@@
Lelo
etempeleni
nokutjengisa
idelane
ngokulandela
unshakable
ax@@
displeasing
yamanga
lobo
ukutjhugululwa
ngubaba
santambama
ababonakala
bekhe
ngibh@@
wedlock
beenkolo
wekholo
lokulunga
okomlando
ukududuza
Bet@@
wilisa
ongib@@
UmTjhumayeli
fortified
scared
mystery
imigom@@
ngokufundisa
Aha@@
igqaja
thembako
lulisela
nezulwini
zifana
waphathwa
compar@@
eyang@@
identifying
fame
wazimisela
tlhu@@
jameli
edro
breastplate
sooner
ephuma
talent
ngokuseduze
ehlanzekileko
ERE
atjhidelana
BO@@
momentous
ukukub@@
Ananiyasi
correctly
aliphi
Pentekosi
alisi
Isiv@@
chur@@
prone
qinisekiso
sikhetha
60@@
simbi
UJeremiya
impressive
ubhalelwe
upheleko
iqu
30@@
esifitjhani
ngoMosi
Strong
abanekholo
betray
ngesid@@
kha
anointing
ther@@
ekil@@
owo
yesivumelwano
X@@
bod@@
nangeen@@
eggs
wabapristi
ithumba
ogwana
ahlek@@
ezithabisa
Galile
kusuke
detect
indiswe
Queen
ngokuthini
arguments
usuku
umileko
sivakatjhela
Colossae
lulileko
umg@@
Ngokuvamileko
rag@@
alwisane
ihloswakhe
litjhidela
Syria
Been
recordings
maj@@
construc@@
amakarada
Emthandaz@@
ngokukhulekela
parted
decisively
Best
yokuzitjhugulukela
stewardship
babaz@@
sihlakaniphile
1986
ngabazalwana
Eenarheni
besigodi
mistaken
agele
uPeter
institutions
confined
aditjhe
Ukungatjhadi
iphakamisa
phanie
Ekuphileni
conscientious
leb@@
arhulumende
breaks
ahlola
singaragela
bon
Nem@@
elelana
reporting
uzicabange
Tob@@
obekas@@
virtue
amadanisa
rho@@
ukuzibekela
ghono
kaPitrosi
somndeni
ukude
waphela
sivikele
ext@@
rey@@
Hlo@@
ucabang@@
Sithokoza
Kuyangithabisa
dev@@
simdumise
ikhumbulo
vengeance
Isenzo
nekambiso
Usebenzisa
Dem@@
lifundisa
wekhomba
sely
nokuhlangabezanwe
filling
Aquila
abhebhe@@
tance
capt@@
incapable
eziw@@
Amanaba
abofakazi
encwajana
umethe
2018
ngomhla
Fine
labanye
imm@@
nekonzwakhe
ziinsimbi
shel@@
sakhuluma
iinkhambi
obusa
ezab@@
beyi@@
Willie
DVD
nursing
Lam@@
nekhaya
RES@@
anganam@@
wondering
Bhar@@
Izimpendulo
Testimonium
Tjhad@@
ivumeli
unqophisa
ikapho
terror
aneliseke
Ukupha
adlumbana
sitjhaphuluke
uthaba
ngokuthembela
esigaba
seeks
uttered
infl@@
ongabonakaliko
uhlangana
achieved
shad@@
ngokusinikela
esiyitlhogako
onyelwe
Words
Lazaru
muster
sizokuragela
owahl@@
wadlulisela
abaling@@
kuzwa
ngunina
workplace
oMkhulu
ingasisiza
ikghone
Starting
akutjhiya
exerted
kwabikezelwa
Hab
nakal@@
itjhumayelako
bebaphila
nala
akhulekela
yendoda
imbatha
prince
esiza
ility
idisela
okukarisako
rice
ngekoloyi
Hezekiya
Nakakhuluma
Patrick
azithembi
kunab@@
izom@@
yinyama
ivusa
awu
struggles
isiling@@
container
broad
d’Ivoire
siyab@@
uziphe
singa@@
nganakhe
asibawa
umrhatjho
decree
ca
dict@@
nakuJehova
attr@@
utjhadile
privacy
bathola
umdali
lor@@
alifumana
ngokokuziphatha
tful
elethe
Ha@@
ngon@@
expansion
denied
ukuhlawulela
afundani
arhatjh@@
Nabantu
Njengomuntu
tracks
andlela
zinze
ause
onze
okubandakanyekileko
sizokuthabela
presentations
enezo
alithoba
Expres@@
lango
trespasses
ukuthuthela
yint@@
zokuthi
Bekahlala
ukhambisana
ebi
eMthethweni
agrees
iimzam@@
cries
ufundisa
Kwethu
kwelihlo
UNYE
iously
uBhali
uzokuthabela
umntaz@@
naseb@@
ezihlanganisa
Ukubeka
otjeni
ukuphikiswa
esanikelwa
eenyangeni
tlhogomeli
omnotho
Women
Sibuye
iphileli
ngokubanikela
bayakuthanda
leFilipi
abhabhadis@@
cars
ungazimbi
engangani
iNyaka
imply
snares
NJENGOMBANA
thembiso
Wahlala
imikhumbulwabo
emehlwenabo
abakwenzileko
yiBhabheli
ekunikeleni
aching
stal@@
Cur@@
utjhidele
Carol
1915
Thand@@
nok@@
alenta
unembeza
akasim@@
AHL@@
abodadwethu
ikhohlisa
Wam@@
ngenzeni
1927
Suiter
ntwanami
ubukhohlakali
uzokutjhabalalisa
Britannica
Fri@@
nesibona
liqakatheke
Committees
baphristi
Kulilungelo
tjalo
Kwamva
stra@@
wokupha
uyangezelela
Ziyini
amap@@
sikhule
Kyrgyz
agogini
Thatha
upheko
Bre@@
Cain’s
asimaJuda
umbonwakhe
donated
Samsoni
ngokuqala
Njenge@@
ophanako
defending
kunangaphambili
ibizwelo
Amagama
akhohliswa
shaken
vulela
Olungileko
unexpectedly
eRussia
Bas@@
ukumadanisa
prostitute
preservation
bakul@@
njengengcenye
nahlangana
abor@@
WAS
elezela
esinjeng@@
eselo
azuze
zokuhlala
kwesithi
Near
nangokw@@
rival
ikhomba
ethand@@
akusikho
afaniko
NginguJehova
computers
sidl@@
costly
bethando
imithethwakhe
inscription
disabled
ukumthanda
Finding
kukhulu
incor@@
Bapt@@
azenze
hola
Iba
ZU
t’s
owell
asilalela
representing
ubalekela
leencwadi
izwisisako
aphristi
harmless
parental
IVF
owing
onzwethu
wok@@
akusizo
howazi
uqinisile
iimvumelwano
aler@@
ros@@
trains
rape
upholding
wamath@@
thize
zizaliseke
Aga
Kusepepeneneni
eregelana
abakghona
struc@@
Rom@@
torment
ababuthakathaka
okhulileko
ney
jikelezi
iphendulela
omesabako
trapped
manengi
awulo
Phezulu
kusitjela
sizokuphendula
sitjhentjhe
zomthetho
nabezwa
wesibanda
lowed
abakwenza
asivikela
tactful
esizifumana
Answered
singan@@
sun@@
uneni
ukghona
apocrypha
kobu@@
UJoshuwa
counteract
ngikwazi
ababiza
Child
Samaritans
anyway
utor
abasebenzela
Adri@@
nemindenabo
mp@@
neglected
kokulungileko
princes
160
Ilimi
discerned
isn’t
Thankfully
practic@@
Thalesi
runner
consumed
thrive
aneliswe
ozokwenza
prepares
lizale
itjelwa
ukungalungi
Moab
akufundisako
Zakho
flat@@
excessively
evukweni
analwazi
Amatjhuguluko
ayindoda
esadlulako
watjhentjha
appropriately
coin
eyas@@
acquired
disappointments
horiz@@
baseball
kwad@@
ungele
nangezinye
alingwa
distinc@@
saragela
FRE@@
nekezwa
am’s
manager
alahlekelwa
Cat@@
sole
akusekela
uBill
TH
lokusiza
tension
irib@@
Pharisee
indle
confused
ICE
sokuragela
plagued
brochures
Ezisebenzayo
nesazela
Lang@@
styles
njengelungelo
uDon
ngomtlolo
othobotho
appreh@@
ekufumaneni
communicates
tar@@
dy
esel@@
lisinikela
insist
shortcomings
umtjhadwakho
kaSomnini
FEB@@
isihlohlo
Fre@@
483
Igadango
Abiya
ips
ient
weleni
son@@
lest
babuse
nokwakha
embr@@
bengiku@@
lec@@
zihlala
ebeyin@@
Ivuko
Was@@
womtjali
env@@
disobeying
ukubelethwa
Rarhabu
Nesi@@
njengomntwana
lekolo
somsebenzi
likukuthi
runners
multiple
okunjeng@@
harlot
zithutha
wande
converse
battles
faneli
frame
dad
sinekholo
oneself
ukulindela
covenants
aseminyakeni
bekuqakatheke
contemplating
Abishai
ibly
exceptional
tjhatjululwa
sokuziphatha
bangaphambi
afanele
isol@@
vol@@
atjhidele
corpse
adequate
1964
aqinileko
nomlando
ruining
baphume
Shepherds
boy@@
Hosea
erless
ngokungafani
reinforce
onakalo
eListra
nokutlhaga
Waragela
OD
zakaKrestu
ngokuzinikela
uselelwa
ingaphakathi
uduzako
prays
chem@@
roc@@
Ibizweli
wokuhlakanipha
nebabona
ihlanga
zak@@
eemf@@
utjwa
okhona
existing
oting
ezithandwa
responding
akhohlisako
akulahla
Rul@@
bethwa
circumstance
ibamba
person@@
itshwenye
ngezono
adulthood
Hloko
Wo@@
ert@@
ngokucabangela
yp@@
Izintwezi
wash
bokuhlongakalelwa
eembalwa
lows
amalungel@@
Down
batjhiya
Pho@@
learners
zalisa
omed
sizithobe
progressively
improving
mortal
poses
engil@@
ee
Science
rian
isidiribe
engu
abarholopheleko
timela
weentjhabatjhaba
breathing
uzenze
ritual
Training
Antioch
lesono
ithandaze
emtlhaleni
belizoku@@
persistent
Laurie
accuracy
Kal@@
silibalele
arrest
ici
ngokwami
distribute
ikhath@@
consci@@
aureen
Abatloli
banesikhathi
OTHER
Syrian
ebanganini
Sanderson
disagree
evumako
okulula
Paula
omako
Umsebenzethu
thi@@
bekud@@
communicating
bafundisi
ideal
rabhela
eyakhako
prevailed
wesitjhaba
strengths
ngoMeyi
issued
aleliko
stretch
ekucabangeni
angaw@@
planets
zathi
ngeemnyaka
azibeka
Experi@@
disturbing
andakanyi
farther
troops
sithiyo
instituted
disgus@@
ehliziywenami
clergymen
ean
batlole
voc@@
Ngobusuku
ambiza
epepeneneni
Ukubekezela
nokulila
encountered
acha@@
kuzokuhlala
yafumana
en’t
rup@@
fundo
elaveke
Edenic
udla
qhemeni
otjhwe
province
ikhambela
humanity
kaNuwa
cas@@
Phe@@
lizokukhula
ebekakhuluma
canceled
singatjengisa
Ethandweni
bahlule
accusation
drunk
isaba
sokukholwa
isikhumbuzo
ibonako
Seeking
azwis@@
ukunc@@
weencwadi
sperm
bayabathanda
nasifika
Kuzabe
SH@@
emergency
emezwinakhe
presenting
kwak@@
ustin
wangibawa
films
kn@@
pronoun@@
beasts
ulated
anguish
alcoholic
epil@@
seldom
eing
ngemsithelweni
preserving
Waldo
communities
sifundo
ukufaneleka
bosom
imindenethu
urgently
tense
liter@@
hath@@
swift
esikufumana
wabulunga
siyamthemba
regarded
wid@@
comb@@
molds
rooted
outward
icwengisa
ngamaphuzu
threaten
isanani
uted
TT@@
alibalela
basolo
remar@@
Lorraine
reactions
overlooked
butjengisa
eziphumelelako
attachment
ukumisako
singakapheleli
ubuhlakani
ensible
ukhi
Enoke
ayif@@
bekul@@
tenth
enawo
namalungelo
THI@@
ota
provoked
arian
njengenceku
Bengicabanga
Evil
Cl@@
sikhatheso
neenthunywa
arranging
wore
mur@@
wanqophisa
atheist
lhu@@
Isithemb@@
ULO
emption
Safeguard
damaging
elihlweni
neBhayibhili
hasty
ga@@
Ros@@
od
abasize
yokubekezela
foretells
congregation’s
educational
hu
ajayel@@
mumukghwa
qalako
presiding
ekudumiseni
yokulala
Ngokutjho
arity
dragon
Akubuzwa
lin
8,@@
asabi
Mid@@
rough
umsizi
lokukhetha
ikhulumako
ivula
physician
han@@
Guide
Sadducees
ezihlobene
separ@@
yokuthandaza
ushing
recognizes
kayi
qopha
NO
kusifundisani
iphilela
edi
komo
ner@@
ukukubona
ungafunda
esidleni
esinceleni
hlanganise
unnatural
ikelekileko
utter@@
lock
Thousands
enwe
engasirhelebha
angathomi
URarhabu
Pioneers
ukuphaphama
sisifundisa
itlole
iyani
kosa
lilifa
Abatjhadikazi
beka@@
isenzakalwesi
wabanisa
kona
pool
noGoliyadi
commenting
nabathoma
abus@@
Abososayensi
gqil@@
Husbands
Eenyangeni
abalingisa
siqhema
oloy@@
ezwethu
ihlekileko
bamsize
buzokuba
Yakho
singalindela
kubazalwana
Inj@@
bendaweni
hous@@
aliph@@
UMBUZO
njengami
Ukuzaliseka
entang@@
utlhog@@
homosexuality
wokukhuluma
omba
sev@@
olele
ukuphuluswa
UMarta
cwengeka
yelelisa
costs
singabasiza
kuMosi
aling
kwaboFakazi
qond@@
abandule
unlikely
balindile
lights
ifanek@@
uhlakaniphile
njengesithunywa
oPhakemeko
wamag@@
beset
nenaba
wakhumbuza
phele
sendaweni
Tas@@
ngisebenzisa
ette
abaphe
ungenzi
eluleko
Mike
isiqabo
accomplishment
permits
Jairo’s
Similar
ihlanu
inqophise
singatjh@@
abobani
nebandlululo
Meaning
ngikhona
iimhlobo
solutions
wamusa
withstand
ngekupheleni
simil@@
siyam@@
amatalende
neenarheni
azif@@
esingokomthetho
babawe
iimbonakaliso
uMuphi
hlangene
ozinikeleko
rhoba
wokug@@
umkhawulo
singekhe
ukusifundisa
wokufa
ngeenqunto
uyabona
perceptive
asibumbe
Ngokwes@@
iniweko
nikazi
umtjhad@@
seat
Gal@@
eembilezi
dismiss
kayise
nevuko
Lamech
yezenzo
nabangakalungi
afikelele
testify
fosters
abizo
kusasele
aziph@@
yaziwa
tjalileko
Midiyani
ngeengilozi
obuz@@
emanyath@@
intervened
kghaphela
umguruguru
enjelwa
ngokwezinga
esimthanda
nqotjhiswa
itjhefu
eJudiya
mbuzo
nqophileko
woM@@
anilibalela
ohlukeneko
Ithi
nesiko
alitjho
bekungekhe
guess
wabafundi
Gar@@
nabalingani
nemig@@
mentioning
omnandi
abhal@@
nemibuzo
ast
imag@@
asokana
petition
onakaliswe
sikhula
lisifundisa
Century
Ukuhlola
lephuluso
bazibuza
Iseluleko
kwamhlokho
elifaneleko
bajayele
ongelwa
angakghoni
bekanelungelo
ned@@
kokusebenzisa
LINGISA
arhedeni
adaba
resc@@
abhiliyoni
orobh@@
abakholwa
dlela
likes
agadesi
lephasini
ukubandulwa
afile
ukudela
beyil@@
sibathanda
namabanga
nyakeni
overtake
entjhile
minyaka
ngokutjho
yew@@
waml@@
Ekhaya
sakam@@
Ukuqalana
sokunikela
ungith@@
bekungasilula
Uqinisile
Sifumana
bun@@
komtjhado
Sond@@
nr
ndenini
Okuhlangabezanwe
harmonize
wasala
utjhiswa
boost
Burrus
kuDavidi
tjharag@@
ampa
yekuthomeni
elisekhasini
umkhwenyana
ejako
lenze
Navane
kusibusiso
amahlaya
Miriam
abalele
mthwalo
helebha
Rute
bait
lhoriswe
Wahl@@
ekhambisana
uthelwa
ngekuthalo
selwa
wamukele
ithabe
abhajadisiwe
kampostoli
negunya
kungekhe
barh@@
Nomakhelwana
sithemba
ATJH@@
eBhayibheli
azithabela
ekwakhe
abat@@
elinesihloko
Njenganje
med@@
nomfanekiso
emath@@
onalo
Izimvu
sepepeneneni
akubone
organizing
Khetha
Phasi
cweng@@
engise
ukubatjela
yesiNgisi
abhalelwe
surpasses
phathiswa
esihlalo
ete
Lakhe
njengomncani
akholwe
langelinye
schooling
safika
Themba
Zer@@
nabafunda
wand@@
uthukela
kusame
Caiaphas
nomf@@
ekugandelelweni
Asin@@
asebenzele
ngeNdodana
otela
yeencwadi
Marie
Apr
murdered
ukuvuthwa
wheelchair
pushing
betjhwa
yegatja
komphefumulo
ezikhamba
imirarwethu
engath@@
oleka
lotjhisa
ukwesaba
baso
bujamo
Umntwana
ramu
ITJH@@
kwangaphandle
saso
encekwini
ukukutjho
anelisekile
sila
kuzinzolwazi
azikhakhazisa
Abarhubhululi
Ukugula
emsebenzinami
nomuthi
kingly
atjhumayeli
iselelwe
ngelithi
ukuraga
concludes
nokukhonza
Bengizizwa
ukudl@@
balabo
Uyay@@
ubuphayona
entwana
nangeqiniso
bangamlingisa
qophwakhe
weKonzo
ukghodlhelele
aggressive
ither
cave
kuseduze
intact
emer@@
likit@@
isebenzisi
ufisa
thembela
ebuhlungwini
Kayini
kuzaliseke
abavamileko
nebujamweni
Abatjhadileko
isokhu
madimoni
ikwekwezi
babadala
wesondo
asisekelo
admire
uthiwe
Isiyeleliso
ubupristi
Jakobosi
ibil@@
leKomidi
Nigeria
yokufuna
amehlwakho
lokungapheleli
ukuphikisa
Iimporofido
collected
unfaithfulness
nabangakholwako
amiliyoni
schemes
enligh@@
angezelela
Umz@@
ulekele
abasil@@
umul@@
emil@@
bengisebenza
symbolize
excl@@
Ngilinga
ua
eziveza
ongasim@@
ngesisekelo
ungan@@
babangani
adose
esisekelwe
ezimnandezi
hayisikopo
uZefaniya
UJotjhuwa
nawukhuluma
babanye
wadlul@@
ictions
Australian
ogada
atjana
Prepare
speakers
yim@@
wakwazi
kunomunye
Bekuz@@
bekalindele
onakaliko
bongazimbi
Mediterranean
ezizosisiza
eenkhundleni
Pumalanga
essed
Esiz@@
khuthazako
uRh@@
uzalisa
Blessing
kungafaniswa
destroys
ekulumweni
ngokuthandaza
abangakghoni
commun@@
148
alicwengiswe
esibanda
nesivikelo
alingise
engela
atjhiywa
vacation
emfazini
kusesenesikhathi
enyelwa
waphasi
abogaboga
kwekosi
okud@@
amaziko
argued
rocks
abaqinisa
idosa
lodwa
bangazi
namehl@@
ekelela
abelwa
wajama
siyokutjhumayela
pornographic
aphethwe
Emalangeni
levuko
salabo
lisisa
esikutjhoko
ahlukeneko
waphi
unch
azokub@@
kwababelethi
angaphasi
abaseminyakeni
Drawing
eTurkey
ziinkanuko
ihlanganyele
Kuzokwenzekani
engiswa
bangak@@
nguDeveli
labazesiweko
climax
emzin@@
housing
cy@@
lingasisiza
phambeko
athandeka
aphili
bokutholwa
King’s
erhelweni
characterized
ngelungelo
disrespectful
angaqalana
beenjomani
jeziso
zombuso
nokufumana
atlhal@@
lokusebenzisa
Jezebheli
lombusweli
Yonyaka
tary
minimize
nene
ngokuphela
esingeze
ufana
singakubalekela
tjengiswa
iimphiwo
lokuhlola
ophethwe
eSpain
synagogues
ngePhasika
qatjh@@
Gidiyoni
bangahlala
mbo
Asik@@
uyaph@@
dosi
ngokhunye
7,@@
okwenziwe
sokusebenzisa
gener@@
Ukubhajadiswa
yaf@@
sometime
zo
ihlolisisa
tho
kulumiswano
ngentando
arisa
azimlando
emaf@@
watlhog@@
okuseenhliziyweni
Nekakhuluma
ebesib@@
iyingcenye
Fellow
balazi
ngezamambala
ngambala
akenzi
ukukhulekelwa
udlelwana
USte@@
isebenzele
kwamthabisa
occur@@
nokubona
kokubhajadiswa
flame
Kungokufanako
bekusikhathi
kwakhiwe
olela
nasitjhumayela
akarisa
bekad@@
esiveleleko
Ungafumana
zokuzithandela
ngoJanabari
sibusisa
FE@@
odanethu
agijim@@
thandiko
ngabhabhadiswa
UKWAZI
NGATHI
isihlobo
womgunyathi
UMAY@@
wamaph@@
kubafundi
Ukuzimisela
nawub@@
ithembekile
Me@@
Umngani
tjhumi
wakosontjhaba
bacoce
bahlangane
emalung@@
bangathi
Asebenzisa
iqiza
kusikhumbuza
eembusisweni
ukweni
deprive
Building
akwaba
angakwazi
evane
ungulwa
nokulandela
ahlekisa
barren
ikhawulo
phathele
esihlengo
ngesiZulu
weCanada
kokumbi
bekanethemba
esetjenziswa
eyabangela
Nizakuba
Evidence
Farisi
kusekelwe
ngonyaka
dumise
decay
ngokomfanekiso
kwaletha
odosa
footsteps
ozob@@
akasing@@
savings
embraced
wakale
liba
ees
Beginning
lesigiyani
eziphuma
aphume
itjhutjhiso
Ngarareka
unds
patients
ayithatha
plac@@
founding
acabangeli
uSanirheribu
pouring
kuyamthabisa
kungenye
ukutjhutjhiswa
ngokwem@@
iribidela
isizukulwanesi
baphapheme
zifumaneka
izim@@
emNyangweni
oaths
victorious
noburego
zibh@@
ME@@
disrupt
Wathandaza
abaziphatha
ared
lotjh@@
nengcoco
akhuthazana
elijayelekileko
rhunyeziweko
abangamesabiko
wokubusa
nokuzwa
idingwa
lokubizwa
ngabacwengileko
sesizi
Siw@@
Encour@@
atjhejwa
merchant
AmaRoma
Verse
Nekwenzeka
kwenzekeni
uyiKosi
uStephen
firstfruits
bavakatjhela
ifted
inya
kusebenza
kle
ongi
sizoy@@
Ye
ebogabogako
edala
komnqopho
ucabangisise
sibek@@
114
qin@@
messengers
Phrofesa
uyayizwa
lev@@
alia
GAL
etjha
Ledumo
njengendlela
akamako
Bear
iant
epakameni
akuzuza
azalwana
UMichael
nebaz@@
leLizwi
Die
ilimeli
sifund@@
conv@@
insul@@
hanghisana
prevalent
kusele
rhubhulula
atlhogonyelwa
Komidi
jadu
eseleko
Wakhetha
weq@@
nganaku
HASI
ethaberinakeli
cwele
esibandulwe
ingasaphathwa
interrup@@
uBabakhe
Georgia
prec@@
thabise
settling
functions
Ukwamukela
huwelela
edla
IBHAYIBHILI
ngaragela
izwela
milk
amajoni
abavangeli
kinabo
sesin@@
komlando
Creator’s
kusuka
Kusebaleni
zimisele
ovulekileko
ngeL@@
they@@
ngurhulumende
emnyangweni
wekuthomeni
wakubeka
singayisebenzisa
Isig@@
abelethelwa
ikhambile
ebuth@@
itate
devoting
eniy@@
uGary
kuzaku@@
beyith@@
amapholisa
kets
amabele
afaki
inal
afeyi
impul@@
Wafunda
nyak@@
itsh@@
njengoKrestu
Alic@@
ilile
kusisipho
njengalabo
division
recommends
Octoba
UBhar@@
abany@@
ebebathanda
loose
abatjele
iphuma
ngikhamba
irhaw@@
Iinth@@
sahlangana
yemisebenzi
ideza
strategy
echo@@
lihlanganisa
Jehoram
expos@@
explanations
bazifumana
areko
urhise
umrholi
healthful
atlhogomeli
gada
ekubuseni
1908
1959
ezilithoba
irabhu
uyababusisa
inn@@
appetite
bomthetho
yokugadangisa
imagination
confession
kukhuluma
neempendulo
hara
Ney@@
kukghoneke
courty@@
kaPothifara
amavili
sustenance
inywa
afuthi
improv@@
wamalanga
encamp@@
anny
Rights
Nasis@@
ingenza
Youth
isiphaphamtjhini
Ungazibuza
relating
ekwenzeka
akatjhelwa
Emperor
upheld
ukufakaza
luxur@@
ikhotho
wili
screaming
liselela
elizwini
hegana
supporters
kunzi
wadl@@
iSingabukrestu
ukuthumba
liphilile
ubulwelwe
ekutlhogomeleni
gadangiswa
engasil@@
zenukliyasi
sensed
eendlela
emizinabo
njengombelethi
kuyafana
njengabanye
aseBhayibhelini
sekululeko
iti
bekathobekile
eMalawi
HULU
expanded
kne@@
enzakalweni
ivumelane
ELI@@
ndla
ukubekwa
isaneni
sakaDavida
kungenzeki
stirring
yeGetsemani
governed
baveza
noMosisi
uMelusi
Funani
emgodini
ack@@
faithless
Sabatha
deepened
Encyclopædia
ebezibuswa
nabanakwabo
kududuza
wobutjha
nekaneminyaka
enokho
babuyisane
utjhumayele
Umukghwa
thandwa
bahlongakala
temper@@
Uv@@
neGomora
ubuzibulo
okuhlakanipha
uSteve
ENCE
afundwa
ghoba
sebenzami
nekukghonekako
azindla
ezimhlophe
ukuhlolisisa
khambis@@
ebekafuna
iyal@@
amagadangwakhe
ulandela
sarifathi
Asil@@
Abam@@
alizing
ugwili
ematjh@@
epheru
Sekusikhathi
abangas@@
enyoka
kuthinta
aziphathe
Nil@@
uyeza
kungilapho
ngithanda
okuziphatha
nenduduzo
ulungi
azwakala
laziwe
intrigued
bazibuze
inganiselweko
yeenk@@
cocela
noS@@
babantwana
anelekele
esilapheleko
kokuzwa
aziindlhadlha
tswe
kulawula
abangay@@
atjangwa
namabutho
Galeliya
elisephasini
helebho
sokuphumula
Ngethando
phazima
Kwenziwa
kokuthatha
endul@@
khey@@
ALL
excuses
bayokutjhumayela
competition
esinqophisweni
mourn
esiphephelo
enyezelwa
sabofakazi
anoint
immune
neengidigidi
kulemuka
Choong
libonakala
ukurhaba
ulwisana
uGehazi
efumulelwa
welobu
ulsion
Line
umtjh@@
sesithathu
Caribbean
unembez@@
André
UNathani
terr@@
w16.0@@
enticements
heated
nomphristi
njengombonisi
warh@@
landelande
mec@@
ukubonelela
izokuphela
iimnqoph@@
QUESTION
ongs
esingaph@@
department
akateleli
iphakathi
ezisisiza
uvakatjhele
dispensing
wenye
abos@@
nokungazwani
devices
ubasize
kwamasondo
leper
Singaw@@
okufumaneka
THI
elwani
sizokuth@@
Praise
ngobukhali
okutjhoko
lethela
Euphrates
ombana
eyam@@
presumptuous
anaye
bulawa
yeeng@@
ekthr@@
Kokubili
Western
ngeemfanelo
okuhlola
sesikhathi
imbe
ILO
extends
walwa
game
flo@@
abangakafundi
nemisebenzini
Nat@@
ukusolo
joy@@
wesiGirigi
neend@@
zamaKrestu
silwisana
elec@@
ept
sum@@
113
kuhlathulula
nehliziywakhe
uyaphi
cent
kweengazi
awathatha
itjeli
Efrayimu
eyisa
Hindu
iyoku@@
bekakuthabela
ARI
inappropriate
uzokuzaliseka
Ukuv@@
ebeyizoku@@
angid@@
nawum@@
silungile
ngoJosefa
func@@
erhe
noz@@
Umuthi
utjhidelene
nekatlolela
yazi
bekungas@@
tional
ilekwaba
uity
iguel
umkhulekeli
wesithathu
watch@@
fashioned
compromising
Perrine
Por@@
abanelemuko
akholwako
Niniva
crip@@
earliest
0
enzweso
tal@@
singabona
wahlulela
seats
mbelethi
evol@@
madodana
ngilesi
Rac@@
interpreted
Mankind
outline
Bhali
kwabuphi
ebelin@@
ebhanga
esiphelo
glimpse
kweentjhijilo
Janeiro
Fathers
kokufumana
crow@@
linganisela
evang@@
leenhl@@
omude
web
Ungabasiza
ngemiz@@
lacks
Isiphetho
Bekutlhogeka
Prayers
anted
Jaracz
bazokuqalana
motion
engidi
omumuntu
innermost
Ple@@
nesitjhijilo
Union
myth
umakhi
homb@@
ces
unc@@
unesikhathi
tern
emitjha
Adria
ikululekwabo
Histor@@
mok
absence
erce
anjeni
Erich
amakhoboka
bekutjengisa
passes
evangeli
soci@@
siege
Graz
eld@@
Hluleli
swiftly
Isaac’s
trace
Asib@@
ulinde
Iscariot
Bus@@
ler
ugogo
wayward
elig@@
akany@@
ukutj@@
pot@@
contract
cerem@@
extension
urhanyarhanya
bos@@
oking
Angel@@
aphazwa
eziku@@
babhalelwe
gardener
ells
Whose
Guided
khonz@@
nalitho
elingu@@
njengethuba
sikiny@@
ifu
babantwabo
screen
Syriac
akokhu
kusis@@
ngesig@@
athandazele
Bengisolo
intensify
dish
esifundo
ngekumbeni
iincwadezi
bezinto
wabas@@
Differ@@
wakuthabela
minute
Constantine
abatj@@
bri@@
amounted
Emil
Sch@@
iro
rained
dignified
kuzokuth@@
suswa
Hundreds
yard
equivalent
sinje
illustr@@
tombs
beside
umthandaz@@
kusatlhogeka
enyisako
1928
Sol@@
Ngibo
utjela
EBhayibhilini
Isibusiso
omboro
queen
ibonakale
nakanye
gravity
Iimbono
ngokufumana
ngesiluleko
akalela
conflicting
udis@@
yababelethi
presently
ECHR
wemihleni
iqinisweli
quntwa
conceal
Nasin@@
instructor
unjustly
precise
umiko
nakuwe
nawufuna
ebekam@@
pi@@
band@@
UMbumbi
weTesalonika
amalangana
livalo
isiwuruwuru
KaNkulunkulu
hohlisi
Okumbi
ngokukhetha
Div@@
hopeless
elungiselelweni
aden
commitment
ngeenkulungwana
Bronx
traffic
ubus@@
Jersey
nomtlhago
emibuzo
humiliated
committee
Stephanie
libal@@
emveke
balokho
akahlosi
Norway
shouting
icala
OR
namanab@@
restraint
climb
unguKrestu
lame
Than
inds
ethinta
rom@@
ville
advis@@
abusise
ukuvumelana
eseduze
cooperated
reader
bishop
solemn
relax@@
nel
ukupho@@
aled
humb@@
ultimate
reunited
nuns
intimidated
endanger
pillars
liphila
uvikela
Oliv@@
demba
kweni
hel
anekiselwa
isiy@@
kweemveke
fervently
ifting
Ngiyakuthanda
ikhambisane
alingeka
akhosi
ern
kg@@
Elsie
administration
kwakaKukhulamungu
Sinai
itjhugulul@@
rightness
esingasiza
ahlabako
sokukhulekela
ziqala
namaziz@@
ngelokuthi
stitute
bamtjela
Money
angabhubhi
ukeja
sithandazela
Henschel
ajamelana
ogabogako
decade
Erica
ibhay@@
migr@@
itism
nasihl@@
chron@@
bent
coins
kuthabele
anyekele
yenziwa
seized
blamed
sithinta
concluding
akubonako
EST
nokulitjalelwa
Badala
sidemba
Ukukhamba
atjwe
dreams
biggest
isisombululo
wafese
nesithomo
divor@@
okubonakala
230
sebandleni
recovered
kwamandl@@
njengoMesiya
abazwela
pilgr@@
planting
umat@@
Ngekhe
rhatjho
aleleni
ORI@@
abega
tjingalanga
soundness
abange
inolwana
idel@@
alahlekelwe
cultivated
kwelwandle
Gethsemane
iimfuneko
Iinz@@
uhlanganyela
pause
ukelambuso
bangibawa
uyisa
abazokusinda
bekangasi
wejele
omaziko
kwakaLazaru
nakuth@@
dawn
amhlonipha
enzalo
doves
ineemnyaka
watjhaphulula
barrier
eun@@
ngoSondo
ondliwa
forest
kol@@
Allen
ozimu
kuthathe
ö@@
phathisiweko
kwabangela
cow@@
ukuyifikelela
esilotjha
outback
Philipp@@
abb@@
silaphala
ofika
dalena
NOT
emigr@@
Aili
Common
Vitaly
Laba
kukhulunywe
proc@@
Nineveh
umeleni
labeled
yay@@
siyasith@@
short@@
ithemb@@
ngathandaza
osihlengo
imminent
amaVangeli
involvement
OF@@
1972
nginguZimakho
Broadcasting
entic@@
wathabela
nekutlhogekako
Ocean
diver@@
abahlathululela
abasebenz@@
usesemutjha
Bam@@
nebh@@
engakapheleli
agulako
reproof
unyayelwe
collector
ulukele
yokumbatha
bazokwenza
ey
ngedwa
pet
ezibudisezi
Quebec
ingekho
operating
wakwata
ukelwe
nomntazana
wabafundisa
eNdodaneni
fidelity
detr@@
exhib@@
abused
idrama
uthukako
atlhage
uhlele
nye
enziweko
Wathumela
anile
utjengise
Zimakho
Andreas
seduced
Ukuthokoza
infected
Belg@@
gaze
obuthakathaka
lions
colle@@
critic@@
esigod@@
ü@@
goat
sidembe
ephula
sekusikhathi
scre@@
Paraguay
ör@@
esizifunda
itage
zingas@@
ukane
shwenyeka
ian@@
ethandwa
Christopher
umayele
urable
misunderstandings
outl@@
beard
enomusa
Mumuntu
launched
worn
wadzimelela
enapho
ngingasililitho
ihlole
backs
abortion
listener
holelwe
poll@@
thandana
sibeka
ezitlhogekako
abahlongakalako
yikolo
anticip@@
ayithola
ngaw@@
itjhukumisele
hini
alisane
Shar@@
ond
lath@@
ukubukwa
zokukhulekela
dens
esivikelo
esithemb@@
virtually
bekumsebenzi
tasar
alungi
esikhul@@
atjhiswa
Ngizimisele
bakhuthaze
walahla
miserable
uKhayini
ger@@
awuph@@
imicabang@@
kunaye
hayifasi
Bahl@@
UKUTH@@
counting
disp@@
nokukghodlhelela
akahlelwa
ital
siseduze
veget@@
ebekazizwa
indodakwami
originate
uyasisiza
mva
COUR@@
Putukezi
kufa
upro@@
Uthini
mustard
teen@@
ukubizwa
ukubogaboga
Cambodia
earing
awak@@
yekonzo
and’@@
righ@@
izimbethu
ephasi
iinkhohlakali
exal@@
batlhoriswa
Gol@@
deleg@@
SEPT@@
Louis
Resis@@
esithunzi
emi
isiphwesi
celebrations
igedla
umzimkhulu
ebazalwaneni
ngisesemncani
director
ukona
square
kuzokuqinisa
akhulumela
ekuqal@@
Bir@@
leveland
akusebenzisa
Kim
Global
asinjalo
habhadisiweko
joyina
Isiyalo
Shulammite
documents
buildings
abadula
govern
fundako
though@@
unbaptized
ADE
kwasiza
Babantu
esteemed
END
ikaziso
sahlelwa
Ngel@@
namatjhumi
graph
orchestra
dre@@
Shebna
uyacabanga
Essly
elitlolwe
Iinhlobo
overnight
uyasiqinisekisa
Sithemba
Switzerland
esiseleko
okomthetho
adulter@@
Example
Ngokunganakuzaza
imbeleko
qophisi
notices
yafika
baziwa
qophisako
ngifune
ukubek@@
ukukhambela
likholo
DO@@
INd@@
urwini
eliZwi
akhambisane
eyenzekako
bekungatjho
attract
nekaphendula
yabikezela
nesazelo
Zi@@
nalezi
liyasitjela
okwaba
sale
sikhuthaze
azindle
ebapostolini
Nasim@@
sidlala
wasekela
Nasith@@
UPeter
ezakhe
bha
zingenza
isembatho
kwethempeli
esimsulwa
singazibuza
ngokusekelwe
reli@@
sango
igezi
Nakahlathululako
ngomzimba
isind@@
zaqobe
irhogo
Nt@@
andelela
Forever
amazizwakho
qalela
ndawo
kweth@@
basuke
okunepilo
uzokufuna
dumo
zamadoda
athole
ekubulungeni
bayam@@
abalwela
khanyisela
baphetha
lokukhuluma
quntw@@
kuzokutjengisa
Bor@@
ukwenzeka
babizwa
okod@@
bengineminyaka
basekele
akala
sanje
ebhodlako
atjhuguluke
phaph@@
magega
nomnqophwakhe
njengeng@@
nemithi
asibo
zaz@@
ahlekelwe
uluswe
acabangisise
nesipho
wasamukela
ufebe
neny@@
umsize
Gomorrah
bekusolo
ezide
kubudlhadlha
andulela
argue
sikholwe
suf@@
esiyenzela
ems@@
bekutlhoga
unalo
elingcono
nowhere
ices
abuf@@
eKanana
ngomlandu
bazokulalela
yielding
ikhupha
neengcoco
beautifully
minengi
lotjheni
ungaw@@
yamandla
eship
ukuyizwisisa
uletha
swept
sebusuku
ubhise
ngobuhl@@
sesil@@
andamele
akenzeki
ulifumene
landeli
uzokubusa
yath@@
khaya
ngakh@@
phuma
ereni
Ilangelo
Important
khambisa
fertile
bazom@@
Ngiyamthokoza
komhlolo
zeg@@
ulumende
Iinsebenzi
Bhayibhil@@
knocked
ubhad@@
tra
liqakathekile
Ungathanda
andakanyeke
demonstrates
esikufund@@
ngeenkhathezo
esinikela
sisiz@@
obugandelelako
ancing
ukusinda
eletho
enako
lamab@@
nekuvela
undwini
lolela
weko
khulekeleni
compass
batjhaphuluke
nakahlongakalako
entertain
akth@@
motivating
anesikhathi
elemuko
fiso
enethando
Ezib@@
creations
Benef@@
wil@@
adap@@
websites
emkhunjini
makholwa
isibhakabhaka
eyakh@@
opolotiki
zakaPowula
sikuf@@
avezwa
tlhagwini
ibalekela
kweyi
umland@@
nyaza
unobhala
kwesihloko
comprehension
homes@@
ngomraro
ithembisa
Courageous
lokwazi
distances
okuku@@
ickness
engizizwa
omthetho
wokuqalana
eed
avangeli
imi@@
Umqulu
ngikhulume
lombuso
pes
ezokusiza
itlolele
esiqubuthwini
kokutjhinga
umtjhadwethu
amaphilwethu
abazokuvuswa
sinombono
abathoma
uJayeli
curiosity
emaphilweni
nesin@@
Kwath@@
UNkulunkulu
Tabor
indab@@
gqibelo
enini
zii
okutlhogwa
azokubusa
kuphume
nilindile
Wil@@
bazenze
Olga
strikes
imilayezo
yipilo
kuzokuphela
kwed@@
ongo@@
sithuthuke
holwako
bavele
zubh@@
kulisizo
yokuqeda
ania
asebenzisi
somhlatjelo
ngokubhabhadiswa
kunokum@@
ateleleka
nokukhetha
abazokubusa
wabaphendula
umlinganakhe
besifunda
uY@@
kukwenze
angisa
eenhliziyo
Ungazizwa
NGAB@@
wangeenkhathi
habhadiso
umlambo
nekuv@@
ibiko
ekubunjweni
ukuletha
embezi
amazwi
Kunokuthula
womsana
ikhozi
Admittedly
okwahlulelwa
eziqinileko
esibopho
divisive
Ngacabanga
regulations
amaphilwabo
Reference
uzokuthoma
onabantwana
awini
njengomlilo
ngong@@
iimfanel@@
critics
atjhuguluko
engang@@
abelwe
Yitjho
yabatjhumayeli
CL@@
counsel@@
uyayibona
sian
esingang@@
uyiNdodana
kutlhog@@
itjhekela
ulekileko
Abakhulekeli
batjhidelene
nerh@@
nekafika
Isikolwesi
Bhabhele
ilelwa
balwela
reas@@
akabonakali
ukujama
beware
Amaqiniso
unintentional
ually
couple’s
okungaka
samadiribe
Obedi@@
balungise
itated
Contemporary
isazela
idol
eenlingweni
unduz@@
Ngambala
ahloniphi
idle
ombelethi
ibhi
abantazana
ekwabo
izitja
nemb@@
ngokuvumela
lawula
ukucabangisisa
onal
bahloniphe
isayensi
lazy
Isiphorofidwesi
Angin@@
yobuntu
uduzi
walala
iwekwaba
ehlise
nesif@@
itlhogakalo
ukuyokukhonza
sokuthanda
uZimami
onza
unjuzwa
obungafaniko
Up@@
Yourselves
wasifundisa
ekheb@@
abazikhakhazisako
ukuhloya
ifundwako
kwamthinta
emaJudeni
ukumlingisa
silale
ilesi
iimbon@@
nakuvela
autom@@
cement
onakalis@@
Nakas@@
endodakazi
kuSomnini
nayinye
tjhi
ieties
liliqiniso
awana
subsequent
incenye
UMaria
ngencwadi
Akunam@@
revelation
uzakhe
bakhule
umdlalo
uluse
tier
ngayoku@@
Flavia
onakalela
ekufuneni
zetheknoloji
distressed
divinely
newus@@
antwana
ungena
noK@@
Wathini
UnguZimu
youngest
ohlongakeleko
IMilando
enothileko
uFlebhe
ayokuv@@
kudumisa
inform
icoce
Ital@@
onganam@@
kula
liragela
bekakghona
andlelo
Besi@@
sikutjho
awav@@
efundiso
azisola
Referring
elle
nokuzith@@
observers
batjelwa
sitsirimba
ata
Ammonites
atjhapha
Elisabethi
signing
anganisa
hadelwa
myriads
wabalekela
kara
boldness
aston@@
bucket
emagunyeni
sikhundla
qotho
enele
ngik@@
umf@@
resumed
nakung@@
qalwa
utjhayi
nekuhl@@
hless
speec@@
esidlweni
khuthazeka
lokuzidela
remarks
arhabu
bangakatjhadi
mamala
umayelwenakhe
ngokwawo
burst
Cal@@
wafunga
Coast
weswa
khumbuleni
okholwako
ukulingwa
preparations
exhaus@@
lotjhako
eenzukulwaneni
umisani
Ukuzinikela
ambition
Wabatjela
uhlula
irholophele
miraro
kwesihlokwesi
Oct
utsh@@
Ezekiel’s
emavesini
besiGodlo
seenhlupheko
ifundiswa
LABO
ngokufana
nangomusa
kunobanyana
sikulungele
alistic
amagadang@@
okufundileko
isiphweso
siqakathekile
Ta@@
integr@@
ukukhuthazana
bethelwa
QALA
ungavumeli
ezinga
Ngokub@@
Kunezinto
adlulisela
angokomfanekiso
evalo
ivikeleko
wanelis@@
umelelisa
safeguarded
ungib@@
indodan@@
ekusebenzelaneni
distribution
udlelwano
ennessee
behold
esiwuphetheko
Itjhebiswano
obegade
kuw@@
umphefumul@@
Ngokwalokho
ezingakhiko
mphorofidi
wazisola
nomntwanakho
abanethando
ingcoc@@
khanyisa
fit@@
elelweni
NgoZimu
ungaqalana
Tit
nanges@@
sakaJulayi
semthethweni
sihlukile
ephandabeni
Streng@@
akuphi
ezwakala
uluphela
transmitted
nabaphristi
esilungileko
Singenzani
weenkulungwana
succumbed
esikub@@
lweni
hiding
ikazaba
emehlwenakhe
nakekela
imper@@
unthankful
ngoYise
fast@@
Basebenzisa
WORK
engenzeka
afowabo
injeng@@
ningikhumbule
zeemndeni
rests
ethrest@@
angasim@@
educ@@
ozom@@
Better
womunye
NEK@@
AZA
ekiso
YOUR
kokuya
Manoah
waq@@
inging
esithabisa
PL@@
Uyanaba
RESTU
eman
Kobunye
ngobukhulu
akhuwa
criticize
ukukuthi
seless
leMexico
esithome
kungatjhiwo
relax
wesahlulelo
ngaleyondlela
succ@@
izinzolwazi
elaneleko
leng@@
zeenceku
hed
ukusebenzisana
onelela
UHans
athinteka
ekhe@@
ILIZWI
Thandazo
back@@
Iinkhumbuzo
indaph@@
Kos@@
Unless
anelemuko
essful
ojayelekileko
inayo
itshwenyekile
prosp@@
rewarder
ongath@@
kuziphatha
guarding
stadium
opponents
greatness
athabise
Ke@@
akuzuzisa
akghodlhelele
sus@@
hlangula
farm@@
ungelelwano
Rud@@
Kat@@
noThimothi
nokuzithabisa
singakufanisa
hopho
silungiselela
anelungelo
insects
publish
Okt
incentive
sakaMosi
sinning
wanje
nebenza
ikampa
native
weSihlopha
ngokomzimba
andakanyekako
ukungab@@
abaneminyaka
LAKAZIMU
nokulwela
neenyawo
yesitjhaba
weekends
troli
amtjele
balale
mines
uhlolisisa
okuc@@
nger@@
ebujamwenobu
Ja@@
ylviana
stronghold
yeenlwana
imifuziselo
disability
core
own@@
athembise
etjenziswako
loaf
heni
itjhatjalaliswe
isiJarimani
athethe
bridge
sebandla
esithelo
kwata
kufanekisela
ngalaleli
babh@@
afudukela
Sinayi
ukufihla
laqobe
framework
sitlhaga
bekuhlanganisa
ukujayelana
hang@@
ababekwe
isikhali
beThesalonika
mails
ningabi
uHagari
Filista
noDavidi
imithandazwakho
ameli
alula
ilahli
oved
silisebenzise
ukusihl@@
phadlh@@
ngekghono
akurari
ukusindiswa
sel
khubekiso
ukuzibusa
populated
leKorinte
bakuth@@
nenging@@
lada
Ida
ukuphenduka
winning
purchased
ukhokho
wekosi
Sakho
[...]
