<unk>
<pad>
<s>
</s>
.
,
the
to
a
:
of
and
?
vo
muna
“
”
e
mu
in
that
ye
yo
kia
Nzambi
ko
​
Yave
o
is
wa
we
—
i
-
for
s@@
his
)
(
Jehovah
kwa
t@@
be
ke
I
ing
ed
you
v@@
with
’
not
ya
was
on
kuma
he
as
za
will
una
di@@
are
1
us
y@@
m@@
i@@
have
Muna
it
n@@
Yesu
O
l@@
or
our
‘
ki@@
E
dia
Jesus
God
u@@
kuna
wantu
S@@
w@@
;
A@@
e@@
es
b@@
can
The
s
M@@
c@@
in@@
be@@
un@@
do
vava
from
o@@
an@@
k@@
they
ma
who
anga
er
what
f@@
Nkand’a
p@@
salu
by
their
mvu
al@@
ana
z@@
2
kala
d@@
ol@@
er@@
mpe
en@@
lwa
an
What
E@@
a@@
all
al
T@@
O@@
L@@
K@@
Bible
N@@
him
re@@
g@@
tu@@
at@@
one
h@@
Y@@
3
el@@
diambu
kiaki
this
at
B@@
wa@@
God’s
ar@@
them
ina
il@@
people
Kansi
about
y
as@@
had
u
vana
ang@@
r@@
se
your
mi@@
muntu
were
it@@
mambu
5
W@@
6
4
ak@@
ul@@
did
R@@
es@@
t
when
ly
H@@
yovo
How
am@@
andi
ab@@
wau
ad@@
would
Jehovah’s
os@@
ation
In
’@@
vanga
!
I@@
C@@
on@@
has
us@@
nze
time
mpila
my
or@@
akaka
was@@
ntangwa
F@@
Vava
’s
ok@@
ov@@
ate
is@@
8
b
help
ac@@
7
P@@
A
9
lumbu
15
ers
may
wanga
ent
nk@@
mpasi
av@@
Nga
life
st@@
those
how
nzo
so
yayi
yandi
ns@@
12
tulenda
He
nza
lu@@
We
D@@
ila
—⁠
mia
mpangi
10
ot@@
zingu
U@@
kaka
me
ted
but
ona
zola
um@@
mfunu
ut@@
11
G@@
tufwete
th@@
Akristu
ts
wo
n
mb@@
om@@
ri@@
dis@@
ung@@
ek@@
ur@@
dina
zaya
love
more
ex@@
bav@@
out
mvovo
ala
iv@@
se@@
also
yau
good
ev@@
13
uka
her
tr@@
fu
kikilu
able
oma
way
ku@@
wat@@
ay@@
bas@@
14
Paulu
should
ch@@
kadi
some
things
wavova
ti@@
si@@
l
m
V@@
alanga
kansi
Aweyi
ag@@
mosi
wan@@
awonso
vuvu
kun@@
make
many
par@@
When
ob@@
kas@@
ated
Nkia
enda
sadila
fulu
does
nt@@
onga
li@@
op@@
if
yeto
kiese
ula
Adieyi
onganga
bak@@
17
work
end@@
even
nkutakani
sia
ke@@
nsangu
diadi
fi@@
ine
ola
16
wav@@
az@@
for@@
Paul
Ekuma
alu
mp@@
It
yawonso
mana
et@@
ambote
said
ik@@
awana
ova
others
ely
need
nkumbu
been
But
nkanda
Z@@
could
le
such
Avo
d
18
eto
mwanda
•
spirit
other
up
nkangu
ananga
au
kana
Why
kimana
Kristu
bena
res@@
de@@
j@@
konso
qu@@
day
nsi
ap@@
ec@@
kat@@
kakala
1@@
olenda
ika
J@@
Kana
kutu@@
no
me@@
und@@
wak@@
ting
example
amb@@
ayingi
kav@@
and@@
Christians
’a
20
pro@@
there
because
ilanga
man
mv@@
than
y’@@
world
ro@@
anganga
zambote
19
faith
If
ela
unu
’e
ence
adi
ele
umbangi
su@@
em@@
aweyi
ong@@
kiandi
ent@@
Kingdom
le@@
en
aka
Kintinu
congregation
For
first
:⁠
songa
ub@@
They
dilenda
ance
diaka
earth
Christian
ngindu
aku
end
kolo
ulanga
kiau
vi@@
she
akala
ame
ama
con@@
bakala
lembi
its
ally
k
avanga
Di@@
bes@@
ziku
ntima
This
these
[
]
years
know
ngolo
ambula
tuv@@
ing@@
ic@@
must
uv@@
kwikizi
ning
nkutu
family
adilanga
uk@@
idi
ntoto
wal@@
moyo
mawonso
wi@@
Ke
come
ity
bat@@
ia
yi@@
over
balenda
ce
af@@
like
bay@@
ah
yakala
ng@@
As
est
lukwikilu
ful
ous
children
way@@
ans@@
give
says
vena
nz@@
made
widi
nd@@
21
into
esi
see
th
esa
im@@
mis@@
24
19@@
nzengo
Christ
Satana
zau
kieto
sp@@
kina
22
longoka
ka
des@@
ene
You
5@@
att@@
ar
ment
ant@@
kum@@
ain
zayingi
per@@
ations
own
only
Wau
Kuna
ani
isa
de
avo
being
become
kumosi
gr@@
which
take
pl@@
á
age
ngwizani
man@@
ngangu
spiritual
tion
/
true
ings
pri@@
bev@@
ci@@
king
ones
nkia
ati@@
ludi
Nkunga
brothers
ered
times
bab@@
Mbangi
kal@@
lw@@
sambu
we@@
bel@@
ch
mak@@
’andi
pre@@
ne@@
nzila
bosi
oka
wana
ying
tw@@
led
Ng@@
ary
te@@
anda
Witnesses
ons
tul@@
miayingi
used
tandu
then
unda
23
bafwete
ure
6@@
heart
ow@@
well
words
fin@@
ant
ter
mas@@
esanga
Davidi
sono
bal@@
learn
aw@@
no@@
just
c
Tanga
am
zeto
zazi
selo
Ki@@
after
mat@@
h
wakala
ai@@
luzolo
Read
zi
very
before
ness
men
eng@@
ess
sadisa
angu
feel
kay@@
use
show
mase
And
Vana
keep
fwete
alongoki
do@@
zi@@
mayingi
might
sh@@
That
mun’@@
mbandu
elongi
Ediadi
zandi
So
nsilu
mavangu
lekwa
lunga
bakula
mona
ve
kila
yambula
ou@@
kwenda
ds
eno
read
ir@@
ear@@
kin@@
4@@
any
war@@
ez@@
kil@@
ond@@
lo@@
Lu@@
now
nkento
ku
adila
faithful
over@@
kutusadisa
ete
death
John
tions
ntumwa
tus@@
di
lusadisu
David
nkanikinu
each
important
ra@@
div@@
id@@
sion
zawonso
mo@@
wila
Re@@
baz@@
umb@@
ty
much
why
25
new
kidi
malongi
embi
truth
car@@
zay@@
ba@@
olo
ents
el
ter@@
cr@@
get
vova
iz@@
ass@@
Th@@
another
parents
akwa
w’@@
rec@@
ating
kis@@
kw’@@
Satan
akana
person
great
name
yas@@
nluta
Word
fully
mama
wawonso
lus@@
nkwa
ive
inga
kituka
diau
30
Do
most
two
ies
int@@
longo
tuka
kev@@
want
ned
’o
asi@@
find
antete
kibeni
though
rem@@
go@@
adi@@
eka
ish
say
nona
28
ay
kiantete
ole
To
serve
gu@@
mf@@
nsiku
elo
et
7@@
today
emb@@
ge
ite
w
ig@@
zolanga
hi@@
An@@
apostle
U
old
str@@
Isaele
diandi
pos@@
*
undidi
wisa
our@@
young
vis@@
kub@@
min@@
holy
kw@@
twa@@
imp@@
mvutu
right
pe@@
anu
study
mal@@
ulu
Kasikil’owu
atu
ed@@
mon@@
kak@@
ep@@
worship
unga
ind@@
ves
ited
Petelo
against
yav@@
wor@@
However
p
cl@@
Diambu
part
ality
ministry
inc@@
through
sala
ovanga
mbanza
found
amp@@
himself
zunga
ini
ates
rel@@
ib@@
where
longi
luv@@
Israel
luludiku
yal@@
dec@@
go
preaching
act
kab@@
adisa
Nze
told
tu
27
8@@
rep@@
ho@@
zula
never
Peter
Kieleka
Yoane
tezo
lufwa
ement
edi
yak@@
kavanga
Nk@@
he@@
means
ntandu
comm@@
inter@@
disciples
g
wife
meso
ever
ki’@@
One
ovo
Aneyisaele
endi
nga
yambote
inu
wrote
33
word
news
com@@
29
Father
cre@@
bet@@
conv@@
son
Mose
ion
mil@@
z’@@
Roma
Ntinu
ref@@
ndinga
too
doing
baka
oneka
nsambu
let
fila
gave
live
br@@
same
20@@
wete
ena
miami
nzimbu
reg@@
lwandi
place
servants
ngonde
became
think
elanga
x
toma
ad
yindula
Al@@
ist@@
ntu
red
course
cont@@
diav@@
Yobi
awaya
human
hope
view
ankaka
ry
wh@@
wam@@
luvuvamu
ently
als
dr@@
adieyi
self
akento
ding
tic@@
comp@@
mo
ambi
26
ata
umba
pr@@
mind
given
31
ways
pres@@
adisanga
After
set
dio
Mar@@
mau
nu@@
har@@
wise
fwa
ank@@
ni@@
nitu
ther
diampasi
ampasi
nanga
kuy@@
buka
Yes
Ns@@
est@@
ue
dila
mandi
ful@@
marriage
ast
sungididi
ourselves
twas@@
kele
anointed
va
temp@@
kiawonso
sikola
Psalm
afwa
kes@@
long
Moses
ekola
ampa
service
tuna
.@@
kaz@@
angama
came
Yesaya
nkenda
ory
book
ere
zina
kwamanana
ands
fac@@
mbongo
put
lemvokela
felt
ask
ose
ey@@
enti@@
aya
Some
ors
akuluntu
ked
always
aki@@
days
ua
isanga
olwa
Ak@@
bl@@
At
kafwete
ntinu
Ar@@
home
ongi
often
ily
ekolo
ilenda
mfumu
lungisa
still
ove
nkaz’andi
Matai
S
during
understand
tanga
ish@@
tri@@
ection
ikila
away
oun@@
acc@@
akundi
sur@@
sub@@
upon
emp@@
humans
mar@@
okela
By
peace
bo@@
something
sol@@
lung@@
ang’e
fwasa
Mu
elders
ded
Israelites
yayingi
Ngana
prov@@
later
dias@@
dimosi
kavova
ongoka
32
app@@
every
helped
King
Etuku
ngatu
Nt@@
makasi
back
ban@@
less
consider
loving
ph@@
fir@@
twav@@
ewa
ers@@
ampangi
elau
sel@@
wina
As@@
began
Let
badika
lusansu
elela
fil@@
da
akuswa
wasoneka
’aku
uta
Our
zingila
Es@@
amfunu
longa
omba
uvovanga
Wavova
wadi
samuna
olanga
onanga
ic
His
living
mono
prayer
ake
lwalu
vita
uku
enga
Scriptures
ilwa
kimosi
making
Matthew
oko
luyalu
happy
Ab@@
ship
down
Then
tiv@@
ovesa
diambote
ze@@
undu
ese
40
Nsiku
really
mav@@
whom
Akaka
article
on’@@
to@@
00
x@@
future
She
look
ther@@
omp@@
Nz@@
ected
power
Ch@@
Son
vwa
zayisa
ened
kisa
year
der@@
ai
les
Tufwete
angidi
ianga
9@@
fellow
sin
Ayuda
heaven
endanga
There
Even
wonga
among
ntim@@
200@@
tut@@
out@@
yakaka
relationship
ulenda
ments
ntaudi
yuvu
husband
vonza
requ@@
Mfumu
order
gro@@
lukutakanu
AN@@
luk@@
Tulenda
ths
ard
ungudi
ef@@
house
Nanga
fe@@
inanga
joy
tre@@
three
ampwena
kanga
together
tukutakanu
ondwa
ongo
under
ans
themselves
Wantu
utuka
ening
lwau
avi@@
sal@@
34
ndiona
brother
eful
lut@@
questions
wan’@@
Many
serving
Tala
reason
Yerusaleme
Mal@@
nsamb@@
dly
ikanga
kus@@
Mpangi
diat@@
ks
kiakina
mwand’avelela
Nku
unkabu
zumba
knowledge
someone
asked
ris@@
father
v
learned
sec@@
sure
wamanana
ains
without
cor@@
ough
adisila
expl@@
kiyekwa
kun’ezulu
Is
yat@@
kwandi
ist
needed
rul@@
ngeye
amena
personal
ambulwila
fimpa
called
of@@
hand
ained
moko
disa
ess@@
care
’eto
kind
tanginina
close
zingilanga
anti@@
wicked
aleke
zizidila
ukum@@
full
counsel
purpose
ngudi
ished
while
ture
dil@@
fact
akula
lukaya
On
antika
century
tutanganga
yo@@
aludi
2@@
tive
ward
WA
adimosi
baptized
amenanga
real@@
meetings
od
eyi
unz@@
yangal@@
ities
ediadi
bad
ngunza
With
Abarayama
Because
madia
makaka
appe@@
vioka
35
both
lic@@
inwa
face
wasonga
nkuma
Tr@@
fo@@
37
omb@@
okele
pur@@
ize
different
message
Jerusalem
less@@
best
yangalelanga
concer@@
onama
ungunza
ular
ain@@
continue
done
kiame
waswana
Par@@
conc@@
diamfunu
ump@@
giving
wanted
wil@@
took
angi
cho@@
diakala
anz@@
kidisa
mw@@
jo@@
kiak@@
sisters
pray
mokena
ously
coming
eswa
Un@@
ests
ious
nsambila
died
kias@@
reas@@
twak@@
Is@@
lukau
miandi
fwana
Ekolo
uma
kilenda
engom@@
possible
lul@@
ise
Diau
again
person@@
righteous
usonganga
stri@@
amene
Timoteo
toward
knew
samb@@
venga
nkunga
mag@@
difficult
fic@@
tly
benefit
El@@
Yakobo
follow
mbasi
Luka
badikilanga
ative
Job
child
landa
dibundu
Se
kiaku
ani@@
fw@@
thing
ingilanga
Yambula
adis@@
alembi
ended
ages
ail@@
ember
ndioyo
ow
stud@@
mwana
angila
experience
zole
language
twa
try
oba
bring
teach
ort
ota
hear@@
Yet
MB@@
den
ering
last
tom@@
if@@
eb@@
appro@@
avoid
badi@@
ling
ezulu
mother
kw’akaka
ntang@@
ekuma
mina
eye
ians
support
iswa
tala
lweto
adv@@
hard
ankento
alalu
co@@
imitate
vitila
alala
heavenly
kul@@
ces
yab@@
andu
All
sila
ters
comes
ences
These
mbi
coun@@
ised
strong
yakwele
share
wan’au
problems
Tu@@
re
ost
friends
My
ote
lives
sig@@
beh@@
oy@@
however
result
anina
respect
ef
speak
ood
mean
enanga
fied
tal@@
Elo
yitu
Adami
’ame
situation
Ev@@
ery
saw
Timothy
wisdom
receive
kubav@@
having
yambi
▪
ongokanga
woman
T
enjoy
ell@@
eta
side
kwikila
land
osi
ang’o
ukanga
nkubika
nor@@
present
ulolo
kilanga
ozolele
See
emba
Per@@
Luke
tel@@
better
answer
ps
challeng@@
cannot
Lumbu
kiv@@
․
ects
went
okan@@
kilwa
desire
kena
Korinto
eyes
ions
pp@@
inclu@@
ansu
po@@
lead@@
zayi
mena
lead
vau
fulfil@@
akazi
ilu
malenda
point
ome
tum@@
lubantiku
akwikizi
invit@@
Nkristu
head
d’s
matondo
mer@@
LU@@
Yosefe
ens
azi@@
married
wrong
long@@
exc@@
ami
ice
zakaka
feelings
matter
ser@@
remain
all@@
Wh@@
vil@@
On@@
reve@@
tually
Pr@@
No
ase
untu
Konso
14@@
kam@@
ying@@
maza
tempelo
preach
gg@@
sing@@
ekani
ambu
slave
angwa
descri@@
mankind
ta
between
so@@
pleas@@
ner
il’a
ungun@@
nations
ambuta
isonganga
kadila
ivi
Isaiah
luzindalalu
aff@@
kondwa
gener@@
From
akieleka
sambila
del@@
gives
kiakala
ong
yayina
Noa
N
Mb@@
St@@
gl@@
tambula
kintinu
nkembo
mambote
dy
kwalanda
teach@@
obedi@@
Jud@@
Those
owau
twasa
asi
ulwa
itu
zinga
change
ized
wavovesa
Be@@
ungisa
lenda
mev@@
ansongi
esumu
akete
ach
left
sin@@
qualities
ari@@
ns
needs
amanga
Yuda
auka
aki
wene
believe
city
teaching
Jews
ovela
unsongi
loyal
resurrection
filanga
ingu
yay@@
one@@
Adam
dev@@
trust
attitude
10@@
pect
bam@@
ingly
diab@@
mambi
dem@@
om
Your
nation
nani
diambi
ofwete
á@@
zulu
thinking
thought
kiayingi
ten
Nki
sunda
nz’ankulu
bed
loved
udi
IN@@
divavanga
prayers
gh@@
makesa
kimbevo
bavanga
mit@@
sons
Con@@
tukanga
certain
é@@
twakala
soba
azi
mor@@
yindulanga
kubas@@
kamona
fine
kutus@@
oo@@
associ@@
yourself
nsaka
Mp@@
few
mieto
Kele
Mv@@
ach@@
oll@@
nat@@
cap@@
fl@@
au@@
using
mameme
kuyis@@
50
eki
yamb@@
yaz@@
Des@@
Although
known
w’a
hold
nsatu
kalenda
Ezak’e
wr@@
ever@@
tor@@
iku
loc@@
followers
gar@@
inh@@
Abraham
kitula
ject
Was@@
false
dition
temple
zilenda
kutuv@@
.000
clai@@
fear
direc@@
perfect
decisions
Acts
Eyingidilu
king@@
pati@@
similar
3@@
Daniele
food
kisonganga
members
tim@@
bevanganga
ava
Ka
samba
IL@@
whether
law
nti
ozeye
sacrifice
ide
mviti
practic@@
Law
Ex@@
Owau
ace
sy@@
tice
ight
shows
eness
encourag@@
Awana
following
Consider
lomba
Nd@@
thr@@
Who
yangalela
Samuele
tell
received
uc@@
system
bro@@
sheep
clos@@
account
pris@@
until
kw’awana
disongele
gover@@
tic
anene
emvokelanga
ond
saying
kindness
asikila
utukila
prophet
umu
wandi
akiese
ets
Pro@@
tur@@
afila
cul@@
wavanga
apostles
Romans
tatu
ures
look@@
especially
form@@
form
Of
kimbuta
il’@@
Mwan@@
taught
born
fimp@@
,000
kingana
zol@@
wasa
De@@
Y
wazaya
fwas@@
sianga
sinsu
Kikristu
kutul@@
ind
kio
talk
sense
Mo@@
ern@@
sister
Joseph
free
little
zas@@
ack
contr@@
wants
resp@@
bund@@
Lusengomono
dedic@@
ented
onda
fuku
fidi
ght
ingila
gift
righteousness
fr@@
fam@@
mabundu
yik@@
ma@@
kend@@
Mavangu
kusadisa
thers
dic@@
prom@@
ka@@
likely
kan@@
makani
ak
principles
tway@@
inina
conduct
Masia
R
worl@@
ial
kayika
may@@
Satan’s
forever
luvunu
ided
nzaki
vovesa
real
obey
ambulanga
amba
wond@@
cause
everlasting
moved
uni
position
kidis@@
ign
ass
makes
nyindu
Does
zitu
reading
cen@@
body
Kimp@@
soon
kek@@
promise
ged
Una
arrang@@
nkundi
duc@@
Eli@@
Bibila
Nkumbu
bevovanga
Yeremiya
thy
attention
ending
hel@@
indic@@
ben@@
yet
question
spe@@
Sar@@
transl@@
ntantu
kiyuvula
Proverbs
honor
lulembamu
gre@@
bemonanga
Instead
zo
James
suffering
arly
Corinthians
fwan@@
heard
kapu
angamanga
taking
igh@@
kavana
instruc@@
religious
dieto
ndonga
ree
bey@@
kilwanga
NKUNGA
Solomo
allow
Nkadi
hon@@
oyo
Tuka
mavwa
wayantika
lov@@
organization
anis@@
kieleka
Yindula
ukisa
Luv@@
ah’s
turn
kiy@@
crip@@
ndung@@
walakazi
38
yikilwanga
nor
next
inst@@
discus@@
okanga
money
prophecy
longoki
sent
provide
Dialudi
key@@
lufuluku
meto
kanda
ext@@
disonganga
off@@
Revelation
whole
Ne@@
tini
truly
vilwa
emi@@
lukatikisu
singika
Lord
nua
wamona
uluka
ambul@@
ars
spiritually
umbulu
fiaulwis@@
remember
off
case
In@@
didi
cial
sikila
kiambote
special
are@@
0@@
UN@@
willing
ubwa
sungamena
publ@@
0
list@@
kingdom
ancient
Devil
kasakesa
iting
prot@@
brought
sing
succ@@
yeno
kuka
wananga
ined
basi@@
thus
Jos@@
angolo
takes
kikundi
kalanga
f
dilanga
around
dness
dist@@
ached
kiav@@
anger
1914
Are
Badika
aid
kimenga
deliv@@
refl@@
wá
matters
served
dead
kota
shepher@@
going
NG@@
nkand’a
accept
yikwanga
ath
oku
kutufila
engi
36
kimp@@
uluza
Ozevo
plac@@
wikilanga
ntona
Elongi
courage
rule
utu
mes@@
onek@@
lwa@@
early
exam@@
comfort
oned
okena
bulu
anesa
lwas@@
light
ão
pass@@
Yo@@
clear
turned
KA@@
deep@@
asila
anc@@
erse
cer@@
ort@@
gen@@
past
Olenda
wan’a
ath@@
far
supp@@
pol@@
helps
sung@@
nswa
twasanga
Rather
ell
works
fore@@
kiuvu
Christ’s
ca@@
ungi
Today
kwayingi
songela
valu@@
mbaninu
mwan@@
peri@@
Babele
ured
everything
kitantu
finama
prove
ute
arri@@
examples
Kadi
wayika
ither
ety
39
Ayibere
ect
suff@@
mwand’a
yantika
Am@@
ould
opportunity
tanina
des
courag@@
umbakuzi
baf@@
waw@@
omene
em
kasak@@
kubasadisa
wavana
Eva
shi@@
lar@@
besadilanga
udi@@
mentioned
etting
ndi@@
eke
up@@
spec@@
Me@@
aika
ongela
ç@@
Daniel
privilege
C.E
Noah
Maria
vamosi
koko
nkaz@@
destro@@
uki
Thus
fru@@
antu
Can
beg@@
night
cri@@
ekanga
ink
Be
since
ites
Like
ested
recogn@@
return
avwanga
Ay@@
iness
ngemba
Br@@
45
women
Bib@@
ungamena
strength
ransom
number
oi@@
ention
ill@@
expec@@
ndambu
SONGS
kemb@@
amona
nl@@
ono
seen
showed
hol@@
Bar@@
menga
pic@@
ep
clean
table
understanding
sentu
Tus@@
listen
luna
watoma
got
command@@
states
ced
appointed
believers
great@@
nkal@@
mwisi
immor@@
promises
yavana
daugh@@
wanana
anyone
lua
aining
miau
ants
Paul’s
satis@@
happened
invol@@
Gr@@
along
waswani
kintwadi
angels
decision
direction
ulu@@
writ@@
material
kuyiv@@
ides
MA@@
alf
ularly
care@@
pelezo
í@@
twat@@
mwan’andi
school
kani
uanga
zeye
Int@@
ms
amu
Bro@@
Maku
itu@@
adikilanga
nkw’andi
bur@@
musungula
kept
inspired
Watchtower
bir@@
kumika
ongelanga
action
overe@@
â@@
Kala
zit@@
including
r
ines
uluz@@
wele
During
uvula
kuyivana
individuals
okenanga
kel@@
disundidi
fav@@
apply
page
Vit@@
occasi@@
serious
kuns@@
promised
asia
yame
41
nzambi
stay
outh
zis@@
angi@@
Engipito
respon@@
grat@@
umuka
lies
oloka
ution
overse@@
refer@@
bazaya
Se@@
expres@@
high@@
hist@@
control
mind@@
kutusadisanga
undis@@
tun@@
ord@@
iza
cop@@
circumstances
pros@@
Kiy@@
Fr@@
proved
twal@@
y’awana
eless
integrity
tuzolele
te
eme
strengthen
aring
nkuluntu
stu@@
Com@@
Mark
nothing
Such
Vena
lum@@
justice
s’@@
group
lost
yambaninu
ingi
ungu
adise
yind@@
42
Mun@@
avioka
fy
umuki
elwa
older
blessings
zaku
viol@@
cus@@
ankulu
war
adiso
mbebe
press@@
ave
ian
indulanga
Since
ezak’e
bwa
the@@
kaw@@
Saulu
twasila
draw
lear@@
wilanga
eed
friend
Sim@@
occ@@
Samuel
taken
persec@@
ciple
zolela
ability
ang’@@
kumb@@
medit@@
pite
with@@
afwana
ert@@
Eph@@
ses
New
written
Nu@@
yam@@
ements
w’andi
ongele
ore
some@@
So@@
small
witness
70
Creator
information
crow@@
akal@@
public@@
kunda
emvimba
omu
odi
masumu
meaning
ches
mission@@
already
Q@@
uyikanga
onal
rib@@
balembi
offi@@
Solomon
anything
ale
religion
zame
kiay@@
waka
tukau
Ele@@
mate
certainly
44
ntete
ekele
Mambu
liter@@
spoke
kazola
–
second
199@@
siam@@
reli@@
angalela
resurrec@@
m’@@
kind@@
feel@@
involved
le’s
nsasa
fai@@
wide
yikanga
resul@@
kweto
Gre@@
dika
kimfumu
ges
ze
Bo@@
glory
covenant
kwi@@
Mi@@
milli@@
pe
z
pioneer
powerful
yalu
determined
ikwa
sola
demonstr@@
umbu
oki
near
Sp@@
actions
Now
sed
deep
value
fail@@
While
tend@@
law@@
ungana
wena
advice
confidence
emo@@
kiasikila
med
started
lived
vic@@
speaking
olos@@
blessing
accompl@@
tru@@
endure
wonderful
por@@
Genesis
Est@@
aluvunu
lub@@
view@@
baw@@
four
kuv@@
beli@@
pit@@
PA@@
choose
besonganga
ulula
enza
sic@@
Nani
Did
yamu
eps
fun@@
ento
eff@@
eas@@
underst@@
Hebrews
standards
Will
No@@
Tim
ual
meeting
lun@@
effort
Lus@@
health
He@@
ombanga
Eve
iti
der
necess@@
Efeso
explained
kutuvananga
experienced
remind@@
angala
emor@@
benef@@
Greek
leave
ilities
DI@@
ide@@
provided
bus@@
events
zambi
nkubik’a
du@@
Mwan’andi
alandi
ving
SA@@
lau
umun@@
ems
ende
Sam@@
bezolanga
isi
stand
sc@@
wan’aku
kit@@
ast@@
Still
yangidika
nkinzi
complet@@
omo
mfoko
assig@@
Ser@@
ental
wole
kaf@@
kubal@@
aving
chang@@
Su@@
fa@@
angalelanga
ket@@
samun@@
trans@@
okelanga
yayantika
mit
Hebrew
cy
Jo@@
ansadisa
water
res
nleke
ion@@
kiw@@
fur@@
encourage
hearts
ndekwa
named
bi
couple
quic@@
greater
Tuv@@
mbeni
tukalanga
wab@@
prepar@@
Mvangi
congregations
bre@@
anunu
nzenza
bayantika
conscience
yakuna
yim@@
friend@@
ek
here
mame
aled
based
hear
ved
reason@@
ongwa
sight
bekwikilanga
nkaz’ame
elder
sive
vonda
ties
humble
discipl@@
amesa
enjoy@@
eleka
zolele
yed
happiness
mun’owu
den@@
119
dies
Phili@@
ntonta
ungunuka
entwadi
affect
displ@@
bu@@
Wat@@
diak@@
kumi
regarding
mvevo
according
thoughts
once
ost@@
maintain
ared
embwa
ateleki
dikalanga
gri@@
mpi
tells
mfwilu
mwand@@
lulendo
Not
uses
ongokele
imb@@
ayed
doubt
foretold
Wor@@
emvokela
bazeye
ut
maf@@
Saul
exerc@@
consider@@
move
ekangu
yuvula
continued
want@@
ays
undisi
umwa
orig@@
bamona
tuzeye
ched
Acc@@
hor@@
surv@@
ws
ario
stop
olog@@
yala
rap@@
evidence
posit@@
effect
else
please
Na@@
Betele
zitisa
perhaps
ngina
shall
det@@
olola
tures
prin@@
prop@@
ovele
Filip@@
Mary
D
anx@@
kuyi@@
nsas’a
high
yamuna
ective
interest
Nsi
clearly
sl@@
precious
y’etima
pages
ather@@
imperfect
imag@@
itical
kwau
aninanga
ound
longer
believ@@
trus@@
diampwena
nment
working
my@@
ova@@
heavens
authority
house@@
role
standing
ó@@
ists
TI@@
Yosua
okutu@@
efforts
press
ext
vavioka
eat
THE
gain
easy
Egypt
illustration
field
offer
EN@@
aza
Ampemba
saf@@
uz@@
alunga
tambulwila
mazunda
reasons
tribulation
nuv@@
happen
wokela
oss
tried
even@@
ought
Scriptural
ord
Their
judgment
work@@
protect
omonanga
eping
wiza
sins
responsibility
mwan’@@
Af@@
Ekwe
mab@@
wilwa
vital
yaku
ature
EL@@
discuss
ising
ufwene
jus@@
People
malembe
ovi
wan’andi
maz@@
Ad@@
ount
grow@@
pione@@
olele
erved
Vioka
Just
die
knows
ambanga
Ov@@
Sono
focus
build
kwiza
consi@@
repres@@
YA
anha
simply
adilwanga
changes
relati@@
recorded
kasi@@
travel@@
abi
wasadila
Messiah
dinina
ually
atever
TH@@
TO
worshippers
Yeto
amvimba
imosi
wama
adilwa
evoko
communic@@
vutula
kufi
urance
diame
reach
abl@@
ngy@@
Later
lier
amunanga
Mat
earthly
praise
ot
kubak@@
fwaswa
kwaku
Can@@
nsema
tiya
bazolele
tuku
,@@
bekalanga
bembola
sible
yimpumbulu
fokola
faith@@
nz’ampa
walk
Jac@@
vakala
azar@@
flesh
uluntu
encouraged
kisanga
First
tivate
desires
ressed
oneki
hur@@
dered
vangwa
ech
mirac@@
wokesa
mwan’a
60
ition
lied
appreciation
physical
aikiswa
ES@@
Matt
endalala
building
trials
aying
195@@
rather
pressed
lock
ism
zik@@
endo
elel@@
illustr@@
ru@@
meet
H
ligh@@
Jeremiah
avu
truc@@
leka
ra
lic
respond
ewanga
wikizi
Ma@@
ends
start
ca
kingula
angal@@
od@@
owa
helping
char@@
sen@@
Or
atidila
ayisa
activities
created
issue
vubwa
ukami
Etu
ambulwilanga
y’ekani
book@@
bekala
mpatu
alon@@
harmon@@
Keep
letter
proph@@
success@@
kazolele
vut@@
Bethel
ners
comfor@@
enganga
emo
Mase
badikila
uted
AV@@
Wav@@
Rom@@
etima
tional
isila
Kiz@@
rejo@@
Therefore
Kan@@
opp@@
Edi
Phar@@
ook
43
Je@@
rest
solola
kaki@@
kilu
ntim’@@
Uni@@
ukila
esi@@
accepted
utula
Dis@@
appreciate
baptism
udikila
umbula
alone
vation
dos
nding’a
tuk@@
emi
Wak@@
asamb@@
psalmist
Li@@
complete
dep@@
deal@@
arti@@
acted
World
tuvova
NGA
ert
lw’@@
begin@@
draw@@
ust
enemies
Ku@@
seek@@
mercy
influence
servant
embami
ire
chapter
Selo
B.C.E
unity
asakesa
vutuka
training
somp@@
Ano@@
ubama
impr@@
blood
mus@@
accep@@
kasakeso
auti@@
y’esi
ries
neighb@@
therefore
vin@@
evangu
rup@@
zayanga
zind@@
country
ical
prayed
KI@@
yikama
ential
common
call@@
develop@@
ough@@
univ@@
kubat@@
erg@@
oved
yan@@
Kingerekia
und
ados
answers
cles
head@@
tunga
cal@@
ck
regard
imba
wasia
onekena
fill
compas@@
hands
slav@@
rich
conf@@
mov@@
fri@@
assignment
mbazi
whose
mbuta
bek@@
belong@@
teachings
sacrifi@@
declar@@
esela
kunsadisa
ED
freedom
ûlu
van@@
Babylon
allowed
simp@@
amun@@
everyone
problem
mias@@
seek
kem@@
note
offered
mbanz’a
yole
ES
ibere
obani
18@@
evo
nsoni
Mvu
soul
teke
showing
tukala
zitisanga
Eng@@
nsoki
ndose
humility
rece@@
thous@@
air
anikina
Jewish
Sh@@
tumonanga
rit@@
Le@@
lulukisu
hand@@
Before
Indeed
ste@@
Have
teka
guidance
vumi
formed
dom@@
disp@@
happ@@
eswanga
Salu
bakanga
vema
umpa
mamfunu
May
twabadika
utu@@
continu@@
eds
vit@@
ous@@
owu
Israel@@
bless@@
wis@@
sac@@
ready
sho@@
Christ@@
Go@@
op
let@@
fok@@
pub@@
heal@@
evid@@
mba
ders
know@@
imit@@
confid@@
ili@@
obe@@
fe
ile
streng@@
Aw@@
judg@@
amf@@
mun@@
haps
pray@@
luz@@
evil
loy@@
ane
giv@@
under@@
anginina
differ@@
avelela
fiaul@@
onso
nto@@
pers@@
rev@@
undi
dilu
os
vum@@
show@@
pec@@
cons@@
ower
joy@@
NK@@
Ez@@
dre@@
struc@@
devel@@
langu@@
M
ur
Davi@@
fu@@
follow@@
cle@@
ade
answ@@
els
’owu
zing@@
val@@
ezo
uns@@
ording
ill
aikis@@
aching
individu@@
ema
buil@@
itness
ol
bor@@
determin@@
wiz@@
Mf@@
pi@@
ak’e
husb@@
essi@@
uvu
L
fre@@
experi@@
waswan@@
righ@@
allow@@
circ@@
uring
indula
okesa
oth
ere@@
can@@
aking
organiz@@
ud@@
ú@@
Ek@@
ear
tima
learly
help@@
asak@@
situ@@
ny@@
qual@@
dib@@
chil@@
cour@@
any@@
û@@
leke
Bet@@
ears
wilu
ult
influ@@
ffering
nz’@@
gif@@
vol@@
kwam@@
itude
appreci@@
W
uth
prac@@
star@@
ff@@
dit@@
Ti@@
kutak@@
ived
responsib@@
King@@
emv@@
Jeh@@
aul@@
dom
Cor@@
Á@@
enem@@
read@@
alanda
sue
kun’@@
00@@
gh
mbevo
Mos@@
ames
import@@
prophec@@
ires
itness@@
il
mater@@
augh@@
oke
nding@@
privile@@
jud@@
spir@@
stead
fwene
é
ques@@
Yak@@
udiku
worshipp@@
F
G
sib@@
oni
divi@@
yangi@@
imper@@
Ph@@
ances
Messi@@
apost@@
oub@@
mean@@
diffic@@
opport@@
row@@
chool
engo
anik@@
compl@@
tell@@
reat@@
cou@@
inf@@
embo
hum@@
og@@
zevo
ility
ially
oin@@
wic@@
stand@@
uvunu
ether
st
akani
kwikilu
tle
uld
pra@@
ith
Abrah@@
·@@
ô@@
minis@@
fell@@
poin@@
she@@
lik@@
è@@
enced
rac@@
h’s
ungula
arr@@
fi
elezo
foc@@
trib@@
Do@@
thor@@
indu
ONG@@
kwikilanga
pow@@
eleki
eded
conduc@@
Christi@@
ousness
amosi
anci@@
Egy@@
ul
vie@@
adil@@
there@@
onta
embe
grou@@
bemb@@
uda
The@@
Ac@@
aku@@
consci@@
ekwa
heav@@
earth@@
zed
alongok@@
humb@@
sion@@
eso
author@@
Yos@@
K
shipp@@
Pet@@
ises
amuna
lasting
­
ì@@
Ke@@
maint@@
Vi@@
sm@@
doub@@
ards
itnesses
ʹ@@
Babyl@@
sacri@@
dren
kutakanu
uswa
Sin@@
nkubik@@
psal@@
î@@
thin@@
avel@@
relig@@
õ@@
izidila
an’s
’avelela
evel@@
uly
irit
monanga
chap@@
serv@@
ather
adika
Josep@@
Pe@@
Bab@@
ê@@
ple@@
org@@
eld
Mat@@
sik@@
aninu
luta
exer@@
izi@@
ansi
ft
ness@@
prophe@@
Tim@@
fles@@
wish
every@@
dif@@
inspir@@
benefi@@
ã
uch
à@@
aele
spiritu@@
knowled@@
nam@@
Sa@@
ointed
erekia
physic@@
J
ffer@@
nkub@@
circum@@
fal@@
Solom@@
V
een
onde
commun@@
audi
unza
pose
ich
mess@@
ù@@
ey
Kor@@
Bec@@
P
pher@@
Pa@@
lu
ainly
esus
numb@@
isters
oci@@
kundi
erful
regar@@
aught
angu@@
tural
Joh@@
tow@@
mam@@
relation@@
uvamu
adia
vice
|
anding
ipito
inform@@
cov@@
ongreg@@
rection
adisu
X@@
Kik@@
ater
Dani@@
tak@@
embers
tro@@
To@@
raw
B
ristu
hap@@
wom@@
kisu
ulation
ung
sou@@
guid@@
marri@@
neigh@@
sis@@
ongok@@
yl@@
000
simil@@
Í@@
anikinu
cc@@
imbu
C
Psal@@
intinu
oid
Scrip@@
efi@@
asting
indalalu
There@@
eo
Mav@@
forts
Gen@@
embamu
preci@@
Paul@@
til
●
wizani
decis@@
à
Sol@@
kno@@
pt
ú
lustr@@
ir
aniz@@
ondo
usb@@
ididi
vimba
eni
Jeremi@@
aw
cert@@
your@@
ld
sat@@
how@@
mban@@
syst@@
sel
gy@@
ha
ü@@
Isai@@
fuluku
and’a
Jerusal@@
recor@@
fel@@
nec@@
Sat@@
Amp@@
fort
deter@@
Ef@@
congreg@@
ause
yimp@@
foll@@
ainst
ogn@@
deed
intwadi
though@@
í
isaele
Timo@@
led@@
©
iri@@
Aney@@
akuzi
anana
fect
inzi
alleng@@
⇩
atikisu
su
ö@@
mbe@@
è
Creat@@
tism
yingi@@
wisi
grity
nkut@@
ʹ
>
beni
ì
Samu@@
ple
$
cipl@@
nde@@
nsas@@
phy@@
ł@@
NKU@@
bs
­@@
irst
menti@@
bapti@@
demon@@
Matthe@@
ticle
Kasi@@
fid@@
□
◆
tower
Consi@@
Yes@@
lit@@
bap@@
inte@@
æ@@
blems
Watch@@
rever
tury
◇
bec@@
meet@@
coven@@
ê
selves
SONG@@
○
ô
q
them@@
ã@@
ä@@
ble@@
É@@
fore
som@@
circumst@@
Corinth@@
edom
apu
X
É
ciples
▸
espec@@
him@@
How@@
rah@@
overbs
ansom
%
Â@@
von@@
ù
ukisu
cir@@
vile@@
ה@@
Corin@@
obi
Revel@@
contin@@
antiku
tivities
Chris@@
°
righte@@
q@@
ʼ@@
esis
Z
ש@@
Ú@@
ׁ
ä
usal@@
נ@@
ה
❖
ó
Ã@@
פ@@
hou@@
Á
❍
■
j
rote
blem
Abar@@
kumbu
⁠
י@@
ו@@
‘@@
kizi
B.@@
ł
✔
mbanz@@
Ç@@
Heb@@
heaven@@
☞
resur@@
engomono
ø@@
ē
י
ë@@
å@@
ò@@
ż@@
ñ@@
Š@@
Ã
Adi@@
:@@
Ô@@
↓
Abaray@@
Ó@@
←
↑
&
tivit@@
tog@@
ipi@@
psalmis@@
ʽ@@
ů@@
ï@@
â
→
thel
ē@@
rol
ǒ
)@@
“@@
Fili@@
obo
#
ą@@
ö
ń@@
ï
̇@@
Ê@@
⁠@@
Ü@@
ı@@
Ş@@
ý@@
À@@
❑
š@@
Û@@
?@@
kil’owu
erusaleme
Eyingi@@
▼
⁄
Ù
siku
–@@
ò
-@@
Í
Hebre@@
‛
;@@
C.@@
č@@
ā@@
Ł@@
−
Ṭ@@
û
