,
.
the
a
tó
to
of
ń
àwọn
tí
pé
“
”
and
ṣe
:
in
ní
máa
?
wọ́n
ni
-
sì
sí
that
jẹ́
bá
ti
ó
fi
kan
náà
lè
—
fún
is
láti
kí
rẹ̀
sọ
wọn
àti
Ọlọ́run
wà
nínú
ohun
for
ed
Jèhófà
bí
wa
s@@
f@@
t@@
o
kò
wá
rí
an
ing
​
on
his
I
d@@
ló
we
was
with
be
as
you
lọ
yìí
p@@
èèyàn
b@@
it
kó
S@@
not
are
ì@@
es
ò
The
mi
in@@
i@@
l@@
re@@
mú
or
m@@
i
Jehovah
s
have
g@@
í
he
á
nípa
r@@
ká
c@@
w@@
will
e@@
God
Ì@@
M@@
gbogbo
A@@
n@@
us
1
ọmọ
Àwọn
a@@
Ó
k@@
Bíbélì
T@@
à@@
by
tá
t
ara
our
ṣ@@
Jésù
’
from
ayé
R@@
O@@
;
ar@@
can
en@@
their
o@@
gbà
Jesus
y@@
mo
iṣẹ́
al
nǹkan
ẹni
gbé
nígbà
h@@
P@@
who
)
(
e
mọ́
Bible
fẹ́
!
E@@
L@@
y
at
H@@
they
bẹ́ẹ̀
B@@
un@@
ad@@
all
er
one
al@@
lé
ní@@
st@@
ẹ
tún
ọ̀rọ̀
er@@
A
tàbí
ac@@
di
pa
yóò
or@@
W@@
lára
an@@
what
this
ò@@
ers
yẹn
ọ̀@@
do
u@@
wo
ẹ̀@@
Kí
gb@@
your
À@@
were
j@@
òun
‘
kì
had
ation
rẹ
à
K@@
lọ́wọ́
2
lá@@
I@@
dá
F@@
mọ̀
What
G@@
ọdún
hàn
C@@
n
D@@
lórí
ti@@
N@@
èdè
at@@
ìwé
ate
him
In
people
mọ
pọ̀
my
á@@
ted
èyí
them
yẹ
God’s
el@@
ts
3
about
é@@
m
gan
Àmọ́
kọ́
]
[
has
5
J@@
’s
Jehovah’s
dà
when
ly
ab@@
time
me
es@@
4
would
pẹ̀lú
ilẹ̀
ọ@@
Kristẹni
inú
am@@
so
ra
on@@
Nígbà
gba
il@@
ag@@
un
Bí
it@@
ẹ́@@
as@@
ent
may
th@@
ìgbà
v@@
is@@
ọ̀nà
tion
lo
è@@
ur@@
life
did
6
How
dis@@
but
ẹ@@
jọ
bẹ̀rẹ̀
con@@
la
ọ́@@
ó@@
k
táwọn
ú@@
jù
im@@
out
her
ri@@
ọ́
irú
sí@@
ìyẹn
those
d
tr@@
é
more
ọkàn
8
ic@@
ọ̀pọ̀
ì
le@@
par@@
ated
op@@
nítorí
He
lọ́@@
l
sílẹ̀
able
ìwà
some
bó
dé
ilé
lo@@
ló@@
7
ol@@
kọ
pro@@
b
ẹ̀mí
th
rere
also
how
9
ẹ́
wò
pàtàkì
ojú
le
many
má
sọ̀rọ̀
de@@
15
help
míì
ds
such
sp@@
jú
ẹ̀
ap@@
àtàwọn
for@@
Y@@
í@@
àpẹẹrẹ
ro@@
ting
gbọ́
been
ve
tẹ̀
Ẹlẹ́rìí
It
ú
We
ence
li@@
Ní
oní@@
ìfẹ́
ọjọ́
good
lẹ́@@
ex@@
ter@@
up
ìṣ@@
lẹ̀
yín
ance
ec@@
ir@@
su@@
bíi
jẹ
lẹ́yìn
ún
10
alá@@
12
dùn
day
lò
lé@@
way
u
ine
kú
other
us@@
even
be@@
jáde
qu@@
ibi
than
orílẹ̀
Ohun
if
no
U@@
ally
love
mo@@
ọ
nú
work
Báwo
11
mu
ak@@
en
its
Witnesses
ṣẹlẹ̀
ity
lójú
ded
there
ment
ṣeé
nì
ta
ul@@
14
Ẹ
Tó
se
mí
Ìwé
Wọ́n
man
When
kà
1@@
di@@
pre@@
kí@@
se@@
àmọ́
ary
should
orí
kún
p
things
Pọ́ọ̀lù
àkókò
id@@
torí
ka
said
tí@@
does
ar
make
ter
could
king
làwọn
no@@
ful
wọ́
ant
gbọ́dọ̀
red
age
àt@@
ìjọ
ìr@@
/
per@@
13
àk@@
est
years
she
dí@@
lí@@
ù@@
ju
de
ev@@
into
Christian
fi@@
ous
z@@
ará
ch@@
4@@
te
gẹ́gẹ́
others
Mo
ronú
rí@@
Ṣ@@
But
says
dá@@
pl@@
which
first
Bó
ho@@
Paul
pres@@
Ọ@@
ci@@
They
ìlú
rò
Kristi
world
fí@@
ńlá
kúrò
lọ́kàn
kàn
over
om@@
For
ràn
padà
tiẹ̀
This
ra@@
ning
these
ings
children
If
mìíràn
jà
Á@@
báyìí
des@@
Christians
ṣì
oun@@
need
Ìjọba
sá@@
jì
ìṣòro
òbí
tọ́
Kò
•
ding
túbọ̀
ations
ty
17
èrò
wé
àwa
ẹ̀kọ́
V@@
Why
àá@@
ìgb@@
family
bi
nífẹ̀ẹ́
tu@@
earth
ìdílé
only
me@@
Kingdom
tri@@
lọ́nà
ob@@
títí
fara
As
like
then
because
16
ọkùnrin
dì
spirit
káwọn
come
Lá@@
ẹnì
Ọ̀rọ̀
ther
ear@@
mímọ́
ite
te@@
example
Ṣé
pri@@
ib@@
nà
co@@
N
made
ènìyàn
là
ay@@
ńṣe
ṣè@@
ìgbàgbọ́
faith
ure
com@@
em@@
nìyẹn
h
ying
tions
19@@
Ò@@
O
ies
ver@@
Nítorí
You
fáwọn
own
Ísírẹ́lì
18
ons
gr@@
cl@@
being
olù@@
19
ha@@
ou@@
wàásù
ìt@@
comm@@
méjì
5@@
ká@@
20
kẹ́kọ̀ọ́
kù
mis@@
Ọ̀@@
well
yàn
láàárín
vi@@
pẹ́
see
ang@@
spiritual
take
must
ìgbésí
ness
end
ṣẹ́
know
just
rọ̀
used
ìd@@
ni@@
ten@@
times
òtítọ́
ah
nìkan
Christ
congregation
ely
pe@@
ìdí
já@@
ọ̀kan
ks
ṣiṣẹ́
yí
jọ́
obìnrin
6@@
Tí
ge
ves
ones
dúró
bo@@
dára
Ǹjẹ́
ǹ@@
si@@
túmọ̀
ating
very
ess@@
ce
díẹ̀
sin
yà
È@@
tì
án
ìsìn
any
lẹ́nu
ati@@
ẹ̀yìn
ìy@@
S
sion
èmi
rìn
orúkọ
tilẹ̀
g
ṣà@@
der
tẹ̀mí
to@@
owó
heart
ran
ep@@
use
tán
after
dec@@
res@@
ect
true
become
war@@
words
parents
man@@
most
Mímọ́
car@@
rin
el
nìdí
pe
ast@@
ń@@
ọ̀run
jo@@
ọ̀ràn
als
yé
now
dáadáa
min@@
rec@@
give
22
ipò
ọ̀
sìn
men
wọ̀nyí
Ń
kó@@
sínú
gu@@
Lẹ́yìn
níbẹ̀
ìp@@
am
before
cre@@
go@@
sed
fin@@
ish
pè
death
he@@
ess
c
24
àì@@
21
Ẹ̀@@
ill@@
x
two
E
cho@@
ètò
Èyí
bí@@
bá@@
might
ents
bà
yè
fà
new
oló@@
ad
sin@@
agbára
That
án@@
gbé@@
lá
tẹ́lẹ̀
mọ́@@
àà@@
dájú
ther@@
ọkọ
where
*
In@@
ked
kejì
ned
tòótọ́
John
tic@@
ìwọ
And
kéèyàn
har@@
láì@@
wọ̀n
ever
much
ice
tó@@
tly
ne@@
Ṣe
ru@@
ṣẹ
sh@@
ay
ọwọ́
Th@@
so@@
An@@
ìmọ̀
feel
ìlànà
found
go
ọ̀rẹ́
yá
omi
ye
jí@@
po@@
ù
ba
name
tive
pinnu
sur@@
Ẹ@@
Ch@@
another
mar@@
each
ality
gi@@
bọ̀
7@@
ẹ̀dá
and@@
ìdá@@
tẹ́@@
truth
úr@@
kẹ́@@
through
young
Re@@
person
ited
get
ogun
oúnjẹ
ìjọba
béèrè
we@@
Word
self
yọ
inter@@
find
dé@@
sẹ̀
ast
òfin
pp@@
av@@
síbẹ̀
Nínú
Sátánì
ws
níbi
though
vis@@
Dáfídì
Torí
gbọ́n
Í@@
ory
Mar@@
ry
enti@@
láwọn
ùn@@
ch
wor@@
act
der@@
pò
led
study
do@@
ent@@
told
Al@@
et
Ọ̀pọ̀
Be@@
To
sàn
great
pá
ìn@@
gun
2@@
part
ìròyìn
However
One
ai@@
àp@@
ion
ing@@
sún
exp@@
ṣàlàyé
kọ́kọ́
fa
ily
ide
Do
gbàdúrà
23
gbó@@
ìw@@
acc@@
fully
lì
um@@
David
ṣùgbọ́n
rárá
fac@@
ẹ̀rí
say
bl@@
book
brothers
human
wọ̀
ìbéèrè
serve
ikú
read
run
reg@@
ei@@
So
keep
ic
ọgbọ́n
ẹ̀ṣẹ̀
ement
today
mọ@@
wù
ght
25
right
hi@@
dáa
lú
dó@@
ard
ga
ates
os@@
place
ze
tuntun
dre@@
kankan
against
,000
ná
learn
apostle
òótọ́
end@@
mẹ́@@
mú@@
less
ún@@
himself
son
aff@@
ọba
home
ain
ref@@
pàápàá
kọjá
rántí
same
àní
Ní@@
ẹlẹ́@@
year
ke@@
fúnra
mọ̀@@
lágbára
word
never
cen@@
ali@@
w
Máa
Ọba
Ọmọ
Gbogbo
tíì
les
▪
ya
ps
òní
why
àǹfààní
often
Some
ín
nílò
ember
ia
ved
àṣẹ
show
ore
over@@
áà
oo@@
ently
yàtọ̀
ple
ọkọ̀
00
x@@
ven@@
Síbẹ̀
important
ected
sáwọn
form@@
rem@@
sel@@
lic@@
já
af@@
ìwàásù
long
àr@@
course
àn@@
aláì@@
wàá
ìtàn
r
ere
means
kọ̀wé
cont@@
sábà
ìránṣẹ́
At
wí
too
Sí@@
faithful
àpọ́sítélì
After
gbẹ́
ving
ṣe@@
appro@@
du@@
ẹgbẹ́
wrote
mí@@
30
aw@@
yọ̀
gl@@
Í
Jòhánù
só@@
è
emp@@
ake
téèyàn
ìn
ìj@@
view
ris@@
ké@@
bàa
out@@
apá
ojú@@
zed
want
set
arákùnrin
ran@@
200@@
tre@@
Tá
kú@@
balẹ̀
live
ge@@
olóòótọ́
É@@
ish@@
Lọ́@@
clo@@
fa@@
èr@@
28
worship
ren@@
tru@@
ẹ̀sìn
látinú
became
mind
tá@@
.@@
darí
came
wó
bù
ọlọ́@@
sec@@
má@@
eré
ministry
bójú
mer@@
ṣáájú
Israel
put
ages
every
àmì
our@@
aya
the@@
kùn
pas@@
láyé
ties
Pétérù
gbádùn
ron@@
Peter
No@@
ass@@
let
wise
dọ́@@
wife
sub@@
old
ig@@
Go@@
Is
ọ̀dọ́
kọ̀ọ̀kan
Róòmù
bóyá
Ìdí
ors
ished
la@@
Ló@@
kọ́@@
Sáàmù
kedere
bẹ
àdúrà
jú@@
ection
lóye
There
fe@@
rán
days
expres@@
mẹ́ta
res
gro@@
ver
tọ̀@@
lọ́dún
kọ@@
news
rọrùn
down
ut@@
New
wọ́@@
back
inv@@
0
away
àrùn
hope
ase
àyà
Father
od
under
ko
yìn
later
pí@@
rel@@
bà@@
ìhìn
ẹnu
táa
land
began
Ká
aṣáájú
tù
dàgbà
By
fojú
ach
Júù
upon
still
among
dè
èrè
during
ans
Ṣùgbọ́n
doing
tic
ss
app@@
ìyàwó
ways
Satan
direc@@
ened
tiv@@
Con@@
preaching
àkọ́kọ́
called
sùn
knowledge
bìnrin
sure
ìjọsìn
sho@@
holy
tim@@
parí
ph@@
sapá
gh@@
given
ects
fir@@
ayọ̀
tur@@
ants
óò
wí@@
àjọṣe
Ẹni
bàbá
ṣòro
mù
ìyà
gave
rú
bẹ̀rù
sórí
On
ìb@@
cri@@
hùwà
while
coun@@
Psalm
òr@@
tẹ́
fore@@
ìf@@
púpọ̀
three
however
8@@
ọ̀r@@
power
Read
òdodo
bu@@
26
uni@@
kẹ@@
sọ́nà
Inú
Mósè
marriage
bel@@
disciples
ial
atten@@
ìpàdé
vers@@
burú
My
tà
service
orí@@
pàdé
Scriptures
She
Ka
rà
Ilé
With
lát@@
ṣí@@
Li@@
lẹ́kọ̀ọ́
ular
Many
pris@@
wáyé
living
dly
wọ
gún
felt
wá@@
gre@@
kun
ill
lọ́jọ́
pur@@
Bá
ture
fact
ship
see@@
Matthew
making
themselves
Our
ìbá@@
century
kù@@
29
199@@
láé
Pro@@
alàgbà
tẹ
àá
sy@@
ìgbéyàwó
ser@@
Mátíù
bẹ̀
cor@@
re
31
mi@@
ough
méjèèjì
au@@
without
iah
eas@@
hon@@
loving
ist
da
láyọ̀
ious
always
His
27
father
ist@@
kẹ́
àpilẹ̀kọ
tà@@
ual
tì@@
happ@@
sing
ọn
consider
ẹsẹ
,@@
conf@@
Fi
síwájú
ments
early
rùn
took
òjíṣẹ́
bo
gbára
peace
lórílẹ̀
àlàáfíà
ṣọ́
King
òkè
yọrí
gbí@@
ṣàkóso
kọ̀
look
both
reas@@
tical
ró
ow@@
òye
gbè@@
Ar@@
bọ́
ust
ative
Má@@
débi
Láti
mil@@
emb@@
think
33
dáhùn
mother
yan
humans
order
stri@@
appreci@@
house
Irú
ṣù
something
asked
lar@@
personal
ṣíṣe
nu
Then
3@@
comple@@
àn
full
od@@
ár@@
Kódà
den
est@@
pu@@
ee@@
àárín
àṣà
ré@@
lónìí
fellow
whom
kékeré
nílẹ̀
jò
ters
àìsàn
child
So@@
face
ire
respon@@
fo@@
ef
hand
bù@@
side
els
really
Yet
láàyè
nìṣó
nípasẹ̀
thing
og@@
jíròrò
wh@@
servants
por@@
àgùntàn
possible
Òwe
pèsè
kọ̀@@
br@@
sẹ́@@
iwájú
ìmọ̀ràn
ask
wn
ẹlòmíràn
ìpinnu
9@@
àg@@
reason
burúkú
ble
Oní@@
ẹsẹ̀
ọ́n
Yes
tain@@
mor@@
ìkì
concer@@
fúnni
wal@@
off@@
àsọtẹ́lẹ̀
gbá@@
Hébérù
gùn
rù
ìyè
ṣá@@
iye
inc@@
tò
ests
sig@@
yẹ̀
Ne@@
sẹ́yìn
àjò
Even
ns
Ni
Baba
láǹfààní
between
ously
Amẹ́ríkà
hù
ences
Sànmánì
prayer
ains
rẹ́
future
Jẹ́
gbọ̀n
ìyá
bò
loo@@
together
kìíní
prot@@
ẹ́lì
igi
pẹ@@
point
learned
having
fied
wee@@
woman
gbàgbọ́
cro@@
friends
ths
Bákan
ward
jẹ́@@
wu
tually
Nípa
àánú
gí@@
lọ́dọ̀
ud@@
mon@@
àj@@
ṣẹ̀
Z@@
tting
tara
Iṣẹ́
ians
joy
cul@@
Let
nù
helped
fọwọ́
D
ical
ta@@
jinlẹ̀
Gẹ́gẹ́
pátápátá
gbẹ́@@
bre@@
expl@@
experience
Moses
food
san
jí
perfect
ef@@
Ìgbà
ṣoṣo
mà
questions
toward
tọ́@@
ety
happy
20@@
il
result
Wo
oṣù
religious
áwọn
hard
outh
ingly
teach@@
bó@@
tẹ@@
yí@@
ọ̀rúndún
article
búburú
cy
Ọ̀nà
att@@
Par@@
little
ṣá
ìbí@@
her@@
meetings
low@@
husband
À
purpose
wing
city
repor@@
Kì
T
ani@@
No
Lè
Mo@@
form
ọgọ́rùn
ṣẹ̀ṣẹ̀
․
deli@@
Olù@@
pos@@
dẹ́@@
gar@@
ten
ṣí
bed
ner
loc@@
relationship
chang@@
spec@@
aráyé
few
ze@@
All
múra
onírúurú
cop@@
mat@@
ility
died
ack
giving
32
sol@@
problems
lead@@
care
nílé
Son
lábẹ́
pé@@
ke
all@@
òróró
bring
ìrètí
ature
From
ces
194@@
ain@@
best
kùnrin
kítà
hear@@
yá@@
under@@
accep@@
close
number
someone
known
kè
lim@@
àwòrán
Aísáyà
yin
dar@@
needed
better
discus@@
Kí@@
lóde
encourag@@
serving
d’s
gbìyànjú
ost
ẹrú
Èmi
try
left
Ké@@
Proverbs
ọ́ọ̀@@
sti@@
fẹ́@@
déédéé
kọ́ni
St@@
Ti@@
lives
again
hum@@
àyè
kind
person@@
ions
hun
Un@@
sá
mọ́lẹ̀
pá@@
str@@
òpin
assig@@
àgbà
cap@@
yourself
ké
Bẹ́ẹ̀
served
writ@@
done
lù
ained
ort
wicked
comp@@
mò
dìde
eli@@
buil@@
language
dist@@
fic@@
moved
ibẹ̀
descri@@
50
gener@@
Lo@@
These
rul@@
wisdom
sọ́dọ̀
tàn
bi@@
mélòó
Your
nílùú
sun
ise
ose
matter
ir
ong
Ẹ́@@
ṣé
ànímọ́
heaven
èyíkéyìí
different
ẹ̀yà
Israelites
Ex@@
sto@@
ọ̀tọ̀
áńgẹ́lì
Per@@
light
tal@@
up@@
àgbègbè
less@@
aining
bé@@
Ab@@
ind
following
bro@@
present
èyàn
share
ọmọ@@
sal@@
ìl@@
bur@@
understand
nor@@
counsel
àlùfáà
adà
id
òk@@
ms
rú@@
water
associ@@
righteous
Jerúsálẹ́mù
hold
rá@@
ọmọdé
lọ́rùn
dem@@
ged
yed
retí
fru@@
Jerusalem
bad
ould
message
Isaiah
continue
thy
went
sù
wádìí
last
ẹ̀jẹ̀
cer@@
eful
cha@@
certain
ani
ohunkóhun
àpèjúwe
báwo
0@@
spe@@
pleas@@
support
using
odò
sè
tọ́jú
35
De@@
eyes
rep@@
lóòótọ́
rọ
dition
going
fe
feelings
school
ca@@
Ńṣe
mankind
Òfin
off
believe
ses
kókó
gen@@
determin@@
ately
women
anointed
àl@@
ens
likely
hìn
milli@@
tètè
Arákùnrin
ell@@
cannot
exc@@
body
prin@@
ẹlòmíì
ìkẹ́kọ̀ọ́
ered
brother
Ìṣe
prac@@
vo@@
ined
ann@@
vic@@
ourselves
kìlọ̀
transl@@
ening
ìpẹ́
cou@@
àlà
kà@@
bẹ̀@@
kíyè
roo@@
teaching
change
plac@@
àdá@@
gbò@@
Kọ́ríńtì
thers
jọ@@
fear
Jóòbù
Com@@
kàn@@
Y
ree
enjoy
Fí@@
supp@@
thought
ave
rẹ́@@
desire
ẹ̀bùn
Ìyẹn
Ábúráhámù
viol@@
money
ational
situation
states
sinsìnyí
f
Because
wọ@@
loy@@
baptized
40
dic@@
ipá
lẹ́
fy
Although
ell
ste@@
Mi
answer
respect
Lúùkù
tes
ẹ̀ẹ́@@
ome
shi@@
reve@@
heavenly
ed@@
kódà
aj@@
’t
R
ẹran
lógún
far
ines
avoid
Tímótì
ian
head
ans@@
peri@@
As@@
ace
37
az@@
cu@@
gbà@@
since
benefit
ìlera
ject
sa@@
rit@@
received
rúkọ
sen@@
ath
Timothy
fífi
tọkọtaya
gidi
cr@@
ancient
ná@@
ipa
speak
jẹ@@
ọlá
star@@
dandan
elders
col@@
àrà
Jud@@
Fún
RI@@
Ká@@
gbàgbé
mọ́ra
reali@@
members
ago
talk
ọmọlẹ́yìn
dom
ible
ìm@@
bọ
hab@@
Those
ond
ọkàn@@
hor@@
Gb@@
Má
reading
Luke
oko
rais@@
concl@@
fine
sense
health
É
Ẹ̀kọ́
ands
lead
soci@@
needs
wòlíì
difficult
34
courage
ood
who@@
nor
ach@@
dee@@
ced
sọ@@
ré
lẹ́tà
dep@@
lówó
dìí
account
saw
Le@@
aṣọ
Ju@@
mì
ṣọ́ọ̀ṣì
crip@@
tú
dáàbò
iness
cause
ìrànlọ́wọ́
rẹ@@
influ@@
learly
jọ́sìn
ìbùkún
fẹ́ràn
Consider
bas@@
fò
nations
pẹ̀@@
ilé@@
illustr@@
especially
ìrí@@
ẹnikẹ́ni
indic@@
around
ẹgbẹ̀rún
streng@@
àtà
born
prove
eng@@
ears
offer@@
níṣ@@
Who
publ@@
Dí@@
real
position
knew
lic
èso
Wọn
seem@@
Olúwa
beg@@
Wh@@
worl@@
answ@@
pati@@
requi@@
Ádámù
ld
law
Acts
attention
fulfill@@
arábìnrin
thus
ìlérí
hùn
ulẹ̀
Su@@
dín
turn
ọ̀dọ̀
case
married
En@@
’@@
ering
produc@@
òkú
wanted
tice
Lé@@
ìdájọ́
help@@
yanjú
oòrùn
cal@@
turned
iná
pol@@
Tí@@
free
high
tan
ṣètò
Ad@@
Does
ested
Ayé
principles
next
mean
ìsì
Thus
saying
occ@@
mọ̀ràn
iting
ented
thr@@
including
urch
kẹ̀@@
var@@
ide@@
Di@@
system
trust
World
char@@
soon
èké
lóhùn
Gẹ̀ẹ́sì
sk@@
until
follow
receive
wrong
kéré
ick@@
Greek
taking
oògùn
James
thinking
Of
question
mẹ́rin
cent
pà@@
kórìíra
brought
kindness
He@@
ọmọbìnrin
suffering
Àp@@
along
rì
attitude
yet
oned
Já@@
òkè@@
ọ́ra
ident
ably
kalẹ̀
worshi@@
earth@@
fur@@
conduct
benef@@
Yàtọ̀
ures
anger
sọ́@@
rin@@
rèé
consci@@
tle
gá
adi@@
makes
Can
Such
Job
dw@@
ached
ùn
ẹyẹ
emo@@
ental
ign
ping
kẹyìn
kò@@
tor
màá
ass
succ@@
Corinthians
ck
borí
table
night
tation
dead
Jews
ọ̀tá
Jó@@
provide
Since
nwò
blood
ple@@
an’s
lands
Kàkà
here
religion
kún@@
refl@@
dies
ges
tion@@
increas@@
um
tell@@
arri@@
rely
nation
small
lò@@
ound
obedi@@
moral
kúṣe
sókè
òkun
clear
don@@
Are
followers
ogún
ọ̀kẹ́
taught
Abraham
eless
serv@@
high@@
tional
sílé
tàwọn
While
dia
let@@
ẹbọ
poss@@
contr@@
pín
guid@@
síbi
ularly
Law
gra@@
poli@@
ìran
Gíríìkì
lẹ̀@@
comman@@
Á
ìjà
Ìr@@
ve@@
san@@
che@@
individuals
ty@@
Ẹlẹ́dàá
orin
liter@@
doc@@
prophet
tain
pray
ẹ̀ẹ́
àti@@
ṣèlérí
mẹ́wàá
Adam
ìṣẹ̀lẹ̀
pray@@
mà@@
beli@@
remain
war
ìgbà@@
sent
den@@
low
teach
mu@@
kin@@
ew@@
ẹgb@@
whole
ability
ow
ually
sive
satis@@
àṣe@@
Ilẹ̀
bir@@
strong
ring
fun@@
Àpọ́sítélì
obe@@
gir@@
lókun
wọ̀nyẹn
group
friend
ṣèrìbọmi
ger
Bí@@
tútù
seen
ak
dín@@
wi@@
ìí
ora
develop@@
Watchtower
taken
pípé
instruc@@
ọmọkùnrin
special
tẹ́ńpìlì
action
st
títọ́
control
sons
See
Èṣù
hu@@
Ná@@
àpéjọ
gives
ju@@
pan@@
ṣègbọràn
dò
whether
pic@@
Be
z
mọyì
ches
ut
Romans
yèsí
tin@@
nothing
àgb@@
tered
lọ́run
wit@@
wọ̀n@@
qualities
dojú
mission@@
one@@
195@@
stu@@
involved
every@@
valu@@
ẹẹ@@
Sólómọ́nì
lies
shar@@
adise
ON@@
tor@@
Sa@@
dípò
responsib@@
matters
mentioned
wa@@
reli@@
occas@@
coming
daugh@@
pa@@
Creator
move
ọrọ̀
Rather
fá@@
wonder@@
kárí
àbí
àw@@
comes
ẹ̀ka
ìtẹ̀@@
incl@@
enjo@@
dedic@@
On@@
ah’s
àwùjọ
mẹ́nu
Ú
C.E
pt
dness
bọ́gbọ́n
kì@@
four
loved
resul@@
Se@@
conven@@
ja
verse
sẹ
atch
identi@@
similar
vir@@
jud@@
àtún@@
works
máà
fẹ́rẹ̀ẹ́
ga@@
half
gọ́@@
appe@@
spiritually
listen@@
physical
ude
iled
illi@@
tell
my@@
exerc@@
tẹ̀@@
you@@
mọrírì
Ti
Wor@@
heard
Ì
based
med
je
great@@
stud@@
ìdáhùn
rìí
yan@@
tọ̀
arrang@@
recogni@@
Engl@@
yọ̀@@
ber@@
temple
material
pi@@
Au@@
àsọ@@
fọkàn
àádọ́ta
refer@@
mó@@
lẹ́ẹ̀@@
bus@@
fì
ree@@
gbáyé
Ìṣípayá
dr@@
ọ̀dọ́@@
rọ́@@
AN@@
simply
invol@@
tẹ́wọ́
kíkún
láà@@
eff@@
Jósẹ́fù
information
tiwọn
yé@@
During
cam@@
wàhálà
ive
ǹfààní
Is@@
tóun
becom@@
méje
ọ̀hún
ìsọfúnni
írí
Revelation
lákòókò
dí
márùn
raise
ling
mag@@
sílò
vol@@
onífẹ̀ẹ́
ale
requ@@
ue
sm
nil@@
Joseph
some@@
United
sisters
Bẹ́@@
ili@@
cour@@
míṣọ́nnárì
everlasting
àb@@
inten@@
ries
Íń@@
hun@@
resurrection
látọ̀dọ̀
dárí
kán@@
claim@@
ful@@
létí
shows
14@@
pr@@
kòókò
consid@@
Ìwọ
fl@@
view@@
once
page
Jos@@
fav@@
̣
Ìfẹ́
Far@@
pers@@
àkọsílẹ̀
ource
May
hol@@
jìnnà
sl@@
ọ́ọ̀lù
Èdè
gg@@
interest
sing@@
sacrifice
local
dúpẹ́
ọgbà
Now
ong@@
Lord
ọ̀sẹ̀
Ú@@
far@@
ough@@
rest@@
Today
scho@@
truly
Not
GB@@
promise
ile@@
mánì
únibíni
dùúgbò
gó@@
past
Egy@@
Tr@@
false
happiness
exam@@
ewu
certainly
tern@@
Orílẹ̀
mir@@
18@@
tọ́ka
Mí@@
takes
Níwọ̀n
strength
mee@@
stand
báwọn
ism
mẹ́rìn@@
úróṣinṣin
bul@@
Kó@@
ress
provid@@
wọlé
work@@
Lát@@
ext
started
ater
qui@@
aláṣẹ
tipa
Am@@
apostles
According
righteousness
necess@@
úgb@@
dy
inspired
Íjíbítì
àkó@@
sì@@
n’t
Ger@@
vation
olórí
Gbọ̀ngàn
neigh@@
minis@@
temp@@
nment
lost
El@@
àlàyé
circumstances
large
pin
sun@@
àfi@@
Bàbá
ìbálòpọ̀
òyìn
ìrò@@
Ser@@
Me@@
tures
ìtumọ̀
slave
judg@@
sha@@
àṣ@@
ìpínlẹ̀
lived
second
Ru@@
ign@@
Jẹ́nẹ́sísì
àṣìṣe
àádọ́@@
alls
effort
ce@@
Sat@@
Genesis
trans@@
gbó
problem
posi@@
pain
pẹ́@@
boo@@
leave
àgbàlagbà
ile
Ọ́@@
olùkọ́
already
Gre@@
anim@@
are@@
struc@@
tiwa
ṣíà
rìn@@
Ther@@
comfort
tò@@
ẹranko
mp@@
ẹ̀w@@
ṣiríṣi
Éf@@
péré
ick
serious
ders
ògo
mẹ́tà@@
Hebrew
abo@@
meaning
lif@@
evidence
kingdom
ìṣè@@
sight
jókòó
accept
198@@
da@@
ẹ̀rọ
includ@@
Devil
ply
uses
sister
dù
near
dínlógún
Láì@@
educ@@
Like
IN@@
Àwa
ìtọ́ni
efforts
can@@
recor@@
ríà
wid@@
yebíye
Solomon
Sim@@
advan@@
àní@@
understanding
Lọ
Ojú
lélẹ̀
unity
Sh@@
Daniel
ìrẹ̀lẹ̀
ys
Rere
public
named
ins
Ọdún
ìírí
country
òde
return
gbẹ́kẹ̀
Bá@@
provided
10@@
ìdí@@
common
People
pọ@@
lear@@
ever@@
tóbi
baba
Lóòótọ́
older
gbá
anyone
Ó@@
standards
Ò
Jú@@
ective
gift
sever@@
thous@@
kojú
Alá@@
THE
ol
Ge@@
actions
according
Phili@@
ẹ̀yin
allow
ped
lu@@
chap@@
●
magaz@@
fles@@
clean
reason@@
mẹ́fà
emor@@
ìgbé@@
ìṣà
níwájú
psal@@
kept
àtijọ́
ided
bú
òp@@
olog@@
Afri@@
ǹda
ẹ́ẹ̀tì
fetí
àǹ@@
àwọ̀
ayed
pọ̀lọpọ̀
Párádísè
enem@@
sex@@
prop@@
àrí@@
úrò
ack@@
ẹ̀yìn@@
rule
káàkiri
ech
believers
divine
prayers
working
destro@@
aving
Ẹ̀mí
Still
táá
60
arly
tivity
showed
Mess@@
earch
sugg@@
197@@
ìyanu
kee@@
wúlò
Bro@@
feel@@
ọ̀gá
proved
forever
óò@@
challeng@@
Nóà
written
Sámú@@
dó
duc@@
got
sọ́kàn
ought
loyal
àbá@@
rather
public@@
travel@@
play
longer
alábòójútó
ital
Will
even@@
effect
38
ken
appointed
òǹ@@
held
imitate
perhaps
ord@@
offic@@
Ta
An
àìnípẹ̀kun
Mic@@
ohùn
ous@@
line
sùúrù
akẹ́kọ̀ọ́
godly
assu@@
beau@@
posed
tries
ls
nu@@
Gí@@
hom@@
bran@@
kiri
allow@@
dra@@
bínú
fu@@
áa
míràn
stan@@
appear@@
promises
olú@@
vered
Òótọ́
sacrific@@
Èèyàn
kúlùkù
ements
Wa
ext@@
Chris@@
regarding
Bo@@
York
ǹjẹ́
months
speaking
Instead
pọn
justice
anything
itation
pop@@
die
gain
congregations
deep
prepar@@
gbo
Eli@@
ránṣẹ́
fun
Their
doubt
ẹ́gun
aṣ@@
mit@@
Christ’s
greater
sheep
history
ours
drin@@
ṣàyẹ̀wò
Ìgb@@
Sep@@
meeting
cy@@
sìkò
Paul’s
ities
bọ̀wọ̀
pioneer
síra
willing
jáwọ́
confidence
gidigidi
Mary
Ọjọ́
ount
origin@@
powerful
imp@@
opportunity
39
òṣìṣẹ́
ffer
tors
jàǹfààní
va@@
lied
èwé
bor@@
within
bẹ́
olódodo
Kó
tirẹ̀
Mèsáyà
yòókù
ṣègbéyàwó
bára
Jewish
grap@@
natur@@
jọ̀@@
therefore
value
ton@@
Òun
Can@@
blessings
gbangba
authority
há@@
lásán
óòpù
standing
prophecy
Eph@@
jẹ̀mú
read@@
promis@@
poin@@
area
Babyl@@
helps
Indeed
Qu@@
accompl@@
decision
rest
Pe@@
hel@@
contribu@@
head@@
continued
remember
36
inf@@
ongo
mù@@
ẹrù
medic@@
demonstr@@
privilege
heal@@
Èlí@@
kára
ilities
Àpẹẹrẹ
sions
irst
spoke
onímọ̀
compani@@
àgbàyanu
than@@
ites
àṣàrò
experienced
ground
hur@@
aled
unic@@
wákàtí
ṣò@@
Ọ̀kan
rug@@
ìtara
care@@
witness
Lu@@
mítà
ye@@
vely
new@@
val
àgọ́
ery
eep
méjì@@
fín@@
success@@
lier
Dec@@
believ@@
building
ays
sle@@
aid
soul
blessing
ìṣe@@
alone
sequ@@
Hebrews
dè@@
ele@@
Jé@@
tán@@
Nǹkan
àyíká
erous
Fa@@
explained
moder@@
ọgọ́@@
everything
gri@@
ru
fic
overse@@
Witness
decisions
ìtọ́jú
advice
àjíǹde
ọ̀n
ńlá@@
relati@@
medi@@
Hence
sáàmù
apply
activities
ró@@
Sam@@
dán
zing
def@@
issue
níyànjú
thoughts
tòsí
ists
ànújẹ́
hands
establ@@
mọ́kàn@@
organization
H
men@@
yẹra
stated
lédè
bri@@
ìwádìí
ord
Je@@
tọkàntọkàn
ìgboyà
Jo@@
harmon@@
spo@@
progre@@
ọtí
Fe@@
Jákọ́bù
òmìnira
ook
ÀWỌN
àdánù
I’@@
iti@@
deser@@
Jerem@@
onítọ̀hún
aying
States
bú@@
Car@@
ligh@@
bes
mate
anx@@
won@@
Ẹ́
proc@@
Bábílónì
listen
ọ́njú
ṣèrànwọ́
draw
asp@@
maintain
Bar@@
gọ̀
Ìṣọ́
Jan@@
Roman
Samuel
Lọ́dún
seem
ìtọ́@@
leg@@
instance
yòówù
devo@@
hear
examples
preci@@
dri@@
sim@@
Dáníẹ́lì
famil@@
pages
múlẹ̀
AR@@
vital
friend@@
ghty
Mark
role
vision
field
Bible’s
Dájúdájú
B.C.E
prof@@
Kọ́@@
kòkòrò
Éfà
courag@@
ìrìn
practic@@
apọ̀
events
ched
tou@@
Ọ́
Did
ther’s
M
Hi@@
Ọ
shepher@@
hou@@
Màríà
ro
bì@@
offer
Jeremáyà
nì@@
lójoojúmọ́
Rẹ
preach
Cath@@
rich
discipl@@
persecu@@
shall
wú
heavens
perf@@
gẹ́@@
integr@@
mílíọ̀nù
considered
ẹ̀wọ̀n
sán
Eu@@
stat@@
onom@@
kno@@
students
èé@@
bapti@@
tan@@
Scriptural
gbẹ̀rún
ìṣàkóso
hearts
deal@@
avail@@
foc@@
True
Pẹ̀@@
government
Co@@
L
row
ńkọ́
call@@
wọ̀@@
tro@@
alẹ̀
tumọ̀
pàá
ame
sid@@
kan@@
ff@@
wà@@
èé
era
yẹ̀wò
resp@@
log@@
continu@@
ètí
ìí@@
fill@@
èè@@
ul
bọ́@@
esp@@
ade
ọ̀l@@
pasẹ̀
ep
Ù
sci@@
cle@@
Bib@@
jẹ̀@@
t’s
tem@@
fee@@
atch@@
Ń@@
ìṣe
fam@@
úù@@
gover@@
lis@@
chil@@
fore
devel@@
differ@@
ur
deed
ẹ̀lẹ̀
Dá@@
umb@@
ome@@
pione@@
yọ@@
ẹ́kọ̀ọ́
ìbọmi
prophe@@
vid@@
righ@@
aching
dev@@
ṣi
wájú
efore
ends
rọ@@
Mat@@
aking
ft
TH@@
ríkà
langu@@
v
evil
gbègbè
jíǹde
jọsìn
ower
C
ọràn
bless@@
òrò
wú@@
chall@@
nei@@
resurrec@@
faith@@
organi@@
àtọ̀
know@@
ará@@
sac@@
stru@@
ẹ̀r@@
–
experi@@
fin
dún
stand@@
follow@@
Israel@@
ánì
àkọ@@
lú@@
fún@@
iri
ames
enly
mé@@
nìí
spir@@
jọba
ready
haps
ọk@@
sm@@
ọ́n@@
ṣin
ath@@
ith
tun
ọ̀wọ̀
lù@@
ńg@@
yì
ìrán@@
dù@@
ìpín@@
G
Ph@@
div@@
val@@
rín
F
nesses
ult
ustr@@
reat@@
òó@@
bs
itate
W
circ@@
suffer@@
gh
hist@@
Ará@@
your@@
individ@@
main@@
yìn@@
Dav@@
sou@@
J
ùjọ
aláb@@
ọ́kọ́
joojúmọ́
dì@@
òrùn
ecu@@
árá@@
V
dọ́
Christi@@
fẹ̀ẹ́
ese
will@@
pú@@
yè@@
uring
author@@
kòó@@
búr@@
anci@@
itu@@
youn@@
00@@
únjẹ
000
quali@@
import@@
sul@@
té@@
kọ́bù
dúrà
òṣ@@
ṣinṣin
jìn@@
sue
Sá@@
grou@@
tú@@
ayá
thor@@
Ù@@
Jò@@
sting
Mos@@
ìyàn
jútó
·@@
tak@@
untun
árá
ness@@
respons@@
ques@@
avo@@
ilẹ̀kọ
situ@@
ards
mater@@
sis@@
recei@@
dọ̀
àkà
selves
ples
ànlọ́wọ́
kór@@
mìnira
jọ́@@
heav@@
méj@@
phys@@
dren
àjọ@@
The@@
pátá
ll
stead
oyà
mean@@
fù
disci@@
she@@
To@@
ànà
□
Tru@@
ẹ́g@@
doub@@
júdájú
úgbò
Ac@@
U
privile@@
arr@@
Jẹ́@@
Tim@@
husb@@
fel@@
lasting
conduc@@
anted
Do@@
fol@@
appoin@@
ín@@
pow@@
prob@@
K
gbọràn
lood
ẹ́sí@@
ather
fai@@
lik@@
opport@@
religi@@
lérí
Gen@@
àtàkì
È
priv@@
zation
gàn
ẹlẹ̀
dú@@
wis@@
onal
gbéyàwó
kẹ̀
Joh@@
ìnira
prophec@@
ájú
mìí@@
any@@
wic@@
òrán
tánì
diffic@@
ousness
P
rẹ̀ẹ́
ọ́ọ̀ṣì
knowled@@
B
Hé@@
bùn
ìíní
eve
divid@@
Jer@@
apost@@
ffic@@
ʹ@@
ànwọ́
àáfíà
contro@@
sìn@@
le’s
ew
tural
long@@
ẹ́ẹ̀@@
pose
wed
àyí@@
trav@@
sír@@
©
nìyàn
pè@@
hó@@
akes
àlù@@
Mà@@
isters
àpé@@
sion@@
cus@@
Ǹ@@
compl@@
ano@@
uch
àbá
ially
yẹ̀@@
lùú
yàwó
Cor@@
yes
áyà
adv@@
enced
wish
payá
Gírí@@
ich
ked@@
rúurú
mess@@
èyí@@
human@@
aught
àgbà@@
spiritu@@
regar@@
jin@@
kòó
eld
Acc@@
cc@@
nam@@
ys@@
apti@@
Abraha@@
jíṣẹ́
rit
jus@@
augh@@
numb@@
inst@@
ost@@
ven
spi@@
jẹ̀
with@@
ilẹ̀@@
Josep@@
nee@@
relation@@
tow@@
Pé@@
ü@@
árì
òlíì
whe@@
líọ̀nù
inform@@
titu@@
ùntàn
àkì
sáyà
h’s
Jèhó@@
Jeho@@
jó@@
Tho@@
simil@@
Bec@@
◆
ìṣẹ́
La@@
exer@@
Sin@@
sla@@
àìní@@
Mó@@
fri@@
yẹ@@
úró@@
mọkùnrin
ale@@
àbò
ọ̀n@@
Af@@
attitu@@
óró
greg@@
X@@
angu@@
Scrip@@
$
ìyànjú
wom@@
⁠
circum@@
ṣèr@@
angba
esus
thin@@
gy@@
ffer@@
Só@@
uel
proph@@
àkóso
orig@@
evel@@
ńgẹ́lì
org@@
Corin@@
gbè
ètè
fal@@
ọ̀ngàn
ọ́dọ̀
led@@
hal@@
oh@@
dodo
ã@@
Solom@@
erful
èy@@
síté@@
yì@@
yl@@
tẹ́ń@@
Paul@@
àmù
Dani@@
lòpọ̀
júwe
fáà
Pa@@
rílẹ̀
termin@@
nec@@
hù@@
certain@@
àyé
keré
æ@@
ben@@
pher@@
dúr@@
júmọ́
marri@@
Olú@@
Q@@
ö@@
embers
of@@
port@@
dou@@
Ábúrá@@
ṣo@@
ògùn
pẹ̀kun
flu@@
tings
Aí@@
ọtaya
Yor@@
Rom@@
Ẹlẹ́@@
fíà
atis@@
úkọ
nikẹ́ni
ey
individu@@
abl@@
ainst
forts
aba
ẹ́yìn
yanu
árádísè
ʹ
urú
àpè@@
atur@@
Psal@@
stances
decis@@
ñ@@
Abra@@
kọ̀ọ́
|
tọ̀hún
jíǹ@@
ìsọ@@
irc@@
àgbàl@@
—@@
òkòrò
fort
újẹ́
idi
ỌN
ÀW@@
ọt@@
tè
ava@@
pù
reng@@
til
ô@@
kẹ́ni
though@@
ause
̀
how@@
Isai@@
rán@@
Sol@@
ánù
inted
tọkàn
Sàn@@
Bab@@
ibí@@
óà
aim@@
Gree@@
&
ńtì
ìṣó
Jerus@@
contin@@
tower
òójútó
tẹni
X
%
ogni@@
hálà
sù@@
kàtí
till
congreg@@
kóhun
Kris@@
◯
ṣir@@
Ìṣí@@
usb@@
them@@
àásù
ou
ẹn
ç@@
lit@@
ìíra
úndún
Jè@@
innu
Creat@@
ṣo
°
tury
tọkàn@@
ẹẹrẹ
Watch@@
q
nrin
ł@@
Consid@@
ä@@
ṣọ́nnárì
stem
>
Wit@@
níy@@
ìni@@
andan
bélì
pub@@
rong
urrec@@
❑
How@@
ṣin@@
pátá@@
ọmi
ranko
dàá
adáa
mọ́nì
anu
ciples
Timo@@
him@@
tegr@@
agbà
bec@@
✔
ween
úrù
spired
idence
pìlì
unkóhun
Matthe@@
verbs
tíù
○
ê@@
sel
édé@@
demon@@
_@@
ople
menti@@
ìlì
Z
ticle
tivities
ë@@
j
-@@
:@@
ording
rírì
ẹ́ẹ̀
❖
sai@@
pàá@@
Corinth@@
àṣà@@
→
fice
lónì
ë
úkú
↓
⇩
lòó
ṣọ́n@@
níẹ́lì
Ádá@@
č@@
❏
àkiri
q@@
ʼ@@
esis
yòó@@
ǹkan
▸
ṣ
ròrò
#
kìl@@
sálẹ́@@
B.@@
kéyìí
méjèè@@
Š@@
fàà@@
contri@@
ʽ@@
■
â@@
/@@
ה@@
Mè@@
ā@@
òro
ה
ọ̀nù
י@@
ו@@
Q
­
pọ̀l@@
rote
š@@
espec@@
◇
ł
®
bet@@
←
̀@@
õ@@
àdé
ś@@
nẹ́sí@@
↑
⇨
lùkù
₦
Òó@@
=
édéé
ø@@
mótì
ū@@
òlí@@
ī
―
̆@@
righte@@
alem
digidi
tọk@@
hún
ş@@
ă@@
ß@@
ľ@@
̩@@
Ž@@
ä
Ã@@
ę@@
\
C.@@
̣@@
ý
נ@@
▾
ׁ
ש@@
פ@@
î@@
ànjú
ỵ@@
_
ã
sìnyí
ě@@
rom
óòmù
Kọ́rí@@
−
ï@@
£
‛
àwó
в@@
а@@
Ş@@
ï
ìbù@@
ß
ö
å@@
toge@@
ż@@
☞
ž@@
hámù
Ü@@
æ
⁄@@
ý@@
ē
ẹlò@@
΄
proble@@
Ç@@
ē@@
Ô@@
sítélì
ʼ
÷
Å@@
ū
@
ą@@
Î@@
joo@@
ā
ő@@
Sóló@@
и@@
Bábí@@
ţ@@
י
μ@@
н@@
р@@
Ł@@
⇧
ẹ́gẹ́
п@@
nárì
ọpọ̀
å
̇@@
̗@@
Ḥ@@
fààní
ḿ
ı@@
Ṣ
únibí@@
Jòh@@
ř@@
ю
ж@@
м
̧@@
Б@@
‘@@
Ä@@
Ż@@
¡
Revel@@
⁄
α
ů@@
Ṭ@@
Hebre@@
ùnrin
û
є@@
ǒ@@
ṇ@@
ć
ŭ@@
ü
Ê@@
Jerú@@
х@@
м@@
ḥ@@
ě
ǒ
ǐ
▴
ť@@
™
+
⁠@@
о
Ö@@
Č@@
ī@@
̆
<
Amẹ́@@
â
о@@
е@@
с@@
т@@
и
і@@
д@@
і
ź
Å
ō
œ@@
€
­@@
sálẹ́mù
ĭ
íṣi
Isra@@
ʺ
Jóò@@
Pété@@
ô
Ĉ@@
̃
̃@@
Lúù@@
ùgbọ́n
;@@
ṇ
ỵ
bítì
ẹ̀rún
Ísír@@
×
ạ@@
Íjí@@
ẽ@@
Gẹ̀ẹ́@@
ş
