<unk>
<pad>
<s>
</s>
.
,
the
:
to
a
of
?
and
“
”
)
(
in
’
s
that
-
s@@
bona
—
we
ab@@
Jehovah
ed
b@@
l@@
y@@
al@@
e@@
is
w@@
1
ng@@
t@@
u@@
is@@
for
z@@
God
m@@
I
em@@
his
ing
be
S@@
n@@
el@@
um@@
2
you
an@@
am@@
e
i
k@@
on
as@@
in@@
i@@
im@@
o
with
was
N@@
he
az@@
not
il@@
as
will
;
3
us
en@@
es@@
ul@@
o@@
‘
it
E@@
r@@
c@@
I@@
ku@@
B@@
ar@@
are
have
ela
M@@
uku@@
on@@
4
our
L@@
ele
W@@
a@@
d@@
K@@
5
un@@
es
isa
U@@
p@@
kw@@
ang@@
v@@
or
A@@
wa
can
f@@
6
u
er@@
Jesus
The
t
begodu
uJehova
ukuthi
om@@
h@@
ad@@
eni
abantu
oku@@
Ng@@
from
y
re@@
ib@@
an
one
si@@
er
who
ing@@
!
do
eng@@
ob@@
O@@
15
what
H@@
7
they
by
it@@
th@@
ak@@
ek@@
What
g@@
ath@@
iz@@
aku@@
10
their
ez@@
aba
9
8
ise
ako
11
Bible
T@@
all
12
P@@
ay@@
ngoku@@
C@@
njani
al
id@@
him
eb@@
14
no@@
13
khulu
G@@
se@@
F@@
or@@
weni
ini
be@@
ne@@
ung@@
D@@
enza
ani
ers
ik@@
about
le
at
ic@@
ub@@
17
this
your
ag@@
16
had
A
ac@@
ana
people
J@@
ted
us@@
them
ho@@
tr@@
eli
uz@@
at@@
wa@@
uZimu
ol@@
R@@
ur@@
bek@@
How
hl@@
ir@@
noku@@
Y@@
-@@
esi@@
st@@
ind@@
were
ph@@
azi
did
eka
ts
would
and@@
when
abo
ala
uth@@
ith@@
ly
if@@
aph@@
E
av@@
b
ation
ate
18
my
lo@@
ileko
In
tjh@@
j@@
elo
os@@
ha@@
time
uy@@
19
kufuze
1@@
ihl@@
asi@@
af@@
we@@
aw@@
so
has
le@@
ahl@@
ong@@
help
how
ula
ed@@
ile
uJesu
akh@@
Uku@@
may
kodwana
ent
life
nom@@
We
20
end@@
yoku@@
sing@@
khona
ngayo
those
ro@@
eku@@
He
lokho
ef@@
ent@@
n
me
but
iy@@
emb@@
O
into
ba
ig@@
iv@@
ama
od@@
her
nam@@
iswa
ud@@
eth@@
k
akhe
more
kh@@
uk@@
Um@@
kung@@
iin@@
Krestu
ey@@
Th@@
m
elwa
li@@
umuntu
24
njeng@@
love
iph@@
Ab@@
nab@@
able
iya
ence
ated
also
res@@
ok@@
ke
enz@@
op@@
con@@
akho
Kodwana
some
th
out
]
[
Z@@
beb@@
ting
good
no
se
isi
q@@
nes@@
wathi
athi
many
wab@@
21
abanye
22
atjh@@
Paul
siz@@
andla
should
isi@@
izinto
pro@@
kaZimu
if
dis@@
make
way
When
bang@@
for@@
ex@@
par@@
alo
ar
ine
h
ehl@@
U
ies
work
been
qu@@
could
ono
l
sp@@
woku@@
tion
enze
does
abang@@
things
But
ance
nang@@
na
abe
lo
itjh@@
It
sis@@
sib@@
ment
ngom@@
kuhle
need
indlela
ev@@
23
phasi
ami
und@@
iim@@
iso
even
eke
anga
pl@@
such
ti@@
up
phambili
bakhe
ri@@
en
okuth@@
ow@@
others
pha@@
esi
olo
other
nanyana
age
elela
ap@@
ane
Why
ukul@@
bab@@
ec@@
ter
isikhathi
faith
la
usa
John
untu
aka
ili
uza
there
ep@@
amb@@
thi
wakhe
ukuz@@
okw@@
namkha
nge@@
comm@@
ngombana
example
ve
UJehova
beku@@
IS@@
ity
said
19@@
kwa@@
ch@@
umb@@
baz@@
end
world
int@@
Funda
she
oni
day
ye@@
For
njalo
ure
ce
mb@@
Kingdom
Read
iphi
ona
aban@@
loku@@
sil@@
aka@@
ephasini
congregation
man
S
spirit
V@@
If
uka
elwe
kub@@
28
koku@@
eleko
20@@
ka@@
earth
Kubayini
ant
khul@@
ah
ade
soku@@
per@@
ukub@@
Christians
5@@
years
As
d
They
family
than
izwa
because
first
wana
ikh@@
25
over
NG@@
see
ikela
pre@@
EL@@
siy@@
know
ngam@@
ama@@
ally
aza
its
tj@@
You
uthi
har@@
est
Christian
eza
*
ely
zim@@
nek@@
ale
these
Am@@
he@@
njengombana
koke
ons
made
like
ning
must
come
ika
give
mis@@
oz@@
ess
ary
hol@@
inga
Israyeli
namtjhana
AN@@
This
khuluma
amaKrestu
T
says
ations
ze@@
brothers
esing@@
oy@@
ethu
ain
inc@@
ful
nak@@
use
7@@
Christ
nem@@
naye
ou@@
bal@@
zi
ings
nabo
TH@@
take
ule
eko
uM@@
spiritual
pres@@
children
eg@@
awo
UM@@
ra@@
phila
ere
akw@@
okuf@@
ye
uPowula
alela
nje
own
27
inye
atj@@
abal@@
UJesu
phela
de@@
str@@
Nanyana
times
ling@@
ents
att@@
Yeke
ina
wam@@
ene
lis@@
war@@
of@@
/
ekela
30
sin@@
kwaphela
Njengombana
which
only
iBhayibheli
ness
ali
sith@@
ter@@
ngendlela
lakaZimu
Witnesses
being
uzoku@@
ES@@
bu@@
might
omb@@
een@@
esib@@
heart
kobana
ezinye
kwakhe
rec@@
ear@@
siza
ous
wal@@
kun@@
izoku@@
Satan
te
8@@
ukuth@@
elel@@
true
feel
become
amandla
2@@
eleni
wazi
umana
kuJehova
bas@@
just
bes@@
26
Bhayibheli
That
ize
1-@@
ia
6@@
abab@@
Iz@@
then
wor@@
abath@@
sc@@
eli@@
after
So
AB@@
ive
iko
used
qala
uph@@
kuf@@
And
uny@@
osi
Ngoku@@
Y
kaJehova
kuz@@
ones
read
words
bel@@
29
ngokw@@
esiz@@
ay
lakhe
now
ty
car@@
jalo
sion
uf@@
sim@@
neen@@
Kh@@
atha
ess@@
hlala
ied
oke
nokuthi
waz@@
umela
bey@@
ayo
thand@@
ic
David
learn
elele
ekileko
name
isako
very
land@@
boke
ch
king
ut@@
eph@@
abaz@@
elako
wethu
show
ibe
ezing@@
abela
over@@
go
ezi
ngokuthi
iqiniso
bay@@
uhl@@
qiniso
wom@@
IN@@
Qala
new
am
ug@@
Buso
ered
kwe@@
HA@@
31
emp@@
bath@@
before
pos@@
bakaJehova
awa
Rom
told
any@@
kangangani
person
ebenza
ever
Sing@@
ilo
yoke
athu
33
Nokho
lapho
ngebanga
keep
itj@@
woke
rem@@
each
ice
nyaka
wen@@
oth@@
akhul@@
ekh@@
any
pr@@
zoke
ngitjho
ond@@
reg@@
bo@@
ulo
men
atjho
idi
dec@@
fund@@
ip@@
labo
abanengi
anda
te@@
eki
ities
ngemva
izo
ukuba
pe@@
kom@@
important
zoku@@
ila
thetho
Bhayibhili
ekile
cho@@
etha
Jwanisi
gr@@
gh@@
Do
sh@@
UL@@
leyo
endlela
•
serve
afund@@
wan@@
D
uso
faithful
AK@@
ying
ite
death
why
p
ial
off@@
x
Mat
kunjalo
bez@@
well
tlhog@@
ukela
another
kul@@
our@@
obu@@
bew@@
ory
oph@@
much
tjho
abisa
Matt
oya
okung@@
tions
beng@@
Matthew
isela
Word
truth
ality
kwethu
prov@@
hle
yini
uzo
reas@@
unye
ited
gu@@
US@@
Ngemva
akhuluma
sif@@
ifund@@
ati@@
uko
umsebenzi
als
eze
get
most
des@@
nob@@
right
AR@@
Ngalokho
Matewu
khumb@@
kwalokho
rel@@
mar@@
want
parents
hlangana
today
find
ithi
In@@
thanda
ithand@@
two
9@@
jeng@@
kus@@
tly
ned
asi
ks
ban@@
kuZimu
say
ikho
kwenza
Akh@@
khamba
Acts
iing@@
uma
g
34
iny@@
enzeka
uze
IL@@
il
ukwenza
where
afuna
onakala
great
ew@@
uc@@
zakhe
To
udisi
ukw@@
oma
ide
ating
ris@@
happ@@
ond
okuthoma
fan@@
ass@@
acc@@
uzi
32
found
EN@@
el
ministry
una
si
ka
Ung@@
bonyana
iswe
ezulwini
esin@@
ukuphila
akghona
UN@@
Mar@@
though
Luke
Peter
Lokho
com@@
wako
bese
Q@@
isana
neb@@
Kung@@
abantwana
ue
kuye
oc@@
sur@@
usi
act
4@@
go@@
ement
kwam@@
through
uke
esikhathi
dl@@
Heb
EK@@
ened
anc@@
tjengisa
part
young
ious
apostle
qakatheke
godu
cl@@
iwo
old
ekw@@
loyo
khathi
unda
eminyaka
ema
Father
son
kuy@@
THE
ezinengi
Kw@@
sebenz@@
sec@@
ethando
study
However
bam@@
wel@@
nas@@
Ngokwesibonelo
ref@@
imi
ikha@@
ya
eso
Khuyini
ola
akhenge
Psalm
eny@@
No@@
kwamambala
ndeni
naku@@
cre@@
never
por@@
ibizo
gro@@
ngo
abas@@
endaweni
wife
nabantu
tic@@
ukuf@@
means
ates
One
amezwi
les
mind
dr@@
ves
Ps
ov@@
worship
AL@@
ej@@
consider
iimb@@
kuth@@
gave
ON@@
okufuze
IM@@
ngo@@
sed
himself
let
Im@@
c
wath@@
ekako
x@@
sel@@
After
engi
ebenz@@
omunye
doing
set
preaching
olo@@
ut
inikela
okwenza
embekileko
ngesikhathi
ages
news
ahlala
ebek@@
ti
umel@@
kubayini
mon@@
uS@@
Abantu
enti@@
ange
ard
AM@@
agela
Ind@@
esif@@
wini
ained
ake
umn@@
andl@@
inter@@
way@@
article
ds
su@@
Yini
tive
tjha
place
hlang@@
ny@@
ezi@@
kube
ans
Roma
ombe
against
athulula
ume
usi@@
zethu
same
qobe
35
holy
esihl@@
ily
view
Ar@@
37
esith@@
wrote
et
pri@@
El@@
w
wabo
fully
service
expl@@
kukuthi
amab@@
wat@@
ngab@@
ver@@
sebenzisa
elders
KU@@
ures
ge
sihl@@
iweko
akha@@
UZimu
iza
apha
iwa
azo
eling@@
comp@@
cabanga
conv@@
ebandleni
ry
Jesu
Israel
human
IZ@@
ently
et@@
Em@@
given
onz@@
okul@@
live
ast
Is@@
athoma
think
abaf@@
put
cr@@
alis@@
course
sebenzi
ngem@@
3@@
embeka
enu
ezis@@
namhlanjesi
iziyo
alung@@
HO@@
AT@@
ithando
fir@@
br@@
NW
HL@@
fac@@
fr@@
umoya
servants
ma
anointed
sizoku@@
ect
ually
ulula
emba
qal@@
unj@@
imb@@
wakho
Ku@@
felt
40
As@@
too
wis@@
r
sakhe
ong
ebenzisa
sure
00
led
ER@@
ided
Isi@@
tjhumayela
wisisa
disciples
marriage
ot@@
yena
arh@@
Kor
umo
Job
iinhl@@
indawo
isiza
became
Isa
phayona
Jud@@
ngel@@
Cor
atlhog@@
ding
At
See
ways
uphi
up@@
Kghani
ish
King
zom@@
ourselves
oda
jam@@
unga
helped
Lo@@
akgh@@
ebeb@@
disc@@
hay@@
ipho
had@@
peace
akan@@
onak@@
endaba
ara
hi@@
IB@@
ked
Let
ngalokho
home
isib@@
anako
during
azoku@@
ngaph@@
10@@
ulu
lom@@
ask
Moses
ngez@@
esil@@
phath@@
ulung@@
baf@@
do@@
every
indaba
ase
later
lokhu
tiv@@
ngil@@
aqal@@
bekang@@
came
IT@@
anel@@
enc@@
word
Al@@
Some
yom@@
alele
weko
all@@
umbi
sal@@
man@@
hope
sic@@
Jwa
Kufuze
serving
qakathekileko
obo
stud@@
cont@@
She
waf@@
expres@@
qinis@@
L
anisa
ima
nasi@@
iinkhathi
Tr@@
akwenza
indi
nel@@
beg@@
add@@
still
nal@@
PH@@
akaJesu
began
iindaba
ida
Kun@@
often
clo@@
Abanye
away
always
oko
azib@@
brother
asiza
fa@@
45
ma@@
understand
okho
back
Scriptures
enye
izwi
odana
ij@@
ship
egade
ELA
ena
okomoya
Ch@@
gl@@
wenza
waba
cor@@
st
kwesikhathi
something
inv@@
look
iphasi
living
ezimnandi
days
me@@
nges@@
bakaZimu
itjengisa
cha@@
humans
ekele
id
0@@
enzo
arha
ght
future
som@@
long
kum@@
ses
mba
possible
needed
Ngitjho
By
lethu
IBhayibheli
Our
Israelites
iah
ihlangan@@
ome
aphezu
ening
encourag@@
UKU@@
uJ@@
Is
0
fellow
kungenzeka
prayer
Bek@@
loke
ngaphambi
ethe
book
ful@@
power
ES
abangela
Ez@@
perfect
sig@@
sin
ands
loc@@
Abraham
ngal@@
ababelethi
lokha
nez@@
uSathana
malungana
kaJesu
Then
bazoku@@
okoza
uba
enziwa
qoph@@
iBhayibhili
hlakanipha
questions
Nengabe
Sam@@
ering
discus@@
efore
ocwengileko
oun@@
iwe
Je@@
Bethel
ition
ight
atjela
eja
angekhe
Many
tor@@
together
whom
kwabo
bethu
siph@@
unywa
tice
alwa
really
heaven
aneleko
ngiz@@
bahl@@
Kosi
ised
iinth@@
elana
ha
loy@@
There
ando
eem@@
holelwa
Godu
okobana
ukuhl@@
tjhad@@
ilung@@
waph@@
ubujamo
ngokuz@@
ethi
ility
someone
ual
akathi
abafundi
ER
ongak@@
esis@@
resp@@
ill@@
babo
OM@@
alokho
sub@@
personal
Korinte
div@@
ad
Hebheru
fore@@
An@@
His
di@@
igh@@
father
form@@
OKU@@
hab@@
Ama@@
succ@@
fe@@
ized
est@@
lokuthi
bekung@@
vis@@
ING
ezela
kwakho
wahl@@
apho
soke
nofana
Prov
bl@@
khuth@@
abanga
Uy@@
husband
nabanye
joy
akal@@
happy
meetings
ngeen@@
St@@
Even
tre@@
tl@@
down
Pha@@
asked
My
ir
nd@@
learned
wang@@
andela
giving
Son
benefit
lul@@
ember
fo@@
aining
ments
og@@
to@@
sol@@
aboFakazi
esig@@
▪
noJehova
erful
making
best
ngiy@@
less@@
while
eep
umay@@
appro@@
ak
ngani
amhlanjesi
holo
believ@@
ical
OR@@
amath@@
okom@@
eful
akam@@
spe@@
With
amunye
UZ@@
kuzoku@@
among
ebantwini
akaJehova
Re@@
counsel
noZimu
14@@
abi
real@@
lar@@
wano
ign@@
jo@@
hal@@
akalo
Isaiah
Dav@@
ekhe
gade
iink@@
hlangano
akatjh@@
ikele
twana
lol@@
ezo
Isaya
ufuna
isibonelo
Kwamambala
isel@@
web@@
knowledge
imisele
coming
zabo
Because
Yes
three
under
obho
saka@@
ave
ord@@
try
za
fin@@
khonza
ose
uye
themselves
sibe
mhl@@
without
.@@
va
ungileko
elinye
ukus@@
OU@@
care
Adam
ilanga
sisters
ngazo
close
century
imbi
New
hand
out@@
endula
atjengisa
Yet
new@@
face
purpose
fact
lula
kwaka@@
ambala
OF
abona
Njeng@@
reason
iminyaka
cono
39
ngi@@
njengom@@
experience
inengi
land
No
Beng@@
ild@@
inda
abazalwana
wise
alanga
eed
knew
ipi
Beku@@
abangani
aj@@
order
ngaphandle
abadala
Iin@@
last
tjhado
ther
umbula
endl@@
hard
Kwathi
5-@@
baptized
continue
loving
ukufunda
38
RE@@
Gre@@
year
sing
uswa
amukela
ta
called
l-@@
basi@@
relationship
ther@@
wokutjhumayela
Adamu
Ngiy@@
mil@@
anj@@
her@@
Corinthians
onal
kumbi
akha
fazi
TO
married
utjh@@
fanekiso
lib@@
kutjho
36
eas@@
isith@@
qin@@
bak@@
abo@@
ngehl@@
kholwa
ereg@@
den
ubh@@
od
ezin@@
wad@@
pub@@
fec@@
sitjh@@
ulwa
indl@@
ains
share
Timothy
ill
amag@@
olweni
ously
WA
phakathi
atjhad@@
alisa
IsA@@
kungaba
On
3-@@
result
ward
esithi
ukuph@@
wanted
bekufuze
angeli
nden@@
both
ame
Kuy@@
raro
ust
izwe
comple@@
aze
ulela
hohl@@
nini
ikul@@
ended
esikhatheso
Ph@@
naw@@
usiso
wo
jus@@
friends
took
incwadi
siv@@
ihloko
mo@@
Sathana
illustr@@
jec@@
support
Your
oFakazi
concer@@
esik@@
nguZimu
elweni
afunda
laka@@
ences
ilozi
kha
wicked
chang@@
ukum@@
mother
elikhulu
indoda
Thimothi
dem@@
nokuth@@
adala
lolo
ests
kan@@
nengabe
teach@@
lakaJehova
nikela
wav@@
umane
ek
holwa
pleas@@
kind
UPowula
yeke
AZ@@
akhona
house
zi@@
imitate
baph@@
lead
kghani
okhu
Rhu
gift
ters
abahl@@
enjoy
different
endleleni
omkhulu
ular
elin@@
emihl@@
ready
language
red
ail@@
ication
requ@@
sik@@
ilini
pur@@
ices
qophiso
message
wh@@
Joseph
EB@@
ezihl@@
avoid
gre@@
bad
All
ancani
foc@@
wami
ative
omela
ezib@@
odanakhe
ngokuth@@
En@@
akhamba
done
point
embiso
child
Gen
akuth@@
abantwab@@
lela
der
athe
ike
zam@@
lif@@
etj@@
qinisa
yam@@
mean
Romans
weli
saw
kiyo
ater
atjhugul@@
Tim
hear@@
ps
ngan@@
ku
itjela
tjhana
bring
imu
angan@@
hor@@
ekuphileni
50
ETH@@
ufakazi
Gen.
tim@@
enzako
difficult
qeda
andelako
matter
mankind
ifunda
sir@@
SI
kunye
Sin@@
zith@@
anje
ngu@@
publis@@
organization
nabod@@
ws
uhlungu
Par@@
nathi
confid@@
preach
Ngiziphi
haps
budisi
cannot
athand@@
H
2-@@
qondo
abh@@
ood
pris@@
reve@@
qunto
om
itho
desire
qalana
helebha
woman
hel@@
fulfill@@
toward
anyela
ngapheliko
emuka
Ngaphezu
Consider
wesi
op
ziz@@
umayela
nging@@
itjho
phumela
eBhayibhelini
low@@
isebenz@@
having
heal@@
Br@@
idela
sa@@
funda
endabeni
fl@@
kibo
using
enge
ner
OK@@
wela
situation
zib@@
ukwazi
Genesis
elis@@
dala
phamb@@
weng@@
W
evid@@
better
Per@@
babantu
thinking
imin@@
comes
ace
ef
Gal
ple
receive
uni
vu
IV@@
De@@
loyal
strong
tel@@
ozi
ee@@
sem@@
coun@@
ngezinto
Juda
sister
rep@@
andle
lives
efum@@
Daniel
serv@@
lead@@
thina
tw@@
ingly
exp@@
trust
head
ifumana
Jerusalem
change
ling
babe
activ@@
ethemba
elelwa
otj@@
oba
lam@@
AND@@
,@@
eleleko
needs
rul@@
ezulu
iindlela
Jerusalema
iziy@@
respect
ivela
righteous
Revelation
upon
msinyana
aba@@
Sam
hed
bus@@
R
emsebenzini
ude
pati@@
Pitrosi
utjha
ED
ezim@@
Genesisi
tle
zakaZimu
sele
res
angeze
ulul@@
akaz@@
consid@@
hold
wisdom
associ@@
thandazo
prove
ain@@
answer
Ex@@
mag@@
devel@@
akath@@
ist@@
thr@@
Jerem@@
acabanga
val@@
teach
UK@@
Those
however
nesib@@
athana
problems
nga@@
41
okoz@@
wak@@
ign
athemb@@
free
was@@
believe
Lokhu
6-@@
EZ@@
itjha
accep@@
apostoli
otjh@@
hohlak@@
bac@@
Lord
cle@@
ukutjh@@
AY@@
hlanganweni
moved
itlhog@@
ever@@
nan@@
tic
UB@@
itness
kindness
heavenly
ukung@@
eleth@@
let@@
hu
between
ayi
pray@@
ism
fundisa
ingasi
Pet
again
neem@@
kwaba
yourself
iting
asil@@
compl@@
remain
esimini
del@@
enzeni
athulul@@
direc@@
amaJuda
long@@
khuthaza
amuk@@
self
ens
spec@@
Ef@@
Ngim@@
uleko
elithi
appreci@@
iness
few
ahlang@@
pray
These
ild
ngis@@
42
Indlela
IzA
44
aman@@
show@@
encwadi
lik@@
ukuv@@
iKosi
ree
next
went
ifundo
qinisekisa
feelings
000
lotjha
Pit
person@@
ikgh@@
gives
likely
decisions
rh@@
eyes
asiz@@
kithi
nec@@
enzela
speak
umayeli
N
From
Who
star@@
Although
ur
tlha@@
Noah
imit@@
nawo
prom@@
twan@@
ending
nokobana
ea
walo
upha
esikhathini
7-@@
anyana
thought
C.E.
food
answ@@
inta
Begodu
andleni
uv@@
aphi
iziyweni
awe
ach
200@@
Proverbs
bad@@
isebenzi
IK@@
s.
tlolo
adang@@
IzE
learly
asisiza
known
ict@@
gand@@
Kungenzeka
wrong
cond@@
ough
hig@@
follow
okuthi
aya
whether
ost
nayo
zing@@
Fakazi
mod@@
nqopho
loved
aphila
itjhaph@@
azizwa
tem@@
ayel@@
iincwadi
Naw@@
pt@@
ten
ese
agine
ba@@
IINGOMA
esiph@@
arr@@
transl@@
Mark
exc@@
yakhe
view@@
AS@@
ada
continu@@
Bab@@
Tjh@@
amba
wengileko
oyo
prec@@
ore
,000
benef@@
pp@@
kuhl@@
tal@@
okwenzeka
amadoda
Law
EM@@
law@@
Rev.
received
amad@@
e.
sy@@
tjhaba
ezwa
43
qun@@
ugg@@
tjhaph@@
ngib@@
wr@@
ithemba
sue
kutlhog@@
iraro
ifuna
ngasuthi
Con@@
ezith@@
ebey@@
look@@
Nu@@
othi
tell
akhulu
iinqunto
form
Kunalokho
JH@@
worshipp@@
left
zakaJehova
uel
Does
Nas@@
seme
Aban@@
ukukholwa
eleli
def@@
anya
ety
ukileko
ukubona
ANG@@
1914
app@@
lang@@
died
Of
isizo
ransom
buy@@
ature
8-@@
practic@@
shweny@@
apostles
influ@@
isisa
duc@@
taking
ngaye
iw@@
Omunye
Fr@@
sl@@
ians
co@@
adango
gener@@
wants
James
ngubani
iyo
athanda
khath@@
especially
kho
ipilo
Watchtower
kangaka
je
city
reading
anu
United
besele
obana
ack
real
Bona
isweni
special
row@@
abatjh@@
wond@@
ject
ngokobana
wena
cul@@
amanengi
ath
Instead
system
lithi
pioneer
mor@@
resurrection
au@@
question
watlola
sheep
talk
promise
lim@@
Tho@@
nations
esinye
ukuthula
abav@@
responsib@@
sacrifice
attitude
lin@@
ihlang@@
esibili
ric@@
tu
little
aking
isig@@
Ang@@
righteousness
IKHA@@
onipha
esihle
ING@@
thing
ple@@
alwana
EMB@@
side
LE
ululo
Jews
ingisa
soon
members
udl@@
bami
amalung@@
ented
onelo
PR@@
Be@@
umi
certain
eness
liy@@
wayo
SONGS
account
ikholo
teaching
ind
ekhaya
uPitrosi
abelo
past
ijilo
ekho
uit
stand@@
qualities
akhathaliseki
ngim@@
present
position
less
dev@@
elani
hum@@
UR@@
ged
endawo
obedi@@
neng@@
following
une
elitjha
Pe@@
batjh@@
alungana
nqoph@@
mbi
akhetha
yet
similar
engo
Ngebanga
ikelwa
erc@@
ithabo
akwethu
pers@@
iti@@
indele
senze
kwab@@
examples
ngoJehova
instruc@@
ohl@@
going
nor
Ib@@
Powula
ubuhlobo
ital
aken
Danyela
khunye
Nang@@
nakho
hajadiswa
ahluko
distr@@
great@@
ngas@@
ON
fered
dla
ach@@
aye
ukh@@
enem@@
ezinto
Siy@@
M
bekube
ibandla
ites
kufund@@
ngaso
Ub@@
law
IN
inyakeni
ghodlhel@@
early
odwa
pione@@
willing
awula
andeli
reflec@@
im
enziwe
nation
ambo
you@@
eenhl@@
Eng@@
ivumel@@
tend@@
sci@@
esifund@@
dep@@
ole
ango
ention
UJ@@
humb@@
pow@@
nesikhathi
ipha@@
bar@@
kab@@
sent
got
honor
ian
OV@@
fine
nor@@
inst@@
akwazi
Kus@@
anele
ekeli
slave
case
ithanda
umele
iphileko
ukwenzela
IRhubo
cla@@
bav@@
lola
earth@@
ress
ekelwa
ibh@@
khumbula
Rha
shows
kil@@
tjela
inz@@
iver@@
vi@@
tri@@
ambisolawulo
kuph@@
enjoy@@
bathi
ser@@
Phela
sid@@
hod@@
4-@@
Aku@@
nandi
Ne@@
Iye
kwami
afumana
Messi@@
overse@@
umaneka
med@@
ekelwe
principles
sense
number
self-@@
Alo
akuz@@
ngob@@
ring
Baba
makes
provide
prayers
khenge
clear
conduct
Wh@@
ngakho
turn
cop@@
esid@@
yona
mbulo
ustr@@
spiritually
aqiniseka
ukudla
followers
re
zabantu
Thus
remember
kanengi
Abrahamu
saying
hat@@
nengi
ision
Luka
until
assign@@
ubu@@
suf@@
khulekela
anye
abuy@@
hu@@
Josefa
god@@
around
adv@@
Ngil@@
privilege
ls
lawo
okub@@
esiweko
edwa
ecu@@
isin@@
money
forever
false
ANI
Hebrews
nguJehova
World
sons
Nd@@
amaz@@
heard
Eli@@
esem@@
bekas@@
umbuzo
ezihle
cour@@
comfort
mentioned
paragr@@
sor@@
ubuhlungu
served
States
ande
umth@@
Jo@@
nawe
qhema
sethu
shepher@@
ather
aga
Efe
exam@@
abatjha
ately
prophecy
ondo
Are
emor@@
imali
akar@@
hlangan@@
ukuy@@
aqalana
ihlangano
mina
etho
sihlale
eemb@@
ths
tjha@@
turned
The@@
GO@@
ENZ@@
allow
sion@@
isiph@@
medit@@
ukuthini
taught
Eve
iphatha
isebenzisa
cause
truly
ulako
ulunga
Egyp@@
leg@@
ext@@
ives
kuv@@
uch
affec@@
iving
Eph
courage
JEHOVA
ines
adi
abay@@
kuphi
Ac@@
everlasting
than@@
umelela
ikho@@
akhuthaza
K
aliseka
qale
Will
lood
ubuth@@
khon@@
oned
fles@@
author@@
erly
thandaz@@
Zim@@
eside
greater
stay
off
nazo
moya
decision
incl@@
fam@@
osa
umba
ancient
rule
describ@@
plac@@
opportunity
Inga
every@@
ngezinye
ezimb@@
akuf@@
Umuntu
ugul@@
arly
bur@@
ony@@
beli@@
concl@@
ans@@
ached
far
yethu
information
alon@@
expec@@
wona
tur@@
Umpostoli
kwakaJesu
fel@@
iphe
kuku@@
sacrif@@
body
wisise
prophet
lic@@
Can
valu@@
intando
umnqoph@@
immor@@
obey
elder
nalokho
ube
bom@@
ngokomoya
Lev@@
obek@@
ns
amanye
strengthen
ephas@@
takes
lear@@
appl@@
thus
ingcenye
Un@@
ested
OR
ants
terr@@
phambi
195@@
matters
encour@@
circumstances
po@@
attention
cap@@
ded@@
akham@@
who@@
occ@@
Wathi
imibuzo
enziswa
challeng@@
zis@@
abeni
Mhl@@
iimfund@@
Today
promises
ukudlula
JEHOVAH
iki
ihliziyo
isele
prog@@
ebe
born
ish@@
Rather
TI@@
ga
kwang@@
ived
Ec@@
obeka
Uz@@
govern@@
Hl@@
esihlokw@@
brought
draw
Com@@
qakath@@
ikelo
small
peri@@
ingan@@
ithuba
UD@@
war
Solomon
kept
discipl@@
ularly
deep@@
daugh@@
ngeze
kuhlangan@@
Sc@@
mate
Sim@@
strength
inspired
ore@@
khany@@
accept
serious
helps
started
arrang@@
AKH@@
abam@@
umisa
adise
ither
ugulul@@
ides
overe@@
so@@
ist
temple
uthukisa
ilungelo
qangi
Broth@@
Cabanga
ol
2012
blessings
wu
Like
ngeb@@
unity
control
enj@@
ne
uhle
kuthi
uDavidi
nange
khulukhulu
apply
hon@@
appointed
kangang@@
Ka@@
everything
bujamo
incani
grat@@
lakho
weqiniso
iseni
lolwe
okufanako
eku
judg@@
emv@@
appear@@
tribu@@
Be
gar@@
forts
pra@@
uml@@
esiy@@
Nasi@@
sab@@
njengo@@
friend
phas@@
list@@
ukuze
satis@@
wezi
umhl@@
ast@@
col@@
coca
cenye
pha
women
umusa
Philipp@@
erved
ured
adwethu
ainly
akalungi
encwadini
Sp@@
lokuthoma
abange
action
lalela
bakho
fort
IS
understanding
Wor@@
sions
material
working
enzi
ekuthomeni
de
Rhalani
physic@@
ert
ors
zalwana
TR@@
umlayezo
ep
okufunda
saf@@
ihle
ngokuvumelana
ick@@
IND@@
ANA
ziy@@
iliZwi
ukuya
w.@@
Ngo
Bese
Enzo
events
obuKrestu
Ngis@@
qed@@
anger
bekan@@
akazi
religious
ebangelo
nami
pite
ukhosi
ebeng@@
ziphatha
iye
esim@@
ekonzweni
Did
khuyini
Le@@
contr@@
kusukela
theth@@
seen
kizo
ahla
ambiso
ow
ezil@@
kulung@@
destro@@
–
move
lulileko
Mary
iselela
though@@
46
wathoma
mir@@
ezimbi
atjhadi
akwakhe
ikhumb@@
direction
ekadeni
ass
lov@@
ezelela
phorofid@@
orobh@@
afundi
meeting
proved
ished
pol@@
nomunye
izim@@
itlhoga
Ukuf@@
idl@@
Kan@@
angal@@
khund@@
school
2013
hosi
ply
recogn@@
maintain
akopo
ous@@
whole
refer@@
199@@
wokuthoma
Gal@@
itjhaba
lob@@
Hezek@@
Ngombana
couple
Pro@@
allow@@
ire
ulumende
writ@@
lil@@
full
kwakaZimu
eziz@@
enarheni
ific@@
nguye
since
standards
kilokho
adl@@
mat@@
ngoZimu
showed
Inter@@
isiluleko
gc@@
Eqinisweni
onza
ndawonye
usuku
individuals
hed@@
vers@@
freedom
suffering
ability
fer@@
night
min@@
four
enzani
iinceku
ISA
ENI
cabang@@
65
kuqakathekile
Jehova
resurrec@@
blessing
eduze
ible
Mbuso
promised
occasi@@
abelethi
Now
Il@@
azini
Ik@@
naka@@
wish
protec@@
ust@@
atshweny@@
ukahlukeneko
kill@@
sifund@@
kwabantu
itjhumi
ekuth@@
congregations
older
per
pass@@
with@@
epil@@
aleli
aph
Can@@
liter@@
enceku
ikel@@
ujam@@
inikele
nehl@@
wes@@
owethu
qalene
sins
Aga
shor@@
akukaf@@
fav@@
ambi
AC@@
ke@@
angels
sithi
wenakhe
ezint@@
Ed@@
hoko
Eph@@
erg@@
iwani
group
isil@@
angani
amak@@
sakaZimu
On@@
embela
IF@@
kulapho
note
table
Devil
iTlolo
meaning
anch
OB@@
khamb@@
yesi@@
ethileko
Ev@@
the@@
During
akhethiweko
uteronom@@
Babyl@@
Fil@@
exerc@@
pe
gain
khethekileko
field
ATH@@
anyone
listen
works
ncani
involved
advice
othileko
AGE
underst@@
neigh@@
yang@@
INI
amala
ink
nesi@@
busa
akhel@@
determined
Joshu@@
return
qinileko
umma
Lukasi
ukgh@@
abez@@
ekulu
uses
eminengi
Gibhide
twini
uR@@
sit@@
indic@@
nama@@
travel@@
indla
fer
cert@@
dom@@
experienced
ion
thy
iNd@@
ron
nothing
eat
usako
Isihl@@
umpostoli
kude
nalabo
ugulula
ngokupheleleko
ikosi
Luk
phezu
isihl@@
house@@
ant@@
Kwe@@
dead
esizeleko
ses@@
regarding
actions
size
AN
pendulo
okuhle
isani
kimi
Scriptural
lion
porofid@@
ems
appreciation
Hebrew
half
uDav@@
tribulation
habh@@
60
wabantu
umzalwana
lived
itions
coven@@
world@@
Creator
New@@
ibona
mov@@
eziweko
uzwa
ngaphasi
neg@@
funa
Esi@@
reli@@
aphambi
nend@@
ekelo
ongakala
shar@@
Es@@
affect
eB@@
anek@@
liz@@
phasini
Still
andakanya
hearts
ucabange
While
country
AD@@
ndenakhe
BakaJehova
atjelo
amazizo
feel@@
habha@@
igugu
reach
mee@@
ukud@@
amth@@
lolweni
abak@@
anything
nokuz@@
helping
Would
iselwa
fect
nezinto
ukile
hly
bob@@
icabanga
Isibonelo
ikar@@
eliz@@
written
B.@@
ly@@
48
Abrahama
doubt
stand
Som@@
isif@@
religion
lic
ined
Amezwi
including
uMar@@
interest
states
ubani
tif@@
invol@@
my@@
near
wide
okuz@@
viol@@
relati@@
wezulwini
eep@@
sign@@
some@@
sho@@
ezwi
Af@@
liv@@
faith@@
low
Mos@@
minis@@
friend@@
ipha
jud@@
akhuth@@
bapt@@
Kub@@
ahluk@@
phatha
ople
jengisa
respon@@
appe@@
haph@@
includ@@
oin@@
C.@@
ver
kno@@
haya
qiniseka
obh@@
ok
bless@@
bor@@
uthuk@@
shi@@
akheth@@
ili@@
z
ingdom
Rom@@
ript@@
sm@@
ekonz@@
ezu
proph@@
coc@@
Mb@@
Wat@@
arheni
lec@@
emva
Zimu
fre@@
oug@@
esikha@@
sen@@
Ad@@
heaven@@
ound
ord
ought
Ngokw@@
yo
lhog@@
Chris@@
ich
Bhayibh@@
Dev@@
hlanj@@
em
pho@@
ekuph@@
trans@@
ibo
odan@@
qh@@
streng@@
oci@@
lho@@
ife
qakathekile
ody
ani@@
circ@@
Se@@
ower
aching
itu@@
ays
ears
prot@@
langu@@
uhlobo
ungu
akaZimu
elethi
olom@@
read@@
ekiso
kha@@
ural
gen@@
hlakan@@
fi@@
differ@@
munye
tjeng@@
AG@@
Rhubo
aul
artic@@
eneko
abantw@@
beth@@
determin@@
call@@
heleb@@
self@@
ead
know@@
giv@@
kind@@
situ@@
kheth@@
ibuzo
will@@
struc@@
ount
Zwi
fill@@
Jes@@
qual@@
righ@@
jamo
wadi
obe
akeni
inyaka
f
experi@@
under@@
ekul@@
wamambala
ving
sinyana
ders
akuk@@
omeni
j
ko
individ@@
chall@@
OMA
endulo
privileg@@
andak@@
hajad@@
P
pec@@
ben@@
ngokuph@@
ende
eliko
Jeho@@
Jos@@
suppor@@
v
yp@@
Mes@@
ayezo
aying
follow@@
fering
Ing@@
spir@@
uth
ith
help@@
sibonelo
porof@@
JE@@
uman@@
qinisweni
phoro@@
las@@
hool
postoli
Isa@@
jad@@
uring
import@@
X@@
inth@@
centur@@
els
iT@@
itnes@@
prac@@
ambis@@
ult
rece@@
them@@
sup@@
Ngiz@@
oung
wic@@
aro
dlula
organ@@
itude
Cor@@
uly
eban@@
gif@@
sacr@@
He@@
vumel@@
sible
ebanga
entur@@
rev@@
fic@@
opport@@
broth@@
shipp@@
mater@@
prophec@@
Jer@@
onom@@
spiritu@@
kang@@
stead
trib@@
apos@@
itnesses
lit@@
’@@
ples
ances
ether
vumelana
oub@@
siny@@
one@@
ards
cani
diffic@@
enced
cou@@
ould
ombana
ques@@
reat@@
weny@@
efa
arding
ray@@
conduc@@
ient
ew
pose
Tim@@
alani
maint@@
esibonelo
thin@@
andi
ises
Kres@@
cer@@
gover@@
Jehov@@
uld
ially
lasting
Israel@@
poin@@
tro@@
Rh@@
SO@@
ubo
ayini
grou@@
heav@@
è@@
fee@@
him@@
princi@@
ul
Kor@@
ept
qinisek@@
mean@@
emsebenz@@
trav@@
apt@@
ved
Solom@@
V
eld
F
pi@@
tol@@
relig@@
Christi@@
knowled@@
ahlukeneko
é@@
doub@@
Hez@@
adeni
disci@@
alungi
fol@@
agr@@
priv@@
ildren
amu
need@@
B
eve
|
avo@@
ousness
Bhayibhelini
husb@@
Do@@
●
zo
gan@@
dif@@
ugu
descr@@
inspir@@
contro@@
ebang@@
she@@
Kuf@@
organiz@@
nj@@
wi
é
ointed
circum@@
numb@@
G
tow@@
ʹ@@
augh@@
mess@@
uku
inte
C
Bec@@
hous@@
ewu
pher@@
sat@@
Script@@
ames
awulo
fid@@
roth@@
Gibh@@
aweni
princ@@
Pow@@
uyini
marri@@
port@@
Mat@@
aught
inform@@
phy@@
contin@@
ulation
akes
oko@@
akhath@@
khu
Rev@@
Gen@@
raw
embers
encwad@@
rection
relation@@
anding
AH
can@@
reci@@
Joh@@
gho@@
iinc@@
ó@@
led@@
ivid@@
Ep@@
Bhayibhel@@
dom
aw
í@@
fal@@
simil@@
congreg@@
ld
Phili@@
ö@@
Lu@@
·
fri@@
decisi@@
termin@@
·@@
ü@@
auth@@
acr@@
onyana
consi@@
>
syst@@
ukhulu
mu
ucc@@
your@@
selves
evel@@
sel
yl@@
ileni
ething
ause
salm
oney
©
angi
cov@@
irc@@
J
ld@@
$
til
ainst
Sat@@
ou
fana
akop@@
ô@@
fut@@
Beg@@
aliseki
⁠
ñ@@
ren
ã@@
esikhath@@
how@@
eph
ulum@@
obe@@
ikhathi
tings
circumst@@
uals
á@@
tles
usb@@
flu@@
Abraha@@
verb@@
uter@@
ogn@@
blems
How@@
ʹ
menti@@
rosi
Consi@@
freed@@
ansom
lef@@
Dani@@
Watch@@
á
X
æ@@
IING@@
jh@@
ambisol@@
tower
ough@@
q
ú@@
É@@
ibhel@@
Creat@@
ween
ה@@
awonye
raha@@
․
usal@@
Corinth@@
E.
%
bet@@
bec@@
thel
ç@@
ׁ
ש@@
פ@@
ä@@
ה
­
righte@@
נ@@
hat
—@@
ł@@
ukasi
nex@@
ghodl@@
fore
othy
®
Heb@@
ileg@@
ו@@
י@@
à
✔
:@@
tog@@
‛
Eg@@
ʼ@@
Jerusal@@
í
י
ł
ë@@
Matthe@@
ʽ@@
å@@
Bhay@@
ä
ø@@
Ş@@
toli
greg@@
ezul@@
+
Z
wanisi
‘@@
JEHO@@
Ô@@
Pit@@
onye
odwana
Hebher@@
ï
verbs
Ã@@
Ó@@
É
Ü@@
ó
Isra@@
atters
è
ï@@
&
à@@
rote
°
espec@@
Hebre@@
ö
ú
ghani
JEHOV@@
­@@
Genes@@
rayeli
rom
⁄
Á@@
resur@@
ʺ
SONG@@
\
