<unk>
<pad>
<s>
</s>
.
,
na
the
to
wa
:
a
of
and
?
“
”
in
kana
nĩ
ya
that
-
)
(
o
we
ma@@
—
ala
Yeova
ma
is
kũ@@
for
a@@
ed
andũ
Ngai
ũndũ
his
e
ing
ũla
ĩla
ũ@@
​
Jehovah
on
you
be
was
i@@
I
with
1
mũno
s@@
t@@
as
e@@
wa@@
at@@
A@@
no
not
tũ@@
me
us
our
it
s
will
y@@
i
he
ũsu
have
ta
c@@
m@@
aa
maũndũ
K@@
kwa
O
k@@
n@@
es
ũu
are
ĩ@@
God
ie
’
;
or
as@@
ata
S@@
al@@
w@@
in@@
nũndũ
can
kĩla
The
o@@
an@@
N@@
nd@@
M@@
T@@
kya
Yesũ
sya
nĩ@@
2
me@@
l@@
re@@
mũndũ
nthĩ
Jesus
it@@
from
p@@
kĩ@@
E@@
mat@@
mũ@@
ana
who
ĩvinda
Bible
f@@
wĩ
Ĩndĩ
by
t
er
an
their
u@@
v@@
b@@
en@@
Mbivilia
ĩũlũ
they
!
av@@
3
what
‘
all
am@@
angĩ
one
do
ak@@
What
make
ng@@
d@@
on@@
ĩte
el@@
th@@
at
h@@
4
5
asa
ũt@@
y
al
kwĩthĩwa
asya
r@@
had
God’s
W@@
this
your
mb@@
g@@
ũk@@
ũmwe
him
w’a
ar@@
vyũ
kwĩka
er@@
We
asu
wĩ@@
nĩwa@@
people
wake
L@@
ĩndĩ
ath@@
Nĩ
were
ly
nesa
un@@
6
st@@
il@@
would
about
ate
them
is@@
kwĩ@@
B@@
ol@@
How
ngelekany’o
es@@
I@@
my
vata
did
when
Jehovah’s
ang@@
ya@@
In
8
ila
ka
H@@
ted
ĩt@@
ers
mak@@
has
ee@@
12
ad@@
15
ye
ĩ
7
et@@
C@@
ation
kw@@
time
Na
so
u
may
life
9
’s
or@@
ũ
help
b
10
11
Ĩ@@
how
mo@@
wĩa
vinya
sy@@
im@@
aĩ
k
13
those
twĩ
love
w’o
Y@@
nĩma@@
ent
ethĩwa
yĩ@@
ĩa
O@@
ur@@
ac@@
onthe
twĩ@@
14
atĩĩ
A
waĩ
her
ts
but
He
R@@
ve
ky@@
tene
G@@
om@@
ĩsu
os@@
isye
ĩngĩ
li@@
ri@@
mbee
Nĩ@@
anĩ
iwe
some
V@@
ex@@
for@@
ũv@@
P@@
ch@@
Ũ@@
Ĩla
Kwoou
more
m
ũũ
tw@@
myaka
Kwa
ndeto
maĩ
us@@
kĩ
eka
ete
witũ
ũs@@
17
man@@
vamwe
nginya
awa
amwe
kuma
end@@
kũt@@
naĩ
twa@@
iv@@
16
ka@@
could
ti@@
l
dis@@
op@@
out
wat@@
wee@@
ũtonya
good
ic@@
been
ab@@
n
mũseo
many
such
ul@@
tr@@
le
work
si@@
con@@
ia
yĩu
ũvoo
and@@
ag@@
Aklĩsto
ĩk@@
also
mũnene
ngoo
kau
D@@
able
yĩ
ke
yo
ev@@
de@@
19
ũm@@
ai@@
way
onĩ
nzĩa
ok@@
ĩtye
ik@@
20
veva
ile
ated
z@@
if
um@@
mũt@@
aingĩ
nĩw@@
ec@@
faith
yĩla
oo@@
ind@@
Kingdom
F@@
mũĩkĩĩo
Vaulo
th
does
ro@@
gr@@
18
1@@
should
na@@
res@@
other
kyaũ
Nũndũ
need
ence
others
en
yonthe
par@@
kũth@@
When
even
up
ti
ful
ity
ally
ting
19@@
It
isu
j@@
ĩs@@
ũth@@
no@@
But
maingĩ
mĩ@@
things
matonya
No
Paul
woo
mwĩ@@
nake
ene
Klĩsto
she
mav@@
ance
ment
w’e
Ũsumbĩ
For
U@@
example
kũtũ@@
ona
syĩ
man
Nĩkĩ
J@@
ũkũ@@
]
[
ĩtwe
As
kũv@@
ũngĩ
ely
thayũ
qu@@
id@@
ent@@
su@@
kwenda
ingĩ
ing@@
24
d
sh@@
years
first
endaa
w’@@
there
ar
kwĩ
mathĩna
spiritual
sya@@
ĩle
end
anĩ@@
any’a
yake
mw@@
ine
mũsyĩ
over@@
world
mwana
nũ@@
va
kwat@@
congregation
nĩtũ@@
ũl@@
syana
see
Mũ@@
h
earth
mee@@
21
day
Ma@@
ea
king
than
pl@@
family
ter@@
ations
Christian
ered
ek@@
namo
mavinda
ĩl@@
tũtonya
ny@@
If
Ngũsĩ
They
inĩ
Why
eng@@
ive
over
yaĩ
ĩv@@
kĩthito
ĩe
kwona
ith@@
thĩ@@
like
because
Andũ
kĩu
le@@
its
nthĩnĩ
Christians
sp@@
said
made
vandũ
E
ĩtina
tion
take
22
into
ela
we@@
tũk@@
syĩ@@
ut@@
te@@
math@@
syĩndũ
come
kwa@@
ta@@
ong@@
comm@@
ũtũ@@
ear@@
brothers
ũng@@
Read
thĩawa
mas@@
Soma
Nd@@
kũk@@
ov@@
enda
ary
give
ter
ae
thĩwa
ness
ap@@
This
ous
age
ons
mũv@@
children
w’aa
Ndeto
own
ed@@
nzika
kaa
mũth@@
ning
must
these
nzeo
23
ngwatanĩo
kũmanya
pre@@
cl@@
ou@@
war@@
nĩwe
ant
kwondũ
ah
ch
mate
katĩ
kal@@
only
5@@
per@@
Th@@
ika
Witnesses
see@@
esa
ne@@
ings
spirit
kĩndũ
being
know
well
pro@@
pri@@
Ũndũ
des@@
off@@
kũtavany’a
You
est
kĩvathũkany’o
mũthenya
times
ko
di@@
p
which
might
says
kwĩmanyĩsya
waku
maitũ
eth@@
thĩna
new
just
the@@
ir@@
anĩa
That
ure
ite
ili
kwĩkala
be@@
ũmũnthĩ
tondũ
ĩvindanĩ
ra@@
endete
ones
kũmũ@@
use
any@@
6@@
uma
kĩl@@
em@@
show
kwasya
ane
amũ@@
oka
wor@@
ying
kya@@
Mbivilianĩ
And
now
rec@@
Christ
used
kũl@@
onaa
nĩmat@@
se@@
ai
se
mwanya
ice
ose
ama
ents
read
wĩva
ds
woni
25
umaa
ee
heart
vo
/
mbingĩ
kũũ
vis@@
any
nz@@
Mt
words
nene
kwata
then
death
ndaĩa
ever
ob@@
Re@@
ise
el
ited
kĩa
ilyĩ
ĩno
true
ĩkĩl@@
feel
anga
Satani
kĩkundi
ele@@
aĩle
ph@@
mũka
Word
anie
ĩtunĩ
und@@
wakwa
esĩ
ay@@
yu
28
asyai
’@@
ay
tũt@@
ate@@
become
parents
wendo
name
rel@@
moo
ce
old
ĩth@@
nĩme@@
naw’o
dec@@
te
uv@@
*
Al@@
after
nda@@
before
syoo
eli
onanasya
Ĩtina
each
aneng@@
ating
ano
Mwana
iw’e
Ako
kĩtumi
mwaka
ks
ĩmwe
tions
yaĩtye
mis@@
vau
ita
aisye
told
ther
aka
kĩte
vala
oni
nĩwat@@
Ethĩwa
fully
gu@@
ĩka
men
faithful
ani
anĩte
ion
serve
att@@
ũĩ
most
30
twaĩle
truth
learn
ain
ngoonĩ
Meko
very
pres@@
John
found
com@@
am
mwingĩ
wh@@
nee@@
person
where
ish
mbĩĩe
yĩĩ
ep@@
tri@@
app@@
much
through
c
To
young
eethĩwa
Ng@@
meva
7@@
har@@
great
kũs@@
why
nĩw’o
Nĩt@@
two
wath@@
Luka
led
anya
elek@@
However
pos@@
Sav
mar@@
Ndaviti
waĩle
kĩkundinĩ
mbĩĩa
kĩthyomo
nĩwĩ@@
find
another
Savuli
ory
ty
ũanĩa
ked
ality
kũtuma
wo@@
study
our@@
lo@@
ministry
right
4@@
David
tly
part
ge
oma
if@@
ates
mal@@
important
kwonany’a
str@@
aĩ@@
20@@
kĩt@@
ũka
ue
gh@@
sin@@
nĩm@@
aka@@
enti@@
endeee
keep
onany’a
ũseo
mind
kwoou
kĩkw’ũ
ĩkĩ@@
ref@@
anĩsya
ĩsa
onanĩtye
neng@@
consider
va@@
mbaĩ
So
Do
wie
nth@@
ĩsya
aw’a
mon@@
kũtũmĩa
mwene
ened
apostle
amanyĩw’a
ĩlĩte
act
nat@@
get
may@@
8@@
ci@@
jo@@
mai@@
laisi
ther@@
ish@@
kũthi
today
One
26
though
kat@@
atonya
ĩaa
worship
inter@@
anaa
mwĩĩ
ways
ding
nĩkĩ
kũtetheesya
Yoa
ũka@@
say
ũa
wĩkwatyo
kũsũanĩa
ĩtw’e
place
ering
00
kala
nyũmba
Mar@@
ies
ver@@
ũneng@@
atĩĩe
aĩkĩĩku
sion
mauta
iti@@
never
ũmĩ@@
27
33
manyĩsya
mĩtũkĩ
vai
sĩ
Mũndũ
kĩaa
bl@@
etwe
ũte
ast
yĩt@@
ow@@
ku@@
ain@@
enyu
ati@@
Nz@@
cor@@
doing
given
ass@@
29
After
mavuku
ei
self
thĩĩtwe
ũnĩ
ess@@
een@@
ngewa
ently
eĩtu
athũkũmi
aũ
x
Father
wĩtawa
Satan
human
ess
ĩsyĩtwa
want
tic@@
Ĩvinda
service
course
Yoana
gave
view
0@@
onya
ongo@@
onie
pe@@
live
umĩte
let
news
ght
kaũ
sur@@
Maandĩko
mũuo
means
Ch@@
cre@@
acc@@
nũtonya
thĩa
felt
kũkwata
mĩao
31
kũatĩĩa
article
endie
mũvea
preaching
asi@@
Ve
ad
King
same
himself
elĩ
Scriptures
Mũsumbĩ
put
servants
vakuvĩ
ũtao
32
go
Mb@@
kĩtonya
any’e
g
Vetelo
mwĩĩtu
ung@@
home
fi@@
kav@@
ndĩni
ĩvuku
kũu
w’ĩka
cho@@
vi@@
go@@
kũlya
thĩnĩ@@
alyũl@@
humans
kwĩw’a
syonthe
he@@
Kĩ@@
ĩsye
Kuma
Peter
prov@@
kũla
out@@
later
less
ic
yĩmwe
manyĩasya
mũika
hope
wendi
Aisilaeli
makũlyo
ũtanu
ments
future
against
nguma
Some
theu
Kĩla
ũw’o
Mose
set
kĩlungu
See
At
bo@@
son
too
esie
became
maũndũnĩ
wife
syake
oya
during
Mathayo
ship
mũyo
anĩe
Maũndũ
every
ere
ethĩwe
ws
neen@@
possible
,000
itonya
omb@@
ito
der@@
kwĩt@@
ĩĩ@@
amb@@
long
holy
nĩtw@@
nĩwee@@
tain@@
ors
ourselves
nũt@@
mos@@
ands
athi
min@@
kwĩanĩsya
kĩeleelo
kie
Tim
ũku
wrote
Nth
aĩtye
came
living
kũndũ
away
eni
occ@@
wasya
red
Avalaamu
reas@@
avya
anointed
maneng@@
37
helped
Mwa
ill@@
disciples
atũmĩ@@
aũme
hand
often
mũtheu
maseo
mũthĩnzĩo
ĩĩa
wau
maka@@
ii
kũtũtetheesya
No@@
tũi@@
Sisya
mate@@
ple
She
sub@@
Mwĩaĩi
ection
endeea
back
language
ũmanyi
et
personal
By
w’onthe
anasya
Kwasũanĩa
Ala
Vate
methĩwe
ening
eo
oun@@
peace
wal@@
atĩ@@
ask
wet@@
Eli@@
atũ
fir@@
nde@@
tre@@
methĩawa
face
sitũ
ned
ũkethĩa
fore@@
book
ood
mwĩkalĩle
comp@@
nam@@
ku
fac@@
mũna
adv@@
.@@
requ@@
som@@
ekaa
anĩtye
fellow
S
under
40
whom
pr@@
joy
As@@
still
oc@@
El@@
look
tu@@
mba
esya
theesye
land
om
think
ist
tru@@
weta
34
ũmb@@
fin@@
ele
ekal@@
yitũ
Moses
Mũt@@
year
arr@@
ot@@
eleetye
do@@
asked
ũtetheesye
est@@
sel@@
yaĩle
my@@
2@@
nĩtwĩ@@
kyake
conv@@
kũtw’ĩka
ished
century
to@@
began
eeka
la@@
days
Then
close
maa
twĩthĩwe
yĩva
Yovu
anga@@
marriage
ũmũ@@
maĩle
Yosevu
ond@@
ities
Ũ
questions
benefit
yoo
ition
beh@@
word
wetete
giving
theesya
always
myolooto
rit@@
ris@@
kĩth@@
TH@@
manyĩ@@
ious
full
prayer
atũmwa
ms
anc@@
brother
oo
Tũtonya
bel@@
Our
isya
br@@
was@@
sin
Yet
ũmĩa
gl@@
kũmũthũkũma
experience
among
mor@@
Many
r
An@@
nĩy@@
wĩt@@
thĩwe
fact
Isa
appro@@
father
serving
ũthũku
35
New
kwatwa
elders
med
making
mbesa
Atamu
Mavinda
ilikana
io
mer@@
ũtwi
mwa@@
oomb@@
while
power
umie
ected
la
needed
moved
Let
atumĩa
ĩthe
nes@@
loving
understand
tei
ithyĩ
AN@@
Isilaeli
Alo
St@@
Mũklĩsto
ily
Pr@@
are@@
kĩveti
les
ud@@
sec@@
best
Kũ@@
wendete
There
wetie
knowledge
inv@@
oa
nĩwo@@
ema
ũmany@@
meetings
kwataa
dly
heaven
bu@@
ũtonyi
ough
Ũu
Psalm
vo@@
ima
ĩwa
lĩu
au@@
sa@@
three
isa
many@@
her@@
early
ences
Asa
kwatie
ese
ait@@
v
etĩkĩw’a
umb@@
ry
tal@@
Matthew
ward
mũminũkĩlyo
wan@@
ak
share
mbĩ@@
eva
ĩĩsya
ture
etheeisye
YA
kwake
kyaĩ
ua
int@@
ill
together
message
Kwĩ@@
fe@@
My
point
ters
Na@@
learned
Israel
ical
den
baptized
kwĩkĩa
aff@@
reason
courage
Even
kũmwĩ@@
less@@
ual
kĩanda
kũmanyĩsya
Joseph
so@@
really
ses
gift
wĩsĩ
Aevl
reg@@
real@@
Ayuti
care
esaa
amany@@
ously
manya
heavenly
Israelites
atĩĩa
mũthũku
mingĩ
nĩtwa@@
happy
thr@@
9@@
conf@@
ests
iak@@
Abraham
ani@@
ize
ongoesye
Ĩthe
died
ended
T
eke
nũtũ@@
Kĩklĩsto
sure
imwe
wĩthĩwe
something
ĩkal@@
mĩt@@
someone
support
wetetwe
both
Timotheo
Vandũ
ives
kũvika
Son
ama@@
etheeasya
kũma@@
order
On
ũanĩaa
w
concer@@
Ar@@
Nthĩ
kũneena
Consider
lic@@
anamba
45
asi
Av@@
ĩĩe
isyo
ans
nasyo
ound@@
ong
andĩkĩ@@
transl@@
unĩ
kalaa
wĩanĩ
Is
up@@
tetheesya
down
mũsya@@
ĩtu
At@@
than@@
ust@@
purpose
mi@@
ndũ
done
knew
fl@@
Ũla
anĩaa
list@@
anu
mĩv@@
rep@@
hard
ĩkĩĩaa
ist@@
sisters
sol@@
saw
ow
result
ove
took
mwakanĩ
dr@@
thĩn@@
continue
endeeie
atũm@@
ew@@
nĩnĩ@@
ola
maũmbanonĩ
ular
without
kĩmwe
op
kĩsionĩ
div@@
ũthasyo
mũtũmwa
anang@@
tetheesye
Yes
last
mag@@
kĩe
nini
w’ĩte
Adam
ũkat@@
wav@@
His
mother
ths
tive
ble
De@@
vailyĩ
w’ĩkĩ@@
however
bring
ilye
eet@@
car@@
thya
avu
Mũs@@
Because
free
ina
Kĩs@@
kan@@
ave
maya@@
ond
nĩmatonya
ũkũmi
aith@@
kale
umbĩ@@
husband
ũny@@
mana
weetawa
ao
mũũme
avisye
Is@@
ide
mina
mwĩao
sed
ukũ
kum@@
succ@@
now’o
itũ
nzaũ
add@@
mo
you@@
ually
ũtavany’a
Mwei
ekalaa
inyia
ard
x@@
kw’o
Es@@
seũv@@
ement
called
prot@@
res
aneen@@
yed
counsel
resurrection
ound
avoid
kũlilikana
themselves
ingly
ĩie
eethĩawa
naitũ
kũsoma
kĩlĩko
twas@@
wise
needs
eny@@
easya
ĩkũlyo
ized
serv@@
sal@@
lear@@
wĩthĩawa
ethe@@
received
ner
ative
wanted
mboya
nĩn@@
discus@@
cannot
kwĩy@@
umya
kwĩsa
tũik@@
ices
includ@@
kwosana
ĩtambya
wisdom
moathimo
ĩkĩĩa
move
ress
mayĩ@@
ign
motwi
mĩs@@
50
child
tic
itha
Nake
mũs@@
pect
manyĩw’a
avany’a
bro@@
ainia
associ@@
ru@@
likely
akat@@
ũi@@
emb@@
endee@@
nĩkyo
With
10@@
having
aly@@
direc@@
relationship
desire
lives
waneng@@
ataa
por@@
ũkũmbaũ
righteous
ĩandĩko
ũthaithi
mũthya
enjoy
try
silikalĩ
woman
answer
Wh@@
kumya
toward
nĩkwĩthĩwa
nakyo
eekie
respect
ne
sister
Vai
matter
nĩweesĩ
organization
weekie
different
known
publ@@
amwĩ@@
aa@@
tũy@@
kũmw@@
imitate
yaa
anx@@
ume
Samu@@
atis@@
ND@@
foc@@
using
ded
nengete
yũ
de
onanisye
ged
nĩna@@
C.E
wicked
went
ps
pp@@
Sh@@
remain
food
mũlũmu
form
ing’@@
ngũa
mankind
als
situation
nor
ever@@
stud@@
nthembo
World
lead@@
Per@@
andĩki
yonĩ
hear@@
makwa
mũtwaano
thinking
ũngalu
Mĩao
prom@@
Z@@
coun@@
mbĩĩie
ndũ@@
problems
kĩv@@
asy@@
yum@@
ransom
gener@@
reading
kwie
whether
friends
kyu
gover@@
Solom@@
sing
uc@@
3@@
Luke
These
ũvũngũ
house
ĩasya
tor@@
thing
oona
kũtethya
clos@@
teach@@
Bro@@
fr@@
yũkĩte
nĩkũt@@
few
nĩsy@@
head
kind
200@@
ef
ects
Timothy
bad
manyĩsye
atavany’a
ana@@
mamũ@@
ined
pray
mũvango
ndũũ
Mas@@
matat@@
ell
ach
waanĩte
between
mathũku
Ũvu
anĩsye
Yelusaleme
war
loo@@
Isaia
emi@@
He@@
Job
ndũa
ũyĩ@@
left
hi@@
enĩ
feelings
oy@@
special
atĩ
ili@@
vate
ided
lead
oou
Thus
kũneng@@
Mwambĩlĩlyo
better
anda
Those
omo
ures
happ@@
speak
accep@@
receive
believe
ens
mait@@
gives
position
Although
sc@@
maendeee
real
twee@@
ũmĩaa
change
strong
promise
Un@@
temp@@
kũelewa
number
41
again
prog@@
encourag@@
Val@@
pris@@
blessings
Kĩu
Yakovo
andĩk@@
yaku
Am@@
All
ũngĩo
38
’a
tiv@@
ilĩ
prove
decisions
osa
ni@@
mũnango
ĩkĩĩth@@
kũmũth@@
wathani
gre@@
kwate
39
Ũmũnthĩ
kanĩ
Mo@@
pati@@
makat@@
ũsyao
benef@@
wovosyo
pur@@
ome
ca@@
Jerusalem
moalyũku
ĩandĩkonĩ
ind
R
members
ngombo
asya@@
Ĩvindanĩ
Wĩ@@
yourself
ũvĩa
ũngam@@
followers
dic@@
ndaĩ
ines
ake
Mal@@
ancient
On@@
ũmbanonĩ
present
Ĩ
ten
care@@
wendaa
ĩtonya
ekala
dedic@@
Alomi
kĩseo
Acts
kũendeea
syĩtwa
wenda
question
let@@
ũkũmaa
mĩth@@
co@@
pass@@
lim@@
examples
anya@@
au
married
qualities
city
wĩnyivyo
Vet
ngalĩ
provide
thukĩ@@
weka
ĩkĩĩ@@
ending
eyes
Does
mũthũkũme
kwosa
ndũk@@
follow
kwatya
women
ange
w’ĩke
manene
ndaa@@
side
turned
nayo
kũny@@
forever
N
uta
maik@@
From
cer@@
ũteth@@
allow@@
reve@@
following
Daniel
teaching
resp@@
Go@@
anene
ase
challeng@@
mind@@
Tũ@@
material
syaĩ
mũtũ@@
ndak@@
mũsumbĩ
yũlũl@@
ongo
pione@@
loyal
ete@@
going
kindness
eli@@
mũĩkĩĩku
neenea
wend@@
alĩ
visa
spe@@
eas@@
ũsumbĩ
spiritually
36
efore
inst@@
kwĩv@@
nĩyo
Ũvuan’yo
fulfill@@
zi
mil@@
expec@@
ĩwe
tũyĩ@@
tũmĩ@@
satis@@
syok@@
sl@@
tak@@
met@@
wrong
beg@@
wii
tũka@@
thought
amo
thi
tũs@@
ony’a
mwendete
Hebrew
eaa
ants
ndi@@
eie
ungu
Par@@
obedi@@
Ak@@
circumstances
tethya
ĩkĩla
won@@
principles
In@@
loved
immor@@
rul@@
ũsumbĩki
kitũ
ĩw’a
ew’a
exc@@
served
med@@
hon@@
manyĩisye
one@@
Noa
kelĩ
re
system
Rus@@
onetye
makethĩwa
MBATHI
manyie
ethya
next
Ye@@
star@@
tice
ges
adise
pray@@
mũndũũme
taking
ort
wak@@
ste@@
semb@@
Mũthenya
nũm@@
stand@@
yakwa
Pro@@
Your
SONGS
pers@@
ũkĩte
wenyu
perfect
kyonthe
cap@@
indic@@
ĩo
nĩt@@
describ@@
draw
mya@@
Ger@@
pressed
mavĩtyo
Eno@@
alaĩka
Rather
mean
loc@@
aking
everlasting
trust
lov@@
nũkũ@@
mũk@@
difficult
inspired
kĩngĩ
mũny@@
Tr@@
isi
ũlũngalu
Eng@@
eep
conduct
ethĩawa
iting
sense
hel@@
eti
far
doubt
cou@@
aitha
ki
Ĩandĩko
,@@
wond@@
all@@
od
mov@@
watho
ect
etye
ĩkĩĩthya
soon
andĩkĩtwe
yet
magine
contr@@
ident
high@@
mavata
milli@@
kũkw’a
Mũsyaĩĩsya
enjo@@
tion@@
ah’s
iny@@
thukĩĩsya
nĩmo
Mat@@
especially
ets
willing
ũtav@@
ached
sukulu
ign@@
atatũ
Of
kalungu
athim@@
nation
clear
andĩkie
control
ng’@@
iti
since
ulu
ongel@@
wr@@
whole
hum@@
older
ention
po@@
privilege
worl@@
ages
experienced
kũm@@
chap@@
ũngĩa
metho
nor@@
cont@@
il
uku
ack
ides
Sala
elesya
greater
ext@@
anĩthya
temple
ree
maendeeo
fru@@
okya
tell
truly
1914
promises
turn
tũte@@
aatĩĩi
Ac@@
body
amina
brought
Akolintho
umisye
Ps
Watchtower
eete
tetheeasya
Ekai
isi@@
ject
sch@@
certain
ur
nthũku
instruc@@
until
pic@@
author@@
mũneng@@
Mũtũmwa
attitude
ilikan@@
ze@@
involved
an’ya
thus
ngĩ
account
spec@@
ũke@@
nations
individuals
eve
matters
nũseo
sim@@
person@@
Con@@
taught
mbĩĩ@@
pleas@@
sent
ũmbano
nya@@
Greek
ore
plac@@
ũvĩ@@
action
ately
comfort
Sy@@
mĩvango
eũv@@
ef@@
training
ĩnĩ
makes
coming
Sam
Who
jw.org
tha
ĩasa
eless
ital
angũ
tethe@@
justice
similar
ati
exerc@@
heard
du@@
ende@@
vanini
rule
alyũla
uva
fine
comes
Yo
MA@@
teach
ured
ant@@
writ@@
mĩthenya
ility
sacrifice
attention
inda
mailyĩ
oth@@
discipline
decision
Ndev@@
ature
tur@@
lika
kwaĩ
ented
ore@@
tia
cond@@
encouragement
naku
umi
ians
kũthũkũma
Twaĩle
showed
pite
Aev
Isaiah
sons
inc@@
seen
eness
mũũnd@@
elewa
ĩkĩte
field
erved
increas@@
little
anake
appreciation
arrang@@
ekie
Mak@@
kĩka
kũlilye
pros@@
humb@@
apply
og@@
Asu
serious
endeesya
shows
itions
43
ũlaalai
mũĩkĩĩ@@
anĩie
oned
got
twĩthĩawa
friend
consci@@
eteele
honor
Ath@@
mes@@
kũnenga
syaku
lik@@
Ĩvuku
deep@@
case
wĩs@@
ũtethyo
provided
Matt
allow
ath
ches
Atũmwa
amanya
Law
Mos@@
42
ans@@
enc@@
dead
ũmbanĩ
hab@@
iving
osie
friend@@
ists
actions
kw’oko
milioni
kĩs@@
maku
kũlye
umĩl@@
Ana
dra@@
kũmantha
atũ@@
off
practical
ewa
thembi
underst@@
working
anĩu
ves
Twa@@
kũmb@@
ous@@
strength
past
congregations
alo
Scriptural
manye
opportunity
iety
precious
meaning
Babyl@@
religious
malondu
alf
sheep
kĩĩ
saying
baptism
kwĩyĩ@@
mawĩa
wants
understanding
kavinda
strengthen
ution
ũta@@
wĩthĩwa
fles@@
ool@@
omi
Lord
pression
ha@@
suff@@
iz@@
momanyĩsyo
D
meth@@
nĩmee@@
anangwa
ific@@
peri@@
Eva
Paul’s
kũtavya
tũl@@
Nyie
ũkany’o
’t
elewe
ived
uvĩ
sia
Ab@@
waisye
wit@@
sions
freedom
four
WA
Ngelekany’o
influ@@
kyatumie
ilik@@
mbau
fy
once
anw’a
prayers
shar@@
Ũvoo
ei@@
Jews
etting
recogn@@
prophec@@
perhaps
pioneer
oll@@
apostles
Bo@@
evidence
wana
ns
wĩw’aa
liter@@
ũthũkũminĩ
proved
ability
assign@@
uma@@
ika@@
Mwa@@
hist@@
Misili
nĩwendete
ire
val@@
accept
refer@@
compl@@
mũtwa@@
ied
bs
Com@@
ũtũmĩ@@
ested
kingĩ
promised
remember
some@@
eep@@
thĩnanĩ
ser@@
ably
consid@@
small
helping
talk
rather
oonanisye
ased
kwĩtĩkĩla
gain
kĩie
ekai
covenant
viol@@
ail
itate
ũmbe
ears
ĨTH@@
resurrec@@
becom@@
ũanĩe
nĩtwaĩle
ide@@
Lomi
alea
100
around
James
er’s
nĩwav@@
angels
born
kwitũ
cause
nment
sũanĩa
interest
kũtwa@@
fied
Satan’s
Ad@@
return
nĩkĩ@@
ute
kũvoya
pra@@
ilities
nyiv@@
accompl@@
earthly
mentioned
exam@@
44
unity
Kana
ful@@
kũmĩĩsya
andĩka
W’@@
available
bre@@
kept
including
events
started
ĩvukunĩ
ũkwenda
char@@
mea
Today
nga@@
ised
VI@@
endeew’a
maintain
member
tend@@
main@@
atumie
Me@@
illustr@@
Roman
ian
anger
thoughts
prophet
Nĩvatonyeka
kĩk@@
kyoo
stand
ũtetheesya
Kĩevelania
ithyomo
mekalaa
nĩyĩ@@
ũendeee
school
kw’@@
LI@@
Mbaviloni
physical
Ndanieli
tie
bor@@
reli@@
Ũsu
ord@@
atav@@
wide
uth@@
struc@@
blessing
every@@
del@@
Translation
aĩlĩte
eena
second
efforts
loy@@
fe
alls
confidence
uk@@
▪
press@@
regarding
ut
health
written
ingangĩ
0,000
ini
cri@@
wũmĩĩsyo
esye
eanĩe
sing@@
helps
ĩndĩĩ
det@@
mwa
Can
invol@@
illi@@
teth@@
der
matav@@
believ@@
courag@@
cent@@
ikundi
grow@@
issue
remain@@
neena
ling
Kwosana
nĩmav@@
Li@@
ũmanyĩsya
ties
cop@@
ũmĩie
kwĩsĩla
othi
compas@@
kũsyawa
information
tũendeee
expl@@
Phar@@
The@@
Noah
ĩsĩ
ũvĩaa
outh
z
mũnenga
Q@@
valũa
twĩke
ũku@@
ĩkũmi
local
Instead
determined
Aisye
monaa
aandĩkie
resul@@
tũte
Such
fav@@
kwambĩĩa
atwa@@
Romans
mũtumĩa
sign@@
Are
ye@@
eetawa
eff@@
ũseũvyo
emo@@
air@@
nothing
neighb@@
Revelation
mwaũ
Would
hearts
light
Mwĩĩtu
ũtathela
onz@@
70
Jos@@
slav@@
lost
wia
Still
andĩkonĩ
ze
kĩtumaa
nĩvatonyeka
Mwakanĩ
hands
mosũanĩo
uses
appe@@
Ũk@@
ale@@
0
tain
lived
ool
kĩkie
aid
beli@@
thy
ayũũkw’a
chang@@
kũlea
Mbetheli
build
famili@@
valu@@
ell@@
onzu
twone
leg@@
kũvatiswa
Aevelania
ery
den@@
d’s
Jud@@
199@@
necess@@
mĩsyĩ
athani
tũmanye
tribulation
hor@@
tem@@
mavainia
lies
prepar@@
Like
ũlũmĩlya
ilikanaa
line
preach
ew’e
righteousness
ũvonge
clean
kwoo
aving
mendete
Ex@@
with@@
ĩĩsye
Now
Ev@@
kũkũ@@
effort
maũmbano
ail@@
gar@@
ental
already
elem@@
ites
zeki@@
wĩkaa
nĩwĩsĩ
itive
athaithi
law
relig@@
mony
kwĩyumya
Egypt
imperfect
activities
wĩthĩ@@
akũũ
ang’@@
Corinthians
kwĩs@@
mata@@
awe
illustration
mwaki
kũelesya
etinĩ
assignment
trials
thi@@
nga
mũnini
atie
scrip@@
atanu
view@@
househ@@
branch
Creator
air
contri@@
wonaa
ick@@
vol@@
yĩtawa
itu@@
Ũt@@
witness
meeting
wĩv@@
anything
ple@@
anyone
daughter
195@@
evee@@
Sim@@
orig@@
hu@@
ug@@
demonstr@@
along
ayĩ@@
medi@@
methĩwa
alia
14@@
ũmany’a
gg@@
bac@@
Gr@@
During
Christ’s
text
ĩthya
Nthimo
simply
var@@
rup@@
nakwa
Aka
Philipp@@
Sarah
ĩsyo
kũea
While
alty
akethĩwa
Bethel
earing
ower
ched
destro@@
lied
tell@@
believers
bas@@
ũthayũũkyo
kũtata
eng’@@
complete
thĩo
near
Amwe
everything
oughout
Memorial
ende
kũũtetheesya
sequ@@
mũl@@
ens@@
mirac@@
maandĩko
icial
eh@@
Mũmbi
Since
likya
based
ũlũmĩl@@
ũma@@
gen@@
anyae
amin@@
Wend@@
bir@@
MŨ@@
omaa
step@@
standards
yumĩtye
mũla@@
nĩwath@@
makĩ@@
akw’a
cam@@
ũti@@
longer
ekea
ũthũkũmi
surv@@
judg@@
Ith@@
Will
responsibility
Kĩlungu
ir
ast@@
organiz@@
Sp@@
sight
displ@@
ively
group
worshippers
Ru@@
answers
sovereignty
Devil
kĩwa
deal
oneka
ite@@
nĩwaneng@@
oin@@
die
kwatiwe
Therefore
Ũtonya
money
distr@@
Kĩkiliki
named
ndũanĩ
NG@@
France
oti
ũnga
direction
asikalĩ
mumo
eleisye
nĩtũtonya
kill@@
ũko
table
inyw’ĩ
wonderful
offspring
Bible’s
Jewish
sisya
engeea
fer@@
kaũnĩ
mĩa
omonĩ
appreciate
May
endeeaw’a
please
crow@@
daily
kyakwa
eed
twaĩlĩte
effect
amaitha
ink
powerful
Holy
kwĩthĩa
posed
aim@@
tation
vir@@
endu
lish
sumb@@
w’ĩ@@
thayũũk@@
suffering
bri@@
appointed
Or
atĩĩaa
antha
etĩkĩ@@
Genesis
Austr@@
cultiv@@
Mes@@
uries
bur@@
public
gn
avo@@
sumbĩka
ũsengy@@
press
nũũ
cr@@
Ngewa
wĩe
building
taken
Kwĩka
nĩya@@
cles
ey@@
ũilyĩ
arly
sugg@@
clearly
Cor
languages
deli@@
yũmbanĩtye
acted
esti@@
changed
ũlũ
kĩva
hand@@
Jap@@
deep
anyanyae
Jac@@
ective
here
60
challenges
malĩ
18@@
vic@@
ope
nyie
umwa
paragraph
kĩtwe
aseo
Mbee
kwaka
Ũth@@
raised
meekie
grow
repor@@
akame
ĩkaa
ot
ern@@
faith@@
respon@@
MB@@
Nĩkyo
strength@@
waĩlĩte
ũtianĩo
Pe@@
Lev@@
head@@
⁠
respond
Kwo@@
kwananga
Kĩv@@
mom@@
value
Y
Yu
Myaka
faced
avĩt@@
ees
pas@@
nak@@
false
ngalĩko
ater
key
dy
First
atic
travel@@
certain@@
large
yĩngĩ
works
thayũnĩ
anisye
umbĩ
Did
ũngũ
ĩko
ANG@@
thers
athi@@
obey
spoke
ĩkaseti
ĩĩwa
reason@@
kũtethe@@
atongoi
hosp@@
manĩ
ook
ũkethĩwa
goal
show@@
night
mweũ
Indeed
alone
itation
makĩa
desires
convinc@@
shi@@
sex@@
ilungu
ame
produc@@
ley
high
Nĩnĩ@@
ayed
ũtumaa
typ@@
conclud@@
kanini
sacrif@@
mission@@
ild@@
nĩwendaa
onalĩ
auti@@
ĩĩ
affect
ational
wĩana
umĩa
recorded
continued
ilĩl@@
public@@
reach
reflect
exp@@
kenda
endee
explained
goals
tiwe
onan@@
fail@@
kĩw’ũ
guidance
U
giv@@
communic@@
personality
states
Ju@@
hold
siĩĩa
mwathani
eleawa
blood
yĩthĩawa
devo@@
amĩĩa
happiness
ĩkĩĩthasya
univer@@
develop@@
elder
OV@@
uu
urch
nĩkĩli
created
batt@@
ũkũmũ
inya
ĩkonĩ
mĩvĩtu
pe
happen
omana
Just
maũvoo
fear
w’ũ
stu@@
makonetye
mũthemba
Nyũmba
mekaa
Asyai
ũkwate
any’@@
indĩĩsya
stated
vers@@
mwe
kũsũvĩa
46
claim@@
eta
slave
Ata
nee
ff@@
Eu@@
Mav@@
ace
H
Eve
regard
self@@
mist@@
pare
endure
ũngĩie
feel@@
modes@@
nĩky@@
equ@@
greatest
id
ĩkĩlaa
nũtwendete
mũtũ
kũtonya
Fr@@
etonĩ
proper
aseti
fri@@
regularly
eki
explains
leave
country
w’ĩkie
kũlasya
ndĩ@@
perf@@
lar@@
ach@@
tim@@
Ĩt@@
ũte@@
lic
read@@
ord
onyeka
kind@@
thĩnzĩo
call@@
kno@@
tures
thĩnĩ
cul@@
Lu@@
Wat@@
Wor@@
kũlyo
eleet@@
aulo
devel@@
sic@@
pec@@
fill@@
any’o
ense
haps
cle@@
mũthũkũ@@
ders
circ@@
accoun@@
mean@@
ould
olooto
Mwĩ@@
ety
determin@@
bless@@
kũmĩ@@
nĩk@@
Jer@@
jud@@
ver
proble@@
ople
ethee@@
aĩka
atiswa
ũkũm@@
ũseũv@@
pu@@
nesses
ango
Bi@@
ũndũnĩ
qual@@
ought
heaven@@
f
los@@
im
righ@@
situ@@
athimo
ial
•
wic@@
consi@@
aching
gro@@
know@@
ony@@
kĩsi@@
Kĩk@@
engee@@
eũ
ig@@
refl@@
ile@@
ayũũk@@
prac@@
wi
mũu@@
suppor@@
experi@@
ngal@@
activ@@
ision
Christ@@
ism
ust
practic@@
ongoi
mũthũkũma
heal@@
Nĩv@@
ld
Yos@@
Hebre@@
under@@
h’s
sac@@
ũmu
uring
ys
ananga
privile@@
individ@@
iness
aying
appreci@@
ova@@
prin@@
sci@@
wos@@
crip@@
Wit@@
athũkany’o
ũme
aul
import@@
L
vatonyeka
ukunĩ
angu@@
follow@@
meet@@
yp@@
nei@@
ĩku
prec@@
ĩu
great@@
proph@@
minis@@
anĩo
gh
Israel@@
twe
La@@
|
els
oke
will@@
gif@@
themba
gn@@
continu@@
Jo@@
obe@@
eki@@
answ@@
pi@@
rece@@
iver@@
ni
ũsĩ
Kĩl@@
differ@@
Sa@@
ve@@
help@@
ukĩ@@
Math@@
itude
paragrap@@
ays
nĩwe@@
isions
reat@@
amba
ready
wi@@
tle
cour@@
Ny@@
amu
eleelo
ũmba
fell@@
ances
seo
ews
aithi
sible
ĩtyo
fee@@
–
dev@@
mater@@
ises
ĩlĩl@@
mũn@@
Yo@@
F
worshipp@@
w.@@
ũkũma
syĩt@@
princi@@
train@@
liv@@
sib@@
ũlũm@@
ples
asyo
evil
M
athela
Egyp@@
fam@@
:@@
responsib@@
disc@@
W
Dav@@
anci@@
themb@@
duc@@
trib@@
arding
pow@@
memb@@
st
enced
ndũũme
zed
ĩkie
Josep@@
opport@@
ost@@
disci@@
oci@@
shipp@@
kalĩ
ation@@
yuti
uri@@
è@@
Mũth@@
ĩkĩĩku
Abrah@@
indanĩ
G
ambya
poin@@
Joh@@
sion@@
ayo
V
ew
daugh@@
kũsya@@
ĩki
ques@@
ved
ith
anini
issu@@
diff@@
fa@@
Mya@@
child@@
Christi@@
—@@
ularly
ũsya@@
row@@
yal
ũũk@@
Aev@@
ũkĩl@@
spiritu@@
ult
yũmban@@
prophe@@
To@@
trav@@
uti
husb@@
,0@@
wasũanĩa
eer
lasting
ren
Ph@@
aal@@
grou@@
infor@@
stead
é
diffic@@
w’ĩ
ania
ept
long@@
ũmban@@
mwĩkal@@
main
apost@@
earth@@
lea
Jeh@@
ingdom
vak@@
ikund@@
physic@@
ũmbi
·@@
ĩi
ires
Pet@@
knowled@@
een
sumbĩ
kũman@@
weet@@
ũsumb@@
ather
ũnd@@
wis@@
Ũs@@
Sar@@
an’s
é@@
an’@@
hap@@
mir@@
theo
umo
K
pose
ova
Mwe@@
ury
overe@@
tro@@
ft
priv@@
B
oung
ovos@@
spir@@
mbĩlĩl@@
crib@@
ild
da@@
mwath@@
prop@@
sumbĩ@@
Sin@@
yl@@
ether
dom
ilioni
ards
uch
numb@@
engy@@
Corin@@
heav@@
ndũnĩ
inspir@@
sis@@
Cor@@
SO@@
wĩkwat@@
alyũku
Mĩ@@
ovu
sist@@
doub@@
conduc@@
Do@@
watanĩo
thembo
kund@@
Ro@@
ey
ouse
Ĩv@@
anding
jus@@
ũkĩ
sup@@
iliki
atum@@
mbĩlĩlyo
rap@@
ially
reci@@
Mũk@@
olintho
circum@@
ointed
ustr@@
discipl@@
Gen@@
Aval@@
ole
ude
thor@@
andĩko
contro@@
enya
Ũv@@
aeli
kwo@@
ʹ@@
simp@@
aatĩ@@
oko
>
Yes@@
uli
olin@@
exer@@
Nth@@
Bec@@
tex@@
an’yo
twi
cc@@
atonyeka
imo
aĩi
neigh@@
ousness
of@@
kwos@@
fal@@
guid@@
erful
explain@@
Scrip@@
eld
Tim@@
simil@@
relation@@
osp@@
forts
í@@
wom@@
rif@@
Mis@@
ó@@
tural
ulation
ext
augh@@
las@@
oub@@
ivid@@
yomo
kw’ũ
nyivyo
ble@@
aul@@
lĩsto
Ther@@
ũkĩlyo
port@@
commun@@
ilikalĩ
suk@@
alu
Mbeth@@
contin@@
isilaeli
Sav@@
smal@@
evel@@
ũanĩo
irit
Jes@@
ause
ATH@@
X@@
aul’s
onge
phy@@
ev
Phili@@
ames
ô@@
bet@@
thin@@
Matthe@@
Nĩk@@
build@@
ñ@@
iri@@
ndu
Nde@@
Dani@@
enef@@
ich
yĩtwa
ovosyo
J
spr@@
recor@@
ough@@
C
Rom@@
ndĩ
ovo
ö@@
ũthayũũk@@
Asya@@
P
idence
stances
Yel@@
evu
kai
­
ou
Mũtũ@@
mation
lĩs@@
mess@@
Timoth@@
though@@
ĩndĩ@@
á@@
can@@
clud@@
Sat@@
Psal@@
deter@@
Sam@@
tism
spring
Mek@@
aviloni
ganiz@@
gan@@
til
ething
aalai
morial
anch
uals
ũmĩĩsyo
marri@@
irc@@
coven@@
­@@
thĩnz@@
maendee@@
thees@@
ü@@
Kwos@@
Yak@@
hous@@
fort
ũthũkũ@@
gether
cov@@
your@@
congreg@@
yũl@@
mbaũ
mbĩ
Atũ@@
atiwe
nec@@
lit@@
elo
ũtony@@
sel
Inde@@
led@@
ã@@
fel@@
fut@@
q
foll@@
Creat@@
ʹ
thay@@
usb@@
Mũsya@@
selves
uku@@
ׁ
ש@@
פ@@
נ@@
menti@@
momany@@
ree@@
ngo@@
NGS
stem
kũmi
fter
æ@@
$
mũmin@@
Fir@@
Abra@@
aamu
bapti@@
É@@
urrec@@
Isai@@
flu@@
ה@@
free@@
tower
mbo
demon@@
bec@@
avail@@
ivili@@
‛
ainst
minĩ
alleng@@
Vet@@
him@@
bap@@
avil@@
nĩkĩl@@
esis
ú@@
ught
ul
©
rans@@
Transl@@
oneer
ה
Corinth@@
à
ogn@@
å@@
Ş@@
ʼ@@
Ndav@@
ween
olom@@
&
streng@@
Watch@@
ş
è
ï@@
ı@@
î@@
Ũmũ@@
evelania
tho
י@@
fore
righte@@
É
ç@@
oloo@@
ו@@
י
ó
oly
ilaeli
á
ʽ@@
Chris@@
%
reek
Ó@@
parag@@
j
ä@@
Bab@@
Z
Ü@@
▸
Isra@@
sider
ʺ
Ũvu@@
Revel@@
pub@@
ʼ
ā@@
espec@@
▲
