<unk>
<pad>
<s>
</s>
,
a
go
le
ka
ba
the
e
to
ya
o
of
and
“
se
ke
”
in
be
:
re
gore
-
wa
tša
?
di
ge
sa
that
ga
la
ile
tše
di@@
—
is
for
le@@
mo
we
re@@
i
yo
​
se@@
na
modimo
bja
ba@@
his
jehofa
he
as
e@@
it
with
was
gagwe
you
ma@@
bo@@
a@@
i@@
yeo
on
not
gomme
mo@@
tla
bona
me@@
what
are
’
batho
;
gona
have
bjalo
seo
jehovah
rena
will
bo
bao
t@@
lego
they
by
be@@
s@@
lo@@
n@@
o@@
god
this
from
or
de@@
pele
la@@
us
one
dira
their
)
(
bego
our
d@@
tšeo
who
can
an
kudu
in@@
t
!
ri@@
p@@
jesu
at
l@@
jesus
‘
ra@@
do
te@@
when
bible
ro@@
all
goba
f@@
moka
r@@
li@@
how
en@@
fa@@
ly
but
s
were
ga@@
beibele
u@@
ti@@
st
k@@
m@@
pa@@
me
go@@
xo
c@@
bjo
your
l
my
had
fe@@
g@@
d
motho
ye
ing
y
gago
po@@
si@@
bolela
r
people
pe@@
mi@@
n
ted
st@@
them
th@@
him
baka
lo
eupša
con@@
so
b@@
about
ra
ta@@
god’s
morago
has
un@@
an@@
sa@@
m
bangwe
swanetše
jehovah’s
would
time
some
red
ts
leo
if
nako
fi@@
ne@@
y@@
eng
ar@@
dilo
may
ru@@
ds
long
moo
ex@@
tsela
life
ša
did
lwa
mongwe
al
co@@
lega
ke@@
[
]
ce
tšwa
ma
ca@@
rs
those
lago
bakeng
to@@
bana
ilego
her
su@@
many
yona
ge@@
so@@
moya
no
na@@
es
bile
the@@
’s
more
ka@@
there
bjang
at@@
kgo@@
we@@
nywaga
bu@@
ha@@
lefase
vi@@
ding
no@@
such
ad@@
al@@
nago
ded
also
do@@
he@@
yena
z@@
w@@
lela
ho@@
ct
du@@
pre@@
king
x@@
ao
therešo
out
phe@@
ment
bophelo
b
bontšha
even
ate
ss
led
she
bi@@
been
for@@
wa@@
it@@
thuša
th
tu@@
hla@@
pi@@
ana
ko@@
nea
these
ed
bohlokwa
world
šwa
good
ce@@
matla
ci@@
h@@
kua
help
ong
why
does
te
v@@
way
up
witnesses
man
dihlatse
dingwe
feela
day
tlo
gotee
tš@@
nyaka
other
work
ko
mmušo
gabotse
then
bakriste
love
its
boi@@
tšo
new
should
ation
ši
pro@@
gwa
than
tšona
šo
gaešita
tho@@
things
tseba
said
selo
hlo@@
leng
hu@@
ces
šago
because
ful
paulo
ent
š@@
or@@
dula
ago
lefaseng
per@@
še@@
wago
diriša
tšego
could
hwetša
mabapi
make
after
bala
nakong
ry
pelo
first
ring
tse@@
christian
kingdom
j@@
into
years
bantši
ô
mohlala
kgonthe
wo
like
which
rea@@
ta
on@@
kgolo
man@@
lerato
fo@@
kga@@
la’ng
others
ble
pu@@
children
ki@@
paul
word
ve
ting
fo
/
tra@@
k
son
dutše
les
letšatši
earth
kriste
tlo@@
kwa
mon@@
christians
cu@@
c
only
tloga
bjale
thoma
ated
family
nngwe
p
ter
mp@@
feta
ban@@
jo@@
ê@@
gi@@
ela
see
over
botse
sego
ck
kamoo
nagana
lentšu
il@@
thu@@
gile
tšago
come
swanago
read
being
tšwago
says
tumelo
ithuta
gu@@
tly
tee
faith
lapa
rata
bago
tha@@
men@@
tion
gare
ši@@
ves
gan@@
ac@@
cted
ty
just
ye@@
spirit
gape
sc@@
im@@
as@@
need
xa
ction
most
ms
lea@@
now
op@@
tso@@
ter@@
dire@@
pha@@
ve@@
mehla
ced
res
ine
ni@@
true
however
made
gobane
qu@@
well
pa
sp@@
pe
sed
swanetšego
must
tšwe@@
etša
el@@
swana
christ
ses
example
is@@
min@@
ning
ch@@
ver@@
tlago
mat@@
mantšu
karolo
mosadi
tšwe
ditaba
ro
h
wi@@
lehono
ê
ch
able
mar@@
monna
godimo
take
phela
before
še
congregation
know
spiritual
pri@@
mehleng
je@@
men
da@@
mu@@
any
boemo
comp@@
war@@
der
hi@@
bon@@
lena
u
ans
šo@@
ness
ary
wor@@
ssed
batswadi
ments
sti@@
ally
êla
tla@@
give
ntle
another
ap@@
parents
de
ten@@
ph@@
let
ane
sts
lelo
ones
gela
itšego
letša
father
bohlale
where
lu@@
ls
tšwela
words
w
ant
very
become
ations
today
death
nna
own
dis@@
medi@@
efe
gra@@
lengwe
great
ona
thuto
kgona
nya@@
two
sona
swa@@
molao
pen@@
heart
com@@
den@@
hwe@@
lona
kae
ged
dintši
ate@@
g
times
modiro
ste@@
taba
through
xe
gantši
sin@@
cal
ditše
ri
rego
lebaka
ges
end
rat@@
ous
ja@@
•
va@@
ob@@
woo
ling
much
bodumedi
hwa
lan@@
lemoga
john
lat@@
ang
fihla
fin@@
sengwe
kgoši
ned
ké
mela
truth
ô@@
feto@@
keep
cha@@
—⁠
tšwego
book
thata
during
pla@@
ruri
name
isiraele
dume@@
amogela
kgopolo
get
mor@@
tši
hlalosa
hloko
young
leka
tes
kan@@
used
cts
yoo
phuthego
each
ssion
study
land
šetša
mangwalo
sta@@
though
ithu@@
ah
human
ngwa@@
tše@@
while
sen@@
sho@@
ties
sing
ons
par@@
sure
ity
mogolo
rate
ance
dumela
xo@@
might
bokriste
found
gre@@
x
less
ined
right
yet
ó
ou@@
letše
ren@@
morwa
ver
akaretša
hlankela
vo@@
tšea
mathata
ved
leina
tri@@
mil@@
bat@@
brothers
ks
pi
sh
šoma
*
lele
feel
motheo
year
noši
part
say
des
ite
fa
itše
person
ati@@
ving
maemo
find
against
still
see@@
never
serve
ence
sathane
botša
ntwa
len@@
bak@@
’@@
ll
use
kolo@@
tshe@@
pho@@
lethabo
states
tlha@@
diri@@
gh@@
sion
wing
bohloko
pholo@@
ps
roma
sh@@
later
ying
dly
ju@@
tlase
als
gana
har@@
mong
beng
gilego
fully
moapostola
sha@@
sted
mafelelo
dirago
every
kx@@
place
ikwa
age
am
ruta
phi@@
home
puku
lehu
ngwana
khutšo
apostle
keng
gong
maikwelo
ther@@
rou@@
ating
ôna
sehlopha
tate
often
lwe
himself
fapanego
upon
ings
-⁠
holy
among
kgaufsi
ar
ine@@
šitše
learn
pego
since
šetšwe
ron@@
consider
ze
dafida
banna
ts@@
pedi
khu@@
gen@@
wrote
faithful
ti
tšha
kholofelo
worship
under
days
felego
law
tli@@
med
same
dipo@@
means
dinako
lla
kgone
thus
view
johane
thabela
david
show
foko@@
kgotha@@
amoge@@
ilwego
ked
boitshwaro
lelago
too
legodimong
bafsa
news
ality
’ng
mi
gopola
lelwa
bagolo
ego
car@@
lebelela
juda
kwe@@
ki
lekgolong
ran@@
ee
lete@@
zed
mohlomongwe
dijo
lemo@@
put
wn
bar@@
israel
mang
mmu@@
bobedi
letšo
kotsi
sto@@
live
peter
petro
became
shed
ledi
mind
psalme
ngwaga
self
cy
mmo@@
basadi
came
din@@
nt@@
morêna
melao
course
thušo
tabeng
bele
hl@@
yed
boletše
back
doing
important
ministry
ters
down
hle
cen@@
che@@
publi@@
cation
ur@@
botegago
bohlatse
jud@@
tlai@@
ilwe
appro@@
called
uni@@
united
bri@@
rel@@
ries
gro@@
per
knowledge
mola@@
oc@@
set
want
mokgwa
kgahlišago
told
city
old
feletšego
ne
eli@@
dibotse
without
diša
gae
tre@@
encoura@@
scriptures
psalm
tšhelete
ws
thi@@
qui@@
peace
sepela
hope
ene@@
service
morero
fu@@
century
mafelelong
ditiro
matthew
ght
□
tl@@
wri@@
ke’ng
prote@@
tle@@
cri@@
tšhe@@
kilego
mateo
bolelago
wise
wed
sons
indi@@
wife
ze@@
keletšo
side
sebe
preaching
f
fatša
phethaga@@
cho@@
ele
three
mošomo
bro@@
living
bophelong
inter@@
expre@@
clo@@
fetilego
given
power
pelong
bole@@
bohle
both
kane
tšho@@
naga
lebe@@
rapela
wena
gi
began
botho
away
tle
cre@@
lin@@
ping
pelaelo
pono
er
practi@@
af@@
themselves
llo
tšohle
barutiwa
over@@
eupja
cti@@
ration
dika
ab@@
can@@
really
house
ria
tions
dirišwa
satan
fela
she@@
yes
dife
gave
por@@
light
look
šetše
d’s
holofe@@
atten@@
fore@@
lege
mer@@
ali@@
bahlanka
ditsela
ele@@
belie@@
having
kago
mother
making
lon@@
ditšwego
kwešiša
ging
sehlogo
mathomo
think
dire
homo@@
ik@@
kg@@
ing@@
flo@@
phuthegong
ber@@
brother
dirile
gene@@
lefelong
ative
ger
lô
borapedi
den
kweši@@
tago
always
bly
religious
ina
nor@@
lebeletšana
beibeleng
setšhaba
trans@@
ders
according
molo@@
loving
child
bagwera
disciples
maka@@
il
ng@@
ways
ani@@
nu@@
war
mma@@
nagan@@
marriage
meetse
bae@@
mora@@
full
tswalano
ku@@
oketšegilego
happy
lexo
gakaakang
tor@@
el
tšha@@
latela
wona
et
ene
something
sepe@@
rather
order
humans
fe
letšwa
fact
xaxo
body
ofe
emp@@
der@@
ca
wana
lel@@
dre@@
cle@@
boe@@
stu@@
swanela
served
kgethegilego
refe@@
asked
modi@@
hlwa
nyakega
magareng
stri@@
bolo@@
done
phetha
letšego
dimilione
school
dii@@
kgopela
nations
aro@@
lao@@
fulfil@@
hand
fetago
ward
develo@@
hla
oun@@
mangwe
took
whom
servants
ser@@
bokgoni
poli@@
tletšego
mokriste
lenyalo
tru@@
oketša
maphelo
ša@@
gs
together
ates
felt
little
future
ange@@
gopo@@
babo
bonolo
acts
swane@@
tha
ched
xaxwe
vie@@
bur@@
job
šu@@
po
direga
ea@@
coming
ditšego
dipa@@
personal
between
mohla@@
nyakago
lar
latelago
šoro
bote@@
ck@@
madi
milego
possible
thekga
ditšwe
joy
ars
kile
rity
ngwadile
ever
witness
mber
mabaka
ditho
reason
maaka
rely
sin
mai@@
sel@@
ntlo
sup@@
tši@@
è
hlokomela
gego
ship
tsebo
tsebe
fellow
ice
nywageng
kil@@
au@@
bone
diko@@
ns
wil@@
kaone
lives
bj@@
page
yago
ss@@
ipo@@
jesaya
dike@@
kong
mma
out@@
dithuto
wan@@
women
thing
polelo
face
prayer
soon
stan@@
bothata
sig@@
respon@@
tšhi@@
food
sy@@
although
ditšhaba
affe@@
mmele
ja
again
toward
giving
thabi@@
point
fied
thaba
fear
tsena
dent
gwe
mokgatlo
cor@@
spe@@
swanelwa
care
woman
ven@@
last
problems
ble@@
bra@@
diti@@
cing
serving
ctive
rd
up@@
abe@@
ssing
melo
kgethwa
wisdom
mankind
ask
tlwa@@
eka
anke
few
dipotšišo
bjoo
jerusalem
you@@
nyenyane
better
diš@@
potego
elders
sol@@
purpose
ngwala
questions
tlwae@@
ahla
produ@@
mekgwa
mohla
requi@@
expe@@
dumelelana
bring
dir@@
nka
meetings
wego
isaiah
mathomong
dra@@
bolwetši
dumelela
bonagala
kiše@@
hloka
died
dite@@
ral
rulagan@@
mohuta
sou@@
wal@@
result
kopano
nnoši
phetho
heaven
number
bea
learned
hlwe@@
righteous
bce
cul@@
moses
dik@@
tive
mediro
deli@@
husband
swan@@
ya@@
son@@
rong
therefore
ng
mane
belo
present
experience
ner
leba@@
dinageng
teaching
er@@
high
phu@@
proverbs
diema
known
line
neng
seny@@
kat@@
tswa@@
disa@@
needed
early
nageng
dikolo@@
perfect
miša
pušo
êlô
reali@@
fir@@
feti@@
si
associ@@
appe@@
left
kiša
swara
religion
kganyogo
evi@@
loo@@
molaleng
šong
hlat@@
letšwe
gui@@
anointed
form
mantši
reve@@
bad
tirelo
ld
dipuku
lwan@@
gran@@
lwago
kgothaletša
nepagetšego
jerusalema
diriš@@
following
ngwanabo
atla
glo@@
ped
wicked
lokilego
continue
mentši
akare@@
let@@
ened
counsel
different
mola
iša
šitšwego
hola
ane@@
kopan@@
helped
dition
molato
members
dirwa
phagamego
hold
mana
assig@@
ano
bogolo
watchtower
botšiša
sur@@
lle@@
leboga
tlogela
lefelo
lefsa
prophe@@
hard
provi@@
dness
bontši
:⁠
mokgethwa
fru@@
intere@@
close
tlhokomelo
discu@@
gy
ig@@
gola
mofsa
friends
ancient
ty@@
lef@@
prie@@
thy
kno@@
best
ly@@
fine
presen@@
clai@@
bitšwago
nor
kgetha
hou@@
lls
person@@
greek
hlalo@@
yo@@
xa@@
going
kes
money
swe@@
ame@@
went
water
wê
sau@@
bogologolo
israelites
wee@@
hlanke@@
temp@@
off
kgate@@
someone
cannot
indeed
rt
kgale
comes
sses
ming
amo@@
itl@@
ors
bontš@@
far
que@@
sebete
relationship
matter
dia
under@@
language
lation
kgone@@
bedi
boboledi
article
gate@@
pan@@
ther
xi@@
kgon@@
church
ches
perhaps
araba
karabo
fediša
refu@@
rance
plan@@
certain
mes
along
believe
moyeng
corinthians
xobane
boikarabelo
legolo
gati@@
imp@@
kgopo
bela
system
phihlelo
hlase@@
heavenly
ctions
da
tsh@@
gabo
share
mpho
thought
kge@@
palo
abu@@
šega
rate@@
tlhahlo
timotheo
kutollo
support
à
until
instru@@
tshepedišo
tekanyo
tat@@
real
bonala
head
molaetša
eyes
consi@@
hea@@
moved
ct@@
sting
understand
id
are@@
health
boifa
message
secu@@
tain
timothy
revelation
baptized
my@@
next
han@@
letš@@
hlan@@
em@@
du
fsa
cated
yourself
here
especially
nw
moše
try
watch
sebaka
xô
mit@@
pur@@
sor@@
ratago
sea
respect
godi@@
kin@@
hear@@
ingly
phema
dead
once
fetoga
pt
loved
luka
blood
stru@@
letše@@
olo@@
dikgopolo
ys
sia
jakobo
laela
boledišana
bodiredi
letšago
tile
ture
motse
pat@@
wo@@
enjoy
aborahama
loke@@
art
kholofetšo
mme@@
lamadibogo
reading
situation
ir
moun@@
fy
kind
ers
sware@@
teach
nation
xore
fil@@
whether
jobo
tlhago
tšh@@
seke@@
cally
accu@@
ously
clear
yana
feelings
modirong
ard
tsoma
enti@@
maria
bofelo
luke
inc@@
change
tseleng
saying
speak
san@@
around
monagano
cial
bontšhago
lana
mission@@
avoid
position
boela
thwa
endu@@
spa@@
likely
lead
mean
sense
nama
trave@@
desire
boemong
boporofeta
dihla@@
bophara
care@@
bonagalago
minis@@
ourselves
rous
dee@@
iti@@
matšatši
diswantšho
vely
bora@@
difficult
jews
thato
theetša
lesome
bil@@
comman@@
born
ata
naganišiša
bjona
answer
attention
illust@@
society
thapelo
dance
fre@@
letšwego
any@@
talk
tokelo
cla@@
pon@@
lite@@
gement
tem@@
para@@
hel@@
late@@
fen@@
ale@@
cal@@
needs
free
concer@@
anya
deci@@
šin@@
kopana
dibokeng
ger@@
saw
sehla@@
table
br@@
pea@@
james
case
romiwa
trust
suffe@@
cting
dumedi
sis
instead
stor@@
seri@@
fošagetšego
dibe
dule
cep@@
history
brought
act
cause
hebere
sy
lehu@@
sm
lord
bele@@
botona
stre@@
šire@@
yenyane
kgahli@@
kolobe@@
perisita
dipelo
šitšwe
acti@@
die@@
kgotsofa@@
pela
wrong
remember
taking
v
turned
account
botshadi
ara@@
received
mmalwa
dise@@
kgonago
discip@@
korinthe
pati@@
increa@@
follow
tal
rialo
brea@@
ssi@@
temple
tseneletšego
sekolo
fai@@
mmopi
mogato
kgao@@
kereke
sla@@
earth@@
dies
chan@@
whole
lekanego
small
married
rac@@
clearly
one@@
divine
dina@@
bli@@
strong
seng
second
bolele
using
yêna
nothing
fetša
bit@@
wanted
streng@@
ken
šupa
bonaga@@
mate
question
lega@@
contra@@
kgodi@@
benefit
getše
cour@@
boloka
compa@@
ai@@
leleme
aga@@
maiteko
stra@@
grou@@
kgonthišetša
thinking
accomp@@
attitude
hlano
gover@@
knew
suffering
hun@@
aring
lebiša
dedi@@
shi@@
turn
hle@@
teng
conduct
national
roo@@
that@@
dikete
seen
en
toka
tation
histori
ntši
taught
godiša
list@@
kgan@@
hin@@
principles
xôna
sent
than@@
sub@@
hlong
four
ign
special
tical
aga
tliša
thušago
beg@@
mile
boo@@
ching
chi@@
appreci@@
die
swantšhe@@
gatee
romans
mago
certainly
false
public
weng
val
ster
succe@@
kana
arabela
adama
decla@@
cur@@
buša
dirilego
moporofeta
loka
valu@@
mark
york
including
night
ler
anger
ikokobe@@
visi@@
kindness
app@@
makes
truly
dimo
telele
tšweletša
larly
challen@@
mengwe
godly
kolobetšwa
kwagalago
tsogo
call
babedi
stic
tapele
balatedi
tsebišo
worshi@@
ete@@
allo@@
rape@@
refle@@
reason@@
ins
moral
simply
lebo@@
dibo@@
vers@@
lands
organization
loko
dy
paradise
šomago
bol@@
receive
tic
control
mary
legago
everlasting
win@@
taken
dihlare
ul@@
regarding
christ@@
seka
šireletša
hlokome@@
righteousness
mee@@
sit@@
dikgolo
fora
verse
bobe
atu@@
lekan@@
šego
magolo
coun@@
rying
rated
resurrection
um
sent@@
▪
commen@@
sse@@
recogni@@
satis@@
makasine
provide
xolo
kapejana
kgole
followers
sefe
dihlo@@
z
fili@@
tlwaelegilego
sic
bolelwa
prophet
abraham
ening
beke
ditekanyetšo
pray
maga@@
obe@@
ately
kgobo@@
afri@@
repor@@
gives
mohlanka
kê
bya@@
barutwana
matters
hap@@
ditiragalo
works
babu@@
tell
tatagwe
thabišago
tšhire@@
ei@@
lapeng
lli@@
bor@@
creator
mafelong
tšong
es@@
fapa
occa@@
similar
gree@@
nd
senya
mafolofolo
ganyenyane
omi@@
golo
kgoma
hed
group
thulaganyo
tutue@@
mpsha
lou@@
tšo@@
assu@@
mogwera
lengwalo
tong
gue
enjo@@
bôná
profe@@
sacrifice
êl@@
arran@@
tur@@
based
heard
mera@@
pukung
kwa@@
cate
hebrew
llwa
sehlo@@
newa
lebi@@
memo@@
involved
tal@@
soul
awa@@
half
hlatse
serv@@
resi@@
bola@@
lling
stud@@
more@@
sekolong
bodireding
resul@@
wedi
bapa@@
near
happiness
tered
problem
letlakala
mari@@
gane@@
šetšwa
remain
ding@@
hudu@@
cs
foo@@
within
bolelwago
yeno
dinyakwa
dika@@
exa@@
baby@@
adam
ply
friend
prophecy
rema@@
ongwa
exerci@@
ase
lerat@@
ad
ton@@
arri@@
ia
moe@@
kee@@
jewish
morena
bilego
bê
kotsing
hol@@
rial
lae@@
malapa
communi@@
sight
hor@@
laola
role
kgotlelela
mose@@
move
righ@@
colo@@
oni@@
desi@@
spiritually
students
don
ahlo@@
ths
hwi@@
prin@@
seswantšho
baapostola
cations
stand
ctor
meaning
large
mpe
dru@@
hum@@
katlego
past
scrip@@
fenya
dri@@
ev@@
invol@@
gilead
authority
budu@@
mental
gobogilego
prepa@@
anyone
dinku
matlakala
shephe@@
segerika
sheep
bya
afe
fase
tain@@
ven
ide@@
ben@@
etela
lenyalong
sive
ameri@@
é
individuals
ssions
ngwan@@
phatlalatša
tswa
apostles
kemišetšo
whe@@
rule
further
tšwelela
shows
zing
loy@@
ikemišeditše
mahla@@
pare@@
nment
won@@
kgo
poin@@
forever
y’s
sisters
mohlo@@
gri@@
thwe’ng
afrika
lewat@@
baisiraele
asse@@
cro@@
evidence
understanding
gape@@
conclu@@
return
slave
botega
neago
rebe@@
inten@@
hwetše
material
state
pers
kalafo
dikgaetšedi
tlhaloso
daugh@@
ages
gwera
molekane
despite
tšhaba
ten
kgahlego
diabolo
·@@
inspired
teko
uto@@
identi@@
interest
obedi@@
physical
peri@@
geng
diphe@@
mare@@
already
baa@@
greater
ining
kgeth@@
information
promised
started
tshwanelo
qualities
atta@@
pra@@
bangedi
mentioned
tower
barongwa
justice
mara@@
creation
posed
accept
tatago
genesis
thibe@@
comfort
phafo@@
cent
bapiša
anago
tume@@
ens
lia
genesi
moru@@
tlho@@
thee@@
hlahloba
gaka
diphetho
comm@@
leave
egy@@
bofe
thibela
ekiša
phegelela
common
ef
country
soci@@
kaone@@
paul’s
fihlelela
speaking
karolong
tutuetšo
dito@@
lived
nal
tribu@@
bac@@
teache@@
circumstances
motseng
quen@@
sometimes
mine
survi@@
senyi
working
šô
effe@@
tiilego
bitšwa
pong
fele
tting
hebrews
lies
showed
plea@@
lost
crow@@
fli@@
got
pioneer
kept
ii
seetša
bošoro
makatšago
ple@@
song
palelwa
radi@@
manyami
co
od
diphošo
vered
rable
nyake
bokamoso
strength
written
sions
mahlo
posi@@
tern
shall
lefe@@
êlê
hlokomolo@@
meeting
destro@@
new@@
unity
oversee@@
tou@@
millions
longer
ywa
boa
ure
hat@@
persecu@@
shu@@
hone@@
gongwe
of@@
mobotse
source
lehlakoreng
loyal
ish
pontšho
lity
ker
thutamahlale
pages
stated
everything
botee
tšeela
gar@@
offi@@
kgaolo
ditha@@
char@@
heavens
dulago
origin@@
kgotle@@
translation
sister
tšung
daniel
malebana
congregations
devil
bes
anima@@
gakaaka@@
feel@@
joseph
ditšhi@@
five
loko@@
gift
promise
hlalosi@@
kgopo@@
mb@@
aparo
tic@@
morokami
lude
beau@@
ak@@
potšišo
rest
devo@@
sela
boikokobetšo
swarwa
sely
hearts
alone
lebeledi
late
spo@@
apo@@
cru@@
mate@@
mohola
ope@@
local
loso@@
responsi@@
proce@@
hen@@
choo@@
regu@@
solomon
popu@@
effort
tloditšwego
ic
pres@@
lano
modern
clean
reng
standing
madira
building
gwa@@
speci@@
dered
dikgo@@
nyakegago
lying
serious
bla@@
holago
inclu@@
eve
tutu@@
batamela
lt
deep
itsho@@
․
conta@@
usu@@
monyenyane
tharo
lot
provided
thekg@@
eletša
tso
tiki
ipotšiša
lebanya
life@@
scriptural
banyalani
anything
feleletša
cked
mies
sehlabelo
boletšwego
displa@@
kwe
descri@@
mit
matlafatša
roman
sacrifi@@
sep@@
nyal@@
gele
continued
tlha
tswalan@@
listen
tirelong
kgomarela
raga@@
phelago
gir@@
promises
older
hu
held
kgatišo
mmino
lied
hlô@@
tlala
progre@@
hlompha
tokologo
sebo@@
fala
taelo
gata
maleme
there@@
egipita
bahu
bobotse
šele
lie@@
gohle
fic
kgwa
explained
months
imitate
botlalo
confidence
judgment
moruti@@
n’t
inde@@
sara
allow
leso@@
everyone
blessing
russi@@
pped
ito@@
tholika
rai@@
port
pun@@
government
powerful
vor
lled
efforts
christ’s
nyakišišo
note
sugge@@
thong
nkabe
tsebi
above
mase@@
ditšhegofatšo
glory
learning
set@@
field
countries
vision
kahlolo
prayers
messi@@
tikologo
whose
matla@@
theo@@
kers
á
prove
anxi@@
josefa
baru@@
neile
boga@@
honor
preach
natural
compare
advan@@
establi@@
bota
spoke
kxo@@
buil@@
blessings
banababo
prospe@@
bontšhitše
convention
kgwebo
shing
angels
ssa@@
sexual
kakaretšo
bogoši
m’s
kgaetšedi
catholic
drin@@
contribu@@
katanela
draw
begin@@
maemong
mehuta
kings
chil@@
hli@@
rejo@@
gampe
finally
ines
mesia
standards
search
bop@@
diphoofolo
hlogo
phethagala
mala@@
mani@@
ari@@
heri@@
commit@@
believers
opportunity
lous
events
value
letter
hear
named
sign
tšexo
motswa@@
eness
iting
hemi@@
les@@
moa@@
tan@@
kgetho
tseba@@
daniele
rin@@
ear@@
temogo
doubt
worl@@
dira@@
bodu@@
mehlala
ngwadi@@
particu@@
terri@@
pti@@
vil@@
ite@@
eny@@
tlhompho
ability
aneng
dira’ng
holo
diteko
hands
apply
hlao@@
families
itself
neighbo@@
tempele
agalo
šitšego
kanya
effect
tiragalo
šwago
ado@@
hall
diphetogo
several
bolaya
helps
bale@@
ephe@@
nwa
picture
whatever
feso
stitu@@
ants
bitša
bru@@
tagi
ima@@
cy@@
recor@@
text
bara@@
continu@@
letswa@@
willing
theilwego
sele@@
nyami@@
segolo
reje@@
seek
examples
ara
ag@@
jeremia
fihlela
explains
poledišano
letšatšing
sym@@
impro@@
blo@@
coura@@
elo
walk
experienced
anti@@
dece@@
poor
kô
boraro
borwa
privilege
violence
axo
jeremane
praise
ntšha
mafelo
decision
vital
gwe@@
cam@@
fihle@@
teron@@
autho@@
meng
tikologong
pain
kgauswi
ctors
sins
dipolelo
please
hwetšwa
teachings
mona
ditions
hence
kere@@
maphe@@
dienywa
fle@@
kopanong
legong
gatelela
dihlopha
mea@@
progra@@
atic
surpri@@
kwanan@@
answers
deal@@
youths
offer
tl’o
actually
lane
branch
offe@@
mid@@
tlhohlo
million
maintain
cau@@
lahlegelwa
kgonthiše@@
constan@@
galati@@
low
tshwenyega
class
don’t
cultiv@@
proved
saloni@@
ach
euro@@
cks
wonderful
demonst@@
ton
akgo@@
dikgwedi
hweditše
noti@@
fetoša
period
vere@@
throughout
agre@@
mol@@
easy
stress
phethagetšego
sk
activity
books
forth
bethele
thousands
rence
influence
row
calls
six
tro@@
natu@@
isa@@
malwetši
wel@@
peu
ngwadilwego
medimo
bene@@
lwe@@
bula
various
atlega
dea@@
eventually
neither
thomile
paradeise
dar@@
kganyo@@
accep@@
bajuda
lebelo
nakwana
imagine
dikarolo
tial
oketše@@
high@@
seem
mô@@
freedom
rich
gontši
raro@@
accepted
lelong
frien@@
worldwide
follo@@
tseb@@
daily
pione@@
hand@@
birth
build
tolelo
kelo@@
phošo
kala
mangwa@@
magazine
fs
philip@@
mongwadi
heal@@
bed
pay
hlagolela
formed
area
phaga@@
ssen@@
change@@
house@@
appointed
thšaba
dišo
expla@@
promo@@
mothopo
taolo
near@@
bohlabela
ser
posse@@
jour@@
setho
described
tshwenye@@
mithara
ber
sei@@
boletšego
badi@@
vin@@
chapter
badudi
dithapelo
une
emotion@@
pen
mošo@@
šwe
kahla@@
decisions
easi@@
enough
education
remin@@
visit
mollo
conscience
bjala
bokgo@@
salomo
sun@@
bolawa
complete
lebakeng
fapana
augu@@
makga
ahlodi
enyana
integrity
thabiša
percent
considered
thabe@@
stay
rally
assi@@
gato
impre@@
issue
tried
praye@@
fer@@
bible’s
kgweran@@
deal
encyclo@@
barwa
bethel
tšhe
rome@@
wile
ema
responsibility
gat@@
satan’s
fedišwa
jon@@
happened
former
flesh
div@@
foretold
spee@@
utolla
recorded
activities
tebogo
pejana
tia
bot@@
appreciation
organi@@
corre@@
regular
earlier
cra@@
laws
stop
respe@@
adul@@
ania
borutho
ntweng
force
helping
tsoša
samuel
theless
available
gers
karo@@
created
determined
heberu
boineelo
fal@@
makgolo
tšofa@@
tlaišego
don@@
lebeletšane
thoughts
swa
tains
fun@@
kgodiše@@
tire@@
pago
leban@@
awake
vir@@
success@@
advice
training
ril
abo@@
bošego
mongwa@@
individu@@
mela@@
dilong
phišego
open
sebopego
ken@@
scienti@@
efa
ah’s
courage
dom
tseng
ste
kga
action
manaba
meet
iness
cies
šiša
getting
carry
thuše
centuries
lenaneo
hospit@@
conse@@
rise@@
samu@@
i’@@
offered
austra@@
met
bilities
rature
dikhilo@@
gaka@@
salvation
bi
gabonolo
nya
thati
pic@@
man’s
poi@@
direction
harmony
custo@@
wen@@
lei@@
yuropa
phapano
invi@@
necessary
tsene@@
šana
neg@@
vit@@
ditšhelete
topo@@
secre@@
roto@@
dirilwego
sco@@
parent
lution
tletše
distri@@
gin@@
laxo
similarly
bagoeledi
šolo@@
ditaelo
ny@@
fran@@
gerika
instance
feteletšego
kgaugelo
vers
exi@@
psalmi@@
ners
nee@@
single
office
hlahlo@@
hood
shor@@
english
leboa
precious
mopsalme
jeremiah
non@@
confi@@
baptism
seki@@
bega
ologi@@
wants
fying
metho@@
etšo
ipon@@
tutueletša
leeto
regard
destruction
barapedi
ofi@@
pk
diboka
lešaba
reat
lahle@@
rwa@@
covenant
tiv@@
temo@@
stance
nee
one’s
gišani
wh@@
bomang
letela
trea@@
couple
fron@@
ond
discer@@
que
ships
ransom
concern
ssive
stood
subject
mana@@
kgaotša
lment
swanelago
eki@@
boiphedišo
gelo
subje@@
thabile
ape@@
bona@@
kara@@
ori@@
tsebi@@
mole@@
faith@@
perfe@@
christi@@
prea@@
ful@@
mbe@@
fedi@@
like@@
ety
ò
ha
lekgo@@
é@@
who@@
vol@@
oke@@
ise
leletša
resurre@@
lly
ʹ@@
alo
itshwa@@
ath
israe@@
langu@@
experien@@
l’s
bs
lar@@
rious
tekan@@
kwan@@
fete@@
ani
even@@
mple
rika
hlomp@@
twana
ft
rago
fur@@
kgwedi
lete
sear@@
thers
ist@@
tshwen@@
spea@@
lwego
determin@@
spi@@
hleng
main@@
bane
bontšhi@@
fsi
ree
ep
mean@@
nyake@@
ound
kgah@@
tlwaele@@
conven@@
kwana
ghts
ph
benefi@@
cei@@
thou@@
wat@@
llo@@
teac@@
male@@
kgat@@
j
ready
mothe@@
parti@@
lwetši
bô@@
gobo@@
some@@
member
á@@
wers
differen@@
lish
seve@@
agan@@
mae@@
answe@@
porofeta
kemi@@
bility
baruti@@
peop@@
hon@@
holo@@
mme
accoun@@
kgwe@@
wer
sal@@
kgethe@@
lefa@@
solo@@
giš@@
consci@@
gofa@@
enywa
influ@@
hlolo
purpo@@
gon@@
princip@@
quali@@
yane
religi@@
clu@@
doub@@
hus@@
lee@@
selves
tšhegofatšo
witne@@
phatlala@@
schoo@@
kgotso@@
tse
your@@
inte@@
import@@
dest@@
star@@
waga
tran@@
cip@@
–
nity
ents
mego
wit@@
togo
peng
gelwa
bophe@@
kgomare@@
by@@
kgonthi@@
maikwe@@
hloko@@
dišana
circu@@
situ@@
bofe@@
artic@@
mon
kwaga@@
hlela
gan
getšego
h’s
reli@@
ada@@
monagan@@
physi@@
bohlo@@
lebeletš@@
eng@@
demon@@
ffi@@
boitshwa@@
count@@
sters
davi@@
chur@@
anci@@
ku
inf@@
sue
sci@@
condu@@
poro@@
edu@@
orinthe
regar@@
privi@@
recei@@
titu@@
wi
dumelel@@
bapi@@
possi@@
bohla@@
gh
ctor@@
ation@@
every@@
bir@@
king@@
ibe@@
●
diffi@@
pointed
ugh@@
lele@@
mer
hlako@@
ught
rist@@
spiri@@
dul@@
scri@@
emo@@
val@@
ssion@@
tion@@
hlo
eas@@
happen@@
ikemiše@@
kiši@@
free@@
aka@@
tings
tho
xwe
sour@@
kholofe@@
tten
dimi@@
sus
van@@
infor@@
ol@@
šaba
sat@@
violen@@
letla@@
apost@@
tšiša
ano@@
jose@@
pha
’t
êna
coup@@
kelo
ude
ational
bago@@
opportu@@
histor@@
mbers
ud@@
contro@@
ffe@@
joh@@
sha
$
bapti@@
justi@@
bjo@@
gni@@
koko@@
pana
mone@@
parade@@
bre@@
nywa@@
boledi
kgau@@
sing@@
avo@@
ok
dence
imit@@
knowled@@
diffe@@
magaz@@
shou@@
vio@@
ut
nepa@@
’o
accor@@
cou@@
wide
tlhoko@@
fello@@
madibogo
lasting
í@@
lengwa@@
inspi@@
thara
velo@@
ousness
phege@@
wish
bôn@@
mation
reco@@
nyakwa
standar@@
fami@@
karabelo
ledišano
kologo
llen@@
fri@@
abraha@@
gedi
apar@@
moro@@
manya@@
kgatlo
lehlako@@
struction
jeho@@
phili@@
sexu@@
spiritu@@
enyane
thane
mehla@@
ü@@
dou@@
mony
lagan@@
our@@
ʹ
wou@@
whi@@
nagani@@
bogo@@
with@@
disp@@
⁠
lit@@
lato
relation@@
atšing
vity
phetha@@
bja@@
tea@@
nece@@
motho@@
ator
gy@@
folo@@
cto@@
cont@@
kanye@@
raha@@
kare@@
romi@@
hlago@@
æ@@
zation
,@@
chap@@
kamo@@
bran@@
portu@@
attitu@@
ofolo
exer@@
letha@@
pet@@
questi@@
isirae@@
dij@@
catholi@@
tshepe@@
counse@@
thin@@
inted
tšatši
eld
aneo
circum@@
vil
corin@@
gge@@
eledi
psal@@
sma@@
lione
tshadi
ef@@
ã@@
ó@@
tšho
syste@@
simi@@
pau@@
pela@@
dipho@@
seko@@
aka
etše@@
agwe
godimong
dišano
bet@@
spite
phedišo
an’s
akang
◆
tšu
matho@@
rwa
ö@@
cir@@
šup@@
sebe@@
foša@@
lities
tshwan@@
fapan@@
&
watch@@
tually
lf
lenya@@
rom
prover@@
neigh@@
powe@@
isi@@
©
paren@@
thwe@@
preci@@
rega@@
nyakiši@@
simp@@
phuthe@@
è@@
certain@@
kokobe@@
lomo
sita
dani@@
minist@@
ung
ith
gal@@
logolo
ssage
jes@@
suc@@
marri@@
leh@@
huta
kologong
ho
jana
spon@@
kgati@@
rful
judg@@
kgaus@@
stances
botla@@
maba@@
thuta@@
them@@
tšing
cer@@
hago
denti@@
nei@@
illu@@
oro
itsh@@
cult
kala@@
wle@@
congreg@@
hoo@@
q
xu@@
jerusale@@
organ@@
termin@@
secon@@
lear@@
jeru@@
ú@@
ough
hat
tlhalo@@
phat@@
promi@@
olo
nka@@
▫
bata@@
%
wis@@
ater
ort@@
thulagan@@
phatla@@
experi@@
vice
vation
dudi
­@@
toge@@
som
abo
isai@@
ita
ono
contin@@
katan@@
kgaetše@@
resu@@
ł@@
yeng
|
gipita
clea@@
imag@@
rae@@
jeremi@@
rought
integ@@
forts
q@@
timo@@
uro@@
ava@@
band
tioned
ç@@
latedi
earlie@@
kuto@@
phara
unti@@
leny@@
°
bokamo@@
ʼ@@
bethe@@
_@@
ä@@
ñ@@
hilo@@
aposto@@
kobo
tšhegofa@@
sadi
hebe@@
necess@@
fore
kanyetšo
ility
ila@@
eup@@
wonder@@
scriptu@@
mans
matthe@@
corinthi@@
sale@@
yor@@
bogo
boru@@
­
phy@@
>
mafe@@
mahlale
moder@@
fort
▶
inste@@
ḥ@@
ì
congre@@
ešita
him@@
ë
mmin@@
chri@@
í
bokgon@@
lites
contri@@
boikokobe@@
ë@@
◯
jere@@
ʽ@@
vities
cyclo@@
yen@@
pote@@
specially
nag@@
sten
rongwa
milli@@
phih@@
atši
gho@@
ה@@
esta@@
bany@@
ו@@
י@@
â@@
servan@@
clear@@
ה
ā@@
#
world@@
ween
coven@@
=
boine@@
kemiše@@
dai@@
sati@@
ous@@
ð@@
č@@
ever@@
○
▸
✔
hlanka
®
š
righte@@
ans@@
dise
ž@@
sands
centu@@
ʼ
ngwe
kung
ş@@
ï@@
å@@
❏
howe@@
⁠@@
availa@@
ø@@
pita
resur@@
batswa@@
phapan@@
ã
rote
mples
heaven@@
tholi@@
↓
◇
ł
←
↑
õ@@
−
ū@@
_
ú
throu@@
ò@@
ī
ż@@
ń@@
”@@
̆@@
‛
ś@@
kami
―
î@@
ü
‘@@
apostola
diabo@@
sine
΄
ē@@
ä
spit@@
tsha@@
ý
ē
bodire@@
→
ą@@
ẹ@@
bana@@
kakare@@
£
sacri@@
happ@@
folo
ş
ū
❑
å
æ
ׁ
ש@@
פ@@
נ@@
\
❖
ę@@
ö
beibe@@
šita
fida
ý@@
madibo@@
bible@@
proble@@
ī@@
ṭ@@
ć
beca@@
ssings
ā
⇩
haps
¡
⁄
ß
à@@
■
☞
+
€
chings
⇨
ν@@
ρ@@
childre@@
μ@@
ν
ō
̗@@
₦
œ@@
ό
ο@@
ě@@
κ@@
ֹ
ẹ
ß@@
י
kud@@
ō@@
ְ@@
)@@
ő@@
ù
™
ı@@
hebre@@
jesa@@
mafolo@@
ʺ
◊
ř@@
‚
¿
ė@@
ć@@
​@@
ź
ă
ḍ@@
ọ@@
ς
ọ
ṣ@@
σ@@
ά@@
δ@@
α@@
λ@@
â
ύ@@
ι@@
ç
ֹ@@
ï
ă@@
̧@@
ɔ@@
ǒ
ק@@
ל@@
ד
ś
xt
ε@@
›
ָ@@
û@@
υ@@
ω
ʽ
@
π@@
ᾶ@@
γ@@
ό@@
ì@@
υ
ḥ
▾
ů@@
̇@@
ń
☒
▴
thout
û
◌
▼
uropa
swantšho
̀@@
ė
▲
ể@@
kots@@
̱@@
heber@@
̆
]@@
