<unk>
<pad>
<s>
</s>
.
,
a
le
go
ka
ba
e
the
:
to
ya
of
o
“
”
and
se
be
gore
in
ke
re
wa
?
tša
)
(
di
’
di@@
sa
-
ile
ga
la
that
tše
s
ge
—
is
le@@
re@@
mo
;
for
1
se@@
e@@
yo
Modimo
bja
ma@@
bo@@
Jehovah
ba@@
we
i@@
Jehofa
me@@
Ka
his
a@@
God
mo@@
was
gagwe
with
on
as
2
na
I
yeo
s@@
gomme
not
tla
you
t@@
Go
The
lo@@
bona
are
he
it
A@@
in@@
la@@
o@@
gona
or
have
be@@
3
bjalo
t
bo
lego
rena
E@@
will
batho
bao
Ke
n@@
ri@@
seo
S@@
de@@
4
ra@@
O
by
us
l@@
5
ti@@
d@@
dira
p@@
from
bego
f@@
pele
te@@
an
tšeo
en@@
their
!
one
r@@
6
kudu
can
they
T@@
‘
Jesu
our
c@@
ly
Jesus
who
m@@
li@@
Bible
k@@
at
ro@@
fa@@
Mo@@
Ge
H@@
-@@
K@@
this
moka
an@@
u@@
st@@
ga@@
A
y@@
goba
g@@
Di@@
C@@
7
all
8
Ba
pe@@
r
were
I@@
ing
st
9
Beibele
me
n
po@@
M@@
15
O@@
i
10
12
what
y
un@@
do
b@@
bjo
fe@@
go@@
th@@
xo
had
ted
P@@
11
ts
ne@@
d
ye
lo
What
W@@
pa@@
l
bolela
si@@
your
mi@@
Le@@
ša
Bo@@
fi@@
baka
gago
14
motho
them
In
13
ar@@
people
con@@
ra
m
L@@
ke@@
rs
him
E
red
my
ta@@
w@@
eng
G@@
about
has
morago
ce
B@@
bangwe
swanetše
al
Ba@@
17
at@@
Se@@
16
when
vi@@
leo
hla@@
ge@@
Le
would
es
to@@
ve
moo
lago
ru@@
nako
the@@
ds
al@@
ilego
dilo
tšwa
mongwe
[
]
on@@
time
pre@@
ac@@
ex@@
may
1@@
long
but
ong
ana
bile
did
th
ho@@
F@@
19
tsela
N@@
it@@
lwa
ma
bakeng
ca@@
so
kgo@@
life
yona
18
How
her
lela
20
for@@
v@@
su@@
ding
some
Ma@@
wa@@
ded
ad@@
bjang
or@@
ago
b
Na
so@@
ate
more
those
moya
Lega
bana
ak@@
sa@@
ss
šo
ed
ment
h@@
He
R@@
še@@
ha@@
x@@
co@@
ct
D@@
k
phe@@
nywaga
du@@
ka@@
Re
nago
bu@@
te
pro@@
šwa
out
we@@
no
ation
ao
also
ci@@
yena
tš@@
hlo@@
It
many
tu@@
tse@@
led
24
š@@
lefase
as@@
pi@@
been
bontšha
op@@
no@@
man
ful
such
ce@@
eupša
therešo
thuša
21
il@@
z@@
how
tšo
22
nea
U@@
tlo
bohlokwa
bophelo
19@@
Re@@
hu@@
ry
ši
matla
boi@@
help
feela
ta
dingwe
ter
We
there
J@@
up
/
way
gotee
he@@
good
Bakriste
Dihlatse
ô
Witnesses
do@@
nyaka
ch
kua
day
gwa
leng
pri@@
than
gabotse
šago
Paul
tion
tšona
ko
other
if
work
its
said
Me@@
ces
Paulo
bi@@
fo@@
things
tseba
ane
world
should
ko@@
kgolo
dis@@
love
tha@@
king
man@@
p
John
even
ring
does
ated
Y@@
wo
tšego
Christian
When
per@@
lelo
ine
selo
dula
diriša
But
kwa
dire@@
hwetša
23
these
bantši
into
she
thu@@
lefaseng
could
c
les
gan@@
na@@
years
ls
ons
They
še
tra@@
kga@@
pelo
kgonthe
which
make
im@@
mabapi
ting
gi@@
This
w
qu@@
sed
la’ng
fo
cu@@
j@@
el@@
feta
dutše
wago
mohlala
ble
Kriste
botse
ant
Christians
ning
ap@@
children
5@@
earth
ally
able
ou@@
nngwe
tlo@@
Go@@
Christ
tso@@
ê@@
thoma
com@@
tloga
tho@@
gu@@
ence
ver@@
Eupša
ona
lerato
tee
ary
tšago
Mmušo
ent
gile
For
sego
ran@@
etša
pa
swanago
because
V@@
pha@@
others
Ga
ve@@
ck
ction
ic@@
family
tly
ves
ity
letšatši
come
like
ši@@
bago
Matthew
If
28
u
min@@
tšwago
then
nakong
ithuta
Mateo
res
ings
rata
over
first
25
mon@@
karolo
mp@@
rat@@
says
tšwe
2@@
ties
cted
only
Why
men@@
Kingdom
wor@@
ye@@
S
bjale
As
Be@@
kamoo
ced
ty
ela
need
Johane
lapa
being
made
pu@@
ses
war@@
sh
xa
der
hi@@
swana
must
faith
gare
ah
nagana
ki@@
bon@@
gobane
tumelo
bala
letša
example
mehla
hwe@@
spirit
6@@
tlago
tšwe@@
ditše
You
ban@@
*
ged
ous
swanetšego
ang
sti@@
ô@@
ate@@
ations
wan@@
har@@
men
ê
gra@@
cre@@
see
lea@@
times
Ne@@
godimo
ks
see@@
He@@
phela
very
just
know
wi@@
30
ditaba
gela
spiritual
ans
êla
ness
ssed
congregation
gape
is@@
most
de
lu@@
ur@@
tla@@
ments
Psalme
ten@@
feto@@
7@@
Psalm
ni@@
take
ar
itšego
own
De@@
now
true
Se
swa@@
In@@
pe
sto@@
ms
ones
ter@@
after
gaešita
ntle
efe
lengwe
give
words
mosadi
tšwela
da@@
Sa@@
ine@@
ver
sion
become
od
den@@
lena
fa
kgona
ling
less
x
pla@@
And
mela
thata
ges
new
mat@@
00
Jo@@
Na@@
ving
mantšu
dintši
end
ch@@
tri@@
kae
26
before
jo@@
sona
cal
ri
boemo
parents
1-@@
son
bohlale
any
g
death
tšha
lona
rego
ng@@
heart
sp@@
27
monna
Peter
29
ron@@
•
diri@@
pedi
sen@@
mehleng
ying
hwa
h
mu@@
sts
šo@@
woo
tši
ned
ste@@
well
ther
ating
ss@@
ll
where
sengwe
lan@@
wana
lemoga
fihla
nt@@
gana
lehono
tšwego
8@@
—⁠
sing
another
lla
Petro
ined
ws
9@@
hloko
Pe@@
gre@@
pho@@
much
modiro
ing@@
two
thuto
rou@@
om@@
dume@@
ren@@
Isiraele
That
ati@@
through
33
medi@@
sta@@
šetša
bodumedi
amogela
cts
batswadi
ssion
šego
great
yoo
ro
tše@@
shed
sin@@
bole@@
taba
ph@@
tle@@
fin@@
ance
par@@
kgopolo
truth
ral
31
name
person
rate
today
used
Bokriste
ts@@
199@@
lete@@
hlalosa
get
New
Lentšu
tswa@@
ved
sure
sh@@
tho
letše
might
leka
akaretša
found
Ka@@
dumela
ries
wing
each
lebaka
One
rea@@
book
though
tlwa@@
xe
phi@@
beng
phuthego
kan@@
pen@@
yed
study
ithu@@
am
age
told
human
ó
itše
tšea
des
3@@
David
So
hlankela
feel
ite
kx@@
right
tlai@@
šoma
ps
noši
gilego
llo
land
-⁠
Sathane
ven@@
va@@
lele
brothers
Word
Corinthians
cen@@
say
tes
GO
botša
lebe@@
tšhelete
part
serve
clo@@
Batho
als
young
gong
motheo
tlase
mang
find
use
car@@
mathata
gantši
’ng
Satan
against
nna
ego
Luke
tre@@
apostle
bohloko
Luka
keep
To
sho@@
ôna
’@@
uni@@
mar@@
fully
sted
bj@@
An@@
ut
Israel
ikwa
pego
cho@@
maemo
dipo@@
Gaešita
Diema
Proverbs
Acts
et
acti@@
Do
dirago
32
ngwa@@
place
ké
dly
vo@@
ele@@
šitše
pholo@@
lwe
However
keng
Roma
len@@
ob@@
tlha@@
himself
ab@@
deci@@
fapanego
ad
fore@@
golo
ping
word
oun@@
hle
kwe@@
No@@
home
ruta
Jesaya
Isaiah
tshe@@
Dafida
ze
cation
never
letšego
wrote
are@@
lelago
ked
AN@@
šetšwe
cha@@
4@@
nya@@
cor@@
ilwego
:⁠
gh@@
ilwe
Ho@@
babo
same
leina
Lo@@
kgone
Te@@
34
trans@@
tli@@
lehu
ti
means
ene@@
lelwa
maikwelo
20@@
lethabo
tor@@
kgaufsi
ki
ngwana
cri@@
ssi@@
ina
fela
foko@@
dinako
lar
zed
legodimong
amoge@@
khu@@
35
mil@@
kgotha@@
Po@@
40
dimo
days
lemo@@
ria
mafelelo
thabela
learn
often
every
upon
khutšo
rity
faithful
why
Some
Timothy
At
0@@
too
Ro@@
show
bonolo
spe@@
ele
xo@@
med
tle
wn
stri@@
became
view
ata
Timotheo
kolo@@
Morêna
hl@@
Con@@
came
Pro@@
cy
olo@@
read
ng
bele
boletše
course
felego
diša
molao
para@@
worship
Ti@@
swane@@
ther@@
sig@@
There
Je@@
put
mor@@
live
lebelela
por@@
boitshwaro
After
Ru@@
important
Korinthe
kholofelo
The@@
let
mind
lation
Seo
per
dijo
Fi@@
during
kotsi
Ditiro
cti@@
ality
So@@
down
called
botegago
Ha@@
pi
ena
mogolo
NW
mong
publi@@
hon@@
Ke@@
want
mane
thabi@@
tl@@
Mangwalo
Ee
37
set
N
letšo
dre@@
among
feletšego
ins
wife
gae
kgahlišago
□
er@@
fu@@
imp@@
enti@@
fatša
Father
Juda
appro@@
X@@
ise
Kutollo
under
sha@@
back
Revelation
tlho@@
thušo
melo
dibotse
fsa
cial
wed
ble@@
ne
lekgolong
news
encoura@@
ani@@
er
comp@@
tabeng
el
banna
side
cul@@
Is
thi@@
gen@@
tain
gro@@
gwe
knowledge
lega
doing
hla
aba
melao
eny@@
ates
bobedi
sepela
bolelago
tšhe@@
ture
din@@
sebe
ntwa
century
au@@
D
Romans
Ju@@
der@@
kg@@
still
gi
offe@@
given
wise
pelong
year
f
Ch@@
ik@@
phethaga@@
bohlatse
preaching
began
ministry
basadi
fetilego
DI@@
away
expre@@
later
she@@
ters
Mon@@
sur@@
bagolo
By
tšho@@
ear@@
hope
pelaelo
old
holy
over@@
mpho
ration
ngwaga
50
dife
themselves
Mar@@
che@@
ders
rapela
kge@@
let@@
ali@@
wri@@
ange@@
dra@@
power
dirišwa
mokgwa
gopola
TŠ@@
Al@@
living
mošomo
Genesis
Genesi
Si@@
service
gave
fe
šetše
bophelong
keletšo
nyak@@
botho
sehlopha
while
lwego
ger
dik@@
Scriptures
ging
ditšwego
atten@@
wat@@
consi@@
hel@@
gopo@@
Mi@@
dia
ledi
practi@@
ara@@
pra@@
puku
thing
peace
lentšu
lô
tago
pan@@
however
United
dire
en
child
father
14@@
On
Eli@@
T
kwešiša
bohle
bafsa
without
barutiwa
tšohle
cla@@
dirile
sm
kopan@@
gati@@
alo
wena
belie@@
With
den
letš@@
dika
Com@@
His
you@@
mathomo
oc@@
ways
homo@@
lege
phuthegong
fir@@
ruri
il
ach
EL@@
ON@@
Beibeleng
three
10@@
light
Ny@@
ditsela
gakaakang
King
bola@@
lel@@
holofe@@
lexo
up@@
morero
ship
TH@@
Au@@
house
temp@@
disciples
tha
Fe@@
Then
thou@@
lebo@@
lefelong
qui@@
mola@@
wal@@
LE@@
always
hlogo
making
kweši@@
mer@@
ene
xaxo
oni@@
wona
ku@@
bat@@
oketšegilego
She
hlwa
ward
Many
cal@@
order
tšha@@
weng
Li@@
Jud@@
served
aro@@
My
both
han@@
religious
es@@
pono
fact
kgodi@@
teko
latela
Jakobo
lebeletšana
swanela
mes
ofe
ser@@
stre@@
bahlanka
bly
asked
prote@@
Our
šoro
Kgoši
mora@@
Hebrews
lat@@
phetha
bolo@@
visi@@
larly
kgethwa
fetago
kgethegilego
Yet
000
mmo@@
cent
something
dii@@
Job
mangwe
done
took
šaba
rel@@
pur@@
ano
oketša
xaxwe
sepe@@
dimilione
Pa@@
Jobo
James
stra@@
one@@
thapelo
felt
latelago
ditšego
tru@@
pon@@
ths
Yes
kago
humans
mber
direga
nyakega
city
setšhaba
gene@@
appreci@@
Ca@@
tswalano
Jerusalem
kgopela
ars
bagwera
Mo
borapedi
kilego
mother
tletšego
si
molo@@
Mokriste
è
ngwadile
ining
refe@@
ja
marriage
.@@
act
elo
ditšwe
boo@@
servants
tually
é
woman
ša@@
Š@@
having
coming
bar@@
anya
sy@@
Pha@@
,000
succe@@
Y
hand
think
ul@@
belo
etše
tši@@
whom
Ge@@
ill
gego
tions
dom
chan@@
really
out@@
Man@@
gh
rely
thekga
R
lie@@
ice
bedi
G
States
reason
together
possible
mmušo
concer@@
stan@@
ns
dy
between
letšwa
our@@
develo@@
leba@@
ys
dent
nyakago
tsebe
Let
ors
Morwa
bokgoni
shi@@
stud@@
ssing
mma@@
,@@
0
personal
peri@@
ld
exa@@
bote@@
mmu@@
tšhi@@
poli@@
madi
fied
twana
future
kaone
fellow
ahla
bone
ctive
maaka
kgao@@
sin
Ar@@
tutue@@
bora@@
ipo@@
look
swanelwa
mee@@
magareng
tšo@@
husband
kgoši
lies
consider
little
affe@@
dered
stu@@
joy
sol@@
sel@@
Even
lenyalo
tsena
Ke’ng
maphelo
respon@@
ara
tting
diš@@
sions
ig@@
36
La@@
plea@@
mabaka
lives
flo@@
kiše@@
emp@@
dibo@@
All
mmele
bjoo
maka@@
kiša
39
mankind
point
Mor@@
produ@@
bro@@
face
moapostola
ca
bonagala
bur@@
toward
dumelelana
lon@@
result
diriš@@
Th@@
tern@@
wego
hard
any@@
uto@@
tsh@@
meetse
felo
happy
diti@@
died
No
Moses
tal@@
ner
kile
ea@@
St@@
ntlo
problems
bring
ational
food
nnoši
šitšwego
swan@@
hloka
sup@@
rulagan@@
care
meetings
seng
giving
ngwala
ever
dina@@
êlô
expe@@
women
45
requi@@
dike@@
phetho
mohlomongwe
dithuto
kind
ber@@
itl@@
World
tate
hlokomela
righteous
few
yago
En@@
known
piša
responsi@@
Son
bea
atla
seny@@
These
hola
ngwadi@@
number
learned
mohla
hlwe@@
dir@@
serving
feti@@
šong
purpose
molaleng
dness
heaven
appe@@
experience
again
ped
ditho
Jerusalema
dumelela
ini@@
form
ers
ght
From
38
mantši
gon@@
id
perfect
hlat@@
prayer
atu@@
last
nyenyane
KA
dikolo@@
Ga@@
dumedi
iša
buil@@
mentši
Bethe@@
body
Thu@@
better
accep@@
regu@@
swara
lwago
descri@@
phu@@
don
tsebo
wisdom
Watchtower
kgothaletša
fle@@
here
needed
akare@@
milli@@
loving
abo@@
sse@@
MO@@
palo
page
wê
polelo
ened
dition
bothata
lao@@
app@@
waga
yana
mohuta
5-@@
mohla@@
rance
gs
ct@@
gui@@
tšhaba
potego
Su@@
dirwa
left
thaba
Bala
nations
mai@@
neng
wicked
deli@@
offi@@
xa@@
sela
temo@@
bela
questions
nd
lete
ly@@
Bi@@
elders
helped
gy
line
bi
Your
different
mekgwa
sehlogo
LE
af@@
counsel
lokilego
hold
bolwetši
assig@@
nepagetšego
pare
mola
bed
reve@@
d-@@
reali@@
nor@@
tshwenye@@
ju@@
pela
thy
s.
lwan@@
discu@@
nor
anointed
raro
coura@@
bitšwago
onal
ind
lahle@@
Ps
tlogela
Fa@@
teaching
Israelites
dipotšišo
ale
Tha@@
recor@@
geng
kganyogo
hlopha
members
since
tekanyo
mediro
went
eka
kga
molato
Ta@@
bad
gate@@
taelo
indi@@
leboga
bogolo
presen@@
milego
gola
article
tive
Read
hlanke@@
cannot
enywa
nu@@
fru@@
kgon@@
comes
Hebere
disa@@
hou@@
ane@@
cop@@
roo@@
going
Ruri
vit@@
ingly
cing
present
3-@@
fear
someone
loo@@
Un@@
bli@@
bontš@@
off
relationship
tlhokomelo
stru@@
Greek
aga@@
ure
gelo
botšiša
miša
brother
bogologolo
rd
mi
kxo@@
kgone@@
continue
ler
fulfil@@
kgopo
šega
prophe@@
early
IN@@
kopano
šu@@
ard
gabo
à
law
associ@@
Din@@
matter
vie@@
EN@@
pen
fine
morwa
provi@@
friends
rate@@
wee@@
dipuku
system
rious
along
boboledi
Motho
kgetha
44
Lord
200@@
sia
fediša
xô
lefsa
po
twa
heavenly
AL@@
Per@@
water
araba
best
legolo
bonala
hlala
moyeng
Thus
kong
naga
ask
hlo
ir
lwetši
sting
pt
Ra@@
mafelelong
godi@@
hlan@@
believe
nagan@@
swe@@
school
18@@
close
ative
stance
certain
eyes
Because
letše@@
Molao
fy
by@@
mokgethwa
šom@@
share
sebo@@
laela
glo@@
letšago
support
understand
under@@
HO@@
tirelo
thought
refu@@
hear@@
following
lin@@
fedi@@
beg@@
boikarabelo
money
etšo
secu@@
iness
ancient
est
religion
Aborahama
getšego
sebaka
moved
tšh@@
evi@@
ditšhaba
baptized
Abraham
du
message
sebete
ctions
intere@@
mma
language
situation
lamadibogo
art
kno@@
cated
mit@@
kgwedi
nageng
dinageng
fetoga
Who
lly
2-@@
struction
sear@@
kgate@@
ously
lefelo
ratago
ither
loved
loke@@
cle@@
sor@@
kgale
fore
Mark
gwera
xore
To@@
yourself
enjoy
Tš@@
ourselves
Moše
war
mean
There@@
Xo
․
rong
head
sware@@
yo@@
mme@@
choo@@
bae@@
tšhegofatšo
nation
AT@@
position
thers
tshepedišo
dee@@
comm@@
bontšhago
clear
self-@@
far
kat@@
saying
abe@@
rous
desire
until
mago
ani
42
gin@@
modirong
hleng
da
um
tlhahlo
yet
tlhago
holo@@
yenyane
less@@
Sau@@
Jews
Lefase
vely
Bak@@
bonagalago
blood
nka
Bar@@
fete@@
lana
boledišana
determin@@
thwa
bility
sense
ep
phagamego
baru@@
accu@@
plan@@
cally
respect
Daniel
Ephesians
boifa
feelings
PK
dikgopolo
ches
gelwa
ima@@
subje@@
moru@@
boela
mofsa
difficult
lef@@
hle@@
Bri@@
around
change
Len@@
cep@@
tile
letšwego
phihlelo
lead
monagano
tseleng
ty@@
late@@
cting
dance
suffe@@
gement
Although
Baroma
kopana
tal
sis
seve@@
speak
šin@@
molaetša
saw
bjona
phema
AR@@
awa@@
kgwa
tation
table
inc@@
Yo
especially
seke@@
dule
fen@@
case
kwan@@
THE
loka
sy
influ@@
sent@@
hor@@
198@@
nama
43
that@@
brought
cy@@
Those
pušo
clai@@
perisita
šitšwe
thus
trave@@
mate
bophara
next
endu@@
Since
saloni@@
dibe
60
rialo
rwa
coun@@
born
mmalwa
turned
ny@@
attention
bofelo
inte@@
6-@@
tokelo
dibokeng
cause
Bor@@
needs
consci@@
wit@@
getše
nywageng
demon@@
loko
ikokobe@@
fošagetšego
account
kgonago
C.E.
learly
received
real
comman@@
answer
letšwe
dead
Mak@@
naganišiša
lesome
main@@
telele
giš@@
mb@@
wi
gar@@
hu
botona
kgahli@@
avoid
lekanego
thato
bolele
lite@@
Dit@@
Kga@@
C.E
Co@@
ghts
šupa
tseneletšego
dies
fetša
turn
aga
sent
talk
ol@@
Moapostola
7-@@
seri@@
botshadi
H
Christ@@
conven@@
Bao
sons
ef
answe@@
mer
try
soon
kgonthi@@
free
hur@@
kil@@
married
wanted
tsoma
ck@@
hlong
ign
motse
thom@@
ema
inter@@
Mmopi
discip@@
gran@@
teng
stor@@
rongwa
karabo
70
que@@
Law
bê
wrong
hlano
theetša
knew
prove
fai@@
likely
bonaga@@
kgotsofa@@
states
šire@@
Z@@
wel@@
rika
Of
omi@@
ase
illust@@
phetogo
seen
bele@@
life@@
sses
dipelo
ety
temple
small
bane
sue
conta@@
ist@@
bit@@
ntši
Adama
self
romiwa
xôna
dikete
tical
ld@@
pointed
Are
Ban@@
Adam
wil@@
swantšhe@@
spite
benefit
York
question
modi@@
mathomong
eupja
Bona
grou@@
kgonthišetša
41
bontši
tic
lehu@@
sea
tic@@
BO@@
kolobe@@
diko@@
ents
boemong
including
night
attitude
pati@@
aring
worshi@@
arabela
val
conduct
thušago
lebiša
streng@@
allo@@
diswantšho
lega@@
dihla@@
ete@@
SE@@
follow
Gi@@
gwa@@
hea@@
contra@@
dirilego
dedi@@
lebeletš@@
Tl@@
vers@@
taught
mengwe
Creator
fre@@
tapele
Pu@@
person@@
kwagalago
Phe@@
stic
lls
mission@@
strong
eletša
bre@@
thinking
etši
taking
We@@
kgwe@@
tain@@
buša
kgan@@
Such
dise
While
des@@
rape@@
principles
tšweletša
babedi
boloka
ok
kolobetšwa
sub@@
Bana
receive
matšatši
suffering
legago
leleme
high
special
Can
boa
tse
amo@@
anger
tliša
compa@@
rying
Tate
loko@@
Does
Today
▪
ditiro
makes
lands
thop@@
sal@@
rated
lle@@
my@@
valu@@
godiša
ctor@@
reading
taken
gwalo
Jeremia
sour@@
prophet
lekan@@
call
happen@@
sic
ming
Efeso
Tse@@
dise@@
imit@@
Tu@@
Daniele
health
sla@@
br@@
bir@@
bodiredi
whole
magolo
Bj@@
false
huta
nothing
sefe
ately
rac@@
toka
trust
sehla@@
kindness
some@@
Afri@@
provide
atagwe
public
ached
ledišano
hlokome@@
Ela
Solomon
tlwaelegilego
decla@@
reng
violen@@
Samuel
dikgolo
maiteko
teach
bolelwa
followers
ven
atago
Consider
Be
kê
ening
pti@@
cur@@
using
moral
pat@@
dri@@
earth@@
ight
ster
vation
simply
Kgo@@
bôná
senya
êl@@
rai@@
mogato
hlase@@
tšong
moti@@
righteousness
mile
gives
gue
kgole
fapa
whether
gwadi
ofolo
Pele
em@@
pana
lek@@
bobe
balatedi
Para@@
bol@@
arri@@
commun@@
Jeremiah
Wor@@
fami@@
every@@
oned
foo@@
ala
satis@@
group
shor@@
rial
z
Hebrew
Can@@
Gre@@
lli@@
kgoma
beke
works
šireletša
tong
according
challen@@
matters
even@@
bri@@
heard
Du@@
sc@@
bilego
control
tsogo
lapeng
newa
regar@@
hudu@@
atšing
vity
histori
ply
tsebišo
free@@
verse
sou@@
divine
lano
kholofetšo
nment
šomago
kgobo@@
involved
posed
Now
assu@@
šetšwa
rin@@
195@@
ER@@
reas@@
magaz@@
arran@@
lebi@@
maga@@
ful@@
emoti@@
thabišago
hlolo
mafolofolo
ding@@
crip@@
Nna
bya
occa@@
obe@@
wedi
enjo@@
temana
coup@@
cs
je@@
mokgatlo
promise
bapa@@
resul@@
See
everlasting
kingdom
recogni@@
ide@@
wide
Jewish
soul
pain
certainly
llwa
similar
hwi@@
xobane
four
resurrection
seka
Not
refle@@
bolelwago
dul@@
Fo@@
kwa@@
lee@@
tšhire@@
puts@@
ditekanyetšo
repor@@
boporofeta
rema@@
vice
Hu@@
afe
Da@@
Mareka
dihlare
cer@@
sacrifice
bodireding
sive
ze@@
resi@@
tell
Ameri@@
godly
L
cro@@
Baby@@
Joseph
sadi
Segerika
sk
phetha@@
ten
invol@@
AG@@
ganyenyane
fase
of@@
pray
gwe@@
sight
loy@@
remain
move
chap@@
hap@@
ched
ahlo@@
nece@@
gobogilego
Gilead
mithara
problem
potšišo
zing
kotsing
laola
kin@@
JE@@
Lehono
budu@@
May
Eupja
commen@@
based
sit@@
ssions
wh@@
kgo
Baisiraele
thulaganyo
care@@
Rather
emong
yeno
ikemišeditše
shing
Bon@@
bra@@
half
sheep
stand
ken
During
bop@@
edu@@
Samuele
ibe@@
member
list@@
mpe
Morena
once
Nakong
papa@@
Bu@@
shows
ith@@
loso
tšwelela
agre@@
kgotlelela
dinyakwa
phatlalatša
thwe’ng
full
ato
gatee
Ko@@
Bjalo
gape@@
etela
ens
Afrika
pers
poin@@
truly
lipi
bor@@
Di
Gore
large
mony
conclu@@
exerci@@
individuals
ir@@
pukung
shu@@
therefore
sisters
hwetše
anago
nak@@
wo@@
slave
apostles
bangedi
ctor
role
Sa
inten@@
mentioned
ditiragalo
meaning
mafelong
Matt
sing@@
fil@@
tered
Colo@@
Watch
material
daugh@@
lia
Bahe@@
bil@@
Their
lomo
prophecy
friend
mohlanka
interest
cations
vate
Mat
instru@@
Ex@@
neago
kgatlo
Mafelelong
olo
reason@@
there@@
Mohlomongwe
hli@@
standing
started
lenyalong
hemi@@
Egy@@
inspired
gaka
organization
second
Diabolo
BA
ater
authority
Maria
bofe
kaone@@
aneng
past
šô
Ger@@
molekane
senyi
mini@@
already
port
atta@@
ple@@
OR@@
gri@@
tume@@
country
dipho@@
kgahlego
êlê
gane
kgeth@@
d.
ola
pare@@
kept
evidence
axo
sehlo@@
qualities
48
46
lerat@@
spiritually
physical
fli@@
thibela
fenya
quen@@
babu@@
showed
Devil
mine
Ja@@
ould
Ni@@
hlago@@
die
kologong
vered
than@@
got
WA
leave
tern
Anke
aneo
dinku
kgaolo
tribu@@
etšego
palelwa
identi@@
asy
nyake
rather
Tsela
bitšwa
beru
promi@@
return
gongwe
Society
hun@@
Mat@@
thibe@@
kalafo
accept
crow@@
katlego
thopo
bago@@
hlokomolo@@
mangwalo
near
fihlelela
tiilego
Bakeng
destro@@
igh@@
sekolo
ud@@
longer
Morokami
stated
lehlakoreng
botega
information
vent
psalme
4-@@
anyone
Will
tšung
happiness
eledi
circumstances
According
xolo
diphošo
makatšago
dikgaetšedi
kgau@@
fele
bes
dru@@
lefe@@
obedi@@
written
understanding
aparo
phegelela
sten
Bro@@
preci@@
posi@@
rest
lived
ages
pejana
formed
matlakala
Puku
mobotse
Tower
won@@
1914
mpsha
mogwera
hlalosi@@
cour@@
lude
tšatši
rule
Q@@
lity
effe@@
mble
manyami
gato
strength
lebeledi
tial
chi@@
ekiša
heavens
kee@@
year@@
tutu@@
kgopo@@
oversee@@
An
diphetho
dulago
seki@@
kemišetšo
For@@
hlahloba
proved
ough
pioneer
psal@@
lost
tloditšwego
can@@
gain
sely
moporofeta
xi@@
phelo
baapostola
loso@@
lt
hol@@
paren@@
shall
ata@@
II
perhaps
swarwa
witness
bili@@
iting
Ver@@
Sehe@@
65
sister
omme
á
feel@@
Witness
bac@@
tiki
AK@@
mal
Yêna
mental
thekg@@
lying
On@@
proce@@
malapa
history
gele
justice
tlha
comfort
tšeela
lebanya
ipotšiša
alani
tswa
karolong
boletšwego
Roman
devo@@
Mary
makasine
motseng
provided
persecu@@
kahlolo
mino
tutuetšo
teache@@
raga@@
profe@@
play
fala
forever
prin@@
common
congregations
greater
Like
pres@@
hearts
mies
nyakegago
itsho@@
a’ng
mose@@
alone
us@@
serious
song
malebana
Ze@@
serv@@
working
Mmoledi
effort
feleletša
bran@@
pani@@
survi@@
reke
tharo
phedišo
inclu@@
ast
lear@@
beau@@
tswalan@@
Baru@@
sci@@
Ecclesiastes
lied
church
loyal
Egipita
mit
bany@@
local
tholika
elwa
cate
fic
nyal@@
kwe
sacrifi@@
mahlo
anything
action
Ser@@
bana@@
Deuteronomy
tur@@
continued
tshwanelo
Doiteronomio
ines
ealo@@
pped
Tra@@
within
Exodus
thong
held
meeting
relo
soci@@
monyenyane
gir@@
hlô@@
47
vision
matla@@
išišo
People
explained
holago
thutamahlale
kgaus@@
šele
ST@@
mohola
ongwa
True
gwalong
ath
ree
Noah
ton@@
Sep@@
dudi
till
promises
months
Tim
speci@@
gohle
BE@@
pakane
Pen@@
non@@
mego
neile
RE@@
Josefa
vor
hlalos@@
pontšho
kgotle@@
tirelong
bontšhitše
Messi@@
Batswadi
phelago
bošoro
spoke
lled
Catholic
botlalo
full-time
jud@@
creation
dist@@
house@@
gift
pola
tlala
Scriptu@@
clean
ditšhi@@
matlafatša
building
powerful
speaking
ite@@
shephe@@
moun@@
older
dišo
Instead
Gona
Thou@@
sekolong
countries
regarding
popu@@
rero
bje@@
Mesia
pages
compani@@
Ekisodo
hlompha
kwago
ants
ditlha@@
bobotse
dira’ng
abu@@
tem@@
mol@@
bokamoso
late
progre@@
named
gakaak@@
phethagala
spo@@
allow
mani@@
lling
set@@
maleme
šitšego
seswantšho
dea@@
AI@@
ahlodi
confidence
Gape
eness
YA
tšexo
opportunity
ditha@@
efforts
mate@@
gata
remember
gampe
moni@@
Mogolo
usu@@
agalo
mples
dikgo@@
increa@@
bogoši
bapti@@
sehlabelo
sugge@@
Russi@@
field
kgomarela
dira@@
B.C.E.
lengwalo
šiša
hat@@
nkabe
itself
Nu@@
ory
vil@@
eme@@
Gantši
porofeta
B.C.E
everything
llo@@
hilo@@
tou@@
doubt
preach
kakaretšo
deep
batša
advan@@
ava@@
Ngwanabo
English
kly
stitu@@
contribu@@
olose
Indeed
wonder@@
accomp@@
ability
exist@@
šwago
tokologo
atever
prospe@@
ag@@
origin@@
bolaya
Moya
relati@@
madira
seetša
standards
drin@@
events
tagi
Mmu@@
katanela
F
high@@
righ@@
effect
fihlela
uro@@
hlatse
hlabela
zeki@@
believers
cked
ania
heri@@
kala
baa@@
Pre@@
cru@@
government
Ku@@
Bakorinthe
dom@@
Hlat@@
bogo
well-@@
bitša
Ano@@
establi@@
blessing
pheto@@
judgment
gine
tl’o
theilwego
text
bless@@
batamela
anxi@@
dit@@
apply
hear
prayers
helps
tiragalo
moder@@
terri@@
hands
ila@@
sexual
whose
value
kgatišo
particu@@
v
U.S@@
sters
Ng@@
rence
glory
nyami@@
botee
neighbo@@
ELO
mpi@@
natural
boikokobetšo
55
privilege
gho@@
som
Life
Philippi@@
ph
further
follo@@
kgwebo
row
letlakala
ditions
mbo@@
Stu@@
lwe@@
tikologo
tseng
bong
willing
atic
experienced
vere@@
kereke
gover@@
sands
legong
Galatians
gatelela
continu@@
reje@@
fihle@@
une
SE
kapejana
ari@@
hwetšwa
tempele
Euro@@
wela
bahu
explains
Bajuda
Gagwe
Mantšu
Abo@@
achings
emo
êna
lelong
faith@@
blo@@
mple
kganyo@@
desi@@
ha
poro@@
–
oketše@@
oke@@
deed
ssa@@
fsi
dar@@
heal@@
wanabo
Lu@@
phaga@@
ache@@
tire@@
respe@@
vers
tak@@
ound
frien@@
ft
comfor@@
bot@@
pione@@
Tru@@
van@@
karo@@
Nak@@
phelong
individu@@
gaka@@
ffe@@
itsh@@
fal@@
organi@@
pea@@
M
tsene@@
ree@@
hlahlo@@
san@@
bene@@
natu@@
div@@
mbe@@
reka
resurre@@
tsebi@@
confi@@
wer
tlwaele@@
nee@@
lar@@
aching
apo@@
leletša
eno
ya@@
lao
who@@
šup@@
centu@@
ʹ@@
hlako@@
itshwa@@
V
perfe@@
hlalo@@
throu@@
expla@@
Jere@@
leban@@
Galati@@
cip@@
U
Do@@
Phi@@
cei@@
kgaetšedi
agan@@
rago
lish
langu@@
experien@@
é@@
gofa@@
speak@@
oma
Uni@@
whe@@
spi@@
bs
Christi@@
hurch
vol@@
ffi@@
šomo
bata@@
W
hlomp@@
bontšhi@@
mon
ori@@
pose
mbers
ready
kgah@@
nesses
wers
kgolong
ku
kara@@
autho@@
sha
iši@@
lekane
gobo@@
Ame@@
haps
kemi@@
parti@@
bere
rans@@
dišana
akane
ith
Tho@@
Ac@@
benefi@@
kgethe@@
bô@@
differen@@
spiri@@
tekan@@
accoun@@
á@@
male@@
mana
selves
dren
princip@@
quali@@
wageng
aro
Sin@@
chool
sai@@
thomong
B
dest@@
kgotso@@
·
phatlala@@
·@@
hy
import@@
your@@
hlela
kwaga@@
clu@@
situ@@
C
baruti@@
tšiša
ikemiše@@
maikwe@@
pers@@
kgomare@@
religi@@
doub@@
condu@@
nyake@@
monagan@@
hloko@@
stead
mean@@
physi@@
circu@@
reli@@
enyane
inf@@
gan
Mafe@@
peng
reat@@
bohlo@@
sira@@
velo@@
dumelel@@
jo
recei@@
uld
tings
●
possi@@
gni@@
zation
privi@@
wen@@
ho
kologo
K
rist@@
artic@@
tten
diffi@@
dence
ught
star@@
hlale
bapi
Gree@@
like@@
xwe
mothe@@
ugh@@
aka
ssion@@
lefa@@
oka@@
sus
lasting
cient
criptu@@
llen@@
boledi
feso
apost@@
hlanka
ude
lagan@@
ano@@
kelo
pha
human@@
ò
count@@
tiro
Is@@
chil@@
$
l-@@
Isra@@
Phili@@
ousness
Solo@@
juda
opportu@@
hus@@
Eng@@
knowled@@
yes
contro@@
koko@@
eli@@
letla@@
thabo
diffe@@
swantšho
avo@@
tlhoko@@
histor@@
nity
J
kholofe@@
kgat@@
udu
cont@@
ak
fello@@
karabelo
kes
tshwen@@
justi@@
bjo@@
P
í@@
spiritu@@
cou@@
madibogo
wish
vil
form@@
inted
Ò
inspi@@
val@@
gani@@
phege@@
Jehov@@
reco@@
etšedi
gedi
thane
kamo@@
tšho
bôn@@
jana
Jose@@
mare@@
Philip@@
sexu@@
leme
Jeho@@
thomo
lehlako@@
lit@@
ü@@
gge@@
ʹ
nyakwa
fri@@
with@@
⁠
mili@@
nagani@@
them@@
etše@@
mone@@
relation@@
gy@@
’o
Bat@@
nepa@@
questi@@
fur@@
folo@@
godimong
hal@@
Gene@@
spon@@
tshadi
attitu@@
bogo@@
sel
æ@@
titu@@
eld
Joh@@
istry
greg@@
formation
simi@@
ffor@@
standar@@
thin@@
cond
exer@@
him@@
circum@@
lengwa@@
Corin@@
Catholi@@
tshepe@@
logolo
kokobe@@
sma@@
ur
tekanyetšo
oro
Ephe@@
E.
ã@@
ó@@
pela@@
syste@@
roma
inu@@
dišano
itshwaro
tšu
f-@@
Sat@@
◆
&
Ó
whi@@
seko@@
denti@@
praye@@
sebe@@
fapan@@
ssage
hago
milione
cir@@
©
foša@@
thwe@@
Yo@@
è@@
neigh@@
Abra@@
phuthe@@
certain@@
omy
tshwan@@
cce@@
stances
dou@@
Rom@@
marri@@
sita
tego
specially
hen
Ec@@
termin@@
ung
wer@@
ö@@
atla@@
simp@@
inst
leny@@
congreg@@
hlelo
judg@@
wled@@
ragalo
ham
U.@@
kgati@@
fter
apostola
gerika
Jes@@
cult
yeng
led@@
botla@@
thuta@@
tšing
Psal@@
ach@@
kholo@@
Mmo@@
gom@@
tšišo
ady
lust@@
ita
xu@@
hat
Jeru@@
kgoni
kamoso
X
Pau@@
Abora@@
Gal@@
%
ú@@
kung
bet@@
mahlale
til
Gan@@
▫
ort@@
nka@@
sias@@
­@@
phatla@@
vid
q
vio@@
|
resu@@
Wit@@
thulagan@@
abo
Ada@@
gether
band
dus
experi@@
ysi@@
gipita
rought
yetšo
velation
power@@
ape
ween
ł@@
ous@@
surre@@
wis@@
kemiše@@
manya@@
katan@@
Consi@@
latedi
obo
tioned
ç@@
Mate@@
Lor@@
phara
ever@@
Bai@@
Dani@@
tower
°
ä@@
lafo
ʼ@@
siraele
full-@@
swer
_@@
ñ@@
q@@
vidu@@
tšhegofa@@
ility
Corinthi@@
Eki@@
stabli@@
upša
hama
atši
atis@@
Á@@
servan@@
j
thara
­
Soci@@
▶
B.@@
ngwe
heaven@@
>
ì
ë
Yor@@
í
Wat@@
sians
ḥ@@
Z
contri@@
verbs
Watch@@
ë@@
righte@@
folofolo
◯
ople
É@@
Ê@@
ʽ@@
hile
Ö@@
cording
tro
upja
happ@@
mafe@@
š
abolo
boikokobe@@
akaretšo
Chri@@
ה@@
ešita
ו@@
י@@
proble@@
ā@@
#
ה
â@@
®
Jak@@
=
rote
⇩
sale@@
portu@@
č@@
ð@@
tholi@@
○
▸
Ô@@
Eccle@@
Samu@@
✔
Creat@@
Jerusale@@
Timo@@
šita
ʼ
Ô
Beibe@@
Q
⁠@@
ï@@
↓
❏
romi@@
É
ã
effor@@
pita
◇
ž@@
Kuto@@
ø@@
↑
ş@@
←
Ê
ł
ū@@
−
Hebre@@
õ@@
C.@@
_
dibogo
ò@@
ń@@
ü
ī
ú
rom
”@@
‛
̆@@
Matthe@@
kriste
―
‘@@
À
å@@
Í@@
ś@@
΄
sine
Israeli@@
Moroka@@
ē@@
Ó@@
ý
Deu@@
ä
Ü@@
Á
Ž@@
Ã@@
Å@@
î@@
→
ą@@
ē
\
Ż@@
bodire@@
Jeremi@@
£
ẹ@@
❑
ū
❖
ş
folo
hadi
ę@@
æ
sacri@@
ö
+
ש@@
פ@@
È
ׁ
נ@@
à@@
fida
Ł@@
Ḥ@@
ż@@
ć
Æ@@
ý@@
ß
;@@
È@@
Ú@@
ī@@
■
☞
Ş@@
hono
ā
€
ό
ʺ
⇨
Exo@@
ō
₦
xt
)@@
Isai@@
ְ@@
¡
ő@@
:@@
orin@@
ο@@
⁄
™
ù
ν
ֹ
œ@@
י
Å
å
̗@@
ẹ
ṭ@@
Î@@
ě@@
ß@@
μ@@
Ō@@
ν@@
Jesa@@
ı@@
Ç@@
ά@@
δ@@
κ@@
α@@
λ@@
σ@@
γ@@
π@@
ᾶ@@
̧@@
ό@@
›
orinthe
⁄@@
ź
ė@@
‚
ś
◊
ṣ@@
υ
ọ
Ọ@@
Ẹ@@
Â@@
Ṭ@@
̇@@
▴
ć@@
ǒ
ḍ@@
ι@@
ύ@@
Ø@@
ç
ă
â
ń
Ω
Ρ@@
ɔ@@
Υ@@
Ε@@
▾
☒
ì@@
ʽ
ρ@@
Κ@@
ς
ï
û
ֹ@@
ל@@
ק@@
ḥ
û@@
¿
@
ř@@
Í
ů@@
ă@@
ָ@@
ד
▲
̀@@
iteronomio
ě
]@@
◌
kots@@
iteronomi@@
teronomy
̱@@
̆
ể@@
teron@@
hlomongwe
