<unk>
<pad>
<s>
</s>
,
.
the
:
to
of
“
”
a
and
kuti
in
?
ku@@
s
)
(
’
that
—
mu@@
ed
uye
is
ne@@
t@@
ing
pa@@
a@@
y@@
M@@
ar@@
for
s@@
m@@
we
;
1
i
va@@
f@@
e@@
r@@
p@@
re@@
in@@
aka@@
be
es
are
Jehovah
on
was
o@@
God
S@@
i@@
with
his
as
I
ch@@
at@@
u@@
it
dz@@
an@@
as@@
not
or@@
2
w@@
d@@
v@@
b@@
wa
e
The
you
A@@
h@@
ur@@
n@@
g@@
kana
it@@
zv@@
P@@
E@@
or
er
is@@
he
er@@
o
T@@
y
H@@
c@@
have
t
l@@
k@@
R@@
on@@
3
iri
will
ir@@
vanhu
se@@
un@@
ita
by
5
an
4
K@@
us
I@@
Jehovha
ha@@
N@@
al@@
am@@
V@@
al
no@@
ye@@
es@@
from
we@@
en@@
their
Mwari
-@@
ano@@
B@@
one
at
im@@
!
D@@
-
nd@@
they
ap@@
6
ak@@
were
ti@@
Jesus
kut@@
our
z@@
ro@@
who
C@@
va
all
ma@@
ers
ad@@
can
this
wa@@
Bible
isa
‘
chi@@
ana
W@@
Jesu
G@@
ira
ari
7
asi
ab@@
vaka@@
do
st@@
na@@
da
8
9
irwa
ino@@
L@@
what
kwa@@
akanga
10
ra@@
kur@@
munhu
par@@
noku@@
us@@
ai@@
ac@@
15
had
12
ation
kw@@
O@@
yo@@
ate
ts
ang@@
U@@
ine
end@@
11
ag@@
era
zvino@@
ya@@
your
ly
A
What
ted
zva@@
ing@@
ic@@
idz@@
el@@
In
vano@@
zvinhu
them
ik@@
F@@
sei
iro
here
people
13
kwe@@
om@@
yaka@@
os@@
14
zvi@@
op@@
ya
has
kuva
Bhaibheri
ona
ev@@
th@@
em@@
tr@@
him
ot@@
il@@
amb@@
ika
nem@@
u
de@@
j@@
ve
my
about
cha@@
ent
kuita
av@@
ora
when
con@@
ep@@
17
would
wo
Ku@@
ach@@
et@@
zvikuru
16
sh@@
ose
pe@@
and@@
m
ri@@
id@@
dis@@
ou@@
ol@@
may
for@@
but
Ch@@
imwe
ara
edza
1@@
idza
ig@@
adz@@
uno@@
kus@@
ano
iswa
time
nguva
ava
ated
um@@
hw@@
ati@@
ire
Mu@@
di@@
J@@
ent@@
out
19
did
kun@@
basa
van@@
life
mumwe
so
20
fanira
eng@@
18
akas@@
k
How
ec@@
[
]
Asi
ho@@
l
more
kuno@@
so@@
b
amba
wan@@
n
en
Zv@@
sa@@
zvaka@@
ut@@
akat@@
kuny@@
those
ndi@@
ity
ve@@
some
me
mun@@
Va@@
bva
ence
th
ong@@
res@@
He
isi
ment
ina
ung@@
Y@@
able
ek@@
mum@@
her
also
le@@
rino@@
per@@
ia
It
ai
qu@@
been
ance
vat@@
ane
d
wo@@
anga
wana
vamwe
akar@@
ed@@
such
nezv@@
be@@
oku@@
var@@
many
akanaka
kup@@
24
Kristu
no
imba
ting
le
ex@@
vari
ati
yo
ako
chir@@
ziva
19@@
zvin@@
21
iv@@
pro@@
h
up
ary
man
ani
tion
there
pl@@
22
achi@@
chete
kuna
az@@
wake
its
chit@@
mut@@
vas@@
ts@@
other
how
pamusoro
ip@@
Witnesses
oro
ere
yoku@@
ar
mashoko
ok@@
ter@@
chokwadi
Kana
ter
vake
che@@
ib@@
up@@
har@@
nokuda
mus@@
mur@@
ies
way
akati
me@@
itwa
enyu
good
aiva
ru@@
hand@@
si@@
than
he@@
uka
awo
gr@@
enyika
li@@
if
work
We
day
enda
ind@@
umb@@
com@@
ero
help
pasi
Paul
itika
ul@@
pre@@
world
dh@@
any@@
ings
rw@@
said
/
vana
cl@@
should
chino@@
zvo@@
even
But
ely
eri
po@@
mudzimu
chis@@
ga
cho@@
things
zo@@
5@@
mat@@
waka@@
ations
avo
Pauro
pres@@
war@@
dzino@@
se
inga@@
ous
Z@@
John
ite
erwa
Christian
does
lo@@
est
kudz@@
Zvapupu
these
into
love
ei
aro
iwa
ish@@
ura
iko
ise
su@@
zuva
ure
Nd@@
udza
pa
man@@
ful
This
go@@
which
funga
te@@
onga
make
zi
23
years
Ak@@
nokuti
muna
uri
When
zviri
wor@@
apo
could
imb@@
to@@
They
ally
ver@@
sp@@
ama
uk@@
ning
6@@
children
nor@@
ion
ake
ng@@
age
she
co@@
ness
vachi@@
kwaka@@
mo@@
mis@@
ant
ud@@
Christ
angu
iye
zvaJehovha
2@@
end
ic
upenyu
wi
kutanga
Christians
nh@@
gona
earth
raka@@
p
chinhu
zvose
idzi
str@@
vak@@
Pa@@
gara
ay@@
mar@@
vakanga
Umambo
iti
ying
ce
pane
akore
For
sur@@
only
chin@@
oun@@
chaka@@
nam@@
ds
ch
because
iyi
over
dzaka@@
handisa
ipa
iso
et
if@@
des@@
aura
zvis@@
others
kura
then
ats@@
says
kutaura
yacho
first
If
adza
ha
ents
oni
25
Kingdom
ndoku@@
rin@@
Matthew
family
28
vai@@
kunyange
vose
batsira
As
fanana
come
ities
being
sion
pam@@
ef@@
hama
dze@@
Mar@@
vane
S
iya
zvino
Why
vo@@
like
yake
ungano
Kunyange
daro
evera
ect
must
ty
ive
made
car@@
zvakanaka
af@@
rem@@
mas@@
eka
iz@@
idzo
E
ear@@
need
uro
huri
zve@@
mwoyo
munyika
kutenda
vakawanda
rec@@
erera
spirit
ambo
od
faith
ah
irira
ipi
kuru
jo@@
ge
izvi
woku@@
amwe
You
ob@@
ess@@
example
Zvisinei
vanot@@
oratidza
chai@@
ich@@
*
vo
hwa@@
dzose
vis@@
just
ever
atu
g
ill@@
ish
kune
od@@
tions
Ne@@
used
take
wacho
ene
7@@
simba
Th@@
r
king
aya
chimwe
edz@@
udzi
see
now
nes@@
akap@@
pfungwa
kwazvo
most
own
30
Saka
orwa
iyo
ones
naMwari
after
men
oka
chiri
ons
zvit@@
ther@@
chaizvo
spiritual
know
hum@@
w
udz@@
emb@@
ta@@
vap@@
And
att@@
kwem@@
kuf@@
enge
ain@@
yose
O
arira
mug@@
ony@@
idzwa
chik@@
very
dec@@
bat@@
oma
akaita
use
00
reg@@
kud@@
congregation
zvo
true
pan@@
pakati
kunamata
ating
nde@@
vaKristu
new
akany@@
Pisarema
uyo
vavo
zvazvo
kum@@
nenzira
words
Psalm
nyika
inos@@
before
anda
become
kosha
rwa@@
raMwari
cre@@
x
murume
rake
ice
ris@@
ther
idzira
parents
acho
x@@
ered
tis@@
nezve@@
gu@@
any
br@@
hur@@
nzira
tino@@
kuk@@
dza@@
angan@@
give
por@@
1-@@
26
kuts@@
where
4@@
igh@@
do@@
akak@@
dzimwe
ikana
ave
paku@@
death
esa
est@@
hwe@@
akawanda
hu@@
pamwe
well
29
enga
8@@
Peter
An@@
thing
zita
zvir@@
bedzi
kupfuura
pas@@
kuva@@
el
ors
Ano@@
Re@@
27
ember
Se@@
pedzisira
ci@@
too
ned
AN@@
heart
9@@
comm@@
une
over@@
another
mon@@
vakat@@
bo@@
zvimwe
bl@@
sed
through
kumb@@
New
chiKristu
kwo@@
Shoko
odz@@
two
choku@@
uts@@
much
yokuti
iva
tichi@@
kush@@
nomu@@
ike
ess
off@@
am
ement
angano
arudza
Uye
ore
ser@@
ws
pri@@
omb@@
No@@
handa
ye
fe@@
ory
ied
atino@@
Petro
great
hi@@
ova
ima
cr@@
ast
kudaro
ality
onz@@
pfuura
□
uva
vabereki
aizo@@
duku
han@@
yedu
ond@@
ori
ema
33
That
mit@@
times
person
vach@@
ans
today
cho
ay
name
inter@@
iy@@
get
pur@@
pr@@
akan@@
ide
ndaka@@
kung@@
land
zvakawanda
ves
ue
ariro
199@@
kwake
c
3@@
mukuru
rwe@@
pedyo
angariro
uta
zvik@@
•
truth
ually
naJehovha
31
mag@@
les
uya
makore
map@@
found
ner@@
enguva
might
ited
fara
yem@@
vang@@
ini
urwa
book
iyoyo
kubva
old
though
human
wedzera
One
So
omu@@
ino
da@@
each
woyo
dza
ently
muts@@
mune
aka
und@@
led
oupenyu
say
Chii
ug@@
part
wose
kuda
nemhaka
fin@@
uku
pf@@
Ndi@@
omo
akatanga
tly
ily
ry
eny@@
prom@@
Kut@@
young
ks
bhuku
tive
vh@@
Corinthians
mudz@@
Is@@
muk@@
za
study
out@@
akasiyana
St@@
panguva
chokuti
Ma@@
zvoku@@
edzo
acc@@
zano
NW
eg@@
feel
fac@@
Kuti
zvimbo
read
zvichi@@
anya
vakar@@
compl@@
uch@@
find
kuramba
against
Baba
kurudzira
ichi@@
gare
atso@@
place
vakuru
Word
ection
hi
apostle
vaya
act
less
ial
mak@@
akarurama
isina
huno@@
hondo
Luke
Vanhu
To
dic@@
tain@@
her@@
po
atidza
Israel
udo
Ruka
Nei
ates
gar@@
brothers
wis@@
zvakadaro
David
naye
Isaya
ard
Satani
red
sec@@
fu@@
aff@@
Isaiah
ach
fully
als
aurwa
ths
himself
yavo
Do
fung@@
Zvirevo
However
wedu
fur@@
dai
32
pos@@
Ha@@
kupfurikidza
ions
Proverbs
Acts
0@@
word
oko
ened
go
home
Vamwe
rudo
mir@@
au@@
pachena
keep
right
zvip@@
adzwa
Ar@@
rimwe
Tino@@
kuona
vakas@@
Al@@
ist
same
.@@
She
son
eni
wangu
ipo
In@@
Satan
ked
never
bata
ious
often
asina
hau
Somuenzaniso
gl@@
mb@@
uny@@
Magwaro
ombo
angarira
gre@@
amu
akataura
ding
kuri
upon
tim@@
sub@@
yakanga
means
ase
pashure
Some
atur@@
Dz@@
irana
ition
nav@@
Uno@@
musoro
ual
nzvimbo
wrote
gamuchira
every
kunge
ight
izvo
Jud@@
ad
trib@@
tic
nomumwe
dzo@@
fadza
At
iny@@
ph@@
boka
tic@@
are@@
inc@@
There
course
hu
fa
ens
wira
nz@@
ist@@
asing@@
why
mi@@
came
atidz@@
akasimba
tur@@
iti@@
dem@@
Johani
vasina
sho@@
34
ical
famba
del@@
kudzidza
Izvi
ished
yaya
vaiva
hwo@@
35
ven@@
all@@
urira
Kus@@
put
taura
became
40
Mabasa
iki
hope
wn
Iye
kwete
under
spe@@
you@@
serve
let
ndo@@
Timothy
uru
Mateu
set
Par@@
days
pana
mh@@
kusvikira
down
anot@@
sin@@
among
vadzidzi
zvai@@
ny@@
the@@
nou@@
IN@@
muenzaniso
ashoko
appro@@
000
chenget@@
After
called
kupar@@
Mateo
dzidza
inor@@
view
racho
show
bvuma
de
ass@@
pat@@
bur@@
anoti
vasing@@
zvokudya
denga
enzi
edu
zvokuti
publ@@
low@@
poku@@
Dhavhidhi
aris@@
ikwa
ume
dzi
gore
ain
faithful
uchi@@
fo@@
Un@@
back
imbisa
kuziva
worship
much@@
Israeri
eerera
N
ord@@
hap@@
learn
fir@@
id
Chokwadi
nayo
wife
hear@@
ore@@
kuch@@
akakwana
Father
uko
erek@@
nevanhu
min@@
betsera
riri
Mus@@
century
dir@@
Revelation
Is
mutsa
kure@@
want
37
ongwa
ound@@
news
vika
oreva
vi
United
year
ait@@
zviv@@
Zvakazarurwa
given
inda
vapo
during
Mumwe
sig@@
important
anenge
ected
hom@@
onzi
hwake
muviri
still
la@@
mari
shand@@
bvira
arama
away
ized
conf@@
bvum@@
kwoku@@
kushandisa
izvozvo
Con@@
live
munguva
mazuva
pol@@
muchi@@
adzi
nhasi
akanyora
told
ungamirira
zivo
navo
bv@@
wako
wise
ba
mup@@
ga@@
anh@@
wem@@
mutemo
later
tain
rel@@
om
Johane
doing
ungwa
eas@@
kwavo
anos@@
ref@@
kazhinji
mudzimai
knowledge
muf@@
yi
Com@@
As@@
Romans
appe@@
ets@@
ans@@
taka@@
enz@@
ses
fananidzo
hanya
mind
began
zwa
expres@@
inenge
Sa@@
ais@@
aita
zvid@@
pano
gadz@@
50
ead
inge
hon@@
while
By
ars
haana
gra@@
themselves
kuz@@
add@@
kare
bless@@
holy
vaka
nyore
edzwa
uyu
apa
waMwari
ran@@
Judha
Pane
ezvinhu
zvem@@
bh@@
inot@@
yai@@
mufaro
zivisa
peace
Naizvozvo
amene
char@@
long
anc@@
Kup@@
engetera
Kur@@
preaching
hor@@
fan@@
pris@@
nema@@
child
KU@@
shoko
ministry
zhinji
ular
kwedu
shamwari
pedza
Noku@@
ivirira
Lo@@
ough
service
gave
power
tice
without
wavo
living
dzidz@@
bel@@
Genesis
D
sy@@
Ex@@
ca@@
loy@@
ised
ising@@
imi
diwa
kusvika
however
bu@@
eswa
cor@@
musha
chose
zana
chap@@
vangu
uram@@
ke@@
iver@@
vi@@
With
ian
anofanira
ound
vanofanira
dzoku@@
ians
idzirwa
C.E.
siyana
zve
int@@
kurumidza
mberi
teach@@
On
kumbira
hwaMwari
wara
Pro@@
hamwari
anor@@
T
gir@@
VaRoma
order
kunzwisisa
nyaya
house
anogona
handiswa
tsika
tinofanira
kuwana
budirira
Ndaka@@
unhu
fl@@
ti
ust
Scriptures
ell@@
nei
father
three
unung@@
14@@
muupenyu
AR@@
ast@@
abv@@
ep
ef
Zvino@@
Bh@@
dziri
20@@
wal@@
chii
muBhaibheri
Then
huru
mwana
R
wat@@
tariro
tik@@
mukadzi
Jo@@
ill
ango@@
angana
varume
ges
ham@@
nezva@@
sol@@
fact
sing
vanos@@
emba
chake
ways
happ@@
kurarama
zvakaipa
bvunza
chengeta
sal@@
low
both
self
religious
ek
zvisina
mukati
vaIsraeri
Pas@@
chava
His
ize
mor@@
ship
Many
disciples
nevamwe
chip@@
King
atidzwa
ments
streng@@
cont@@
zvat@@
ative
sure
Be@@
10@@
akanyorwa
making
guru
homa
vene
atidzira
States
Here
0
vimbika
kupa
help@@
ages
inst@@
enh@@
sign@@
,@@
ito
azve
pasina
azuva
ER@@
faniri
reas@@
ests
umira
ening
ble
ivo
ambira
ough@@
unz@@
,000
ously
De@@
tiv@@
Mambo
Yet
nokut@@
Mes@@
den
akadaro
anoda
muku@@
My
Mosesi
Mun@@
succ@@
ndiye
uma
Yes
Ad@@
every@@
kund@@
loc@@
always
vanenge
sel@@
roku@@
piwa
mother
ets
ater
indura
nesimba
upi
beg@@
zvar@@
Mwanakomana
ture
emp@@
zvakanga
took
ome
ward
Jerusalem
ambura
city
So@@
fa@@
verenga
having
ys
eff@@
umo
Hebrews
vachit@@
uraya
ences
asked
te
chang@@
wh@@
mhuri
jeka
ikan@@
look
oup@@
sup@@
asa
Zva@@
between
wadz@@
ters
Pashure
Our
He@@
vanor@@
nechi@@
ete
ambe
ata
James
fort
emberi
form@@
mer@@
ext@@
iwo
whom
chikonzero
yeuka
Ndino@@
explain@@
something
unga
dzake
World
zving@@
appreci@@
mabasa
ute
kwenguva
ivisa
ash@@
really
Fr@@
wedzi
ver
reason
Jakobho
runo@@
atidzo
itiro
provid@@
kwanisa
mush@@
hwo
chikoro
zvatino@@
far@@
tiri
muzana
um
batanidza
woman
bre@@
marriage
concer@@
vic@@
ved
taurwa
Tr@@
humans
ital
Sezvo
lead@@
il
felt
chena
rist@@
angar@@
adzo
zvakaita
sezvo
vimb@@
Munhu
hand
consid@@
servants
mamwe
oga
kubatsira
of@@
possible
air@@
real@@
Job
wanisa
little
rinonzi
tal@@
chenjera
tor@@
VaHebheru
personal
arisira
ack
Apo
endi
ez@@
ended
mankind
together
akats@@
Africa
inv@@
chinja
Col@@
zvib@@
amai
zivikanwa
gener@@
ands
ndino@@
Roma
pamberi
isiro
list@@
raJehovha
fuura
wond@@
ll
dzavo
thr@@
hapana
dzakawanda
bats@@
198@@
uteronom@@
ff@@
kururama
AI@@
anoita
ingly
kunzwa
osh@@
ature
Son
kurukura
form
Even
mambo
vaMwari
ava@@
dra@@
aida
encourag@@
sigira
fellow
stud@@
joy
inei
rose
chi
ong
ution
ire@@
itsva
echi@@
vimba
stand@@
number
Jerusarema
problems
try
think
few
Gre@@
dikanwa
toward
evedzera
ible
food
muungano
result
amira
ost
fi@@
ind
milli@@
Let
believ@@
achit@@
All
consider
body
gadzir@@
kuro@@
enget@@
Mup@@
gover@@
future
ner
yaMwari
activ@@
vanoda
These
hurumende
face
point
hanzvadzi
36
kuenda
vaviri
kuratidza
women
onzwa
anisa
yor@@
du@@
itiko
Per@@
di
Moses
ism
zvinetso
ese
vanop@@
husband
chipi
lives
bring
ple
ikoku
vechi@@
onal
isira
known
vereng@@
jus@@
wr@@
Y
religion
ichi
care
39
clo@@
tem@@
prot@@
osha
Mur@@
yam@@
itira
Muna
ility
No
dev@@
enti@@
unogona
exp@@
rutivi
anganisira
zvine
since
anzvi
pap@@
ching@@
Eng@@
ects
guma
exam@@
akaratidza
pione@@
again
zvake
rokuti
sin
giving
rus@@
kunze
experience
C.E
neva@@
aiz@@
kind
waro
Ng@@
exc@@
CH@@
asati
’@@
ask
akakodzera
asha
sor@@
hold
blood
buda
ikoko
chinangwa
prayer
nations
achiti
perfect
accep@@
kushanda
happy
under@@
aking
ipapo
vura
els
ambo@@
From
cul@@
ame
st
si
ere@@
muri
died
zova
rep@@
thy
ziv@@
ongo@@
different
45
elders
kwakanga
yed
righteous
off
last
chechi
En@@
wisisa
change
hamisa
water
VaKorinte
H
tin@@
rul@@
ply
Muk@@
lar@@
done
pray@@
emek@@
meetings
inoti
chitendero
udzidziso
ropa
38
io
kushand@@
naJesu
isvonaka
purpose
arudzi
ongorora
continu@@
kurukur@@
fe
akaramba
ever@@
left
ambudziko
soci@@
AK@@
yangu
needed
heaven
ering
yaiva
Watchtower
zvozvo
sia
zvidz@@
better
ns
ongi
Jobho
learned
kumu@@
gum@@
Zvaka@@
went
ists
col@@
ten
voku@@
kuteerera
f
bas@@
kwam@@
ron@@
5-@@
nechokwadi
kuchi@@
ange
munzvimbo
sha@@
ege
yechiKristu
ication
rudzi
sto@@
val@@
oti
vako
yakawanda
zvinoita
hamu
zvinos@@
gan@@
arly
hwaka@@
ugare
umi
cer@@
line
IR@@
Ab@@
counsel
bro@@
Mashoko
mutsvene
muka
pose
tre@@
nor
batanidzwa
dzin@@
irozi
loving
ON@@
B.@@
ship@@
ving
wai
let@@
ikira
fear
muno@@
refu
wisdom
Lord
fine
udzwa
wing
ufu
decis@@
ofita
vedu
discus@@
vave
enzan@@
practic@@
eful
cannot
ety
DZ@@
homan@@
chaizvoizvo
qual@@
Your
ged
Rus@@
questions
U
chokuita
irawo
plac@@
describ@@
induro
present
18@@
awa
kufunga
Greek
okor@@
angwa
coun@@
early
kwaari
kuitira
zvak@@
ling
dzedu
Thus
ace
teaching
school
heavenly
vava
anangura
using
Mum@@
ately
sc@@
hamo
wisa
vanogona
olog@@
akandi@@
AT@@
vir@@
amata
less@@
3-@@
V
ell
pra@@
includ@@
una
who@@
system
wicked
mil@@
Abra@@
maviri
ikirwa
associ@@
ada
ines
EN@@
heav@@
ungirira
wirirana
Nh@@
someone
zvam@@
arudzo
kunoita
sezva@@
kuparidza
matter
200@@
zvavo
viol@@
ndichi@@
farira
spec@@
iness
Genesi
ondo
chiny@@
fre@@
hem@@
wawo
fulfill@@
Pe@@
occ@@
sl@@
ign
friends
sive
aigona
rechi@@
yako
war
wed@@
eso
nani
hard
row
Mut@@
helped
kurudz@@
ko
vazhinji
anointed
ous@@
rinoti
ree
vamba
utsa
experi@@
▪
language
Giriki
ungamiriri
hwedu
aradza
following
dzidzisa
Israelites
pfuma
going
apostora
pare
share
law
tinogona
article
bad
self-@@
doc@@
relationship
Ezek@@
brother
yakati
44
baba
ident
believe
azi
icha@@
bir@@
thers
Nokudaro
govera
certain
ending
Ung@@
pleas@@
continue
zvand@@
ented
kudenga
ined
rugare
batira
ge@@
hwa
zvininipisa
Vaka@@
sk@@
ither
ild
thought
kure
ick@@
spok@@
yourself
oneka
hwoku@@
ancient
okera
best
kupinda
ato
akatendeka
Christ@@
aifanira
isisa
compan@@
ne
members
situation
mubasa
moved
chacho
Because
vie@@
Who
cond@@
requir@@
light
pinda
baptized
omborero
ould
tif@@
Jews
IS@@
Bro@@
Jos@@
hin@@
kwakaita
saying
mutauro
kunogona
sem@@
indic@@
berekwa
amiriro
Society
2-@@
money
imiro
icho
vait@@
ld
pain
nen@@
head
thus
anz@@
until
enzaniso
panzvimbo
muapostora
dia
yet
irwo
position
run@@
OR@@
ild@@
UN@@
message
support
dly
serving
vag@@
kuzvi@@
yechi@@
im
pem@@
VaKorinde
unity
cent
resp@@
eyes
close
enc@@
Mark
vakadzi
zor@@
zvipira
will@@
net@@
ZV@@
kutonga
dzidziso
mvura
maererano
batana
ject
vanoita
nation
60
pand@@
ekare
mean
anotaura
wero
increas@@
vimbo
Sh@@
ombor@@
case
Timoti
Since
guta
far
dya
ably
transl@@
around
wechi@@
ce@@
ches
apfuura
wit@@
enjoy
writ@@
efore
iah
orera
mwari
Abraham
especially
gif@@
speak
inde@@
profita
commun@@
der
Ephesians
imo
ndizvo
vacha@@
main@@
kusa@@
redu
haka
irano
emo@@
dies
achir@@
ango
eredza
mabhuku
produc@@
batsirwa
tir@@
high@@
ested
42
Kw@@
yisa
vany@@
rup@@
kuitwa
70
anger
cause
hab@@
look@@
eld@@
respect
along
wers
pic@@
ir
brought
ut
ariri
ayo
ukama
ondedzera
oned
govern@@
reat@@
turned
cap@@
vara
yeBhaibheri
ide@@
Daniel
sense
anganisa
next
eti
free
answer
mbiri
ites
arr@@
Brit@@
feelings
vaJehovha
York
ramakore
understand
served
attention
kwai@@
born
mubvunzo
ak
ms
iring@@
panyika
chinj@@
Ipapo
akare@@
Germany
Vano@@
talk
Rev@@
dead
develop@@
Europe
Chin@@
kwose
ku
received
engo
iroro
tion@@
Van@@
desire
zvechokwadi
ements
VaEfeso
regar@@
AM@@
hiz@@
opa
lead
influ@@
lands
ond
kwaMwari
uc@@
irai
wane
trav@@
aring
echokwadi
chall@@
ental
lim@@
tor
ourselves
eless
wanda
muma@@
zos@@
taken
aur@@
chat@@
avoid
kurumbira
reve@@
rine
pati@@
akava
Mutemo
bayiro
ndakanga
ram@@
zvirokwazvo
akakomba
needs
illustr@@
partic@@
zvikurusa
hat@@
hwavo
6-@@
soon
kungo@@
misangano
ender@@
akapa
ress
zvokwadi
trans@@
43
kuit@@
small
ingaira
Although
fanan@@
beli@@
ple@@
isters
yakat@@
saw
contr@@
row@@
privil@@
states
dzem@@
iting
Of
ants
difficult
reading
nomwoyo
muduku
munzira
ope
well@@
vaJudha
iwe
sue
respon@@
health
yakanaka
z
ived
nezvoku@@
iku
em
Those
chipiri
vacho
taking
akasvika
havana
coming
leg@@
pros@@
itions
Hapana
learly
enced
Read
iwayo
gadzirira
ununguko
person@@
consci@@
Hungu
ting@@
7-@@
iye@@
prove
Adam
oss
eness
offer@@
real
likely
rakanga
Nenzira
discip@@
ached
its@@
poss@@
imu
emo
agona
side
aiita
rufu
our@@
night
train@@
sions
appoin@@
put@@
including
ze@@
saka
wanzo@@
rokutanga
iving
question
ican
Gar@@
kwat@@
mission@@
wer@@
apar@@
Law
iriro
Nguva
Nyika
vaduku
fru@@
high
ern@@
orig@@
earth@@
adhiso
cou@@
isati
account
married
Je@@
abh@@
liter@@
zvikurukuru
ems
chet@@
wrong
dzine
ples
zadz@@
ls
chem@@
kunda
mura@@
kwana
Gal@@
Such
etting
amiriyoni
imbo@@
Hama
Zvino
false
with@@
kukuru
gumi
Are
atidzika
nhau
fungo
conduct
While
seen
turn
control
pli@@
claim@@
ularly
Can
hus@@
arudz@@
suffering
wanted
mwanakomana
Creator
dedic@@
temple
wand@@
ongo
endero
abl@@
imambo
liv@@
fungiro
Today
Me@@
trust
advan@@
adise
ambudz@@
special
itical
Musiki
zvakaitika
sent
wedz@@
follow
Am@@
nokukurumidza
entif@@
ann@@
vais@@
upu
shor@@
Hebheru
Tru@@
anok@@
bus@@
hanu
cy@@
ards
famil@@
obedi@@
HO@@
kurira
opport@@
sva
budiswa
benefit
ring
haraunda
kugara
sokuti
makes
vakafa
41
Nokuti
ins
Uyezve
K
wide
achis@@
moral
Verenga
enjo@@
isham@@
kudza
national
zvinokosha
conven@@
val
sing@@
magaz@@
ost@@
eld
whole
kuchinja
hosva
knew
Chir@@
Timotio
kwand@@
instruc@@
pfupi
tern
eji
thous@@
principles
thinking
zot@@
receive
nothing
umwe
Wor@@
Ikoku
benef@@
simply
anim@@
taught
valu@@
ick
pasinei
courage
Pan@@
ld@@
circum@@
oondo
involved
attitude
ndiri
kufamba
strong
responsib@@
tine
vem@@
ra
kindness
provide
bhabhatidzwa
kutsvaka
remakore
ende
build@@
anwa
resul@@
chivi
erg@@
star@@
bvisa
group
marudzi
righteousness
nenguva
iled
ulation
fav@@
Sim@@
emera
Babyl@@
educ@@
Jerem@@
warira
Bib@@
Imwe
Le@@
divine
ibatsira
ayira
Muapostora
ipp@@
nazvo
vand@@
Fir@@
minis@@
Ino@@
Does
maj@@
THE
Dhanieri
my@@
Now
doub@@
four
wisana
works
cal@@
equ@@
entr@@
peri@@
judg@@
aberek@@
mweya
table
‘@@
rai@@
prophet
oshesa
zvicha@@
zvinor@@
kunaka
ises
ided
acha@@
fundisi
world@@
dar@@
posed
enem@@
clos@@
vomu@@
asikana
U.@@
great@@
gen@@
sai@@
crip@@
whether
occas@@
Not
chero
Joshua
Egyp@@
betsero
akanzwa
nokusingaperi
vanz@@
heard
ambiro
Jap@@
Or@@
Li@@
Ver@@
Be
akanak@@
unofanira
illi@@
zvinogona
Jewish
Kutaura
zira
chen@@
ign@@
necess@@
Philipp@@
enhema
act@@
followers
sons
exerc@@
onyanya
ass
kingdom
vadz@@
according
ly@@
problem
kudzidzisa
repor@@
page
ability
bha@@
idzisa
wewo
wed
Ona
Can@@
Kun@@
Hebrew
muKristu
matters
umiri
ota
rap@@
soul
work@@
handi
Ho@@
Chi@@
certainly
aram@@
chakanga
expec@@
truc@@
batwa
kutambudz@@
hava@@
ery
Bhabhironi
ich
ives
ok
invol@@
ta
Watch
den@@
satis@@
Jeremiah
bi@@
195@@
kug@@
rwo@@
Panguva
once
pakutanga
arisana
hun@@
ices
abasa
recogn@@
Up@@
half
mugumo
amat@@
seka
Ru@@
ayiro
akomana
action
distr@@
ics
similar
ote
svaka
II
itate
zara
Consider
musi
ties
sis@@
comes
ES@@
rwoku@@
gives
dr@@
zvedu
paradz@@
ath
Solomon
ongor@@
everlasting
Zvi@@
uses
On@@
peji
pes@@
unza
obe@@
yp@@
engetero
nezuva
Inter@@
large
Na@@
neZvapupu
nezvinhu
ucha@@
congreg@@
ends
stand
rwaka@@
budisa
refl@@
becom@@
move
pet@@
munyori
inh@@
Inst@@
kwou@@
material
sen@@
Zvinhu
vice
yakazara
vakatendeka
pop@@
mba
ukira
promise
viny@@
gadziriro
determin@@
aziv@@
ka
WA
sacrifice
pach@@
masimba
bvumira
According
onzero
fungidzira
zvinot@@
tsanangura
vol@@
asikirwa
vhiki
kuma@@
During
kutarisira
tsitsi
vam@@
organization
vashumiri
atonger@@
don
zvakadini
pafadzo
full
dzeBhaibheri
vana@@
country
magazini
L
amir@@
zivi
teach
fuurira
log@@
dom@@
ces
based
Bo@@
Kud@@
gura
nokus@@
Dhe@@
resurrection
UR@@
yaJehovha
Tower
hol@@
apostles
ber@@
inj@@
akaona
inogona
Soromoni
sever@@
zvishoma
Tim@@
abhuku
May
dzi@@
therefore
God@@
individuals
isika
struc@@
crow@@
shows
IT@@
interest
ush@@
ri
tho@@
fles@@
command@@
wanikwa
Ec@@
ingi
ale
Samuel
dambudziko
heal@@
Rather
physical
wakanga
stu@@
Gen@@
inza
refer@@
evidence
okuti
ago
mig@@
pray
win@@
vation
remain
ungamir@@
ically
rit@@
remain@@
zvakat@@
nezvem@@
tell@@
zvav@@
wechokwadi
dini
drin@@
onesa
wi@@
sex@@
ouya
anonzi
head@@
munyengetero
wagwa
ove
vakaita
gamuch@@
requ@@
prof@@
uchenjeri
urs
onero
ende@@
See
onekwa
sav@@
fungisisa
zvakadai
daugh@@
kuru@@
edzi
reli@@
expl@@
akadz@@
Cha@@
zvinodiwa
Tinofanira
mentioned
neigh@@
already
uted
humira
1914
hiy@@
ful@@
history
etimes
det@@
An
Mak@@
super@@
neBhaibheri
Neiko
Chik@@
Inde@@
authority
mab@@
nga@@
tom@@
cas@@
started
ov@@
hos@@
Their
yakadaro
full@@
etsika
forts
iver
yakarurama
esi@@
Ser@@
chikuru
gg@@
iana
Indi@@
past
clear
vengi
America
pakuvamba
atong@@
loved
prophecy
eer@@
truly
pite
waJehovha
hanyira
poin@@
kuwedzera
sheep
andi@@
pfuurira
near
irei
anodaro
edly
public
friend
arrang@@
unda
vaig@@
Mudz@@
cop@@
reason@@
anyone
inga
held
rather
lear@@
second
fundo
vers@@
sou@@
itive
adi
nemakore
Kuno@@
cam@@
kwakadaro
bereka
tell
pen@@
sight
standing
Ye@@
gadzira
desir@@
chinokosha
asvika
ot
return
aw@@
nyanzvi
anang@@
fungwa
stances
davira
Firipi
longer
Dzimwe
Q@@
46
ped
iro@@
power@@
showed
leave
ravo
ungan@@
onzera
mumwoyo
common
ext
fun@@
yar@@
die
apupu
moder@@
anony@@
formed
duc@@
idence
hakuna
vakazodzwa
overse@@
oorana
eta
vateveri
agoni
gn@@
inspired
Che@@
book@@
spiritually
mibvunzo
G
cur@@
evedz@@
Joseph
mamiriro
mukana
destro@@
F
abhorosi
mitemo
house@@
meaning
lov@@
happiness
kept
zvising@@
clean
read@@
edom
ban@@
Nharireyomurindi
Far@@
information
lost
ngozi
erful
․
e-@@
perhaps
slave
inz@@
Witness
gain
enza
ded
written
ikin@@
ile
sch@@
yat@@
chinetso
irire
local
Austr@@
eration
proved
ials
nezvo@@
rug@@
witness
uyewo
heyo
wid@@
pot@@
Sam@@
ikisa
rwomunhu
rule
-time
Catholic
ought
ount
ared
ense
orudzidziso
48
Go@@
clud@@
takes
Roman
serious
4-@@
Samu@@
ord
cour@@
Will
Nemhaka
ective
odza
mumhuri
emor@@
prepar@@
crim@@
angeri
understanding
naizvozvo
husingaperi
muushumiri
church
rwake
hurukuro
vawo
akashata
vid@@
ched
vanam@@
foret@@
hana
angobva
edzera
yeuch@@
countries
got
Im@@
accept
Fe@@
alone
Matt
zvach@@
Devil
working
South
usina
aba
cons@@
ol
vadzidz@@
ji
viri
hop@@
Mat@@
feel@@
meet@@
bud@@
sm@@
fu
isarema
call@@
ople
der@@
port
tle
wari
angu@@
prop@@
righ@@
berek@@
pec@@
pers@@
ushumiri
esi
bereki
ererano
yu
lik@@
du
yika
till
sacrif@@
vha
relati@@
som@@
hoko
veng@@
long@@
Scriptur@@
div@@
Mag@@
bet@@
dzwa
TH@@
ibv@@
omana
ungu
eve
ingap@@
ungam@@
–
iel
sim@@
v
cle@@
ven
wer
organ@@
fill@@
tru@@
ational
itu@@
muny@@
ieri
sham@@
pi@@
Amer@@
ur
Zvir@@
bvunz@@
courag@@
individ@@
kno@@
one@@
Ger@@
urch
fri@@
usa
Wh@@
$
preci@@
zvi
ikidza
M
bap@@
ʹ@@
Krist@@
sac@@
ingaperi
bor@@
differ@@
faith@@
perf@@
servan@@
wir@@
jud@@
pedz@@
chenjeri
proph@@
ult
Genes@@
zar@@
To@@
weya
endeka
VaKor@@
aching
Hap@@
centur@@
onom@@
Cho@@
nec@@
prac@@
spir@@
your@@
Uye@@
akash@@
uth
ibvunzo
youn@@
resurrec@@
tivi
avira
Christi@@
oor@@
Zvin@@
onek@@
author@@
ustr@@
suffer@@
ul
Kuny@@
eep
devel@@
kurumb@@
enly
kunz@@
ica
chool
odzera
furikidza
nesses
follow@@
ith
hist@@
C
giv@@
evil
kusv@@
Phil@@
ip
ath@@
ibvunz@@
eru
iyana
langu@@
W
circ@@
Jer@@
Ik@@
know@@
é@@
ready
self@@
·
·@@
hel@@
cent@@
kind@@
haps
oth
atis@@
The@@
fai@@
disc@@
inde
erer@@
relig@@
selves
atsira
Ez@@
ildren
●
ization
Mos@@
azhinji
crib@@
hal@@
itude
iyoni
outh
ances
princip@@
omba
B
mater@@
◆
zodzwa
import@@
fel@@
phys@@
Gir@@
Ac@@
okwazvo
ys@@
ugh@@
adh@@
thor@@
tiz@@
kurum@@
ques@@
Somu@@
tro@@
Do@@
hure
kurusa
igh
anci@@
ft
prob@@
situ@@
pu@@
evo
respons@@
é
Nem@@
blo@@
them@@
Afr@@
rece@@
ept
Isa@@
rif@@
fam@@
ention
conduc@@
Eg@@
Su@@
gozi
enzira
uring
ikanwa
heri
sion@@
bs
mean@@
diffic@@
Eur@@
udzidz@@
fol@@
osi
humiri
dzera
dom
zvoizvo
yira
ffic@@
apost@@
deter@@
prophec@@
Chokwa@@
lasting
P
wayo
contro@@
Yo@@
indi@@
criptur@@
some@@
ially
wic@@
itsi
uke
Zvis@@
ousness
evel@@
prov@@
J
knowled@@
him@@
prophe@@
Israel@@
ped@@
Jeho@@
priv@@
yes
husb@@
Sin@@
paf@@
ro
can@@
ught
main
inted
blic
avo@@
X@@
numb@@
itud@@
wish
mess@@
wom@@
anguva
hara@@
umende
ʹ
La@@
whe@@
iyo@@
í@@
hil@@
Bha@@
æ@@
hou@@
bhabh@@
tak@@
indi
siy@@
spiritu@@
vera
Acc@@
port@@
reco@@
Jes@@
disi
need@@
dy
bvunzo
okwadi
las@@
ames
Cath@@
á@@
olic
sid@@
inspir@@
cc@@
everi
simil@@
Sat@@
formation
onaka
wanakomana
relation@@
Tho@@
Efeso
led@@
guva
Bec@@
Jehova@@
etso
ü@@
batan@@
ather
contin@@
muta@@
Josep@@
aim@@
okwa@@
Corin@@
erc@@
ffer@@
Pet@@
thin@@
&
oub@@
Ephes@@
amberi
syst@@
sel
E.
chenj@@
yl@@
ã@@
©
etim@@
orinte
⁠
isv@@
bets@@
lic
Af@@
zvadzi
fal@@
Rom@@
marri@@
ey
vhid@@
bef@@
fut@@
urama
ó@@
certain@@
infl@@
Dan@@
kurukuru
ukuro
%
ainst
embers
ren
ö@@
Z
hinji
ben@@
ukur@@
Johan@@
orosi
irc@@
Sol@@
Yor@@
Soci@@
X
è@@
tries
Joh@@
princ@@
—@@
ham
oug@@
Bab@@
q
Psal@@
Ef@@
ween
▫
lit@@
ako@@
wag@@
til
bhir@@
oku
ú@@
ô@@
imbo
°
baptiz@@
dam
hat
Dha@@
gether
Wit@@
Dav@@
ñ@@
lem
tower
uals
ʼ@@
yewo
ause
blems
|
orin@@
urrec@@
ä@@
Sor@@
Eph@@
ł@@
Consid@@
:@@
ç@@
zarurwa
q@@
zvininip@@
Wat@@
ā@@
á
murindi
aizvozvo
❑
Corinth@@
Watch@@
secon@@
✔
ḥ@@
bec@@
⁠@@
ording
inip@@
Á@@
verbs
VaK@@
righte@@
menti@@
ticle
uter@@
○
_@@
nex@@
ë@@
É@@
◯
í
ë
ê@@
>
▶
ʽ@@
à
papo
j
Nhar@@
❏
ה@@
■
Zvap@@
י@@
ו@@
ה
#
oup
=
espec@@
▸
Creat@@
®
rote
❖
aiah
â@@
Q
Bhaib@@
č@@
tio
Dhan@@
C.@@
Jerusal@@
→
‛
ī
ð@@
Chris@@
greg@@
ū@@
↓
ʼ
⇩
ï@@
ś@@
è
Bhabhir@@
ø@@
Mate@@
Hebre@@
š@@
å@@
ş@@
ž@@
ł
←
+
↑
Š@@
ī@@
◇
Solom@@
É
bho
Í@@
ē@@
ē
arema
ä
ü
−
ą@@
rom
ā
_
Ã@@
£
Matthe@@
ń@@
ý@@
Ö@@
ö
ŏ@@
ň
̆@@
Timo@@
î@@
ę@@
―
ý
⇨
­@@
ó
ō@@
hua
ã
̩@@
Ś@@
mudzim@@
û@@
š
Ó@@
Ž@@
ú
Ü@@
­
ō
œ@@
ε@@
\
Ḥ@@
Ż@@
ß@@
ş
ě@@
ι@@
õ@@
΄
Revel@@
Ú@@
▾
ẹ@@
ū
ṣ@@
È@@
ć
ż@@
σ@@
⁄
Ł@@
Æ@@
ׁ
ש@@
ς
Ṭ@@
ν@@
פ@@
נ@@
Jerus@@
æ
γ@@
☞
ß
κ@@
ν
ἰ@@
¡
Ô@@
à@@
Ä@@
Ō@@
Ş@@
◗
Á
Α@@
Å@@
€
ireyo@@
Isra@@
Nharireyo@@
™
ʺ
ř@@
Ñ@@
ő@@
ʽ
ı@@
י
ύ@@
ο@@
Å
ְ@@
ֹ
א
ṭ@@
å
Jako@@
Â@@
̗@@
ò@@
ẹ
Î@@
ă@@
ù
÷
μ@@
Ō
ώ@@
@
ω
₦
π@@
➊
‐
Sorom@@
Hebh@@
Dhavhid@@
;@@
◀
¢
È
ê
¿
ḍ@@
Ë@@
υ
ό@@
ᾶ@@
ę
Ç@@
ć@@
ï
ǒ
À
Ò
ů@@
đ@@
ś
Í
Ω
Ρ@@
Υ@@
Ε@@
ì
ọ
Ọ@@
<
נ
ט
ש
Ä
ç
ă
ρ@@
ĕ@@
ֹ@@
ָ@@
ź
ė@@
â
̧@@
ì@@
ţ@@
λ@@
δ@@
ά@@
ò
α@@
τ@@
ל@@
Ẹ@@
ẓ@@
̇@@
Κ@@
ŭ@@
û
ק@@
ד
ń
Ø@@
Ā@@
̀@@
”@@
☒
ḥ
▲
×
ι
α
❍
›
‐@@
̆
⁄@@
