<unk>
<pad>
<s>
</s>
.
,
da
the
a
ya
to
:
of
“
”
in
and
?
yi
ba
su
ta
kuma
na
mu
that
-
ne
)
(
—
za
is
Jehovah
’
ka
an
we
Allah
for
sa
ce
cewa
wa
his
mai
Jehobah
​
ga
1
be
on
iya
shi
with
cikin
;
are
you
as
zai
not
was
suka
ing
ed
ke
yin
A
it
he
will
yana
us
I
have
s@@
wannan
A@@
Yesu
our
God
suna
re@@
s
t@@
2
Jesus
in@@
yake
c@@
a@@
sun
The
or
ko
i
ci
ma@@
can
don
masu
es
Mai
un@@
S@@
by
i@@
daga
abin
from
haka
suke
3
‘
f@@
ar@@
who
d@@
T@@
ma
their
e@@
y
What
mutane
what
aka
en@@
p@@
they
do
g@@
Tsarki
4
nuna
5
all
Littafi
al@@
u@@
yadda
!
at
k@@
an@@
E@@
er
y@@
God’s
e
so
n@@
this
6
ra@@
ar
Bible
one
him
G@@
ku
m@@
al
wasu
nan
sa@@
wani
o@@
game
zama
as@@
your
u
b@@
K@@
t
How
it@@
them
Jehovah’s
C@@
ur@@
l@@
kai
H@@
er@@
yawa
had
sosai
7
were
B@@
w@@
I@@
gaba
people
In
Ta
b
o
did
duniya
domin
r@@
ji
M@@
hakan
12
9
10
about
ers
15
dukan
8
st@@
on@@
F@@
waɗanda
when
yaya
L@@
Ka
ad@@
kan
would
has
kyau
ted
11
j@@
Amma
ƙ@@
me
en
ly
son
ta@@
wa@@
du@@
time
ha@@
z@@
may
those
sa’ad
or@@
ba@@
R@@
ab@@
ation
ate
muna
is@@
amfani
kasance
13
my
’s
il@@
Ya
con@@
yan
at@@
14
P@@
fi
W@@
ciki
ri@@
O@@
lo@@
life
kamar
wanda
fa@@
taimaka
kamata
but
lokacin
D@@
san
waɗannan
ya@@
li@@
d
amma
ina
muka
wajen
irin
ti@@
har
He
el@@
bi
ai
how
ni
mana
idan
war@@
ts
kin
es@@
v@@
ho@@
am@@
da@@
shekara
help
m
cin
N@@
ro@@
take
ac@@
17
zuwa
U@@
16
more
ent
’@@
de@@
ana
muke
Bulus
We
insa
love
out
su@@
ir@@
th@@
gaskiya
id@@
good
op@@
•
l
her
ci@@
Y@@
some
war
should
ex@@
Idan
man@@
man
kar@@
ake
pro@@
ge
bai
ga@@
Me
[
bauta
]
Kiristoci
also
k
ka@@
ance
ated
ve
ki
ds
19
mo@@
things
way
does
she
Paul
un
18
able
farin
ul@@
such
20
la@@
sai
wurin
masa
ru@@
ku@@
yar@@
lokaci
Christians
up
been
make
fa
ful
kuwa
many
mutum
Da
ment
work
yar
le
go@@
inmu
tare
h@@
si@@
spirit
mat@@
tana
even
Christian
day
ally
rai
im@@
bukatar
24
Why
It
ting
ɗaya
if
tar@@
tu@@
fi@@
gaya
ic@@
ol@@
soma
ƙarfafa
bu@@
ita
par@@
J@@
When
1@@
Ma@@
wata
be@@
no
har@@
le@@
other
said
musu
for@@
mar@@
faith
Kingdom
muhimmanci
yan@@
au@@
ity
Kristi
Ubangiji
se@@
ded
than
21
22
could
red
its
abubuwa
wa’azi
Ba
no@@
di@@
se
others
need
so@@
world
th
ding
koya
ɓ@@
qu@@
bo@@
mu@@
ata
spiritual
yau
there
Za
ce@@
ko@@
congregation
uwa
Yohanna
Wannan
tion
farko
hi@@
est
n
pre@@
ous
jin
samu
sha@@
dis@@
earth
example
first
Saboda
ɗ@@
ne@@
aiki
sh@@
these
aminci
Sa’ad
end
rubuta
If
ec@@
As
must
For
Christ
come
Hakika
ter@@
ch
misali
sami
They
Menene
mutanen
into
Z@@
19@@
because
insu
ye
mun
ning
This
which
sp@@
ves
ɗan
23
Al@@
bayan
ƙi
gi@@
san@@
biyu
ations
kar
bayyana
us@@
5@@
like
ƙauna
ones
ah
mata
ban
me@@
being
But
ying
ev@@
aikin
han@@
dace
ai@@
years
Witnesses
Ko
king
aba
made
ƙar@@
nufin
te@@
ut@@
hidima
tar
heart
Zabura
wan@@
abu
ings
Kirista
do@@
magana
words
ent@@
Na
pri@@
know
ou@@
addu’a
we@@
ine
give
ons
see
bin
rayuwa
abo@@
bi@@
true
ƙasar
ang@@
Re@@
gu@@
tsa@@
only
Shaiɗan
ja
6@@
family
28
fin@@
ag@@
25
An
dabam
wat@@
You
he@@
cika
girma
Sa@@
co@@
per@@
/
za@@
hankali
ima@@
children
ty
fahimci
bisa
abubuwan
ruhaniya
ver@@
well
become
ess
sama
then
ƙa@@
pe@@
p
ant
sed
anci
says
Dauda
own
times
kula
dā
men
ish@@
pres@@
kansa
Bitrus
awa
Shaidun
tuna
tra@@
tsarki
ect
um@@
wan
riƙa
To
duk
el
Wane
E
before
might
w
Adam
Word
far@@
samun
una
c
just
yanzu
kawai
Duk
ap@@
Kuma
r
truth
over
ila
all@@
zo
des@@
now
Ku
ts@@
mi@@
David
ann@@
That
gar@@
mar
ran@@
ƙaunar
koyi
ob@@
ence
rashin
after
ged
faithful
faru
very
end@@
om@@
30
na@@
kanmu
fe@@
use
any
brothers
Matta
ter
And
biyayya
ating
kansu
keep
death
John
great
to@@
ited
new
name
ke@@
show
ch@@
ikilisiya
comm@@
go
Alal
Mene
karanta
bar
sur@@
tal@@
Bayan
asa
serve
wato
26
kada
gab@@
ely
att@@
ges
read
apostle
ure
cho@@
fully
ear@@
today
ish
aure
through
ving
8@@
ness
Muna
yan’uwa
mis@@
kafin
sion
com@@
ge@@
kana
iyar
another
am
29
der
pl@@
27
V@@
ren@@
matsayin
most
ved
holy
arin
Read
tly
study
Do
ali@@
ing@@
ws
An@@
taɓa
Lo@@
ality
ministry
tions
Ko@@
each
h
Mulkin
babu
against
word
vi@@
fe
ents
te
gro@@
part
7@@
mor@@
ak@@
why
two
mag@@
ik@@
ice
ganin
himself
ary
Kalmar
much
Israel
kawo
ud@@
ist@@
33
Isra’ila
tunani
littafin
learn
find
ƙa
*
tri@@
worship
though
31
od
off@@
sani
inda
ruhu
gir@@
can@@
kafa
res@@
ɗauki
Peter
jin@@
kowane
fir@@
baya
parents
shi@@
musamman
news
faɗa
wrote
iya@@
sake
ks
same
Babu
feel
ansa
kal@@
shakka
self
However
where
adalci
ite
mind
young
jo@@
nazarin
min@@
sar@@
zu@@
ked
ay@@
ates
means
used
Domin
found
Satan
Yoh
Yana
Karanta
tattauna
cre@@
anta
zuciya
disciples
kasancewa
zunubi
amin@@
ily
tunanin
sha
rec@@
bl@@
akwai
fo@@
tre@@
course
important
taron
je
view
sel@@
Mulki
arsa
ura
ver
hikima
preaching
person
shafi
human
4@@
kan@@
say
Wasu
ju@@
ast
right
Mar@@
led
ways
bar@@
ɗa@@
lura
Sar@@
appro@@
tun@@
rana
servants
In@@
hu@@
ari
Abin
pos@@
os@@
place
saboda
ze
kake
daraja
Ƙ@@
ƙaun@@
abi
shekaru
let
Isra’ilawa
upon
dar@@
Ishaya
ities
Hakan
wor@@
wal@@
hope
ƙara
dar
R
Yaya
zan
get
One
ced
tun
S
So
sanin
Mat
x
baƙin
et
re
Musa
exp@@
ck
ently
ist
bangaskiya
ad
maka
fiye
encoura@@
ere
vis@@
Kamar
wuya
yoyin
tsar@@
dist@@
doing
Wani
service
Father
ƙarshe
hanyar
bukata
never
gama
gaban
set
ies
taro
ection
gida
long
ments
AN@@
ourselves
fin
sin@@
Sai
g
book
juna
32
Waɗanne
ep@@
given
ever
anointed
ry
gare
coun@@
power
ma’@@
Wa@@
hana
put
ering
ƙasa
cu@@
ambata
isa
kin@@
ther
Don
baftisma
wise
age
fur@@
tawali’u
fellow
days
em@@
told
loving
daina
Psalm
ph@@
uku
ban@@
Shin
la’akari
knowledge
iyal@@
,000
hal@@
ƙin
requ@@
By
too
ected
inka
want
po@@
taimake
Be@@
ranar
After
under
sure
became
far
M
gra@@
34
consider
ane
mutu
ects
Luka
among
ion
ise
wife
ki@@
less
Scriptures
mutuwa
zamanin
car@@
Ba@@
At
ansu
abada
gave
iko
wn
din
daidai
hanya
every
Na@@
shawara
sin
King
live
ref@@
ors
de
20@@
bincika
Go@@
Moses
kinsa
bel@@
hidimar
si
ined
pp@@
yarda
anin
Ƙari
koyar
tur@@
fu@@
enti@@
ze@@
nu@@
ned
Romawa
iri
act
ɗa
Son
sunan
whom
Daga
away
duka
marar
iyawa
Ha@@
ƙarfi
Ina
during
mini
Our
ory
ship
halin
making
wane
mugunta
kas@@
peace
ƙoƙari
kashe
bishara
dly
over@@
dogara
dang@@
rel@@
zed
2@@
came
dness
prayer
kusa
albarka
sing
Ɗ@@
zan@@
kira
als
wahala
ɗaukaka
35
ses
Me@@
Some
back
mon@@
wadda
Israelites
9@@
40
yanayin
bur@@
37
les
kwatanta
yed
wur@@
amince
His
Un@@
Sun
Let
deli@@
saka
star@@
marriage
down
kun@@
’a@@
motsa
waye
mutumin
nasara
wa’azin
mafi
gaske
Manzanni
godiya
ƙoƙar@@
personal
hor@@
order
iy@@
joy
guda
ces
il
ari@@
ened
matattu
often
elders
onsa
ill@@
ib@@
ished
ɗi
the@@
halaka
living
amsa
themselves
later
home
Yin
began
ken
sec@@
our@@
cor@@
nake
Ya@@
counsel
tabbaci
Ayuba
Yes
ji@@
inv@@
Ibraniyawa
felt
Matthew
ɓata
reason
AR@@
year
face
tafiya
tsakanin
dai
Zab
humans
wo
ths
ja@@
sal@@
ili@@
pa@@
kaɗai
rit@@
manzo
yanayi
clo@@
On
ask
kat@@
nam@@
ular
Yahudawa
hai@@
tic
ess@@
ong@@
share
mur@@
yara
ƙarya
sau
bat@@
saur@@
house
bab@@
albar@@
toward
hand
abinci
Am@@
shiga
tic@@
appe@@
old
Urushalima
birnin
ward
righteous
always
O
With
misalin
fara
daɗewa
Pro@@
century
ɗan@@
kuna
comp@@
bir@@
Is
look
heaven
dre@@
St@@
unsa
ening
Waɗannan
hak@@
faɗi
ikon
ther@@
zar@@
ign@@
tive
out@@
tabbata
anar
beg@@
ght
There
serving
hear@@
ani
dattawa
hali
uni
Su@@
sto@@
ƙun@@
mut@@
’ar
fied
ans
mil@@
gan@@
wicked
zur@@
Bari
gani
bas@@
ple
kāre
gh@@
wu@@
ously
expres@@
while
ps
giving
Jerusalem
kur@@
acc@@
batun
rely
lafiya
full
ra’a@@
still
gr@@
yawan
maza
rayuwar@@
tr@@
Ibrahim
sab@@
purpose
ten@@
without
bukat@@
chan@@
meetings
bayin
,@@
relationship
anmu
point
gg@@
ins
however
iti@@
ct
three
sau@@
ƙyale
kawa
10@@
sauƙi
kama
ƙwarai
ƙarni
Yet
article
gargaɗi
ewa
ff@@
zauna
br@@
She
200@@
took
heavenly
vo@@
iyaye
pla@@
yayin
called
fact
Wataƙila
Mo@@
Sarki
owa
together
inta
think
Mutane
fore@@
possible
ɓa
future
wataƙila
pas@@
almajir@@
bring
ining
questions
Misalai
Then
duba
Kada
kya@@
sho@@
having
Ru’ya
Kor
aff@@
kindness
both
ic
45
prot@@
Shi
jir@@
menene
rep@@
lead@@
sar
experience
nations
alheri
tain@@
ingly
neman
close
something
cial
ace
dalilin
ide
ative
As@@
try
wisdom
ture
reg@@
daɗin
gre@@
babban
Con@@
ati@@
needed
land
marasa
ikilisiyar
und
message
trans@@
salama
zuciyar@@
continue
atta@@
sta@@
Mun
T
ziyar@@
koyarwa
helped
Bo@@
fine
shawarar
Ar@@
benefit
present
aw@@
Yi
ɗaukan
canja
Daniel
teaching
’a
Farawa
Suna
hidimar@@
Isaiah
Even
reve@@
So@@
av@@
dole
challen@@
kam@@
addin@@
thing
Rom
gora
discus@@
ters
tiv@@
der@@
hu
Many
result
He@@
ging
ayyuka
father
asked
De@@
respon@@
ƙan@@
hold
atar
hukun@@
done
person@@
lic@@
amfana
ƙarshen
tas@@
fear
cl@@
din@@
sun@@
New
mamaki
brother
sy@@
tsoron
jawo
tabbatar
0
attitude
really
eyes
por@@
kind
husband
und@@
ss
fit@@
mugun
hanyoyi
All
jar@@
haɗa
ɗauke
majagaba
moved
Ad@@
Do@@
No
gu
daɗa
Tim
Mu
jimre
lam@@
dom
shafaffu
kaci
omi
writ@@
den
stud@@
iyali
alkawari
gina
stri@@
ven@@
yal@@
atu
mankind
ig@@
Mal@@
Tun
sarauta
uwar
tal
understand
labarin
light
Du@@
desire
gaskata
support
nufi
al’um@@
tsai
mutanensa
between
emp@@
36
ction
Maimakon
learned
al’am@@
speak
served
gidan
di
spe@@
hur@@
fru@@
happy
associ@@
’i
Job
best
dab@@
conf@@
nemi
loo@@
tually
shin
care
Law
cap@@
aya
kwan@@
baptized
members
arsu
taimakon
haɗin
kirki
lives
prophe@@
mata@@
Timothy
taimako
Because
Th@@
ms
kowa
receive
ra’ayin
bed
hannu
prophet
yaƙi
ians
ara
ƙarin
slave
list@@
gaɗi
assign@@
Masu
fuskanta
eas@@
followers
Who
rest@@
bal@@
lead
amf@@
avoid
tan@@
ame
waje
Korinthiyawa
kowace
Luke
annab@@
matter
system
gun@@
bad
ser@@
certain
From
woman
Bethel
misal@@
under@@
x@@
jiki
gl@@
dam@@
head
38
ayyukan
practic@@
hin@@
ā@@
kullum
waj@@
last
Those
mother
shu@@
position
men@@
rin@@
nat@@
haikal@@
uni@@
ray@@
fas@@
almajiransa
respect
app@@
uta
conduct
dition
thr@@
These
aikata
mb@@
form
sheep
ene
him@@
gin
follow
El@@
al’ummai
Mat@@
gur@@
Zai
saurar@@
No@@
attention
shirya
matasa
zunu@@
food
haɗ@@
ibi
ama
ƙo@@
descri@@
Je@@
mahai@@
Saul
ach
ƙar
direc@@
again
ble
ach@@
IN
righteousness
3@@
tsanani
bayani
someone
Ban
nazari
yen
gener@@
enjoy
Acts
mit@@
d’s
armu
ashi
Abraham
ong
warsa
hard
comman@@
shaida
pray@@
Le@@
D
cannot
.@@
En@@
dangantaka
situation
kuka
answer
ner
My
bari
apostles
wi@@
pur@@
kun
Manzo
kwat@@
je@@
indic@@
gam@@
tali@@
city
yet
account
nor
interest@@
Ƙa@@
nation
kawar
ond
dra@@
different
yan’uwan@@
went
remain
uri
ose
fito
trust
law
Jo@@
Ne@@
riƙe
ah’s
kalmomin
Consider
begen
dedic@@
sacrifice
hel@@
mean
shir@@
ement
prove
cau@@
shugab@@
hada@@
pray
wakil@@
Adamu
sense
saying
shawar@@
ef
gid@@
dic@@
Wata
language
Har
ancin
koma
spiritually
nas@@
39
temple
Ex@@
Yadda
ical
ya’yan
umur@@
kuɗi
thy
sons
up@@
vie@@
Su
child
Hel@@
sol@@
ever@@
Eli@@
reading
ign
imitate
Lord
ct@@
yo@@
low@@
im
Kana
arly
ni@@
sauran
Kal@@
keɓe
wace
subj@@
ask@@
wing
ensa
Jews
died
yourself
teach@@
following
individuals
ƙunshi
kwanaki
bro@@
shan
lafa
turn
wo@@
ome
ƙud@@
saw
maganar
cim
worl@@
tsarin
resurrection
iyar@@
known
eli@@
doko@@
early
kowan@@
going
50
ɗauka
false
naɗa
00
koyarwar
ans@@
tain
suff@@
zaɓi
fushi
ore
ti
supp@@
ƙoƙarin
likely
thus
’u
gives
bangaskiyar@@
are@@
ath
number
ren
ised
Irmiya
sabuwar
ruwa
kir@@
fil@@
fuskantar
needs
Timothawus
few
instru@@
guje
laifi
received
alkawarin
left
ude
Per@@
Mis
Of
ikilis@@
’an@@
kiya
lon
imp@@
little
stru@@
tem@@
Thus
thinking
ens
suffering
Your
ira
knew
adv@@
Joshua
rul@@
believers
problems
qualities
cikakken
ƙas@@
MA@@
strong
kanka
inter@@
yarsa
aring
case
sha’a@@
ainihin
matsa@@
kingdom
44
Although
tice
especially
women
ost
sc@@
dangantakar@@
gyara
kome
gor@@
coming
table
ɓe
wasi@@
iah
taking
Da@@
enc@@
sisters
Ra@@
Li@@
ough
prophecy
Yahaya
Paul’s
works
Ɗan
question
cha@@
ten
Revelation
zamani
ra
ihi
everlasting
yawancin
0@@
Afisawa
matters
st
temp@@
Ka@@
matsaloli
Yayin
off
tara
ruwan
body
ton@@
teach
haƙuri
provide
change
Yaƙub
aika
better
annin
religious
ƙwazo
tan
Christ’s
bimbini
gafarta
fus@@
peri@@
fita
ither
expla@@
bawan
ɗin
thought
perfect
rubu@@
ton
produ@@
lokatai
concl@@
ware
Wan@@
feelings
los@@
f
publ@@
concer@@
married
zaman@@
cause
N
pt
faranta
yarwa
Almasihu
riga
wari
godly
Nassosi
yayya
wrong
ika
duniyar
James
brought
difficult
cc@@
happ@@
whole
ys
ruhun
ety
fy
yoyi
principles
gh
Tur@@
yon
Corinthians
reali@@
kiyar
maimakon
kwa@@
samaniya
tambayoyi
umurnin
minist@@
Bu@@
nor@@
ancient
Romans
oned
ash@@
mate
ests
littattafai
cen@@
ring
dec@@
cen
loyal
gaskiyar
mul@@
Luk
Waɗanda
ld
NA
care@@
Kir@@
tell@@
tuba
Ayukan
stan@@
blessings
born
gwada
waɗanne
wwa@@
Sam@@
great@@
invol@@
tamba@@
whether
Ga
Ana
42
ions
dama
dom@@
dy
dep@@
prayers
hr@@
consid@@
move
yay@@
cal
ire
ns
anka
Such
ƙasashe
real
Satan’s
Far@@
41
comes
Ho@@
1914
C.E
until
▪
cont@@
gift
daɗ@@
seen
shepher@@
shows
rayuwar
promise
since
inspired
displa@@
less@@
friends
Bar@@
circumstances
demonstr@@
similar
strength
ective
res
la
mal@@
glory
Fa@@
Dukan
tsoro
foc@@
v
ƙarfin
appointed
hab@@
adam
ol
dare
kaɗan
asure
incl@@
arr@@
yan’uwanmu
jim@@
bay@@
sabon
occ@@
makes
tiyawa
Proverbs
’uwa
Ru@@
witness
shekar@@
Rather
Mu@@
thers
Does
taught
Markus
tru@@
H
side
See
yiwu
certainly
turned
guji
iyayen@@
abokan
str@@
faɗ@@
fuskanci
kusan
Kor@@
Ta@@
run@@
next
Ibran
examples
free
heard
gay@@
yu
diti@@
anku
kiyaye
Devil
Irin
loved
cikinsu
Since
vere@@
tafi
bada
ularly
shirye
sakamakon
privilege
using
plac@@
Littafin
sen@@
bayinsa
taimaki
akuna
ƙarƙashin
⁠
comfort
verse
arrang@@
U
stand
Ayyukan
ƙe
halaye
nagarta
exerc@@
Messi@@
gare@@
ɗan’uwa
Sulemanu
arri@@
Y
cinmu
Are
occas@@
fam@@
clear
let@@
Par@@
ur
ir
43
ders
organization
ached
divine
Wace
DA
yab@@
truly
Samu@@
Com@@
ve@@
bayar
Like
labar@@
Nuhu
saƙon
tation
understanding
waɗansu
fri@@
wuri
pati@@
vic@@
ibada
cop@@
onmu
iting
zaman
kalmar
tashi
iyya
199@@
involved
sures
mada@@
sight
satis@@
sub@@
ƙo
Baby@@
tsu@@
wana
blood
high@@
awa@@
maintain
bege
ented
ches
az@@
taken
bambanta
sent
Ju@@
malla@@
ple@@
accept
examin@@
tell
tu
material
fav@@
kud
lalata
Scriptural
fan@@
halar@@
Sim@@
states
confidence
rule
hankal@@
night
believe
wanted
hol@@
miƙa
ris@@
rewa
sign@@
regarding
huɗu
along
blessing
faruwa
karɓi
integrity
talifin
ayyu@@
yanke
Hab@@
Man@@
eless
vers@@
Bab@@
zuciyarmu
outh
Hu@@
bu
provid@@
sister
persecu@@
Galati@@
id
half
Tsaro
provided
manz@@
clean
–
mentioned
ilim@@
mun@@
Co@@
Tho@@
ak
Bro@@
rayuwarmu
draw
overse@@
tumaki
annabta
devo@@
rage
cinsa
Far
becom@@
sarautar
Can
ately
ident
Allahn@@
ep
tsira
Yan@@
including
pite
she@@
taima@@
asp@@
af@@
fiyar
ut
Watchtower
fahim@@
honor
Gre@@
decisions
aikin@@
Dokar
resul@@
poin@@
ered
ase
pleas@@
recogni@@
lies
gran@@
hist@@
While
tamani
addini
sear@@
yaushe
keep@@
willing
preach
World
tho@@
illustr@@
char@@
ƙungiyar
onal
takes
cikin@@
tafar@@
amin
matarsa
auren@@
deep@@
fassara
ould
special
imani
dead
gwamnat@@
ight
if@@
Be
Mic@@
14@@
apply
gā@@
authority
goma
eff@@
shall
deser@@
enjo@@
ashen
Hasumiyar
damuwa
conven@@
ck@@
hearts
Mut@@
soon
Bit
around
vision
immor@@
action
yaransu
mulki
low
tting
Ku@@
greater
heavens
gain
Akwai
iled
allow
Today
valu@@
banza
accompl@@
rema@@
tambayar
ech
claim@@
kasu@@
tau@@
Yanzu
opportunity
deep
member
ma’aurata
effect
daugh@@
ensu
reason@@
shen
kept
eri@@
biy@@
ala@@
adise
nis@@
evidence
declar@@
kon
Solomon
atan
interest
inku
ashin
ɗan’u@@
vari@@
i’a
yaren
showed
daɗi
ty@@
effort
ashe
has@@
ide@@
forever
return
contr@@
judgment
ord
standing
ive
milli@@
nothing
ell
KA
control
seem@@
miya@@
tes
page
ate@@
Yahuda
wed
covenant
AN
courage
commun@@
ciya
near
hon@@
Cikin
speaking
meaning
To@@
therefore
’i@@
remin@@
fl@@
gwaji
direction
Hebrews
Wor@@
damu
cri@@
cultiv@@
Still
tsara
past
congregations
Nehe@@
public@@
ia
gud@@
obey
bin@@
ational
one@@
powerful
ransom
sanar
Se@@
exc@@
tab@@
’az@@
canje
sam@@
recorded
justice
high
deal@@
sing@@
inst@@
prosp@@
addu@@
deci@@
itive
ell@@
Ɗansa
shari’a
pers@@
ars
Instead
Mutu@@
zing
gy
wonderful
gi
Sha@@
tambaya
pris@@
bayan@@
yinsa
wer
ƙa’idodin
nufinsa
earthly
destro@@
ani@@
agre@@
ants
govern@@
mabiyansa
serious
field
ƙai
Bib@@
vital
ana@@
den@@
kill@@
second
em
iyalin
gement
standards
angels
talk
doubt
AL@@
liter@@
annabcin
repor@@
med@@
igh@@
efforts
promises
ability
happiness
increas@@
sukan
biya
every@@
cinsu
z
based
ste@@
spoke
according
faɗin
here
tat@@
Iblis
hala@@
60
ill
respond
kacin
sarki
Yusufu
kyauta
value
rejo@@
small
regard
mi
appreciation
ain@@
written
Babila
annabci
praise
viol@@
shor@@
tered
Ab@@
tashin
ta’az@@
gad@@
helps
Jos@@
determined
ched
ceto
Han@@
cr@@
daras@@
Lev@@
ites
enmu
bakwai
abil@@
ɓan
halarci
accep@@
Hebrew
ph
col@@
includ@@
sla@@
sins
won
ɗe
On@@
dies
mala’iku
foretold
saurari
aren
faith@@
iyoyi
Now
experienced
vely
work@@
benef@@
alam@@
Greek
marsa
tawa
seek
proved
shelar
ɗauka@@
rukunin
unci
gen@@
itu@@
water
Har@@
Not
biyar
flesh
won@@
exist@@
aled
yata
reli@@
religion
trust@@
․
auta
clas@@
once
gin@@
iyel
alama
listen
Amirka
offer
Phili@@
sum@@
Hence
anyone
walk
school
val
halayen
flo@@
gwa@@
matsalol@@
dered
ious
ared
older
IN@@
group
ought
meeting
mizan@@
gorar
psalmist
Masar
Jeremiah
zin@@
mace
Nas@@
tanadin
cep@@
remember
bautar
hannun
zuciyar
Uban@@
aljan@@
gon
posed
public
Joseph
ual
hamayya
sakamako
shige
lac@@
allow@@
ial
progre@@
pol@@
les@@
Lab@@
atten@@
strengthen
baptism
gargaɗin
itation
proper
ed@@
unt
Ni
bre@@
money
Indeed
hatever
manta
dem@@
mala@@
mene
information
ron@@
halicci
During
pioneer
duc@@
already
le’s
arka
om
Ƙar@@
promised
than@@
70
prepar@@
Mark
her@@
perhaps
119
Bai
ages
spo@@
tatt@@
Will
Duniya
May
jama’a
four
muku
Ro@@
alin
gane
tsawon
Roma
gn
events
jaw@@
trials
stu@@
halitta
unana
dalla
jan@@
daida@@
ber@@
sist@@
ature
mer@@
wants
gue
form@@
kalm@@
decision
matsala
compani@@
ubu@@
Isha
chapter
maj@@
leave
Ser@@
health
Creator
yen@@
manif@@
Hakazalika
makaranta
kace
tambayi
cike
um
buɗe
wurare
righ@@
dokar
ɗab@@
karantar
cles
dda
soul
physical
anta@@
alka@@
ami
al’a@@
role
orin@@
lation
rather
’t
ƙwa@@
salvation
activities
tures
house@@
Shari’a
working
lear@@
complete
Judah
ater
iness
sive
within
gwiwa
pic@@
iye
lost
ties
manyan
imperfect
thoughts
tarayya
sayi
mulkin
ung@@
dan@@
stated
responsibility
garin
ona
Mary
umi
ource
idan@@
precious
ƙur@@
uses
tern@@
cted
ghty
Fir@@
ences
B.C.E
Matt
strength@@
hear
ƙari
yiwuwa
illustration
hir@@
some@@
gine
ls
medi@@
Des@@
jud@@
lad@@
kammala
zahiri
matar
instance
got
dalil@@
Jeho@@
sarai
alil@@
Fur@@
tabba@@
ort
rayu@@
contribu@@
resurrec@@
kno@@
Mashaid@@
Sh@@
lived
fulfillment
ile
actions
tso@@
ok
lim@@
lab@@
everything
Maryamu
equ@@
lied
Matiyu
Did
hadaya
zarafin
kā@@
WA@@
46
orig@@
sanyin
aki
activ@@
Jac@@
emo@@
tsabta
mirac@@
building
appreciate
harmony
continued
wers
dau@@
necessar@@
ecting
kamil@@
formed
ciyar
Therefore
cle@@
Kafin
Fit@@
ism
mission@@
even@@
furta
makiya@@
cece
annabi
ific@@
comfor@@
tattaunawa
Ubansa
arziki
dalili
fahimta
my@@
eds
reach
rinja@@
repres@@
rest
tsofaffi
reasons
ya’ya
ising
bincike
hands
tribulation
bes
Filib@@
Ruhu
ired
askiya
HO@@
anything
ian
endure
Shaidu
Keep
wansa
La@@
reflect
tsam@@
aniya
ɗalib@@
gn@@
Their
shel@@
Za@@
People
ree
kanta
gari
anan
Jewish
Pe@@
Majami@@
Ɗan@@
perf@@
sions
rej@@
y’s
obedience
servant
fan
anata
happened
letter
Afis
please
A.Z
resp@@
clearly
helping
Accor@@
obedi@@
Game
inher@@
fansa
forth
Il@@
jitu
tsananta
fahimtar
Ca@@
ling
inten@@
mama
relati@@
jira
addu’o@@
friend
elder
compas@@
cies
large
fill
conscience
vered
kanku
Eve
kwanciyar
identi@@
urin
ceci
atu@@
littattafan
Noah
showing
matsal@@
asse@@
kasa
hi
Jon@@
sunansa
affect
Genesis
guidance
uka
ƙasashen
yan’uwan
Just
SONGS
head@@
meet
poss@@
gun
erous
build
Ezekiel
du
haske
gri@@
48
continu@@
concern
discer@@
kuɗin
discipl@@
Tas@@
Dan@@
vin@@
pe
sarkin
feel@@
True
guard
mili@@
fulness
Moreover
eration
bishar@@
dawo
anx@@
maƙwab@@
neighb@@
travel@@
ition
couple
THE
jah
teachings
Phar@@
Yakubu
issue
discre@@
al’aj@@
WAƘOƘI
Q@@
tes@@
simply
yansa
tor@@
kalaman
further
magance
dwide
lier
aj@@
pain
lal@@
Egypt
First
SHA@@
shafe
develop@@
Shekar@@
humility
koki
call
explained
asar
ther’s
ext
ements
longer
read@@
deed
dun@@
tent
accepted
kly
Ps
don@@
Kolos@@
carry
uban@@
influence
call@@
sha’awar
ya’yan@@
fari
fill@@
deal
kyaut@@
glor@@
Timotawus
ene@@
ƙalubal@@
Mag@@
suwa
len@@
dan
umurni
whose
zaune
derly
sequ@@
speci@@
rich
oughout
wh@@
yar’uwa
min
iyay@@
cce
pione@@
illi@@
fulfilled
op
unta
wr@@
AG@@
dattijo
jinta
She@@
beau@@
ƙaunaci
zabura
Israel@@
cla@@
individu@@
establ@@
offered
destruction
humble
pursu@@
considered
mos
murna
expression
Have
pages
ma’a@@
firm
HA@@
quic@@
advice
Christ@@
Ruth
unity
’uji@@
sura
yakan
alone
ress
line
sacrifices
ɓoye
mercy
ido@@
istoci
195@@
enemies
weak@@
worshippers
crowd
bakin
blessed
ajizai
haifi
available
Mas@@
yo
sacred
fahar@@
waha@@
scrip@@
bis@@
dern
partic@@
sor@@
lands
free@@
haɗari
nagar@@
Sp@@
unsu
antawa
seeking
bear
jik@@
W
desires
refl@@
tains
believ@@
poor
success@@
cing
akku@@
kusku@@
succ@@
ile@@
scho@@
lik@@
tim@@
mak@@
aman
spir@@
aching
sul@@
tsan@@
Wat@@
attu
cei@@
determin@@
evil
mani
heal@@
bor@@
tanad@@
accoun@@
ƙon
muhimman@@
know@@
Kar@@
oura@@
fore
itate
devel@@
Rom@@
bran@@
of@@
maƙ@@
alkawar@@
wahal@@
mawa
ready
’u@@
tam@@
cul@@
ek
cro@@
cour@@
will@@
belie@@
Ibran@@
zara@@
bam@@
whe@@
hum@@
experienc@@
lai@@
hann@@
Isa@@
disci@@
reas@@
cikak@@
els
see@@
ah@@
sid@@
loka@@
ɗau@@
lic
mp@@
ƙwar@@
lar@@
muhim@@
shafaff@@
TH@@
buil@@
tak@@
.Z
Af@@
thou@@
proble@@
itness
alher@@
K
utar
disc@@
who@@
L
ruh@@
prac@@
mabi@@
sib@@
ung
Tru@@
wai
import@@
essi@@
ful@@
ada
Ye@@
num@@
serv@@
princi@@
ft
ll@@
hat@@
dara@@
Is@@
chi@@
Wh@@
ends
haps
differen@@
Yo@@
ghts
The@@
sue
langu@@
ihin
coura@@
halit@@
privile@@
vid@@
itude
ous@@
fic@@
finsa
help@@
rans@@
sou@@
tsor@@
cir@@
tro@@
appreci@@
cts
learly
ires
Jam@@
litta@@
dev@@
lea@@
ith@@
itness@@
situ@@
miah
rukun@@
ƙu@@
inc@@
Ci@@
aking
abin@@
nin
ƙ
follow@@
thor@@
sible
pu@@
Phi@@
ility
apost@@
ital
prin@@
adal@@
guid@@
kaɗ@@
main@@
obe@@
:@@
Timo@@
koyar@@
ƙarfa@@
hus@@
pi@@
ā
centur@@
guar@@
lan@@
chil@@
aji@@
fre@@
ith
·@@
recei@@
reat@@
Yah@@
kata
wancin
materi@@
opportun@@
—@@
influ@@
bra@@
ques@@
ida
Nu@@
Ubangi@@
zu
worshi@@
fel@@
ber
responsib@@
Abra@@
Lu@@
ya’@@
Jer@@
halic@@
isto@@
Christi@@
hiri
vel@@
fiya
pra@@
shari@@
zuci@@
ustr@@
Ir@@
cou@@
Isha@@
zam@@
soci@@
’o@@
Yahu@@
ear
bene@@
mean@@
garga@@
ribu@@
comple@@
pow@@
usu@@
Abraha@@
tsab@@
ƙa’ido@@
faff@@
cer@@
ples
ecu@@
ousness
Nassos@@
yu@@
G
Misal@@
ears
miya
div@@
author@@
lasting
zaun@@
Eze@@
tabbat@@
iyayya
Ke@@
ome@@
aul@@
ilis@@
wic@@
umin
tle
F
kama@@
Mul@@
gy@@
kak@@
condu@@
orts
yal
Tim@@
uld
bangask@@
Chr@@
mug@@
Jud@@
jam@@
dw@@
gover@@
unawa
sarau@@
aƙ@@
consci@@
tsakan@@
littattaf@@
mala’i@@
datta@@
zanni
crip@@
fassar@@
fal@@
gafar@@
ust
alla
sus
earth@@
00@@
organi@@
diff@@
mee@@
wab@@
grou@@
unu@@
sos@@
inted
ON@@
itnesses
karan@@
jit@@
lood
difficul@@
sat@@
ll
bs
faf@@
omin
Allah@@
bang@@
avo@@
regar@@
pose
use@@
alib@@
ble@@
Sat@@
sacrific@@
ʹ@@
worshipp@@
spiritu@@
shak@@
priv@@
iki
mot@@
religi@@
dam
heav@@
inu@@
danganta@@
ancewa
physi@@
haƙ@@
any@@
doub@@
hat
ū@@
missi@@
yes
Egy@@
fol@@
Sin@@
Fil@@
eld
chap@@
B
knowled@@
an’s
wis@@
proph@@
pointed
masi@@
rus
wa’az@@
yi@@
mies
divid@@
jus@@
uring
ɓi
000
ness@@
aci
sci@@
wish
naz@@
ew
reco@@
simil@@
alu@@
isawa
beli@@
with@@
hidi@@
long@@
circum@@
majir@@
cient
ɗu
maki
ruhan@@
dren
Tsar@@
’ido@@
human@@
crow@@
ft@@
Solom@@
ese
é
nee@@
sage
ih@@
aga@@
tatta@@
erful
abu@@
nec@@
port@@
cially
vice
standar@@
C
ven
contro@@
tural
V
gas@@
alities
J
pher@@
itta@@
organiz@@
Bec@@
gni@@
ali’u
Scrip@@
mony
idai
greg@@
wom@@
taray@@
jami@@
kil@@
dawa
Ɓ@@
relation@@
gwam@@
gask@@
Dani@@
í@@
fulfill@@
ften
apo@@
é@@
led@@
Mis@@
P
ftisma
judg@@
thin@@
simp@@
rection
prop@@
las@@
mes@@
Gen@@
ftis@@
Joh@@
salm
mir@@
gara
Rev@@
ano@@
lokat@@
ma’aur@@
memb@@
oub@@
dat@@
ida@@
angu@@
ɓo@@
è@@
tattaf@@
arz@@
fu
isti
psal@@
decis@@
giyar
kus
hama@@
yana@@
neigh@@
Whi@@
kari
erc@@
ail@@
Ayyu@@
Shar@@
Waɗan@@
adda
Dau@@
esh
mutan@@
ō@@
tings
cum@@
tribu@@
recor@@
yan’u@@
bless@@
gani@@
All@@
ü@@
Mos@@
bet@@
Jere@@
Dun@@
tism
god@@
X@@
lit@@
promis@@
forma@@
marri@@
your@@
preci@@
aul’s
termin@@
|
insp@@
fice
formation
sacri@@
sel
congreg@@
Bul@@
á@@
yya
certain@@
vation
accor@@
ause
inst
til
dattij@@
datti@@
/@@
abuwar
accom@@
Isra’il@@
ô@@
vid
Hak@@
haya
taw@@
smal@@
Jerusal@@
reng@@
Almasi@@
ather
destru@@
©
wonder@@
syst@@
yau@@
ecy
irka
mala
æ@@
bapti@@
waɗan@@
jagaba
□
som
ō
stances
flu@@
Kr@@
ƙarƙ@@
ó@@
●
Yaƙu@@
elation
faffi
ma’a
gether
Timoth@@
dividu@@
$
hallen@@
alubal@@
Gal@@
’ya
ʹ
Shaid@@
ʼ@@
kus@@
Ezeki@@
eren@@
○
inte@@
ã@@
bap@@
ö@@
tower
Shai@@
Consid@@
band
Á@@
imakon
ista
⇩
grity
ú@@
kima
Creat@@
Ā
Matthe@@
◆
Joshu@@
ticle
menti@@
yale
bamb@@
ercy
Acc@@
Sul@@
demon@@
GS
Corinth@@
>
whi@@
aro@@
bata
imbini
ysi@@
Bit@@
imbin@@
verbs
eman@@
X
ñ@@
sac@@
bec@@
coven@@
streng@@
fter
ł@@
olom@@
◇
eph
More@@
q
Watch@@
Z
ween
al’@@
pub@@
mselves
í
bah
kazalika
É@@
ä@@
gwi@@
idence
kull@@
fuskan@@
icul@@
Litta@@
&
Ƙ
ƘI
rote
▸
ū
ç@@
Masha@@
righte@@
Chris@@
avail@@
selves
B.@@
Ā@@
mone@@
esis
ה@@
abura
abubu@@
’akari
ה
ׁ
ש@@
j
פ@@
Hasum@@
נ@@
Yaku@@
Korinth@@
ł
❖
°
%
hanna
resur@@
heaven@@
☞
SON@@
ä
ë@@
✔
←
→
ē
י@@
mist
Uru@@
ו@@
exam@@
ê@@
ʽ@@
acce@@
®
thel
stead
espe@@
q@@
awus
ś@@
ople
‛
Ş@@
ē@@
€
ø@@
å@@
á
Ay@@
▾
è
ż@@
י
ʼ
ę@@
‘@@
essar@@
ú
C.@@
Yusu@@
samman
Isra’@@
Mati@@
hout
à
Isra@@
−
oug@@
ń@@
#
Ô@@
­
ù
ǒ
ƘO@@
À
ą@@
Ü@@
È@@
Š@@
ó
î@@
Jehov@@
Hebre@@
;@@
­@@
aul
š@@
ý@@
ů@@
ı@@
ï@@
à@@
É
=
kwai
▼
↑
Ayu@@
̄
enene
yamu
yan’@@
zalika
⁄
₦
̄@@
WAƘO@@
+
ʺ
tabl@@
ö
£
ş
Ó@@
lima
refore
Ž@@
↓
