<unk>
<pad>
<s>
</s>
.
,
the
:
to
of
a
?
ukuthi
and
)
(
“
”
in
’
s
that
-
we
—
ed
l@@
y@@
s@@
u@@
Jehovah
is
b@@
1
el@@
e@@
for
ab@@
t@@
God
njalo
ng@@
on
al@@
his
ing
be
S@@
ku@@
si@@
2
you
c@@
I
es@@
o
w@@
e
in@@
i
o@@
z@@
uku@@
with
am@@
em@@
k@@
as
i@@
is@@
not
3
m@@
us
will
um@@
was
U@@
it
as@@
;
d@@
our
f@@
L@@
es
en@@
have
are
4
‘
he
ela
W@@
E@@
a@@
wa@@
an@@
A@@
M@@
5
ul@@
g@@
abantu
or
can
K@@
ang@@
wa
The
6
p@@
I@@
uJehova
im@@
kw@@
v@@
B@@
un@@
ele
eng@@
isa
Jesus
er@@
ad@@
an
th@@
il@@
be@@
us@@
from
n@@
nxa
O@@
on@@
er
one
lo@@
kakhulu
C@@
esi@@
Bible
H@@
who
re@@
12
by
t
ac@@
8
their
u
What
7
ol@@
ukuze
li@@
ing@@
10
what
ar@@
do
om@@
A
they
9
ung@@
13
oku@@
11
ay@@
all
ez@@
zi@@
D@@
loku@@
N@@
se@@
15
njani
14
hl@@
ak@@
al
h@@
aku@@
your
eb@@
futhi
y
r@@
ted
enza
P@@
F@@
le
ezi@@
ath@@
ayo
Ng@@
G@@
isi@@
ini
kanye
at
this
Kodwa
17
!
people
az@@
ile
iz@@
How
ic@@
eni
ph@@
uy@@
sing@@
T@@
16
Y@@
him
le@@
-@@
kul@@
it@@
uNkulunkulu
ib@@
ise
about
st@@
lokuthi
had
uz@@
them
would
kh@@
q@@
ers
ly
did
abanye
ani
R@@
ngoku@@
ation
18
ts
when
yini
were
ala
khona
b
kung@@
In
lo
J@@
ate
ur@@
ind@@
av@@
ed@@
ag@@
aph@@
19
or@@
izi@@
abe
1@@
has
aba
eli
so
ngoba
kumele
ob@@
may
end@@
time
bab@@
tr@@
akh@@
ong@@
E
uth@@
ula
asi@@
Uku@@
lokhu
my
ri@@
help
izinto
dis@@
elwa
bu@@
how
n
and@@
kodwa
wathi
ka@@
ent
life
love
those
ho@@
ub@@
ek@@
kwa@@
O
20
ana
way@@
ke
abab@@
aw@@
We
ine
ona
Nxa
loba
j@@
id@@
weni
ey@@
but
uJesu
eth@@
Z@@
azi@@
He
lom@@
more
ting
tsh@@
ik@@
tion
pro@@
ileyo
ha@@
me
ro@@
emhlabeni
some
24
ngo@@
ngayo
ent@@
ev@@
ap@@
ale
umuntu
ated
anga
bang@@
at@@
k
l
her
kaNkulunkulu
op@@
ika
ane
ec@@
21
atsh@@
ahl@@
S
yakhe
able
eku@@
out
ow@@
kumbe
into
af@@
os@@
Um@@
good
ve
sil@@
eli@@
ud@@
such
ar
Khristu
does
22
iswa
zonke
ba
siz@@
ama
abang@@
elo
also
make
work
IS@@
se
khul@@
od@@
alo
many
ti@@
qu@@
ance
been
should
azi
isi
ex@@
abal@@
could
athi
itsh@@
way
if
iBhayibhili
for@@
ess
labo
indlela
bay@@
kuz@@
When
lapho
yi@@
eke
abo
kuhle
Ab@@
par@@
baz@@
It
Lokhu
U
others
x@@
ally
ter@@
ze
ezin@@
ali
UJehova
Paul
kwenza
need
even
things
usa
23
bakhe
Why
comm@@
other
Kuyini
iy@@
Kingdom
p
int@@
yoku@@
up
sp@@
ngesikhathi
ence
ons
ond@@
John
siy@@
m
sibili
Lanxa
sis@@
world
soku@@
faith
oni
Yikho
ah
V@@
19@@
kaJehova
ehl@@
akho
But
uk@@
ations
th
ef@@
amb@@
kuy@@
ely
ya
example
lokho
h
ne@@
ili
Read
en
T
For
no
est
umsebenzi
lab@@
ngenxa
Bala
okwa@@
earth
we@@
enze
res@@
its
akwenza
wab@@
any@@
bal@@
la
ikh@@
und@@
funa
thanda
di@@
pre@@
end
If
than
iph@@
ukuba
]
[
she
isikhathi
age
day
As
d
spiritual
khuluma
TH@@
there
IN@@
ith@@
de@@
laye
con@@
ok@@
uM@@
UJesu
Th@@
yo
28
ka
ch@@
man
ekh@@
uka
ment
Christians
aq@@
enz@@
25
Kanti
thi
ir@@
6@@
emp@@
Christian
ful
They
see
hi@@
UM@@
yikuthi
5@@
njeng@@
sib@@
years
said
iso
ezing@@
wam@@
children
izin@@
per@@
kwam@@
Ngokwesibonelo
come
las@@
ukul@@
ubu@@
You
because
no@@
wakhe
congregation
ig@@
ter
okhu
yiku@@
take
like
family
elwe
bes@@
first
EN@@
pl@@
mis@@
eka
anda
use
war@@
abanengi
okw@@
IBhayibhili
ty
Q@@
wor@@
lis@@
konke
AN@@
utsh@@
uph@@
give
ngu@@
ered
*
rem@@
hle
kus@@
ess@@
Ngakho
Kungani
ous
off@@
must
made
Y
aban@@
bonke
ant
lam@@
elela
ary
so@@
ning
ngokuthi
these
ra@@
over
esing@@
amaKhristu
This
lu@@
says
ES@@
emi@@
etha
kube
su@@
fund@@
ings
Hubo
ure
wonke
amandla
pha@@
inc@@
eg@@
fi@@
bus@@
cho@@
Christ
uc@@
Am@@
ngum@@
gr@@
ents
ves
iqiniso
za
ngam@@
te
bona
alela
c
phakathi
qond@@
ch
Israyeli
sim@@
know
izwa
ina
brothers
might
nje
hlo@@
which
In@@
ezinye
Matt
being
Mat
lal@@
lanxa
okung@@
ngom@@
sin@@
KU@@
kuJehova
att@@
ukwenza
ON@@
ice
ity
bel@@
just
sur@@
yonke
asinceda
That
30
untu
ear@@
EL@@
phila
only
lesi
Witnesses
spirit
Satan
ness
own
car@@
27
uhl@@
1-@@
ain
ver@@
uthi
eph@@
qin@@
aka
new
wayeng@@
ali@@
7@@
Rom
ality
esithi
ake
times
enzakala
kunjalo
andla
hlala
onke
imp@@
ones
har@@
obu@@
ama@@
26
esil@@
tshengisa
ved
khonza
AL@@
heart
ene
khulu
20@@
wal@@
awo
show
akw@@
any
izim@@
become
2@@
king
feel
And
now
IL@@
ukh@@
bo@@
ebenza
person
ngi@@
co@@
kuphela
elanga
words
inye
after
uku
UL@@
emb@@
umb@@
ezulwini
qala
uli
woku@@
zi
ying
true
ep@@
lezi
tions
29
com@@
ngab@@
tri@@
ayi@@
pri@@
abanga
wethu
used
kum@@
THE
Bhayibhili
then
death
hamb@@
he@@
lang@@
ding
dala
before
ba@@
name
uPhawuli
the@@
ther
ever
Kumele
mb@@
yo@@
No@@
ezinhle
omunye
gu@@
als
yikho
ase@@
tive
hamba
ngendlela
go@@
ks
cre@@
funda
ize
Heb
ref@@
UKU@@
ce
enziwa
33
enzani
ezinengi
ekela
beng@@
likaNkulunkulu
thola
koku@@
Word
ering
IZ@@
bas@@
faithful
each
wayo
vi@@
kaJesu
uma
parents
well
eBhayibhilini
yokuthi
po@@
enelisa
bakh@@
akhul@@
AB@@
Sing@@
hlaba
engu
engi
yethu
8@@
gi@@
Do
amazwi
pr@@
HA@@
ating
mo@@
bek@@
fu@@
read
dr@@
31
cedisa
abas@@
ght
bath@@
Luke
ci@@
consider
abh@@
dec@@
Ku@@
fa
hu@@
Ps
ebandleni
imi
phi
sel@@
iwa
bh@@
learn
x
important
umela
fundisa
eminyaka
through
aze
kho
abazalwane
ethu
anye
bam@@
pe@@
ue
keep
bakaJehova
Im@@
ngo
ies
wan@@
sic@@
zim@@
eleyo
most
To
uba
Acts
Iz@@
Tim
alis@@
why
very
great
Ngemva
US@@
ban@@
Re@@
ling@@
David
sh@@
told
32
ati@@
am
lem@@
themba
izwe
pres@@
ye
iya
Kh@@
rec@@
ced@@
enti@@
another
esib@@
ou@@
hlobo
okumele
act
low@@
okuthiwa
ned
ris@@
happ@@
aba@@
od
truth
abaz@@
ited
kuye
sibe
NG@@
cr@@
fac@@
over@@
usi@@
ge
aye@@
wayes@@
Joh
des@@
ukuz@@
enu
ule
reg@@
old
esikhathi
IM@@
zakhe
r
today
men
much
elayo
part
sion
Isaya
akuba
find
abazali
waye@@
4@@
ere
ezim@@
ay
les
rel@@
ena
anc@@
athu
lesi@@
two
ebenzisa
el
atha
right
Abanye
kwakhe
afund@@
ono
go
labantu
ulo
serve
UN@@
Abantu
IK@@
get
te@@
lez@@
apostle
atshengisa
oya
oko@@
do@@
inda
thing
etsh@@
ministry
found
ink@@
AR@@
wisisa
ish
34
khol@@
ume
hlupho
So
lithi
UNkulunkulu
qakathekileyo
0
ezis@@
iza
ol
cwele
wabo
Cor
LO@@
bi
37
9@@
young
led
abakh@@
ates
appro@@
cor@@
tshela
ngen@@
olu@@
ry
However
isayo
khon@@
fir@@
tic@@
ect
view
Je@@
ened
ver
lula
sha@@
qhubeka
uny@@
ug@@
angi@@
indaba
ways
Peter
umhlaba
where
izikhathi
ola
endulo
gh@@
mind
though
dl@@
enzak@@
00
Kul@@
cha@@
Roma
say
human
yay@@
oz@@
ohl@@
Khor
inter@@
okh@@
sec@@
One
eyay@@
want
ukub@@
Ung@@
Zaga
abantwana
w
eza
against
jalo
ily
means
35
Psalm
ziz@@
ER
study
tshumayela
doing
zethu
les@@
lobu@@
gq@@
ukuphila
ite
tha
article
ukela
usi
Father
ukun@@
place
ase
ER@@
fully
olo@@
kuNkulunkulu
eleni
anisa
Kwa@@
fe@@
qakatheke
ds
nzima
thando
et
izindaba
ngez@@
our@@
set
acc@@
same
ngabantu
preaching
bac@@
live
med@@
wo
cont@@
ithi
L
let
bahl@@
After
umo
umbula
lakhe
ilo
course
uza
ast
thetho
worship
future
Matthew
wise
amab@@
ide
qakathekisa
ole
ently
put
never
lob@@
labanye
given
was@@
oy@@
clo@@
khathi
disciples
ngal@@
ained
ving
ukuzi@@
lib@@
alisa
ak
akwazi
son
elani
ourselves
eduze
Some
yena
ukuth@@
wo@@
ade
rep@@
wis@@
ans
lic@@
40
vela
abona
humans
3@@
kungani
red
oFakazi
ulu
See
owa@@
service
Omunye
himself
lamuhla
str@@
ING
iswe
Sathane
akhe
Scriptures
fan@@
mayelana
edwa
thand@@
out@@
Kuy@@
gro@@
elana
cina
sikh@@
imisebenzi
elithi
ani@@
vu
tsha
cono
ut
tly
aza
ad
sonke
ond
tor@@
elele
Ez@@
eM@@
coun@@
Ama@@
anya
expl@@
ku
news
Mbuso
khuthaza
felt
gave
oba
ic
to@@
ank@@
iwe
isisa
alung@@
sig@@
sebenzisa
OF
servants
yakho
jo@@
ach
ike
AM@@
Be@@
ship
uS@@
adv@@
peace
kuth@@
try
ebh@@
abangane
King
ws
Moses
kholwa
ask
pos@@
alwa
thembekileyo
de
okwenza
En@@
ple
0@@
atshela
ELA
ial
anointed
kazange
Tr@@
olo
every
ked
form@@
No
onga
leli
okunengi
esi
later
itshengisa
during
lim@@
anzelela
AK@@
RE@@
45
nguye
ngu
ange
ahlala
wrote
kuyini
ters
wenza
By
ukholo
ngalokho
away
ther@@
Prov
Jesu
aqalisa
hope
star@@
g
oway@@
Khangela
days
kulung@@
ImiSeb
phath@@
hath@@
zabo
theth@@
phela
ition
hum@@
ard
D
At
tice
andela
itsho
kwazi
ant@@
unye
der
inv@@
kom@@
holy
prayer
giving
book
too
wakho
ong
zing@@
under
10@@
ukw@@
PH@@
athand@@
indoda
fo@@
izo
An@@
fore@@
whom
ukum@@
Is
ngane
angela
au@@
reas@@
phatha
me@@
H
iphi
hloko
res
njengoba
uml@@
wife
requ@@
long
ES
sub@@
ded
Kung@@
ezi
kun@@
marriage
waw@@
often
fa@@
ement
qed@@
ezinto
think
fellow
okuhle
elders
AY@@
ngani
ekele
zimisele
baph@@
enzayo
IT@@
ding@@
izing@@
loc@@
ezil@@
benefit
up@@
isela
tshintsh@@
ember
As@@
yom@@
isibonelo
word
kwesikhathi
lathi
brother
ia
asin@@
living
lend@@
personal
qiniso
emsebenzini
fundo
making
wel@@
isana
Em@@
Let
hliziyo
face
power
Israel
Li@@
Isi@@
br@@
kwaku@@
ee@@
ening
ages
look
helped
odwa
il
questions
azo
home
len@@
waph@@
akul@@
Ph@@
back
ethe
sebenzi
inj@@
close
enc@@
experience
Israelites
qalisa
became
osi
ibizo
lar@@
ten
babe
among
empilweni
laba
less@@
hlon@@
perfect
ulwa
ful@@
ward
always
abam@@
ility
ut@@
ot@@
ukus@@
elinye
less
phathelane
EK@@
Our
reason
challeng@@
wane
olakala
knowledge
ila
phil@@
esiku@@
yabo
Fakazi
beka
khathesi
lezi@@
est@@
tsho
id
Lo@@
nini
IB@@
hlanganiso
sal@@
hab@@
vis@@
ebantwini
child
ngakho
utho
Okunye
wang@@
century
unj@@
bethu
ipha
endula
Luk
mar@@
hand
isweni
andelayo
ikela
esiz@@
Al@@
angani
Many
Abraham
abath@@
spe@@
Mar@@
joy
began
sin
them@@
suff@@
OR@@
ill@@
still
Yet
heaven
She
qotho
wokutshumayela
Then
abafowethu
really
buza
engi@@
coming
possible
akunceda
Job
came
labodadewethu
zwa
14@@
ngemva
uSathane
39
ments
conc@@
wond@@
abafundi
utha
fact
hawu
awa@@
loNkulunkulu
point
ual
kwethu
ahla
language
uni@@
ilanga
UB@@
There
HL@@
ains
Kwabase@@
loving
Ar@@
TO
ow
ngaph@@
fun@@
Ngesikhathi
onal
Even
cabanga
Adam
comp@@
mi@@
ukudla
someone
needed
Ch@@
isib@@
tu@@
serving
ami
qinisa
kwabo
Consider
Uy@@
uzi
izwi
Un@@
ekukhonzeni
lela
oda
khuth@@
ze@@
Adamu
ukwedlula
something
Abhrahama
Gen.
inika
enkonzweni
Ind@@
Jehova
Ne@@
ands
siph@@
anz@@
38
aqhubeka
itshela
jayele
omkhulu
kungaba
Jobe
best
et@@
So@@
ences
amakh@@
tim@@
every@@
erful
without
believ@@
father
understand
result
ekile
ngang@@
fika
og@@
kukh@@
themselves
EZ@@
both
okul@@
nguNkulunkulu
zoku@@
abangela
eep
xenye
ans@@
lu
qakathek@@
uMbuso
impilo
Gen
obe@@
message
IV@@
last
ular
Siy@@
desi@@
basi@@
De@@
three
fin@@
Way@@
uzwa
His
kosi
eminengi
endl@@
okuz@@
ei@@
bala
ziy@@
loJehova
.@@
imali
ised
ir
hlola
while
Nkosi
care
WA
OKU@@
edlula
loy@@
Sam
khulunywa
Hebheru
5-@@
ities
nging@@
sizi@@
kubi
concer@@
Son
abeni
indawo
abi
eqiniso
babeng@@
fied
heavenly
anceda
sakhe
wisise
mankind
Your
yisi@@
gift
nment
xway@@
apha
thembiso
akhuluma
qondo
nceda
phak@@
together
W
bring
Jud@@
aya
umi
Pet
imi@@
isebenzisa
ulela
desire
bl@@
yi
ukukhonza
order
conf@@
wayel@@
support
gh
ame
ENZ@@
andle
kuze
inceda
purpose
eziz@@
hatshi
kulu
happy
dla
counsel
free
down
3-@@
ngiy@@
kusi@@
nguJehova
AS@@
PR@@
sihlale
atshad@@
Kw@@
wath@@
ilung@@
waba
includ@@
ously
ests
comple@@
siza
ling
teach@@
mod@@
learned
lead@@
however
itsha
With
asked
ps
axoxa
TI@@
continue
died
needs
liy@@
imibuzo
intsh@@
consid@@
ust
inga
food
Isa
Ake
mee@@
36
mil@@
meetings
ni@@
alele
goqela
EM@@
iness
ose
ures
athokoza
kwalokho
atshana
ongcwele
fowethu
athola
devel@@
esikh@@
TSH@@
assig@@
relationship
jec@@
On
eq@@
avoid
cede
⁠
esifazana
toward
ongo
kwakung@@
hard
ON
unzima
adala
ngenhliziyo
exp@@
ually
dinga
phansi
prom@@
esis@@
mon@@
ture
khosi
discus@@
New
thandaza
thile
den
share
having
hlupheka
under@@
chang@@
okuthi
ti
esono
inde
ach@@
ili@@
respect
sto@@
akumelanga
iLizwi
thr@@
otho
cul@@
ako
ign@@
ave
ansi
EB@@
und
Izi@@
yami
Yes
phamb@@
kwezinye
Kus@@
oth@@
andleni
yizi@@
abantwab@@
Isaiah
kolo
ious
ANI
uthando
eas@@
Because
ubuhlungu
My
imitate
akun@@
atsha
afika
likely
kang@@
succ@@
UPhawuli
app@@
beg@@
ikele
took
Sam@@
iki
hliziyweni
ngib@@
land
aso
ED
ubi
man@@
done
wh@@
lec@@
fic@@
thinking
umn@@
fy
kwakumele
direc@@
uko
conv@@
zo
abalandeli
umbuzo
aj@@
enelise
ind
div@@
real@@
scho@@
atho
god@@
sure
thembekile
sol@@
seb@@
wami
izimp@@
N
comes
endabeni
baptized
Ndodana
ukukh@@
pleas@@
Yi@@
Ukuze
esenza
sister
isele
ative
ufuna
bakaNkulunkulu
eB@@
50
husband
Khorinte
wayez@@
kwini
UK@@
amaz@@
babo
person@@
UD@@
bathi
themb@@
tic
ING@@
ended
bad
sisters
C.E.
ign
form
sy@@
ukuy@@
kuqakathekile
wisdom
yourself
Gal
between
Ngoku@@
iti@@
remain
Does
OM@@
ill
Rev.
essi@@
veza
gre@@
mother
abadala
anx@@
ebandla
ebenz@@
Si@@
ext@@
tiv@@
associ@@
cannot
imil@@
receive
appreci@@
izindlela
col@@
wicked
wini
enye
lives
called
joy@@
problems
cw@@
Isam
gover@@
ebo
ens
ser@@
,000
righteous
lead
cle@@
engise
ibhalo
ethile
onak@@
ined
lakho
thandazo
ized
Hez@@
ngazo
organization
answer
St@@
akan@@
hold
othi
ABAN@@
jeng@@
ner
kwenze
umoya
sas@@
otsh@@
vers@@
ancane
val@@
Phet
gener@@
2-@@
feelings
self-@@
wele
exc@@
lw@@
THI
ariya
All
all@@
amuk@@
mag@@
principles
few
knew
ngezinto
angu
ingly
nge@@
acina
isim@@
shay@@
uze
izinqumo
iny@@
efore
enjoy
phez@@
ungileyo
hon@@
year
ababe@@
side
Ngiy@@
great@@
ceda
received
angalisayo
eyes
known
C.E
siyabe
Aban@@
angal@@
cond@@
efum@@
000
pha
change
seku@@
esihle
ready
hol@@
ute
sasi@@
buil@@
Johane
Baba
woman
qualities
ingisela
decisions
yib@@
zom@@
mas@@
matter
resp@@
show@@
der@@
Phela
following
enj@@
moved
kab@@
trust
you@@
benef@@
sebe@@
early
paragr@@
kutshengisa
describ@@
friends
,@@
wazi
asoze
iziz@@
ukufunda
gives
amanga
phrofetho
thula
re
ngil@@
using
43
guid@@
tshad@@
reve@@
Those
alayo
inst@@
Jerusalema
fel@@
lawe
inted
situation
ki
IN
eS@@
Is@@
cop@@
Jerusalem
ature
believe
ingozi
aka@@
41
X@@
ef
nec@@
nor
Juda
whether
embu
Okw@@
esiy@@
K
M
inikela
42
isebenzi
gcw@@
zith@@
okho
obedi@@
kub@@
IHubo
aliseka
izinceku
isise
ah@@
inceku
rit@@
ye@@
Timothy
inengi
AT@@
44
pe
ngend@@
enzela
wana
apho
ma@@
asela
followers
Corinthians
kan@@
esikhulu
ever@@
fakazi
enzeni
better
pati@@
abay@@
bro@@
deli@@
ur
aphila
cro@@
zikaJehova
zima
pass@@
Mhlawumbe
xoxa
temp@@
AZ@@
emor@@
lezin@@
isono
owaw@@
strong
Daniel
who@@
loyal
hlangan@@
supp@@
lul@@
stud@@
are@@
intando
glo@@
esiya
senze
enga
okwenziwa
iminyaka
okukhulu
pris@@
omutsha
amanengi
jw.org
El@@
Per@@
uswa
expec@@
ED@@
okholo
body
qhubeke
lezim@@
ISA
engqondo
accep@@
tshintsha
encourag@@
okutsho
6-@@
Romans
self
ns
uleka
abako
eep@@
lalokho
different
prove
weyo
asebe@@
tshiwo
qinileyo
inkul@@
provide
uyasi@@
isipho
ication
ilosi
wrong
kay@@
law@@
wela
ukubona
Davida
ekwazi
fulfill@@
atshumay@@
jus@@
pur@@
tre@@
ancient
AKH@@
ubuhlobo
Eng@@
uyabe
JEHOVA
promise
AND@@
These
ham@@
Njengoba
esinye
angana
onto
examples
tel@@
1914
war
ezazi@@
osi@@
endaweni
head
follow
ens@@
hostoli
dev@@
enziwe
saw
ste@@
ek
ukuhl@@
hor@@
ngubani
kindness
busa
Ac@@
From
abantwababo
xox@@
sheep
mean
ost
apostles
umba
HO@@
turn
esibili
cin@@
question
position
answ@@
anj@@
special
Indlela
system
ezimbi
Uthi
ngamandla
eleminyaka
angel@@
foc@@
Lord
auth@@
sibone
reading
enzo
amath@@
ical
ithuba
iseluleko
esebenzisa
World
phostoli
kind
ough
Umphostoli
ima
na
itness
Lukha
Thus
athaz@@
Nkulunkulu
iw@@
anayo
tter
Sar@@
Esi@@
ept
oze
AC@@
LE
continu@@
ngem@@
oMbuso
ambulo
abathanda
ransom
UR@@
uleko
Thimothi
shi@@
teaching
present
allow@@
jay@@
layo
ube
mor@@
house
tes
abap@@
long@@
Who
eful
izibusiso
her@@
pray
blessings
takes
slave
alise
lil@@
esaba
phel@@
thokozisa
Revelation
taking
milli@@
arly
ending
ack
ven@@
rul@@
8-@@
esibindi
control
Imi@@
izimiso
46
move
uhlane
members
abaf@@
real
transl@@
iNkosi
enel@@
st
nation
Ngo
esim@@
speak
im
responsib@@
tur@@
zil@@
EMB@@
Bab@@
Es@@
ded@@
ain@@
ngiz@@
wabhala
hel@@
zimisela
spiritually
judg@@
xoxe
eki
UMathewu
abanceda
esasi@@
sokuthi
sika@@
kheth@@
ately
appo@@
Par@@
okuthile
isibusiso
city
kwaba
zabantu
fiso
7-@@
ple@@
Although
again
alwane
resurrection
number
ould
stri@@
recogn@@
phayona
funi
visi@@
ines
Con@@
cane
Yiziphi
Pha@@
eG@@
satis@@
little
def@@
iv@@
lak@@
yesi@@
Uz@@
Ex@@
asi
aking
ass@@
cla@@
Siz@@
kwez@@
Lapho
Joseph
utshwana
especially
watshela
asisiza
left
Of
erved
exis@@
sho@@
zikaNkulunkulu
ish@@
nations
ngezi@@
esihlokweni
hulumende
Rather
circumstances
ls
oke
Jakhobe
thus
uDavida
ngaphi
athewu
ority
pp@@
ENI
imikh@@
elis@@
hlakanipha
uke
wase@@
aphinda
Can
uMosi
akhol@@
ital
certain
next
pho
INI
wena
Mark
ants
makes
daugh@@
adewethu
ekutshumayeleni
exerc@@
2017
fine
tell
wala
cabang@@
azwe
iting
loved
ahluko
material
Proverbs
imihlangano
influ@@
lalela
umbu@@
wanted
publish@@
beke
abafileyo
Eph
forever
Efe
cap@@
pression
teach
Gi@@
enxa
cac@@
eny@@
akala
KW@@
leqiniso
mir@@
aye
liz@@
enk@@
attitude
ikakhulu
akwenzayo
z
angele
gy
instruc@@
suku
pow@@
James
attention
neigh@@
look@@
akubona
ject
Mo@@
AN
conduct
baka@@
okozo
afunda
affec@@
emuli
draw
lokuqala
sesi@@
cause
ekayo
elal@@
lokun@@
phambi
odana
Asi@@
serv@@
IS
far
crip@@
thought
off
UZ@@
Ngal@@
thoko@@
ibh@@
inspired
Akuthandabuzwa
appreciation
ory
add@@
occ@@
asis@@
ben@@
ace
lan@@
umkh@@
promises
ukukwenza
abhath@@
phe
Bro@@
truly
ngeke
elizweni
JEHOVAH
involved
onom@@
obuhle
imag@@
agcw@@
cou@@
tory
vid@@
ors
uring
went
abahl@@
pioneer
posi@@
apply
wr@@
othile
greater
s.
ayes@@
qeqetsh@@
ko
cabangisisa
ability
everlasting
du@@
going
izind@@
sense
arri@@
Noah
Elij@@
angels
gad@@
married
uthaza
discipline
bani
clear
anger
immor@@
Wathi
kunzima
difficult
ayezo
actions
wakhuluma
isebenz@@
ulimi
saying
Genesis
Se@@
aining
bonelo
pol@@
aman@@
individuals
Jews
understanding
pray@@
amabhuku
ukuhlala
ukuph@@
amaJuda
Phetro
ath
khathini
amanye
okunye
ayeku@@
eL@@
gg@@
esifiso
la@@
Pe@@
ron@@
kusukela
increas@@
OUR
ibhalweni
ularly
hlangana
Amazwi
ngaye
yet
including
grou@@
akhanya
kwabantu
lami
Lev@@
ingilosi
United
May
privilege
Holy
uphi
babe@@
ezind@@
ians
eseb@@
practical
fanele
matters
anti
fam@@
HE@@
uye
umay@@
provid@@
Abaz@@
pressed
ibhithe
Ukuba
zimba
ngis@@
bazi@@
TR@@
emhl@@
thembisa
pic@@
peri@@
plac@@
verse
anje
andaba
umzalwane
soon
adise
2016
ties
hluph@@
arrang@@
wake
prayers
friend@@
past
yin@@
doubt
iseka
engisa
ezaz@@
dali
bad@@
ANG@@
OU@@
iyo
indele
turned
Genesisi
Law
amag@@
Egyp@@
ezitshiyeneyo
tend@@
gain
since
lood
elane
emo@@
case
ayeng@@
uzi@@
siv@@
mentioned
mat@@
anyeli
experienced
pite
Com@@
exam@@
unity
njengo@@
helps
abaku@@
okubi
alanga
iye
abul@@
his@@
eless
sem@@
illustration
zokucina
shows
sed
qabayokulinda
Hebrew
lear@@
ehluk@@
thina
until
stand
ngalesosikhathi
WE@@
lish@@
B.@@
tribulation
action
ehlala
iweyo
UJohane
imuli
AND
iety
amazwe
4-@@
around
prop@@
azweni
om
beli@@
elil@@
lose
YE
similar
emz@@
seng@@
full
nyaka
umelele
ested
aph
haza
tal@@
fru@@
ngamunye
kal@@
Yini
cedise
IZINGOMA
religious
cela
sithi
money
thy
adayisi
Eva
half
Are
protec@@
zis@@
iMibhalo
Josefa
account
Ecc@@
taught
Today
thethelela
iyeneyo
Ngang@@
brought
kutsho
Khathesi
ident
akhona
hlawulo
lazo
yil@@
lwethu
vumelwano
pra@@
amadoda
ok
emib@@
ethemba
ngesi@@
akwenzakala
cer@@
uri@@
Creator
thoughts
ached
okweminyaka
ungu
assis@@
promised
Baby@@
fav@@
ezwa
strengthen
prophet
alala
yiyo
honor
ekeni
served
Instead
lokholo
ort
ahle
sacrifice
ree
lutho
alwe
friend
andlul@@
wish
Jer@@
thande
azange
olobho
evidence
writ@@
qakathekile
field
anzi
abagcotshiweyo
leg@@
allow
akhulu
bre@@
abange
ukufa
ibhuku
Devil
trav@@
ndawonye
ented
Scriptural
oned
efforts
vikela
tom@@
issue
provided
phrofethi
abav@@
occasi@@
buso
habhiloni
funde
themp@@
ATH@@
kusiya
rule
decision
afuna
afan@@
ezint@@
Lathi
fe
events
willing
ayensi
sing
izindawo
akazi
invol@@
indic@@
Kwezinye
serious
Watchtower
fles@@
preach
humb@@
aken
illustr@@
strength
mer@@
IND@@
wants
por@@
ebenzise
uPhetro
pione@@
sive
nguJesu
akekela
WE
Yise
sizo
Philipp@@
ring
vuma
Will
emezeli
ulwazi
ekhaya
olobheni
ukwazi
aqhu@@
resurrec@@
accept
ey
Kungenzakala
fundisani
indodana
kha
benze
ged
watshengisa
fundiso
physical
eside
e.
HIL@@
tshenziswa
Umuntu
pub@@
comfort
contr@@
women
twana
200@@
ebenzi
resul@@
maintain
got
uduza
ous@@
kami
itical
kangaka
sihl@@
SI@@
perhaps
ehlo
OL@@
wi@@
born
asil@@
health
ince
Like
seen
thelo
uq@@
ove
lies
Loba
inyakeni
wakh@@
khathazeka
okungapheliyo
ental
nsuku
akuz@@
ibe
respond
amthanda
SONGS
ru@@
itha
whole
uses
onzo
AG@@
meaning
training
ca@@
fort
ij@@
heart@@
once
inyane
lect
okheli
amukela
upha
ible
Inde@@
ngas@@
ezela
isikh@@
stand@@
demonstr@@
appe@@
remember
sith@@
kwakho
ibuzo
talk
phamban@@
Ther@@
appear@@
ont@@
shepher@@
rather
BIBLE
emacansini
While
gcweleyo
return
mina
reason@@
uthole
fal@@
itate
faith@@
showed
conven@@
ngokw@@
|
trib@@
imithetho
recor@@
press@@
afa
interest
umz@@
ese@@
Wor@@
kwakul@@
religi@@
ubus@@
48
UNKULU
akhel@@
encouragement
hayona
temple
onda
hlakaniph@@
accompl@@
covenant
ches
available
courag@@
esizayo
grat@@
bami
eat
gar@@
light
wom@@
anyone
alls
VE
ore
Oku@@
Tho@@
Fil@@
ibala
ibandla
kwakuz@@
kubo
abangu
Mary
working
angelele
tsho@@
States
qa
ebona
Greek
ezinsuku
Kambe
tivate
nothing
OB@@
determined
hlatsh@@
ide@@
uel
kulo
kufanele
lomuntu
sion@@
amad@@
waku@@
prophecy
states
sent
compas@@
dead
zweni
obe
amba
2015
pain
freedom
Fr@@
direction
amaph@@
icabango
ustr@@
Such
amav@@
named
ems
alon@@
YO@@
afundi
kungelani
valu@@
isithi
ngol@@
chap@@
four
bor@@
kasi@@
uhle
amuhla
ths
ished
ukusebenzisa
val
regarding
opportunity
fanana
with@@
baptism
nor@@
ech
sithole
inds
oug@@
kuyo
shor@@
kusas@@
itions
ethi
ulini
sons
hlangano
kuzo
emihlanganweni
vo@@
ezindaweni
Lamuhla
onile
iS@@
thandayo
well-@@
um
ezimbili
small
confidence
UNG@@
abasakhulayo
house@@
gen@@
congreg@@
TU
ainly
overse@@
vuswa
grow@@
lolu
ices
angeli
HOW
ites
UG@@
ugu
written
water
eN@@
abaph@@
quic@@
ink
senelise
standards
hands
wid@@
haphathizwa
Still
ELE
alty
buy@@
55
vir@@
The@@
azini
pers@@
bekezela
Joshu@@
courage
fes@@
olun@@
umvuzo
asiza
respon@@
isiz@@
Eno@@
lud@@
wuphi
wadi
progr@@
ayel@@
sen@@
fri@@
fanekiso
ecu@@
list@@
EC@@
aphamb@@
utsha
azwi
oma
helping
destro@@
Nd@@
fec@@
ezintweni
pho@@
thokoza
edly
world@@
ets
andi
199@@
relati@@
okuqala
dalwa
lit@@
spr@@
wic@@
da@@
speci@@
ilities
rup@@
distr@@
ire
table
Pr@@
som@@
heard
earthly
elam@@
KUL@@
effec@@
hakathi
wisana
ulek@@
sa@@
isiwe
ubunzima
FOR
GOD
sifuna
reat@@
sacrific@@
okum@@
kill@@
refer@@
reli@@
antshintsha
esosikhathi
build
op
anzelele
lawo
information
inqumo
hly
azama
UmTsh@@
harmon@@
hearts
lomkakhe
kakhe
law
elder
funayo
sex@@
wat@@
iling@@
hlokweni
lon@@
asing@@
night
qinise
On@@
velo
conscience
Did
asebenza
othando
based
prepar@@
viol@@
HAYIB@@
righteousness
activities
okwaku@@
okokuthi
alokho
Col@@
lov@@
Be
dom@@
umtshado
abela
rain
effect
Eve
umzekeliso
blessing
contrib@@
deal
clearly
produc@@
play
ATI@@
qoba
bir@@
affect
slav@@
vum@@
Roman
jud@@
outh
isile
umama
umntan@@
lost
Wolu
public
orig@@
ababeng@@
simply
eze
hil@@
iah
worshippers
umbule
umntwana
Pro@@
iko
precious
view@@
some@@
sid@@
ekuqaliseni
ayez@@
em
sm@@
Kho@@
Gre@@
esses
cert@@
streng@@
l-@@
tshumay@@
agcotshiweyo
akhulayo
hlungu
cus@@
va
isani
Chris@@
of@@
Ad@@
feel@@
ople
Phawuli
f
umele
lik@@
cent@@
okuth@@
ubani
ekeliso
standing
ansl@@
proph@@
ile@@
Jos@@
indi
Jo@@
–
ail@@
priv@@
ders
encour@@
Hebre@@
ome
sible
owethu
aga
ply
itu@@
dem@@
qhu@@
thers
ext
iri@@
uly
okun@@
—@@
tw@@
prot@@
ater
min@@
use@@
self@@
ny@@
kno@@
heal@@
sci@@
P
langu@@
:@@
ando
tures
tle
hear@@
hay@@
know@@
call@@
sac@@
ozi
thandab@@
Eli@@
erc@@
minis@@
unywa
righ@@
khath@@
heaven@@
zisa
igh@@
ekel@@
ff@@
wad@@
ew@@
aul
ema
enziswa
khathaz@@
struc@@
dre@@
accoun@@
read@@
organiz@@
hlang@@
fill@@
Aku@@
ety
esif@@
ambe
low
w.@@
sebenz@@
enkon@@
soci@@
fore
athe@@
wu
year@@
uzo
follow@@
ower
ord
Dev@@
practic@@
artic@@
Wh@@
aching
activ@@
kholo
qon@@
spec@@
ought
bec@@
experi@@
haps
princi@@
ImiS@@
beth@@
azana
circ@@
situ@@
learly
hak@@
R
athoko@@
kulunkulu
prac@@
bap@@
ances
esibonelo
khonz@@
ism
ays
individ@@
tshado
aying
spir@@
eyo
uth
ung
fre@@
bless@@
kind@@
itude
ft
ody
help@@
Wat@@
will@@
import@@
munye
ceku
SH@@
pec@@
ith
int
tsha@@
GO@@
ort@@
enzi@@
itn@@
differ@@
Jeho@@
hlawumbe
spiritu@@
oli
Lizwi
maint@@
recei@@
Yo@@
ult
▪
V
ples
ises
gn@@
izweni
pi@@
Isa@@
opport@@
umbe
deter@@
anci@@
duc@@
yp@@
ingdom
goq@@
apheliyo
ese
•
eve
ayelana
enced
rev@@
Rom@@
B
tro@@
cour@@
mater@@
Lu@@
andeli
eqetsh@@
xo@@
tan@@
twini
hala
Bhayibhilini
UNKUL@@
ade@@
diff@@
Njeng@@
crib@@
disci@@
arding
ames
need@@
opp@@
mean@@
v
arr@@
bo
worshipp@@
sl@@
empil@@
Phil@@
stead
earth@@
ost@@
issu@@
shipp@@
La@@
OR
Do@@
compl@@
ention
busiso
JE@@
consci@@
eban@@
abhuku
Joh@@
oub@@
è@@
hal@@
xa
diffic@@
knowled@@
ques@@
uld
alweni
eld
Tsh@@
haphath@@
him@@
doub@@
phrofeth@@
>
lasting
pose
ubo
Israel@@
eneyo
inf@@
elwano
determin@@
thembek@@
ew
itnesses
Kwab@@
apost@@
amu
ano@@
Jehov@@
ONG@@
Christi@@
tu
Mos@@
nj@@
fee@@
physic@@
’@@
akum@@
contro@@
eluleko
usiso
nd@@
host@@
inspir@@
uch
ray@@
eku
Abh@@
agco@@
dren
onelo
agr@@
husb@@
fethi
emez@@
F
Tim@@
Bec@@
avo@@
icabang@@
ankind
ather
one@@
ards
inyaka
chil@@
prophec@@
hat
eb
led@@
vuzo
een
G
reco@@
ude
awonye
ially
conduc@@
eliyo
ury
heav@@
C
Gen@@
atsha@@
andl@@
augh@@
aweni
discipl@@
tshiweyo
khe
ghts
Corin@@
nam@@
ven
tural
ʹ@@
iM@@
bs
alities
relation@@
ulation
é@@
gan@@
thin@@
Scrip@@
decisi@@
qalis@@
qaliseni
Jes@@
­
haw@@
ousness
é
inform@@
contin@@
phrof@@
elwan@@
ich
aught
irit
numb@@
odadewethu
forts
Cor@@
ende
Ngokw@@
simil@@
í@@
sel
mess@@
epher@@
hul@@
circum@@
raw
rip@@
ezitsh@@
aniel
embers
thandabuzwa
/
khonzeni
ida
·
akes
ganiz@@
ó@@
thou@@
evel@@
·@@
Phili@@
marri@@
hithe
sat@@
ld@@
dom
phy@@
indi@@
preci@@
tism
emva
olu
hile
Af@@
Rev@@
inte
lic
irc@@
ause
ucc@@
AH
ô@@
til
circumst@@
ound
can@@
ö@@
Khor@@
Mat@@
ulwini
Ep@@
your@@
kweni
uals
hlaw@@
inci@@
ü@@
fol@@
selves
Okun@@
salm
Sat@@
hlanganweni
qumo
wi
usb@@
ezimb@@
khu
Abraha@@
tings
tshi
Bhayib@@
Dav@@
q
$
emac@@
osikhathi
raha@@
Hol@@
ether
eph
ã@@
IZING@@
Sath@@
ld
á@@
IBLE
X
demon@@
HAY@@
coven@@
tiz@@
É@@
how@@
ekiso
OMA
blems
stem
J
ñ@@
alisayo
ething
baptiz@@
othy
lave
kulun@@
menti@@
ʹ
ׁ
usal@@
ainst
&
נ@@
פ@@
alleng@@
ש@@
­@@
atters
Yizi@@
edom
cc@@
fect
®
%
ł@@
©
ה@@
hlakan@@
Watch@@
Creat@@
Matthe@@
hris@@
fice
umende
sebenzini
efa
righte@@
‛
Ş@@
ʼ@@
shu@@
avail@@
æ@@
Corinth@@
E.
tower
ansom
abantw@@
ł
espec@@
Jerusal@@
μ@@
tween
ה
ä@@
akeni
י
idence
å@@
ensi
org
Ḥ@@
Phe@@
Khris@@
urrec@@
anxa
ilege
tshumayeleni
aday@@
ï@@
°
_
j
ı@@
ç@@
Ô@@
ansini
ā@@
Eg@@
è
ş
ȯ@@
Ó@@
hama
â@@
ê@@
eru
á
akathe@@
ʼ
JEHO@@
ו@@
י@@
ī
ū
ú@@
Z
imothi
phro@@
Heb@@
okulinda
;@@
Phaw@@
Hebh@@
hayib@@
‘@@
í
ONGS
Isra@@
Jakh@@
ó
ʺ
greg@@
sider
wro@@
verbs
habhil@@
onye
