<unk>
<pad>
<s>
</s>
,
.
o
ku
mu
a
the
:
to
ni
ia
ua
?
of
and
)
(
“
”
kia
-
in
that
’
O
tu
s
ki
kuila
—
Jihova
we
Jehovah
i
u
is
Nzambi
dia
1
phala
God
di
athu
for
ka
ku@@
nda
his
kala
2
you
tena
be
not
he
I
kua
;
Mu
ed
on
will
kiki
was
u@@
us
bhanga
kexile
di@@
with
ima
as
3
I@@
tua
have
it
S@@
are
i@@
t@@
ene
4
our
A@@
can
‘
Jezú
tokala
ja
ing
Jesus
5
or
Bibidia
do
s@@
6
The
se
they
muéne
kuatekesa
kioso
ioso
a@@
ki@@
E@@
e@@
es
from
Bible
who
what
l@@
bhana
7
p@@
What
!
c@@
in@@
mukonda
8
12
11
M@@
ué
mba
9
10
P@@
their
re@@
15
him
nga
A
about
people
d@@
muthu
K@@
all
U@@
by
an
n@@
al
m@@
al@@
w@@
ma@@
T@@
b@@
y@@
ngi
Maji
f@@
13
kiambote
this
H@@
lungu
14
them
dingi
o@@
muene
C@@
kidi
one
had
longa
t
17
r@@
when
at
mu@@
er
did
an@@
16
D@@
your
Mukonda
k@@
were
mundu
would
zuela
ixi
How
ukexilu
B@@
ar@@
L@@
g@@
kima
ji@@
su@@
íii
er@@
e
ji
help
muenhu
F@@
18
kiavulu
W@@
uê
oso
st@@
y
In
Ihi
tu@@
has
N@@
how
b
ala
ngó
mona
ers
ele
h@@
my
ate
G@@
We
en@@
Kiebhi
iê
maji
un@@
19
Kioso
so
kuijiia
bh@@
He
life
me
O@@
time
-@@
bhu
as@@
ac@@
R@@
Muéne
at@@
il@@
20
maka
londekesa
may
j@@
mesena
those
it@@
milongi
more
ation
ent
bhange
ela
or@@
bhita
ng@@
akua
henda
ly
th@@
es@@
on@@
wa
kithangana
Se
uambe
J@@
ri@@
1@@
but
ol@@
v@@
jiphange
el@@
diahi
kiebhi
z@@
mukuá
ho@@
But
love
kilunga
also
E
ad@@
her
24
good
divulu
ts
kubhanga
bhangesa
iavulu
make
l
dis@@
con@@
things
many
21
way
When
is@@
if
am@@
iú
ab@@
iibha
some
esa
U
akexile
could
ietu
V@@
m
mb@@
avulu
ra@@
mivu
de
22
ue
does
anga
need
should
de@@
kiá
Paul
able
uoso
ted
Jikidistá
le@@
enu
out
nzumbi
others
etu
sa@@
work
Phaulu
even
se@@
Tanga
ul@@
said
It
muxima
ya
kikalakalu
dikota
[
]
xikina
n
kukala
uetu
example
because
23
ihi
been
ur@@
iambote
im@@
ated
world
d
ec@@
lu@@
kaxi
eji
other
k
ang@@
Why
For
muvu
faith
kála
ve
phangu
John
’@@
tambula
Read
ka@@
Ene
there
kifika
end@@
thembu
pro@@
They
If
know
mon@@
than
earth
fu@@
ta
ex@@
ph@@
be@@
ana
muiji
dianga
ting
she
such
ment
Utuminu
ti@@
mateka
eie
see
par@@
sp@@
th
li@@
ithangana
ma
iâ
lo@@
os@@
kaiela
family
mesenene
x@@
day
S
izuua
no
kota
ding
ity
years
19@@
man
for@@
res@@
Tua
up
ance
king
Kingdom
si@@
says
28
langa
kizuua
Mu@@
á
5@@
Christians
ally
Nga
must
Saí
mono
ine
like
Ku
Ki@@
tr@@
these
This
*
kuma
first
Izalaiele
spirit
kixikanu
brothers
ous
Ku@@
25
ke
kiene
le
made
Nzuá
You
ro@@
ic@@
é
undu
tokalele
muhatu
Matesu
end
So
valolo
uala
Ki
ama
ujitu
iu
congregation
fi@@
very
children
mua
mukua
ded
ile
per@@
né
come
ying
ió
learn
he@@
Satanaji
kana
qu@@
soneka
its
mis@@
tanga
feel
ds
Tu
phe
Z@@
suínisa
lelu
Matthew
xinganeka
2@@
ong@@
KI@@
As
banza
Ma@@
bhiti
na
mbandu
katé
mbanza
bhingi
Satan
27
veji
av@@
IA
beta
ne@@
become
iene
njimbu
ot@@
Kristu
mi@@
Christ
katula
ukamba
ar
ou@@
vi@@
And
exile
Witnesses
EN@@
sanga
tangela
zu@@
ah
ence
jê
á@@
give
tumina
ke@@
kuzuela
pl@@
nange
pre@@
kiê
only
za
so@@
sidivisu
into
tion
ations
nguzu
KU@@
and@@
te@@
dijina
belesela
kamba
pholo
kya
ful
ag@@
we@@
vondadi
izuelu
ueji
mbote
important
Christian
T
30
kulondekesa
diulu
Kiki
saí
show
take
ce
just
eme
ant
amba
kumoxi
mê
é@@
ter@@
Jimbangi
true
xi@@
sanguluka
ess
Phala
ent@@
ite
ibhidi
ha@@
ndenge
str@@
Jisálamu
26
DI@@
over
Loma
ons
en
kalakala
keep
longo
diê
Psalm
hanji
which
est
boka
ituxi
ary
ch@@
person
uexile
nd@@
6@@
co@@
after
kididi
29
uambote
Y
That
ely
ula
kumbidila
bo@@
then
sota
ning
get
ek@@
me@@
each
wor@@
use
divua
own
led
might
want
har@@
ila
AN@@
sidivila
KU
jitata
KA@@
why
used
te
des@@
31
tra@@
bhinga
gi@@
now
hádia
diiala
ena
Peter
uene
mi
heart
much
kuia
say
33
kale
Phetele
wi@@
ear@@
being
em@@
enhá
before
Di@@
h
Y@@
ze@@
men
name
ther
times
new
ones
kikuatekesu
most
sola
words
c
phange
faithful
kudi@@
tufunga
any
ever
alu@@
dielela
ents
ngongo
itendelesu
read
ch
ves
ten@@
ks
sé
om@@
tions
cr@@
pri@@
7@@
jo@@
mo@@
BH@@
hi@@
bhangele
go@@
David
und@@
ita
uâ
olo@@
1-@@
today
el
ev@@
maxibulu
death
find
to@@
truth
uami
do@@
think
Davidi
et@@
sion
another
well
Kia
Luke
UA
serve
Do
right
told
pos@@
lungulula
8@@
jimb@@
4@@
ulu@@
javulu
div@@
us@@
ky@@
pe@@
kietu
ter
kubh@@
ON@@
makutu
spiritual
.@@
THE
kolokota
though
tuana
jixi
car@@
Nange
32
kitadi
w
ty
ked
ings
/
p
fiiele
xi
ing@@
dimi
í@@
part
hadi
Acts
kituxi
parents
ish
war@@
34
ness
moneka
elu
da
ata
ver@@
ê
Word
great
olo
als
ko
ities
mbu
am
cho@@
Sumbala
op@@
LA
ited
Kolindo
ui@@
tal@@
To
kula
Luka
two
zolo
akuetu
tre@@
ta@@
gave
ambe
jin@@
Ng@@
re
xisa
live
jimbulula
ond@@
never
ir@@
man@@
itumu
EL@@
joso
MU@@
â
kwila
zola
Father
through
tange
ating
tly
tunda
ulu
’etu
ES@@
AT@@
rel@@
gr@@
ci@@
Re@@
x
Kienhiki
vu@@
Mozé
ebhi
’ê
where
isa
IN@@
old
ambote
MU
young
jetu
zubha
kuboka
Dimatekenu
go
ob@@
madivulu
dya
sure
Genesis
study
act
idi@@
TH@@
One
20@@
37
ap@@
ect
ad
found
apostle
worship
jiselevende
However
Muene
article
dibhana
Corinthians
g
ay
3@@
35
understand
against
ha
kikanenu
jila
xila
ther@@
See
fua
la
ukaza
preaching
ry
iuka
yed
same
eka
doing
ati@@
disciples
comm@@
adi
let
bheka
uabhela
ands
wife
ande
tend@@
akuâ
tala
means
0@@
Bh@@
humans
news
ndu
holy
kutena
ó@@
ibanzelu
hama
became
kingila
ib@@
inter@@
lu
iala
ilondekesa
ulula
pres@@
solo
wrote
Kala
ved
Israel
helped
given
ale
too
ge
ates
id@@
red
sed
ua@@
ala@@
sur@@
After
son
ic
Mbalahamu
didi
ep@@
Etu
ministry
ling
zukama
wa@@
always
ected
jis@@
uka
Moses
really
ice
something
himself
tambuijila
set
suína
rec@@
tuala
min@@
fin@@
place
Kuma
ahatu
bheza
Athu
ask
servants
Romans
Be@@
peace
tendela
poxolo
ote
kidielelu
40
RE@@
still
felt
future
kuata
kui@@
Sobha
happy
human
Isaiah
Mak’â
Israelites
sol@@
tumbula
JI@@
exp@@
•
Izaia
ak@@
ú@@
du@@
over@@
elders
9@@
eng@@
Xinganeka
ahi
com@@
King
age
fully
10@@
iônge
Eme
marriage
ways
ei@@
Ikalakalu
ange
ments
Abraham
Let
book
view
mat@@
anointed
uluka
enti@@
atu
Some
Th@@
Tala
gu@@
uejiia
ver
zo@@
done
ck
dibh@@
af@@
kuene
MA@@
kw@@
iz@@
ered
every
ze
phata
ufiiele
et
anju
ourselves
someone
KA
Then
kanena
ise
Ua
au@@
Even
At
She
put
kwa
br@@
home
consider
kulu
heaven
hope
Lelu
our@@
res
lembalala
ght
TU
came
later
Né
wanted
kimoxi
14@@
word
kumona
ubhezelu
batula
lombolola
ú
fidisa
njila
brother
batizala
Is
exi
gra@@
service
Ngana
ned
tat@@
Eie
kituka
X@@
long@@
bhonza
ori@@
ere
les
kuívua
days
ge@@
during
ory
iá
Kiene
uôma
Ch@@
ola
nau
jibha
bhulula
zele
kisa
away
kieji
ality
bha
began
ubhe
wise
dec@@
olola
Timothy
Timote
inc@@
bhitile
power
look
po@@
Jisabhu
tunga
oun@@
living
mar@@
iami
io
loloka
temp@@
mind
Proverbs
learned
vutuka
course
ently
pp@@
fe@@
UL@@
Matt
often
father
IT@@
Me@@
Mar@@
Many
sin
ls
Mb@@
knew
appro@@
Revelation
back
ambela
long
ER@@
unjimu
der@@
ídifua
Dijingunuinu
makamba
kut@@
▪
kudia
sisters
tundu
inzo
tain@@
There
jâ
inv@@
MB@@
questions
kubhita
husband
hard
close
ily
ER
D
cl@@
jiji
Mat
jing@@
relationship
died
Because
ejiia
samba
Je@@
best
il
ilunga
Our
app@@
kukuatekesa
needed
ieji
sel@@
ijila
kambe
care
By
An@@
fe
ina
kazala
tri@@
Adá
So@@
kà
kusu@@
LO@@
bl@@
mil@@
ship
kizuelu
different
Ab@@
Job
century
sho@@
dy@@
ris@@
bad
ngu
sakidila
enda
Jijudé
lung@@
DI
together
serving
fac@@
ban@@
mbeji
His
kuoso
acc@@
bu@@
jingeleja
called
Adam
difficult
xitu
imp@@
mer@@
ws
beg@@
Jobe
ans
bandekesa
Tim
ast
asked
ined
mwene
ture
kilombolola
cre@@
ving
kil@@
tuene
baptized
buika
kitumu
ikalakalu
imitate
38
sa
Son
NI
teach
kieniókio
OF
Zuze
Joseph
suluka
Scriptures
sobha
ged
ue@@
strong
ain
ES
prayer
vis@@
zediua
fil@@
three
den
preach
id
ami
Lu@@
Kua
kidi@@
ixana
Jihebeleu
rul@@
uejidile
kibuka
order
last
AR@@
fo@@
kiexile
des
gui@@
benefit
39
Lo@@
iiadi
fact
ond
ects
possible
ididi
less
whom
OR@@
making
less@@
Hebrews
bhekela
kusola
ection
problems
Kála
m’ukulu
saw
tula
jinguvulu
believe
wn
musoso
purpose
continue
tumikisa
mean
kutululuka
joy
kind
ure
bhakula
bhanene
ard
45
year
reason
Eli@@
Kana
od@@
5-@@
language
iahi
down
ANG@@
xikola
without
od
ING
gh@@
difu
kit@@
mankind
hu@@
utuminu
thing
loving
mabesá
try
wicked
ikanenu
fa@@
meetings
Tata
ukunji
lusolo
ses
Ju@@
ps
ut
bhonzo
3-@@
De@@
sec@@
Ps
minzangala
Li@@
bre@@
Noah
pi@@
la@@
cannot
bhindamena
umoxi
giving
tendelesa
oxi
fir@@
cal
â@@
anc@@
pray
ors
qui@@
better
wal@@
hele
Ph@@
friends
ximana
ANA
vua
lenga
kib@@
vu
ibhuidisu
mor@@
HA@@
da@@
resp@@
zal@@
ebh@@
Daniel
jiia
twa
Jeluzaleme
Ji@@
Noué
Mikanda
themselves
My
avoid
enjoy
pe
kuíza
As@@
tundé
wants
H
uidisa
Ka@@
expres@@
gives
married
loved
wrong
no@@
kal@@
Al@@
kisangusangu
36
kene
pas@@
remain
loyal
among
change
Does
counsel
bhingile
Jerusalem
while
zo
wing
All
’â
support
lives
ko@@
bring
Pha@@
trust
hand
sata
L
mesu
follow
sal@@
00
ilombolola
ges
Kat@@
gift
kile
sub@@
disa
happ@@
pu@@
personal
ule
misoso
obey
result
Daniiele
ron@@
kubhana
free
44
ijiia
cal@@
under
kafunga
again
He@@
see@@
pa@@
lenduka
Jisá
transl@@
land
ru@@
tru@@
ths
ish@@
uhaxi
fundisa
woman
yi@@
With
wh@@
ition
vuala
41
out@@
kiâ
ai
kiônge
Tr@@
describ@@
decisions
tell
AL@@
éngi
mother
TI@@
ikola
answer
spe@@
ive
both
kuenda
experience
ain@@
went
N
Su@@
reve@@
No
r
not@@
kuala
mon’ê
ace
gn
Kol
ser@@
fellow
respect
est@@
situation
bhua
James
ix@@
kilondekesa
2-@@
Sé
ously
dimatekenu
gh
ga@@
the@@
ambata
house
ests
anu
ress
bel@@
dly
njinda
wel@@
hol@@
Jud@@
enge
gg@@
Your
zala
muène
These
lic@@
Kuila
engi
tuejiia
organization
ative
dizubhilu
receive
kuat@@
lead
Ni
ph
remember
UN@@
42
sing
xikana
angi
diu@@
matter
Yes
ukulu
took
ii@@
promise
ó
dist@@
tain
pris@@
ika
kunda
nanhi
dituna
Un@@
sc@@
IS@@
tungu
bhata
exc@@
TO
maukexilu
thought
50
ences
angu
vo@@
message
Yet
provi@@
sange
bat@@
ple
uixi
jud@@
head
an’a
whether
sumbala
pra@@
ED
knowledge
of@@
bhixila
Ar@@
Sai
,@@
ibhindamu
polondo
TU@@
gre@@
stud@@
iebhi
forever
Instead
kuê
43
Eva
ens
coun@@
city
sister
amb@@
fukununa
,000
tually
gar@@
needs
C.E.
bokona
6-@@
kuxinganeka
pati@@
tamb@@
ba
concer@@
mukanda
1914
dic@@
7-@@
AMB@@
On
kam@@
prove
hel@@
Kitumu
kibatulu
stu@@
Q@@
ilu
uana
ungana
few
qualities
DA
uni@@
ast@@
aboki
musambu
From
bless@@
ters
Law
real
known
polofeta
refu@@
food
elesa
child
Mon@@
money
ven@@
sin@@
kilu
jim@@
att@@
muanhu
mutu@@
menha
ngu@@
next
speak
katunda
fied
thinking
Ijitu
Par@@
Although
feelings
eas@@
inclu@@
mala
anda
pur@@
jit@@
Those
Mi@@
ound
king@@
ngeleja
umb@@
iness
Who
even@@
adi@@
face
Lord
tic@@
ess@@
destro@@
fy
maiala
soon
pol@@
uhete
desire
perfect
nation
Kima
mbe
ood
sha@@
left
eful
encoura@@
ON
Cor
iii
ree
eff@@
itu@@
ining
Ngi
comp@@
salu
nge
side
having
andu
apostles
Jews
masoladi
zolele
ão
s.
similar
Sa@@
nganala
8-@@
toward
taught
ING@@
IL@@
kukaiela
reg@@
jimbudi
ward
righteous
ature
got
past
kat@@
rep@@
moxi
fore@@
stay
ized
ened
resurrection
kab@@
special
talk
ikôla
pr@@
off@@
kudilonga
tululuka
between
examples
ner
cont@@
upon
sonek@@
kalunga
K.K
disa@@
ele@@
sacrifice
phang@@
HI
heavenly
promises
ibh@@
nations
willing
kukolokota
fic@@
moved
truly
direc@@
ail@@
loo@@
Kidistá
sangulukisa
rule
Pro@@
share
makes
asa
using
JIHOVA
zeka
fru@@
Tiiaku
question
ety
Mark
eyes
happened
especially
Today
attitude
women
tim@@
mixima
ind
Can
mbutu
sy@@
idi
cen@@
Efezo
MIMBU
point
misambu
self
divu
mbi
bhu@@
tenene
MA
kina
tata
ys
M
konda
ual
ism
tive
members
war
around
Devil
.000
control
fesa
aff@@
IN
Eve
devel@@
buil@@
W
shows
kela
diku@@
suffering
Consider
iting
jinguma
iele
MI@@
luua
ck@@
sai
madiuanu
worshipp@@
ist
kikutu
kifuxi
following
ransom
everything
principles
ring
cause
hu
sons
kiambe
bhia
yourself
obedi@@
sent
body
helps
however
ies
clear
gener@@
kiu
madi@@
Diabhu
kilunji
let@@
dition
⁠
ongo
jipoxolo
prophecy
RO@@
aku@@
ide@@
followers
little
madimi
ibuka
der
pic@@
gn@@
jidile
dilonga
false
izu@@
thers
jimbuete
zukutisa
KIA
deli@@
cor@@
ref@@
besoala
sheep
dile
system
promised
comfort
ten
200@@
ne
Of
kuehela
dí@@
zu
imoxi
slave
Ima
activ@@
prayers
mazunda
JEHOVAH
bro@@
St@@
ca@@
jengi
muadi
fun@@
lar@@
gro@@
consi@@
cul@@
kalu
K
hold
trib@@
SA@@
lua
ibhangelu
gin@@
honor
instruc@@
oloka
metu
mukutu
Maka
strengthen
ufôlo
ç@@
velusu
happen
endesa
kalelaku
arly
coming
takes
kukula
Le@@
No@@
adise
keji
din@@
received
ject
Con@@
certain
wisdom
going
until
iti@@
ok@@
temple
k’@@
bhang@@
showed
ly@@
ase
ancient
bhit@@
mentioned
ep
anza
courage
Muthu
real@@
yet
vers@@
cap@@
ane
kond@@
CO@@
duc@@
io@@
likely
saying
Are
account
Com@@
alu
Na@@
GE
ubheka
To@@
comes
law
4-@@
cu@@
Kidi
diela
kiala
low@@
bazela
dr@@
ome
kaza
vie@@
0
kitendelesu
ack
kufua
ell
hon@@
ind@@
wil@@
everlasting
kulungulula
immor@@
ore
kutanga
kyoso
present
kila
ites
tembulu
medit@@
pha@@
usuku
decision
heard
IS
hear@@
teaching
ejidile
kax@@
plac@@
HE@@
demon@@
luuala
ca
jimbongo
dd@@
move
ut@@
mit@@
serious
Tundé
kwatekesa
jami
lear@@
discuss
’a
ines
ement
Ephesians
muka
bala@@
anene
anyone
draw
Jeremiah
uc@@
ms
far
suua
die
muboki
are@@
difukunukinu
practic@@
born
started
thr@@
Jelemiia
information
bhidi
Ky@@
reading
anger
ist@@
ach
deep@@
fika
ef
uses
Solomon
bor@@
whole
Rom
miji
Will
Bro@@
gl@@
ofele
valu@@
jinga
kola
men@@
n’a
angels
ation@@
yoso
ambele
kindness
inga
ering
ehela
eza
ufusa
ately
accept
seem@@
shepher@@
sangulukile
ong
n’@@
allow
KALA
kata
prophet
etimes
pleas@@
verse
earth@@
46
leng@@
thandanganha
believ@@
hab@@
Samuel
lead@@
ath
efore
associ@@
ested
dima
betele
footnote
ié
anxi@@
prot@@
Bhu
off
kiahi
dev@@
tiv@@
wond@@
ached
requi@@
Did
satis@@
uile
choose
member
SONGS
nji
Like
Bo@@
religious
TR@@
sing@@
ful@@
dy
kufuá
encourage
om
sokesa
aku
bhofele
dila
atu@@
ho
comfor@@
mudiâ
bhe@@
kôla
mikanda
writ@@
uabha
ished
self-@@
sense
Prov
humble
listen
underst@@
freedom
form
Ezeki@@
Babilonha
sor@@
In@@
mw@@
stop
ak
enjo@@
than@@
dead
luual@@
crip@@
served
uku@@
ambuadi
Mulangidi
ound@@
hela
vic@@
ur
events
On@@
Marku
SE@@
NZAMBI
turn
Samuuele
privilege
opportunity
early
turned
sto@@
jindandu
ingly
inst@@
discus@@
ign@@
apply
col@@
friend
kept
righteousness
thy
compl@@
ants
milli@@
ELA
dibhata
iji
Jisa
izuela
prophe@@
explained
KI
easy
conduct
group
tele
small
meaning
ath@@
anything
tw@@
gy
iéngi
OU@@
night
nor@@
onhi
makaza
advice
hor@@
fal@@
fuama
pioneer
dedic@@
stri@@
Creator
nguvulu
attention
cla@@
OSO
Watchtower
Solomá
munzangala
feel@@
enter@@
maku
Filipe
ese
haxi
wr@@
taking
my@@
provide
affect
named
rit@@
elder
SU@@
kuiibha
esele
dikaza
yi
kuka
loy@@
ran@@
seen
akunji
Mexiia
Per@@
kusamba
Mo@@
bhonzele
kama
mul@@
viol@@
VE
tokuesa
listen@@
ple@@
hi
ombo
justice
conclu@@
determined
ota
afu
ir
alala
main@@
arri@@
paragra@@
son@@
disukilu
kuendesa
akaie@@
appreci@@
2013
mâ
kulonga
atten@@
created
bhuluka
fuma
religion
sive
clo@@
oned
erved
Ne@@
ng’@@
tur@@
endure
em
EX@@
second
nor
shi@@
ngana
dra@@
strength
elela
kuatek@@
cc@@
hist@@
itonokenu
sion@@
ô@@
48
lived
World
bhabha
fine
brought
kukalakala
clean
return
written
powerful
onge
Foto
xana
nê
dimuna
cha@@
wonderful
ital
direction
else
ns
physi@@
soko
tried
reli@@
ana@@
tion@@
65
recogn@@
2014
pione@@
LE
benef@@
material
understanding
ability
ible
ize
Egypt
eny@@
kijingu
succ@@
works
Iz@@
dietu
fav@@
kutisu
tle
New
becom@@
please
enho@@
Se@@
changes
OUR
rely
knows
four
aking
since
speci@@
desires
ienu
usu@@
Iza@@
Mary
enioso
EKESA
tells
LONG@@
near
dom@@
Tho@@
undumbu
Or
TO@@
atuameni
exer@@
People
focus
kusuluka
jiiadi
liter@@
Mon’ê
Madiia
55
Sala
answers
Hebrew
thus
Nanhi
kiaiibha
lost
you@@
sh@@
table
OT@@
tation
diami
Be
rup@@
During
covenant
sacrific@@
tic
greater
kilu@@
lies
ably
st
everyone
ented
muhatu@@
mienhu
peri@@
bhukumukina
70
ders
fri@@
bhukumu@@
kai@@
ole
ubh@@
Greek
EE@@
spoke
En@@
iaiibha
elele
iia
protect
older
Au@@
Lev@@
number
kaleia
maj@@
tumu
nothing
already
bas@@
sins
eed
Rev.
alone
ene@@
precious
thandu
Now
kuetu
serv@@
tung@@
kubelesela
arrang@@
high@@
hear
build
refer@@
Rather
ging
RI@@
ngl@@
Ubhezelu
jingijiie
mate
ists
ilongesu
xin@@
pain
ext
one@@
light
atch
expl@@
iluezu
public@@
–
bhuila
dielele
itatu
’ami
è@@
tungile
including
Ti@@
mirac@@
wer
gned
ches
ster
kolesa
Heb
ndu@@
vin@@
KUA
command@@
worl@@
kanene
ral
sia
muku@@
bus@@
tribulation
tel@@
GOD
couple
makota
Mubhangi
along
ste@@
friend@@
ians
leave
chapter
bhika
bur@@
jihanji
evu
rema@@
Just
Sarah
Gal@@
Dij
ve@@
zanga
kik@@
ann@@
kio
up@@
forgive
Thus
standards
illi@@
matters
fici@@
slav@@
dit@@
kutunga
ery
mal@@
Sam
iexile
start
compas@@
mun@@
adiakimi
zi
working
ices
izulukutu
AN
Since
kueha
oppos@@
Wor@@
spiritually
Jewish
im
elembe
Ande
zokela
imperfect
blessings
Ex@@
ose
tonginina
full
Jihe
benge
reas@@
awa@@
hur@@
Í@@
Tat’ê
perhaps
Later
asure
Á@@
glory
Pet
izuatu
dikila
kusidivila
thoughts
f
remin@@
HOW
regar@@
health
AC@@
eke
appear@@
loves
ening
neigh@@
ties
Jo@@
Also
sible
ju@@
Mic@@
Eu@@
9-@@
Roman
case
an’ê
Nehe@@
ern@@
emb@@
Have
tang@@
kutambula
kulu@@
Wh@@
Still
Ika
ANGA
continued
Gen.
enji
dikanga
decided
sign@@
Tu@@
pros@@
survi@@
kuzola
kubhinga
pared
school
60
difu@@
resurrected
pped
ALA
wene
Ngal@@
amanu
Betele
kingdom
once
foretold
ngala
NG@@
inspired
l-@@
recor@@
enough
sen@@
conven@@
ular
enc@@
Joshua
itical
discipline
La@@
uabh@@
closer
som@@
Ikola
helping
MBANDU
kiluezu
wide
simply
kuiuka
manhinga
hearts
languages
e.
jitu
imagine
ifuxi
actions
Phe
UNG@@
PA@@
saka
sex@@
nuka
ngene
emoti@@
mbolo
according
meeting
mon’a
Messiah
overse@@
nangenena
Dim
lot
house@@
kuxi
respon@@
Bar@@
country
sw@@
ngan@@
longer
necess@@
involved
isukidila
encouraged
rest
sumb@@
challeng@@
diskursu
grateful
val@@
success@@
Fa@@
circumstances
fic
Really
doubt
2015
responsibility
ok
sever@@
ended
Gre@@
lis@@
ndo
kind@@
urch
XI
kolo
fight
AND
bhenge
sures
ries
d.
ute
clearly
kumbi
asá
adv@@
itive
Á
kindala
offer
grow
taken
BLE
experienced
ake
Nzumbi
vutu@@
longe
199@@
conscience
enhó
ânga
beautiful
18@@
Gr@@
Would
fear
Longa
por@@
gain
rather
uidi
jip@@
Kyebhi
congregations
rebel@@
influence
ME
tolola
realize
dered
kuxikina
famili@@
ith@@
published
jimbandu
119
LE@@
deep
flo@@
exana
zw@@
luímbi
First
laws
cies
persec@@
illustr@@
ager
repres@@
kol@@
self@@
onga
kibhuidisu
faith@@
JI
ZU@@
jijidika
ongeka
sions
ani@@
ditunu
KUI@@
anha
completely
eps
vulu
fuá
SO@@
inde@@
BI@@
cy
Exodus
Kolose
fre@@
2017
WHAT
states
det@@
Tesalonika
bhaka
action
obha
kun@@
complete
motiv@@
sis@@
changed
evidence
kolokot@@
iama
m’@@
Ru@@
individuals
whose
tries
ffer
kuta
kudielela
FI@@
occasi@@
ATHU
Ngeleku
pages
ndolo
low
Inter@@
Their
occ@@
zangeleka
val
uavulu
sted
based
1-3
allowed
half
kimbadi
shor@@
get@@
dixibulu
here
Ia
lim@@
kienhiki
xikinine
ete
Ser@@
Matendelelu
kejeka
kidila
organiz@@
vision
Estados
Unidos
kin@@
dness
Juda
communic@@
Thessalon@@
cer@@
ready
sou@@
ghty
heavens
regularly
refl@@
sang@@
jina
Babylon
Jon@@
kusanguluka
ins
aled
2016
Keep
ears
inganeku
Deuteronomy
reasons
value
bir@@
imb@@
tting
jw.org
illustration
var@@
mudietu
dies
Dia
assignment
ameni
kan@@
ATI@@
ution
aia
atch@@
Sim@@
ra
muxi
Makatukilu
Think
semana
El@@
Not
prop@@
Eno@@
mes@@
explains
inher@@
Bib@@
authority
YOU
lied
adly
page
kyambote
umba
issue
TEN@@
carefully
luiji
jiya
kutendela
convinc@@
malamba
Josuué
lif@@
Nzu
Philippians
cles
field
united
US
teachings
fulfilled
daughter
mbambe
stand
Mbangi
jene
sanzala
Lembalasa
kiiadi
warning
efforts
balu@@
JE@@
flesh
sta@@
R
lose
múia
obe@@
ambu
FOR
zambi
government
thous@@
crow@@
formed
blood
kuinhi
Jacob
ile@@
kazola
ienio@@
ach@@
indic@@
prepare
examine
fu
confidence
zangala
reason@@
muala
ressed
kulenduka
futa
vula
common
mukunji
fail@@
inhi
jimbote
paze
acted
just@@
ert
accepted
hé
bhânga
While
courage@@
OTE
Dikota
verei@@
LA@@
Jakobo
tuâ
una
XI@@
kutu
kizu@@
full-time
lier
teaches
akuenu
interest
Perhaps
100
witness
Ano@@
offered
jimba
meet
appe@@
travel@@
suinisa
atala
na@@
uobhe
enemies
correc@@
resul@@
humility
water
AL
bokela
appointed
BIBIDIA
pelep@@
certainly
Lom
eat
prom@@
ame
ulondekesa
ibatulu
esu
Most
appreciate
medi@@
oti@@
uend@@
fulfil@@
invol@@
palaízu
Enu
iambe
ective
morial
large
fill
ax@@
mage
prayed
kitongoluelu
itambuijilu
Bibi@@
kaiiadi
Colossians
creation
Jisobha
ier
HO@@
Such
Ecclesiastes
eli@@
reach
Ndongixi
EBHI
natural
repor@@
fundixi
raised
zui
personality
believers
Ed@@
greatest
lund@@
forward
ious
with@@
iadi
Njimbu
gri@@
dikumbidila
iku
Bethel
iudika
produc@@
zuua
kúdia
ek
aul
eta
thandang@@
ans@@
lang@@
Jos@@
oth
effor@@
confid@@
perf@@
ni@@
The@@
regul@@
ii
Ê
ount
su
King@@
streng@@
fore
know@@
bui@@
tong@@
muna
—@@
ought
DIA
dre@@
P
kú@@
belie@@
deci@@
person@@
form@@
ey@@
imit@@
ading
differ@@
va
ust
soci@@
lembal@@
suppor@@
sim@@
Chris@@
ord
situ@@
kexilu
itic@@
star@@
fl@@
evende
ondekesa
ples
proble@@
z
trans@@
els
ulukutu
bhing@@
Scriptu@@
wed
gen@@
oin@@
tun@@
q@@
publ@@
learly
olu@@
uf@@
anzelu
anding
her@@
continu@@
enh@@
jimu
hala
accep@@
thangana
answ@@
akula
aching
righ@@
ough
diia
bhindam@@
fel@@
Tat@@
poin@@
clos@@
ê@@
Lembal@@
kitu@@
pub@@
ba@@
Isa@@
evil
kibh@@
Tim@@
É
opp@@
ijiie
magine
kala@@
follow@@
ie
Col@@
coura@@
heal@@
kumb@@
ost
struc@@
iah
Nz@@
minis@@
san@@
uidisu
idila
any@@
:@@
govern@@
grou@@
oma
jilu
sci@@
aiibha
kidistá
Zu@@
zela
ording
ende
abo@@
experi@@
ili@@
help@@
mbu@@
OS@@
mag@@
wis@@
bap@@
ála@@
stead
Mes@@
ised
inisa
Jimb@@
qual@@
isi@@
oub@@
influ@@
esp@@
Kidi@@
ffering
ken
dá
princi@@
ink
ith
xolo
ondo
mean@@
diffic@@
circu@@
evid@@
under@@
ever@@
prob@@
cle@@
xim@@
inu
alaízu
enly
éne
elelu
pow@@
itness
prin@@
sac@@
foc@@
nam@@
ène
ol
wic@@
Ú
enhu
determin@@
k’â
ages
shipp@@
vel@@
responsibil@@
ames
zeki@@
great@@
kolo@@
note
tambui@@
nei@@
eni@@
conc@@
itness@@
mudi@@
ult
mbo
ilong@@
cour@@
zed
fice
memb@@
ft
à
desi@@
Israel@@
fukun@@
him@@
kanda
heav@@
ffered
miah
visi@@
resurrec@@
sist@@
moti@@
tro@@
sting
individ@@
recei@@
itude
exam@@
atekesa
rac@@
w.@@
fam@@
ould
miia
ill
iu@@
criptu@@
spir@@
kanga
uld
DU
read@@
manh@@
mater@@
itnesses
ambu@@
lood
abhu
privile@@
ort@@
onha
besá
prac@@
Egyp@@
chool
ingan@@
thin@@
bha@@
dika
cou@@
Jehov@@
etele
oué
xima
chal@@
oung
ESA
iji@@
Is@@
inf@@
kanu
í
kalakalu
ial
|
Mos@@
anted
ear
anji
milong@@
spiritu@@
tem@@
sl@@
import@@
hatu
ree@@
care@@
cus@@
tumin@@
ew
stand@@
kuatekesu
ques@@
ghts
Ho@@
polo@@
ONG@@
yp@@
tund@@
reat@@
jimbu@@
ju
opportun@@
cond@@
ff@@
ilo@@
●
teach@@
Pe@@
whe@@
bhe
Philipp@@
inina
sue
kisang@@
enced
anci@@
sat@@
rit
xibulu
oluelu
them@@
obhe
chap@@
And@@
comple@@
trav@@
ept
zang@@
Ac@@
sok@@
asi@@
religi@@
ù
humb@@
disci@@
dge
dizu@@
isu
umbu
Do@@
conv@@
Cor@@
assign@@
apost@@
husb@@
ádia
kanenu
bati@@
angana
ekela
ances
Â
isu@@
tuna
grat@@
ã
mú@@
ò@@
É@@
she@@
NZ@@
fol@@
ness@@
Messi@@
lend@@
enha
pel@@
ukumu@@
abil@@
eu
crib@@
beles@@
eleja
doub@@
daugh@@
lasting
sib@@
thor@@
kes
uly
GO@@
allow@@
beli@@
author@@
Christi@@
temb@@
ônge
bs
dom
ffer@@
ditun@@
bes@@
usu
suín@@
consci@@
ards
Mex@@
F
tumb@@
mbolola
Mat@@
v
EK@@
ekesa
Corin@@
funga
tumi@@
every@@
bene@@
some@@
mus@@
Babyl@@
à@@
kô@@
Jez@@
elu@@
ambi
circum@@
dren
ôl@@
MBU
who@@
jijidi@@
eia
phes@@
Izala@@
commun@@
unu@@
priv@@
Nd@@
avo@@
spi@@
conduc@@
kot@@
eld
xikanu
fit
kue@@
inda@@
nee@@
gover@@
jidi@@
mies
G
wish
reci@@
usangu
band@@
disu
knowle@@
discipl@@
Jer@@
Jis@@
inspir@@
chang@@
hatu@@
ù@@
Sin@@
Jes@@
lik@@
uring
enió@@
ous@@
vice
õ@@
jind@@
augh@@
beau@@
difua
unga
ufu@@
Uni@@
hen
relation@@
cri@@
Fo@@
pher@@
AH
kon@@
fles@@
marri@@
Ô@@
ven
tendelesu
cro@@
THU
cious
Bec@@
can@@
numb@@
hete
hat
ointed
pray@@
C
ixila
FO@@
ef@@
kimb@@
mazu@@
Rev@@
Tes@@
bhind@@
erful
Bab@@
ual@@
mana
oke
hich
enhi@@
hal@@
chil@@
álamu
fukunu@@
Fili@@
aki@@
û@@
mans
ʹ@@
enena
Af@@
agra@@
etim@@
xikin@@
ousness
sidiv@@
arr@@
sm@@
amen@@
dos
Ephes@@
V
zelu
Kol@@
sage
ondadi
anhi
yl@@
onom@@
explain@@
Ke@@
kitong@@
kinu
esi@@
angenena
angidi
è
gan@@
aught
Í
B
ou
decisi@@
zumbi
congreg@@
bhon@@
Joh@@
simp@@
zol@@
isten
boki
kalele
Gen@@
formation
pose
alon@@
lustr@@
ulation
pare
Ó
>
disu@@
adiaki@@
enio@@
elevende
omen
thou@@
foot@@
indamu
ongreg@@
promis@@
ather
©
Sat@@
katu@@
Psal@@
zukut@@
evel@@
cir@@
Phili@@
diua
kno@@
til
ezu
aco@@
your@@
fuxi
sangulu@@
·
ganiz@@
dixi
Sar@@
ld
ü@@
humil@@
sibil@@
simil@@
°
sel
free@@
uter@@
ôlo
kuesa
enene
kej@@
som
․
jimbu
certain@@
Mul@@
bhangi
uô@@
beso@@
·@@
bhilu
ambui@@
uage
nec@@
ave
fukunukinu
ainst
bokon@@
J
bhangelu
xit@@
holo
mbal@@
beleu
usb@@
lit@@
Ú@@
ristu
ause
fid@@
deter@@
sacri@@
Rom@@
dif@@
kursu
Tund@@
eku
Jihe@@
Dim@@
coven@@
bapti@@
gether
ö@@
eci@@
ater
Â@@
alaí@@
exil@@
ossi@@
raham
urrec@@
raha@@
irst
iiele
Dan@@
onokenu
feta
­
Ó@@
jingu
X
itend@@
Josu@@
Pet@@
zangel@@
hova
eleku
Sol@@
$
selves
reco@@
elaku
Dav@@
divid@@
zé
suí@@
sla@@
diuanu
beauti@@
tower
Watch@@
bet@@
kur@@
eph
Nzu@@
atural
Dani@@
onomy
YO@@
uals
tury
kaie@@
dam
circumst@@
MBAN@@
Babil@@
contro@@
itambui@@
ʹ
jinda
ween
æ@@
thand@@
ppor@@
ה@@
thu
%
Dijing@@
Creat@@
Mbala@@
ysi@@
use@@
ululuka
menti@@
q
ł@@
xib@@
eniókio
נ@@
פ@@
ש@@
ã@@
ׁ
E.
oman
ה
contin@@
othy
stem
oppor@@
Ã@@
Jerusal@@
batulu
Esta@@
ʽ@@
י@@
full-@@
Jere@@
Corinth@@
stá
esis
uele
hov@@
ekenu
jingu@@
ו@@
✔
ô
À
uages
ʼ@@
ò
Samu@@
bec@@
righte@@
Revel@@
Ç@@
‘@@
anhu
EBH@@
elesu
kuí@@
Ê@@
Sumb@@
Jele@@
È@@
י
Ecclesiast@@
ý@@
000
å@@
Colossi@@
ä@@
org
ø@@
ä
&
j
Jelu@@
Tii@@
ey
tely
masol@@
Ã
hua
anaji
BIBI@@
Matthe@@
okenu
obo
š@@
apos@@
matekenu
artic@@
ongixi
thel
ì
odus
Hebre@@
ï@@
Š@@
meet@@
judé
indo
ē@@
ů@@
ibat@@
verbs
ł
+
sider
›
ì@@
tuminu
endelelu
Solom@@
Õ@@
À@@
unuinu
î@@
C.@@
hetele
clesi@@
Ì@@
HOVA
È
=
⁀@@
‚
Û@@
Efe@@
especi@@
SONG@@
HAT
Gree@@
‛
ímbi
