<unk>
<pad>
<s>
</s>
,
the
to
of
a
and
“
in
”
:
?
l@@
-
that
s@@
ukuba
i
y@@
—
n@@
is
z@@
ed
is@@
m@@
we
b@@
for
al@@
el@@
ing
i@@
’
ng@@
t@@
s
it
as@@
am@@
es@@
be
ab@@
on
in@@
as
kw@@
o
k@@
um@@
with
ul@@
em@@
e@@
he
im@@
e
en@@
you
was
his
un@@
f@@
w@@
​
il@@
on@@
are
ela
c@@
ol@@
not
d@@
an@@
ez@@
u@@
r@@
h@@
es
o@@
y
g@@
or
ku@@
nd@@
what
wa
have
ele
isa
‘
re@@
xa
a@@
iz@@
er
;
they
by
will
us@@
az@@
eng@@
ar@@
ib@@
p@@
an
this
wa@@
uku@@
v@@
ac@@
ad@@
ic@@
one
jehovah
from
yaye
god
us
abantu
t
their
ob@@
ay@@
at
al
)
(
end@@
ek@@
ang@@
le
er@@
it@@
id@@
om@@
elo
who
ers
ini
!
all
ing@@
our
no@@
and@@
can
eb@@
ik@@
u
ey@@
ayo
q@@
ak@@
kodwa
jesus
eni
when
into
th@@
tr@@
but
ana
bible
do
ho@@
ala
ent@@
aku@@
j@@
oku@@
ile
way@@
ind@@
ub@@
okanye
kwa@@
st@@
at@@
how
ke
were
ath@@
af@@
ukuze
your
ation
or@@
ngoku@@
kum@@
uk@@
bu@@
uyehova
eli
ise
had
’s
uy@@
x@@
int@@
ag@@
be@@
ate
eka
so
ne@@
my
people
uthixo
iy@@
ong@@
ama
bab@@
ed@@
aph@@
them
iya
iph@@
ap@@
ly
ileyo
has
if@@
ent
eku@@
ha@@
ex@@
ig@@
anga
elwa
ec@@
ok@@
ula
about
ro@@
ngayo
se@@
iq@@
av@@
kub@@
him
if
time
ch@@
os@@
would
some
ted
ali
ikh@@
ona
uyesu
ph@@
ith@@
ts
ung@@
god’s
izinto
njeng@@
m
ani
alo
may
jehovah’s
oku
oko
azi
iv@@
ev@@
dis@@
kuba
ngaba
weni
life
ngenxa
yoku@@
et@@
enza
iswa
many
ur@@
indlela
k
hl@@
more
noku@@
aba
did
ti@@
uth@@
isi
there
ated
kus@@
those
abo
ef@@
bas@@
me
ihl@@
la
lo@@
sp@@
ithi
qu@@
si@@
ibe
pl@@
such
emva
sis@@
even
nom@@
no
h
able
any@@
we@@
also
lw@@
her
d
nje
ud@@
kh@@
kayehova
kun@@
uz@@
ence
sh@@
th
njani
ngoko
she
l
ine
for@@
en
[
]
out
od@@
na
ahl@@
eg@@
aw@@
been
nam@@
ibhayibhile
tion
b
iso
awo
con@@
ubu@@
ance
nto
world
op@@
ngam@@
aban@@
akh@@
its
wathi
le@@
these
aza
ep@@
wal@@
am
emb@@
up
emp@@
ies
yam@@
n
pro@@
ity
umntu
w
eko
ale
ia
und@@
wab@@
enz@@
ika
ond@@
ya
ting
abanye
witnesses
res@@
se
loku@@
other
eke
good
per@@
ip@@
ane
ty@@
abang@@
ion
way
lo
does
why
uc@@
man
bakhe
ngo@@
uka
par@@
athi
ngen@@
then
abab@@
uya
help
aq@@
li@@
wam@@
ax@@
age
ant@@
amb@@
work
kwi@@
ment
yay@@
should
ban@@
than
eph@@
est
elela
ure
ix@@
amakristu
elwe
ar
iza
said
day
because
ut@@
ic
after
obu@@
new
eth@@
sas@@
love
esi
de@@
things
ba
ila
ir@@
gr@@
ary
ant
ow@@
ye
mo@@
which
was@@
bo@@
ngok@@
/
el
years
ter@@
yakhe
could
noko
first
ina
ene
enze
uph@@
kuy@@
iny@@
ely
ings
children
man@@
enk@@
make
ngum@@
onisa
ezin@@
alwa
ess
wayo
dr@@
pre@@
wakhe
omnye
only
apho
loo
ndand@@
sin@@
abantwana
awa@@
ezi
christian
car@@
kingdom
ter
ug@@
like
eminyaka
nez@@
ri@@
ish@@
olo
yokuba
nang@@
cl@@
ce
umb@@
ukuz@@
others
entl@@
elele
mar@@
yo@@
oy@@
inc@@
ink@@
eleyo
ra@@
ain
alis@@
says
ning
over
end
ibh@@
ize
thetha
earth
ally
abal@@
ous
uq@@
king
ekile
p
uza
word
most
imp@@
et
eza
paul
ness
family
bi
pr@@
ezing@@
uma
just
being
co@@
anc@@
zi@@
come
aka
now
iyo
kuf@@
ass@@
andla
see
wazi
abas@@
so@@
zonke
esi@@
christians
ations
imb@@
ess@@
uthi
ekileyo
ukum@@
war@@
okuba
ve
njengoko
up@@
woku@@
ixesha
uv@@
hol@@
rec@@
ice
ukun@@
upawulos
yintoni
comm@@
well
il
koku@@
however
har@@
ngom@@
yas@@
aze
made
bay@@
ono
ubomi
kwis@@
anda
nge@@
need
kutheni
kunye
ngoku
abaninzi
enye
ful
sing@@
uf@@
nt@@
ngendlela
faith
ukub@@
elelo
true
must
kathixo
za
ule
ikela
att@@
koko
own
away@@
str@@
azo
spirit
any
kul@@
he@@
inter@@
ou@@
gq@@
take
used
br@@
christ
read
amangqina
kuye
sib@@
enoku@@
ulu
uhl@@
use
example
before
ade
oc@@
eki
kuphela
po@@
iint@@
ver@@
parents
thi
alisa
ity@@
isayo
isela
ekubeni
ons
ying
ied
ngakumbi
where
inga
ill@@
ect
bonke
kung@@
nes@@
know
esh@@
mis@@
ear@@
son
zoku@@
ating
x
ekh@@
ty
kwam@@
another
funda
ulo
nem@@
ite
siy@@
kokuba
enc@@
men
wen@@
ekho
ered
ka
kuk@@
ones
kakuhle
com@@
two
igh@@
sho@@
kwim@@
fund@@
ekayo
ithand@@
baz@@
g
pha@@
bang@@
ight
esithi
hlala
ents
inyaniso
hlobo
rel@@
abazali
ide
kakhulu
become
spiritual
eq@@
great
vis@@
father
today
fr@@
elel@@
pos@@
angela
old
est@@
unoku@@
give
kukho
congregation
baf@@
ilung@@
the@@
ue
des@@
yes@@
uye
ris@@
ukh@@
bam@@
gu@@
through
let
death
very
uny@@
words
waz@@
bak@@
hamba
enziwa
times
kwakhona
wele
anel@@
abath@@
eyay@@
tsh@@
anis@@
sol@@
siz@@
abh@@
kwan@@
eas@@
okw@@
kukuba
qala
ndlela
much
su@@
tions
lung@@
phakathi
anj@@
pe@@
cr@@
states
ngowe
kristu
book
oph@@
emhlabeni
amandla
oth@@
ati@@
get
aty@@
rem@@
ezinye
waza
reg@@
nas@@
hok@@
iba
ako
te
nangona
iswe
eny@@
cre@@
antsi
col@@
bes@@
sha@@
ngokuba
dec@@
wo@@
ebenza
ds
od
uze
john
cha@@
ah
ntu
me@@
namhlanje
uba
bal@@
de
young
athu
kuph@@
heart
zi
umsebenzi
kufuneka
kwez@@
inis@@
las@@
iti@@
bel@@
ical
sil@@
anye
bul@@
sik@@
while
lik@@
anele
waw@@
kuya
zib@@
ions
ay
ulul@@
gqitha
omi
wayeng@@
ngab@@
human
id
eliz@@
pres@@
ye@@
hath@@
ezininzi
iwa
tive
oma
intl@@
tic@@
each
yonke
inoku@@
name
during
wor@@
ukuph@@
year
olun@@
sel@@
yom@@
akho
go@@
ach@@
igama
land
to@@
ever
found
though
bh@@
keep
fo@@
kuku@@
lul@@
ukumkani
ities
truth
ality
likathixo
ngaphambi
als
ezib@@
zo
elisa
go
kuyo
akw@@
wes@@
themb@@
ive
ngokomzekelo
led
ukus@@
ebh@@
ayi
ced@@
kom@@
bl@@
comp@@
iwe
inceda
hlabathi
cho@@
nabo
exp@@
andela
ethi
ement
ekanga
yet
sur@@
part
zaz@@
inz@@
ze@@
might
say
study
oz@@
eyona
nges@@
of@@
umana
akwazi
soku@@
ifund@@
umk@@
ans
alung@@
ny@@
person
still
hel@@
fun@@
akristu
ently
te@@
hamb@@
feel
often
si
wayes@@
act
akhe
*
red
okomoya
told
□
iim@@
kwakhe
itha
find
wethu
ze
ial
nab@@
ukuth@@
ngoxa
haw@@
enti@@
kulungwane
home
ingq@@
kuth@@
nq@@
iweyo
ich@@
never
fl@@
every
jo@@
oloko
ngokwenene
inq@@
mon@@
since
against
onqulo
xesha
cont@@
sinoku@@
•
aye
ov@@
later
ano
akumbi
sec@@
ilo
hum@@
kwe@@
fac@@
kwiz@@
zam@@
ike
imi
kuthixo
ush@@
yez@@
ry
place
sal@@
onakala
entsapho
babo
long
wakho
kwabo
ilizwi
irayeli
abaz@@
ngaloo
ebhayibhile
gro@@
lis@@
ited
under
abe
mas@@
ngc@@
less
ux@@
form@@
lom@@
press@@
ks
ezo
among
ngez@@
kuyehova
elayo
obo
ates
ingc@@
utsh@@
zis@@
same
lakhe
ngem@@
funa
oq@@
cor@@
ish
sion
do@@
kunoku@@
too
sic@@
ened
angqina
inj@@
brothers
luk@@
mus@@
wam
lonke
thus
zik@@
tic
eleni
kangang@@
upon
baye
les
ily
endawo
izwe
uphi
abaf@@
anelekileyo
ast
del@@
abafundi
atsh@@
onza
inda
bakho
ves
himself
ham@@
ors
waph@@
wan@@
themba
right
out@@
r
apostle
view
dem@@
means
holy
fazwe
nye
ibini
ters
ord@@
ebenzisa
tre@@
conv@@
mat@@
kanye
zakhe
cour@@
yethu
news
ens
di@@
hlaba
ngokung@@
naye
consider
ezis@@
ntoni
uncedo
learn
wenza
ibhalo
tsha@@
called
wrote
self
ikho
ard
put
tor@@
ukukh@@
ian
zim@@
onakal@@
inye
set
om
back
holo
njengokuba
hi@@
pri@@
elelwa
prov@@
off@@
came
acc@@
iink@@
hub@@
down
without
umela
isele
ign@@
hal@@
ned
itsh@@
hay@@
ther@@
ima
law
baya
worship
oni
her@@
size
inane
alulekileyo
became
fa
hom@@
onakalisa
theth@@
wel@@
ezint@@
yob@@
inzi
all@@
eya
sy@@
ked
ange
days
sebenzisa
course
kulo
show
una
uli
re
live
ukw@@
akal@@
ah@@
ages
want
zabo
sim@@
andle
serve
peace
kam@@
sha
nol@@
ety@@
njengom@@
ad
enokuba
dla
kwenza
three
ious
ili
cul@@
ango
awa
our@@
ngaphandle
yoko
dala
jud@@
ukwenza
atha
fe@@
ach
over@@
important
nakw@@
ual
ukul@@
century
yohane
uthando
okwenza
mb@@
requ@@
uko
sif@@
faithful
kuz@@
iphi
yan@@
loy@@
kuthi
doing
wom@@
eli@@
ekele
ziz@@
awul@@
amazwi
ungu
yabo
yo
ehl@@
ually
hubeka
enj@@
ref@@
vi@@
ceda
iva
ayesu
israel
ha
fir@@
lob@@
iimp@@
abazalwana
hope
med@@
ume
incwadi
thand@@
ezulwini
prom@@
olu
umoya
ling
hear@@
ngaphezu
ngas@@
mil@@
athand@@
away
awula
ben@@
fumana
living
peter
unc@@
osi
nokuba
both
hak@@
ndiy@@
publ@@
baze
waba
ekela
thixo
kamva
kang@@
sokuba
kani
phantsi
c
uzo
etyenziswa
ants
bona
knowledge
ge
ca@@
hle
ekisa
iye
um
service
mor@@
look
teach@@
bethu
ank@@
wise
matthew
given
ministry
bac@@
kwaku@@
sam@@
wife
njalo
ihlabathi
ill
enoba
ezim@@
began
cinga
humi
elana
power
ek
mind
prot@@
psalm
sa@@
akukho
abraham
really
aya
house
oya
kule
omkhulu
ished
tiv@@
ko@@
pleas@@
mother
ebe
aba@@
iphatha
og@@
themselves
david
bus@@
mer@@
scriptures
sc@@
yakho
adam
ihlandlo
anti
ere
haya
bless@@
iphepha
gre@@
alelo
uty@@
iko
onwab@@
thethe
tim@@
ci@@
kwen@@
eleka
ixeko
ube
ngx@@
tly
fundiso
tice
happ@@
holelwa
ized
ola
ign
indumiso
yes
ambo
war
onal
inv@@
having
ular
etha
according
umane
nor@@
adv@@
kuzo
onke
gc@@
fully
indawo
eba
ikhulu
naku@@
akum@@
icha@@
olung@@
ication
preaching
mhlawumbi
ected
umele
wh@@
fact
lal@@
kwes@@
sup@@
pho@@
leyo
religious
direc@@
ism
ukuq@@
amag@@
endlela
ling@@
resp@@
ering
making
child
order
igqibo
pur@@
ulwa
ezil@@
ef
afund@@
united
think
city
ezilungileyo
zethu
kuv@@
body
ngokupheleleyo
wonke
lula
school
pris@@
ture
ash@@
clo@@
welo
gave
elithi
let@@
onyana
wahl@@
ehlabathini
iing@@
ihla
engama
ening
stud@@
olis@@
sekunjalo
oway@@
ezaz@@
ipho
help@@
ewe
side
nations
ls
cel@@
always
baph@@
low
iah
ukuya
ot@@
indoda
ebhayibhileni
ands
iqela
little
kubo
qonda
ethekileyo
ist
ubudala
christ@@
baq@@
kuq@@
ude
intsapho
ebenz@@
between
acts
ments
ukholo
ica
ngabantu
waq@@
andelayo
’@@
ukuy@@
ures
concer@@
ch
inez@@
azela
ests
ukususela
ebudeni
ba@@
abav@@
som@@
ask
wad@@
bele
umpostile
hla
wem@@
angeli
marriage
nk@@
beg@@
ena
something
ifo
kwiminyaka
lead@@
kube
ained
umz@@
ngalo
kwem@@
ziy@@
uthaza
zin@@
gener@@
cap@@
ingxelo
kunokuba
abini
ways
▪
yokuqala
bakh@@
yebhayibhile
eling@@
satan
isis@@
ifunda
serv@@
pol@@
appro@@
rather
oug@@
konke
full
food
low@@
nc@@
amp@@
lowo
brother
beng@@
humans
wakh@@
indlu
aining
ekuph@@
olog@@
andez@@
exesha
umn@@
ngokun@@
inge
ution
jalo
happy
imv@@
lobu@@
pray@@
ously
akazange
abane
iselwa
bam
imali
water
hand
bukathixo
disciples
unyana
fore@@
alwana
ezulu
enziwe
ngob@@
umzekelo
uw@@
iintl@@
siq@@
kwaye
lokuba
few
umanisa
zas@@
andulo
enkulu
nguthixo
beb@@
loving
usela
thethwa
asked
tur@@
spec@@
ebr@@
ital
compl@@
whom
elis@@
took
siph@@
ethe
ukung@@
ences
yena
appreci@@
awu
axesha
ezi@@
pa@@
babe
kubu@@
loc@@
engc@@
ingen@@
problems
ony@@
together
ese
els
tel@@
ame
ail@@
uni
phil@@
usenoku@@
writ@@
ezingama
elula
bur@@
blood
lib@@
ser@@
wabo
soon
emaz@@
ber@@
ory
zima
number
ward
women
sa
future
ngokuthi
ties
ngaph@@
abis@@
wond@@
ack
nok@@
reason
umhlaba
kayesu
religion
world@@
yam
abi
consid@@
ohl@@
again
jonga
face
ngexesha
val@@
high
unity
imeko
sebenzi
def@@
thanda
ekw@@
hard
ets
yok@@
you@@
jong@@
ility
nabantu
sk@@
chang@@
ut
felt
thel@@
ekugqibeleni
personal
ikelela
transl@@
izwa
ifanele
coun@@
cent@@
abatha
—⁠
kwel@@
last
helekileyo
ukuhl@@
zinto
untu
unya
although
ended
por@@
thr@@
sele
isaya
umbula
better
ngokuqinisekileyo
ir
rul@@
cop@@
witness
amaninzi
care
hulumente
kwazi
under@@
fear
known
alela
sifanele
nob@@
woman
aj@@
result
early
okuqala
ute
job
health
va
point
akalelwa
fi@@
believ@@
toward
fa@@
isizathu
activ@@
zing@@
iind@@
thando
esib@@
khona
phezu
ran@@
servants
umg@@
prayer
cur@@
ace
fin@@
ative
unqulo
mntu
ship
abaph@@
ahluk@@
yem@@
omoya
eleleyo
app@@
baza
elinye
ines
min@@
ole
usathana
isil@@
ubani
wama
buil@@
lives
off
exam@@
form
endula
cov@@
joy
zimba
nding@@
okwenyaniso
society
eyo
yokuz@@
thembekileyo
profeto
vakalelo
saf@@
questions
using
ndi@@
dev@@
aphezu
ul
amo
obela
lim@@
usa
sibe
umph@@
nabanye
hab@@
zulu
cas@@
friends
suku
uyo
isaiah
khaw@@
ulindlela
ukux@@
bring
iindlela
jerusalem
associ@@
umntwana
intsh@@
left
hayi
lala
ethu
ingly
try
kwenzeka
agq@@
sto@@
ekhaya
elders
different
present
ose
obukumkani
sihl@@
neg@@
ubungqina
inted
udavide
ext@@
ond
kwe
doc@@
experience
ngamnye
church
fellow
mag@@
akala
giving
wing
web@@
kude
mateyu
prof@@
yobu@@
ifuna
bathi
following
contr@@
iminyaka
ngokuphathelele
nceda
cal@@
proverbs
ox@@
ake
kwab@@
genesis
my@@
ner
anisa
div@@
kuquka
purpose
spe@@
accep@@
wambi
wabhala
wayen@@
learned
express@@
ukutya
enzeka
sin
apha
umd@@
reas@@
oke
amango
uqul@@
ulela
needed
tw@@
complet@@
ithile
kind
engen@@
eful
ger@@
anayo
elung@@
gqibela
therefore
hali
trib@@
wisdom
f
uxolo
ulw@@
bez@@
perfect
pic@@
husband
done
money
engq@@
ta
yaniso
jus@@
ilizwe
nobu@@
amer@@
vir@@
real@@
leg@@
izi@@
mankind
yaying@@
ambili
ians
plac@@
arr@@
sl@@
ancient
practic@@
best
eva
isiweyo
erem@@
meetings
bad
onom@@
discus@@
bre@@
cannot
amalung@@
zom@@
lwakhe
amadoda
heaven
star@@
uyo@@
indeed
perhaps
akhulu
char@@
sat@@
believe
ko
someone
moses
add@@
far
simele
wand@@
mna
righteous
ibandla
isana
language
efund@@
mandla
tshato
ngazo
ebomini
sci@@
ind
wana
kukh@@
decis@@
ukileyo
stand@@
inik@@
kwindawo
irha
teaching
went
ezela
kuwo
hoboka
wi
person@@
shor@@
possible
pop@@
akan@@
emi
umthetho
ember
sindo
bir@@
yourself
xoki
yim@@
once
ingozi
ins@@
encourag@@
fundisa
iindaba
ikolo
article
ahla
z
ented
inxalenye
system
isi@@
abadala
ined
engxaki
continue
here
ects
rep@@
bahl@@
ides
thought
eleli
izenzo
certain
matter
ists
imizekeliso
lam@@
qina
produc@@
igidi
ithuba
bath@@
national
baku@@
jos@@
ains
isiq@@
khulu
siya
lwa@@
la@@
nzima
utsha
counsel
close
change
ngokus@@
hebhere
v
ongo
awulo
igc@@
corinthians
thing
look@@
next
ain@@
tit@@
glor@@
ebi
utha
helped
ava
etho
ezif@@
lif@@
revelation
ns
sab@@
hon@@
going
nal@@
vie@@
amk@@
amath@@
anya
abakh@@
umkristu
watchtower
fect
kuthetha
izathu
ire
injongo
until
develop@@
ayehova
ahluko
enyanisweni
kwezi
sen@@
bakathixo
especially
kungekudala
ding
wil@@
ten
tsha
kela
maxa
around
amileyo
efumlo
ibano
light
watch
iw@@
per
bib@@
fine
peri@@
usuku
ufuna
ass
tu@@
ses
elw@@
bar@@
kubantu
uthuz@@
zes@@
den
fulfill@@
ped
dead
ugq@@
increas@@
enu
akhol@@
ndis@@
hor@@
relationship
history
ihle
anointed
umy@@
iqond@@
ms
intliziyo
․
minis@@
head
ws
bro@@
greek
along
ention
wicked
wn
eneyo
ubukumkani
ental
lwethu
ending
sebenz@@
ann@@
members
emo@@
serving
vakal@@
eze
tya
phila
vic@@
im
ither
heav@@
eqesh@@
talk
enzayo
baptized
avoid
une
answ@@
ngelo
ided
subj@@
share
ur
okus@@
ii
surv@@
kunoko
experi@@
okum@@
nx@@
iselelo
iingxaki
ngokomoya
ukufunda
bav@@
afr@@
support
fazi
enx@@
enjoy
tor
scrip@@
moun@@
umaneka
sub@@
page
bce
hasa
oyika
uke
situation
ney@@
eyes
walamano
small
esin@@
ene@@
respect
ekelwe
kunceda
ech@@
olw@@
heavenly
cause
free
un
funeka
imo
ukela
confid@@
var@@
sikh@@
eneneni
concl@@
earth@@
nor
ukuf@@
esing@@
weno
uda
okwenene
imele
aku
real
amas@@
likely
ss
esiya
em
moved
iness
whether
ngokukhawuleza
oyingcwele
sure
ngezinto
mazwi
ethetha
alwe
univer@@
ulungiseleli
ithetho
anim@@
sakhe
sm@@
abiso
saying
inde
phambili
oda
kweli
can@@
wano
humb@@
understand
igaqo
timothy
ithathu
unj@@
iganeko
tes
bopheleleko
ixhobo
control
wakha
ately
ingqalelo
enzi
educ@@
ilinganiselo
aleni
abon@@
ath
speak
epha
trans@@
challeng@@
sed
message
reading
ak
feelings
will@@
lands
erg@@
ngobu@@
israelites
ukwazi
luke
kunjalo
gama
emv@@
ears
udu
pe
case
position
ando
answer
born
st
ngathi
ested
aqond@@
nel@@
pati@@
gif@@
zebhayibhile
non@@
mean
enzo
eziph@@
qond@@
elweyo
ufanele
indi
aki
ibonisa
taking
four
anzi
entliziyo
york
wane
sapho
na@@
wala
timoti
illustr@@
kuloo
enjalo
shumayela
influ@@
anu
inst@@
uqulelo
ekisela
eye
equ@@
efuna
law@@
uses
partic@@
iselo
umo
james
intsha
amasirayeli
ome
engqondo
public
uleko
lead
ease
ingx@@
jews
reve@@
wath@@
abakhonzi
oloph@@
imini
ices
awaka
turned
attention
anger
liy@@
pet@@
ps
nation
oned
exc@@
okwenzeka
lalo
igq@@
describ@@
sense
aniso
amaz@@
uku
entsh@@
bap@@
ifundo
boku@@
iingc@@
webo
taken
uyela
including
difficult
ngabo
angaphambili
ukelo
arly
zez@@
upetros
doub@@
iphumo
ingxaki
brought
teach
trust
kwabantu
iting
ngokukh@@
saw
mp@@
ican
kux@@
bom@@
wini
yehova
enem@@
needs
ukuthanda
instead
ebiso
repor@@
wrong
ep
coming
ekiyo
lus@@
sor@@
umfazi
ngokuz@@
onyaka
apash@@
fer@@
sikelelo
less@@
desire
thy
kangangokuba
sue
served
ulaph@@
akeleyo
beli@@
hambo
les@@
abhinqa
ngokuph@@
intloko
awuli
bad@@
organization
ine@@
atsha@@
kho@@
amanye
lord
wax@@
ems
second
nothing
liter@@
wav@@
remember
whole
phi
night
ition
tu
tal@@
received
akobi
eso
rhoqo
ondo
false
onoku@@
anz@@
er’s
question
yabantu
simply
prove
lov@@
anx@@
wanted
ection
gar@@
enq@@
aluleke
pass@@
zabantu
ngokufuthi
aqalisa
amanzi
consci@@
thethi
special
ephancwadi
kakubi
endulo
died
seen
inkonzo
indic@@
mission@@
hos@@
andiph@@
ree
turn
esas@@
angal@@
elil@@
commun@@
wide
aloo
fru@@
ards
abam@@
isisa
problem
gal@@
ifanekiso
linganiselo
benef@@
divine
follow
makes
suffering
kund@@
qondweni
mess@@
dep@@
ached
kungekhona
strong
uti@@
ethile
haptizwa
ulumko
kan@@
mal@@
ziziphi
eunited
thetho
gen@@
kusenoku@@
amalungu
buy@@
abelo
ived
cons@@
chule
clearly
enzela
temp@@
nezinye
ourselves
ngonaphakade
yehlabathi
kwethu
walas@@
ifa
ekuqaleni
athixo
imit@@
wend@@
ded@@
affec@@
kwexesha
etting
esinoku@@
chaza
iling@@
ombi
igidimi
ibona
eld@@
ilwanyana
instruc@@
ins
abahl@@
moral
who@@
appo@@
babeng@@
offer@@
maint@@
phambi
privileg@@
expl@@
ularly
ayela
sing
incinane
kulung@@
appl@@
thinking
isebenzisa
ma@@
distr@@
ambi
enced
bakayehova
sou@@
romans
paradise
amaq@@
pers@@
ises
married
ukuv@@
aphakathi
ults
acha@@
utshane
azwi
temple
onga
principles
ngokutsho
uman@@
entif@@
onela
certainly
othi
imiz@@
eld
und
kumazwe
ples
account
half
ustr@@
creator
ised
soci@@
umm@@
iwo
large
onde
gra@@
eyerusalem
ulation
banoku@@
succ@@
yesu
taught
qu
cou@@
ekelo
benefit
ezimbini
cam@@
ikho@@
eas
inx@@
group
conduct
ukusa
obedi@@
dition
olweni
amba
tell
kwas@@
claim@@
truly
provide
kusenokwenzeka
ough
babyl@@
ithanda
hokelela
ist@@
ayuda
ada
yiyiphi
ngq@@
olunye
knew
within
tors
mir@@
proved
pra@@
phela
inqa
umelela
sengqondo
eve
eness
gir@@
lwal@@
aliswa
regarding
engqiq@@
appe@@
similar
sex@@
opport@@
icawa
sebhayibhile
adoda
kum
ulaphula
receive
idla
siye
lu
sent
qub@@
progr@@
works
abisa
fec@@
ithemba
ubus@@
kululeko
umar@@
table
ndin@@
involved
uel
ngokufanayo
elelwe
ict
afrika
iselela
thandazo
du@@
mem@@
yenza
nayo
lil@@
ged
umba
ivela
righteousness
kwelinye
action
nathi
great@@
mark
izange
ring
umth@@
mthetho
ndiz@@
oba
iziyweni
akanani
exerc@@
event@@
ability
allow@@
recogn@@
os
arm@@
osh@@
hala
bambi
ea
fav@@
responsib@@
bem@@
likayehova
amva
lig@@
ukud@@
ifumana
ern@@
abela
ndiye
kindness
attitude
sonke
waf@@
itions
oza
near
kwang@@
ible
amhlanje
further
othando
based
okh@@
umama
refl@@
lev@@
uted
andleni
kubonakala
new@@
antoni
azange
ziye
worship@@
antse
unywa
profeti
essed
friend
ust@@
ngubani
common
kas@@
icala
refer@@
ship@@
izibhalo
angab@@
read@@
becom@@
esik@@
atolika
esis@@
umdla
streng@@
uj@@
amayuda
umbu@@
information
pray
ukristu
heard
ke@@
yab@@
onzi
occas@@
everlasting
enjenjalo
hamo
necess@@
past
abhiloni
an’s
effec@@
comes
lab@@
proph@@
ento
engx@@
onzo
kwakung@@
rh@@
·@@
olus@@
gives
ulungisa
ngaphambili
le’s
nan@@
inisekisa
ukufa
matters
physical
ured
rule
n’t
cer@@
obomi
ra
iseni
bi@@
iqonda
percent
ago
millions
zobu@@
ibana
satis@@
amak@@
lish
happiness
malunga
imag@@
anyone
etyenz@@
sign@@
esinye
tural
onyamelo
rus@@
yama
eleko
ekuf@@
ives
lub@@
sometimes
lakho
ichaza
move
already
bafund@@
cri@@
ekeliso
soul
encwadi
ithe
bantu
stre@@
ebandleni
ij@@
ephe
aman@@
inqaku
aweni
evidence
work@@
abaselula
ulum@@
ekhulwini
iphak@@
circum@@
sea
has@@
isib@@
valu@@
one@@
tually
uninzi
country
long@@
ngamandla
umbuzo
ngokw@@
sons
ved
izi
port
earch
enga
tower
ick@@
isebenz@@
stand
elim@@
invol@@
kuze
ezithile
prophet
ukug@@
ngokucacileyo
andi
head@@
akhath@@
khosi
inkcazelo
determin@@
usi
bea@@
ires
endand@@
elosi
olu@@
hebrew
zwa
ong
ot
started
andakany@@
anje
incl@@
huty@@
igned
wed@@
⁠
fundisi
imfuneko
omb@@
followers
kubakho
countries
ehol@@
iimeko
crim@@
ature
nguyehova
evid@@
obungunaphakade
nenk@@
yanisekileyo
babes@@
posed
esses
command@@
fanekiso
clear
resurrection
kho
lwabo
ebandla
awule
abafazi
elokuba
uh@@
reason@@
fail@@
tern
government
die
interest
modern
wokushumayela
material
respon@@
amazwe
wena
amab@@
isityhilelo
eleza
ements
korinte
qondo
tion@@
den@@
shows
ixelela
return
students
sav@@
hold
nalo
sacrifice
zela
heal@@
zobukumkani
tom@@
cac@@
ful@@
ving
lethu
maj@@
ekiswa
umnq@@
promise
nothixo
five
xolo
catholic
prophecy
elitsha
luka
kulu
cus@@
loved
iindawo
jewish
million
ches
vo@@
neigh@@
nazo
ayiphi
ngale
ipp@@
book@@
fer
ingeleli
nabantwana
umkh@@
greater
wo
egyp@@
kwakukho
elal@@
leave
line
elane
yaba
authority
oper@@
don’t
lost
sive
shum@@
reli@@
abangela
inyam@@
crow@@
daugh@@
efu
wangc@@
ti
amkela
longer
individuals
chap@@
offic@@
ngaye
ukuthetha
ulala
beth@@
upha
ety
suf@@
ste@@
basenoku@@
ific@@
remain
ingenelo
state
yezinto
list@@
kunzima
press
alul@@
bey@@
imibuzo
euro@@
tsho
local
thembiso
kuhl@@
h’s
bulumko
elin@@
kuza
uhlobo
eta
amaxesha
terr@@
awulos
ends
ezili
apostile
awulayo
lear@@
athana
working
mak@@
ric@@
ecawa
struc@@
lwam@@
siv@@
angelwa
abahlobo
abalandeli
uml@@
okeli
ondol@@
wid@@
ials
alone
efuml@@
ever@@
dani@@
hly
anik@@
understanding
ich
despite
hubeke
ukulung@@
inkoliso
destro@@
speaking
natural
umi
owo
origin@@
ezahlukahlukeneyo
apostles
takes
keep@@
godly
lang@@
stat@@
fles@@
ncwadi
ekuhlaleni
youths
ongoza
ziya
othile
igrike
iputa
cover@@
wu
entsim@@
aphi
meaning
izigidi
mos@@
ndib@@
prev@@
kwabanye
mentioned
ore
azwe
inika
abag@@
emba
politic@@
intetho
eat
japan
appear@@
kuthekani
months
clean
iver
umv@@
ngoyehova
aqhubeka
efanayo
anti@@
forever
written
kukathixo
wr@@
sugg@@
arrang@@
kumsebenzi
pat@@
kol@@
wempu
lot
above
dist@@
iding
feel@@
ngelithi
everything
jamani
travel@@
serious
nawe
prepar@@
play
hebrews
devo@@
sheep
edly
ipha@@
building
six@@
ired
showed
angaph@@
erly
jamelana
spiritually
je@@
lived
sible
ts@@
yaniseka
sith@@
got
ayeza
umoses
nandi
kwakho
mid@@
iincwadi
baba
iyeli
bhi
oyik@@
imisebenzi
qualities
freedom
bangela
thre@@
ense
othixo
kwixesha
ekwa
magazine
held
akalisa
angalisayo
msebenzi
ifun@@
yayo
umtshato
det@@
ground
beni
kwik@@
declar@@
nendlela
kak@@
accept
angele
ehlo
eziphath@@
walo
emininzi
nov@@
includ@@
e’s
ngal@@
ses@@
akalo
inspired
tes@@
pioneer
buth@@
uyise
intlang@@
eziy@@
lukathixo
homek@@
iving
ought
xholo
lin@@
indele
medi@@
ombul@@
kept
cro@@
nakuba
slave
ixhenxe
culo
itted
oses
proc@@
dom@@
angaliso
tain
pages
promised
aries
ukongezelela
stances
compare
what@@
source
ngokuqhelekileyo
amahl@@
everyone
mihla
shepher@@
ngu@@
thiwa
estab@@
oniselo
uter@@
thir@@
kwincwadi
kwiindawo
anything
ites
overse@@
roma
tif@@
ngokuf@@
ibelel@@
lar@@
area
ery
roman
erful
ucha@@
meeting
onwabo
alaseleyo
icinga
okholo
brit@@
erous
eho@@
kay@@
angel
inced@@
esikweni
ukuty@@
kutsh@@
call
fundo
ly@@
enjongo
bec@@
persec@@
ndawo
ne
yclop@@
yona
ngokuvisisana
ombo
hlungu
iintlanga
rest
ably
ipar@@
idlul@@
violence
atshi
shall
fu
athelo
inkqubo
kud@@
ont@@
ces
lwe@@
deep
ulwazi
ithetha
paul’s
explains
continued
ol
call@@
dra@@
ther
akuz@@
several
ost@@
older
strength
finally
elekile
okuth@@
yanwa
ebenzi
effort
isid@@
emz@@
ebhet@@
tyholi
kwiintlanganiso
isifundo
princ@@
igazi
explained
cela
nent@@
iziyo
efforts
ential
conc@@
eph
elwano
ekr@@
uquka
da@@
iple
phazela
sac@@
ezek@@
ination
ids
sisters
ubulumko
funeko
judgment
elide
thethweni
families
aged
tyal@@
ge@@
fri@@
comfort
listen
olomon
provided
fic@@
nkqubo
dar@@
god@@
urophu
ngemihla
singiselo
nabani
itself
honor
ntwana
lwana
kwezinye
phawula
conver@@
oli
kuwe
fel@@
congregations
sister
azib@@
jam@@
kubalulekile
abay@@
ult
thousands
atic
kwindlela
utata
ombazana
destruc@@
success@@
hur@@
kwand@@
contrib@@
eliq@@
enjoy@@
powerful
kaloku
wawo
elwane
standing
ulung@@
relati@@
ayeli
politi@@
der
ngqina
mod@@
nec@@
qo
child@@
umbi
alas@@
ngokuq@@
alunga
ros
intoni
psal@@
●
ust
ozi
omon
disci@@
aying
gqib@@
simil@@
wed
sacrif@@
kind@@
centur@@
kno@@
imib@@
ngon@@
follow@@
nat@@
ext
phath@@
eliso
qubo
righ@@
res
zekelo
ente
iseleli
andl@@
ezimb@@
bor@@
hig@@
fill@@
pi@@
encour@@
oka
pione@@
cle@@
joy@@
prac@@
cla@@
histor@@
fur@@
oo
ahlukeneyo
postile
obe@@
conf@@
é@@
ulwini
viol@@
judg@@
lela
fre@@
tures
duc@@
orinte
differ@@
ugg@@
nati@@
esha
ristu
eyu
continu@@
isebenzi
liv@@
esu
author@@
ʹ@@
phak@@
know@@
christi@@
individ@@
ileni
suffer@@
devel@@
ances
ip
ixo
creat@@
preci@@
scr@@
hap@@
ata
anted
ink
kal@@
govern@@
gover@@
adala
wis@@
ays
langu@@
phy@@
enly
wit@@
aqo
wadi
resurrec@@
your@@
haptiz@@
sind@@
dav@@
j
abafund@@
wang@@
cedo
giv@@
ready
faith@@
tle
relig@@
accoun@@
:@@
tro@@
seku@@
isra@@
esp@@
simp@@
ey
mean@@
descr@@
watch@@
qulo
ano@@
rev@@
qual@@
ongez@@
aug@@
grou@@
fam@@
peop@@
bod@@
tod@@
scho@@
pow@@
ead
–
ept
spir@@
mhl@@
alenye
int
chur@@
iliz@@
circ@@
inyaka
mater@@
isa@@
thous@@
anci@@
avide
ongezelela
hob@@
blo@@
ityh@@
witn@@
cent
odwa
eti
ininzi
iver@@
ani@@
them@@
husb@@
ilungileyo
oki
numb@@
organ@@
his@@
abathi
jongo
import@@
she@@
’t
aching
phaw@@
selves
org@@
uring
regar@@
ebhere
◆
inking
priv@@
ezu
ekiso
oub@@
é
need@@
abani
abra@@
situ@@
cazelo
every@@
$
ques@@
trav@@
umko
esis
erusalem
rece@@
lit@@
apost@@
ous@@
wro@@
ingcwele
iphath@@
ngokom@@
conduc@@
orig@@
diffic@@
alulekile
umiso
king@@
deter@@
ityhilelo
rike
prophec@@
wanyana
eed
with@@
famil@@
don@@
uly
wic@@
ekuhl@@
rom@@
okwen@@
ekuq@@
gn@@
obung@@
uro@@
wenene
á@@
parad@@
©
ans@@
yanis@@
magaz@@
joh@@
hus@@
aphak@@
cath@@
í@@
ahlukahlukeneyo
pose
knowled@@
akes
auth@@
phu
uth
port@@
nj@@
ife
avo@@
een
ok
wemp@@
ith
ung
lasting
etros
tiz@@
wish
wat@@
inform@@
uleza
ʹ
kweni
some@@
ousness
efum@@
wany@@
intlanganiso
æ@@
inspir@@
,@@
hane
obi
cong@@
post@@
aught
ekani
aphakade
inkol@@
olic
thers
organiz@@
relation@@
ths
igqib@@
led@@
athini
unaphakade
lor@@
hlab@@
ave
contin@@
sion@@
-@@
ü@@
khe
ham
rif@@
spiritu@@
fol@@
&
ially
aking
attit@@
pub@@
syst@@
kuban@@
andeli
ort@@
sour@@
dif@@
jap@@
reco@@
exer@@
itu@@
sla@@
elit@@
ã@@
q
hulum@@
yp@@
fal@@
natur@@
ó@@
cir@@
amano
infl@@
ainly
prover@@
lic
ö@@
accord@@
enyanis@@
esus
tak@@
ehova
desp@@
ivid@@
marri@@
ren
truc@@
inisekileyo
sever@@
cert@@
dom
menti@@
bet@@
khawuleza
abo@@
moder@@
%
ater
bs
ixh@@
baptiz@@
alisayo
yl@@
rom
contro@@
rho@@
iziy@@
è@@
uch
ble@@
countr@@
erusal@@
ause
congreg@@
visisana
ound
▫
ample
ityhil@@
fut@@
ht
ô@@
lef@@
chris@@
enokwenzeka
cacileyo
°
boph@@
embers
onyam@@
ñ@@
ä@@
ul’s
ebom@@
ú@@
suc@@
forts
hayibhile
enen@@
yor@@
ł@@
|
ixhob@@
ower
twana
ʼ@@
udeni
him@@
yiy@@
ekudala
edom
usal@@
ç@@
revel@@
á
”@@
chil@@
○
sel
✔
heb@@
◯
aniselo
individu@@
timo@@
caz@@
meet@@
corinth@@
how@@
unti@@
holi
olika
profe@@
matthe@@
ḥ@@
ë@@
fort
yclo@@
>
í
à
uta
→
ā@@
#
fore
ë
akany@@
ʽ@@
ê@@
❑
▶
ngokuphath@@
igan@@
elites
š@@
ה@@
worl@@
ו@@
â@@
י@@
ה
↓
❏
ekhona
=
princi@@
č@@
ehlab@@
igid@@
jehov@@
←
righte@@
■
❖
▸
®
ū@@
ð@@
œ@@
inth@@
ś@@
abhil@@
tog@@
ï@@
resur@@
ø@@
ž@@
↑
⁠@@
milli@@
­@@
ekugqib@@
ombaz@@
å@@
inte
ʼ
ş@@
artic@@
enxe
ī
ú
‛
è
ń@@
ä
uld
augh@@
eleleko
+
ē@@
ł
wha@@
ą@@
ý@@
kaku@@
hayibhileni
ę@@
à@@
£
ã
ō
ileg@@
◇
î@@
−
ó
⇨
ς
õ@@
ē
ehov@@
‐
sheph@@
▾
ε@@
ō@@
ż@@
ö
ι@@
ecially
̆@@
sical
ī@@
―
‚
û@@
ü
š
ň
ý
̩@@
ľ@@
‘@@
haps
probl@@
·
ething
ẹ@@
ě@@
·@@
ā
⁄
ß@@
ć
σ@@
ò
­
æ
ş
\
ū
ν@@
΄
ṭ@@
κ@@
hlabeni
נ@@
פ@@
ש@@
ancwadi
å
ׁ
¡
™
ο@@
⇩
ï
ether
theref@@
ω
τ@@
ḍ@@
א
☞
ė
π@@
➤
ν
ἰ@@
@
ώ@@
ř@@
ό@@
ß
θ@@
ṣ@@
γ@@
×
€
ŭ@@
ְ@@
ò@@
rever
ֹ
μ@@
ύ@@
ù@@
י
ρ@@
ő@@
̀@@
ă@@
ȧ@@
÷
δ@@
ẹ
hayibh@@
ì@@
ň@@
alleng@@
ì
ʺ
hebre@@
<
ź
̇@@
ś
א@@
₦
ֹ@@
ד
)@@
ל@@
ק@@
ᾶ@@
̗@@
ç
ש
ט
נ
ָ@@
ά@@
α@@
λ@@
ḥ
α
â
ţ@@
ù
ə@@
ʽ
đ@@
ę
υ@@
ė@@
⇧
›
û
ť@@
¿
ṇ@@
ὅ
ć@@
ɔ@@
̧@@
ὅ@@
☒
υ
ń
ἄ@@
η@@
ů@@
ĕ@@
ǒ
ı@@
ê
ă
ǒ@@
ọ@@
ọ
‵
õ
ģ@@
ihland@@
?@@
ȁ@@
!@@
mhlaw@@
anekiso
ź@@
¥
̆
betw@@
–@@
