<unk>
<pad>
<s>
</s>
,
.
na
-
the
a
:
ndị
to
of
ihe
ya
ka
ọ
“
”
and
ha
nke
anyị
in
?
ahụ
dị
)
(
bụ
’
that
ga
s
m
e
ma
—
is
ike
o
n’@@
ed
bụ́
for
Chineke
1
Jehova
onye
nwere
ing
t@@
Jehovah
I
Ọ
;
God
otú
on
we
be
his
mmadụ
eme
with
was
you
as
A@@
Ndị
mgbe
it
es
i@@
2
s@@
E@@
obi
not
mere
b@@
d@@
M@@
are
Bible
N@@
The
gị
S@@
ar@@
si
k@@
n@@
aka
anya
he
f@@
or
have
ji
3
ọzọ
will
er@@
g@@
in@@
re@@
4
an@@
p@@
e@@
O@@
us
m@@
an
c@@
I@@
sị
i
w@@
ch@@
ime
l@@
by
ị@@
5
A
ị
kwuru
from
ebe
our
u@@
H@@
T@@
B@@
bụrụ
6
iri
‘
a@@
their
y
can
pụrụ
Jesus
ozi
r@@
R@@
at@@
Jizọs
who
were
er
ná
h@@
ọrụ
they
P@@
al@@
banyere
isi
at
ad@@
G@@
L@@
ndụ
Ihe
ọ@@
t
nọ
one
as@@
ere
o@@
!
un@@
all
otu
ọma
y@@
iji
iche
8
en@@
do
es@@
ab@@
el@@
9
7
al
it@@
or@@
ụmụ
-@@
ers
Kraịst
this
10
me@@
what
onwe
your
15
okwu
E
ọtụtụ
ly
12
afọ
ara
K@@
st@@
Olee
11
ụ
had
What
am@@
nile
ala
ụzọ
Ma
14
n’ime
uru
C@@
v@@
bụla
ted
ag@@
n’ihi
D@@
kwesịrị
O
j@@
people
il@@
ate
mma
ezi
u
In
13
akwụkwọ
him
n’ebe
Mgbe
so
them
mee
my
W@@
ụ@@
oge
me
F@@
J@@
about
ak@@
ts
kp@@
id@@
eme@@
Baịbụl
z@@
on@@
ation
niile
Ọ@@
le@@
has
17
U@@
kw@@
ra@@
Na
when
ent
16
eb@@
ụrụ
would
unu
mkpa
is@@
ụfọdụ
ic@@
ur@@
mmụọ
et@@
n
may
op@@
time
th@@
ac@@
adịghị
but
ach@@
How
em@@
did
ir@@
ol@@
life
l
atụ
nyere
ụtọ
b
maka
18
k
ụwa
for@@
Anyị
ti@@
tion
abụọ
those
ie
n’ihe
dis@@
19
ent@@
res@@
more
Ka
Gịnị
n’oge
enwe
ul@@
20
esi
site
ekwu
omume
N’@@
n’anya
ed@@
nnọọ
us@@
ap@@
ated
out
He
ob@@
Ị@@
im@@
Onye
gb@@
nwa
her
d
ruo
some
Dị
en
ex@@
ig@@
chọrọ
ọrọ
1@@
agb@@
eji
kwa
[
]
akw@@
ri@@
able
con@@
ds
n’ụzọ
ụlọ
akp@@
os@@
also
aga
how
nwee
ekw@@
gh@@
Ha
It
N’ihi
ek@@
ting
such
nakwa
help
24
ee
nwunye
ọnụ
man
many
been
22
We
/
n’obi
Ch@@
enye
19@@
Ụ@@
up
ghara
good
ech@@
21
hụrụ
le
ine
nye
ise
ahụ́
oké
adị
other
ịbụ
asị
aha
wee
qu@@
even
ọjọọ
than
way
ance
nw@@
if
ro@@
ma@@
no
ịdị
uche
li@@
day
love
its
there
Witnesses
nsogbu
Otú
work
h
mba
aa
Ndịàmà
eziokwu
sp@@
gwara
ah@@
si@@
nwoke
ew@@
echiche
ot@@
n’ụwa
things
When
Paul
di
ous
ity
sh@@
John
mbụ
oro
anụ
ata
aghị
est
should
Pọl
per@@
ant
ment
said
dere
Nke
atọ
ebi
does
ite
ary
make
n’aka
el
could
ally
nsọ
om@@
th
23
ies
ence
tr@@
Ya
agha
ter@@
eta
ụdị
mmiri
des@@
world
ut@@
arụ
M
n’ụlọ
others
Christian
years
into
ib@@
Otu
Ọma
she
ying
ter
Jọn
par@@
ia
eg@@
which
uo
over
says
enyere
la@@
pres@@
nna
But
bi
ec@@
nt@@
children
ez@@
egosi
ge
nne
ness
mb@@
su@@
They
For
ibe
az@@
these
ning
ọ̀
ev@@
This
abụ
ume
kpọrọ
ide
ezigbo
ụọ
dị@@
If
eto
ons
ịa
own
ekpere
over@@
ụbọchị
ej@@
mara
28
pl@@
Christians
nanị
agh@@
inwe
ful
iwu
eso
need
king
pro@@
V@@
be@@
earth
*
Christ
•
pụtara
Why
ezinụlọ
pre@@
ntị
ings
Z@@
ve
enweghị
ep@@
family
Y@@
first
ọkụ
àgwà
ole
ukwuu
mgb@@
because
bụghị
ha@@
25
then
tra@@
come
As
Ị
like
You
ded
et
mer@@
se@@
only
ọhụrụ
oun@@
example
ọrịa
ik@@
made
Alaeze
sion
ego
ely
Kingdom
wo
n’otu
S
spirit
ny@@
ow@@
nk@@
di@@
ịrị
ure
old
agaghị
Izrel
n’i@@
car@@
zi@@
Ebe
ah
Rom
faith
jiri
being
kwuo
ations
ear@@
see
sịrị
5@@
Matiu
Matthew
p
af@@
Abụ
end
must
take
akwa
gara
rec@@
spiritual
ịkwa
2@@
6@@
just
ef@@
cl@@
ess
know
used
narị
okwukwe
aara
anọ
times
hụ
am
ich@@
arị
Akwụkwọ
end@@
ty
ice
ikpe
dịghị
mkpụrụ
ute
Ọrụ
congregation
ụt@@
eh@@
ou@@
ones
ther
kwere
ves
men
ru@@
ating
ịn@@
ụta
gw@@
achọ
any
enyi
adị@@
ọt@@
Th@@
ziri
pri@@
mkp@@
ọn
nwaanyị
maara
ama
ar
egwu
very
ịhụnanya
use
30
akụkọ
true
become
now
heart
okpukpe
eghị
age
after
26
elu
g
lo@@
words
enw@@
iz@@
most
bụ@@
parents
ọta
x
ugbu
pe@@
war@@
abụghị
give
Psalm
ụmụnna
up@@
ci@@
pụta
ohu
7@@
before
27
gaa
Pita
ing@@
ịna
ther@@
ịr@@
Obi
obodo
cre@@
Job
ọchịchị
ph@@
ok@@
ding
ish
ọk@@
mụ
mis@@
man@@
amụma
nri
29
eze
nwanyị
1-@@
That
Okwu
ess@@
wa
eche
ten@@
Ilu
ekwa
Nsọ
death
naanị
nd@@
taa
tions
kama
might
n’afọ
com@@
od@@
gbara
agba
well
achi
bịa
yiri
kwara
comm@@
new
ekwe
malitere
person
where
der
tupu
ass@@
efe
fi@@
min@@
ochie
two
ned
ill@@
wor@@
And
anaghị
als
ize
31
woro
c
karịa
ịga
ajụjụ
eny@@
ụr@@
n’ihu
gosiri
mụrụ
ọọ
zuru
iwe
much
Peter
read
dec@@
found
ama@@
ris@@
gu@@
another
each
ela
bu
mar@@
name
ic
comp@@
har@@
David
feel
mp@@
zi
ịgb@@
off@@
il
through
ents
se
do@@
tri@@
33
mmehie
bịara
anwụ
young
gr@@
azụ
tive
get
ited
ịhụ
ghị
truth
inter@@
aị@@
ks
obere
inye
ver@@
ay
ele
ij@@
ụghị
20@@
vi@@
Israel
ekp@@
find
Setan
ùgwù
Word
St@@
ikwu
Al@@
ast
go
Devid
oc@@
Ọtụtụ
today
though
ality
gịnị
Do
ọch@@
right
nwụrụ
anc@@
ọpụta
ịch@@
ish@@
ati@@
ily
ang@@
200@@
mat@@
ọnwụ
study
Luk
One
nso
To
app@@
ee@@
pos@@
no@@
N
great
ub@@
ọgbakọ
etara
Ọ̀
and@@
karịrị
say
However
fac@@
Satan
est@@
ain
ibu
ọnọdụ
zu
3@@
Luke
book
ofufe
bara
ntụkwasị
ently
kọ@@
keep
n’ọgbakọ
ebighị
ile
too
go@@
ọmụmụ
nta
So
wa@@
apostle
mmasị
human
Mar@@
part
acc@@
ọcha
ement
brothers
Eze
sa@@
doro
Acts
gi@@
ical
kasị
Proverbs
ving
jo@@
N’oge
eri
tly
32
apụ
son
against
ved
aw@@
An@@
tre@@
prov@@
n’ọ@@
nkwa
Ụ
apụta
akpa
á@@
ist
ọm@@
ry
wh@@
himself
learn
nkw@@
x@@
hi@@
siri
ates
onyeozi
less
ref@@
ezie
0
chere
ga@@
word
home
okè
.@@
fir@@
ana
same
ahụhụ
Nna
ked
Jud@@
N’ezie
les
ce
dịrị
sed
bl@@
ihu
egh@@
out@@
place
serve
never
let
▪
ever
Some
okenye
often
agwa
id
buru
Gị
bo@@
wrote
why
show
gbu
34
ukwu
akpọ
iti@@
led
fin@@
ịt@@
Hibru
means
our@@
ition
Adam
mil@@
important
T
n’etiti
atụrụ
ire
der@@
course
At
nweghị
achị
ọgwụ
After
faithful
n’ọrụ
act
puku
ọbụna
r
Father
vis@@
ụk@@
ud@@
red
te@@
udo
amụ
pr@@
au@@
4@@
ined
akwara
sin@@
n’ezie
,000
Is
view
ọs
35
enụ
ered
nwekwara
ugboro
ọn@@
want
ụmụaka
Corinthians
set
10@@
8@@
òtù
ókè
dep@@
ose
every
agụ
ard
ov@@
n’ala
put
enc@@
Isaiah
inyere
N’agbanyeghị
mind
became
ni@@
ekwesị
ịkp@@
sub@@
worship
gbasara
ect
ow
wife
olileanya
came
kere
fl@@
Juu
ahịa
anye
bị@@
eru
osisi
gosi
gra@@
ans
ug@@
ọl@@
ụba
sec@@
Timothy
arịa
n’obodo
Timoti
New
the@@
37
let@@
awa
ngwa
There
ors
In@@
ong@@
ministry
ọmụma
ei@@
chi
any@@
tic@@
9@@
so@@
ities
NA
reg@@
live
ments
told
Daniel
hà
bel@@
40
Ụlọ
Be@@
ist@@
down
ọgb@@
eal@@
upon
mmanụ
ụgharị
expres@@
tic
ms
U
njọ
ikwa
ìgwè
str@@
away
days
eluigwe
under
land
news
kwu@@
od
requ@@
cor@@
nch@@
Samuel
ṅ@@
ran@@
n’elu
ọṅụ
Ez@@
back
la
Con@@
gaghị
Gụọ
ọkwa
Jisọs
malite
inv@@
fully
among
ọsọ
zie
mfe
By
hope
later
cr@@
kọrọ
ion
jụrụ
began
ue
atara
still
br@@
doing
during
holy
ey
sure
yed
amamihe
knowledge
ime@@
called
ụkpụrụ
á
ial
aghara
given
ho@@
ways
mmetụta
por@@
nn@@
ened
ized
preaching
aba
pụ
asụsụ
enweta
n’agbanyeghị
n’akwụkwọ
ind@@
ụkw@@
power
mme@@
hie
gwa
gave
long
On
met@@
rel@@
With
ịkw@@
while
gide
nweta
nzukọ
ory
og@@
eje
Sh@@
Jenesis
mo@@
father
aghaghị
akpata
uwe
however
itere
Genesis
gl@@
usoro
My
Scriptures
ụgwọ
ụla
rụrụ
Ụfọdụ
year
child
ill
199@@
themselves
vers@@
atten@@
abịa
ght
Kama
living
Romans
ndụmọdụ
ta@@
mm@@
àmà
ular
ajọ
disciples
ikike
ije
Y
Many
n’ahụ́
Our
marriage
ch
kwu
ship
So@@
century
egb@@
service
She
ekwara
making
ebere
gbo
ver
without
eere
Ab@@
fact
bụkwa
amaghị
du@@
ụgha
felt
Lee
ut
ụgbọ
ne@@
akụkụ
ety
Read
mor@@
consider
ian
tal@@
if@@
His
akọ
three
op
ịnụ
Mkp@@
ea@@
ịzi
n’A@@
ụtara
happ@@
ad
iso
always
tor@@
à@@
King
reas@@
lee
Mmadụ
ekwesịghị
ụs@@
ibi
rep@@
ipụta
Ar@@
ative
egbu
early
wep@@
sitere
AR@@
ede
look
baptizim
ekpe
mother
inc@@
inweta
um
Iji
order
n’eluigwe
um@@
à
beh@@
․
took
àjà
peace
both
Gal@@
ast@@
Pro@@
peeji
den
biri
n’ọnwụ
co@@
ọchị
isii
tain@@
think
ikp@@
ịma
whom
14@@
ọg@@
appreci@@
n’ọnụ
ase
Mozis
Sp@@
ote
personal
to@@
ages
humans
fellow
Then
ọdị@@
self
isiokwu
asịrị
Mkpughe
something
ef
ear
ture
asked
sy@@
ìhè
anw@@
nor@@
thing
ebube
ication
om
AN@@
ea
ụkwụ
Revelation
really
ys
sol@@
respon@@
ences
Nw@@
iko
aj@@
United
0@@
ests
possible
st
add@@
ive
reason
Yet
concer@@
ọgụgụ
cho@@
ịza
ove
Wh@@
Let
ugwu
house
encourag@@
servants
Yes
ask
50
ewe
woman
bur@@
ịgba
ering
cont@@
jec@@
int@@
face
As@@
fe@@
ple
hand
,@@
mata
between
ns@@
agw@@
nwanna
ns
dum
sur@@
Kọrint
D
James
tim@@
mmụta
ọr@@
tụrụ
mankind
together
Even
fa@@
ke
kacha
ụkọ
having
aṅaa
ree
ell@@
appro@@
real@@
ost
nwe
Jerusalem
prayer
ously
here
olee
ps
ining
ths
fied
n’ozi
ọtara
we@@
ọpụrụ
husband
Ụwa
nj@@
ughị
sig@@
produc@@
karị
de@@
loc@@
outh
pụt@@
ain@@
Ga
iny@@
ada
ood
ON@@
learned
da
onyinye
future
friends
efu
ser@@
sel@@
ọchịchọ
ually
Ime
Moses
food
arịrị
pa@@
chọ@@
ters
med@@
form
religious
ịrụ
dr@@
kwụsị
Ị̀
toward
article
Mor@@
bụrụ@@
her@@
ọdụ
obiọma
helped
questions
Ike
perfect
ished
lov@@
akụziri
gos@@
ingly
nwayọọ
try
joy
nyeere
ohere
happy
bu@@
sin
pol@@
mmekọahụ
umeala
mkpọrọ
From
38
result
exc@@
experience
ugh@@
little
hu@@
Your
abalị
ọbara
All
ible
wise
all@@
ekwusa
someone
deli@@
side
ven@@
CH@@
tem@@
asi
f
point
ature
Re@@
ọd@@
nkwusa
Son
36
Hebrews
nde
ekele
few
beg@@
utere
sup@@
kweere
relationship
ip@@
purpose
tiv@@
N’ụzọ
chang@@
00
giving
known
sie
city
lead@@
ọnwa
care
ogologo
KW@@
mon@@
cap@@
ọkà
meetings
problems
under@@
number
ome
39
asaa
loving
metụtara
ged
bring
ner
ịta
Site
States
eng@@
mod@@
abata
ewo
ong
ruru
Abraham
per
L
includ@@
died
ụgh@@
eli@@
ears
discus@@
Iwu
zu@@
ress
using
ụsịrị
wee@@
needed
abị@@
akpali
better
def@@
ụkwa
dịkwa
yourself
mes@@
eful
left
publ@@
cha
best
stan@@
Na@@
tain
45
ụma
close
sch@@
ụsị
wisdom
again
ịba
ịghọta
wicked
apụghị
eas@@
gar@@
emekwa
less@@
N’eziokwu
kwesị
practic@@
im
okp@@
bụkwanụ
IN@@
rul@@
agụụ
dev@@
uc@@
ets
ezu
gọ@@
Isi
izu
done
Matt
kl@@
These
assig@@
nnukwu
yi
ution
nzube
ir
soro
gener@@
ú@@
ịmụta
tere
enyemaka
lives
ould
ind
ward
heaven
5-@@
moved
att@@
anyere
different
language
elekọta
pas@@
nkịtị
righteous
och@@
mechara
ụmụ@@
serving
ghịkwa
z
women
mmanya
kwá
Mat
n’akụkụ
ack
ikpeazụ
n’ị@@
ò@@
mbọ
ational
Israelites
light
direc@@
matter
À@@
ejere
cer@@
EN@@
associ@@
No
nr@@
following
ụtụ
ca@@
row
ron@@
share
beghị
brother
guz@@
teach@@
ens
counsel
water
off
understand
bad
eyes
don
ebara
NDỊ
continue
went
mgbakọ
hapụ
pleas@@
Per@@
certain
w
ighị
Com@@
last
ụkwasị
obibi
gburugburu
thr@@
milli@@
bro@@
3-@@
ell
Kw@@
THE
message
exp@@
anointed
Oge
support
ekọ
de
ghọta
thy
n’ụbọchị
ided
dra@@
awo
ṅụ
sk@@
school
ten
ants
Unu
hard
believe
Mark
pra@@
tur@@
kpe
uk@@
plac@@
Ọkpara
likely
kind
mesịrị
transl@@
sc@@
ening
vic@@
n’okpuru
gụ@@
teaching
Efesọs
members
trib@@
ịmata
ick@@
ach
feelings
n’ike
bi@@
wr@@
ident
lim@@
ens@@
tu@@
ourselves
states
cannot
serv@@
iro
nọ@@
ures
conf@@
dem@@
ò
self-@@
ozizi
Jeruselem
Ee
desire
bas@@
Jems
kemgbe
going
iyi
gre@@
44
aghachi
peri@@
change
ines
chọọchị
dom
agbata
money
ubi
O.A
present
enjoy
ụgbọala
nor
cri@@
Although
ụka
Because
ort
Tr@@
ọọrọ
n’onwe
chọpụtara
Mak
ụ̀
n’asụsụ
prove
mag@@
nọrọ
kwe
sim@@
World
mkpebi
IHE
spe@@
respect
2-@@
und@@
answer
situation
since
ands
kwes@@
18@@
ign
abara
ancient
body
Onyenwe
Ma@@
fear
oted
n’isi
agụ@@
Ak@@
avoid
emb@@
mama
kpeb@@
Who
Mere
heavenly
osp@@
baptized
olog@@
ject
akụ̀
thought
ins
speak
ourage
trac@@
star@@
ikw@@
ious
ụl@@
Those
received
ochi
dee
oy@@
enti@@
benefit
ES@@
akụzi
soci@@
Ju@@
Ser@@
hear@@
ead
look@@
elders
dia
talk
reading
42
ụjọ
Amer@@
oj@@
fre@@
H
ọha
sense
oned
isi@@
parad@@
Does
chọọ
nkà
MA@@
nations
kọwara
set@@
ịl@@
lead
position
Pr@@
iga
fọrọ
iness
ụra
hon@@
Jo@@
far
Di@@
nu@@
ond
saw
mmekọrịta
know@@
difficult
account
nlereanya
high@@
tice
see@@
illustr@@
Lord
around
ren@@
writ@@
learly
Can
needs
gụnyere
nwanne
Consider
chọpụta
cause
hab@@
ọsụ
agadi
ule
ath
born
egharị
ism
adv@@
served
pris@@
upụta
fine
health
ists
Aịsaịa
ozugbo
occ@@
6-@@
thus
help@@
case
form@@
especially
streng@@
attention
ghọọ
Tim
ịnọgide
rị@@
mean
char@@
ye
ides
saying
knew
fulfill@@
ern@@
IT@@
N’otu
yp@@
urịta
system
bir@@
ick
ili
wo@@
ately
married
answ@@
ER@@
until
v
temp@@
including
mi@@
olu
uni@@
col@@
Ozi
n’uche
sive
stu@@
ajụ
ough
eal
iting
sing
law
nọgide
turned
next
mụtara
mmalite
succ@@
Thus
real
pati@@
̣t@@
7-@@
ikom
free
akịrị
ple@@
yet
Are
achiri
nation
njikere
ites
receive
ica
sal@@
Ad@@
ised
person@@
trust
soon
wrong
ụb@@
along
taking
brought
principles
ented
Ah@@
nwụ
Of
thinking
cond@@
Greek
turn
ERE
Bet@@
ani@@
follow
alaeze
amụta
benef@@
Ebreham
makes
anger
kindness
akọwa
mgbalị
echeta
Mm@@
ịmụ
ịnọ
ọla
41
alụ
gban@@
pụọ
Bro@@
consci@@
da@@
godị
night
ụ́
ọgụ
aị
achara
bre@@
ust@@
conduct
question
ịchọ
thers
n’ọnọdụ
attitude
ịgh@@
ita
wanted
grow@@
fru@@
Ephesians
gwu
increas@@
ep
gbas@@
allow@@
Gre@@
Since
aịa
oo
ali
ahụ@@
Such
ached
rụ@@
suffering
expl@@
comman@@
akwado
provide
ision
43
Maka
reli@@
ound
Jews
ígwè
religion
sions
mech@@
agbọghọ
esiri
aya
arụ@@
obedi@@
ịs@@
poss@@
Be
reflec@@
dead
Ex@@
Africa
emere
ba
clos@@
ege
fes@@
affec@@
ired
fo@@
eless
igh@@
tion@@
ility
kpere
vir@@
Law
prophet
small
arri@@
Am@@
oriri
idere
ngwá
tor
ụkp@@
doc@@
gaf@@
En@@
blood
lands
While
alụmdi
liter@@
beli@@
arị@@
taught
oss
ularly
Solomon
Ụzọ
emo@@
uzosi
kwukwara
ọgh@@
Joseph
n’okwu
sent
Par@@
Ụmụ
Ps
indic@@
individuals
high
uch@@
tụ@@
followers
amara
asatọ
ling
ola
ches
ịghị
Bib@@
develop@@
akwu
ested
sons
pray
strong
dre@@
Today
At@@
gen@@
kpọmkwem
ental
teach
conven@@
ghọtara
njem
earth@@
Nzukọ
Watchtower
Ob@@
Wor@@
ust
ability
group
acha
friend
sụgh@@
Bụ
bus@@
Nche
control
ults
els
ded@@
itions
Creator
remain
See
Ndụ
satis@@
TI@@
ja
nothing
Ver@@
ili@@
ustr@@
taken
ọzụzụ
n’ezi
ngw@@
dies
instruc@@
dara
kpebiri
gwụ
nyị
proved
gbaa
Mụ
ably
El@@
N’afọ
whether
W
valu@@
war
gives
kpatara
mụ@@
shar@@
coun@@
mission@@
gasịrị
è
nọgidere
coming
60
ems
eas
hous@@
nụrụ
Is@@
special
empl@@
my@@
ring
195@@
ey@@
R
ires
ila
alf
table
mentioned
great@@
ọs@@
comes
ịgwa
C.E.
fav@@
works
Can@@
Jerema@@
ogbenye
educ@@
ghọrọ
Josef
osimiri
papa
Rather
involved
tinyere
occas@@
òkè
responsib@@
expec@@
kpam
older
nz@@
IS@@
illi@@
nghọta
lec@@
alon@@
ured
ụnụ
daugh@@
whole
Anya
cheta
amaokwu
Jeremiah
det@@
lies
ado
okorobịa
qualities
é
listen@@
ians
Grik
enjo@@
matters
aịs
deg@@
GB@@
verse
wide
recogn@@
gaara
zuo
n’iwu
refer@@
kụziri
nlekọta
atch
inst@@
̣
move
heard
ịkwara
Nwanna
fec@@
ezighị
similar
Le@@
exerc@@
dab@@
chap@@
wara
physical
̣@@
anyanwụ
izi
loved
stud@@
ans@@
seen
tụlee
pla@@
n’ọdịnihu
uses
n’ezinụlọ
kwad@@
disc@@
aru
invol@@
aghịkwa
temple
material
mwute
Ijipt
ne
mov@@
rit@@
s.
Ama@@
pite
pass@@
Ekwensu
div@@
becom@@
information
ịchị
eph@@
simply
RE@@
karịsịa
Not
ịtụ
On@@
aso
ann@@
ịd@@
Rus@@
four
earing
okwa
everlasting
ịgụ
based
ngọzi
sm@@
protec@@
atụ@@
ever@@
Brit@@
gbal@@
According
n’Ụlọ
During
osi
ekweghị
den@@
effec@@
consid@@
KA
view@@
itive
cal@@
eep@@
pụkwara
ope
ezughị
jupụtara
vo@@
false
conc@@
rema@@
ass
page
minis@@
die
shows
gir@@
sisters
ically
anet
nwetara
ube
Mmụọ
sing@@
ANY@@
Egyp@@
stand
ebu
ant@@
ịjụ
exam@@
leg@@
ewere
trans@@
AL@@
ony@@
righteousness
amasị
ese
meekwa
ọnwụnwa
certainly
juru
uju
local
ọkp@@
iru
Òtù
Germany
nkụzi
Devil
cop@@
onyeisi
ext
People
pursu@@
ict
edu@@
stri@@
once
Now
interest
arịta
clear
truly
Lev@@
spiritually
esịrị
í
Mary
gụọ
n’ógbè
sacrifice
tell
Li@@
uz@@
OR@@
pur@@
tures
allow
full
inspired
fy
ì@@
promise
past
bib@@
repor@@
egwú
equ@@
Nwa
posed
eke
n’eziokwu
Ná
ater
igbu
ink
gha
wid@@
tle
Ezi
Tupu
Mal@@
ì
slave
takes
aịka
mbà
etinye
wal@@
country
started
hor@@
resurrection
erg@@
ụso
some@@
apostles
neigh@@
Ọzọkwa
akarị
necess@@
according
ert
ịz@@
kingdom
eli
asụ
May
Fr@@
work@@
pp@@
nment
inten@@
hapụrụ
mgbanwe
ndịozi
stor@@
saf@@
duc@@
oke
arrang@@
Gr@@
oll@@
n’Akwụkwọ
strength
anwe
megide
idi
wit@@
ago
happiness
ịh@@
Ọnụ
Ò@@
ọghị
nwata
leave
amalite
action
chaa
n’isiokwu
hol@@
gain
ụlite
lost
eb
inyom
contr@@
Ezi@@
tell@@
lived
anyone
ace
large
ulation
fe
atụm@@
emet@@
48
reveal@@
fail@@
Hebrew
Will
alls
Cor
bor@@
Taa
nche
ọm
circumstances
rap@@
struc@@
evidence
deep@@
hur@@
problem
iel
Bab@@
ndọrọ
ṅomi
effort
aṅ@@
already
Chris@@
4-@@
serious
meaning
ot
lear@@
ties
ces
eat
F
–
ican
rụọ
put@@
Like
foc@@
agbalị
ọ́
198@@
understanding
unity
nchegbu
thous@@
ọrịta
tually
naghị
imag@@
he@@
ses
iding
emezu
comfort
cons@@
return
●
rac@@
accept
sister
ower
Eli@@
ntụ@@
Gen@@
fles@@
Kọr
agide
Kọrịnt
e-@@
of@@
imp@@
sight
Sep@@
ful@@
common
70
reason@@
commun@@
esa
public
near
jud@@
efforts
magaz@@
io
Oké
achọghị
divine
provided
46
ool
ịka
second
kwus@@
hold
earch
em
ics
named
cam@@
kwekọrọ
kept
arly
dịịrị
standards
baptism
è@@
rather
written
mkpagbu
tru@@
edly
meere
conv@@
destro@@
than@@
Si
dabeere
ook
feel@@
Onyeàmà
Des@@
sl@@
enem@@
loyal
ife
gift
chara
n’ọtụtụ
sia
ù
Sam@@
Ph@@
vol@@
heal@@
ices
ra
tụnyere
weere
zara
bal@@
wake
rule
sugg@@
psal@@
gburu
ù@@
ital
ember
Sa@@
godly
showed
world@@
working
Noa
TH@@
ewep@@
lụrụ
ọgwụgwụ
anything
ịcha
clean
ụnanya
⁠
say@@
nduzi
believers
ịrịọ
os
ech
hi
emebi
ws
Still
Ther@@
immor@@
proc@@
dom@@
crow@@
effect
gụ
arm@@
pop@@
Europe
perhaps
mas
é@@
pros@@
kpọ@@
akwanyere
oyi
sacrific@@
ọdachi
res
akwụsị
oleekwa
ought
read@@
line
iw@@
An
travel@@
port
Roman
God@@
ential
challeng@@
play
Parad@@
proph@@
speaking
prayers
ours
fic
Aịzaya
appointed
ders
sheep
ES
AG@@
shi@@
book@@
longer
imitate
hia
claim@@
regarding
ogige
ake
eep
Bar@@
vely
greater
ahapụ
got
ger
ended
Instead
egwuregwu
ghachi
persec@@
promis@@
pic@@
aza
Their
ufe
dọkịta
year@@
otuto
months
prepar@@
mal
Un@@
Noah
mit@@
cas@@
ements
Ji
egosipụta
oin@@
history
bac@@
powerful
within
Ok@@
hom@@
forever
aghọta
itation
mụta
ith@@
therefore
doubt
congregations
meeting
fic@@
promises
ale
stat@@
Jewish
tors
waa
doo
ọgaranya
ER
Iv
ewu
N’i@@
well-@@
nchụàjà
itu@@
65
ount
nzu@@
issue
asa
mate
ls
Car@@
value
aṅụ
head@@
held
ụkwara
itical
apụt@@
dist@@
iah
origin@@
contrib@@
confidence
ease
tation
banye
Messi@@
olic
tern
accompl@@
ffer
Babyl@@
stated
ourag@@
justice
Fir@@
prophecy
pioneer
soul
foret@@
Qu@@
erubere
ọdịmma
V
authority
Aka
truc@@
continued
kwà
WH@@
new@@
ilities
emer@@
itinye
magazin
ilite
standing
lied
opportunity
uted
ligh@@
humb@@
area
anị
helps
everything
anụmanụ
demonstr@@
Sim@@
remember
shall
zo
ail@@
Nwere
ean
deep
privilege
Did
ground
event@@
believ@@
dị́
sle@@
odide
cov@@
Her@@
Indeed
gụrụ
fer@@
alaka
ends
spoke
adịrị
ịm@@
sequ@@
cy@@
Mba
í@@
Filipaị
cul@@
Ugbu
edebe
tains
kọ
ụgb@@
ak
full-time
atever
alone
ego@@
ndokwa
overse@@
magburu
establ@@
advice
explained
experienced
sw@@
sla@@
ọwa
blessings
lier
rup@@
appear@@
ly@@
gri@@
che
anx@@
ịkwụsị
e.
uth
accep@@
iber@@
n’otú
ụlọ@@
Witness
Any@@
building
sor@@
harmon@@
Ana
ndú
heavens
ina
ojii
maj@@
EM@@
ọmịiko
LE
prot@@
Hence
discipl@@
hands
willing
activities
OU@@
prog@@
ord
agbanwe
pers@@
Dis@@
relati@@
apply
gbe
gbuo
friend@@
ụda
pages
organization
distr@@
B.C.E.
Ịl@@
Katọlik
hearts
thoughts
atụle
Cath@@
instance
buil@@
astis
tọrọ
ọnọmi
ebibi
role
listen
Ecclesiastes
witness
blessing
examples
decisions
malit@@
long@@
offer
hear
English
percent
ọhịa
conclud@@
onal
Deuteronomy
pe
nh@@
Ech@@
preci@@
vid@@
edo
decision
baara
ọkọ
iti
rely
wezụga
eworo
GA
Mes@@
dri@@
shepher@@
maintain
ending
True
ched
ars
ịk@@
cur@@
Ij@@
din@@
bipụtara
vital
onwunwe
considered
rest
nnyocha
deal@@
pec@@
ges
draw
eekwa
ụm@@
York
Just
events
offic@@
hand@@
Bekee
etting
ọtọ
anọgide
av@@
guid@@
seem
ensị
47
cour@@
kpal@@
success@@
government
adịgide
emeso
declar@@
students
ụụ
actions
deb@@
sọ
field
ụbeghị
preach
ido
pray@@
moral
row@@
ico
published
rev@@
Pol@@
azi
nkume
cultiv@@
Scriptural
Intern@@
8-@@
partic@@
poor
Life
church
15@@
head
Ọch@@
anihu
re
edi@@
Joshua
ahụmahụ
ụrụ@@
Jap@@
tou@@
eful@@
kar@@
honor
TO
jọ
Sch@@
JEHOV@@
identi@@
agwọ
wonderful
various
aghụghọ
mal@@
rich
countries
jik@@
call@@
Ha@@
mirac@@
cle@@
Bra@@
glory
determined
wel@@
ising
influence
kụ@@
cy
seek
ịkpọ
teachings
som
9-@@
Rev@@
deal
couple
Colos@@
ejighị
ịlụ
available
remin@@
Dec@@
whose
ukwa
explains
neg@@
ịda
Tụ@@
France
famil@@
Jac@@
angels
Meri
enge
le-@@
formed
reach
ịkpa
worshipp@@
ndidi
aul
kụziiri
faith@@
119
medi@@
ications
Afọ
natural
tara
Ukwu
na@@
eration
atch@@
speci@@
righ@@
ABỤ
ING
accepted
Fin@@
Have
Fa@@
ED
akwuru
Ano@@
direction
Eve
ped
oughout
ịtụkwasị
several
moun@@
easy
agọ@@
recorded
lar@@
azar@@
ikwusa
vation
Int@@
ships
nwet@@
ri
arịọ
ọpụtara
Kọlọsi
ekarị
source
met
activity
wants
call
ọlite
branch
zụ
esonụ
described
etiti
kil@@
survi@@
egrity
gba
nific@@
jus@@
eight
KE
hun@@
sians
sexual
jụọ
ID@@
Exodus
NKE
sci@@
del@@
U.S@@
enough
compani@@
surpris@@
lik@@
gab@@
mus@@
med
ikwe
complete
princi@@
violence
resp@@
Neh@@
urity
kpeazụ
55
itoolu
Man@@
ó@@
Philippians
Gilead
erela
scrip@@
echi
clus@@
Sọl
step@@
oo@@
eela
everyone
agharị
Pụrụ
eduzi
further
judgment
n’Okwu
build
fill@@
Kp@@
apụrụ
Ọpụpụ
walk
progra@@
not@@
tional
regard
mist
prom@@
Jos@@
fect
fore
ur
fee@@
loy@@
□
ult
vil@@
gover@@
nihu
differ@@
fam@@
ff@@
devel@@
organ@@
bless@@
HO@@
alite
zọ
aching
show@@
dar@@
ense
spir@@
individu@@
kụzi@@
follow@@
Col@@
resurrec@@
aking
eed
pione@@
won@@
Ì
bụna
efore
viol@@
orobịa
prac@@
ft
emgbe
kọta
imm@@
langu@@
pi@@
ews
spec@@
ubere
determin@@
Ac@@
Ò
hu
ous@@
continu@@
cent@@
hap@@
chall@@
oth
sac@@
poin@@
ody
experi@@
kwuu
centur@@
ith
ocha
ru
po@@
agbu
ú
ual
pose
val@@
ure@@
ozu@@
K
your@@
ames
ew
egos@@
ready
haps
Mos@@
Engl@@
prin@@
hist@@
ụn@@
kwụkwọ
tụta
nec@@
Jeh@@
will@@
ekọrọ
nesses
Solom@@
̀
ụjụ
unye
No@@
suffer@@
sogbu
gan@@
kpara
igwe
itate
crip@@
complet@@
ezi@@
lis@@
self@@
uku
DỊ
nụ
ek
ness@@
De@@
member
gbakọ
circ@@
inụlọ
ekọta
Jer@@
ouse
C
esi@@
cou@@
qual@@
Ndị@@
mber
Ger@@
author@@
uring
sou@@
ụzụ
influ@@
cla@@
hel@@
vel@@
lu
oung
pow@@
oub@@
dren
anci@@
itude
Deuter@@
reat@@
urch
main@@
Christi@@
Lu@@
ogb@@
describ@@
import@@
jụ
selves
nle@@
ịọ
egw@@
issu@@
Ó@@
ques@@
Mo@@
Afr@@
thor@@
hea@@
grou@@
Ca@@
isions
kwukwe
situ@@
inw@@
respons@@
worshi@@
akụ@@
var@@
mbers
gwọ
ikere
phys@@
È
onom@@
int
omi
recei@@
gwà
cent
ples
ụj@@
Tim@@
ema@@
conduc@@
mater@@
arding
idu@@
ụgbọ@@
well@@
ọsi
mean@@
disci@@
ys@@
Iz@@
upụtara
eak
pap@@
enced
Ekw@@
alị
privil@@
compl@@
’@@
—@@
ld@@
P
lasting
n’okp@@
anted
Ú
lood
prob@@
zizi
ógbè
chil@@
ọh@@
okpu@@
religi@@
kind@@
odo
opport@@
ụzi
ụnna
judg@@
pụ@@
ụàjà
sion@@
eve
Isa@@
gbè
ọchịch@@
ization
ndị@@
À
AB@@
prophec@@
Pe@@
ept
uel
Do@@
mma@@
doub@@
Aị@@
Ind@@
nọg@@
onụ
ọgw@@
knowled@@
ousness
lic
atọ@@
diffic@@
one@@
ọl
00@@
Israel@@
HE
Jes@@
wis@@
spiritu@@
nwụ@@
ọz@@
can@@
ii
uch
every@@
arr@@
leekwa
mw@@
wic@@
wu
X@@
$
ju
led@@
ughe
:@@
tural
ʹ@@
Ì@@
emiah
usa
apost@@
fal@@
La@@
B
nee@@
jọọ
©
fur@@
Sat@@
uter@@
husb@@
crib@@
ben@@
Cor@@
uto
isters
◆
dụ
eld
ich
The@@
gwù
kwanụ
Ec@@
itud@@
tro@@
ffic@@
J
sid@@
Jehov@@
fell@@
ially
Ro@@
wonder@@
avo@@
with@@
zed
ven
ointed
nam@@
bs
ether
ame
relation@@
Ony@@
tow@@
gọzi
Ù@@
Ọz@@
Eur@@
Onye@@
las@@
ü@@
port@@
Ṅ@@
Joh@@
ileanya
Bec@@
Scrip@@
Philipp@@
inspir@@
ough@@
contro@@
Mat@@
ave
bet@@
ince
mak@@
simil@@
·
nwụnwa
ource
Nzu@@
exer@@
him@@
nat@@
Kọ@@
kè
Á@@
fri@@
rik
angu@@
ụmọdụ
kọrịta
·@@
G
circum@@
Chin@@
greg@@
ffer@@
nyocha
Ephes@@
recor@@
ọgide
mir@@
sage
thin@@
ange
ld
inform@@
gwè
Ụl@@
Corin@@
orig@@
Dev@@
ekwes@@
Ọt@@
Q@@
contin@@
n’ọdị@@
gg@@
yl@@
sex@@
mihe
erful
Af@@
uigwe
flu@@
Pet@@
æ@@
bụl
Ot@@
marri@@
idence
ugb@@
fel@@
them@@
Ú@@
syst@@
emaka
sis@@
ã@@
ụsụ
zim
sever@@
certain@@
ala@@
though@@
Inst@@
activ@@
agbany@@
epher@@
god@@
.A
ogi@@
wu@@
Aịz@@
full@@
ucc@@
ụgwụ
ural
,00@@
abl@@
ö@@
tries
ok
hè
jà
Í@@
tak@@
JE@@
eanya
E.
explain@@
ler@@
Psal@@
gh
forts
raị@@
Josep@@
ó
/@@
fut@@
Nwan@@
deter@@
ụmahụ
fort
Mma@@
stances
ʹ
ịtị
isten
irc@@
bran@@
congreg@@
mà
|
Sol@@
kno@@
sat@@
rụ
ologo
tism
ñ@@
%
ụga
etan
Rom@@
Á
ụmdi
accor@@
Moz@@
uregwu
til
clud@@
ause
simp@@
ịsịa
ou
&
Gil@@
ogether
-time
Accor@@
ô@@
ndu@@
lit@@
X
kọahụ
foll@@
◯
ogn@@
❑
Dav@@
tower
saịa
Eph@@
lereanya
ul
Wit@@
meala
onomy
U.@@
bapti@@
obịa
usb@@
agbọgh@@
ugburu
adi
Yor@@
hum@@
nwa@@
ham
°
ị́
dokwa
urrec@@
ọkịta
ather
bap@@
Baị@@
Dani@@
Watch@@
Consid@@
É@@
demon@@
Filip@@
q
ç@@
ł@@
nwan@@
✔
ezụga
eeji
upu
→
ciples
lik
ịiko
j
É
dividu@@
ito@@
ä@@
meet@@
ught
augh@@
È@@
ween
sel
yọọ
○
ople
_@@
Í
ê@@
egr@@
rel
ụghọ
menti@@
Heb@@
ọmkwem
Z
ticle
Ù
othy
astes
overbs
heaven@@
pub@@
Abrah@@
ë@@
Corinth@@
❖
pụpụ
fice
Ala@@
gbur@@
Hib@@
ë
⇩
Creat@@
č@@
righte@@
❏
ensu
obi@@
ụmanụ
>
ʼ@@
q@@
esis
#
▸
avail@@
B.@@
clesi@@
ekee
proble@@
Š@@
Eg@@
fọdụ
ה@@
ʽ@@
ה
akụk@@
ịnị
י@@
ו@@
bec@@
ā@@
â@@
■
Ecclesi@@
espec@@
®
↓
kwem
Jew@@
standar@@
←
Q
Philip@@
Kọl@@
brah@@
ł
◇
=
evel@@
Jerusal@@
HOV@@
ś@@
š@@
↑
ń@@
⇨
ū@@
C.@@
onye@@
£
―
ø@@
ş@@
Ž@@
Hebre@@
ī
ß@@
ă@@
̩@@
ịnt
ľ@@
Jis@@
_
again@@
oura@@
Ó
onwu@@
Matthe@@
ę@@
oti
ý
\
−
‘@@
odus
î@@
rom
ṭ@@
ě@@
פ@@
hua
agbanyeghị
ạ
נ@@
ש@@
ׁ
⁄
ï@@
‛
Α@@
ä
ß
а@@
elem
Ü@@
ọmi
ē
­
΄
ż@@
å@@
☞
Ł@@
в@@
tù
raịst
Ḿ
Ã@@
ž@@
€
₦
ʼ
æ
Ş@@
п@@
р@@
и@@
н@@
י
enesis
ū
Jiz@@
Å@@
ő@@
ą@@
÷
ï
å
+
ã
Ń@@
ḿ
ţ@@
μ@@
▾
@
̆@@
̧@@
̗@@
Î@@
ö
Ö@@
⇧
ē@@
ṛ@@
Ḥ@@
ụgụ
Ô@@
Ç@@
ẹ
­@@
ṅ
ḥ@@
ý@@
ā
Isra@@
ỵ@@
û
ī@@
̀@@
Å
̆
apos@@
ü
ı@@
м
Ê@@
¡
â
ṣ@@
ť@@
ṇ@@
ź
<
œ@@
ř@@
Ż@@
Ä@@
imiri
ilip@@
Б@@
ж@@
і
atọlik
Ṭ@@
є@@
м@@
̇@@
о
о@@
е@@
с@@
т@@
и
і@@
д@@
х@@
ŭ@@
α
Č@@
ю
ǒ@@
⁠@@
ō
Jerus@@
™
ǒ
Ẹ@@
Revel@@
ọgar@@
ʺ
ů@@
ô
õ@@
◀
×
eazụ
̇
ạ@@
ḥ
▼
ş
